{
  "version": "1.0",
  "truncation": null,
  "padding": null,
  "added_tokens": [
    {
      "id": 0,
      "content": "<|endoftext|>",
      "single_word": false,
      "lstrip": false,
      "rstrip": false,
      "normalized": false,
      "special": true
    },
    {
      "id": 1,
      "content": "<UNK>",
      "single_word": false,
      "lstrip": false,
      "rstrip": false,
      "normalized": false,
      "special": true
    }
  ],
  "normalizer": null,
  "pre_tokenizer": {
    "type": "ByteLevel",
    "add_prefix_space": true,
    "trim_offsets": true,
    "use_regex": true
  },
  "post_processor": null,
  "decoder": null,
  "model": {
    "type": "Unigram",
    "unk_id": 1,
    "vocab": [
      [
        "<|endoftext|>",
        0.0
      ],
      [
        "<UNK>",
        0.0
      ],
      [
        "Ġ",
        -2.0240085605501825
      ],
      [
        ".",
        -3.4777916511780056
      ],
      [
        "Ċ",
        -3.530724549729591
      ],
      [
        ",",
        -3.606683388084899
      ],
      [
        "Ġthe",
        -3.756934546982557
      ],
      [
        "s",
        -3.855407939050597
      ],
      [
        "a",
        -4.307028016696979
      ],
      [
        "Ġof",
        -4.346035707994279
      ],
      [
        "-",
        -4.4210761159710685
      ],
      [
        "Ġand",
        -4.513321516160715
      ],
      [
        "Ġto",
        -4.523292745079221
      ],
      [
        "(",
        -4.707747192972413
      ],
      [
        "Ġin",
        -4.8009020677321494
      ],
      [
        "_",
        -5.075572413019675
      ],
      [
        "\"",
        -5.120885526350349
      ],
      [
        ")",
        -5.148522357545129
      ],
      [
        "Ġis",
        -5.220666533363527
      ],
      [
        "'",
        -5.32824767807892
      ],
      [
        "1",
        -5.340906926154048
      ],
      [
        "t",
        -5.374866593925379
      ],
      [
        "Ġthat",
        -5.38348099735617
      ],
      [
        "e",
        -5.399731087219324
      ],
      [
        "d",
        -5.414670852900738
      ],
      [
        ":",
        -5.415581419749845
      ],
      [
        "\\",
        -5.429114775860469
      ],
      [
        "2",
        -5.448018481136218
      ],
      [
        "Ġfor",
        -5.475221599247835
      ],
      [
        "I",
        -5.5416794363415995
      ],
      [
        "i",
        -5.564251002019494
      ],
      [
        "$",
        -5.566622789243182
      ],
      [
        "0",
        -5.591739895328097
      ],
      [
        "*",
        -5.618757177504985
      ],
      [
        "n",
        -5.64726141435807
      ],
      [
        "o",
        -5.714497433237751
      ],
      [
        "m",
        -5.716488709204405
      ],
      [
        "ing",
        -5.732618086216508
      ],
      [
        "Ġwith",
        -5.750138721222427
      ],
      [
        "{",
        -5.767369766851088
      ],
      [
        "=",
        -5.779616993740348
      ],
      [
        "/",
        -5.792320644645367
      ],
      [
        "ed",
        -5.8067995107601735
      ],
      [
        "Ġon",
        -5.919041935605254
      ],
      [
        "}",
        -5.932362064990539
      ],
      [
        "Ġbe",
        -5.976390986258686
      ],
      [
        "Ġas",
        -5.999936052633876
      ],
      [
        "Ġwas",
        -6.007804950712918
      ],
      [
        "Ġit",
        -6.034739156332368
      ],
      [
        "3",
        -6.041526873003686
      ],
      [
        ";",
        -6.068671935635379
      ],
      [
        "p",
        -6.069539021545696
      ],
      [
        "A",
        -6.077366943181088
      ],
      [
        "c",
        -6.102922483383244
      ],
      [
        "Ġare",
        -6.119053507138467
      ],
      [
        "Ġby",
        -6.13767630210266
      ],
      [
        "r",
        -6.139172817411474
      ],
      [
        "y",
        -6.145755638725337
      ],
      [
        "at",
        -6.154851899636142
      ],
      [
        "ly",
        -6.169154025273304
      ],
      [
        "b",
        -6.242894683412155
      ],
      [
        "Ġthis",
        -6.287972188485444
      ],
      [
        "âĢĻ",
        -6.303607966619726
      ],
      [
        "ĠĠĠĠĠĠĠĠĠĠĠĠĠĠĠĠ",
        -6.309895776907181
      ],
      [
        "Ġfrom",
        -6.312487428973936
      ],
      [
        "Ġnot",
        -6.312876852969243
      ],
      [
        "ĠThe",
        -6.315799332516386
      ],
      [
        "Ġyou",
        -6.317207246586062
      ],
      [
        "S",
        -6.317473025588896
      ],
      [
        "ĉ",
        -6.334621568156653
      ],
      [
        "f",
        -6.358935554792719
      ],
      [
        ">",
        -6.37131958107522
      ],
      [
        "Ġor",
        -6.37800181816432
      ],
      [
        "ĊĠĠĠ",
        -6.386973736579996
      ],
      [
        "4",
        -6.394138404830283
      ],
      [
        "Ġhave",
        -6.405189478389191
      ],
      [
        "x",
        -6.410577467621758
      ],
      [
        "l",
        -6.435577208209425
      ],
      [
        "Ġan",
        -6.460491361023742
      ],
      [
        "+",
        -6.482257427819558
      ],
      [
        "C",
        -6.5247529159426545
      ],
      [
        "<",
        -6.537332045063108
      ],
      [
        "5",
        -6.538671752616148
      ],
      [
        "[",
        -6.5729645829646195
      ],
      [
        "B",
        -6.586625652413389
      ],
      [
        "g",
        -6.604698484419661
      ],
      [
        "h",
        -6.6249717844276415
      ],
      [
        "Ġwe",
        -6.648600080365288
      ],
      [
        "v",
        -6.684580420059854
      ],
      [
        "k",
        -6.728326317800901
      ],
      [
        "Ġcan",
        -6.74066612089244
      ],
      [
        "Ġwere",
        -6.75718641202617
      ],
      [
        "ĊĠĠĠĠĠĠĠ",
        -6.778823043765213
      ],
      [
        "**",
        -6.79076195369559
      ],
      [
        "u",
        -6.794994819763463
      ],
      [
        "=\"",
        -6.806273757913766
      ],
      [
        "The",
        -6.812032196006067
      ],
      [
        "he",
        -6.81600707665414
      ],
      [
        "in",
        -6.825039537073534
      ],
      [
        "Ġwhich",
        -6.836662128768486
      ],
      [
        "Ġhas",
        -6.855537604263285
      ],
      [
        "?",
        -6.863041090526082
      ],
      [
        "Ġbut",
        -6.9323676315822365
      ],
      [
        "Ġwill",
        -6.949150484438677
      ],
      [
        ".\"",
        -6.963088485980212
      ],
      [
        "6",
        -6.972969020461072
      ],
      [
        "]",
        -6.973891647160622
      ],
      [
        "P",
        -6.976098755771238
      ],
      [
        "D",
        -6.990067889588499
      ],
      [
        "M",
        -6.994391328927428
      ],
      [
        "Ġall",
        -7.005409873183179
      ],
      [
        "T",
        -7.04229525151869
      ],
      [
        "R",
        -7.046090243255993
      ],
      [
        "Ġhis",
        -7.046403954222935
      ],
      [
        "E",
        -7.050642427652775
      ],
      [
        "Ġone",
        -7.054936567812392
      ],
      [
        "Ġif",
        -7.060332163771751
      ],
      [
        "F",
        -7.070588305963049
      ],
      [
        ").",
        -7.077685336097456
      ],
      [
        "re",
        -7.113152410924101
      ],
      [
        "Âł",
        -7.1260564101811035
      ],
      [
        "8",
        -7.147444786466471
      ],
      [
        "Ġthey",
        -7.155227745107419
      ],
      [
        "Ġtheir",
        -7.160056030720693
      ],
      [
        "er",
        -7.164075183005179
      ],
      [
        "_{",
        -7.169807292234376
      ],
      [
        "7",
        -7.1738230493706485
      ],
      [
        "Ġmore",
        -7.176966901082579
      ],
      [
        "&",
        -7.181070655770505
      ],
      [
        "^",
        -7.210428795243487
      ],
      [
        ");",
        -7.212935600158112
      ],
      [
        "N",
        -7.223534000076471
      ],
      [
        "Ġhad",
        -7.246167629446033
      ],
      [
        "L",
        -7.247721228718527
      ],
      [
        "H",
        -7.24992155424871
      ],
      [
        "Ġ$\\",
        -7.263866819272088
      ],
      [
        "Ġbeen",
        -7.267808101790157
      ],
      [
        "%",
        -7.272470001131367
      ],
      [
        "j",
        -7.273692562390407
      ],
      [
        "w",
        -7.290880507312552
      ],
      [
        "Ġyour",
        -7.2945201429962
      ],
      [
        "Ġalso",
        -7.297785656739261
      ],
      [
        "Ġwould",
        -7.308608308741064
      ],
      [
        "G",
        -7.314798449963904
      ],
      [
        "Ġthere",
        -7.325350184145075
      ],
      [
        "Ġout",
        -7.332843793816251
      ],
      [
        "Ġwhen",
        -7.334697701285753
      ],
      [
        "Ġabout",
        -7.342374535323142
      ],
      [
        "Ġtime",
        -7.353287289547847
      ],
      [
        "ĠIn",
        -7.361596687769888
      ],
      [
        "Ġother",
        -7.379509581418061
      ],
      [
        "z",
        -7.3868716140759965
      ],
      [
        "Ġdo",
        -7.393341027902364
      ],
      [
        "ĊĠĠĠĠĠĠĠĠĠĠĠ",
        -7.3954011128989325
      ],
      [
        "Ġwho",
        -7.3960380653873585
      ],
      [
        "9",
        -7.401423978841869
      ],
      [
        "</",
        -7.414754024367061
      ],
      [
        "Ġno",
        -7.418865915507043
      ],
      [
        "Ġmy",
        -7.423149319912399
      ],
      [
        "Ġup",
        -7.4345301678221745
      ],
      [
        "#",
        -7.436479009854171
      ],
      [
        "),",
        -7.440079844787334
      ],
      [
        "or",
        -7.4475682923555055
      ],
      [
        "[@",
        -7.448958092618341
      ],
      [
        "Ġthan",
        -7.463899732163151
      ],
      [
        "ĠâĢľ",
        -7.463976607637905
      ],
      [
        "|",
        -7.474398100993774
      ],
      [
        "{\\",
        -7.494987634779957
      ],
      [
        "K",
        -7.51025686212312
      ],
      [
        "Ġinto",
        -7.534123473455999
      ],
      [
        "type",
        -7.537376689148067
      ],
      [
        "U",
        -7.540280286786071
      ],
      [
        "Ġour",
        -7.559027552696973
      ],
      [
        "Ġlike",
        -7.559859858332201
      ],
      [
        "Ġher",
        -7.561721714908101
      ],
      [
        "Ġtwo",
        -7.572392858753622
      ],
      [
        "Ġany",
        -7.575081937629626
      ],
      [
        "Ġsaid",
        -7.579536770110982
      ],
      [
        "Ġonly",
        -7.5796713319646845
      ],
      [
        "Ġnew",
        -7.583148163767984
      ],
      [
        "Ġwhat",
        -7.595800954921749
      ],
      [
        "ĊĠĠĠĠĠĠĠĠĠĠĠĠĠĠĠ",
        -7.609147722023442
      ],
      [
        "on",
        -7.61921237710356
      ],
      [
        "Ġits",
        -7.620467558185924
      ],
      [
        "X",
        -7.620609154556954
      ],
      [
        "Ġsome",
        -7.622080155702914
      ],
      [
        "Ġmay",
        -7.629161458155085
      ],
      [
        "Ġover",
        -7.637829945267935
      ],
      [
        "al",
        -7.642704387760837
      ],
      [
        "----------------",
        -7.646533607598542
      ],
      [
        "J",
        -7.659760838297906
      ],
      [
        "ĠIt",
        -7.666301771315696
      ],
      [
        "V",
        -7.670601470244607
      ],
      [
        "Ġsuch",
        -7.671476786041508
      ],
      [
        "Ġfirst",
        -7.675444150818969
      ],
      [
        "ref",
        -7.67723609579784
      ],
      [
        "10",
        -7.679517210686075
      ],
      [
        "Ġthese",
        -7.694819907113121
      ],
      [
        "@",
        -7.70049576774224
      ],
      [
        "ĠThis",
        -7.701272006485606
      ],
      [
        "ĊĠĠĠĠĠ",
        -7.701870110213454
      ],
      [
        "Ġme",
        -7.709711177935851
      ],
      [
        "Ġget",
        -7.714280986621306
      ],
      [
        "W",
        -7.718219148825666
      ],
      [
        "to",
        -7.725750106166311
      ],
      [
        "Ġuse",
        -7.738192445945602
      ],
      [
        "Ġwhere",
        -7.742260425988464
      ],
      [
        "Ġun",
        -7.74391264572448
      ],
      [
        "q",
        -7.751172072414425
      ],
      [
        "Ġafter",
        -7.761197923023595
      ],
      [
        "Ġjust",
        -7.76873642747673
      ],
      [
        "Ġbetween",
        -7.781908677933757
      ],
      [
        "!",
        -7.792916671298402
      ],
      [
        "In",
        -7.806704158163386
      ],
      [
        "Ġcould",
        -7.813050040793655
      ],
      [
        "Ġused",
        -7.83951035426578
      ],
      [
        "is",
        -7.840605933193645
      ],
      [
        "~",
        -7.852057029558807
      ],
      [
        "ĠWe",
        -7.8564786189212334
      ],
      [
        "us",
        -7.8578688705920445
      ],
      [
        "able",
        -7.868592766160695
      ],
      [
        "Ġpeople",
        -7.872708459624725
      ],
      [
        "O",
        -7.874710147850479
      ],
      [
        "Ġshe",
        -7.890433289151584
      ],
      [
        "Ġdata",
        -7.89852191883819
      ],
      [
        "}\\",
        -7.904159709434547
      ],
      [
        "Ġthem",
        -7.91369942346746
      ],
      [
        "Ġusing",
        -7.926802053806975
      ],
      [
        "Ġbecause",
        -7.9287183189925745
      ],
      [
        "Ġshould",
        -7.932971602230129
      ],
      [
        "Ġunder",
        -7.935494848981996
      ],
      [
        "Q",
        -7.958850915145664
      ],
      [
        "->",
        -7.97922434940002
      ],
      [
        "Ġwell",
        -7.992175324735342
      ],
      [
        "th",
        -7.995544127871085
      ],
      [
        "Ġmost",
        -8.006464309127589
      ],
      [
        "Ġhow",
        -8.012248957339118
      ],
      [
        "Ġwork",
        -8.025957942592477
      ],
      [
        "Ġcase",
        -8.02826626120062
      ],
      [
        "){",
        -8.02832048965783
      ],
      [
        "right",
        -8.029855304820517
      ],
      [
        "Ġeach",
        -8.03424474321796
      ],
      [
        "ĠHe",
        -8.034672198367629
      ],
      [
        "Ġhim",
        -8.044367811645376
      ],
      [
        "Ġknow",
        -8.049736862039301
      ],
      [
        "Ġway",
        -8.050456328055217
      ],
      [
        "Ġmake",
        -8.058528716110352
      ],
      [
        "com",
        -8.068241710467966
      ],
      [
        "Ċĉ",
        -8.071523647317711
      ],
      [
        "12",
        -8.072314226082204
      ],
      [
        "Ġsee",
        -8.098161022813455
      ],
      [
        "left",
        -8.104199261052475
      ],
      [
        "Y",
        -8.105437516807571
      ],
      [
        "}$",
        -8.108709363885602
      ],
      [
        "frac",
        -8.109668755222614
      ],
      [
        "Ġclass",
        -8.112032215500605
      ],
      [
        "and",
        -8.112524042308657
      ],
      [
        "Ġthrough",
        -8.113173806791728
      ],
      [
        "Ġeven",
        -8.113331308509634
      ],
      [
        "âĢĿ",
        -8.116637674481886
      ],
      [
        "Ġsame",
        -8.123983872254156
      ],
      [
        "end",
        -8.13623542867151
      ],
      [
        "11",
        -8.14588550832375
      ],
      [
        "Ġthose",
        -8.152832905573856
      ],
      [
        "](#",
        -8.153576047723712
      ],
      [
        "Ġ10",
        -8.15477872494849
      ],
      [
        "Ġnow",
        -8.15683910605179
      ],
      [
        "()",
        -8.157357601703435
      ],
      [
        "Ġboth",
        -8.157474422453697
      ],
      [
        "Ġneed",
        -8.15981118702314
      ],
      [
        "Ġvery",
        -8.160162021089807
      ],
      [
        "Ġde",
        -8.161971140587438
      ],
      [
        "Ġdid",
        -8.168317642697744
      ],
      [
        "\">",
        -8.17440249752014
      ],
      [
        "Ġyears",
        -8.177666254559433
      ],
      [
        "the",
        -8.17826710231223
      ],
      [
        "ve",
        -8.17913671168099
      ],
      [
        "an",
        -8.179228144795507
      ],
      [
        "Ġdifferent",
        -8.185545770033455
      ],
      [
        "Ġbeing",
        -8.19278189168597
      ],
      [
        "Ġnumber",
        -8.198615937704766
      ],
      [
        "...",
        -8.199558262113218
      ],
      [
        "Ġmany",
        -8.199784104608666
      ],
      [
        "Ġreturn",
        -8.201554317504735
      ],
      [
        "Ġbefore",
        -8.206144869394468
      ],
      [
        "?\"",
        -8.209684157731681
      ],
      [
        "Ġback",
        -8.210758143898412
      ],
      [
        "\\[[@",
        -8.216000285802828
      ],
      [
        "âĢī",
        -8.217869669812185
      ],
      [
        "--",
        -8.237356969446108
      ],
      [
        "name",
        -8.240329418690587
      ],
      [
        "Ġdon",
        -8.242004291310865
      ],
      [
        "We",
        -8.24835768649908
      ],
      [
        "if",
        -8.249021968902913
      ],
      [
        "Ġhere",
        -8.250254409263343
      ],
      [
        "What",
        -8.256125187014492
      ],
      [
        "Z",
        -8.25613156574142
      ],
      [
        "],",
        -8.257820117729715
      ],
      [
        "::",
        -8.26031315261972
      ],
      [
        "Ġset",
        -8.265088380292477
      ],
      [
        "Ġtake",
        -8.271417164475828
      ],
      [
        "fig",
        -8.276229343671725
      ],
      [
        "Ġsystem",
        -8.282096047748746
      ],
      [
        "Ġfound",
        -8.282788475913833
      ],
      [
        "Ġmade",
        -8.287954447963154
      ],
      [
        "Ġcourt",
        -8.291570046848692
      ],
      [
        "Ġhigh",
        -8.298927890502034
      ],
      [
        "ers",
        -8.300014448939649
      ],
      [
        "Ġstudy",
        -8.301282953489576
      ],
      [
        "Ġvalue",
        -8.302080268595281
      ],
      [
        "Ġwant",
        -8.302925359056488
      ],
      [
        "mathb",
        -8.303473360119856
      ],
      [
        "Ġwhile",
        -8.304543074760414
      ],
      [
        "://",
        -8.304804723335895
      ],
      [
        "text",
        -8.308483022470565
      ],
      [
        "Ġgood",
        -8.314219534910096
      ],
      [
        "ll",
        -8.317514805266551
      ],
      [
        "Ġfunction",
        -8.326036899457812
      ],
      [
        "Ġmuch",
        -8.33359645928765
      ],
      [
        "Ġstate",
        -8.345839086711159
      ],
      [
        "Ġthree",
        -8.352274150363767
      ],
      [
        "ion",
        -8.352358028706242
      ],
      [
        "ĊĊĠĠĠ",
        -8.35336214052637
      ],
      [
        "00",
        -8.3545145328686
      ],
      [
        "_{\\",
        -8.354717019765378
      ],
      [
        "Ġthink",
        -8.355926143697014
      ],
      [
        "Ġright",
        -8.358540019689064
      ],
      [
        "Ġpatients",
        -8.36800631459189
      ],
      [
        "Ġorder",
        -8.369439368365875
      ],
      [
        ".âĢĿ",
        -8.371225928874718
      ],
      [
        "Ġpublic",
        -8.373979278237424
      ],
      [
        "Ġdoes",
        -8.374019907816853
      ],
      [
        "Ġnon",
        -8.374475491282146
      ],
      [
        "Ġduring",
        -8.376127179474453
      ],
      [
        "Ġwithout",
        -8.378462079741535
      ],
      [
        "Ġpart",
        -8.38501880852339
      ],
      [
        "`",
        -8.386352567501167
      ],
      [
        "get",
        -8.386546017174659
      ],
      [
        "Â",
        -8.391263890685616
      ],
      [
        "ity",
        -8.393208624928963
      ],
      [
        "ĠâĢĵ",
        -8.395877881127884
      ],
      [
        "It",
        -8.39622108000144
      ],
      [
        "(\\",
        -8.39690189553547
      ],
      [
        "//",
        -8.398227465172322
      ],
      [
        "Ġcells",
        -8.400467555646769
      ],
      [
        "Let",
        -8.4028774552107
      ],
      [
        "ĠFor",
        -8.422304668578851
      ],
      [
        "15",
        -8.423560824180553
      ],
      [
        "\":",
        -8.424832971525927
      ],
      [
        "16",
        -8.427647012552281
      ],
      [
        "Ġdown",
        -8.428272296061392
      ],
      [
        "int",
        -8.429119274669606
      ],
      [
        "This",
        -8.440194609314041
      ],
      [
        "ĠIf",
        -8.440527664037832
      ],
      [
        "Ġhelp",
        -8.440814678468476
      ],
      [
        "Ġgroup",
        -8.442565153324363
      ],
      [
        "Ġyear",
        -8.448350728006472
      ],
      [
        "set",
        -8.448802826467158
      ],
      [
        "man",
        -8.449785757911272
      ],
      [
        "âĢľ",
        -8.454482783889269
      ],
      [
        "Ġname",
        -8.459201782781953
      ],
      [
        "}{",
        -8.46000700709245
      ],
      [
        "Ġgo",
        -8.463373729515515
      ],
      [
        "Ġagainst",
        -8.466315067218213
      ],
      [
        "Ġlong",
        -8.470124626292872
      ],
      [
        "20",
        -8.47225878937121
      ],
      [
        "Ġlast",
        -8.47708251389725
      ],
      [
        "32",
        -8.48076330056149
      ],
      [
        "Ġmust",
        -8.48559498696744
      ],
      [
        "it",
        -8.486362027506352
      ],
      [
        "Ġus",
        -8.488046280644449
      ],
      [
        "Ġ//",
        -8.489546184218343
      ],
      [
        "Ġstill",
        -8.494627971401275
      ],
      [
        "age",
        -8.498591901578706
      ],
      [
        "13",
        -8.508755059019654
      ],
      [
        "âĢĵ",
        -8.511681028410251
      ],
      [
        "Ġend",
        -8.514006849890164
      ],
      [
        "ĠLet",
        -8.515909016340766
      ],
      [
        "000",
        -8.519703651417437
      ],
      [
        "Ġinformation",
        -8.520316801419076
      ],
      [
        "Ġfind",
        -8.521164704387465
      ],
      [
        "ies",
        -8.52316221923581
      ],
      [
        "Ġsecond",
        -8.527165442304295
      ],
      [
        "{#",
        -8.531732898271294
      ],
      [
        "Ċĉĉ",
        -8.535495585591747
      ],
      [
        "ĠĠĠĠĠĠ",
        -8.536813101044947
      ],
      [
        "up",
        -8.537142845153456
      ],
      [
        "Ġday",
        -8.540997950795042
      ],
      [
        "^{",
        -8.541891256252045
      ],
      [
        "14",
        -8.552592138894031
      ],
      [
        "ĠAs",
        -8.554328694876578
      ],
      [
        "(\"",
        -8.55688882199637
      ],
      [
        "alpha",
        -8.55801548097068
      ],
      [
        "Ġresult",
        -8.562138758054914
      ],
      [
        "You",
        -8.56768928956746
      ],
      [
        "However",
        -8.572033240469791
      ],
      [
        "athcal",
        -8.572674490271526
      ],
      [
        "le",
        -8.573519500893775
      ],
      [
        "Ġtest",
        -8.578478966107138
      ],
      [
        "Ġfollowing",
        -8.581850008430507
      ],
      [
        "Ġresults",
        -8.58729204325476
      ],
      [
        "ĠBut",
        -8.593463208097168
      ],
      [
        "();",
        -8.593555753909266
      ],
      [
        "CR",
        -8.594514142314862
      ],
      [
        "Ġpoint",
        -8.596126900112223
      ],
      [
        "Ġlife",
        -8.601526911500274
      ],
      [
        "var",
        -8.60201022010365
      ],
      [
        "Ġmodel",
        -8.605726146850236
      ],
      [
        "Ġpresent",
        -8.611512527087806
      ],
      [
        "Ġgoing",
        -8.612734618067154
      ],
      [
        "âĢĶ",
        -8.622312104787618
      ],
      [
        ")$",
        -8.622940874887382
      ],
      [
        "Ġ*/",
        -8.624488249364454
      ],
      [
        "Ġfact",
        -8.624564597740564
      ],
      [
        "18",
        -8.626446551053334
      ],
      [
        "Ġsince",
        -8.626692639029184
      ],
      [
        "Ġown",
        -8.635689203761052
      ],
      [
        "Ġaround",
        -8.636258795717064
      ],
      [
        "č",
        -8.637453168387829
      ],
      [
        "Ġwithin",
        -8.63840421816708
      ],
      [
        "Ġlook",
        -8.639634972647336
      ],
      [
        "\\]",
        -8.641585324446096
      ],
      [
        "Ġsupport",
        -8.64639876003068
      ],
      [
        "Ġcontrol",
        -8.648539701875166
      ],
      [
        "Ġshow",
        -8.652782897779211
      ],
      [
        "Ġanother",
        -8.661978475630896
      ],
      [
        "http",
        -8.6634258603737
      ],
      [
        "mu",
        -8.66485561833569
      ],
      [
        "Ġexample",
        -8.681671624721659
      ],
      [
        "Ġlaw",
        -8.694365645619122
      ],
      [
        "Ġsay",
        -8.694684686558226
      ],
      [
        "Ġline",
        -8.696374840824465
      ],
      [
        "label",
        -8.698302460154013
      ],
      [
        ",âĢĿ",
        -8.705103307064165
      ],
      [
        "]\\].",
        -8.705475109459758
      ],
      [
        "begin",
        -8.705935207412262
      ],
      [
        "Ġworld",
        -8.708390943600477
      ],
      [
        "Ġincluding",
        -8.708734191391121
      ],
      [
        "01",
        -8.708983000699673
      ],
      [
        "ĠAnd",
        -8.709263877436726
      ],
      [
        "of",
        -8.709832009350519
      ],
      [
        "To",
        -8.71135764587294
      ],
      [
        "Ġevery",
        -8.712093369469994
      ],
      [
        "Ġcome",
        -8.71572669391844
      ],
      [
        "17",
        -8.715874600878928
      ],
      [
        "Ġcell",
        -8.716829929015201
      ],
      [
        "Ġgiven",
        -8.716942074676204
      ],
      [
        "ÃĲ",
        -8.717381044153164
      ],
      [
        "Ġmight",
        -8.718560492024682
      ],
      [
        "Ġoff",
        -8.721587216943457
      ],
      [
        "].",
        -8.723744714692348
      ],
      [
        "Ġreally",
        -8.726965854428256
      ],
      [
        "Ġhome",
        -8.729282717261071
      ],
      [
        "data",
        -8.730496574405437
      ],
      [
        "19",
        -8.735050795515082
      ],
      [
        "Ġprocess",
        -8.738949792564455
      ],
      [
        "Ġlarge",
        -8.743584804544152
      ],
      [
        "Ġper",
        -8.746234621795855
      ],
      [
        "ĠNo",
        -8.747025309684046
      ],
      [
        "Ġself",
        -8.76341807149331
      ],
      [
        "ĠYou",
        -8.763925055452095
      ],
      [
        "Ġ$$\\",
        -8.77157900225434
      ],
      [
        "Ġfew",
        -8.772819139877646
      ],
      [
        "Ġcause",
        -8.773185795081925
      ],
      [
        "Ġevidence",
        -8.778078308356775
      ],
      [
        "Ġmethod",
        -8.78299664011769
      ],
      [
        "Ġgive",
        -8.785268982547283
      ],
      [
        "Ġpre",
        -8.786662980058503
      ],
      [
        "Ġchange",
        -8.791236945331288
      ],
      [
        "ation",
        -8.792716075875882
      ],
      [
        "Ġanalysis",
        -8.792945779656486
      ],
      [
        "Ġbest",
        -8.79509217110371
      ],
      [
        "Ġfile",
        -8.797973416478646
      ],
      [
        "Ġimportant",
        -8.803260339501797
      ],
      [
        "div",
        -8.804057065687028
      ],
      [
        "ĠThey",
        -8.807340920337186
      ],
      [
        "Ġsomething",
        -8.808428854704104
      ],
      [
        "import",
        -8.808600128094504
      ],
      [
        "Ġplace",
        -8.811720374645278
      ],
      [
        "Ġnext",
        -8.811819617435042
      ],
      [
        "Ġwhether",
        -8.815390826233267
      ],
      [
        "25",
        -8.817847680932449
      ],
      [
        "30",
        -8.81946172345877
      ],
      [
        "Ġpower",
        -8.825722462815198
      ],
      [
        "Ġsmall",
        -8.827145482610103
      ],
      [
        "Ġcommon",
        -8.827450143504908
      ],
      [
        "Ġbased",
        -8.829968089410226
      ],
      [
        "table",
        -8.834276062937287
      ],
      [
        "Ġgreat",
        -8.83584275009847
      ],
      [
        "Ġform",
        -8.836518555192194
      ],
      [
        "Ġtype",
        -8.83820404350821
      ],
      [
        "ĠNew",
        -8.842040335929893
      ],
      [
        "Ġ20",
        -8.846455392102827
      ],
      [
        "\\[",
        -8.849658813040334
      ],
      [
        "out",
        -8.855143126761059
      ],
      [
        "Ġ12",
        -8.855831428282755
      ],
      [
        "Ġbetter",
        -8.858908625388493
      ],
      [
        "Ġabove",
        -8.864263519438987
      ],
      [
        "Ġhuman",
        -8.864365113836543
      ],
      [
        "Ġwater",
        -8.866242231047202
      ],
      [
        "math",
        -8.866586802907477
      ],
      [
        "Ġnever",
        -8.875411570635086
      ],
      [
        "Ġlevel",
        -8.880151141230023
      ],
      [
        "Ġtreatment",
        -8.880250905912394
      ],
      [
        "over",
        -8.888184503749663
      ],
      [
        "Ġproblem",
        -8.888434561762494
      ],
      [
        "If",
        -8.890136489672306
      ],
      [
        "Ġ\\[",
        -8.890842084214508
      ],
      [
        "}}",
        -8.891179888805619
      ],
      [
        "sum",
        -8.8920091119253
      ],
      [
        "Ġleast",
        -8.894199441736408
      ],
      [
        "Ġal",
        -8.895100688064913
      ],
      [
        "Ġlittle",
        -8.897714190844342
      ],
      [
        "Ġpossible",
        -8.897801286045278
      ],
      [
        "ĠĠĠĠĠĠĠ",
        -8.900490556998864
      ],
      [
        "Ġdue",
        -8.90158953414541
      ],
      [
        "For",
        -8.91099578654082
      ],
      [
        "Ġexpression",
        -8.913030159698481
      ],
      [
        "Ġresponse",
        -8.913105715673703
      ],
      [
        "Ġtrue",
        -8.917235905092836
      ],
      [
        "ĊĠĠĠĠĠĠĠĠĠ",
        -8.919149017106971
      ],
      [
        "Ġthings",
        -8.92249356415613
      ],
      [
        "ĠThere",
        -8.923097069781079
      ],
      [
        "!\"",
        -8.923641415312114
      ],
      [
        "for",
        -8.925112025846454
      ],
      [
        "Ġeffect",
        -8.925889904441663
      ],
      [
        "this",
        -8.927503586714787
      ],
      [
        "Type",
        -8.928034380359138
      ],
      [
        "ĠTo",
        -8.930781923259879
      ],
      [
        "Ġlow",
        -8.932892796830503
      ],
      [
        "Â±",
        -8.933316364609155
      ],
      [
        "span",
        -8.93548511183527
      ],
      [
        "Name",
        -8.935696309297821
      ],
      [
        "Ġgame",
        -8.936711533249158
      ],
      [
        "org",
        -8.939560156422667
      ],
      [
        "}(",
        -8.941346013160002
      ],
      [
        "ĠSo",
        -8.94186972023555
      ],
      [
        "ĠĠĠĠĠĠĠĠĠĠĠĠĠĠĠ",
        -8.943909736746743
      ],
      [
        "Ġsize",
        -8.947920789204975
      ],
      [
        "Ġhaving",
        -8.948580944345249
      ],
      [
        "Ġtrial",
        -8.949672936604436
      ],
      [
        "Ġshown",
        -8.951484501692265
      ],
      [
        "Ġfurther",
        -8.952889949209023
      ],
      [
        "Ġpost",
        -8.95408861651378
      ],
      [
        "==",
        -8.956766469451196
      ],
      [
        "Ġprovide",
        -8.95852544759387
      ],
      [
        "time",
        -8.958877887620135
      ],
      [
        "))",
        -8.960197445509248
      ],
      [
        "Ġhealth",
        -8.960390774679736
      ],
      [
        "Ġmean",
        -8.960859279022198
      ],
      [
        "ive",
        -8.962020035686125
      ],
      [
        "ĠâĢĶ",
        -8.962305510266722
      ],
      [
        "ant",
        -8.963043520000678
      ],
      [
        "Ġgot",
        -8.963320471904694
      ],
      [
        "Ġfree",
        -8.968460538359855
      ],
      [
        "aligned",
        -8.96897987960927
      ],
      [
        "Fig",
        -8.96926229650775
      ],
      [
        "ĠĠĠĠĠĠĠĠ",
        -8.970085548057146
      ],
      [
        "Ġcurrent",
        -8.971272215436809
      ],
      [
        "Ġless",
        -8.972669979442623
      ],
      [
        "64",
        -8.976023171414642
      ],
      [
        "Ġgovernment",
        -8.976312023668616
      ],
      [
        "Ġlet",
        -8.979036008634225
      ],
      [
        "Ġlot",
        -8.986548435656632
      ],
      [
        "And",
        -8.987787744028156
      ],
      [
        "Ġsingle",
        -8.988018175813444
      ],
      [
        "Ġfour",
        -8.988402102700569
      ],
      [
        "Ġhand",
        -8.989283586531988
      ],
      [
        "Ġsimilar",
        -8.99043000107908
      ],
      [
        "Ġdays",
        -8.991377167592129
      ],
      [
        "Ġfield",
        -8.991558711307402
      ],
      [
        "Ġalways",
        -8.992996413358158
      ],
      [
        "Category",
        -8.995034190237128
      ],
      [
        "Ġelse",
        -8.995406325489085
      ],
      [
        "Ġagain",
        -8.996734127308503
      ],
      [
        ")\\",
        -8.998860004330286
      ],
      [
        "string",
        -8.999441680099084
      ],
      [
        "24",
        -9.001455034135885
      ],
      [
        "ĠShe",
        -9.003798261073946
      ],
      [
        "He",
        -9.003818831011055
      ],
      [
        "Ġmain",
        -9.006692859254503
      ],
      [
        "\"}",
        -9.007473667133938
      ],
      [
        "05",
        -9.010850699831998
      ],
      [
        "21",
        -9.011198066745584
      ],
      [
        "80",
        -9.0115245406917
      ],
      [
        "Ġquestion",
        -9.013029567733936
      ],
      [
        "Ġ15",
        -9.013052359705924
      ],
      [
        "Ġuntil",
        -9.015152750272494
      ],
      [
        "Ġteam",
        -9.01521407746367
      ],
      [
        "ĠCourt",
        -9.018995017806889
      ],
      [
        "Ġavailable",
        -9.019805238507852
      ],
      [
        "Ġlocal",
        -9.023083066919598
      ],
      [
        "Ġcare",
        -9.02424041504937
      ],
      [
        "Ġput",
        -9.02440460150919
      ],
      [
        "Ġreal",
        -9.024810719689706
      ],
      [
        "Ġlight",
        -9.025318135314569
      ],
      [
        "Ġknown",
        -9.025785468244264
      ],
      [
        "ĠUnited",
        -9.026780049044245
      ],
      [
        "Ġcalled",
        -9.02807423805737
      ],
      [
        "est",
        -9.029727929294085
      ],
      [
        "Ġfamily",
        -9.030026825535767
      ],
      [
        "lambda",
        -9.030500372764411
      ],
      [
        "Ġeither",
        -9.03087324775914
      ],
      [
        "Ġcode",
        -9.032593012717136
      ],
      [
        "}$$",
        -9.033835628591508
      ],
      [
        "by",
        -9.037584009093637
      ],
      [
        "ĠState",
        -9.039132609709016
      ],
      [
        "ĠThese",
        -9.039193016997432
      ],
      [
        "---",
        -9.040345907799
      ],
      [
        "beta",
        -9.042797495413582
      ],
      [
        "Ġaction",
        -9.045298068307286
      ],
      [
        "line",
        -9.04532736437614
      ],
      [
        "class",
        -9.045591279044638
      ],
      [
        "Ġseveral",
        -9.048755816646862
      ],
      [
        "ness",
        -9.050685213107627
      ],
      [
        "pone",
        -9.051117759503107
      ],
      [
        "Figure",
        -9.051291683003315
      ],
      [
        "bar",
        -9.052736094829433
      ],
      [
        "log",
        -9.053070984413266
      ],
      [
        "Ġspace",
        -9.055046062748785
      ],
      [
        "Ġchildren",
        -9.05644790680122
      ],
      [
        "Ġco",
        -9.056561685156632
      ],
      [
        "Ġmeans",
        -9.056747848144022
      ],
      [
        "Ġbelieve",
        -9.058627227694728
      ],
      [
        "50",
        -9.06186806441225
      ],
      [
        "Ġtotal",
        -9.062365660799928
      ],
      [
        "return",
        -9.06318077595984
      ],
      [
        "Ġhigher",
        -9.06323501292549
      ],
      [
        "Ġopen",
        -9.064282276205793
      ],
      [
        "Ġsignificant",
        -9.066687590127026
      ],
      [
        "ĠĠĠĠĠĠĠĠĠĠĠĠĠĠ",
        -9.070741331972318
      ],
      [
        "Ġstudies",
        -9.071997454474824
      ],
      [
        "Ġrate",
        -9.075377063173208
      ],
      [
        "Ġ11",
        -9.076826154338098
      ],
      [
        "Ġincrease",
        -9.077824892301969
      ],
      [
        "less",
        -9.077867622045057
      ],
      [
        "ar",
        -9.079581828805088
      ],
      [
        "Ġwhy",
        -9.0869415911215
      ],
      [
        "Ġ30",
        -9.086955091206496
      ],
      [
        "epackage",
        -9.087375807005053
      ],
      [
        "ment",
        -9.088839034526588
      ],
      [
        "Ġside",
        -9.089455985429211
      ],
      [
        "www",
        -9.089679444984943
      ],
      [
        "22",
        -9.090912127561031
      ],
      [
        "Ġstart",
        -9.090951949211425
      ],
      [
        "Ġinterest",
        -9.09110215457249
      ],
      [
        "Ġrisk",
        -9.094234234264352
      ],
      [
        "];",
        -9.09463001027771
      ],
      [
        "Ġrun",
        -9.095373972935574
      ],
      [
        "ID",
        -9.095513324767232
      ],
      [
        "Ġfull",
        -9.0959536766624
      ],
      [
        "Ġissue",
        -9.098733432041158
      ],
      [
        "Ġrole",
        -9.10031701690555
      ],
      [
        "Ġvalues",
        -9.103801981848695
      ],
      [
        "Ġenergy",
        -9.10386774644166
      ],
      [
        "ĠWhat",
        -9.103996809307318
      ],
      [
        "among",
        -9.107252071602172
      ],
      [
        "ĠĠĠĠĠĠĠĠĠĠĠ",
        -9.108227694281416
      ],
      [
        "Ġerror",
        -9.109732883245355
      ],
      [
        "Ġgeneral",
        -9.110248567685131
      ],
      [
        "But",
        -9.110744342155987
      ],
      [
        "Ġperson",
        -9.11123103679082
      ],
      [
        "Ġleft",
        -9.11148777133929
      ],
      [
        "Ġfinal",
        -9.11319764929248
      ],
      [
        "Ġsure",
        -9.114779676476008
      ],
      [
        "Table",
        -9.114894267445862
      ],
      [
        "=>",
        -9.1160415733182
      ],
      [
        "Ġalready",
        -9.116091127977164
      ],
      [
        "ability",
        -9.116671297456532
      ],
      [
        "Ġcases",
        -9.11680131356248
      ],
      [
        "Ġcourse",
        -9.118586147246113
      ],
      [
        "ĠĠĠĠĠĠĠĠĠ",
        -9.119125113990638
      ],
      [
        "33",
        -9.122613101988396
      ],
      [
        "Ġshort",
        -9.12517437243348
      ],
      [
        "Ġbody",
        -9.126149137323596
      ],
      [
        "sec",
        -9.126654467981815
      ],
      [
        "No",
        -9.12737094945304
      ],
      [
        "ĠStates",
        -9.128647190369472
      ],
      [
        "sqrt",
        -9.129994522674275
      ],
      [
        "eq",
        -9.130588258448094
      ],
      [
        "Ġreported",
        -9.131654589069568
      ],
      [
        "Ġfar",
        -9.133659613865218
      ],
      [
        "Ġassociated",
        -9.13908813137519
      ],
      [
        "uppose",
        -9.14032579106596
      ],
      [
        "Ġkeep",
        -9.141805066056142
      ],
      [
        "23",
        -9.14230811010359
      ],
      [
        "]\\]",
        -9.146205444907505
      ],
      [
        "Ġsub",
        -9.146259500486456
      ],
      [
        "><",
        -9.148330976808948
      ],
      [
        "ĠThat",
        -9.148377315402374
      ],
      [
        "Ġwomen",
        -9.15068315978802
      ],
      [
        "mathr",
        -9.151455380063789
      ],
      [
        "Ġlove",
        -9.151811101782505
      ],
      [
        "phi",
        -9.152193566798324
      ],
      [
        "Ġlevels",
        -9.154415168796364
      ],
      [
        "Ġamount",
        -9.15535266518265
      ],
      [
        "ĠĠĠĠĠĠĠĠĠĠ",
        -9.157084114736357
      ],
      [
        "un",
        -9.158646108321012
      ],
      [
        "didn",
        -9.159230311426226
      ],
      [
        "html",
        -9.160539483324325
      ],
      [
        "Ġrequired",
        -9.160566424863628
      ],
      [
        "Ġplay",
        -9.160959257823414
      ],
      [
        "Ġcall",
        -9.16220244055727
      ],
      [
        "Ġanti",
        -9.162324514730509
      ],
      [
        "Ġ${\\",
        -9.16303845551991
      ],
      [
        "ĠAll",
        -9.165386838038856
      ],
      [
        "Ġaway",
        -9.16681374846204
      ],
      [
        "Ġcertain",
        -9.1679719214935
      ],
      [
        "ĠĠĠĠĠĠĠĠĠĠĠĠ",
        -9.169034767194306
      ],
      [
        "Ġoften",
        -9.169646910986916
      ],
      [
        "however",
        -9.16972861883904
      ],
      [
        "}_{",
        -9.170380233044442
      ],
      [
        "Ġthing",
        -9.172181225030286
      ],
      [
        "Ġpotential",
        -9.17328192943163
      ],
      [
        "Ġmatter",
        -9.174598465381752
      ],
      [
        "Ġdone",
        -9.174644272784729
      ],
      [
        "Ċĉĉĉ",
        -9.176380763420685
      ],
      [
        "ian",
        -9.177063703930587
      ],
      [
        "Ġalong",
        -9.179145968519258
      ],
      [
        "value",
        -9.184806368725262
      ],
      [
        "Ġdevelopment",
        -9.18512369761324
      ],
      [
        "Ġreason",
        -9.185254122044457
      ],
      [
        "Ġdecision",
        -9.186206963253357
      ],
      [
        "Ġactivity",
        -9.186805834480904
      ],
      [
        "sigma",
        -9.188037202791936
      ],
      [
        "Ġsays",
        -9.189646152959105
      ],
      [
        "Ġlower",
        -9.189832604802456
      ],
      [
        "Ġposition",
        -9.189854615661543
      ],
      [
        "('",
        -9.192571069770729
      ],
      [
        "Ġterms",
        -9.193874647022708
      ],
      [
        "code",
        -9.19517610292112
      ],
      [
        "Ġsurface",
        -9.195340665361108
      ],
      [
        "Ġspecific",
        -9.195457686218216
      ],
      [
        "Ġlater",
        -9.195607623114077
      ],
      [
        "hat",
        -9.19775143188336
      ],
      [
        "Ġenough",
        -9.202383304854656
      ],
      [
        "45",
        -9.203274817191083
      ],
      [
        "String",
        -9.203548460528095
      ],
      [
        "Ġtold",
        -9.205508009224245
      ],
      [
        "upon",
        -9.2062695150012
      ],
      [
        "Ġperiod",
        -9.207069843094112
      ],
      [
        "ĠWhen",
        -9.207454094383612
      ],
      [
        "):",
        -9.208063585650516
      ],
      [
        "Ġman",
        -9.208437619688254
      ],
      [
        "Ġclose",
        -9.208805646297218
      ],
      [
        "partial",
        -9.208892988146928
      ],
      [
        "compared",
        -9.209463650683844
      ],
      [
        "ul",
        -9.209889081930562
      ],
      [
        "Ġthough",
        -9.210041631750066
      ],
      [
        "ĊĊĠĠĠĠĠĠĠ",
        -9.21006529856678
      ],
      [
        "ally",
        -9.210380802609254
      ],
      [
        "Ġfeel",
        -9.210962413144554
      ],
      [
        "Ġhard",
        -9.211230932521026
      ],
      [
        "according",
        -9.21153756067018
      ],
      [
        "Ġ18",
        -9.2126860430332
      ],
      [
        "}^{",
        -9.212748484597562
      ],
      [
        "There",
        -9.214722204387243
      ],
      [
        "Ġhead",
        -9.215021085209395
      ],
      [
        "Ġresearch",
        -9.220167354034928
      ],
      [
        "ĠĠĠĠĠĠĠĠĠĠĠĠĠ",
        -9.220946908313712
      ],
      [
        "Ġmillion",
        -9.22094718885039
      ],
      [
        "Ġlist",
        -9.221915808984226
      ],
      [
        "^{\\",
        -9.222621389877943
      ],
      [
        "Ġread",
        -9.225097107536788
      ],
      [
        "27",
        -9.22587035940388
      ],
      [
        "100",
        -9.226268008868718
      ],
      [
        "epsilon",
        -9.228977317401592
      ],
      [
        "Ġprovided",
        -9.229877878278469
      ],
      [
        "min",
        -9.230073722262944
      ],
      [
        "Ġrange",
        -9.231982502519644
      ],
      [
        "Ġweek",
        -9.234396347388769
      ],
      [
        "So",
        -9.235823265696617
      ],
      [
        "test",
        -9.236412399286198
      ],
      [
        "Ġsuggest",
        -9.236601527065869
      ],
      [
        "âĢ¦",
        -9.237042810240007
      ],
      [
        "Ġ100",
        -9.23748290070797
      ],
      [
        "Ġworking",
        -9.237786674992837
      ],
      [
        "Ġgroups",
        -9.23834329612029
      ],
      [
        "Ġversion",
        -9.239429671778288
      ],
      [
        "Ġmaking",
        -9.240955562147674
      ],
      [
        "https",
        -9.243525174999895
      ],
      [
        "Ġkey",
        -9.245124193579285
      ],
      [
        "defendant",
        -9.246472468046694
      ],
      [
        "Ġconditions",
        -9.249432908620111
      ],
      [
        "Ġpositive",
        -9.249680931786049
      ],
      [
        "Ġkind",
        -9.250435206490735
      ],
      [
        "Ġaddition",
        -9.253724008302656
      ],
      [
        "Ġbecome",
        -9.254176405582587
      ],
      [
        "Ġprogram",
        -9.25429001389501
      ],
      [
        "Ġ([",
        -9.25925414442554
      ],
      [
        "></",
        -9.259677686027326
      ],
      [
        "Ġ14",
        -9.260918876869027
      ],
      [
        "}_",
        -9.261116173369912
      ],
      [
        "Ġ16",
        -9.26392356403676
      ],
      [
        "Ġclear",
        -9.264877657154935
      ],
      [
        "34",
        -9.265936230176557
      ],
      [
        "95",
        -9.266197817878531
      ],
      [
        "Ġschool",
        -9.266559626640332
      ],
      [
        "Ġseen",
        -9.267738646426984
      ],
      [
        "Ġmoney",
        -9.268012792872767
      ],
      [
        "Ġseason",
        -9.268057449284669
      ],
      [
        "gamma",
        -9.268301964336832
      ],
      [
        "Ġbusiness",
        -9.268384217466744
      ],
      [
        "Ġdisease",
        -9.268467915872252
      ],
      [
        "%)",
        -9.26851073883735
      ],
      [
        "Ġprotein",
        -9.2689701571651
      ],
      [
        "Ġcontent",
        -9.269082757787125
      ],
      [
        "Ġparticular",
        -9.269748803837787
      ],
      [
        "bib",
        -9.271310924371535
      ],
      [
        "Ġsection",
        -9.27171118736179
      ],
      [
        "Ġservice",
        -9.272531919871591
      ],
      [
        "size",
        -9.275603949704577
      ],
      [
        "Ġtogether",
        -9.276242524648517
      ],
      [
        "]).",
        -9.276902791296845
      ],
      [
        "Ġimage",
        -9.278689090191136
      ],
      [
        "Ġincreased",
        -9.278852368774608
      ],
      [
        "Data",
        -9.27993466552078
      ],
      [
        "key",
        -9.281517148670968
      ],
      [
        "Ġeffects",
        -9.283204127990505
      ],
      [
        "Ĥ",
        -9.284907294231443
      ],
      [
        "Ġobserved",
        -9.286375291267689
      ],
      [
        "Ġcannot",
        -9.2871780973243
      ],
      [
        "doesn",
        -9.287762572462348
      ],
      [
        "ĠOn",
        -9.289451909001803
      ],
      [
        "Ġthought",
        -9.289595268812096
      ],
      [
        "Ġview",
        -9.289780181329252
      ],
      [
        "delta",
        -9.290008071017253
      ],
      [
        "Ġchanges",
        -9.292652148191635
      ],
      [
        "40",
        -9.293390140263297
      ],
      [
        "Ġsource",
        -9.293972997720685
      ],
      [
        "ĠâĢĺ",
        -9.295870829856463
      ],
      [
        "Ġcountry",
        -9.295999236261837
      ],
      [
        "described",
        -9.29671267403775
      ],
      [
        "Ġmultiple",
        -9.297652025360929
      ],
      [
        "Ġapproach",
        -9.299107022795772
      ],
      [
        "Ġtry",
        -9.299646856542612
      ],
      [
        "]{}",
        -9.29978089796237
      ],
      [
        "be",
        -9.30020660226974
      ],
      [
        "ĠUniversity",
        -9.300503955326276
      ],
      [
        "Ġfactors",
        -9.301601723248458
      ],
      [
        "([@",
        -9.302238585514909
      ],
      [
        "Ġthird",
        -9.302612003615854
      ],
      [
        "Ġstructure",
        -9.302667651782766
      ],
      [
        "28",
        -9.303199175418005
      ],
      [
        "\"}).",
        -9.303438490977449
      ],
      [
        "001",
        -9.303621450899364
      ],
      [
        "ĠAt",
        -9.30438604102094
      ],
      [
        "Â°",
        -9.304975712310709
      ],
      [
        "Ġ13",
        -9.306601750528957
      ],
      [
        "Ġearly",
        -9.307805521419729
      ],
      [
        "likely",
        -9.308560380185408
      ],
      [
        "Ġturn",
        -9.308893885322734
      ],
      [
        "ĠSee",
        -9.309574974040466
      ],
      [
        "Ġconst",
        -9.312433310018296
      ],
      [
        "went",
        -9.315563690428393
      ],
      [
        "include",
        -9.317299114390204
      ],
      [
        "Ġbase",
        -9.317973803755493
      ],
      [
        "Ġproperty",
        -9.318409444979714
      ],
      [
        "\");",
        -9.31869749029184
      ],
      [
        "Ġmonths",
        -9.31889433815599
      ],
      [
        "26",
        -9.319766870812002
      ],
      [
        "Ġtimes",
        -9.32201499735534
      ],
      [
        "Ġprivate",
        -9.322275344783945
      ],
      [
        "str",
        -9.322729806106024
      ],
      [
        "across",
        -9.324095494718147
      ],
      [
        "Ġinclude",
        -9.324512013946856
      ],
      [
        "rather",
        -9.326289127736368
      ],
      [
        "rho",
        -9.327613573613688
      ],
      [
        "Ġvoid",
        -9.327979801909672
      ],
      [
        "Ġreport",
        -9.328435778910949
      ],
      [
        "Ġdoing",
        -9.329587191358062
      ],
      [
        "ĠCo",
        -9.330115648953331
      ],
      [
        "Ġarea",
        -9.330445215989965
      ],
      [
        "ch",
        -9.3317300385189
      ],
      [
        "Ġactually",
        -9.33228744964824
      ],
      [
        "Ġcreate",
        -9.332444091117152
      ],
      [
        "Ġold",
        -9.333289530466216
      ],
      [
        "Ġobject",
        -9.335248313981609
      ],
      [
        "Ġcompany",
        -9.336701000159412
      ],
      [
        "ance",
        -9.338514262415195
      ],
      [
        "Ãĳ",
        -9.338958670507273
      ],
      [
        "Ġaccess",
        -9.33909826034068
      ],
      [
        "Ġcancer",
        -9.348184572496926
      ],
      [
        "Ġtell",
        -9.349418307774435
      ],
      [
        "Ġpast",
        -9.35232344755928
      ],
      [
        "Ġexperience",
        -9.352398957432063
      ],
      [
        "Ġindividual",
        -9.353840368992849
      ],
      [
        "On",
        -9.354166954825356
      ],
      [
        "more",
        -9.354394417972728
      ],
      [
        "took",
        -9.359466100882663
      ],
      [
        "Ġdeal",
        -9.361603275774163
      ],
      [
        "ED",
        -9.363276317857132
      ],
      [
        "Ġonce",
        -9.36475434677227
      ],
      [
        "Ġclaim",
        -9.365682616756049
      ],
      [
        "times",
        -9.36686279428903
      ],
      [
        "Ġ24",
        -9.369502786828027
      ],
      [
        "Ġperformed",
        -9.369787276856869
      ],
      [
        "self",
        -9.369860024150109
      ],
      [
        "Ġcame",
        -9.370026672737556
      ],
      [
        "Ġstandard",
        -9.371897074808292
      ],
      [
        "Ġconsider",
        -9.373530570116106
      ],
      [
        "Ġsocial",
        -9.373766956460672
      ],
      [
        "Ġfive",
        -9.375617528492104
      ],
      [
        "Ġbelow",
        -9.375853512608034
      ],
      [
        "Ġtop",
        -9.376866809412803
      ],
      [
        "new",
        -9.377056800835616
      ],
      [
        "ell",
        -9.377956904406178
      ],
      [
        "Ġfood",
        -9.378680996978463
      ],
      [
        "38",
        -9.379006437353503
      ],
      [
        "Ġdesign",
        -9.379047811748013
      ],
      [
        "file",
        -9.379617445139145
      ],
      [
        "Ġuser",
        -9.379742551581916
      ],
      [
        "ĠAmerican",
        -9.380420727212844
      ],
      [
        "Ġreview",
        -9.38483650418162
      ],
      [
        "}^",
        -9.38699971782298
      ],
      [
        "Ġpaper",
        -9.38743022517764
      ],
      [
        "year",
        -9.387865559182211
      ],
      [
        "Ġfactor",
        -9.388048958241637
      ],
      [
        "Ġfuture",
        -9.388763107913384
      ],
      [
        "ous",
        -9.389898290350748
      ],
      [
        "theta",
        -9.389993383212389
      ],
      [
        "Ġpoints",
        -9.391725899955892
      ],
      [
        "one",
        -9.39195072242098
      ],
      [
        "Ġsite",
        -9.393031291983185
      ],
      [
        "ĠAn",
        -9.393339980818467
      ],
      [
        "tilde",
        -9.395486764592674
      ],
      [
        "obtained",
        -9.395904750193944
      ],
      [
        "Ġwhole",
        -9.397714791928909
      ],
      [
        "Ġapplication",
        -9.398228974814211
      ],
      [
        "Ġvarious",
        -9.39869361229215
      ],
      [
        "Ġ50",
        -9.399912891505974
      ],
      [
        "based",
        -9.401740893964716
      ],
      [
        "29",
        -9.401885790707988
      ],
      [
        "list",
        -9.40476237048805
      ],
      [
        "ĠGod",
        -9.405208414654096
      ],
      [
        "List",
        -9.405448105153148
      ],
      [
        "Ġblood",
        -9.406277468493862
      ],
      [
        "all",
        -9.406556938905483
      ],
      [
        "Ġsignal",
        -9.407290340209531
      ],
      [
        "Ġfalse",
        -9.40808766237666
      ],
      [
        "Ġidea",
        -9.409047448235638
      ],
      [
        "While",
        -9.410417280334594
      ],
      [
        "09",
        -9.410889875650462
      ],
      [
        "Ġshows",
        -9.41155671793069
      ],
      [
        "Ġadd",
        -9.411939452391506
      ],
      [
        "showed",
        -9.413422048321635
      ],
      [
        "When",
        -9.413911516731783
      ],
      [
        "Ġmove",
        -9.413925503789963
      ],
      [
        "Ġconsidered",
        -9.41402642335314
      ],
      [
        "35",
        -9.415299381240276
      ],
      [
        "02",
        -9.415359723357405
      ],
      [
        "Ġ$(",
        -9.417444307084793
      ],
      [
        "Ġpay",
        -9.41865840907722
      ],
      [
        "Ġtaken",
        -9.419464698629431
      ],
      [
        "Ġadded",
        -9.42203146807944
      ],
      [
        "ĠMr",
        -9.422628089953449
      ],
      [
        "tau",
        -9.423366250475944
      ],
      [
        "Ġyet",
        -9.42343268960978
      ],
      [
        "led",
        -9.423602526929944
      ],
      [
        "39",
        -9.42730739575962
      ],
      [
        "Ġsolution",
        -9.428465607691242
      ],
      [
        "^{-",
        -9.431355098294826
      ],
      [
        "held",
        -9.433285754293646
      ],
      [
        "see",
        -9.43342881551088
      ],
      [
        "08",
        -9.433683672786833
      ],
      [
        "Ġlead",
        -9.437423627051476
      ],
      [
        "31",
        -9.438266584129568
      ],
      [
        "Ġ(*",
        -9.439113161515383
      ],
      [
        "How",
        -9.4398713215662
      ],
      [
        "um",
        -9.44052930695732
      ],
      [
        "omega",
        -9.440840303502249
      ],
      [
        "Ġoriginal",
        -9.444215918236791
      ],
      [
        "Ġadditional",
        -9.444231671187516
      ],
      [
        "ful",
        -9.444368344425802
      ],
      [
        "Ġterm",
        -9.445864229031327
      ],
      [
        "Ġhouse",
        -9.446597601953314
      ],
      [
        "Ġproject",
        -9.44718369460338
      ],
      [
        "Ġdefined",
        -9.447832260021306
      ],
      [
        "Ġsimple",
        -9.448236236209562
      ],
      [
        "ism",
        -9.450269482420293
      ],
      [
        "side",
        -9.4505654432115
      ],
      [
        "Ġcommunity",
        -9.450817748258006
      ],
      [
        "Ġsystems",
        -9.450991361119517
      ],
      [
        "_\\",
        -9.45194167138185
      ],
      [
        "ĠSt",
        -9.452221953628923
      ],
      [
        "Ġmajor",
        -9.45324215904973
      ],
      [
        "That",
        -9.453686794682984
      ],
      [
        "Ġyoung",
        -9.454531247960324
      ],
      [
        "Ġfollow",
        -9.454752037767063
      ],
      [
        "Ġchild",
        -9.458088721855663
      ],
      [
        "Ġmen",
        -9.460184156411277
      ],
      [
        "Ġminutes",
        -9.460302599046976
      ],
      [
        "leq",
        -9.46105742718186
      ],
      [
        "Ġroom",
        -9.461168975188349
      ],
      [
        "Ġwon",
        -9.46148208419748
      ],
      [
        "Ġtemperature",
        -9.462397630086317
      ],
      [
        "Ġever",
        -9.462420891870536
      ],
      [
        "Ġperformance",
        -9.466669780684455
      ],
      [
        "Ġbit",
        -9.468428170088345
      ],
      [
        "ary",
        -9.469191195317658
      ],
      [
        "Ġface",
        -9.469364041744448
      ],
      [
        "add",
        -9.46936449034547
      ],
      [
        "41",
        -9.471672972737773
      ],
      [
        "44",
        -9.472656175257557
      ],
      [
        "Ġbig",
        -9.47313278672434
      ],
      [
        "Ġdevice",
        -9.47543630797168
      ],
      [
        "Ġincluded",
        -9.476396234145534
      ],
      [
        "Value",
        -9.47653571321027
      ],
      [
        "define",
        -9.47959499230866
      ],
      [
        "Ġregion",
        -9.479736627436058
      ],
      [
        "Ġfilm",
        -9.48222349323582
      ],
      [
        "Ġmakes",
        -9.482316259547172
      ],
      [
        "Ġproduct",
        -9.483966751554538
      ],
      [
        "Ġrespectively",
        -9.484528815210428
      ],
      [
        "trying",
        -9.484590980870369
      ],
      [
        "03",
        -9.48528696501307
      ],
      [
        "75",
        -9.485528337786546
      ],
      [
        "ĥ",
        -9.485630059196216
      ],
      [
        "čĊĠĠĠ",
        -9.48570262768246
      ],
      [
        "Ġcost",
        -9.4857582771068
      ],
      [
        "04",
        -9.48916871469173
      ],
      [
        "Ġtoday",
        -9.489657878870837
      ],
      [
        "Ġrelated",
        -9.490646217186516
      ],
      [
        "cdot",
        -9.490715105289643
      ],
      [
        "Ġentire",
        -9.490850145498166
      ],
      [
        "taking",
        -9.491314791214151
      ],
      [
        "href",
        -9.491334190564604
      ],
      [
        "Ġnull",
        -9.493819983315642
      ],
      [
        "Ġ25",
        -9.493928227671272
      ],
      [
        "Ġaccount",
        -9.494531091553451
      ],
      [
        "Ġcar",
        -9.4949461291115
      ],
      [
        "Ġmotion",
        -9.495047119061224
      ],
      [
        "Ġlive",
        -9.495280983734451
      ],
      [
        "Ġreceived",
        -9.495433908812798
      ],
      [
        "Ġmaterial",
        -9.496010156734858
      ],
      [
        "Since",
        -9.49607508968912
      ],
      [
        "Ġdeath",
        -9.497323581769768
      ],
      [
        "Ġpatient",
        -9.497655381357328
      ],
      [
        "Ġanything",
        -9.497705176242658
      ],
      [
        "Ãĥ",
        -9.498068216262928
      ],
      [
        "{{\\",
        -9.4988858343304
      ],
      [
        "}{\\",
        -9.498920068866084
      ],
      [
        "asked",
        -9.499523112692808
      ],
      [
        "Ġpro",
        -9.500325058939056
      ],
      [
        "Ġunderstand",
        -9.50120432656148
      ],
      [
        "thus",
        -9.501747893934018
      ],
      [
        "Ġmembers",
        -9.502474289207113
      ],
      [
        "Ġpercent",
        -9.502947745607177
      ],
      [
        "Thus",
        -9.505373645825015
      ],
      [
        "Ġaverage",
        -9.506373179977802
      ],
      [
        "ĠOne",
        -9.506455625513352
      ],
      [
        "refore",
        -9.50708558675028
      ],
      [
        "Ġbring",
        -9.507275034546272
      ],
      [
        "document",
        -9.507415648418926
      ],
      [
        "Ġhalf",
        -9.508766799876526
      ],
      [
        "Ġothers",
        -9.508918730687354
      ],
      [
        "significantly",
        -9.510562991837023
      ],
      [
        "Ġcity",
        -9.510669084474143
      ],
      [
        "wide",
        -9.511869934509324
      ],
      [
        "Ġdistribution",
        -9.512508559701992
      ],
      [
        "Ġgrowth",
        -9.51290185743516
      ],
      [
        "Ġdifference",
        -9.514213592932371
      ],
      [
        "Ġagree",
        -9.515435641177124
      ],
      [
        "Ġmind",
        -9.517307198414604
      ],
      [
        "array",
        -9.517864207232517
      ],
      [
        "__",
        -9.519012123931756
      ],
      [
        "Ġtarget",
        -9.519693246572336
      ],
      [
        "Ġnetwork",
        -9.520894152917984
      ],
      [
        "Ġphase",
        -9.522004287055262
      ],
      [
        "Ġgetting",
        -9.522745817031746
      ],
      [
        "ĠAfter",
        -9.525827960224904
      ],
      [
        "Ġtalk",
        -9.52599267804962
      ],
      [
        "Ġhistory",
        -9.527071601950054
      ],
      [
        "Ġstates",
        -9.5277268756103
      ],
      [
        "Ġ19",
        -9.52898462753899
      ],
      [
        "55",
        -9.52901835357172
      ],
      [
        "Ġsubject",
        -9.532866155607646
      ],
      [
        "ĠUS",
        -9.532962094396176
      ],
      [
        "net",
        -9.5364486808816
      ],
      [
        "Ġdis",
        -9.53783753590787
      ],
      [
        "ized",
        -9.537843551472724
      ],
      [
        "ĠMore",
        -9.537866846891244
      ],
      [
        "Ġvia",
        -9.538208101948117
      ],
      [
        "param",
        -9.53944114841725
      ],
      [
        "Ġnight",
        -9.539478878334576
      ],
      [
        "Object",
        -9.540887707864282
      ],
      [
        "Ġacid",
        -9.541030974047027
      ],
      [
        "Ġnormal",
        -9.541067936054333
      ],
      [
        "43",
        -9.54219247637025
      ],
      [
        "chi",
        -9.542670542992717
      ],
      [
        "36",
        -9.543810196111137
      ],
      [
        "Ġseries",
        -9.543874188218266
      ],
      [
        "Ġstring",
        -9.544440930231811
      ],
      [
        "infty",
        -9.546471128734138
      ],
      [
        "Ġinvolved",
        -9.547169406650042
      ],
      [
        "Ġevent",
        -9.547175945365888
      ],
      [
        "/*",
        -9.547547927834389
      ],
      [
        "99",
        -9.547734846017052
      ],
      [
        "Ġrecord",
        -9.548397677467854
      ],
      [
        "ĠRe",
        -9.548765846526036
      ],
      [
        "Ġpopulation",
        -9.549166685222282
      ],
      [
        "Ġlooking",
        -9.549361270334302
      ],
      [
        "field",
        -9.549384277523965
      ],
      [
        "old",
        -9.549842655226728
      ],
      [
        "Ġmass",
        -9.550349166304729
      ],
      [
        "not",
        -9.551518478480984
      ],
      [
        "Ġtax",
        -9.55196894113354
      ],
      [
        "Ġalmost",
        -9.553260129868304
      ],
      [
        "Ġprevious",
        -9.553498661103008
      ],
      [
        "Ġmicro",
        -9.55406566148439
      ],
      [
        "All",
        -9.555770612776833
      ],
      [
        "Ġanswer",
        -9.555986985321054
      ],
      [
        "Ġgene",
        -9.557201421418885
      ],
      [
        "Ġstrong",
        -9.55727242743534
      ],
      [
        "Ġnothing",
        -9.557537533324185
      ],
      [
        "Ġcondition",
        -9.558437923696422
      ],
      [
        "Ġparty",
        -9.560291070359243
      ],
      [
        "49",
        -9.560890835249952
      ],
      [
        "Ġpolice",
        -9.561299354563848
      ],
      [
        "Ġclinical",
        -9.56255391373688
      ],
      [
        "script",
        -9.563495796015047
      ],
      [
        "Ġair",
        -9.563500196602185
      ],
      [
        "Get",
        -9.563623160727024
      ],
      [
        "Ġcheck",
        -9.56606585644056
      ],
      [
        "================",
        -9.568467353757084
      ],
      [
        "way",
        -9.568523631221296
      ],
      [
        "Ġhours",
        -9.569029466161624
      ],
      [
        "Ġsix",
        -9.569192339458644
      ],
      [
        "Ġmarket",
        -9.57027089368502
      ],
      [
        "Ġinstead",
        -9.570676843827288
      ],
      [
        "Ġneeded",
        -9.571386645091666
      ],
      [
        "Ġaddress",
        -9.571837396139763
      ],
      [
        "Ġweight",
        -9.57190191648989
      ],
      [
        "Ġrespect",
        -9.571985178001484
      ],
      [
        "Ġexpected",
        -9.572528284690009
      ],
      [
        "Ġcomplex",
        -9.574068503505602
      ],
      [
        "Ġbuilding",
        -9.574753467781903
      ],
      [
        "Ġ17",
        -9.575059163921404
      ],
      [
        "ĠThen",
        -9.575292192140775
      ],
      [
        "![",
        -9.575975405279866
      ],
      [
        "Ġlanguage",
        -9.577073389352217
      ],
      [
        "Ġrecent",
        -9.577088684054056
      ],
      [
        "Ġproblems",
        -9.579885895514057
      ],
      [
        "Ġprior",
        -9.581597320419094
      ],
      [
        "ably",
        -9.582481876460983
      ],
      [
        "Ġdetermine",
        -9.583252812562256
      ],
      [
        "treated",
        -9.583581893492443
      ],
      [
        "}}\\",
        -9.583820389654322
      ],
      [
        "Ġmethods",
        -9.585131581974194
      ],
      [
        "Ġdamage",
        -9.58589688545345
      ],
      [
        "Ġstep",
        -9.586343007951887
      ],
      [
        "Ġjob",
        -9.586450817550976
      ],
      [
        "Ġproduction",
        -9.586644805262177
      ],
      [
        "ĠYork",
        -9.58670841090722
      ],
      [
        "public",
        -9.586912098221168
      ],
      [
        "ĠÂ§",
        -9.588184973627698
      ],
      [
        "})",
        -9.588333281107822
      ],
      [
        "Ġissues",
        -9.58849320163974
      ],
      [
        "View",
        -9.588973285955287
      ],
      [
        "someone",
        -9.590596834511317
      ],
      [
        "Ġservices",
        -9.59166429555727
      ],
      [
        "53",
        -9.592504754430747
      ],
      [
        "Ġneeds",
        -9.593699178174262
      ],
      [
        "Delta",
        -9.594145977515725
      ],
      [
        "width",
        -9.59496873310019
      ],
      [
        "Ġstatement",
        -9.597298463693209
      ],
      [
        "eta",
        -9.597429735072046
      ],
      [
        "land",
        -9.597500449454817
      ],
      [
        "Ġbreak",
        -9.597698946314786
      ],
      [
        "like",
        -9.598677944446132
      ],
      [
        "With",
        -9.59886256979472
      ],
      [
        "52",
        -9.600582991391711
      ],
      [
        "Ġblack",
        -9.601129473635648
      ],
      [
        "Ġhope",
        -9.60132311644893
      ],
      [
        "Ġsequence",
        -9.602041517174692
      ],
      [
        "Ġplan",
        -9.60383517661112
      ],
      [
        "Ġpolicy",
        -9.604125126901693
      ],
      [
        "Ġloss",
        -9.604389253949924
      ],
      [
        "probably",
        -9.605195889321834
      ],
      [
        "ate",
        -9.60671763162993
      ],
      [
        "lib",
        -9.606755797520524
      ],
      [
        "Ġpressure",
        -9.607021916034384
      ],
      [
        "Ġstudents",
        -9.60714037812299
      ],
      [
        "60",
        -9.608007711368566
      ],
      [
        "void",
        -9.608322274241084
      ],
      [
        "Ġremain",
        -9.61294460355558
      ],
      [
        "Ġstory",
        -9.613115252441853
      ],
      [
        "Ġstarted",
        -9.614747308231935
      ],
      [
        "Ġquality",
        -9.616493753574565
      ],
      [
        "Ġsense",
        -9.619074405609512
      ],
      [
        "Ġitself",
        -9.619932235980402
      ],
      [
        "56",
        -9.621046456224134
      ],
      [
        "07",
        -9.621389437659024
      ],
      [
        "Ġstop",
        -9.622154688299675
      ],
      [
        "Ġsample",
        -9.622829980845715
      ],
      [
        "Ġcontinue",
        -9.622897508321165
      ],
      [
        "Ġcomplete",
        -9.623884345793904
      ],
      [
        "Ġsituation",
        -9.624261537307971
      ],
      [
        "Ġlength",
        -9.624284748970211
      ],
      [
        "Ġforce",
        -9.624970974908106
      ],
      [
        "âĢ",
        -9.625439786118417
      ],
      [
        "Ġmedia",
        -9.626218601504284
      ],
      [
        "Ġobtain",
        -9.628182343931536
      ],
      [
        "Ġdifficult",
        -9.629296412748293
      ],
      [
        "Ġallow",
        -9.630117487141291
      ],
      [
        "51",
        -9.630992261236218
      ],
      [
        "ĠTHE",
        -9.63150946722598
      ],
      [
        "ur",
        -9.631589373344982
      ],
      [
        "ĠNational",
        -9.63184195060824
      ],
      [
        "!=",
        -9.63184813602366
      ],
      [
        "47",
        -9.63194437380719
      ],
      [
        "off",
        -9.63222065930406
      ],
      [
        "Ġpolitical",
        -9.63297571858599
      ],
      [
        "46",
        -9.635104669063866
      ],
      [
        ")/",
        -9.636153655306869
      ],
      [
        "dots",
        -9.63624401881907
      ],
      [
        "Ġconstant",
        -9.637134967330091
      ],
      [
        "Ġindependent",
        -9.637704200792657
      ],
      [
        "coming",
        -9.638367803304597
      ],
      [
        "Ġheart",
        -9.639604235565734
      ],
      [
        "Ġinput",
        -9.640449207366563
      ],
      [
        "Ġpage",
        -9.64093992455466
      ],
      [
        "Ġnecessary",
        -9.64095452726907
      ],
      [
        "path",
        -9.64133363676154
      ],
      [
        "Ġbook",
        -9.641938664242868
      ],
      [
        "Ã©",
        -9.642492925177422
      ],
      [
        "Ġshall",
        -9.643592111172875
      ],
      [
        "Ġspecial",
        -9.644146678473271
      ],
      [
        "Ġ\\\\",
        -9.645123316580628
      ],
      [
        "Further",
        -9.646812771175552
      ],
      [
        "Although",
        -9.646966500169498
      ],
      [
        "from",
        -9.649455380479637
      ],
      [
        "My",
        -9.649695668159596
      ],
      [
        "Ġreference",
        -9.650377151981482
      ],
      [
        "cal",
        -9.650598136346582
      ],
      [
        "ling",
        -9.650836372021056
      ],
      [
        "ĠTrump",
        -9.65111303006872
      ],
      [
        "06",
        -9.652764006301224
      ],
      [
        "Ġimpact",
        -9.653505540186943
      ],
      [
        "69",
        -9.653699859211727
      ],
      [
        "Ġcolor",
        -9.65370329338621
      ],
      [
        "Ġsimply",
        -9.654295948850612
      ],
      [
        "Ġbad",
        -9.654392009406502
      ],
      [
        "According",
        -9.655386056350252
      ],
      [
        "Ġprovides",
        -9.655760428026335
      ],
      [
        "Ġstay",
        -9.657767239004466
      ],
      [
        "65",
        -9.659049152387505
      ],
      [
        "Ġnear",
        -9.659742453093491
      ],
      [
        "\\_",
        -9.659785762296345
      ],
      [
        "state",
        -9.660606012395702
      ],
      [
        "Ġpersonal",
        -9.661311786435537
      ],
      [
        "Ġcut",
        -9.66172659913216
      ],
      [
        "Ġmedical",
        -9.661775568444066
      ],
      [
        "Key",
        -9.661932642448642
      ],
      [
        "Ġlines",
        -9.66199269851975
      ],
      [
        "Ġprevent",
        -9.662483423673564
      ],
      [
        "Ġjudgment",
        -9.66380568623964
      ],
      [
        "Ġoutput",
        -9.664932030815375
      ],
      [
        "Ġcontact",
        -9.667583489234444
      ],
      [
        "Ġoutside",
        -9.668575936061526
      ],
      [
        "Ġmoment",
        -9.66897663768353
      ],
      [
        "ĠOF",
        -9.669570407415122
      ],
      [
        "length",
        -9.66979925304264
      ],
      [
        "my",
        -9.669807648689822
      ],
      [
        "Ġespecially",
        -9.670034243825333
      ],
      [
        "Ġshare",
        -9.672025513260463
      ],
      [
        "])",
        -9.673454734033603
      ],
      [
        "Ġ||",
        -9.674328271696652
      ],
      [
        "^\\",
        -9.674409815989286
      ],
      [
        "54",
        -9.675472919321804
      ],
      [
        "with",
        -9.675698708491694
      ],
      [
        "Ġcontract",
        -9.676131550020129
      ],
      [
        "Ġinstance",
        -9.676568029834804
      ],
      [
        "Ġwhite",
        -9.677227685064366
      ],
      [
        "sim",
        -9.67759463448422
      ],
      [
        "directly",
        -9.679429653633816
      ],
      [
        "ent",
        -9.67983196991894
      ],
      [
        "Ġpresence",
        -9.679954477237107
      ],
      [
        "Ġformer",
        -9.681479068896756
      ],
      [
        "Error",
        -9.683266728970915
      ],
      [
        "Ġproperties",
        -9.683453012206868
      ],
      [
        "max",
        -9.68479661504758
      ],
      [
        "Ġmodels",
        -9.684807783273508
      ],
      [
        "ĠMay",
        -9.687701869081758
      ],
      [
        "Ġseem",
        -9.688336234468006
      ],
      [
        "px",
        -9.68837620188562
      ],
      [
        "ĠCity",
        -9.689082634122595
      ],
      [
        "));",
        -9.68949686574958
      ],
      [
        "Ġflow",
        -9.689876723606735
      ],
      [
        "Ġdistrict",
        -9.689968748541572
      ],
      [
        "Ġwords",
        -9.690014885858048
      ],
      [
        "Ġproducts",
        -9.690349318739347
      ],
      [
        "Ġrelease",
        -9.69078290336276
      ],
      [
        "Ġdetermined",
        -9.690878184887737
      ],
      [
        "48",
        -9.694255489730503
      ],
      [
        "Ġcross",
        -9.6948057018907
      ],
      [
        "Ġ21",
        -9.694950427026573
      ],
      [
        "ring",
        -9.695374153048531
      ],
      [
        "ĠDr",
        -9.698260713505212
      ],
      [
        "Ġrest",
        -9.698684728326995
      ],
      [
        "Ġappeal",
        -9.701116334104734
      ],
      [
        "Ġdecrease",
        -9.701487903502628
      ],
      [
        "const",
        -9.703957525766452
      ],
      [
        "Ġwide",
        -9.706955312637714
      ],
      [
        "function",
        -9.7073661395873
      ],
      [
        "Ġeffective",
        -9.70811899640777
      ],
      [
        "Ġphysical",
        -9.708656652865546
      ],
      [
        "Ġeverything",
        -9.708835636431564
      ],
      [
        "Ġmulti",
        -9.708853114897884
      ],
      [
        "Ġinside",
        -9.709143678347653
      ],
      [
        "Ġact",
        -9.709804570239838
      ],
      [
        "Ġground",
        -9.710557194677737
      ],
      [
        "Ġwrong",
        -9.711723738673234
      ],
      [
        "Ġprimary",
        -9.71231159398267
      ],
      [
        "37",
        -9.714458331358676
      ],
      [
        "Ġlonger",
        -9.71472688999284
      ],
      [
        "ĠMy",
        -9.71503340323178
      ],
      [
        "Ġhold",
        -9.716413785824823
      ],
      [
        "Ġpain",
        -9.716846027276771
      ],
      [
        "Ġelement",
        -9.71698689075692
      ],
      [
        "psi",
        -9.717344039946028
      ],
      [
        "Ġint",
        -9.717762749088124
      ],
      [
        "Ġlayer",
        -9.718626925081969
      ],
      [
        "seems",
        -9.720853507131531
      ],
      [
        "Ġquite",
        -9.722497539546897
      ],
      [
        "Ġoffer",
        -9.723767965526504
      ],
      [
        "///",
        -9.724312922446003
      ],
      [
        "57",
        -9.724803812024936
      ],
      [
        "Ġevents",
        -9.725912474609755
      ],
      [
        "Ġpresented",
        -9.727951493781188
      ],
      [
        "Ġrights",
        -9.728429882080412
      ],
      [
        "Ġwrite",
        -9.729457559891303
      ],
      [
        "Ġincreasing",
        -9.730578443722283
      ],
      [
        "Ġeasy",
        -9.730722759546632
      ],
      [
        "+\\",
        -9.730818192432624
      ],
      [
        "app",
        -9.731747305003724
      ],
      [
        "Ġidentified",
        -9.732503543098396
      ],
      [
        "Ġbasis",
        -9.732740323965206
      ],
      [
        "Ġdate",
        -9.733644010824564
      ],
      [
        "therefore",
        -9.734943476213012
      ],
      [
        "Ġplaintiff",
        -9.73497481199872
      ],
      [
        "Ġrunning",
        -9.735292313629412
      ],
      [
        "Ġago",
        -9.73565046379276
      ],
      [
        "Ġfeatures",
        -9.73570188760762
      ],
      [
        "Ġoffice",
        -9.737485057055736
      ],
      [
        "Ġarray",
        -9.73895332120724
      ],
      [
        "42",
        -9.739023585233571
      ],
      [
        "ĠLicense",
        -9.740129289334986
      ],
      [
        "Ġgenes",
        -9.741174011528235
      ],
      [
        "Ġmember",
        -9.742131112389169
      ],
      [
        "item",
        -9.742963982149822
      ],
      [
        "Ġenvironment",
        -9.74310753173688
      ],
      [
        "Ġcenter",
        -9.743246530393415
      ],
      [
        "induced",
        -9.74331493882142
      ],
      [
        "Ġcreated",
        -9.743562448682516
      ],
      [
        "Ġvideo",
        -9.744282775638473
      ],
      [
        "Ġinitial",
        -9.745039592474894
      ],
      [
        "Ġapply",
        -9.745146804243022
      ],
      [
        "ions",
        -9.745672611063975
      ],
      [
        "âĢĲ",
        -9.74594452033128
      ],
      [
        "Ġrelationship",
        -9.74611114949381
      ],
      [
        "Ġagreement",
        -9.747275847659866
      ],
      [
        "](",
        -9.748771338010949
      ],
      [
        "Ġfunctions",
        -9.749562257516224
      ],
      [
        "Ġgas",
        -9.750960919402653
      ],
      [
        "Ġ&&",
        -9.751164095946484
      ],
      [
        "58",
        -9.751189155791192
      ],
      [
        "Ġ40",
        -9.755795740291813
      ],
      [
        "File",
        -9.75618715042972
      ],
      [
        ")/(",
        -9.757726315598063
      ],
      [
        "Ġoil",
        -9.757851690069606
      ],
      [
        "ĠBy",
        -9.758082412949578
      ],
      [
        "Ġwanted",
        -9.758389179212148
      ],
      [
        "Ġnegative",
        -9.75871298485032
      ],
      [
        "True",
        -9.758798207854852
      ],
      [
        "Ġsamples",
        -9.758874432233684
      ],
      [
        "Ġsearch",
        -9.760054356069702
      ],
      [
        "Ġdirection",
        -9.760372768696175
      ],
      [
        "Ġdi",
        -9.76056061286438
      ],
      [
        "Ġparameters",
        -9.760829124015192
      ],
      [
        "base",
        -9.760927632021172
      ],
      [
        "Ġnatural",
        -9.761771081722731
      ],
      [
        "Ġcontext",
        -9.761957921891668
      ],
      [
        "Ġfront",
        -9.76301310947585
      ],
      [
        "Ġprice",
        -9.763261125512994
      ],
      [
        "ng",
        -9.764695046807798
      ],
      [
        "Ġtitle",
        -9.766119326238403
      ],
      [
        "rangle",
        -9.766867900373423
      ],
      [
        "Ġdirect",
        -9.767237802718888
      ],
      [
        "ĠDe",
        -9.767374300738648
      ],
      [
        "top",
        -9.767805648993484
      ],
      [
        "Ġsuper",
        -9.771432480473308
      ],
      [
        "Ġrequest",
        -9.772557985743385
      ],
      [
        "Ġdeep",
        -9.7728832653984
      ],
      [
        "Ġequal",
        -9.77308141796934
      ],
      [
        "Ġ22",
        -9.774237252279228
      ],
      [
        "Ġlegal",
        -9.774606441109714
      ],
      [
        "\\])",
        -9.776120282837155
      ],
      [
        "Ġexpect",
        -9.77799705049333
      ],
      [
        "msg",
        -9.778408478252643
      ],
      [
        "val",
        -9.7785923222809
      ],
      [
        "Ġ/*",
        -9.778604300240744
      ],
      [
        "Ġstage",
        -9.778990369642836
      ],
      [
        "Ġtraining",
        -9.779341764325268
      ],
      [
        "Ġmemory",
        -9.780615284589343
      ],
      [
        "den",
        -9.781728913750818
      ],
      [
        "Ġelements",
        -9.782111277839167
      ],
      [
        "Ġavoid",
        -9.78266215166482
      ],
      [
        "men",
        -9.782697448649463
      ],
      [
        "Ġstatic",
        -9.78346164513676
      ],
      [
        "Ġbuild",
        -9.78420200454029
      ],
      [
        "Ġknowledge",
        -9.784840764952298
      ],
      [
        "usually",
        -9.786394872615531
      ],
      [
        "Ġareas",
        -9.786834942532645
      ],
      [
        "Ġmice",
        -9.78690559829234
      ],
      [
        "Ġtypes",
        -9.787807008026531
      ],
      [
        "Ġfire",
        -9.7879534593346
      ],
      [
        "developed",
        -9.788569582241411
      ],
      [
        "sub",
        -9.788570747626826
      ],
      [
        "Ġassume",
        -9.788620637299738
      ],
      [
        "Ġtheory",
        -9.78899403194168
      ],
      [
        "although",
        -9.789568616144765
      ],
      [
        "dev",
        -9.789905292724482
      ],
      [
        "One",
        -9.7901966985112
      ],
      [
        "Ġstatus",
        -9.790651532706129
      ],
      [
        "Ġdrug",
        -9.790786479420609
      ],
      [
        "ization",
        -9.791098990169248
      ],
      [
        "}(\\",
        -9.792060416294442
      ],
      [
        "Ġbehind",
        -9.792359387860962
      ],
      [
        "user",
        -9.792679994541466
      ],
      [
        "Ġbehavior",
        -9.793814339305136
      ],
      [
        "59",
        -9.793820213374708
      ],
      [
        "ley",
        -9.793917734446469
      ],
      [
        "ĠInc",
        -9.795619796161771
      ],
      [
        "Set",
        -9.795852538667807
      ],
      [
        "les",
        -9.796866017332876
      ],
      [
        "Ġrequire",
        -9.797476037220472
      ],
      [
        "Ġapplied",
        -9.798657671601129
      ],
      [
        "Ġweeks",
        -9.798665932089865
      ],
      [
        "ÃĤ",
        -9.799580908285574
      ],
      [
        "Ġunit",
        -9.799690374322768
      ],
      [
        "Ġgreater",
        -9.800302885635698
      ],
      [
        "use",
        -9.80154376455294
      ],
      [
        "Ġratio",
        -9.801785238006785
      ],
      [
        "Ġask",
        -9.803812892368278
      ],
      [
        "big",
        -9.804042072131471
      ],
      [
        "ĠJohn",
        -9.804237051294502
      ],
      [
        "Ġpreviously",
        -9.804737428856978
      ],
      [
        "ities",
        -9.805038751014289
      ],
      [
        "Ġreduce",
        -9.80522456520321
      ],
      [
        "Ġquestions",
        -9.805574228825986
      ],
      [
        "Ġdouble",
        -9.805939228885215
      ],
      [
        "ĠDNA",
        -9.808806046044072
      ],
      [
        "Ġlimited",
        -9.809243842932974
      ],
      [
        "Test",
        -9.809881801548327
      ],
      [
        "Ġglobal",
        -9.81183842390215
      ],
      [
        "invention",
        -9.813475723787771
      ],
      [
        "Ġpractice",
        -9.813540769546464
      ],
      [
        "Ġreduced",
        -9.81362167974422
      ],
      [
        "ĠWith",
        -9.813672025398418
      ],
      [
        "Ġlack",
        -9.813732076460498
      ],
      [
        "back",
        -9.814644308772852
      ],
      [
        "term",
        -9.815260442153509
      ],
      [
        "ĠHis",
        -9.815608677602349
      ],
      [
        "Ġpath",
        -9.815898747414993
      ],
      [
        "ĠPresident",
        -9.816075487157288
      ],
      [
        "per",
        -9.816906002618028
      ],
      [
        "Ġsaw",
        -9.816918903740785
      ],
      [
        "Ġmonth",
        -9.817243241982654
      ],
      [
        "Ġarticle",
        -9.817830720161629
      ],
      [
        "ams",
        -9.818044696523351
      ],
      [
        "Ġrelative",
        -9.818497536684037
      ],
      [
        "that",
        -9.819817071998305
      ],
      [
        "Ġgames",
        -9.820234105450576
      ],
      [
        "72",
        -9.82163287432648
      ],
      [
        "Because",
        -9.821944956982472
      ],
      [
        "quad",
        -9.821970341447102
      ],
      [
        "]^",
        -9.822325851471131
      ],
      [
        "ING",
        -9.822783469291917
      ],
      [
        "Ġopinion",
        -9.826276353477065
      ],
      [
        "Ġworks",
        -9.826384657856536
      ],
      [
        "By",
        -9.827526858888946
      ],
      [
        "Text",
        -9.82904077763523
      ],
      [
        "Ġproduce",
        -9.83055686439804
      ],
      [
        "Ġleave",
        -9.83057650380006
      ],
      [
        "ish",
        -9.831117216238937
      ],
      [
        "Ġculture",
        -9.83150985884548
      ],
      [
        "Ġmis",
        -9.832747477472646
      ],
      [
        "Ġ$$",
        -9.83367747405277
      ],
      [
        "Ġrule",
        -9.834223849142427
      ],
      [
        "Ġforward",
        -9.834439626207796
      ],
      [
        "ĠAct",
        -9.834642799813505
      ],
      [
        "Ġsoftware",
        -9.834882722849056
      ],
      [
        "particularly",
        -9.835850534102004
      ],
      [
        "Ġword",
        -9.83610766482171
      ],
      [
        "day",
        -9.836947380979966
      ],
      [
        "len",
        -9.838526656574476
      ],
      [
        "Ġ(\\[",
        -9.839990754704043
      ],
      [
        "Ġseparate",
        -9.840700126781083
      ],
      [
        "Ġlimit",
        -9.84117183861424
      ],
      [
        "operator",
        -9.841611820198256
      ],
      [
        "Ġmother",
        -9.842335422951283
      ],
      [
        "Ġchoice",
        -9.842727987985125
      ],
      [
        "we",
        -9.843308178151291
      ],
      [
        "Ġart",
        -9.844097594382946
      ],
      [
        "Ġincludes",
        -9.844183379970875
      ],
      [
        "ĠCounty",
        -9.844861870710387
      ],
      [
        "Ġex",
        -9.845903047792255
      ],
      [
        "Ġattack",
        -9.846396610253407
      ],
      [
        "Ġdisplay",
        -9.846435027814133
      ],
      [
        "Ġinfluence",
        -9.846743348424464
      ],
      [
        "...\"",
        -9.847634218684066
      ],
      [
        "---------------",
        -9.84767945050258
      ],
      [
        "ĠBe",
        -9.847874708780816
      ],
      [
        "static",
        -9.849017337431071
      ],
      [
        "corresponding",
        -9.849822148921591
      ],
      [
        "node",
        -9.85394873656534
      ],
      [
        "Ġplayers",
        -9.854631320411658
      ],
      [
        "003",
        -9.855757657983586
      ],
      [
        "96",
        -9.856079408703868
      ],
      [
        "Ġaffect",
        -9.85616220965449
      ],
      [
        "link",
        -9.856164031582209
      ],
      [
        "form",
        -9.856523625040644
      ],
      [
        "}}$",
        -9.856832221988457
      ],
      [
        "Ġclaims",
        -9.85704492319218
      ],
      [
        "86",
        -9.8570874080551
      ],
      [
        "whose",
        -9.85811420723275
      ],
      [
        "Ġwritten",
        -9.858481746667255
      ],
      [
        "Ġnature",
        -9.861266252961189
      ],
      [
        "90",
        -9.861490213157412
      ],
      [
        "followed",
        -9.86343429757614
      ],
      [
        "Ġfine",
        -9.864999904826472
      ],
      [
        "index",
        -9.865122470279486
      ],
      [
        "Ġnational",
        -9.865504210338283
      ],
      [
        "Ġmessage",
        -9.865703565830737
      ],
      [
        "Ġvar",
        -9.866811110776098
      ],
      [
        "map",
        -9.867645498530043
      ],
      [
        "Ġ[*",
        -9.869878860248509
      ],
      [
        "tried",
        -9.869928575070164
      ],
      [
        "pp",
        -9.870835051681278
      ],
      [
        "Ġdistance",
        -9.871610239262315
      ],
      [
        "Ġargument",
        -9.871724943126123
      ],
      [
        "java",
        -9.872050217393078
      ],
      [
        "85",
        -9.872122049267947
      ],
      [
        "čĊ",
        -9.872356297537577
      ],
      [
        "68",
        -9.874580045763588
      ],
      [
        "Ġspecies",
        -9.87487860671445
      ],
      [
        "jury",
        -9.87527251953597
      ],
      [
        "Ġsuccess",
        -9.877935854742804
      ],
      [
        "Ġliving",
        -9.8795680800054
      ],
      [
        "}$,",
        -9.883024557758686
      ],
      [
        "ĠSouth",
        -9.883352738235445
      ],
      [
        "Ġ23",
        -9.883823788675478
      ],
      [
        "Ġsecurity",
        -9.884432600216169
      ],
      [
        "Ġlate",
        -9.884590203816412
      ],
      [
        "ER",
        -9.885078306267603
      ],
      [
        "anyone",
        -9.885588158404916
      ],
      [
        "Re",
        -9.886206310708502
      ],
      [
        "She",
        -9.88685678577805
      ],
      [
        "67",
        -9.886938030746895
      ],
      [
        "ĠOur",
        -9.88815731457339
      ],
      [
        "Ġpurpose",
        -9.888208399580735
      ],
      [
        "Now",
        -9.888456764902877
      ],
      [
        "Ġwar",
        -9.888815540894887
      ],
      [
        "Ġindex",
        -9.889019900072428
      ],
      [
        "Ġrecently",
        -9.889174493569982
      ],
      [
        "Sec",
        -9.889271346334288
      ],
      [
        "Ġappropriate",
        -9.889316187971769
      ],
      [
        "Ġbrain",
        -9.88936071164585
      ],
      [
        "Ġvector",
        -9.889574168102836
      ],
      [
        "Ġdefault",
        -9.891379153565548
      ],
      [
        "Ġlost",
        -9.89197317129536
      ],
      [
        "88",
        -9.892005653663947
      ],
      [
        "Ġstyle",
        -9.892055612342418
      ],
      [
        "Ġthemselves",
        -9.892561524385794
      ],
      [
        "Ġetc",
        -9.893664768539212
      ],
      [
        "Ġexplain",
        -9.893930284043703
      ],
      [
        "čĊĠĠĠĠĠĠĠ",
        -9.894319538329231
      ],
      [
        "ĠDo",
        -9.894338468329364
      ],
      [
        "generally",
        -9.894577049838697
      ],
      [
        "Ġwalk",
        -9.89519296375716
      ],
      [
        "Ġcountries",
        -9.89528762395068
      ],
      [
        "Ġappear",
        -9.895652073152103
      ],
      [
        "Ġfederal",
        -9.896491187951922
      ],
      [
        "me",
        -9.897120300010922
      ],
      [
        "Ġhospital",
        -9.89713359238533
      ],
      [
        "Ġred",
        -9.897365551172262
      ],
      [
        "Ġactive",
        -9.898025187880087
      ],
      [
        "Ġonline",
        -9.8981996393555
      ],
      [
        "Ġfailure",
        -9.89830976940561
      ],
      [
        "style",
        -9.89897197321252
      ],
      [
        "=\\",
        -9.89924216836786
      ],
      [
        "Ġcount",
        -9.89974083667314
      ],
      [
        "Ġdifferences",
        -9.900162376241616
      ],
      [
        "Also",
        -9.900472737126856
      ],
      [
        "ĠAmerica",
        -9.900815900891518
      ],
      [
        "Ġcharge",
        -9.900977288360483
      ],
      [
        "Ġproposed",
        -9.901967397943666
      ],
      [
        "Ġtable",
        -9.902400022404382
      ],
      [
        "From",
        -9.90311609313946
      ],
      [
        "Ġreceive",
        -9.90397769564059
      ],
      [
        "Ġeconomic",
        -9.904450126156192
      ],
      [
        "Ġslow",
        -9.905515553459663
      ],
      [
        "Ġ28",
        -9.906096043790038
      ],
      [
        "ĠCD",
        -9.907115228374291
      ],
      [
        "Ġblock",
        -9.908411882486911
      ],
      [
        "Ġcomputer",
        -9.908815589214749
      ],
      [
        ":**",
        -9.909259087995672
      ],
      [
        "Size",
        -9.91057975990772
      ],
      [
        "Ġ2012",
        -9.910780221689503
      ],
      [
        "Ġhimself",
        -9.911250250146043
      ],
      [
        "Ġbasic",
        -9.911436820642743
      ],
      [
        "94",
        -9.911510506060065
      ],
      [
        "group",
        -9.911563746988923
      ],
      [
        "Gamma",
        -9.91218555506102
      ],
      [
        "body",
        -9.91219791153638
      ],
      [
        "ĠGeneral",
        -9.912673338782447
      ],
      [
        "became",
        -9.912982984374834
      ],
      [
        "title",
        -9.914290822060048
      ],
      [
        "\";",
        -9.91452152931271
      ],
      [
        "ĠMarch",
        -9.91464148188117
      ],
      [
        "Omega",
        -9.915517893557608
      ],
      [
        "66",
        -9.91556104096784
      ],
      [
        "Ġhit",
        -9.916010787977124
      ],
      [
        "Exception",
        -9.916693347565705
      ],
      [
        "State",
        -9.91759149284147
      ],
      [
        "Ġpoor",
        -9.91772641674373
      ],
      [
        "ĠWorld",
        -9.917815804225691
      ],
      [
        "Ġconcern",
        -9.918006998550249
      ],
      [
        "\\\\",
        -9.918185793339246
      ],
      [
        "color",
        -9.918388842832869
      ],
      [
        "gave",
        -9.91839483884249
      ],
      [
        "Ġdensity",
        -9.918832292424277
      ],
      [
        "Ġnotice",
        -9.919591203827574
      ],
      [
        "reasonable",
        -9.920228039920742
      ],
      [
        "ĠHouse",
        -9.920314234424575
      ],
      [
        "def",
        -9.920746794431214
      ],
      [
        "down",
        -9.921861750152608
      ],
      [
        "read",
        -9.922470258439956
      ],
      [
        "rightarrow",
        -9.922755364331048
      ],
      [
        "ĠChina",
        -9.923170598329827
      ],
      [
        "Ġwebsite",
        -9.923377568919395
      ],
      [
        "let",
        -9.924126711244837
      ],
      [
        "Ġmeeting",
        -9.925334985043293
      ],
      [
        "Ġfocus",
        -9.926208495229089
      ],
      [
        "Ġderivative",
        -9.927337992458172
      ],
      [
        "63",
        -9.927404921428227
      ],
      [
        "ĠNorth",
        -9.928211445435926
      ],
      [
        "Ġunique",
        -9.928237471160257
      ],
      [
        "Ġdrive",
        -9.931248418893295
      ],
      [
        "Ġpretty",
        -9.931575670148838
      ],
      [
        "^[@",
        -9.93172210645738
      ],
      [
        "¾",
        -9.932914900684477
      ],
      [
        "Ġ60",
        -9.933340113317138
      ],
      [
        "Ġfinancial",
        -9.933347618154674
      ],
      [
        "70",
        -9.934593222604878
      ],
      [
        "});",
        -9.935085599531602
      ],
      [
        "Ġrates",
        -9.93519785733581
      ],
      [
        "Path",
        -9.935200190135555
      ],
      [
        "Ġmap",
        -9.935547721167946
      ],
      [
        "ĠDepartment",
        -9.937188190796912
      ],
      [
        "Ġbackground",
        -9.937597596574909
      ],
      [
        "July",
        -9.938002740892497
      ],
      [
        "Ġserious",
        -9.93812729364109
      ],
      [
        "Ġcouple",
        -9.939474794537569
      ],
      [
        "Ġregard",
        -9.940629372325672
      ],
      [
        "Ġ/>",
        -9.94103453548754
      ],
      [
        "Ġinter",
        -9.941679203482158
      ],
      [
        "čĊĠ",
        -9.941863888534035
      ],
      [
        "designed",
        -9.942638857859803
      ],
      [
        "Ġrandom",
        -9.942901849181093
      ],
      [
        "Ġgain",
        -9.94349428507408
      ],
      [
        "Ġattempt",
        -9.943646085408394
      ],
      [
        "Ġfailed",
        -9.944672484617676
      ],
      [
        "ence",
        -9.94480200603451
      ],
      [
        "Ġland",
        -9.94579663774594
      ],
      [
        "ĠII",
        -9.946326732479346
      ],
      [
        "Ġcorrect",
        -9.946708981234911
      ],
      [
        "Ġcampaign",
        -9.946824244472568
      ],
      [
        "hearing",
        -9.947302282548431
      ],
      [
        "Ġ2013",
        -9.94835956936902
      ],
      [
        "Ġson",
        -9.949078688005876
      ],
      [
        "They",
        -9.95083396076694
      ],
      [
        "98",
        -9.951158694538146
      ],
      [
        "Ġdepend",
        -9.951242879547465
      ],
      [
        "Ġspeed",
        -9.952035339871507
      ],
      [
        "Ġscale",
        -9.952242196285503
      ],
      [
        "Ġpublished",
        -9.952887942350976
      ],
      [
        "Ġmeet",
        -9.954103790346744
      ],
      [
        "Ġnumbers",
        -9.954105258903798
      ],
      [
        "box",
        -9.954463952547169
      ],
      [
        "['",
        -9.95497873410443
      ],
      [
        "Ġoperation",
        -9.955132586428652
      ],
      [
        "App",
        -9.955903988303824
      ],
      [
        "Ġtissue",
        -9.955938479590156
      ],
      [
        "Ġconcentration",
        -9.956395218370991
      ],
      [
        "Ġ2016",
        -9.956944635349693
      ],
      [
        "Ġdegree",
        -9.957045849141895
      ],
      [
        "Ġallowed",
        -9.958866511867692
      ],
      [
        "Ġmeasured",
        -9.959650140026683
      ],
      [
        "vec",
        -9.95990271523658
      ],
      [
        "follows",
        -9.959975349432952
      ],
      [
        "free",
        -9.960275347045126
      ],
      [
        "Ġwoman",
        -9.960950215939356
      ],
      [
        "Ġsoon",
        -9.96121087705324
      ],
      [
        "Ġstress",
        -9.96159026668321
      ],
      [
        "Ġlarger",
        -9.961849218483062
      ],
      [
        "Ġcomponent",
        -9.962897786814452
      ],
      [
        "Ġfindings",
        -9.963181529598986
      ],
      [
        "Ġimprove",
        -9.963382472247
      ],
      [
        "expressed",
        -9.963911067164384
      ],
      [
        "Ġportion",
        -9.964153617479246
      ],
      [
        "Ġexist",
        -9.96490597887893
      ],
      [
        "Ġ2014",
        -9.965780930858722
      ],
      [
        "saying",
        -9.96581940067958
      ],
      [
        "Ġeveryone",
        -9.966050081823358
      ],
      [
        "ĊĠĠĠĠĠĠĠĠĠĠĠĠĠ",
        -9.966477294862756
      ],
      [
        "Ġsign",
        -9.96688879864363
      ],
      [
        "###",
        -9.967281804166682
      ],
      [
        "source",
        -9.969433376441074
      ],
      [
        "located",
        -9.970407039186409
      ],
      [
        "Ġcurrently",
        -9.971452258918877
      ],
      [
        "space",
        -9.97152763952963
      ],
      [
        "Ġheat",
        -9.972745565353067
      ],
      [
        "comes",
        -9.973339888529676
      ],
      [
        "Ċĉĉĉĉ",
        -9.973616532203495
      ],
      [
        "Ġmovement",
        -9.974969365849118
      ],
      [
        "input",
        -9.97525392969833
      ],
      [
        "After",
        -9.975731087198518
      ],
      [
        "ij",
        -9.975909123447884
      ],
      [
        "ice",
        -9.976122517631802
      ],
      [
        "Ġalone",
        -9.976411017428653
      ],
      [
        "Ġsafe",
        -9.976773361567185
      ],
      [
        "Ġpass",
        -9.976893667511996
      ],
      [
        "ified",
        -9.976909815587469
      ],
      [
        "Ġselected",
        -9.97715323746698
      ],
      [
        "ĠString",
        -9.977227232169597
      ],
      [
        "knew",
        -9.978486899707912
      ],
      [
        "related",
        -9.981517946188488
      ],
      [
        "Ġattention",
        -9.981914055498736
      ],
      [
        "ĠHere",
        -9.98201715863922
      ],
      [
        "\"><",
        -9.983264425536513
      ],
      [
        "Ġdetails",
        -9.983316874856454
      ],
      [
        "Ġbio",
        -9.983920817133017
      ],
      [
        "divided",
        -9.98409324403772
      ],
      [
        "began",
        -9.98453936617864
      ],
      [
        "Ġstand",
        -9.98475110463438
      ],
      [
        "$\\",
        -9.985736501391814
      ],
      [
        "Info",
        -9.986054551333169
      ],
      [
        "Ġvehicle",
        -9.987324983655425
      ],
      [
        "Ġfriends",
        -9.987338930201098
      ],
      [
        "Ġpull",
        -9.987428927180982
      ],
      [
        "ĠJune",
        -9.988203888762143
      ],
      [
        "Ġvolume",
        -9.988687080115088
      ],
      [
        "ĠAl",
        -9.989062762784537
      ],
      [
        "False",
        -9.989540343329578
      ],
      [
        "Ġassert",
        -9.99014411521284
      ],
      [
        "Ġcharacter",
        -9.990192925790808
      ],
      [
        "Ġcompanies",
        -9.99046422958911
      ],
      [
        "true",
        -9.991675450305964
      ],
      [
        "info",
        -9.99397771151123
      ],
      [
        "Ġboard",
        -9.99398281614637
      ],
      [
        "Ġreaction",
        -9.994599268947889
      ],
      [
        "Ġtransfer",
        -9.994998876734332
      ],
      [
        "der",
        -9.99507865594245
      ],
      [
        "then",
        -9.996164119967103
      ],
      [
        "Ġapp",
        -9.996189859791002
      ],
      [
        "61",
        -9.996444458097017
      ],
      [
        "Ġsentence",
        -9.99673200751158
      ],
      [
        "ĠâĪĴ",
        -9.997368443524088
      ],
      [
        "Ġgoal",
        -9.998164951933296
      ],
      [
        "Ġ26",
        -9.99851099817381
      ],
      [
        "Ġlearn",
        -9.999087376996371
      ],
      [
        "Ġlocation",
        -10.000533614527471
      ],
      [
        "ĠFirst",
        -10.000701368087986
      ],
      [
        "Ġindividuals",
        -10.00084143027241
      ],
      [
        "case",
        -10.000898387658111
      ],
      [
        "ĠLa",
        -10.002445773758328
      ],
      [
        "struct",
        -10.002548850385033
      ],
      [
        "Ġchance",
        -10.002759672007118
      ],
      [
        "Ġstar",
        -10.004293600275426
      ],
      [
        "parties",
        -10.005708836244672
      ],
      [
        "Ġhappen",
        -10.005991044719554
      ],
      [
        "highly",
        -10.00618723967992
      ],
      [
        "completely",
        -10.00658231665455
      ],
      [
        "84",
        -10.006670152288926
      ],
      [
        "Node",
        -10.006803103397408
      ],
      [
        "Ġeducation",
        -10.006941012290476
      ],
      [
        "Ġfixed",
        -10.007263882729964
      ],
      [
        "Ġ[**",
        -10.009333779959931
      ],
      [
        "ter",
        -10.010049657520266
      ],
      [
        "Context",
        -10.010524548369672
      ],
      [
        "Ġfast",
        -10.010902178170632
      ],
      [
        "62",
        -10.011661666051666
      ],
      [
        "Ġeyes",
        -10.011802937861534
      ],
      [
        "Ġmanagement",
        -10.012191496114074
      ],
      [
        "Of",
        -10.01337993296146
      ],
      [
        "}$.",
        -10.013495883125362
      ],
      [
        "Ġ2015",
        -10.013761228529953
      ],
      [
        "\"/>",
        -10.01395814644942
      ],
      [
        "ĠSome",
        -10.013961422913614
      ],
      [
        "Which",
        -10.014136031374488
      ],
      [
        "Ġproteins",
        -10.014461881053702
      ],
      [
        "Ġsent",
        -10.014827593453536
      ],
      [
        "Ġenjoy",
        -10.015325004911343
      ],
      [
        "start",
        -10.015371591720056
      ],
      [
        "Ġcomponents",
        -10.015808237810088
      ],
      [
        "useful",
        -10.016011489249156
      ],
      [
        "Ġpattern",
        -10.016093635204598
      ],
      [
        "Ġrequires",
        -10.01652804110418
      ],
      [
        "Index",
        -10.017300045222568
      ],
      [
        "Ġtechnology",
        -10.018329605371395
      ],
      [
        "Ġnote",
        -10.018399912069643
      ],
      [
        "view",
        -10.019044426147168
      ],
      [
        "Ġauto",
        -10.019354696199269
      ],
      [
        "Ġfrequency",
        -10.020323690459472
      ],
      [
        "Ġ:=",
        -10.020907945396718
      ],
      [
        "Ġcentral",
        -10.021502743944977
      ],
      [
        "goes",
        -10.02191178783993
      ],
      [
        "api",
        -10.023066798566225
      ],
      [
        "500",
        -10.023873452868036
      ],
      [
        "ham",
        -10.024232229364802
      ],
      [
        "Ġindustry",
        -10.026344451458105
      ],
      [
        "--------------",
        -10.027365710968503
      ],
      [
        "error",
        -10.02763421130277
      ],
      [
        "Ġcopy",
        -10.027640345782434
      ],
      [
        "Ġearlier",
        -10.028101210447444
      ],
      [
        "Ġequation",
        -10.028849902278868
      ],
      [
        "Ġfair",
        -10.028953878871242
      ],
      [
        "Ġbar",
        -10.028976845812084
      ],
      [
        "Ġmechanism",
        -10.02919624222276
      ],
      [
        "Ġmaintain",
        -10.029412755900957
      ],
      [
        "Ġwriting",
        -10.029811197790936
      ],
      [
        "produced",
        -10.029910227835405
      ],
      [
        "image",
        -10.030649189402164
      ],
      [
        "Ġconnection",
        -10.03210424261295
      ],
      [
        "Ġleading",
        -10.03304619878658
      ],
      [
        "}_{\\",
        -10.03335435378687
      ],
      [
        "Ġoverall",
        -10.034416552859176
      ],
      [
        "Ġnews",
        -10.035662989965406
      ],
      [
        "Ġtoward",
        -10.035863038711726
      ],
      [
        "formed",
        -10.036300900119658
      ],
      [
        "Ġindicate",
        -10.036720417619197
      ],
      [
        "Ġwin",
        -10.036845358396713
      ],
      [
        "uint",
        -10.037237680651389
      ],
      [
        "ĠSystem",
        -10.037941653700482
      ],
      [
        "ĠJanuary",
        -10.038309057832096
      ],
      [
        "Ġpresident",
        -10.039286135209442
      ],
      [
        "Ġremember",
        -10.040034548322748
      ],
      [
        "Ġcircuit",
        -10.04008713070835
      ],
      [
        "our",
        -10.040305147250168
      ],
      [
        "());",
        -10.040859989285911
      ],
      [
        "paid",
        -10.041018771523968
      ],
      [
        "easily",
        -10.041069454943091
      ],
      [
        "ĠApril",
        -10.041683725350032
      ],
      [
        "Ġcontains",
        -10.042259892181708
      ],
      [
        "Item",
        -10.042955616126234
      ],
      [
        "Ġimages",
        -10.044057829794989
      ],
      [
        "ĠCir",
        -10.04441781296364
      ],
      [
        "Ġ2011",
        -10.044752875985182
      ],
      [
        "Ġdemand",
        -10.044956266495618
      ],
      [
        "which",
        -10.045134522503863
      ],
      [
        "ĠNot",
        -10.045635586964371
      ],
      [
        "giving",
        -10.04567740664365
      ],
      [
        "was",
        -10.04596617731407
      ],
      [
        "Ġfall",
        -10.046004919306636
      ],
      [
        "Ġrepresent",
        -10.046956427359962
      ],
      [
        "Ġhost",
        -10.047090615955357
      ],
      [
        "Ġfigure",
        -10.047950218876462
      ],
      [
        "Ġmeasure",
        -10.048413783702816
      ],
      [
        "Ġmode",
        -10.04876761988357
      ],
      [
        "ĠWest",
        -10.050551123795302
      ],
      [
        "Ġ2010",
        -10.052126641402694
      ],
      [
        ")}",
        -10.05285170492886
      ],
      [
        "Ġdefinition",
        -10.052978583990956
      ],
      [
        "December",
        -10.053009443058489
      ],
      [
        "77",
        -10.053096349295128
      ],
      [
        "Ġcosts",
        -10.054131965779083
      ],
      [
        "Ġestablished",
        -10.054308779222447
      ],
      [
        "Ġcounsel",
        -10.055460529718456
      ],
      [
        "Ġfinding",
        -10.05546786050556
      ],
      [
        "New",
        -10.056124577575568
      ],
      [
        "Ġseven",
        -10.056864769253105
      ],
      [
        "Ġsupported",
        -10.056895962786944
      ],
      [
        "Ġtumor",
        -10.057039053736307
      ],
      [
        "Ġcritical",
        -10.05725502589504
      ],
      [
        "**(",
        -10.058545222181616
      ],
      [
        "Ġcomment",
        -10.059762172197324
      ],
      [
        "Ġoption",
        -10.06005864580666
      ],
      [
        "Ġgenerated",
        -10.060117085378836
      ],
      [
        "};",
        -10.060193361710285
      ],
      [
        "Ġhighest",
        -10.060397895832418
      ],
      [
        "Do",
        -10.06267152147182
      ],
      [
        "97",
        -10.063303785707276
      ],
      [
        "81",
        -10.063339507685733
      ],
      [
        "Ġactivities",
        -10.063702827477028
      ],
      [
        "Ġstated",
        -10.063820559944496
      ],
      [
        "version",
        -10.066216259521507
      ],
      [
        "Time",
        -10.066381212482744
      ],
      [
        "Ġfather",
        -10.066604904206056
      ],
      [
        "Ġlink",
        -10.066666043101623
      ],
      [
        "Ġrace",
        -10.067186785425369
      ],
      [
        "Ġtrade",
        -10.067445590278195
      ],
      [
        "dot",
        -10.067615846200024
      ],
      [
        "Ġpush",
        -10.068549800039072
      ],
      [
        "002",
        -10.068976335904768
      ],
      [
        "76",
        -10.069058790113754
      ],
      [
        "Ġcarrie",
        -10.069065373354334
      ],
      [
        "Ġcomparison",
        -10.069163312923074
      ],
      [
        "Ġnode",
        -10.069236289955
      ],
      [
        "Ġfelt",
        -10.069836048227078
      ],
      [
        "Ġmatrix",
        -10.070125811532918
      ],
      [
        "Ġrelevant",
        -10.07029455088202
      ],
      [
        "Ġstaff",
        -10.070351340278275
      ],
      [
        "|\\",
        -10.070879196567722
      ],
      [
        "Ġ<<",
        -10.071170714640283
      ],
      [
        "Ġallows",
        -10.07156233346657
      ],
      [
        "78",
        -10.071643534643016
      ],
      [
        "Ġprime",
        -10.071654421681147
      ],
      [
        "Ġpair",
        -10.07173158781204
      ],
      [
        "ĠId",
        -10.071898230826331
      ],
      [
        "Ġdomain",
        -10.072222232608487
      ],
      [
        "cap",
        -10.072385958924452
      ],
      [
        "Ġtravel",
        -10.072447217944145
      ],
      [
        "Ġ27",
        -10.073089335635707
      ],
      [
        "Array",
        -10.073871899433074
      ],
      [
        "Ġ2017",
        -10.074528630889686
      ],
      [
        "Ġprove",
        -10.075280760776147
      ],
      [
        "php",
        -10.075319061845017
      ],
      [
        "clearly",
        -10.075342522624398
      ],
      [
        "dir",
        -10.07534329376061
      ],
      [
        "Ġusers",
        -10.075832248307275
      ],
      [
        "Ġinvestigate",
        -10.076166284190087
      ],
      [
        "Ġcontaining",
        -10.07622568395072
      ],
      [
        "Ġinvestigation",
        -10.076292989939343
      ],
      [
        "Ġcommand",
        -10.076328352283989
      ],
      [
        "}^{\\",
        -10.076477218988796
      ],
      [
        "Ġconsist",
        -10.07661022573076
      ],
      [
        "Ġoptions",
        -10.077174093959684
      ],
      [
        "Ġactual",
        -10.077621135229103
      ],
      [
        "âĢ¢",
        -10.078206820030344
      ],
      [
        "Ġplease",
        -10.078386729562864
      ],
      [
        "Ġpanel",
        -10.07875870175883
      ],
      [
        "Here",
        -10.07895634279519
      ],
      [
        "Ġdevices",
        -10.079095309301156
      ],
      [
        "long",
        -10.079212464327936
      ],
      [
        "Ġserver",
        -10.080001708310736
      ],
      [
        "Ġdoor",
        -10.080436602807817
      ],
      [
        "open",
        -10.080715690056447
      ],
      [
        "Ġfiled",
        -10.081067197978566
      ],
      [
        "Ġvariable",
        -10.08227418417922
      ],
      [
        "turned",
        -10.082431565816863
      ],
      [
        "');",
        -10.082692608373453
      ],
      [
        "Ġbrought",
        -10.08311280515096
      ],
      [
        "Ġexcept",
        -10.083460401683691
      ],
      [
        "but",
        -10.08500735243356
      ],
      [
        "ĠMo",
        -10.085232846403889
      ],
      [
        "smaller",
        -10.086239886976983
      ],
      [
        "âĢĥ",
        -10.08652092417254
      ],
      [
        "Ġparameter",
        -10.08742396672708
      ],
      [
        "Ġcollection",
        -10.087552659803109
      ],
      [
        "Ġcredit",
        -10.087811657304234
      ],
      [
        "wise",
        -10.0886396450474
      ],
      [
        "Ġwave",
        -10.089339111130371
      ],
      [
        "majority",
        -10.090325969267148
      ],
      [
        "Ġunderstanding",
        -10.090374133556082
      ],
      [
        "Ġsites",
        -10.090407901587492
      ],
      [
        "langle",
        -10.090472227962644
      ],
      [
        "Ġreduction",
        -10.092432029539747
      ],
      [
        "Ġshowing",
        -10.092770853589656
      ],
      [
        "Ġinjury",
        -10.092992498311604
      ],
      [
        "are",
        -10.093437219867972
      ],
      [
        "74",
        -10.09426248787428
      ],
      [
        "Ġfit",
        -10.095223730710282
      ],
      [
        "decided",
        -10.09550588098984
      ],
      [
        "ĠOr",
        -10.095901439471636
      ],
      [
        "Ġcontrast",
        -10.096275162379367
      ],
      [
        "Ġsort",
        -10.09633192747095
      ],
      [
        "url",
        -10.096618646578484
      ],
      [
        "ĠCa",
        -10.098876963080311
      ],
      [
        "Ġextra",
        -10.099045892539104
      ],
      [
        "Ġshape",
        -10.099382752484592
      ],
      [
        "Ĭ",
        -10.100251787940174
      ],
      [
        "Ġbeyond",
        -10.100459426469293
      ],
      [
        "Ġdef",
        -10.102554129306403
      ],
      [
        "Ġreading",
        -10.102735204609518
      ],
      [
        "Ġlearning",
        -10.103160736704211
      ],
      [
        "Ġtown",
        -10.103446982100802
      ],
      [
        "Ġ31",
        -10.103858848837058
      ],
      [
        "Ġexperiments",
        -10.10398186464209
      ],
      [
        "ier",
        -10.10434604550729
      ],
      [
        "Ġcon",
        -10.105021839719344
      ],
      [
        "Ġauthors",
        -10.105589086623835
      ],
      [
        "83",
        -10.10607630234849
      ],
      [
        "89",
        -10.10699122566339
      ],
      [
        "Ġtransition",
        -10.107011345220672
      ],
      [
        "Ġ29",
        -10.107031511686923
      ],
      [
        "Ġmorning",
        -10.107424591687288
      ],
      [
        "Ġheard",
        -10.107947367249876
      ],
      [
        "Ġinternational",
        -10.107968459512804
      ],
      [
        "Ġproof",
        -10.108081912204035
      ],
      [
        "regarding",
        -10.108431847482766
      ],
      [
        "Ġinternal",
        -10.10863239801569
      ],
      [
        "tic",
        -10.108680631766935
      ],
      [
        "200",
        -10.109441292540868
      ],
      [
        "gen",
        -10.109607677477191
      ],
      [
        "Ġperform",
        -10.109830741494829
      ],
      [
        "wrote",
        -10.110009677286264
      ],
      [
        "nd",
        -10.110168970289337
      ],
      [
        "head",
        -10.110185273183376
      ],
      [
        "Ġstore",
        -10.110848700989544
      ],
      [
        "Color",
        -10.111095563043252
      ],
      [
        "Ġalternative",
        -10.11138484413084
      ],
      [
        "Ġphoto",
        -10.111649467540651
      ],
      [
        "ship",
        -10.11181494668573
      ],
      [
        "ĠAND",
        -10.113989966529072
      ],
      [
        "Ġcarry",
        -10.114649589886586
      ],
      [
        "Ġfeature",
        -10.114907913992026
      ],
      [
        "Ġshot",
        -10.115287105066104
      ],
      [
        "Ġsound",
        -10.115316233077808
      ],
      [
        "Ġroot",
        -10.115547815637065
      ],
      [
        "Ġvisit",
        -10.1156277326839
      ],
      [
        "Ġconstruction",
        -10.115748496381991
      ],
      [
        "point",
        -10.115917052979572
      ],
      [
        "91",
        -10.116021303603295
      ],
      [
        "obvious",
        -10.116122896016998
      ],
      [
        "Ġdefense",
        -10.116861951627916
      ],
      [
        "Ġborder",
        -10.117168231033729
      ],
      [
        "ill",
        -10.117689560411932
      ],
      [
        "Ġskin",
        -10.11928727586396
      ],
      [
        "err",
        -10.121234212176155
      ],
      [
        "Ġhear",
        -10.121273490927171
      ],
      [
        "exactly",
        -10.121394828539977
      ],
      [
        "[^",
        -10.121423492330123
      ],
      [
        "}}_",
        -10.122602011479175
      ],
      [
        "Ġbinding",
        -10.123300548628944
      ],
      [
        "73",
        -10.12360153467771
      ],
      [
        "ten",
        -10.124084658142598
      ],
      [
        "looked",
        -10.1241073123081
      ],
      [
        "Ġjudge",
        -10.124204584145186
      ],
      [
        "Ġwall",
        -10.12460838509232
      ],
      [
        "Ġemail",
        -10.124628304231528
      ],
      [
        "Ġ($",
        -10.1260180190888
      ],
      [
        "Not",
        -10.12637430266441
      ],
      [
        "Ġinfection",
        -10.127324107351525
      ],
      [
        "red",
        -10.127857071823517
      ],
      [
        "Ġbuilt",
        -10.127933459648988
      ],
      [
        "content",
        -10.12818796705394
      ],
      [
        "indicated",
        -10.128568827298231
      ],
      [
        "Ġchanged",
        -10.128608558749606
      ],
      [
        "Ġsend",
        -10.128959907743656
      ],
      [
        "Ġassociation",
        -10.129507818182994
      ],
      [
        "Ġfeeling",
        -10.129596510950742
      ],
      [
        "71",
        -10.129756494867593
      ],
      [
        "Ġformation",
        -10.130858978018658
      ],
      [
        "ĠDistrict",
        -10.131177607206956
      ],
      [
        "\\].",
        -10.132177017836115
      ],
      [
        "Ġmachine",
        -10.13231439282519
      ],
      [
        "ner",
        -10.13270467172385
      ],
      [
        "Ġphone",
        -10.132790522037975
      ],
      [
        "79",
        -10.132802781239755
      ],
      [
        "87",
        -10.132822001604405
      ],
      [
        "Ġmilitary",
        -10.133539978217298
      ],
      [
        "Ġsetting",
        -10.135570286746088
      ],
      [
        "().",
        -10.136537888673674
      ],
      [
        "Ġparts",
        -10.13707842956826
      ],
      [
        "ĠHealth",
        -10.13718483646978
      ],
      [
        "Ġrules",
        -10.13730213167691
      ],
      [
        "Ġbuy",
        -10.13758509284106
      ],
      [
        "Ġdefine",
        -10.137632995596077
      ],
      [
        "Ġeye",
        -10.1377163882729
      ],
      [
        "Ġheight",
        -10.137909893447844
      ],
      [
        "Ġyield",
        -10.13797604033191
      ],
      [
        "ĠMe",
        -10.1382165853192
      ],
      [
        "ĠCenter",
        -10.13836085358241
      ],
      [
        "Ġvariables",
        -10.138656258817102
      ],
      [
        "Ġensure",
        -10.138856118038602
      ],
      [
        "ĠAugust",
        -10.1401842252949
      ],
      [
        "Ġcover",
        -10.140417104431998
      ],
      [
        "\":\"",
        -10.14047690444855
      ],
      [
        "Ġsubstantial",
        -10.140766358427127
      ],
      [
        "Ġfriend",
        -10.14145549318803
      ],
      [
        "Ġbenefits",
        -10.141508706343693
      ],
      [
        "Ġtherapy",
        -10.141535139029497
      ],
      [
        ")$.",
        -10.14290068170246
      ],
      [
        "Ġitems",
        -10.143174159608838
      ],
      [
        "Ġletter",
        -10.143395470534951
      ],
      [
        "Ġfiles",
        -10.143668095771924
      ],
      [
        "*~",
        -10.144027697042809
      ],
      [
        "Ġbill",
        -10.144459466864914
      ],
      [
        "ever",
        -10.14486503606043
      ],
      [
        "ĠOR",
        -10.145461495288076
      ],
      [
        "nbsp",
        -10.145607264803123
      ],
      [
        "Ġzero",
        -10.145701939938307
      ],
      [
        "geq",
        -10.14591744789582
      ],
      [
        "Ġscore",
        -10.147319329328225
      ],
      [
        "core",
        -10.147485458417409
      ],
      [
        "Ġdevelop",
        -10.147508168546413
      ],
      [
        "Ġmedium",
        -10.147783873417143
      ],
      [
        "Ġinteresting",
        -10.148399129430276
      ],
      [
        "Ġadministration",
        -10.150475440031178
      ],
      [
        "ĠOctober",
        -10.150907522339695
      ],
      [
        "ĠNow",
        -10.151999096022015
      ],
      [
        "Ġeffort",
        -10.1520579701015
      ],
      [
        "ated",
        -10.152694639336485
      ],
      [
        "Ġexercise",
        -10.15339022479291
      ],
      [
        "Ġparents",
        -10.153559865121355
      ],
      [
        "ģ",
        -10.15446094051932
      ],
      [
        ")^",
        -10.155543862338988
      ],
      [
        "row",
        -10.155617481729111
      ],
      [
        "}=",
        -10.155811554139596
      ],
      [
        "Ġchoose",
        -10.15691567845412
      ],
      [
        "Map",
        -10.157481334665547
      ],
      [
        "frak",
        -10.157556203352362
      ],
      [
        "Ġbenefit",
        -10.158378671638287
      ],
      [
        "played",
        -10.159759389653209
      ],
      [
        "throughout",
        -10.15977150218142
      ],
      [
        "ĠSan",
        -10.159911405121433
      ],
      [
        "Ġ\\<",
        -10.160314360317912
      ],
      [
        "ĠSeptember",
        -10.160578503229814
      ],
      [
        "Ġsubsequent",
        -10.160655105676382
      ],
      [
        "ĠHow",
        -10.161272475267886
      ],
      [
        "Ġinteraction",
        -10.161912305707842
      ],
      [
        "Image",
        -10.162034827252231
      ],
      [
        "Ġ2008",
        -10.162406688486683
      ],
      [
        "Î±",
        -10.162846878286595
      ],
      [
        "run",
        -10.164099425129526
      ],
      [
        "Ġofficial",
        -10.164315910225698
      ],
      [
        "())",
        -10.16500836830314
      ],
      [
        "Ġprocesses",
        -10.165240330142698
      ],
      [
        "ĠSection",
        -10.16535978405147
      ],
      [
        "Ġtask",
        -10.16538910772064
      ],
      [
        "Ġmet",
        -10.165406927295624
      ],
      [
        "Ġnice",
        -10.165463031161268
      ],
      [
        "##",
        -10.166234062188057
      ],
      [
        "Ġaward",
        -10.166379938046928
      ],
      [
        "ex",
        -10.16724185198809
      ],
      [
        "Ġparticipants",
        -10.167712041084949
      ],
      [
        "Ġfunctional",
        -10.16838580350822
      ],
      [
        "Ġmale",
        -10.16847899146581
      ],
      [
        "93",
        -10.168523650803014
      ],
      [
        "Ġsolid",
        -10.168622330660243
      ],
      [
        "Ġstarting",
        -10.168888924175562
      ],
      [
        "Ġexists",
        -10.169534320300611
      ],
      [
        "Ġmaximum",
        -10.170346753508506
      ],
      [
        "Ġplayer",
        -10.17046982238802
      ],
      [
        "Ġserve",
        -10.170637433985688
      ],
      [
        "Ġbi",
        -10.170702993784053
      ],
      [
        "ĠObama",
        -10.171018073507746
      ],
      [
        ")*(",
        -10.171656843792364
      ],
      [
        "Each",
        -10.17172814320636
      ],
      [
        "Ġnor",
        -10.171969858997048
      ],
      [
        "where",
        -10.17280436201794
      ],
      [
        "Ġmatch",
        -10.173227019846395
      ],
      [
        "Ġaspect",
        -10.173272914770653
      ],
      [
        "con",
        -10.173468209258676
      ],
      [
        "Ġsafety",
        -10.173773596267266
      ],
      [
        "Ġreports",
        -10.174596210326373
      ],
      [
        "ize",
        -10.17570563020057
      ],
      [
        "92",
        -10.17600726407101
      ],
      [
        "February",
        -10.177866879861494
      ],
      [
        "Request",
        -10.178207618728702
      ],
      [
        "Ġchain",
        -10.179310137951369
      ],
      [
        "Ġidentify",
        -10.179575405127556
      ],
      [
        "Ġfear",
        -10.180045145124216
      ],
      [
        "well",
        -10.180762110026825
      ],
      [
        "Ġremove",
        -10.181115751505224
      ],
      [
        "sometimes",
        -10.181247834510884
      ],
      [
        "Ġcombination",
        -10.18137895080139
      ],
      [
        "Event",
        -10.181470231966896
      ],
      [
        "Ġregular",
        -10.182053850732949
      ],
      [
        "OR",
        -10.182720335455464
      ],
      [
        "ĠNa",
        -10.18296326134247
      ],
      [
        "wife",
        -10.18433650507474
      ],
      [
        "revealed",
        -10.184406181050784
      ],
      [
        "Ġconnected",
        -10.185778262491333
      ],
      [
        "Ġimmediately",
        -10.186783576898538
      ],
      [
        "Ġsex",
        -10.188510111815434
      ],
      [
        "ĠUSA",
        -10.189097934851675
      ],
      [
        "port",
        -10.18936373344208
      ],
      [
        "ast",
        -10.19010895874388
      ],
      [
        "------",
        -10.191067901235566
      ],
      [
        "Ġlinear",
        -10.191270145140482
      ],
      [
        "molecules",
        -10.19156268066205
      ],
      [
        "Ġotherwise",
        -10.191766458868328
      ],
      [
        "82",
        -10.19182450314583
      ],
      [
        "Ġoccur",
        -10.19208835685206
      ],
      [
        "count",
        -10.192159681770644
      ],
      [
        "Ġgreen",
        -10.192865345121325
      ],
      [
        "Ġwait",
        -10.193370246196622
      ],
      [
        "Î²",
        -10.193670963093645
      ],
      [
        "Ġclosed",
        -10.196515862861396
      ],
      [
        "Ġround",
        -10.196630897830271
      ],
      [
        "Ġconsistent",
        -10.196723921245717
      ],
      [
        "Ġconclusion",
        -10.196894633929
      ],
      [
        "ĠNovember",
        -10.197267523773023
      ],
      [
        "Ġopportunity",
        -10.19775866579666
      ],
      [
        "Ġpopular",
        -10.197999763402343
      ],
      [
        "Oh",
        -10.198235686788244
      ],
      [
        "char",
        -10.200417587501391
      ],
      [
        "Ġ2009",
        -10.200485635072829
      ],
      [
        "Ġfun",
        -10.200586894955652
      ],
      [
        "Ġdead",
        -10.2011926664253
      ],
      [
        "During",
        -10.202334661537224
      ],
      [
        "providing",
        -10.203161017650782
      ],
      [
        "Ġworth",
        -10.203345686828278
      ],
      [
        "Class",
        -10.204201714335513
      ],
      [
        "$$",
        -10.205072808384728
      ],
      [
        "Ġresistance",
        -10.20533588930844
      ],
      [
        "Ġvote",
        -10.20552288597416
      ],
      [
        "Ġedge",
        -10.205790553663569
      ],
      [
        "ĠWashington",
        -10.205844323063422
      ],
      [
        "amp",
        -10.20587014062032
      ],
      [
        "Ġapplications",
        -10.205907366189988
      ],
      [
        "Ġhands",
        -10.206236622103711
      ],
      [
        "attorney",
        -10.2065062079982
      ],
      [
        "Ġmetal",
        -10.20664740955232
      ],
      [
        "[]",
        -10.20664971951021
      ],
      [
        "col",
        -10.206838455411232
      ],
      [
        "Ġprocedure",
        -10.207564083093905
      ],
      [
        "alleged",
        -10.207601215934726
      ],
      [
        "verline",
        -10.208137864587044
      ],
      [
        "level",
        -10.208843312566543
      ],
      [
        "Ġscreen",
        -10.209258826100548
      ],
      [
        "Ġregions",
        -10.209286268736246
      ],
      [
        "config",
        -10.20953632603398
      ],
      [
        "Finally",
        -10.20968733481295
      ],
      [
        "prime",
        -10.211248763732598
      ],
      [
        "src",
        -10.211293495161906
      ],
      [
        "==========",
        -10.211436667629268
      ],
      [
        "Ġlives",
        -10.211963873523104
      ],
      [
        "Ġstrength",
        -10.212207983326918
      ],
      [
        "Ġwindow",
        -10.212897667134436
      ],
      [
        "ĠLi",
        -10.213459553113571
      ],
      [
        "Ġexposure",
        -10.213629654113433
      ],
      [
        "relatively",
        -10.21518869615675
      ],
      [
        "######",
        -10.21618744970206
      ],
      [
        "quickly",
        -10.216951868365168
      ],
      [
        "ĠSchool",
        -10.217169198340134
      ],
      [
        "released",
        -10.217410770327184
      ],
      [
        "ver",
        -10.217464259658929
      ],
      [
        "Message",
        -10.21758340316197
      ],
      [
        "Ġstock",
        -10.218383072495774
      ],
      [
        "mail",
        -10.220015138779084
      ],
      [
        "Ġpick",
        -10.220245953682944
      ],
      [
        "Ġelection",
        -10.220665639235818
      ],
      [
        "Ġandroid",
        -10.221188225306328
      ],
      [
        "object",
        -10.221388036967822
      ],
      [
        "Ġmyself",
        -10.222194049018606
      ],
      [
        "statute",
        -10.222198244531658
      ],
      [
        "Service",
        -10.222366020749552
      ],
      [
        "Ġplant",
        -10.2234575336381
      ],
      [
        "-------------",
        -10.22373108737594
      ],
      [
        "Ġargue",
        -10.223931149516725
      ],
      [
        "Ġcolumn",
        -10.225130746906832
      ],
      [
        "ĠLe",
        -10.225256989651834
      ],
      [
        "Ġinterface",
        -10.227308047179015
      ],
      [
        "Ġbecomes",
        -10.227587528142797
      ],
      [
        "Ġsources",
        -10.227617743461405
      ],
      [
        "ĠWar",
        -10.22805505003592
      ],
      [
        "Ġguy",
        -10.228727386783405
      ],
      [
        "Ġstd",
        -10.228795512008924
      ],
      [
        "Ġdatabase",
        -10.22893235510091
      ],
      [
        "nearly",
        -10.22988603350765
      ],
      [
        "},\\",
        -10.230231470313443
      ],
      [
        "Ġbox",
        -10.230546198078514
      ],
      [
        "Ġgeneration",
        -10.23100673157433
      ],
      [
        "scale",
        -10.231094463252743
      ],
      [
        "Ġload",
        -10.231156357348445
      ],
      [
        "Ġreach",
        -10.231682554650735
      ],
      [
        "Calculate",
        -10.232266734007448
      ],
      [
        "ĠPM",
        -10.232609447317383
      ],
      [
        "Ġpoly",
        -10.23310786336596
      ],
      [
        "NS",
        -10.234972347737669
      ],
      [
        "specific",
        -10.235022624028
      ],
      [
        "Ġsave",
        -10.235403978610185
      ],
      [
        "Ġweb",
        -10.235783965101296
      ],
      [
        "pre",
        -10.23618639869631
      ],
      [
        "distributed",
        -10.23657753872998
      ],
      [
        "Ġdetected",
        -10.237435941389844
      ],
      [
        "Ġofficer",
        -10.237615620990038
      ],
      [
        "resulting",
        -10.237919742917123
      ],
      [
        "Ġmoved",
        -10.238121520510678
      ],
      [
        "\",\"",
        -10.238462995951773
      ],
      [
        "Yes",
        -10.238932344758338
      ],
      [
        "Code",
        -10.238944709071784
      ],
      [
        "responsible",
        -10.23931134433889
      ],
      [
        "Ġcalculated",
        -10.239430547653551
      ],
      [
        "conducted",
        -10.239593168690192
      ],
      [
        "Ġhundred",
        -10.24052149432655
      ],
      [
        "Ġselection",
        -10.241656366110618
      ],
      [
        "Ġplaying",
        -10.241685720888672
      ],
      [
        "Ġperfect",
        -10.242037756242985
      ],
      [
        "variety",
        -10.242483246123696
      ],
      [
        "some",
        -10.243027393358387
      ],
      [
        "Ġmoving",
        -10.243059104116528
      ],
      [
        "Ġten",
        -10.243189509820564
      ],
      [
        "Ġ2018",
        -10.243520202456216
      ],
      [
        "Ġchar",
        -10.243558731742654
      ],
      [
        "mp",
        -10.243790666688298
      ],
      [
        "Ġresources",
        -10.2445892351929
      ],
      [
        "Ġyourself",
        -10.244942024989736
      ],
      [
        "Ġdaily",
        -10.245321721578778
      ],
      [
        "res",
        -10.245404662352572
      ],
      [
        "Ġvoice",
        -10.245590123027188
      ],
      [
        "Ġtesting",
        -10.24580733571456
      ],
      [
        "Ġroad",
        -10.245927201862695
      ],
      [
        "Ġnearest",
        -10.246161674784137
      ],
      [
        "ĠCalifornia",
        -10.246282273531117
      ],
      [
        "arrow",
        -10.24646435956218
      ],
      [
        "approximately",
        -10.246578566223818
      ],
      [
        "happened",
        -10.24667147529328
      ],
      [
        "Ġfully",
        -10.247166855925103
      ],
      [
        "lin",
        -10.247444176444825
      ],
      [
        "manner",
        -10.247624659951304
      ],
      [
        "Ġthinking",
        -10.24763704959504
      ],
      [
        "^{(",
        -10.247760804798226
      ],
      [
        "Ġmembrane",
        -10.24791489767986
      ],
      [
        "ĠPhys",
        -10.248140228280826
      ],
      [
        "Ġexchange",
        -10.248179692401802
      ],
      [
        "date",
        -10.248303260630944
      ],
      [
        "Ġhair",
        -10.249371977434894
      ],
      [
        "ĠOf",
        -10.249801035347014
      ],
      [
        "Ġrespond",
        -10.250253064600813
      ],
      [
        "Ġmaterials",
        -10.250666079823278
      ],
      [
        "Well",
        -10.251486802110012
      ],
      [
        "Ġdark",
        -10.251636792546536
      ],
      [
        "ĠEuropean",
        -10.25228123994246
      ],
      [
        "Ġprotect",
        -10.253245527541516
      ],
      [
        "limitation",
        -10.253835630296402
      ],
      [
        "Ġcycle",
        -10.25409424964165
      ],
      [
        "Ġsufficient",
        -10.25475950783864
      ],
      [
        "Ġready",
        -10.254766353558086
      ],
      [
        "create",
        -10.255006880940265
      ],
      [
        "AL",
        -10.255579346492222
      ],
      [
        "lock",
        -10.25566068870916
      ],
      [
        "Ġexperimental",
        -10.255678895261203
      ],
      [
        "arg",
        -10.255950124822458
      ],
      [
        "molecular",
        -10.2573584796261
      ],
      [
        "Ġmeaning",
        -10.25787825499227
      ],
      [
        "Ġpursu",
        -10.257978575102282
      ],
      [
        "bin",
        -10.25848470410884
      ],
      [
        "Ġexisting",
        -10.258722198054992
      ],
      [
        "Ġprint",
        -10.259892284999092
      ],
      [
        "Ġgovern",
        -10.260024678954313
      ],
      [
        "Ġchannel",
        -10.26038664499148
      ],
      [
        "izing",
        -10.26109222959589
      ],
      [
        "Ġgrant",
        -10.261276813830696
      ],
      [
        "Ġreplacement",
        -10.261516954837331
      ],
      [
        "Ġ/**",
        -10.261664548982155
      ],
      [
        "Ġbound",
        -10.262453151626302
      ],
      [
        "finally",
        -10.262495192345815
      ],
      [
        "Ġradio",
        -10.263040496526246
      ],
      [
        "AS",
        -10.263221134938131
      ],
      [
        "Ġdiscussion",
        -10.263625982714965
      ],
      [
        "model",
        -10.264763833626374
      ],
      [
        "Ġbrief",
        -10.265125314787785
      ],
      [
        "efficient",
        -10.265722541412051
      ],
      [
        "Ġremoved",
        -10.265988157513036
      ],
      [
        "Ġcareer",
        -10.266486746926754
      ],
      [
        "Ġchallenge",
        -10.266498069058224
      ],
      [
        "ĠMan",
        -10.267103475987978
      ],
      [
        "ensure",
        -10.267357995411192
      ],
      [
        "Ġmiddle",
        -10.268277109462748
      ],
      [
        "ptr",
        -10.269225675454864
      ],
      [
        "page",
        -10.269308209477565
      ],
      [
        "Add",
        -10.26936747774912
      ],
      [
        "ray",
        -10.269387190552203
      ],
      [
        "Ġfields",
        -10.269464773121085
      ],
      [
        "Ġ(**",
        -10.26969847449342
      ],
      [
        "Ġwidth",
        -10.26986619883008
      ],
      [
        "Ġcapacity",
        -10.270443863106207
      ],
      [
        "worked",
        -10.270671533437556
      ],
      [
        "Ġpiece",
        -10.270757531613672
      ],
      [
        "Ġanimals",
        -10.27084489216611
      ],
      [
        "using",
        -10.271521137163775
      ],
      [
        "denote",
        -10.272617718978085
      ],
      [
        "demonstrated",
        -10.272819273763712
      ],
      [
        "ĠRepublican",
        -10.272896664032537
      ],
      [
        "ward",
        -10.273374149196348
      ],
      [
        "ists",
        -10.273773697654956
      ],
      [
        "subset",
        -10.27446485066814
      ],
      [
        "See",
        -10.274925121907414
      ],
      [
        "Ġstuff",
        -10.275269735059387
      ],
      [
        "ĠFrom",
        -10.275281176007654
      ],
      [
        "init",
        -10.276004562270725
      ],
      [
        "holding",
        -10.276632952669203
      ],
      [
        "Ġcorrelation",
        -10.27725825486491
      ],
      [
        "\"})",
        -10.277662597842015
      ],
      [
        "Phi",
        -10.27798829539637
      ],
      [
        "Why",
        -10.278339530902011
      ],
      [
        "CC",
        -10.278447579787242
      ],
      [
        "ĠWhite",
        -10.27861816909021
      ],
      [
        "Ġreflect",
        -10.27897817715463
      ],
      [
        "Ġbottom",
        -10.279010769902102
      ],
      [
        "Ġweak",
        -10.279021988565084
      ],
      [
        "Ġclean",
        -10.279832139962384
      ],
      [
        "block",
        -10.280106681668125
      ],
      [
        "Ġbeginning",
        -10.28024464897894
      ],
      [
        "appears",
        -10.280325605655753
      ],
      [
        "Ġactions",
        -10.28049880291514
      ],
      [
        "Ġdecade",
        -10.281299841413828
      ],
      [
        "Ġdirector",
        -10.281386863403192
      ],
      [
        "*]{}",
        -10.282318864246085
      ],
      [
        "Ġmagnetic",
        -10.28265295436303
      ],
      [
        "ÂŃ",
        -10.283662666105862
      ],
      [
        "Ġbillion",
        -10.283862943461482
      ],
      [
        "Big",
        -10.283874671474845
      ],
      [
        "Ġfresh",
        -10.283907197883927
      ],
      [
        "Ġhot",
        -10.284395421258012
      ],
      [
        "Model",
        -10.28494940677495
      ],
      [
        "Ġmin",
        -10.28515662173418
      ],
      [
        "Ġincome",
        -10.285556446919095
      ],
      [
        "Ġdebt",
        -10.286326135052548
      ],
      [
        "gone",
        -10.286623419141732
      ],
      [
        "Manager",
        -10.286903665031776
      ],
      [
        "Ġdescription",
        -10.28697844659434
      ],
      [
        "Date",
        -10.287080719106696
      ],
      [
        "Ġunits",
        -10.28711254822937
      ],
      [
        "ĠIN",
        -10.287211763887314
      ],
      [
        "Ġsuggested",
        -10.287629427214176
      ],
      [
        "Ġwish",
        -10.28763008429887
      ],
      [
        "Ġalgorithm",
        -10.28884911884452
      ],
      [
        "Ġliquid",
        -10.289043688649476
      ],
      [
        "Ġpetition",
        -10.289056242156454
      ],
      [
        "Ġeight",
        -10.289460755317316
      ],
      [
        "Ġstation",
        -10.289505286981106
      ],
      [
        "Ġtruth",
        -10.290166667417369
      ],
      [
        "Ġtraditional",
        -10.290417740749495
      ],
      [
        "ĠMa",
        -10.290460231686394
      ],
      [
        "fully",
        -10.290635400060784
      ],
      [
        "cell",
        -10.290803865027144
      ],
      [
        "Ġclient",
        -10.290817112936784
      ],
      [
        "Ġsevere",
        -10.291074812492822
      ],
      [
        "Ġupper",
        -10.291429532153366
      ],
      [
        "ĊĊĠĠĠĠĠĠĠĠĠĠĠ",
        -10.292206516538169
      ],
      [
        "Ġnation",
        -10.29275608373015
      ],
      [
        "Our",
        -10.293783431227071
      ],
      [
        "ĠNULL",
        -10.293853317395156
      ],
      [
        "tra",
        -10.294118794368758
      ],
      [
        ")$,",
        -10.294709174332713
      ],
      [
        "unless",
        -10.294724176743369
      ],
      [
        "ĠBoard",
        -10.295237596324576
      ],
      [
        "++",
        -10.29549205036398
      ],
      [
        "Ġcomments",
        -10.295727242870283
      ],
      [
        "Ġsteps",
        -10.296864660409664
      ],
      [
        "discussed",
        -10.297072677933397
      ],
      [
        "Ġchemical",
        -10.297258475149146
      ],
      [
        "Ġerr",
        -10.298365716405296
      ],
      [
        "ĠTO",
        -10.298668036843186
      ],
      [
        "material",
        -10.298863540215857
      ],
      [
        "Count",
        -10.299064847974456
      ],
      [
        "Ġonto",
        -10.299084661942445
      ],
      [
        "num",
        -10.29933856629196
      ],
      [
        "Ġpassed",
        -10.299991576500444
      ],
      [
        "Ġcontain",
        -10.30051845577556
      ],
      [
        "Ġfirm",
        -10.300593199350924
      ],
      [
        "Ġdetection",
        -10.300654464007671
      ],
      [
        "Ġprocessing",
        -10.300899696120348
      ],
      [
        "IN",
        -10.300942180096946
      ],
      [
        "main",
        -10.301833655724115
      ],
      [
        "Ġdrop",
        -10.301900508798846
      ],
      [
        "Ġpackage",
        -10.302023146130564
      ],
      [
        "âĪĴ",
        -10.30268273041404
      ],
      [
        "Ġframe",
        -10.302934605205136
      ],
      [
        "placed",
        -10.303433749661355
      ],
      [
        "picked",
        -10.303633783459714
      ],
      [
        "]:",
        -10.304185299624567
      ],
      [
        "ĠIndia",
        -10.304287243868142
      ],
      [
        "Ġobjects",
        -10.304807988716236
      ],
      [
        "Ġgenerate",
        -10.305013312236534
      ],
      [
        "Ġoperator",
        -10.305329263538464
      ],
      [
        "Ġloop",
        -10.305495671503524
      ],
      [
        "aware",
        -10.305952582715848
      ],
      [
        "ĠGo",
        -10.30676495278874
      ],
      [
        "Ġgrow",
        -10.30676926058966
      ],
      [
        "ber",
        -10.306880600831317
      ],
      [
        "ting",
        -10.307371149696564
      ],
      [
        "raised",
        -10.308268101004217
      ],
      [
        "Ġcriminal",
        -10.308631949716789
      ],
      [
        "Ġdescribe",
        -10.308728260014036
      ],
      [
        "Ġsymptoms",
        -10.308926516252564
      ],
      [
        "Ġinsurance",
        -10.309161228004903
      ],
      [
        "Ġessential",
        -10.309485399236497
      ],
      [
        "stream",
        -10.30960288270386
      ],
      [
        "Sigma",
        -10.309816409918392
      ],
      [
        "Ġmaybe",
        -10.310014067221513
      ],
      [
        "Ġblue",
        -10.310861339979091
      ],
      [
        "Ġshift",
        -10.311097349695157
      ],
      [
        "Ġhealthy",
        -10.31193852880916
      ],
      [
        "\\<",
        -10.312090021338832
      ],
      [
        "talking",
        -10.312805003924831
      ],
      [
        "older",
        -10.313317727465371
      ],
      [
        "served",
        -10.313561051631858
      ],
      [
        "Ġcharacteristics",
        -10.314001148921973
      ],
      [
        "ĠIS",
        -10.314523120578157
      ],
      [
        "specifically",
        -10.31477614619191
      ],
      [
        "dimensional",
        -10.315417306492629
      ],
      [
        "ĠResearch",
        -10.315496262855216
      ],
      [
        "ler",
        -10.315702308201868
      ],
      [
        "Group",
        -10.315882916749125
      ],
      [
        "Ġspin",
        -10.315883553548671
      ],
      [
        "Ġvariation",
        -10.316081439024284
      ],
      [
        "ĠPublic",
        -10.316647332984063
      ],
      [
        "write",
        -10.316783908166006
      ],
      [
        "Ġdiscuss",
        -10.317586049423022
      ],
      [
        "Ġconduct",
        -10.318418764891502
      ],
      [
        "Ġworkers",
        -10.31846931477035
      ],
      [
        "towards",
        -10.31858743679762
      ],
      [
        "Ġcounter",
        -10.319344261042913
      ],
      [
        "ating",
        -10.320305764103155
      ],
      [
        "Ġproper",
        -10.320420121858202
      ],
      [
        "Ġabuse",
        -10.320456940443528
      ],
      [
        "Ġactivation",
        -10.320626555269769
      ],
      [
        "Ġexpress",
        -10.322290806265364
      ],
      [
        "Ġgenetic",
        -10.322760084406143
      ],
      [
        "Ġcontinuous",
        -10.323441015767884
      ],
      [
        "Ġmuscle",
        -10.32356982267932
      ],
      [
        "appellant",
        -10.323662248772049
      ],
      [
        "Ġmodern",
        -10.323705656643783
      ],
      [
        "Ġtests",
        -10.323985557655174
      ],
      [
        "Ġcontinued",
        -10.324537568717496
      ],
      [
        "denied",
        -10.324898128527725
      ],
      [
        "Ġwonder",
        -10.32515056106673
      ],
      [
        "ĠIL",
        -10.325313296831256
      ],
      [
        "typically",
        -10.32558376301544
      ],
      [
        "spent",
        -10.32586311372398
      ],
      [
        "Ġmeasures",
        -10.326211929110226
      ],
      [
        "ase",
        -10.327186294809044
      ],
      [
        "Ġenter",
        -10.327875758708196
      ],
      [
        "limits",
        -10.328225818278872
      ],
      [
        "can",
        -10.32917446743799
      ],
      [
        "MS",
        -10.329193851565272
      ],
      [
        "Field",
        -10.32940813253901
      ],
      [
        "Ġspeak",
        -10.329503423191955
      ],
      [
        "ĠFig",
        -10.32952564916577
      ],
      [
        "reached",
        -10.330557761069482
      ],
      [
        "(),",
        -10.330759839648607
      ],
      [
        "Ġcrime",
        -10.330765752113242
      ],
      [
        "Ġtestimon",
        -10.332088360805946
      ],
      [
        "First",
        -10.332168145920146
      ],
      [
        "ĠPaul",
        -10.333079643148151
      ],
      [
        "Ġforms",
        -10.333641679794145
      ],
      [
        "Ġestablish",
        -10.333884753724105
      ],
      [
        "func",
        -10.33418555403724
      ],
      [
        "Ġnamed",
        -10.334307085274324
      ],
      [
        "({\\",
        -10.334338882266938
      ],
      [
        "ĠEven",
        -10.334754594398316
      ],
      [
        "result",
        -10.335205353657898
      ],
      [
        "ard",
        -10.335237465517991
      ],
      [
        "growing",
        -10.335349338817128
      ],
      [
        "Once",
        -10.335541484450868
      ],
      [
        "ĠUK",
        -10.335889062889812
      ],
      [
        "0000",
        -10.336071722809551
      ],
      [
        "aid",
        -10.336476009781885
      ],
      [
        "Ġforeign",
        -10.336713304073854
      ],
      [
        "perhaps",
        -10.33769264212774
      ],
      [
        "âĢ²",
        -10.337829762158073
      ],
      [
        "Ġrapid",
        -10.338268569673222
      ],
      [
        "Ġprofessional",
        -10.338320390368612
      ],
      [
        "despite",
        -10.339169231232958
      ],
      [
        "Ġmusic",
        -10.339457086170952
      ],
      [
        "github",
        -10.34066684060664
      ],
      [
        "que",
        -10.341126705235633
      ],
      [
        "Ġ90",
        -10.341781584887762
      ],
      [
        "Ġhappy",
        -10.342021212420285
      ],
      [
        "confirmed",
        -10.342254654163366
      ],
      [
        "Ġsurvey",
        -10.342488651668983
      ],
      [
        "optical",
        -10.342581846259652
      ],
      [
        "Ġminor",
        -10.344090106212642
      ],
      [
        "Ġhour",
        -10.344161896817129
      ],
      [
        "Ġprotection",
        -10.344241647433629
      ],
      [
        "Ġconfiguration",
        -10.3445477007843
      ],
      [
        "ear",
        -10.345514595042705
      ],
      [
        "default",
        -10.34563688390076
      ],
      [
        "Ġswitch",
        -10.346260288596206
      ],
      [
        "Ġprograms",
        -10.346515961744384
      ],
      [
        "ĠCon",
        -10.346642718785487
      ],
      [
        "light",
        -10.346980290093487
      ],
      [
        "ĠPark",
        -10.3473695658025
      ],
      [
        "Ġtool",
        -10.347386553592523
      ],
      [
        "ĠOther",
        -10.348298389962144
      ],
      [
        "2015",
        -10.34831418188528
      ],
      [
        "han",
        -10.34858886733749
      ],
      [
        "Ġhyper",
        -10.34865681424079
      ],
      [
        "Ġclub",
        -10.349025833242088
      ],
      [
        "Ġreturned",
        -10.34971930231945
      ],
      [
        "circ",
        -10.351843541305646
      ],
      [
        "čĊĠĠĠĠĠĠĠĠĠĠĠ",
        -10.352460549215657
      ],
      [
        "Ġscience",
        -10.35258535306764
      ],
      [
        "Ġupdate",
        -10.352947685691731
      ],
      [
        "------------",
        -10.352970251441247
      ],
      [
        "properly",
        -10.354256484756082
      ],
      [
        "Ġ2007",
        -10.35467346641405
      ],
      [
        "vert",
        -10.355491784535236
      ],
      [
        "Ġkids",
        -10.355705589063463
      ],
      [
        "Ġcivil",
        -10.356116814540409
      ],
      [
        "Ġstudie",
        -10.356484279235898
      ],
      [
        "Ġdetect",
        -10.356517022654478
      ],
      [
        "Ġfamilies",
        -10.35695553143286
      ],
      [
        "Ġsurgery",
        -10.357581084728086
      ],
      [
        "Ġstrategy",
        -10.35792822622722
      ],
      [
        "Ġexhibit",
        -10.358009789672137
      ],
      [
        "Ġstudent",
        -10.358521541909056
      ],
      [
        "Ġfemale",
        -10.3589977773477
      ],
      [
        "Ġtransport",
        -10.359222225890344
      ],
      [
        "ĠCongress",
        -10.359418345201538
      ],
      [
        "check",
        -10.359568797310455
      ],
      [
        ")**",
        -10.359584507650368
      ],
      [
        "Ġball",
        -10.359909627782317
      ],
      [
        "Ġnovel",
        -10.3603110230103
      ],
      [
        "}}(",
        -10.360722885767748
      ],
      [
        "xml",
        -10.360844856667216
      ],
      [
        "Ġhuge",
        -10.361802474174585
      ],
      [
        "Ġdrugs",
        -10.364177002398709
      ],
      [
        "ĠPa",
        -10.364249688195155
      ],
      [
        "Ġmid",
        -10.36619472979284
      ],
      [
        "accurate",
        -10.366908711781129
      ],
      [
        "Ġsleep",
        -10.36703687474118
      ],
      [
        "Ġfloor",
        -10.367251385855628
      ],
      [
        "Ġcommunication",
        -10.367271684958238
      ],
      [
        "Ġachieve",
        -10.367746323694124
      ],
      [
        "Ġsuccessful",
        -10.367864090056711
      ],
      [
        "uk",
        -10.36829163459092
      ],
      [
        "Ġbroad",
        -10.368713571410046
      ],
      [
        "ĠEnglish",
        -10.368808734205858
      ],
      [
        "Ġwatch",
        -10.370131956452942
      ],
      [
        "\"},",
        -10.370637792293138
      ],
      [
        "Ġprofile",
        -10.370879776643909
      ],
      [
        "ĠInternational",
        -10.371099834657157
      ],
      [
        "Ġitem",
        -10.371243816637412
      ],
      [
        "message",
        -10.37147526301597
      ],
      [
        "Ġ-->",
        -10.37181345294718
      ],
      [
        "mer",
        -10.372022117957174
      ],
      [
        "čĊč",
        -10.372761391658049
      ],
      [
        "Ġcore",
        -10.372805821647312
      ],
      [
        "Ġtested",
        -10.373439435505736
      ],
      [
        "society",
        -10.373639780027498
      ],
      [
        "Ġagent",
        -10.374587724796196
      ],
      [
        "remains",
        -10.37536158538979
      ],
      [
        "Ġpurchase",
        -10.37601256802676
      ],
      [
        "Ġaccept",
        -10.376038540033385
      ],
      [
        "Ġuses",
        -10.376361564001392
      ],
      [
        "summary",
        -10.376736218839238
      ],
      [
        "CD",
        -10.377321278675296
      ],
      [
        "Ġprepared",
        -10.377972155576224
      ],
      [
        "Ġcombined",
        -10.377976007406842
      ],
      [
        "lang",
        -10.378734596978958
      ],
      [
        "User",
        -10.378783519339043
      ],
      [
        "Ġinvolve",
        -10.379779458050637
      ],
      [
        "circumstances",
        -10.380200107911618
      ],
      [
        "Ġrare",
        -10.380324660212793
      ],
      [
        "ĠApp",
        -10.380417332274268
      ],
      [
        "kept",
        -10.38076298934511
      ],
      [
        "Supreme",
        -10.38080976907463
      ],
      [
        "Ġgirl",
        -10.380993129778672
      ],
      [
        "Â»",
        -10.3817730009616
      ],
      [
        "}}}",
        -10.381828107302589
      ],
      [
        "Ġofficials",
        -10.381907581883498
      ],
      [
        "Ġfight",
        -10.382393330354596
      ],
      [
        "Ġstructures",
        -10.382505839286772
      ],
      [
        "ĠBo",
        -10.382543190255852
      ],
      [
        "Ġsurvival",
        -10.383414472538853
      ],
      [
        "Ġdose",
        -10.383938758567394
      ],
      [
        "Ġ35",
        -10.384304282239905
      ],
      [
        ")).",
        -10.384890605621973
      ],
      [
        "Ġtree",
        -10.385764682799715
      ],
      [
        "advantage",
        -10.385926159370186
      ],
      [
        "Ġdriver",
        -10.386025593269114
      ],
      [
        ".](",
        -10.386129910318282
      ],
      [
        "print",
        -10.3865549076358
      ],
      [
        "ĠCal",
        -10.388157644733068
      ],
      [
        "Ġreceptor",
        -10.388162704331355
      ],
      [
        "Lambda",
        -10.388767891278134
      ],
      [
        "Ġquarter",
        -10.38905634273039
      ],
      [
        "Ġkilled",
        -10.389929518970543
      ],
      [
        "Ġdemonstrate",
        -10.390622997129228
      ],
      [
        "after",
        -10.390703120755
      ],
      [
        "Ġque",
        -10.39077262604097
      ],
      [
        "house",
        -10.391613329968932
      ],
      [
        "Ġdoubt",
        -10.391932278515588
      ],
      [
        "Ġconflict",
        -10.392695975569378
      ],
      [
        "Ġpicture",
        -10.393755604378148
      ],
      [
        "Ġscheme",
        -10.394039067290397
      ],
      [
        "Ġminimum",
        -10.394209128479035
      ],
      [
        "Ġdiet",
        -10.394330759090527
      ],
      [
        "Ġplans",
        -10.394626831460188
      ],
      [
        "ĠGreen",
        -10.394710415418382
      ],
      [
        "Ġcommercial",
        -10.395094966515725
      ],
      [
        "Ed",
        -10.395481671214462
      ],
      [
        "Ġcatch",
        -10.395567954318867
      ],
      [
        "Ġtrust",
        -10.395677122934025
      ],
      [
        "Ġplaces",
        -10.3964394182619
      ],
      [
        "explained",
        -10.396586651102666
      ],
      [
        "finite",
        -10.396958623937138
      ],
      [
        "order",
        -10.397496266941545
      ],
      [
        "bit",
        -10.397672869121552
      ],
      [
        "Ġinteger",
        -10.398003563490311
      ],
      [
        "Ġ(!",
        -10.398371987488206
      ],
      [
        "Î¼",
        -10.398627723274222
      ],
      [
        "Ġpromote",
        -10.39868230869264
      ],
      [
        "Ġnuclear",
        -10.39941498551132
      ],
      [
        "\\],",
        -10.399437324095391
      ],
      [
        "matrix",
        -10.400380619264082
      ],
      [
        "Ġconcept",
        -10.400697999301814
      ],
      [
        "Ġbuffer",
        -10.400805113025768
      ],
      [
        "absence",
        -10.400853402710634
      ],
      [
        "Monday",
        -10.401077537627042
      ],
      [
        "ĠHa",
        -10.401324496269725
      ],
      [
        "analyzed",
        -10.402033423664763
      ],
      [
        "you",
        -10.403068705135963
      ],
      [
        "Ġfeet",
        -10.403137829413478
      ],
      [
        "cos",
        -10.403522381201558
      ],
      [
        "ĠSa",
        -10.40374283233886
      ],
      [
        "Ġresolution",
        -10.403946632516114
      ],
      [
        "quantum",
        -10.4047052437841
      ],
      [
        "Ġextend",
        -10.405112377064558
      ],
      [
        "Ġsuffer",
        -10.405275082889135
      ],
      [
        "ĠHer",
        -10.405330050659748
      ],
      [
        "Ġthrow",
        -10.405987061674544
      ],
      [
        "Ġmental",
        -10.406404358724174
      ],
      [
        "ĠAM",
        -10.406440495048765
      ],
      [
        "intended",
        -10.406600328272118
      ],
      [
        "occurred",
        -10.406985917844002
      ],
      [
        "Ġsolutions",
        -10.407179710355493
      ],
      [
        "Ġselect",
        -10.407294719440396
      ],
      [
        "Ġmentioned",
        -10.407321157492284
      ],
      [
        "Ġrelation",
        -10.40783197010854
      ],
      [
        "Ġplus",
        -10.408621710493192
      ],
      [
        "ES",
        -10.409483330441468
      ],
      [
        "ĠCan",
        -10.409881254909076
      ],
      [
        "otimes",
        -10.410571140411948
      ],
      [
        "improved",
        -10.410739784833376
      ],
      [
        "ative",
        -10.410946663880024
      ],
      [
        "çļĦ",
        -10.410996956033443
      ],
      [
        "Ġrow",
        -10.411648368343547
      ],
      [
        "ĠDavid",
        -10.411751450022068
      ],
      [
        "Ġhandle",
        -10.412176313878422
      ],
      [
        "event",
        -10.412588704073451
      ],
      [
        "ties",
        -10.412834394953483
      ],
      [
        "Ġprobability",
        -10.414078780721594
      ],
      [
        "Ġsuit",
        -10.414444721748689
      ],
      [
        "Ġcollected",
        -10.415231237144493
      ],
      [
        "action",
        -10.41555164398422
      ],
      [
        "Ġmovie",
        -10.415700795280774
      ],
      [
        "either",
        -10.415777358380751
      ],
      [
        "Ġmotor",
        -10.41584775015618
      ],
      [
        "boldsymbol",
        -10.416507802148752
      ],
      [
        "Ġemployees",
        -10.416854511602596
      ],
      [
        "NO",
        -10.417013789095732
      ],
      [
        "Ġsubstrate",
        -10.418171314221032
      ],
      [
        "Ġopening",
        -10.418710478031755
      ],
      [
        "Ġtreat",
        -10.419228211186413
      ],
      [
        "/**",
        -10.419604793308558
      ],
      [
        "Ġsupply",
        -10.419845767371855
      ],
      [
        "guilt",
        -10.420429433916087
      ],
      [
        "Ġdocument",
        -10.420835824168066
      ],
      [
        "ung",
        -10.421036825808212
      ],
      [
        "died",
        -10.421048974080795
      ],
      [
        "Ġexternal",
        -10.421081051395609
      ],
      [
        "Ġscene",
        -10.421093744664937
      ],
      [
        "Ġintroduced",
        -10.421337200489717
      ],
      [
        "Ġprob",
        -10.421827863948629
      ],
      [
        "Click",
        -10.422282834599068
      ],
      [
        "Ġrise",
        -10.422294094341169
      ],
      [
        "Ġvirtual",
        -10.423016701744409
      ],
      [
        "util",
        -10.423681658948215
      ],
      [
        "property",
        -10.423693209567624
      ],
      [
        "Ġaffected",
        -10.42402446614375
      ],
      [
        "kg",
        -10.42525157217447
      ],
      [
        "mid",
        -10.425657554517068
      ],
      [
        "Ġpress",
        -10.426451455994249
      ],
      [
        "ĠPat",
        -10.426598339620766
      ],
      [
        "voltage",
        -10.426713550297611
      ],
      [
        "false",
        -10.42683191784022
      ],
      [
        "tab",
        -10.427594977247294
      ],
      [
        "post",
        -10.42761559359772
      ],
      [
        "ial",
        -10.428544878320183
      ],
      [
        "CH",
        -10.428689211285338
      ],
      [
        "Ġcaus",
        -10.429835124538512
      ],
      [
        "existence",
        -10.4301186201757
      ],
      [
        "Ġoperations",
        -10.43030695169494
      ],
      [
        "Ġbeautiful",
        -10.430688194945134
      ],
      [
        "Ġjava",
        -10.43087187107153
      ],
      [
        "has",
        -10.43099638060565
      ],
      [
        "Ġsummer",
        -10.431091786295823
      ],
      [
        "Ġdiagnosis",
        -10.431246308253996
      ],
      [
        "\"></",
        -10.431503449544376
      ],
      [
        "height",
        -10.431559474224033
      ],
      [
        "Ġclasses",
        -10.431921542689878
      ],
      [
        "Ã¡",
        -10.432230111998225
      ],
      [
        "Ġsexual",
        -10.432924853016916
      ],
      [
        "Ġmurder",
        -10.432953561866356
      ],
      [
        "ney",
        -10.433574490636271
      ],
      [
        "Ġ200",
        -10.433585379665486
      ],
      [
        "Ġnil",
        -10.43398528624348
      ],
      [
        "Ġinvestment",
        -10.434017115850718
      ],
      [
        "ĠSe",
        -10.434193654319827
      ],
      [
        "System",
        -10.434215522962322
      ],
      [
        "Â¶",
        -10.434746483625707
      ],
      [
        "Ġpeak",
        -10.435897249463892
      ],
      [
        "Ġequivalent",
        -10.436154288882404
      ],
      [
        "Ġestimate",
        -10.436212676106834
      ],
      [
        "Ġattend",
        -10.43678074634292
      ],
      [
        "Ġsquare",
        -10.436849898530156
      ],
      [
        "font",
        -10.43696967305022
      ],
      [
        "Ġnone",
        -10.43698099436534
      ],
      [
        "Ġestimated",
        -10.437168049907836
      ],
      [
        "Ġbiggest",
        -10.437495808331612
      ],
      [
        "ious",
        -10.437510473761073
      ],
      [
        "ĠLondon",
        -10.43881530269068
      ],
      [
        "AP",
        -10.439017499265724
      ],
      [
        "Ġassessment",
        -10.439031039677278
      ],
      [
        "Button",
        -10.439032763020798
      ],
      [
        "****************",
        -10.43920315780054
      ],
      [
        "Ġcollege",
        -10.439307767197688
      ],
      [
        "Ġmanager",
        -10.439412430826383
      ],
      [
        "dependent",
        -10.439444239490484
      ],
      [
        "Ġremaining",
        -10.440295816079674
      ],
      [
        "exp",
        -10.440908058239485
      ],
      [
        "Appellant",
        -10.440943262462602
      ],
      [
        "Ġwild",
        -10.441228998498255
      ],
      [
        "economy",
        -10.441326965349589
      ],
      [
        "Ġrepresentation",
        -10.442176148228642
      ],
      [
        "Ġorganization",
        -10.44305791654004
      ],
      [
        "Ġparent",
        -10.44313715531834
      ],
      [
        "2016",
        -10.443362476118043
      ],
      [
        "Ġband",
        -10.44339100012198
      ],
      [
        "offense",
        -10.443636995131657
      ],
      [
        "Â½",
        -10.443695254743574
      ],
      [
        "Ġtechniques",
        -10.444336023452816
      ],
      [
        "range",
        -10.444857499516372
      ],
      [
        "Ġanimal",
        -10.445209641573465
      ],
      [
        "Ġ2006",
        -10.446896141348802
      ],
      [
        "Ġguess",
        -10.447550281851765
      ],
      [
        "Theorem",
        -10.447570386717889
      ],
      [
        "eat",
        -10.448928230817303
      ],
      [
        "$$\\",
        -10.448946738029292
      ],
      [
        "violation",
        -10.449524284290938
      ],
      [
        "tag",
        -10.449603162721846
      ],
      [
        "Ġstorage",
        -10.449703331817878
      ],
      [
        "Ġthank",
        -10.44971796744904
      ],
      [
        "covered",
        -10.449726411984487
      ],
      [
        "005",
        -10.449775045417285
      ],
      [
        "Ġ70",
        -10.450435964033096
      ],
      [
        "ĠPlaintiff",
        -10.45077806889185
      ],
      [
        "Ġexperiment",
        -10.450866704976995
      ],
      [
        "Ġrequirements",
        -10.4508755673424
      ],
      [
        "2014",
        -10.451527720894774
      ],
      [
        "Ġdraw",
        -10.45171880146361
      ],
      [
        "Ġlinks",
        -10.451983215039972
      ],
      [
        "Ġfootball",
        -10.45208045030608
      ],
      [
        "Ġfluid",
        -10.452127625708696
      ],
      [
        "2013",
        -10.452230768455404
      ],
      [
        "============",
        -10.452897296682146
      ],
      [
        "Ġsecret",
        -10.453296320391765
      ],
      [
        "Ġbank",
        -10.453631558692788
      ],
      [
        "Ãł",
        -10.454285724890644
      ],
      [
        "mon",
        -10.456113377118774
      ],
      [
        "button",
        -10.45627486260915
      ],
      [
        "Ġextent",
        -10.456587088625202
      ],
      [
        "Ġcurve",
        -10.456819953060675
      ],
      [
        "Ġconventional",
        -10.456823335312484
      ],
      [
        "contained",
        -10.456824238199076
      ],
      [
        "non",
        -10.457226675664334
      ],
      [
        "Ġbreast",
        -10.458037739978904
      ],
      [
        "Ġassay",
        -10.45813360827394
      ],
      [
        "Ġprogress",
        -10.458403165166338
      ],
      [
        "Ġfavor",
        -10.458781117171734
      ],
      [
        "spectrum",
        -10.459461156900856
      ],
      [
        "Ġsets",
        -10.459986373922687
      ],
      [
        "Ġpredict",
        -10.461964123511638
      ],
      [
        "Ġcreating",
        -10.462027310896172
      ],
      [
        "Ġtrain",
        -10.46220723326296
      ],
      [
        "ĠBank",
        -10.462330446456642
      ],
      [
        "US",
        -10.462858178233551
      ],
      [
        "Ġ2000",
        -10.463074208938142
      ],
      [
        "ĠTV",
        -10.463290739328832
      ],
      [
        "Ġclick",
        -10.463353698476652
      ],
      [
        "letters",
        -10.46383483120862
      ],
      [
        "ĠEast",
        -10.464055459389906
      ],
      [
        "Ġtouch",
        -10.46440888009993
      ],
      [
        "Ġblog",
        -10.464579202835957
      ],
      [
        "Ġplatform",
        -10.464615092542138
      ],
      [
        "ĠIsrael",
        -10.46490366143446
      ],
      [
        "ible",
        -10.465018273025974
      ],
      [
        "SD",
        -10.4652436634247
      ],
      [
        "Ġtrack",
        -10.465301771168772
      ],
      [
        "Ġconclude",
        -10.465392152548024
      ],
      [
        "ĠUn",
        -10.46560742866054
      ],
      [
        "Ġformula",
        -10.466414176341676
      ],
      [
        "Ġmissing",
        -10.466485636160169
      ],
      [
        "Ġmodule",
        -10.466516142092502
      ],
      [
        "Ġmono",
        -10.466926605636983
      ],
      [
        "Ġtechnique",
        -10.46720944697815
      ],
      [
        "Client",
        -10.46837256083914
      ],
      [
        "Ġauthor",
        -10.469318943770697
      ],
      [
        "Element",
        -10.469397022175508
      ],
      [
        "ĠTexas",
        -10.469508910451928
      ],
      [
        "ĠInstitute",
        -10.469547465276808
      ],
      [
        "adding",
        -10.469561616876028
      ],
      [
        "margin",
        -10.46980249354071
      ],
      [
        "004",
        -10.470614935104628
      ],
      [
        "typical",
        -10.471492161179334
      ],
      [
        "**)",
        -10.471811925907897
      ],
      [
        "arphi",
        -10.472834078292763
      ],
      [
        "charged",
        -10.47337864008058
      ],
      [
        "Ġtrip",
        -10.47384773404524
      ],
      [
        "į",
        -10.474443277635908
      ],
      [
        "2012",
        -10.474486447391811
      ],
      [
        "mbox",
        -10.474733547403758
      ],
      [
        "Ġadult",
        -10.474965379332994
      ],
      [
        "ĠMost",
        -10.47504810181877
      ],
      [
        "Ġgun",
        -10.475059691913494
      ],
      [
        "OUT",
        -10.476284531285346
      ],
      [
        "Ġauthority",
        -10.47648128772268
      ],
      [
        "ĠStreet",
        -10.476482795763234
      ],
      [
        "Some",
        -10.476739941931722
      ],
      [
        "slightly",
        -10.476792836244265
      ],
      [
        "Ġplate",
        -10.476857916354604
      ],
      [
        "driving",
        -10.476983775053757
      ],
      [
        "Ġbalance",
        -10.477297467676904
      ],
      [
        "ĠYour",
        -10.477385895438054
      ],
      [
        "reasons",
        -10.47744051318549
      ],
      [
        "Ġbirth",
        -10.47747194925757
      ],
      [
        "Ġseek",
        -10.47824423485862
      ],
      [
        "Ġcalls",
        -10.478286499173109
      ],
      [
        "ĠNote",
        -10.47852827178971
      ],
      [
        "king",
        -10.47865699725476
      ],
      [
        "ĠHigh",
        -10.478978091879409
      ],
      [
        "onumber",
        -10.479024659487274
      ],
      [
        "ĠGroup",
        -10.479767321187088
      ],
      [
        "ĠPro",
        -10.480692882127398
      ],
      [
        "Ġcandidate",
        -10.48138229239099
      ],
      [
        "Ġraise",
        -10.481537465545728
      ],
      [
        "Ġtools",
        -10.481580060538144
      ],
      [
        "kappa",
        -10.481611738566896
      ],
      [
        "her",
        -10.482671408660114
      ],
      [
        "img",
        -10.482978337674425
      ],
      [
        "possibility",
        -10.483124299918863
      ],
      [
        "SM",
        -10.483364965554475
      ],
      [
        "Ġformat",
        -10.483436270432753
      ],
      [
        "latter",
        -10.483938563718397
      ],
      [
        "Ġdie",
        -10.484009306666104
      ],
      [
        "Ġjoint",
        -10.484942459628384
      ],
      [
        "ĠRNA",
        -10.48506387056284
      ],
      [
        "ĠBritish",
        -10.48521789846331
      ],
      [
        "Ġpathway",
        -10.48543367874586
      ],
      [
        "offered",
        -10.48623120239609
      ],
      [
        "Ġsmooth",
        -10.486804699634076
      ],
      [
        "ĠCommission",
        -10.487049783107896
      ],
      [
        "operating",
        -10.487093719736714
      ],
      [
        "ĠEurope",
        -10.487149995155177
      ],
      [
        "Ġexception",
        -10.487559025941872
      ],
      [
        "referred",
        -10.487752240678386
      ],
      [
        "Ġlargest",
        -10.488005440218751
      ],
      [
        "announced",
        -10.489245455478352
      ],
      [
        "mar",
        -10.489704850283134
      ],
      [
        "Ġdelay",
        -10.49070857234331
      ],
      [
        "Results",
        -10.49243533433491
      ],
      [
        "Ġpercentage",
        -10.49250329442297
      ],
      [
        "Ġentry",
        -10.492644426731475
      ],
      [
        "ĠCI",
        -10.492715413811968
      ],
      [
        "ways",
        -10.49306921193942
      ],
      [
        "Ġwarrant",
        -10.493207596155022
      ],
      [
        "Yeah",
        -10.493519826688193
      ],
      [
        "Ġreveal",
        -10.494829142751696
      ],
      [
        "Ġfat",
        -10.494924743210326
      ],
      [
        "Ġassess",
        -10.494954030222932
      ],
      [
        "ory",
        -10.495012353457646
      ],
      [
        "ÃĹ",
        -10.495494738487468
      ],
      [
        "approved",
        -10.49554122963316
      ],
      [
        "Ġimplementation",
        -10.4957080884585
      ],
      [
        "Ġpurposes",
        -10.49602016660777
      ],
      [
        "Ġsummary",
        -10.496083173260642
      ],
      [
        "ultimate",
        -10.49632685911578
      ],
      [
        "Ġrecords",
        -10.496670815979895
      ],
      [
        "Ġfoot",
        -10.496778614017073
      ],
      [
        "Ġincident",
        -10.4970944808517
      ],
      [
        "last",
        -10.497237371879518
      ],
      [
        "ĠFoundation",
        -10.497288973705194
      ],
      [
        "Ġharm",
        -10.497340428234942
      ],
      [
        "čĊĉ",
        -10.4983965174514
      ],
      [
        "Ġplane",
        -10.498408840737504
      ],
      [
        "ĠBlack",
        -10.498448870668952
      ],
      [
        "ĠCouncil",
        -10.498924935691834
      ],
      [
        "Ġadvance",
        -10.498966674053555
      ],
      [
        "Int",
        -10.499033278872606
      ],
      [
        "ĠLaw",
        -10.499566500392644
      ],
      [
        "ĠJudge",
        -10.499821130607229
      ],
      [
        "Ġoutcome",
        -10.500070796664437
      ],
      [
        "ĠCA",
        -10.500104337557476
      ],
      [
        "Content",
        -10.500399348007582
      ],
      [
        "Ġcoverage",
        -10.500464369290905
      ],
      [
        "ement",
        -10.500511786984378
      ],
      [
        "Ġ37",
        -10.500631376773116
      ],
      [
        "ĠCar",
        -10.500685767517714
      ],
      [
        "][",
        -10.50146048990025
      ],
      [
        "Ġdog",
        -10.501793812806596
      ],
      [
        "Page",
        -10.50206013511238
      ],
      [
        "pos",
        -10.502461414404276
      ],
      [
        "ĠGet",
        -10.504399376187026
      ],
      [
        "-----------",
        -10.504404976239774
      ],
      [
        "Ġderived",
        -10.504751586939394
      ],
      [
        "Ġobjective",
        -10.505442364785775
      ],
      [
        "ĠRed",
        -10.505602409288626
      ],
      [
        ".$$",
        -10.505811053192843
      ],
      [
        "target",
        -10.505902233516265
      ],
      [
        "Ġcomplaint",
        -10.507094334759794
      ],
      [
        "standing",
        -10.507248334225595
      ],
      [
        "determination",
        -10.50756640868215
      ],
      [
        "Ġeasi",
        -10.50801958103753
      ],
      [
        "2017",
        -10.508531366715925
      ],
      [
        "Response",
        -10.508550562241872
      ],
      [
        "ĠFriday",
        -10.509087194345213
      ],
      [
        "ĠGoogle",
        -10.50914711524169
      ],
      [
        "Ġcontrols",
        -10.509322129193048
      ],
      [
        "Ġcapital",
        -10.509480320895646
      ],
      [
        "})$",
        -10.509534251596891
      ],
      [
        "Ġvirus",
        -10.509555736564124
      ],
      [
        "Ġrefer",
        -10.509736117455024
      ],
      [
        "first",
        -10.510582208589792
      ],
      [
        "Ġthreat",
        -10.510880722052017
      ],
      [
        "null",
        -10.51103563245054
      ],
      [
        "Ġentered",
        -10.511776516276347
      ],
      [
        "ĠCode",
        -10.512088672826485
      ],
      [
        "Ġsubjects",
        -10.51235525124467
      ],
      [
        "ĠChinese",
        -10.512615158598416
      ],
      [
        "Ġsales",
        -10.513188121281
      ],
      [
        "ĠCanada",
        -10.513471447576292
      ],
      [
        "RE",
        -10.514026118626566
      ],
      [
        "Ġlatest",
        -10.514817263313423
      ],
      [
        "star",
        -10.515655613941226
      ],
      [
        "Ġinstall",
        -10.515706285946075
      ],
      [
        "upplementary",
        -10.515929007542011
      ],
      [
        "Ġdry",
        -10.515997881319944
      ],
      [
        "work",
        -10.516359710338172
      ],
      [
        "media",
        -10.516757524709522
      ],
      [
        "Ġnoise",
        -10.516955990973946
      ],
      [
        "Ġagency",
        -10.51703994185958
      ],
      [
        "PS",
        -10.517359711613722
      ],
      [
        "Ġcold",
        -10.517806502675873
      ],
      [
        "Ġdu",
        -10.51833790574068
      ],
      [
        "Ġcontribute",
        -10.518475381213454
      ],
      [
        "Property",
        -10.519531297975629
      ],
      [
        "Ġprotected",
        -10.519923287341614
      ],
      [
        "Ġcomposition",
        -10.520175097094544
      ],
      [
        "These",
        -10.521107030540836
      ],
      [
        "ĠDon",
        -10.52147219690595
      ],
      [
        "Ġenvironmental",
        -10.521674657878409
      ],
      [
        "Ġrepeated",
        -10.52222572130197
      ],
      [
        "ĊĊĠĠĠĠĠ",
        -10.522751809420534
      ],
      [
        "**]{},",
        -10.52326782694704
      ],
      [
        "importance",
        -10.523419594324151
      ],
      [
        "Ġdaughter",
        -10.523726956782625
      ],
      [
        "Ġarm",
        -10.52390309881526
      ],
      [
        "json",
        -10.524592157815263
      ],
      [
        "Ġinterview",
        -10.525059880338876
      ],
      [
        "Ġanalyses",
        -10.525076029716184
      ],
      [
        "Ġeventual",
        -10.525615081409912
      ],
      [
        "else",
        -10.526041638743637
      ],
      [
        "Ġ2005",
        -10.52612789871632
      ],
      [
        "Ġspend",
        -10.526516552960864
      ],
      [
        "}}{",
        -10.526999384767636
      ],
      [
        "ĠKo",
        -10.527371451187152
      ],
      [
        "ĠÎ¼",
        -10.528313779462655
      ],
      [
        "changing",
        -10.528703505937044
      ],
      [
        "Ġspeech",
        -10.52894417543156
      ],
      [
        "Ġequipment",
        -10.530072073574493
      ],
      [
        "Result",
        -10.530167515857494
      ],
      [
        "ĠMar",
        -10.530834063144528
      ],
      [
        "local",
        -10.530949400069051
      ],
      [
        "put",
        -10.531049337281384
      ],
      [
        "Ġdigit",
        -10.531342026662452
      ],
      [
        "client",
        -10.53190809570355
      ],
      [
        "ĠAm",
        -10.531944762799748
      ],
      [
        "Ġvictim",
        -10.532254674882754
      ],
      [
        "Ġarrive",
        -10.534059992675344
      ],
      [
        "Ġcharacters",
        -10.534062991867213
      ],
      [
        "Ġelectronic",
        -10.53485035859735
      ],
      [
        "Ġagents",
        -10.534945187415705
      ],
      [
        "current",
        -10.535130831512138
      ],
      [
        "Ġvisual",
        -10.53568811405266
      ],
      [
        "Ġdigital",
        -10.536003583931551
      ],
      [
        "Ġschools",
        -10.536818075841
      ],
      [
        "Ġwants",
        -10.536978904527688
      ],
      [
        "ĠAr",
        -10.537885103235071
      ],
      [
        "ĊĊĠĠĠĠĠĠ",
        -10.53836453474614
      ],
      [
        "Ġextract",
        -10.539051774415704
      ],
      [
        "ants",
        -10.539436811987676
      ],
      [
        "Ġstable",
        -10.539557303522985
      ],
      [
        "Ġsell",
        -10.539651203721816
      ],
      [
        "Ġcamera",
        -10.540091115870576
      ],
      [
        "Ġdecide",
        -10.540218338310128
      ],
      [
        "Ġinteractions",
        -10.540292766439157
      ],
      [
        "300",
        -10.54030123512888
      ],
      [
        "win",
        -10.540802944926163
      ],
      [
        "ħ",
        -10.540824311064164
      ],
      [
        "Ġfuel",
        -10.540974498638713
      ],
      [
        "Ġcard",
        -10.541011063734912
      ],
      [
        "represented",
        -10.541191646182648
      ],
      [
        "appeared",
        -10.541410145641972
      ],
      [
        "Ġcompleted",
        -10.54145921800664
      ],
      [
        "**]{}",
        -10.5420031465627
      ],
      [
        "Ġdepartment",
        -10.54203865518024
      ],
      [
        "Ġprefer",
        -10.54244830638732
      ],
      [
        "Ġheavy",
        -10.542857801250744
      ],
      [
        "module",
        -10.542968910013784
      ],
      [
        "Ġwhatever",
        -10.54306674564664
      ],
      [
        "ĠJames",
        -10.543390688139151
      ],
      [
        "Ġcorrespond",
        -10.543801017342016
      ],
      [
        "Defendant",
        -10.543956090224006
      ],
      [
        "';",
        -10.54429115066775
      ],
      [
        "Source",
        -10.545105796315717
      ],
      [
        "Ġevaluation",
        -10.54543963518425
      ],
      [
        "Ġshared",
        -10.545737300352386
      ],
      [
        "nabla",
        -10.545966928581397
      ],
      [
        "ran",
        -10.54596975018109
      ],
      [
        "rate",
        -10.546166722688255
      ],
      [
        "Ġseat",
        -10.546309049478348
      ],
      [
        "Ġhusband",
        -10.547279787497024
      ],
      [
        "Ġvalid",
        -10.547577097561485
      ],
      [
        "Ġtransmission",
        -10.547638463594136
      ],
      [
        "']",
        -10.547796405737516
      ],
      [
        "ide",
        -10.54783201568262
      ],
      [
        "Ġowner",
        -10.54793299473536
      ],
      [
        "format",
        -10.549092237785446
      ],
      [
        "Box",
        -10.549491213696736
      ],
      [
        "Ġkill",
        -10.549583753979787
      ],
      [
        "Ġideal",
        -10.550210517407525
      ],
      [
        "Ġchronic",
        -10.550293622656724
      ],
      [
        "Un",
        -10.550478014844014
      ],
      [
        "ĠSuch",
        -10.550796741004849
      ],
      [
        "2011",
        -10.551079242029884
      ],
      [
        "Ġ+=",
        -10.551212185770678
      ],
      [
        "Thursday",
        -10.551775441801269
      ],
      [
        "Ġidentity",
        -10.552282903590129
      ],
      [
        "context",
        -10.554491500468346
      ],
      [
        "apache",
        -10.554923861053018
      ],
      [
        "Ġliver",
        -10.555154042580158
      ],
      [
        "©",
        -10.555482654846006
      ],
      [
        "ĠIndian",
        -10.555647203587524
      ],
      [
        "ahead",
        -10.55597960342386
      ],
      [
        "ĠKa",
        -10.556391258952296
      ],
      [
        "Ġcool",
        -10.557178476902196
      ],
      [
        "serum",
        -10.557224658594166
      ],
      [
        "request",
        -10.557282484306352
      ],
      [
        "Ġpayment",
        -10.557382825835626
      ],
      [
        "Ġplants",
        -10.55769051743274
      ],
      [
        "ze",
        -10.557982042587904
      ],
      [
        "Link",
        -10.558731987276955
      ],
      [
        "Ġreality",
        -10.559035180591524
      ],
      [
        "section",
        -10.559813698335583
      ],
      [
        "Label",
        -10.560373709231548
      ],
      [
        "128",
        -10.56055787012545
      ],
      [
        "Ġsoft",
        -10.560641407348353
      ],
      [
        "prop",
        -10.56075516897462
      ],
      [
        "ĠMc",
        -10.560836635233462
      ],
      [
        "Or",
        -10.561368739543685
      ],
      [
        "Number",
        -10.561441773431676
      ],
      [
        "lim",
        -10.561531075419303
      ],
      [
        "AD",
        -10.561581251008745
      ],
      [
        "ï¼Į",
        -10.56167232570615
      ],
      [
        "Ġlose",
        -10.561683759080042
      ],
      [
        "Ġ${",
        -10.561738535315955
      ],
      [
        "ĠKing",
        -10.562004659887432
      ],
      [
        "remainder",
        -10.562006250515962
      ],
      [
        "conviction",
        -10.562297531878142
      ],
      [
        "Ġplasma",
        -10.5623841479627
      ],
      [
        "Ġmobile",
        -10.562406909784782
      ],
      [
        "ĠEq",
        -10.562480087976695
      ],
      [
        "status",
        -10.562797923504371
      ],
      [
        "2010",
        -10.563204747673094
      ],
      [
        "Ġquick",
        -10.564064621936906
      ],
      [
        "Ġjoin",
        -10.565050827401018
      ],
      [
        "Ġengine",
        -10.565190722894776
      ],
      [
        "CO",
        -10.566217705928958
      ],
      [
        "Ġsuspect",
        -10.56648738187881
      ],
      [
        "extremely",
        -10.566610092632192
      ],
      [
        "directed",
        -10.566702149339344
      ],
      [
        "Ġepisode",
        -10.567010242192678
      ],
      [
        "Line",
        -10.567129261242188
      ],
      [
        "worse",
        -10.567798719205507
      ],
      [
        "Ġ\"[",
        -10.567988315593489
      ],
      [
        "ĠSunday",
        -10.568234560206948
      ],
      [
        "Ġpatterns",
        -10.56824728689653
      ],
      [
        "ĠWestern",
        -10.569782582349957
      ],
      [
        "doc",
        -10.570260945407767
      ],
      [
        "Ġspot",
        -10.570793574555193
      ],
      [
        "ĠPeople",
        -10.570917906820206
      ],
      [
        "ster",
        -10.57104365681336
      ],
      [
        "Ġsecondary",
        -10.571363430647676
      ],
      [
        "Ġsalt",
        -10.57139269509134
      ],
      [
        "Ġnano",
        -10.571483657560346
      ],
      [
        "sensors",
        -10.5718481739337
      ],
      [
        "ĠNews",
        -10.571962426214926
      ],
      [
        "Don",
        -10.572188328671812
      ],
      [
        "layout",
        -10.572346376531316
      ],
      [
        "employed",
        -10.572970565241455
      ],
      [
        "active",
        -10.57398932099212
      ],
      [
        "output",
        -10.574293669330498
      ],
      [
        "Base",
        -10.575046894428374
      ],
      [
        "receiving",
        -10.575104966329103
      ],
      [
        "Ġfilter",
        -10.575222423022405
      ],
      [
        "Ġ48",
        -10.575648560775347
      ],
      [
        "small",
        -10.576238475270165
      ],
      [
        "Ġannual",
        -10.57633702796726
      ],
      [
        "Ġcontrolled",
        -10.578140104033444
      ],
      [
        "OS",
        -10.57831729120676
      ],
      [
        "leaving",
        -10.578918708145329
      ],
      [
        "interested",
        -10.579090999140316
      ],
      [
        "Ġteams",
        -10.580532082479582
      ],
      [
        "low",
        -10.580557555674671
      ],
      [
        "zeta",
        -10.580589594158214
      ],
      [
        "Ġstars",
        -10.580849080224416
      ],
      [
        "belief",
        -10.580904406406797
      ],
      [
        "server",
        -10.580974162154718
      ],
      [
        "ren",
        -10.581168210428674
      ],
      [
        "Ġliterature",
        -10.581541765401283
      ],
      [
        "Ġmeasurements",
        -10.581715715935552
      ],
      [
        "Ġsrc",
        -10.581846970233642
      ],
      [
[...]
