{
  "version": "1.0",
  "truncation": null,
  "padding": null,
  "added_tokens": [
    {
      "id": 0,
      "content": "<|endoftext|>",
      "single_word": false,
      "lstrip": false,
      "rstrip": false,
      "normalized": false,
      "special": true
    },
    {
      "id": 1,
      "content": "<UNK>",
      "single_word": false,
      "lstrip": false,
      "rstrip": false,
      "normalized": false,
      "special": true
    }
  ],
  "normalizer": null,
  "pre_tokenizer": {
    "type": "ByteLevel",
    "add_prefix_space": true,
    "trim_offsets": true,
    "use_regex": true
  },
  "post_processor": null,
  "decoder": null,
  "model": {
    "type": "Unigram",
    "unk_id": 1,
    "vocab": [
      [
        "<|endoftext|>",
        0.0
      ],
      [
        "<UNK>",
        0.0
      ],
      [
        "Ġ",
        -2.022085629057713
      ],
      [
        ".",
        -3.468484687322018
      ],
      [
        "Ċ",
        -3.521232551413302
      ],
      [
        ",",
        -3.5979706826262934
      ],
      [
        "Ġthe",
        -3.7473922846962897
      ],
      [
        "s",
        -3.884208330687595
      ],
      [
        "a",
        -4.323100613462579
      ],
      [
        "Ġof",
        -4.3361969142948915
      ],
      [
        "-",
        -4.412984595711375
      ],
      [
        "Ġand",
        -4.503413876960863
      ],
      [
        "Ġto",
        -4.513561783851891
      ],
      [
        "(",
        -4.700846589036075
      ],
      [
        "Ġin",
        -4.791415878357316
      ],
      [
        "_",
        -5.066306813578887
      ],
      [
        "\"",
        -5.114795550594927
      ],
      [
        ")",
        -5.144858249487026
      ],
      [
        "Ġis",
        -5.209801284202683
      ],
      [
        "'",
        -5.323033049290352
      ],
      [
        "1",
        -5.347488508204286
      ],
      [
        "Ġthat",
        -5.373695410106766
      ],
      [
        ":",
        -5.40705807170465
      ],
      [
        "t",
        -5.418900689565939
      ],
      [
        "\\",
        -5.428165064880318
      ],
      [
        "2",
        -5.445032984668382
      ],
      [
        "d",
        -5.451308497061202
      ],
      [
        "e",
        -5.457489390939445
      ],
      [
        "Ġfor",
        -5.465508369623169
      ],
      [
        "I",
        -5.556425933714509
      ],
      [
        "$",
        -5.5616999448338245
      ],
      [
        "0",
        -5.594039986121739
      ],
      [
        "*",
        -5.614876711268231
      ],
      [
        "i",
        -5.626042133867815
      ],
      [
        "n",
        -5.693793009804244
      ],
      [
        "m",
        -5.739102583808734
      ],
      [
        "Ġwith",
        -5.740369887059298
      ],
      [
        "ing",
        -5.750386913864604
      ],
      [
        "{",
        -5.7635529146251425
      ],
      [
        "=",
        -5.774637523523555
      ],
      [
        "/",
        -5.784298978646726
      ],
      [
        "o",
        -5.7922800857135766
      ],
      [
        "ed",
        -5.8182945265777715
      ],
      [
        "Ġon",
        -5.90711834748862
      ],
      [
        "}",
        -5.934616674558235
      ],
      [
        "Ġbe",
        -5.966934515151689
      ],
      [
        "Ġas",
        -5.9897726129079185
      ],
      [
        "Ġwas",
        -5.998066364801728
      ],
      [
        "Ġit",
        -6.024078232504561
      ],
      [
        "3",
        -6.040158587744122
      ],
      [
        ";",
        -6.065222980623057
      ],
      [
        "Ġare",
        -6.109234372024927
      ],
      [
        "A",
        -6.119536900676364
      ],
      [
        "p",
        -6.123051438592906
      ],
      [
        "Ġby",
        -6.127673962474272
      ],
      [
        "c",
        -6.1452917139955225
      ],
      [
        "at",
        -6.1651183701179395
      ],
      [
        "ly",
        -6.169300238847354
      ],
      [
        "y",
        -6.186023845873489
      ],
      [
        "r",
        -6.203435837966904
      ],
      [
        "Ġthis",
        -6.2782045490724165
      ],
      [
        "b",
        -6.2783747866151245
      ],
      [
        "âĢĻ",
        -6.293820225174672
      ],
      [
        "ĠĠĠĠĠĠĠĠĠĠĠĠĠĠĠĠ",
        -6.299145022005678
      ],
      [
        "Ġfrom",
        -6.302712286331918
      ],
      [
        "Ġnot",
        -6.304030704442681
      ],
      [
        "Ġyou",
        -6.3071238730492425
      ],
      [
        "ĠThe",
        -6.307493776058296
      ],
      [
        "ĉ",
        -6.326579613638222
      ],
      [
        "Ġor",
        -6.364978503810592
      ],
      [
        ">",
        -6.365580401972203
      ],
      [
        "ĊĠĠĠ",
        -6.377184880880151
      ],
      [
        "f",
        -6.38696890833479
      ],
      [
        "S",
        -6.387377726019949
      ],
      [
        "4",
        -6.390912898869821
      ],
      [
        "Ġhave",
        -6.396548503427175
      ],
      [
        "x",
        -6.430316557963289
      ],
      [
        "Ġan",
        -6.452333887715495
      ],
      [
        "+",
        -6.479185354795897
      ],
      [
        "l",
        -6.5054191966273045
      ],
      [
        "<",
        -6.533105599129044
      ],
      [
        "5",
        -6.540228765530063
      ],
      [
        "C",
        -6.570730685675523
      ],
      [
        "[",
        -6.574335938830213
      ],
      [
        "Ġwe",
        -6.638288329195529
      ],
      [
        "B",
        -6.648603478160302
      ],
      [
        "g",
        -6.663217965963247
      ],
      [
        "h",
        -6.684400618565977
      ],
      [
        "v",
        -6.72336047654807
      ],
      [
        "Ġcan",
        -6.732558749865815
      ],
      [
        "Ġwere",
        -6.7473201239480325
      ],
      [
        "ĊĠĠĠĠĠĠĠ",
        -6.768797941837576
      ],
      [
        "**",
        -6.782382496925967
      ],
      [
        "k",
        -6.798189012858831
      ],
      [
        "=\"",
        -6.799810919319743
      ],
      [
        "The",
        -6.802391030413549
      ],
      [
        "he",
        -6.820866518411631
      ],
      [
        "Ġwhich",
        -6.826889018780992
      ],
      [
        "Ġhas",
        -6.847786496484376
      ],
      [
        "?",
        -6.855847258042818
      ],
      [
        "u",
        -6.885715578133958
      ],
      [
        "in",
        -6.910553788092727
      ],
      [
        "Ġbut",
        -6.9228517994943015
      ],
      [
        "Ġwill",
        -6.939948023992587
      ],
      [
        ".\"",
        -6.954383385278277
      ],
      [
        "6",
        -6.966798830852909
      ],
      [
        "]",
        -6.983447148450773
      ],
      [
        "Ġall",
        -6.995112316479359
      ],
      [
        "P",
        -7.0342277070779975
      ],
      [
        "Ġhis",
        -7.036653700045068
      ],
      [
        "Ġone",
        -7.044127714832177
      ],
      [
        "D",
        -7.044220019395889
      ],
      [
        "Ġif",
        -7.049473948583575
      ],
      [
        "M",
        -7.053914957126068
      ],
      [
        ").",
        -7.071436844521099
      ],
      [
        "R",
        -7.104771204870394
      ],
      [
        "E",
        -7.106355855658476
      ],
      [
        "T",
        -7.110834134075427
      ],
      [
        "Âł",
        -7.122373890249143
      ],
      [
        "F",
        -7.124011469781534
      ],
      [
        "Ġthey",
        -7.143160887363681
      ],
      [
        "8",
        -7.144065447870114
      ],
      [
        "Ġtheir",
        -7.150241034774266
      ],
      [
        "_{",
        -7.16252673948973
      ],
      [
        "Ġmore",
        -7.167196166841377
      ],
      [
        "7",
        -7.170396990842843
      ],
      [
        "&",
        -7.180472522108367
      ],
      [
        "re",
        -7.1877612553516155
      ],
      [
        ");",
        -7.204180989033544
      ],
      [
        "^",
        -7.21079418358952
      ],
      [
        "Ġhad",
        -7.236103129578208
      ],
      [
        "N",
        -7.253409251617437
      ],
      [
        "Ġ$\\",
        -7.257631490227348
      ],
      [
        "Ġbeen",
        -7.258017061779824
      ],
      [
        "%",
        -7.271770641590608
      ],
      [
        "er",
        -7.274403347844235
      ],
      [
        "L",
        -7.277842723021688
      ],
      [
        "Ġyour",
        -7.2837681959194125
      ],
      [
        "Ġalso",
        -7.287998338319397
      ],
      [
        "Ġwould",
        -7.298825430173437
      ],
      [
        "j",
        -7.306497101516627
      ],
      [
        "Ġthere",
        -7.313478174089086
      ],
      [
        "H",
        -7.320208033969836
      ],
      [
        "Ġout",
        -7.321428841905865
      ],
      [
        "Ġwhen",
        -7.324926843067383
      ],
      [
        "Ġabout",
        -7.332595457696048
      ],
      [
        "Ġtime",
        -7.343775550828203
      ],
      [
        "w",
        -7.35099915229371
      ],
      [
        "ĠIn",
        -7.366812643680767
      ],
      [
        "Ġother",
        -7.37004195759758
      ],
      [
        "ĊĠĠĠĠĠĠĠĠĠĠĠ",
        -7.385413151266208
      ],
      [
        "Ġwho",
        -7.385854301849276
      ],
      [
        "Ġdo",
        -7.390678884919113
      ],
      [
        "9",
        -7.402453109097593
      ],
      [
        "</",
        -7.405853386110682
      ],
      [
        "Ġno",
        -7.41051986514892
      ],
      [
        "Ġmy",
        -7.412063392585695
      ],
      [
        "Ġup",
        -7.423525707356463
      ],
      [
        "z",
        -7.433280285486733
      ],
      [
        "),",
        -7.435728267764691
      ],
      [
        "#",
        -7.43602896468661
      ],
      [
        "[@",
        -7.439092715437406
      ],
      [
        "G",
        -7.4457178069526435
      ],
      [
        "Ġthan",
        -7.453758394213288
      ],
      [
        "ĠâĢľ",
        -7.455244294039726
      ],
      [
        "|",
        -7.482492357912427
      ],
      [
        "{\\",
        -7.495863119736102
      ],
      [
        "Ġinto",
        -7.52400560470759
      ],
      [
        "or",
        -7.530103004954613
      ],
      [
        "type",
        -7.532198185986463
      ],
      [
        "Ġour",
        -7.546387591801173
      ],
      [
        "Ġlike",
        -7.550168442554069
      ],
      [
        "Ġher",
        -7.551816616465429
      ],
      [
        "Ġtwo",
        -7.562616622989328
      ],
      [
        "U",
        -7.564721924343985
      ],
      [
        "Ġany",
        -7.566325540948126
      ],
      [
        "Ġsaid",
        -7.569726731682016
      ],
      [
        "Ġonly",
        -7.569852997496362
      ],
      [
        "Ġnew",
        -7.574075463014285
      ],
      [
        "Ġwhat",
        -7.586018985621541
      ],
      [
        "ĊĠĠĠĠĠĠĠĠĠĠĠĠĠĠĠ",
        -7.602194222800371
      ],
      [
        "Ġits",
        -7.607756823536818
      ],
      [
        "Ġsome",
        -7.612469674928537
      ],
      [
        "Ġmay",
        -7.619452390068277
      ],
      [
        "Ġover",
        -7.62471349673373
      ],
      [
        "----------------",
        -7.636498338562728
      ],
      [
        "K",
        -7.638559980257067
      ],
      [
        "ĠIt",
        -7.657019580104938
      ],
      [
        "Ġsuch",
        -7.6616805262242575
      ],
      [
        "Ġfirst",
        -7.665692381120975
      ],
      [
        "X",
        -7.667143891481478
      ],
      [
        "ref",
        -7.669854781763645
      ],
      [
        "Ġthese",
        -7.68464643378835
      ],
      [
        "ĠThis",
        -7.691597489061253
      ],
      [
        "@",
        -7.69241939970447
      ],
      [
        "ĊĠĠĠĠĠ",
        -7.6974360749817805
      ],
      [
        "Ġget",
        -7.706397588844819
      ],
      [
        "Ġme",
        -7.708074861669806
      ],
      [
        "J",
        -7.712538525570416
      ],
      [
        "10",
        -7.714822279643037
      ],
      [
        "Ġuse",
        -7.728681468075674
      ],
      [
        "Ġwhere",
        -7.732732076200429
      ],
      [
        "on",
        -7.739091109568577
      ],
      [
        "V",
        -7.741188845220069
      ],
      [
        "Ġun",
        -7.744225806816505
      ],
      [
        "Ġafter",
        -7.751431139800932
      ],
      [
        "Ġjust",
        -7.759543164487587
      ],
      [
        "q",
        -7.760241846347277
      ],
      [
        "to",
        -7.764985428739152
      ],
      [
        "Ġbetween",
        -7.772130611786968
      ],
      [
        "al",
        -7.789663210713279
      ],
      [
        "!",
        -7.795360389078443
      ],
      [
        "Ġcould",
        -7.804066434054715
      ],
      [
        "In",
        -7.812831743270456
      ],
      [
        "Ġused",
        -7.8292481588519856
      ],
      [
        "~",
        -7.851820323951685
      ],
      [
        "W",
        -7.854484762509733
      ],
      [
        "ĠWe",
        -7.8564911838552
      ],
      [
        "Ġpeople",
        -7.862930526560403
      ],
      [
        "Ġshe",
        -7.880143672340907
      ],
      [
        "Ġdata",
        -7.890731466619657
      ],
      [
        "Ġthem",
        -7.900101542909745
      ],
      [
        "able",
        -7.910113686874803
      ],
      [
        "}\\",
        -7.911912961834748
      ],
      [
        "Ġusing",
        -7.916110997392424
      ],
      [
        "Ġbecause",
        -7.918941420905798
      ],
      [
        "Ġunder",
        -7.920572630167605
      ],
      [
        "Ġshould",
        -7.923360397754624
      ],
      [
        "us",
        -7.934702795217078
      ],
      [
        "O",
        -7.950625852206654
      ],
      [
        "is",
        -7.951246521771841
      ],
      [
        "->",
        -7.969787543712544
      ],
      [
        "Ġwell",
        -7.982349587927043
      ],
      [
        "Q",
        -7.985051591314109
      ],
      [
        "Ġmost",
        -7.996708108559892
      ],
      [
        "Ġhow",
        -8.001977499371545
      ],
      [
        "){",
        -8.018526860258278
      ],
      [
        "Ġcase",
        -8.018762516114371
      ],
      [
        "Ġeach",
        -8.023367344836409
      ],
      [
        "Ġwork",
        -8.02677336909494
      ],
      [
        "right",
        -8.03171282057407
      ],
      [
        "Ġhim",
        -8.034109420213744
      ],
      [
        "Ġknow",
        -8.04026533121385
      ],
      [
        "Ġway",
        -8.040804807240365
      ],
      [
        "Ġmake",
        -8.049432857043271
      ],
      [
        "ĠHe",
        -8.053814426666525
      ],
      [
        "th",
        -8.061651502116307
      ],
      [
        "Ċĉ",
        -8.064904969999423
      ],
      [
        "12",
        -8.082233308554985
      ],
      [
        "com",
        -8.089761342582998
      ],
      [
        "Ġsee",
        -8.090129250127859
      ],
      [
        "left",
        -8.094149062839788
      ],
      [
        "frac",
        -8.10205176462147
      ],
      [
        "Ġeven",
        -8.10329169311268
      ],
      [
        "Ġthrough",
        -8.103375453066331
      ],
      [
        "Ġclass",
        -8.104003824928077
      ],
      [
        "âĢĿ",
        -8.111117704931566
      ],
      [
        "Ġsame",
        -8.11417703174158
      ],
      [
        "}$",
        -8.118161292491125
      ],
      [
        "and",
        -8.133063033846973
      ],
      [
        "Ġthose",
        -8.143049050102032
      ],
      [
        "](#",
        -8.143801099824438
      ],
      [
        "Ġnow",
        -8.147421462801812
      ],
      [
        "Ġboth",
        -8.14819500834615
      ],
      [
        "()",
        -8.148652530137335
      ],
      [
        "Ġneed",
        -8.150250689078991
      ],
      [
        "Ġvery",
        -8.150318110338816
      ],
      [
        "Ġ10",
        -8.157871983722925
      ],
      [
        "Ġdid",
        -8.158979135286181
      ],
      [
        "Y",
        -8.164864112537472
      ],
      [
        "Ġyears",
        -8.167466920687971
      ],
      [
        "end",
        -8.171281836716247
      ],
      [
        "\">",
        -8.17381193423548
      ],
      [
        "Ġdifferent",
        -8.175844461279123
      ],
      [
        "the",
        -8.177672492525947
      ],
      [
        "Ġde",
        -8.178021182177797
      ],
      [
        "11",
        -8.180047848080202
      ],
      [
        "Ġbeing",
        -8.182449407029676
      ],
      [
        "Ġnumber",
        -8.189385661390178
      ],
      [
        "Ġmany",
        -8.18992486065312
      ],
      [
        "Ġreturn",
        -8.192364105261912
      ],
      [
        "Ġbefore",
        -8.196377692124795
      ],
      [
        "?\"",
        -8.200093591833937
      ],
      [
        "Ġback",
        -8.20043920650088
      ],
      [
        "...",
        -8.205497283775362
      ],
      [
        "\\[[@",
        -8.206225036591393
      ],
      [
        "âĢī",
        -8.211365767854346
      ],
      [
        "ve",
        -8.216439362087403
      ],
      [
        "Ġdon",
        -8.232391559987214
      ],
      [
        "--",
        -8.23614761193667
      ],
      [
        "Ġhere",
        -8.240240523586346
      ],
      [
        "We",
        -8.241718692982314
      ],
      [
        "name",
        -8.242611292281364
      ],
      [
        "What",
        -8.246045799369535
      ],
      [
        "],",
        -8.24994397878487
      ],
      [
        "::",
        -8.251004848335471
      ],
      [
        "Ġset",
        -8.254598221621329
      ],
      [
        "Ġtake",
        -8.261004439829184
      ],
      [
        "if",
        -8.263941590247033
      ],
      [
        "fig",
        -8.26652219770241
      ],
      [
        "Ġsystem",
        -8.272814144481886
      ],
      [
        "Ġfound",
        -8.277513319806005
      ],
      [
        "Ġmade",
        -8.278149162631834
      ],
      [
        "Ġcourt",
        -8.281831090555563
      ],
      [
        "Ġhigh",
        -8.28925608951948
      ],
      [
        "Ġstudy",
        -8.291515998183499
      ],
      [
        "Ġvalue",
        -8.293111181891161
      ],
      [
        "Ġwant",
        -8.29361719857151
      ],
      [
        "mathb",
        -8.293647457070652
      ],
      [
        "Ġwhile",
        -8.294779173620952
      ],
      [
        "://",
        -8.295040333350808
      ],
      [
        "Ġgood",
        -8.30399955314103
      ],
      [
        "an",
        -8.305186599422468
      ],
      [
        "Z",
        -8.313074481539985
      ],
      [
        "Ġfunction",
        -8.3166270298837
      ],
      [
        "text",
        -8.317302569699603
      ],
      [
        "Ġmuch",
        -8.323814545978195
      ],
      [
        "Ġstate",
        -8.335534924476637
      ],
      [
        "Ġthree",
        -8.342500657191128
      ],
      [
        "_{\\",
        -8.345450605282945
      ],
      [
        "Ġthink",
        -8.346195529101664
      ],
      [
        "ĊĊĠĠĠ",
        -8.346220901013034
      ],
      [
        "Ġright",
        -8.348042116380318
      ],
      [
        "ers",
        -8.355170437288221
      ],
      [
        "Ġpatients",
        -8.359501754892962
      ],
      [
        "Ġorder",
        -8.359666751722251
      ],
      [
        ".âĢĿ",
        -8.362066285167996
      ],
      [
        "Ġnon",
        -8.362838323170745
      ],
      [
        "Ġpublic",
        -8.363808191860231
      ],
      [
        "Ġdoes",
        -8.365192272541572
      ],
      [
        "Ġduring",
        -8.36635454186493
      ],
      [
        "Ġwithout",
        -8.368582650284372
      ],
      [
        "ll",
        -8.375482224226403
      ],
      [
        "Ġpart",
        -8.377323603276848
      ],
      [
        "Â",
        -8.38636789765974
      ],
      [
        "ĠâĢĵ",
        -8.38637574986022
      ],
      [
        "It",
        -8.386766467253134
      ],
      [
        "//",
        -8.391969042532125
      ],
      [
        "Ġcells",
        -8.392326167046587
      ],
      [
        "00",
        -8.392634068406771
      ],
      [
        "Let",
        -8.392812556117807
      ],
      [
        "`",
        -8.406677721946108
      ],
      [
        "ĠFor",
        -8.417240669696241
      ],
      [
        "(\\",
        -8.41830339309237
      ],
      [
        "Ġdown",
        -8.421476321556158
      ],
      [
        "16",
        -8.422173796915093
      ],
      [
        "ity",
        -8.425025871558391
      ],
      [
        "\":",
        -8.425040440650724
      ],
      [
        "This",
        -8.430051612709761
      ],
      [
        "ĠIf",
        -8.43077391607614
      ],
      [
        "Ġhelp",
        -8.431508587103417
      ],
      [
        "15",
        -8.434364196671186
      ],
      [
        "Ġyear",
        -8.439246292221148
      ],
      [
        "get",
        -8.443644968939628
      ],
      [
        "Ġgroup",
        -8.443688986653369
      ],
      [
        "âĢľ",
        -8.447356918194263
      ],
      [
        "Ġname",
        -8.45012689051636
      ],
      [
        "int",
        -8.451211366376995
      ],
      [
        "Ġagainst",
        -8.456529248911574
      ],
      [
        "Ġgo",
        -8.458857610693169
      ],
      [
        "Ġlong",
        -8.459282374503005
      ],
      [
        "}{",
        -8.462252263085176
      ],
      [
        "ion",
        -8.46687852298892
      ],
      [
        "Ġlast",
        -8.467935063783823
      ],
      [
        "Ġus",
        -8.473854136582727
      ],
      [
        "Ġmust",
        -8.476186406583787
      ],
      [
        "Ġ//",
        -8.480176869217786
      ],
      [
        "set",
        -8.481251708557457
      ],
      [
        "Ġstill",
        -8.48448024916737
      ],
      [
        "20",
        -8.494062818102094
      ],
      [
        "Ġend",
        -8.497564018011472
      ],
      [
        "âĢĵ",
        -8.50154546733022
      ],
      [
        "32",
        -8.505589122925082
      ],
      [
        "ĠLet",
        -8.506741423355132
      ],
      [
        "Ġinformation",
        -8.510797682283448
      ],
      [
        "Ġfind",
        -8.511604920010345
      ],
      [
        "13",
        -8.513260776970531
      ],
      [
        "ies",
        -8.513524766798788
      ],
      [
        "Ġsecond",
        -8.517848198817632
      ],
      [
        "{#",
        -8.521886818961912
      ],
      [
        "000",
        -8.523825358081675
      ],
      [
        "ĠĠĠĠĠĠ",
        -8.529283095401201
      ],
      [
        "Ġday",
        -8.530585354593928
      ],
      [
        "age",
        -8.53065182635912
      ],
      [
        "^{",
        -8.532916598566562
      ],
      [
        "Ċĉĉ",
        -8.53536571747419
      ],
      [
        "man",
        -8.541117081083534
      ],
      [
        "alpha",
        -8.548357621463373
      ],
      [
        "Ġresult",
        -8.553412168888395
      ],
      [
        "You",
        -8.557698895862945
      ],
      [
        "ĠAs",
        -8.558830791176645
      ],
      [
        "(\"",
        -8.561608889552046
      ],
      [
        "athcal",
        -8.562187523918807
      ],
      [
        "However",
        -8.562240930220023
      ],
      [
        "14",
        -8.562382349860822
      ],
      [
        "Ġtest",
        -8.569554292626114
      ],
      [
        "Ġfollowing",
        -8.572043180983329
      ],
      [
        "Ġresults",
        -8.576966537026793
      ],
      [
        "ĠBut",
        -8.583977414719826
      ],
      [
        "();",
        -8.584266921304497
      ],
      [
        "Ġpoint",
        -8.586050763581689
      ],
      [
        "Ġlife",
        -8.591230383002001
      ],
      [
        "up",
        -8.59422061806976
      ],
      [
        "Ġmodel",
        -8.596788351715798
      ],
      [
        "Ġpresent",
        -8.601750753128629
      ],
      [
        "Ġgoing",
        -8.602889584465359
      ],
      [
        "CR",
        -8.60724856715482
      ],
      [
        "Ġ*/",
        -8.614735264144366
      ],
      [
        "var",
        -8.615803187547503
      ],
      [
        "Ġsince",
        -8.616918914303515
      ],
      [
        ")$",
        -8.619154971124349
      ],
      [
        "Ġown",
        -8.625390248925822
      ],
      [
        "Ġaround",
        -8.62644538813178
      ],
      [
        "Ġwithin",
        -8.627219980059179
      ],
      [
        "Ġlook",
        -8.63067022882663
      ],
      [
        "č",
        -8.63730620937059
      ],
      [
        "Ġcontrol",
        -8.637884134396314
      ],
      [
        "Ġsupport",
        -8.638134230441697
      ],
      [
        "âĢĶ",
        -8.63875249634823
      ],
      [
        "le",
        -8.642001649016349
      ],
      [
        "Ġshow",
        -8.643287514156642
      ],
      [
        "it",
        -8.643766452471434
      ],
      [
        "Ġanother",
        -8.652191600702968
      ],
      [
        "http",
        -8.654182763860842
      ],
      [
        "Ġexample",
        -8.672387567000564
      ],
      [
        "18",
        -8.673381483215982
      ],
      [
        "\\]",
        -8.674029057887248
      ],
      [
        "Ġline",
        -8.683561096063928
      ],
      [
        "Ġsay",
        -8.685180529200307
      ],
      [
        "label",
        -8.68888887725321
      ],
      [
        "Ġfact",
        -8.691075424053142
      ],
      [
        "mu",
        -8.69516380184204
      ],
      [
        ",âĢĿ",
        -8.695658639378562
      ],
      [
        "]\\].",
        -8.695848688124531
      ],
      [
        "Ġworld",
        -8.69863062811631
      ],
      [
        "ĠAnd",
        -8.698734366470477
      ],
      [
        "Ġincluding",
        -8.698979459181087
      ],
      [
        "begin",
        -8.700761612481775
      ],
      [
        "Ġevery",
        -8.70228973046578
      ],
      [
        "Ġgiven",
        -8.706999835520014
      ],
      [
        "ÃĲ",
        -8.70759318021792
      ],
      [
        "17",
        -8.708292703185387
      ],
      [
        "Ġcell",
        -8.708657198403966
      ],
      [
        "Ġmight",
        -8.708909750759508
      ],
      [
        "Ġcome",
        -8.710760799142433
      ],
      [
        "Ġoff",
        -8.711705184562225
      ],
      [
        "Ġreally",
        -8.717171538108097
      ],
      [
        "Ġhome",
        -8.722674502009328
      ],
      [
        "].",
        -8.72499175363309
      ],
      [
        "data",
        -8.726826535701532
      ],
      [
        "of",
        -8.726940314699512
      ],
      [
        "Ġprocess",
        -8.732339308199343
      ],
      [
        "Ġlarge",
        -8.73357966601794
      ],
      [
        "ĠNo",
        -8.739663716394462
      ],
      [
        "Ġlaw",
        -8.74450179445311
      ],
      [
        "Ġper",
        -8.745156165398354
      ],
      [
        "Ġself",
        -8.751384177809122
      ],
      [
        "ĠYou",
        -8.754576548258802
      ],
      [
        "Ġ$$\\",
        -8.76036937015129
      ],
      [
        "To",
        -8.76202063590964
      ],
      [
        "Ġfew",
        -8.763063212859393
      ],
      [
        "Ġcause",
        -8.76403171436576
      ],
      [
        "Ġevidence",
        -8.768345221608971
      ],
      [
        "19",
        -8.76860810595088
      ],
      [
        "Ġmethod",
        -8.773738676748577
      ],
      [
        "Ġgive",
        -8.779679192235841
      ],
      [
        "01",
        -8.78192994597739
      ],
      [
        "Ġchange",
        -8.782861048607163
      ],
      [
        "Ġanalysis",
        -8.783054634327547
      ],
      [
        "Ġbest",
        -8.785271312015245
      ],
      [
        "Ġfile",
        -8.789001726737208
      ],
      [
        "Ġpre",
        -8.792784124552275
      ],
      [
        "Ġimportant",
        -8.79349139985118
      ],
      [
        "ĠThey",
        -8.796650248405502
      ],
      [
        "Ġsomething",
        -8.798656774410391
      ],
      [
        "import",
        -8.798794351450992
      ],
      [
        "Ġnext",
        -8.802080049607001
      ],
      [
        "Ġplace",
        -8.802741570230253
      ],
      [
        "Ġwhether",
        -8.805615779718858
      ],
      [
        "Ġpower",
        -8.815927833003867
      ],
      [
        "Ġcommon",
        -8.816149928366215
      ],
      [
        "Ġsmall",
        -8.818015823538694
      ],
      [
        "div",
        -8.818270989010953
      ],
      [
        "Ġbased",
        -8.820341049674717
      ],
      [
        "25",
        -8.822372343612779
      ],
      [
        "Ġgreat",
        -8.82627101772425
      ],
      [
        "Ġform",
        -8.826982783323862
      ],
      [
        "Ġtype",
        -8.828435157743773
      ],
      [
        "table",
        -8.832322602488766
      ],
      [
        "ĠNew",
        -8.832756104565032
      ],
      [
        "30",
        -8.836930941628815
      ],
      [
        "Ġbetter",
        -8.849101634280304
      ],
      [
        "\\[",
        -8.850504871505832
      ],
      [
        "Ġ12",
        -8.854264731330012
      ],
      [
        "Ġabove",
        -8.8544856481098
      ],
      [
        "Ġwater",
        -8.856789696547258
      ],
      [
        "Ġhuman",
        -8.856871762707131
      ],
      [
        "math",
        -8.85956341059938
      ],
      [
        "Ġnever",
        -8.86536963580397
      ],
      [
        "Ġ20",
        -8.870017592350454
      ],
      [
        "Ġtreatment",
        -8.870934082142597
      ],
      [
        "Ġlevel",
        -8.870983656550433
      ],
      [
        "Ġal",
        -8.877566245906884
      ],
      [
        "If",
        -8.877969213526768
      ],
      [
        "Ġproblem",
        -8.879185100076075
      ],
      [
        "sum",
        -8.880489222504474
      ],
      [
        "Ġ\\[",
        -8.881421164876066
      ],
      [
        "Ġleast",
        -8.8844137080089
      ],
      [
        "Ġlittle",
        -8.887932890271598
      ],
      [
        "Ġpossible",
        -8.888019269910323
      ],
      [
        "Ġdue",
        -8.890352528181426
      ],
      [
        "ĠĠĠĠĠĠĠ",
        -8.898391101945688
      ],
      [
        "Ġexpression",
        -8.9032632304496
      ],
      [
        "Ġresponse",
        -8.903365224958804
      ],
      [
        "Ġtrue",
        -8.907477940349608
      ],
      [
        "ĊĠĠĠĠĠĠĠĠĠ",
        -8.910359895616644
      ],
      [
        "}}",
        -8.91099477117019
      ],
      [
        "Ġthings",
        -8.91228407872829
      ],
      [
        "ĠThere",
        -8.912668439524897
      ],
      [
        "Ġeffect",
        -8.916929718355131
      ],
      [
        "this",
        -8.91700866317343
      ],
      [
        "out",
        -8.918219239760985
      ],
      [
        "Ġlow",
        -8.920743548887808
      ],
      [
        "!\"",
        -8.921745059838662
      ],
      [
        "over",
        -8.921762658240075
      ],
      [
        "Â±",
        -8.923522179329968
      ],
      [
        "Ġgame",
        -8.925494481624826
      ],
      [
        "span",
        -8.92552959774215
      ],
      [
        "For",
        -8.928607777928399
      ],
      [
        "}(",
        -8.934678687795127
      ],
      [
        "ĠĠĠĠĠĠĠĠĠĠĠĠĠĠĠ",
        -8.936531318888862
      ],
      [
        "Ġsize",
        -8.938134753869743
      ],
      [
        "Ġhaving",
        -8.93880607371025
      ],
      [
        "Ġtrial",
        -8.940308719966428
      ],
      [
        "Ġfurther",
        -8.943106583979334
      ],
      [
        "Ġshown",
        -8.943197707649677
      ],
      [
        "==",
        -8.9473429448039
      ],
      [
        "Ġpost",
        -8.947853035249167
      ],
      [
        "Ġprovide",
        -8.949563712139623
      ],
      [
        "ĠâĢĶ",
        -8.950034662999238
      ],
      [
        "Ġhealth",
        -8.95069994345649
      ],
      [
        "))",
        -8.952251179263358
      ],
      [
        "Ġmean",
        -8.954372993862352
      ],
      [
        "Ġgot",
        -8.957010282044632
      ],
      [
        "Fig",
        -8.958774216651667
      ],
      [
        "aligned",
        -8.959172273081977
      ],
      [
        "Ġcurrent",
        -8.960931552633003
      ],
      [
        "ĠTo",
        -8.961798317841746
      ],
      [
        "ĠSo",
        -8.961825902488794
      ],
      [
        "Ġless",
        -8.963723710379892
      ],
      [
        "ĠĠĠĠĠĠĠĠ",
        -8.964658525629817
      ],
      [
        "Ġlet",
        -8.966643544681995
      ],
      [
        "Ġgovernment",
        -8.967267663854544
      ],
      [
        "time",
        -8.967688460476769
      ],
      [
        "for",
        -8.972481649967213
      ],
      [
        "Type",
        -8.9725277190933
      ],
      [
        "Ġfree",
        -8.973453863982863
      ],
      [
        "org",
        -8.975078978805131
      ],
      [
        "Ġsingle",
        -8.97824531291693
      ],
      [
        "Ġlot",
        -8.978751591813696
      ],
      [
        "Ġhand",
        -8.97881983315923
      ],
      [
        "Ġfour",
        -8.980078560874546
      ],
      [
        "Ġdays",
        -8.98063951840386
      ],
      [
        "ation",
        -8.980843143443355
      ],
      [
        "Ġalways",
        -8.98321571684058
      ],
      [
        "Ġelse",
        -8.984665249778871
      ],
      [
        "Ġfield",
        -8.985016002677195
      ],
      [
        "Category",
        -8.985252848748328
      ],
      [
        "Ġagain",
        -8.986959609136626
      ],
      [
        "string",
        -8.989153406964869
      ],
      [
        "And",
        -8.990498827543764
      ],
      [
        "Ġsimilar",
        -8.995477973386306
      ],
      [
        "\"}",
        -8.99617929985056
      ],
      [
        "Name",
        -8.9967833809534
      ],
      [
        "Ġmain",
        -8.999206123495085
      ],
      [
        "Ġquestion",
        -9.001673219632927
      ],
      [
        "80",
        -9.002808420315986
      ],
      [
        "Ġuntil",
        -9.00536441841991
      ],
      [
        "Ġteam",
        -9.005877658980967
      ],
      [
        "24",
        -9.005917747897003
      ],
      [
        ")\\",
        -9.006461783549309
      ],
      [
        "ĠCourt",
        -9.00926414756897
      ],
      [
        "Ġavailable",
        -9.009500196640191
      ],
      [
        "Ġ15",
        -9.010058143862612
      ],
      [
        "Ġreal",
        -9.0128894634461
      ],
      [
        "Ġlight",
        -9.013503128732308
      ],
      [
        "Ġcare",
        -9.013833007246593
      ],
      [
        "Ġput",
        -9.014067354487272
      ],
      [
        "ĠShe",
        -9.014076105900624
      ],
      [
        "Ġknown",
        -9.015620824259033
      ],
      [
        "ĠUnited",
        -9.017014635772156
      ],
      [
        "Ġcalled",
        -9.01827009154468
      ],
      [
        "Ġfamily",
        -9.02027902929053
      ],
      [
        "lambda",
        -9.02071290779604
      ],
      [
        "Ġeither",
        -9.02117230613189
      ],
      [
        "Ġlocal",
        -9.021552468112068
      ],
      [
        "21",
        -9.02313981125159
      ],
      [
        "Ġcode",
        -9.023486648190168
      ],
      [
        "}$$",
        -9.024455077761468
      ],
      [
        "64",
        -9.024877254784863
      ],
      [
        "ĠState",
        -9.025990957951016
      ],
      [
        "ĠThese",
        -9.02936140096735
      ],
      [
        "---",
        -9.030790789071858
      ],
      [
        "beta",
        -9.032822311291005
      ],
      [
        "Ġaction",
        -9.034129135425433
      ],
      [
        "Ġseveral",
        -9.038971364500147
      ],
      [
        "pone",
        -9.04128619546768
      ],
      [
        "class",
        -9.041430297803558
      ],
      [
        "Figure",
        -9.041882117602244
      ],
      [
        "ive",
        -9.042898848137993
      ],
      [
        "He",
        -9.043386255617047
      ],
      [
        "05",
        -9.044190102656666
      ],
      [
        "Ġmeans",
        -9.04633561871406
      ],
      [
        "Ġchildren",
        -9.046687870233978
      ],
      [
        "Ġspace",
        -9.047881313881616
      ],
      [
        "Ġbelieve",
        -9.049394170965387
      ],
      [
        "Ġtotal",
        -9.052408165952512
      ],
      [
        "ant",
        -9.052830005239215
      ],
      [
        "Ġhigher",
        -9.05327904432643
      ],
      [
        "return",
        -9.053412721636793
      ],
      [
        "Ġopen",
        -9.055181256301776
      ],
      [
        "Ġsignificant",
        -9.056973453592
      ],
      [
        "by",
        -9.058936948247013
      ],
      [
        "Ġrate",
        -9.059251943885284
      ],
      [
        "Ġstudies",
        -9.06206099910807
      ],
      [
        "less",
        -9.064822917514116
      ],
      [
        "ĠĠĠĠĠĠĠĠĠĠĠĠĠĠ",
        -9.067305521464595
      ],
      [
        "Ġ11",
        -9.068393600198783
      ],
      [
        "Ġincrease",
        -9.072426590757049
      ],
      [
        "Ġside",
        -9.076334147672492
      ],
      [
        "Ġwhy",
        -9.07715255864988
      ],
      [
        "epackage",
        -9.079427797302948
      ],
      [
        "www",
        -9.0798912476931
      ],
      [
        "Ġinterest",
        -9.08080139449958
      ],
      [
        "Ġrun",
        -9.082721073066647
      ],
      [
        "ness",
        -9.08396979765589
      ],
      [
        "Ġrisk",
        -9.084654697712496
      ],
      [
        "Ġstart",
        -9.0859535698152
      ],
      [
        "bar",
        -9.087948559866897
      ],
      [
        "50",
        -9.08821896519098
      ],
      [
        "Ġrole",
        -9.090411757903048
      ],
      [
        "Ġissue",
        -9.090516653759927
      ],
      [
        "];",
        -9.092256299306442
      ],
      [
        "Ġvalues",
        -9.092858923077266
      ],
      [
        "Ġ30",
        -9.093298786576442
      ],
      [
        "Ġenergy",
        -9.09411401627986
      ],
      [
        "ĠWhat",
        -9.094850950721536
      ],
      [
        "Ġfull",
        -9.095769341528149
      ],
      [
        "among",
        -9.09745960858412
      ],
      [
        "Ġco",
        -9.09850583309379
      ],
      [
        "ĠĠĠĠĠĠĠĠĠĠĠ",
        -9.100202687541447
      ],
      [
        "Ġerror",
        -9.100554478498768
      ],
      [
        "But",
        -9.100934473851828
      ],
      [
        "Ġperson",
        -9.101796212693044
      ],
      [
        "Ġleft",
        -9.102417955796696
      ],
      [
        "Ġsure",
        -9.102484399627912
      ],
      [
        "Ġfinal",
        -9.103498773621986
      ],
      [
        "log",
        -9.103952086815898
      ],
      [
        "line",
        -9.104221865620852
      ],
      [
        "Ġcases",
        -9.10531400258954
      ],
      [
        "Ġalready",
        -9.106308447788926
      ],
      [
        "=>",
        -9.10631597188332
      ],
      [
        "Ġcourse",
        -9.10882194770843
      ],
      [
        "Ġgeneral",
        -9.110994575635756
      ],
      [
        "ĠĠĠĠĠĠĠĠĠ",
        -9.11318610739027
      ],
      [
        "Ġbody",
        -9.113998995916718
      ],
      [
        "Table",
        -9.11404659363904
      ],
      [
        "Ġshort",
        -9.115530703191205
      ],
      [
        "22",
        -9.117500312986545
      ],
      [
        "sqrt",
        -9.12020697205336
      ],
      [
        "Ġfar",
        -9.121248141309117
      ],
      [
        "ĠStates",
        -9.12138944328399
      ],
      [
        "sec",
        -9.12162053500792
      ],
      [
        "Ġreported",
        -9.12184650307188
      ],
      [
        "No",
        -9.124453901386394
      ],
      [
        "Ġassociated",
        -9.12932880030267
      ],
      [
        "uppose",
        -9.13059323580284
      ],
      [
        "ability",
        -9.132725216718372
      ],
      [
        "Ġkeep",
        -9.134369866768438
      ],
      [
        "ĠThat",
        -9.135191006514248
      ],
      [
        "]\\]",
        -9.13617161932943
      ],
      [
        "><",
        -9.138540133543172
      ],
      [
        "Ġwomen",
        -9.140903654563704
      ],
      [
        "mathr",
        -9.141412530835174
      ],
      [
        "eq",
        -9.143039069474291
      ],
      [
        "Ġlove",
        -9.143056298783248
      ],
      [
        "Ġlevels",
        -9.143906850212169
      ],
      [
        "Ġamount",
        -9.14555238155064
      ],
      [
        "didn",
        -9.146826749605156
      ],
      [
        "ĠĠĠĠĠĠĠĠĠĠ",
        -9.147983933432206
      ],
      [
        "Ġrequired",
        -9.150706677256926
      ],
      [
        "html",
        -9.150747496228329
      ],
      [
        "Ġ${\\",
        -9.153186669219362
      ],
      [
        "Ġanti",
        -9.155245630538674
      ],
      [
        "Ġcall",
        -9.15631970388186
      ],
      [
        "Ġplay",
        -9.156705597423397
      ],
      [
        "Ġaway",
        -9.15702718395222
      ],
      [
        "Ġcertain",
        -9.158189023717563
      ],
      [
        "Ġsub",
        -9.158215881152849
      ],
      [
        "Ġoften",
        -9.15907561495634
      ],
      [
        "ĠĠĠĠĠĠĠĠĠĠĠĠ",
        -9.159525367887978
      ],
      [
        "however",
        -9.159873086066147
      ],
      [
        "}_{",
        -9.161874311862158
      ],
      [
        "Ġthing",
        -9.16255011671392
      ],
      [
        "Ġdone",
        -9.163015813079886
      ],
      [
        "Ġpotential",
        -9.163566165208016
      ],
      [
        "ĠAll",
        -9.163831927433554
      ],
      [
        "Ġmatter",
        -9.164817469865548
      ],
      [
        "23",
        -9.166676376980847
      ],
      [
        "phi",
        -9.171058336460268
      ],
      [
        "ment",
        -9.172291080945506
      ],
      [
        "Ġalong",
        -9.172730036275103
      ],
      [
        "value",
        -9.17527476058357
      ],
      [
        "Ġdevelopment",
        -9.175751622923444
      ],
      [
        "Ġdecision",
        -9.176428823261263
      ],
      [
        "Ġactivity",
        -9.177176814799154
      ],
      [
        "sigma",
        -9.17824234254849
      ],
      [
        "Ġreason",
        -9.178388986276785
      ],
      [
        "Ġsays",
        -9.178957223588847
      ],
      [
        "Ġposition",
        -9.18000181936652
      ],
      [
        "Ġlower",
        -9.180151235889866
      ],
      [
        "Ċĉĉĉ",
        -9.181030977055109
      ],
      [
        "Ġterms",
        -9.183560208417802
      ],
      [
        "Ġman",
        -9.184037737763232
      ],
      [
        "Ġsurface",
        -9.18557902606443
      ],
      [
        "Ġspecific",
        -9.1859074264162
      ],
      [
        "code",
        -9.186736148268892
      ],
      [
        "ID",
        -9.187556415785629
      ],
      [
        "Ġlater",
        -9.18798702464808
      ],
      [
        "est",
        -9.188380491565256
      ],
      [
        "33",
        -9.188833625842282
      ],
      [
        "hat",
        -9.19133591545207
      ],
      [
        "Ġenough",
        -9.192604276192869
      ],
      [
        "Ġtold",
        -9.19561866605609
      ],
      [
        "ĠWhen",
        -9.19792202809192
      ],
      [
        "partial",
        -9.198979304769294
      ],
      [
        "Ġclose",
        -9.199258146413902
      ],
      [
        "compared",
        -9.199273758104807
      ],
      [
        "Ġfeel",
        -9.199972057977364
      ],
      [
        "upon",
        -9.19997621063888
      ],
      [
        "Ġperiod",
        -9.200284949254764
      ],
      [
        "Ġhard",
        -9.200408994180172
      ],
      [
        "Ġthough",
        -9.200471374803808
      ],
      [
        "according",
        -9.2016192109471
      ],
      [
        "There",
        -9.203832198642235
      ],
      [
        "Ġhead",
        -9.204104482222336
      ],
      [
        "ĊĊĠĠĠĠĠĠĠ",
        -9.20449628770751
      ],
      [
        "45",
        -9.2047385007631
      ],
      [
        "Ġlist",
        -9.208899647114928
      ],
      [
        "Ġresearch",
        -9.21048138702105
      ],
      [
        "Ġmillion",
        -9.21092594138411
      ],
      [
        "100",
        -9.214477059552822
      ],
      [
        "ĠĠĠĠĠĠĠĠĠĠĠĠĠ",
        -9.21457112851862
      ],
      [
        "):",
        -9.218102156839862
      ],
      [
        "epsilon",
        -9.21917719896123
      ],
      [
        "Ġprovided",
        -9.219899163383507
      ],
      [
        "('",
        -9.220483919891269
      ],
      [
        "Ġrange",
        -9.221803445338583
      ],
      [
        "Ġweek",
        -9.22519934953242
      ],
      [
        "Ġsuggest",
        -9.226114518816267
      ],
      [
        "Ġgroups",
        -9.22683874112576
      ],
      [
        "Ġ100",
        -9.227680245821803
      ],
      [
        "Ġworking",
        -9.227715874364192
      ],
      [
        "}^{",
        -9.228083977358674
      ],
      [
        "Ġversion",
        -9.229788049597024
      ],
      [
        "Ġmaking",
        -9.231219782187909
      ],
      [
        "https",
        -9.232792583757274
      ],
      [
        "Ġkey",
        -9.235593818676715
      ],
      [
        "defendant",
        -9.237176017031212
      ],
      [
        "ar",
        -9.239762547331718
      ],
      [
        "Ġread",
        -9.239866175029777
      ],
      [
        "Ġpositive",
        -9.239962205376797
      ],
      [
        "Ġkind",
        -9.240673157491509
      ],
      [
        "Ġconditions",
        -9.241949371751074
      ],
      [
        "Ġaddition",
        -9.244108080162066
      ],
      [
        "Ġbecome",
        -9.24499662384194
      ],
      [
        "String",
        -9.24765025143934
      ],
      [
        "^{\\",
        -9.248082173730973
      ],
      [
        "âĢ¦",
        -9.24810753131277
      ],
      [
        "27",
        -9.24815758662644
      ],
      [
        "Ġ([",
        -9.249917473951053
      ],
      [
        "></",
        -9.25004658290734
      ],
      [
        "Ġprogram",
        -9.250808731178973
      ],
      [
        "}_",
        -9.252844708412916
      ],
      [
        "So",
        -9.254702059012622
      ],
      [
        "Ġclear",
        -9.255287249418748
      ],
      [
        "Ġschool",
        -9.257311776292504
      ],
      [
        "Ġseen",
        -9.25739217008266
      ],
      [
        "%)",
        -9.25807848175823
      ],
      [
        "Ġmoney",
        -9.258237215933272
      ],
      [
        "gamma",
        -9.258499571154127
      ],
      [
        "Ġbusiness",
        -9.258673918090414
      ],
      [
        "Ġseason",
        -9.258782959994296
      ],
      [
        "Ġdisease",
        -9.259191727919358
      ],
      [
        "Ġprotein",
        -9.259244036506551
      ],
      [
        "Ġcontent",
        -9.259978330969783
      ],
      [
        "test",
        -9.260007161008422
      ],
      [
        "Ġsection",
        -9.26013645913563
      ],
      [
        "Ġparticular",
        -9.261592373369352
      ],
      [
        "Ġservice",
        -9.263350406956029
      ],
      [
        "ally",
        -9.263514255551348
      ],
      [
        "Ġ14",
        -9.26526607341342
      ],
      [
        "bib",
        -9.265543389230428
      ],
      [
        "size",
        -9.266248969377576
      ],
      [
        "Ġtogether",
        -9.266486376856284
      ],
      [
        "]).",
        -9.266999872549825
      ],
      [
        "Ġincreased",
        -9.268882550664552
      ],
      [
        "key",
        -9.271354412511007
      ],
      [
        "Ġeffects",
        -9.272670560296604
      ],
      [
        "Ġimage",
        -9.273826188150444
      ],
      [
        "doesn",
        -9.275310918808056
      ],
      [
        "Ġ16",
        -9.27588933315776
      ],
      [
        "Ġobserved",
        -9.276545421082648
      ],
      [
        "Ġcannot",
        -9.277359453666175
      ],
      [
        "Ġthought",
        -9.280092850814563
      ],
      [
        "delta",
        -9.28024667598048
      ],
      [
        "Ġsource",
        -9.282254654885568
      ],
      [
        "ĠOn",
        -9.28468113702434
      ],
      [
        "Ġchanges",
        -9.284704380562893
      ],
      [
        "ĠâĢĺ",
        -9.28614041030886
      ],
      [
        "Ġcountry",
        -9.286235081728298
      ],
      [
        "Data",
        -9.286386365054245
      ],
      [
        "described",
        -9.286435295300803
      ],
      [
        "Ġmultiple",
        -9.288033959704284
      ],
      [
        "Ġtry",
        -9.288722741124412
      ],
      [
        "Ġapproach",
        -9.289383358376872
      ],
      [
        "ĠUniversity",
        -9.290736166888731
      ],
      [
        "40",
        -9.290954913474414
      ],
      [
        "Ġfactors",
        -9.291296592680666
      ],
      [
        "Ġstructure",
        -9.292779193525252
      ],
      [
        "([@",
        -9.292823678032647
      ],
      [
        "Ġthird",
        -9.292860655044104
      ],
      [
        "\"}).",
        -9.294199445868305
      ],
      [
        "Â°",
        -9.295178009115624
      ],
      [
        "Ġearly",
        -9.297968128078177
      ],
      [
        "likely",
        -9.298872914098483
      ],
      [
        "ĠSee",
        -9.299366789448248
      ],
      [
        "Ġturn",
        -9.299658271938007
      ],
      [
        "34",
        -9.300962932549716
      ],
      [
        "Ġconst",
        -9.302396640120682
      ],
      [
        "001",
        -9.303407257452228
      ],
      [
        "went",
        -9.305777798224035
      ],
      [
        "28",
        -9.30635083276676
      ],
      [
        "95",
        -9.30642034273419
      ],
      [
        "include",
        -9.307284224418364
      ],
      [
        "Ġ13",
        -9.307648641831198
      ],
      [
        "Ġtimes",
        -9.308692921219722
      ],
      [
        "Ġproperty",
        -9.308763398973998
      ],
      [
        "Ġmonths",
        -9.30879543074465
      ],
      [
        "Ġbase",
        -9.310668586498696
      ],
      [
        "Ġview",
        -9.311254346905256
      ],
      [
        "Ĥ",
        -9.311862998510051
      ],
      [
        "Ġprivate",
        -9.312572959254812
      ],
      [
        "across",
        -9.314391964218348
      ],
      [
        "\");",
        -9.315546464805651
      ],
      [
        "Ġinclude",
        -9.31571153616058
      ],
      [
        "Ġreport",
        -9.316236238888305
      ],
      [
        "rather",
        -9.316377051551877
      ],
      [
        "un",
        -9.31641793989508
      ],
      [
        "Ġarea",
        -9.316880181687903
      ],
      [
        "Ġ18",
        -9.31823501000494
      ],
      [
        "Ġvoid",
        -9.318440512461144
      ],
      [
        "Ġdoing",
        -9.318970196800406
      ],
      [
        "ian",
        -9.32036140463166
      ],
      [
        "Ġcreate",
        -9.322230565843666
      ],
      [
        "Ġactually",
        -9.322508547691868
      ],
      [
        "ĠAt",
        -9.322583876477289
      ],
      [
        "Ġold",
        -9.322976649258647
      ],
      [
        "Ġobject",
        -9.326684570963875
      ],
      [
        "Ġcompany",
        -9.326929526771416
      ],
      [
        "26",
        -9.328108182311542
      ],
      [
        "Ãĳ",
        -9.329170713602498
      ],
      [
        "rho",
        -9.334850710236992
      ],
      [
        "Ġcancer",
        -9.33903088593864
      ],
      [
        "Ġdeal",
        -9.339096442184411
      ],
      [
        "Ġpast",
        -9.342967739387454
      ],
      [
        "Ġtell",
        -9.344097450832129
      ],
      [
        "Ġexperience",
        -9.344109463853252
      ],
      [
        "Ġindividual",
        -9.344586548428754
      ],
      [
        "more",
        -9.345782576171151
      ],
      [
        "On",
        -9.346084586538552
      ],
      [
        "took",
        -9.348959523617852
      ],
      [
        "Ġonce",
        -9.354746159778134
      ],
      [
        "Ġclaim",
        -9.354811456404391
      ],
      [
        "Ġcame",
        -9.360715344064278
      ],
      [
        "Ġperformed",
        -9.36213331897102
      ],
      [
        "ĠCo",
        -9.362605217863472
      ],
      [
        "Ġaccess",
        -9.362620302529
      ],
      [
        "Ġconsider",
        -9.362949792867724
      ],
      [
        "times",
        -9.363066099361369
      ],
      [
        "Ġsocial",
        -9.364106579527007
      ],
      [
        "Ġfive",
        -9.365824417733515
      ],
      [
        "Ġbelow",
        -9.366009245468026
      ],
      [
        "Ġtop",
        -9.366506311821556
      ],
      [
        "ĠAmerican",
        -9.368303030196357
      ],
      [
        "Ġstandard",
        -9.368334313558057
      ],
      [
        "Ġdesign",
        -9.368606466388488
      ],
      [
        "file",
        -9.369598510441078
      ],
      [
        "Ġfood",
        -9.369616236035457
      ],
      [
        "38",
        -9.372010240517085
      ],
      [
        "Ġuser",
        -9.372595097034704
      ],
      [
        "Ġreview",
        -9.376219214336489
      ],
      [
        "Ġ24",
        -9.37688630955436
      ],
      [
        "Ġpaper",
        -9.377649477905964
      ],
      [
        "new",
        -9.377683515897822
      ],
      [
        "Ġfactor",
        -9.37779309606083
      ],
      [
        "year",
        -9.378037913410632
      ],
      [
        "Ġfuture",
        -9.378982381026402
      ],
      [
        "theta",
        -9.38001344153118
      ],
      [
        "Ġpoints",
        -9.380306548239998
      ],
      [
        "Ġsite",
        -9.381001850597077
      ],
      [
        "tilde",
        -9.385698127589478
      ],
      [
        "obtained",
        -9.385844681024322
      ],
      [
        "Ġwhole",
        -9.3878231931478
      ],
      [
        "Ġvarious",
        -9.388904995222813
      ],
      [
        "]{}",
        -9.38899789295866
      ],
      [
        "Ġapplication",
        -9.389018343753207
      ],
      [
        "based",
        -9.39149061678336
      ],
      [
        "}^",
        -9.392303645903894
      ],
      [
        "ĠGod",
        -9.395312530761672
      ],
      [
        "Ġblood",
        -9.396503670748496
      ],
      [
        "Ġfalse",
        -9.398418375553948
      ],
      [
        "min",
        -9.400385920554104
      ],
      [
        "Ġshows",
        -9.400573467645287
      ],
      [
        "While",
        -9.400618751651338
      ],
      [
        "Ġsignal",
        -9.401180400467789
      ],
      [
        "Ġidea",
        -9.401181870209353
      ],
      [
        "self",
        -9.401331932896644
      ],
      [
        "showed",
        -9.40283875838216
      ],
      [
        "When",
        -9.403795887978664
      ],
      [
        "29",
        -9.40417956085021
      ],
      [
        "Ġmove",
        -9.404614022226966
      ],
      [
        "ul",
        -9.404638222862774
      ],
      [
        "Ġadd",
        -9.405673942696854
      ],
      [
        "Ġconsidered",
        -9.406273104511577
      ],
      [
        "Ġ50",
        -9.409923596073032
      ],
      [
        "Ġ$(",
        -9.410241289781125
      ],
      [
        "Ġadded",
        -9.410507952263783
      ],
      [
        "Ġpay",
        -9.412289131720842
      ],
      [
        "ĠMr",
        -9.413498114975484
      ],
      [
        "Ġyet",
        -9.413526795217368
      ],
      [
        "Ġtaken",
        -9.415928015100071
      ],
      [
        "tau",
        -9.41610160658505
      ],
      [
        "35",
        -9.41706703231631
      ],
      [
        "Ġsolution",
        -9.41921011212048
      ],
      [
        "str",
        -9.420721626660075
      ],
      [
        "be",
        -9.422496521047824
      ],
      [
        "held",
        -9.423458188206087
      ],
      [
        "^{-",
        -9.425628088484244
      ],
      [
        "List",
        -9.428626836374628
      ],
      [
        "one",
        -9.429313465836698
      ],
      [
        "How",
        -9.429758059558042
      ],
      [
        "see",
        -9.430166397409254
      ],
      [
        "led",
        -9.430359047373054
      ],
      [
        "Ġlead",
        -9.430463244863256
      ],
      [
        "Ġ(*",
        -9.431969207892534
      ],
      [
        "omega",
        -9.433416058621653
      ],
      [
        "Ġadditional",
        -9.434253416194757
      ],
      [
        "Ġoriginal",
        -9.4343105629437
      ],
      [
        "Ġhouse",
        -9.43486621633615
      ],
      [
        "Ġproject",
        -9.436913765372331
      ],
      [
        "ance",
        -9.437301603966583
      ],
      [
        "Ġdefined",
        -9.438006593500743
      ],
      [
        "Ġsimple",
        -9.43895607605874
      ],
      [
        "Ġsystems",
        -9.43957638249137
      ],
      [
        "Ġterm",
        -9.439613883717866
      ],
      [
        "Ġcommunity",
        -9.441046884163532
      ],
      [
        "list",
        -9.442061990655082
      ],
      [
        "_\\",
        -9.44271566207846
      ],
      [
        "Ġmajor",
        -9.443534665942575
      ],
      [
        "39",
        -9.447349500497335
      ],
      [
        "Ġyoung",
        -9.447408652012344
      ],
      [
        "Ġchild",
        -9.447866731210857
      ],
      [
        "Ġever",
        -9.448008608260684
      ],
      [
        "Ġfollow",
        -9.448499676156002
      ],
      [
        "ell",
        -9.44898290849291
      ],
      [
        "Ġminutes",
        -9.450387355825344
      ],
      [
        "leq",
        -9.451059091133793
      ],
      [
        "Ġwon",
        -9.4516255709427
      ],
      [
        "Ġroom",
        -9.452572352753286
      ],
      [
        "Ġtemperature",
        -9.452629790613686
      ],
      [
        "ful",
        -9.454758179023994
      ],
      [
        "09",
        -9.456241390077258
      ],
      [
        "Ġperformance",
        -9.456897234261982
      ],
      [
        "02",
        -9.45857883935503
      ],
      [
        "Ġface",
        -9.460372055293206
      ],
      [
        "Ġbit",
        -9.46166083954497
      ],
      [
        "Ġbig",
        -9.462927970496322
      ],
      [
        "Ġdevice",
        -9.466252250175938
      ],
      [
        "Ġincluded",
        -9.466410198655264
      ],
      [
        "define",
        -9.46967217120867
      ],
      [
        "Ġregion",
        -9.470395524359796
      ],
      [
        "Ġmakes",
        -9.470425625271542
      ],
      [
        "Ġfilm",
        -9.472927381849374
      ],
      [
        "trying",
        -9.474157375912942
      ],
      [
        "ĠAn",
        -9.474185615721195
      ],
      [
        "Ġrespectively",
        -9.47474642008767
      ],
      [
        "Ġproduct",
        -9.475041372136776
      ],
      [
        "Ġcost",
        -9.476262421286547
      ],
      [
        "čĊĠĠĠ",
        -9.476387419331031
      ],
      [
        "75",
        -9.47644434252374
      ],
      [
        "03",
        -9.476553682793911
      ],
      [
        "Ġmen",
        -9.476936120820202
      ],
      [
        "all",
        -9.478160773998052
      ],
      [
        "Ġtoday",
        -9.479677596932213
      ],
      [
        "cdot",
        -9.480551701269274
      ],
      [
        "ED",
        -9.480851320414342
      ],
      [
        "Ġrelated",
        -9.481040140197262
      ],
      [
        "href",
        -9.481049561753307
      ],
      [
        "ous",
        -9.481318111618144
      ],
      [
        "taking",
        -9.48148209955167
      ],
      [
        "04",
        -9.48160823921818
      ],
      [
        "Ġentire",
        -9.482974498473236
      ],
      [
        "Ġnull",
        -9.483156793636844
      ],
      [
        "Ġmotion",
        -9.484232509668503
      ],
      [
        "Ġpatient",
        -9.484653148081652
      ],
      [
        "Ġlive",
        -9.485255274060174
      ],
      [
        "Ġreceived",
        -9.485551787252636
      ],
      [
        "Ġaccount",
        -9.485911824764734
      ],
      [
        "Since",
        -9.48627700466492
      ],
      [
        "Ġmaterial",
        -9.486897400060675
      ],
      [
        "08",
        -9.48768090675032
      ],
      [
        "Ġanything",
        -9.487923418753471
      ],
      [
        "Ġdeath",
        -9.488035484666334
      ],
      [
        "That",
        -9.488962359531357
      ],
      [
        "asked",
        -9.489546379591504
      ],
      [
        "Ġunderstand",
        -9.489924568074304
      ],
      [
        "}{\\",
        -9.491825065726058
      ],
      [
        "Ġmembers",
        -9.492232734717335
      ],
      [
        "Ġ25",
        -9.492841291161076
      ],
      [
        "Ġpercent",
        -9.493187364347577
      ],
      [
        "thus",
        -9.495033908270573
      ],
      [
        "Ġothers",
        -9.495202715993647
      ],
      [
        "side",
        -9.49567682951252
      ],
      [
        "31",
        -9.496473985022254
      ],
      [
        "ĠOne",
        -9.4965112474325
      ],
      [
        "Ġaverage",
        -9.49661670962018
      ],
      [
        "Ġbring",
        -9.497069283237463
      ],
      [
        "refore",
        -9.497169903930642
      ],
      [
        "document",
        -9.497502435862309
      ],
      [
        "Ġhalf",
        -9.499070752955948
      ],
      [
        "Ġcity",
        -9.499961539577866
      ],
      [
        "Thus",
        -9.500020208016222
      ],
      [
        "significantly",
        -9.500688050853542
      ],
      [
        "44",
        -9.500937998429867
      ],
      [
        "wide",
        -9.501964654452788
      ],
      [
        "Ġgrowth",
        -9.503125584826693
      ],
      [
        "Ġdistribution",
        -9.503986488511854
      ],
      [
        "Ġdifference",
        -9.504968648630898
      ],
      [
        "Ġagree",
        -9.50534702999299
      ],
      [
        "{{\\",
        -9.50628060544974
      ],
      [
        "Ġcar",
        -9.507485788636137
      ],
      [
        "array",
        -9.50777337785342
      ],
      [
        "ism",
        -9.509285292102344
      ],
      [
        "Ġtarget",
        -9.51119362612916
      ],
      [
        "Ġnetwork",
        -9.511905951700095
      ],
      [
        "Ġphase",
        -9.512280877876927
      ],
      [
        "Ġmind",
        -9.512742811120662
      ],
      [
        "Ġgetting",
        -9.512923051628194
      ],
      [
        "ĠUS",
        -9.515648185788852
      ],
      [
        "Ġstates",
        -9.51618719777117
      ],
      [
        "ĠAfter",
        -9.516250388642344
      ],
      [
        "Ġtalk",
        -9.516497360538862
      ],
      [
        "Ġhistory",
        -9.517306757854575
      ],
      [
        "Ġvia",
        -9.518999550735352
      ],
      [
        "Ġsubject",
        -9.523729447011318
      ],
      [
        "Ġpro",
        -9.523984987273156
      ],
      [
        "add",
        -9.526375107888615
      ],
      [
        "Ġnight",
        -9.527269482182886
      ],
      [
        "ĠMore",
        -9.527762341936922
      ],
      [
        "ĠSt",
        -9.528756117047935
      ],
      [
        "ĥ",
        -9.530714163367588
      ],
      [
        "__",
        -9.53094488240766
      ],
      [
        "Ġacid",
        -9.531260244670635
      ],
      [
        "param",
        -9.533582007448144
      ],
      [
        "Ġseries",
        -9.534022349643978
      ],
      [
        "Ġrecord",
        -9.5349977332942
      ],
      [
        "Ġstring",
        -9.535590574883194
      ],
      [
        "55",
        -9.535796398003065
      ],
      [
        "Ġdis",
        -9.536506504390024
      ],
      [
        "Ġevent",
        -9.536519170947756
      ],
      [
        "infty",
        -9.536683660900184
      ],
      [
        "/*",
        -9.538268189269198
      ],
      [
        "Ġmass",
        -9.539056849885412
      ],
      [
        "Ġpopulation",
        -9.539238075861563
      ],
      [
        "Ġlooking",
        -9.53946278029292
      ],
      [
        "Ġinvolved",
        -9.53992082171621
      ],
      [
        "Value",
        -9.540480638634
      ],
      [
        "Ġnormal",
        -9.54077119140072
      ],
      [
        "Ġprevious",
        -9.54212751204027
      ],
      [
        "Ġtax",
        -9.54250643552121
      ],
      [
        "Ġalmost",
        -9.543488911002648
      ],
      [
        "Ġcondition",
        -9.544264971522798
      ],
      [
        "Ġgene",
        -9.544625447459673
      ],
      [
        "Ġmicro",
        -9.544678482873255
      ],
      [
        "Ġanswer",
        -9.546484399466395
      ],
      [
        "Ġnothing",
        -9.54776017929307
      ],
      [
        "Ġstrong",
        -9.548216808901149
      ],
      [
        "Ġparty",
        -9.550229353428564
      ],
      [
        "Ġair",
        -9.550933891391296
      ],
      [
        "36",
        -9.55125067709996
      ],
      [
        "Ġpolice",
        -9.551513107146572
      ],
      [
        "Ġclinical",
        -9.552739500888302
      ],
      [
        "old",
        -9.554517014887445
      ],
      [
        "Object",
        -9.555277035093413
      ],
      [
        "================",
        -9.556759055223925
      ],
      [
        "Ġhours",
        -9.55900224757352
      ],
      [
        "field",
        -9.559178361719846
      ],
      [
        "Ãĥ",
        -9.559835645550775
      ],
      [
        "Ġinstead",
        -9.56084484447787
      ],
      [
        "Ġmarket",
        -9.56108480089764
      ],
      [
        "Ġaddress",
        -9.561162151624524
      ],
      [
        "Ġneeded",
        -9.561452294360404
      ],
      [
        "Ġexpected",
        -9.561525393183498
      ],
      [
        "ĠThen",
        -9.561589849660177
      ],
      [
        "Ġrespect",
        -9.562195266513577
      ],
      [
        "43",
        -9.562357749800844
      ],
      [
        "Ġweight",
        -9.5627912784682
      ],
      [
        "Ġcomplex",
        -9.564422497237285
      ],
      [
        "Ġbuilding",
        -9.564539890435563
      ],
      [
        "![",
        -9.566297603770902
      ],
      [
        "Ġrecent",
        -9.567279541868505
      ],
      [
        "Ġlanguage",
        -9.56735224252223
      ],
      [
        "Ġproblems",
        -9.56904619234368
      ],
      [
        "ch",
        -9.571544059591478
      ],
      [
        "Ġjob",
        -9.573344495195446
      ],
      [
        "treated",
        -9.573727271176017
      ],
      [
        "Ġmethods",
        -9.57417858264137
      ],
      [
        "Ġdetermine",
        -9.575992032215304
      ],
      [
        "Ġdamage",
        -9.576217060413407
      ],
      [
        "41",
        -9.576217591554435
      ],
      [
        "All",
        -9.57624146629358
      ],
      [
        "way",
        -9.576339678263867
      ],
      [
        "ĠYork",
        -9.576821369839548
      ],
      [
        "Ġproduction",
        -9.576851525555414
      ],
      [
        "ĠÂ§",
        -9.57721922443907
      ],
      [
        "Ġstep",
        -9.577767476738943
      ],
      [
        "Ġissues",
        -9.577870593737208
      ],
      [
        "Ġ17",
        -9.579742734017056
      ],
      [
        "Ġprior",
        -9.580618041291592
      ],
      [
        "someone",
        -9.58062346885337
      ],
      [
        "Ġservices",
        -9.581163277395987
      ],
      [
        "Ġneeds",
        -9.58176875471435
      ],
      [
        "Delta",
        -9.584366404565516
      ],
      [
        "Ġcheck",
        -9.586851146880631
      ],
      [
        "like",
        -9.58800505816112
      ],
      [
        "ably",
        -9.588173859196408
      ],
      [
        "Ġbreak",
        -9.58863625175239
      ],
      [
        "Get",
        -9.588878816697864
      ],
      [
        "ized",
        -9.589357499713367
      ],
      [
        "Ġsix",
        -9.590009062467931
      ],
      [
        "Ġstatement",
        -9.590048191251656
      ],
      [
        "Ġblack",
        -9.591401873178029
      ],
      [
        "Ġsequence",
        -9.591492151435723
      ],
      [
        "width",
        -9.592507441197125
      ],
      [
        "Ġloss",
        -9.593086551603898
      ],
      [
        "public",
        -9.593977917712689
      ],
      [
        "Ġpolicy",
        -9.59436979426403
      ],
      [
        "Ġhope",
        -9.594624295691156
      ],
      [
        "probably",
        -9.595395079495804
      ],
      [
        "ary",
        -9.596654936821611
      ],
      [
        "Ġstudents",
        -9.59711844593
      ],
      [
        "Ġpressure",
        -9.597443387358378
      ],
      [
        "void",
        -9.598244383937107
      ],
      [
        "49",
        -9.600298940291385
      ],
      [
        "not",
        -9.602363615773497
      ],
      [
        "Ġstory",
        -9.603154646255778
      ],
      [
        "net",
        -9.603228592127236
      ],
      [
        "}}\\",
        -9.604244269953933
      ],
      [
        "Ġplan",
        -9.604663640270612
      ],
      [
        "60",
        -9.606322340557494
      ],
      [
        "Ġremain",
        -9.606647912124943
      ],
      [
        "Ġquality",
        -9.606751329881828
      ],
      [
        "script",
        -9.607143929703495
      ],
      [
        "Ġstarted",
        -9.608541905527725
      ],
      [
        "Ġsense",
        -9.609288084311446
      ],
      [
        "Ġstop",
        -9.611106054405424
      ],
      [
        "Ġcomplete",
        -9.611744864280547
      ],
      [
        "Ġitself",
        -9.612652259754675
      ],
      [
        "99",
        -9.612926435213785
      ],
      [
        "Ġcontinue",
        -9.613540167977654
      ],
      [
        "Ġsample",
        -9.61424530048588
      ],
      [
        "um",
        -9.614545043114184
      ],
      [
        "Ġlength",
        -9.61479988364469
      ],
      [
        "Ġforce",
        -9.61589272421844
      ],
      [
        "Ġsituation",
        -9.616076513967926
      ],
      [
        "Ġmedia",
        -9.618127258861955
      ],
      [
        "Ġobtain",
        -9.61874304370072
      ],
      [
        "land",
        -9.619239531536453
      ],
      [
        "Ġdifficult",
        -9.6201047531014
      ],
      [
        "56",
        -9.62054927915587
      ],
      [
        "Ġallow",
        -9.62117746761617
      ],
      [
        "chi",
        -9.621583992134124
      ],
      [
        "!=",
        -9.621776564802754
      ],
      [
        "ĠTHE",
        -9.622057330114853
      ],
      [
        "ĠNational",
        -9.622109288160472
      ],
      [
        "Ġpolitical",
        -9.623209623311032
      ],
      [
        "With",
        -9.623677596431031
      ],
      [
        "53",
        -9.625826005737354
      ],
      [
        "dots",
        -9.626318176225643
      ],
      [
        "coming",
        -9.627253221638524
      ],
      [
        "Ġconstant",
        -9.627607064787036
      ],
      [
        "Ġindependent",
        -9.627845089123229
      ],
      [
        "Ġ\\\\",
        -9.63014763087809
      ],
      [
        "Ġheart",
        -9.630598971924991
      ],
      [
        "Ġinput",
        -9.630677617974914
      ],
      [
        "47",
        -9.630975877657928
      ],
      [
        "Ġnecessary",
        -9.631226290125694
      ],
      [
        "Ġpage",
        -9.631742184269427
      ],
      [
        "Ġbook",
        -9.63273164551049
      ],
      [
        "Further",
        -9.637026311432717
      ],
      [
        "Although",
        -9.637176323860976
      ],
      [
        "lib",
        -9.63717813932866
      ],
      [
        "My",
        -9.638389166728455
      ],
      [
        "eta",
        -9.638467432976974
      ],
      [
        "Ġshall",
        -9.63868757709539
      ],
      [
        "from",
        -9.639240090597673
      ],
      [
        "Ġreference",
        -9.640779895932932
      ],
      [
        "ĠTrump",
        -9.641367471960708
      ],
      [
        "Ġimpact",
        -9.643702710230915
      ],
      [
        "Ġsimply",
        -9.64431109233223
      ],
      [
        "Ġcolor",
        -9.644806384400397
      ],
      [
        "Ġprovides",
        -9.644917004892957
      ],
      [
        "According",
        -9.645544340203465
      ],
      [
        "Ġbad",
        -9.646777595881648
      ],
      [
        "Ġstay",
        -9.648078989643816
      ],
      [
        "Ġlines",
        -9.648482583257367
      ],
      [
        "Ġcut",
        -9.65142419302724
      ],
      [
        "Ġmedical",
        -9.652032300102448
      ],
      [
        "46",
        -9.65218118077632
      ],
      [
        "Ġprevent",
        -9.653141634566998
      ],
      [
        "Ġjudgment",
        -9.654042177805003
      ],
      [
        "Ġnear",
        -9.654506772839964
      ],
      [
        "Ġspecial",
        -9.654940322761028
      ],
      [
        "69",
        -9.655791818890032
      ],
      [
        "Ġcontact",
        -9.658298696939834
      ],
      [
        "\\_",
        -9.658790006745194
      ],
      [
        ")/",
        -9.658989056034942
      ],
      [
        "Ġoutside",
        -9.659013611231714
      ],
      [
        "Ġmoment",
        -9.659291350991433
      ],
      [
        "length",
        -9.659696704483306
      ],
      [
        "âĢ",
        -9.659847855180676
      ],
      [
        "Ġespecially",
        -9.660271943775326
      ],
      [
        "Ġshare",
        -9.66238174963618
      ],
      [
        "ĠOF",
        -9.662777191023944
      ],
      [
        "Ġ||",
        -9.664435391143428
      ],
      [
        "65",
        -9.66497726767075
      ],
      [
        "Ġpersonal",
        -9.66612682541692
      ],
      [
        "Ġinstance",
        -9.666750589507943
      ],
      [
        "Ġcontract",
        -9.667330619393432
      ],
      [
        "06",
        -9.668210309573093
      ],
      [
        "^\\",
        -9.668855641465727
      ],
      [
        "directly",
        -9.669578194839756
      ],
      [
        "07",
        -9.67003242443673
      ],
      [
        "Ġpresence",
        -9.670174316451137
      ],
      [
        "Ġformer",
        -9.671056533728615
      ],
      [
        "Ġflow",
        -9.672784411937808
      ],
      [
        "Ġmodels",
        -9.673537598462504
      ],
      [
        "Ġproperties",
        -9.673710994911849
      ],
      [
        "54",
        -9.67377150558776
      ],
      [
        "px",
        -9.674201460304346
      ],
      [
        "View",
        -9.675503051080488
      ],
      [
        "ĠMay",
        -9.67618208752822
      ],
      [
        "with",
        -9.677458384914631
      ],
      [
        "])",
        -9.678774510223114
      ],
      [
        "));",
        -9.679146279557198
      ],
      [
        "ĠCity",
        -9.67930762622891
      ],
      [
        "Ġoutput",
        -9.679625635064996
      ],
      [
        "Ġwords",
        -9.679753859079469
      ],
      [
        "Ġproducts",
        -9.67992200033822
      ],
      [
        "Ġdistrict",
        -9.680201447812127
      ],
      [
        "Ġdetermined",
        -9.680918518023327
      ],
      [
        "Ġrelease",
        -9.6815330407082
      ],
      [
        "Ġseem",
        -9.682842177859786
      ],
      [
        "Ġcross",
        -9.686206194883932
      ],
      [
        "Ġrest",
        -9.687740778300194
      ],
      [
        "path",
        -9.6906238966709
      ],
      [
        "Ġappeal",
        -9.69132846800116
      ],
      [
        "Ġdecrease",
        -9.693148853525312
      ],
      [
        "const",
        -9.694059520755468
      ],
      [
        "state",
        -9.696435732067537
      ],
      [
        "function",
        -9.696998679849058
      ],
      [
        "Ġeffective",
        -9.698435674910346
      ],
      [
        "Ġwide",
        -9.698603483540792
      ],
      [
        "Ġphysical",
        -9.698971142382437
      ],
      [
        "Ġeverything",
        -9.699058164387203
      ],
      [
        "Ġground",
        -9.70050522458308
      ],
      [
        "})",
        -9.701869483158209
      ],
      [
        "Ġwrong",
        -9.701950131368571
      ],
      [
        "Ġprimary",
        -9.702556966011256
      ],
      [
        "Ġint",
        -9.7036581193904
      ],
      [
        "Ġinside",
        -9.703725742655172
      ],
      [
        "Ġlonger",
        -9.704649551425144
      ],
      [
        "Ġwhite",
        -9.70508937065268
      ],
      [
        "51",
        -9.70586401454718
      ],
      [
        "Ġact",
        -9.706281421982808
      ],
      [
        "seems",
        -9.706928104792825
      ],
      [
        "Ġpain",
        -9.70733861293341
      ],
      [
        "Ġelement",
        -9.708255249418668
      ],
      [
        "off",
        -9.709755426442952
      ],
      [
        "Ġhold",
        -9.709924598263754
      ],
      [
        "Ġlayer",
        -9.711028565418218
      ],
      [
        "ĠMy",
        -9.711146059546316
      ],
      [
        "52",
        -9.71444146292668
      ],
      [
        "///",
        -9.71487734160867
      ],
      [
        "Ġevents",
        -9.715302338416397
      ],
      [
        "cal",
        -9.715679976141564
      ],
      [
        "Ġrights",
        -9.71625116134925
      ],
      [
        "Ġquite",
        -9.716285246037492
      ],
      [
        "Ġpresented",
        -9.718044546239543
      ],
      [
        "Ġwrite",
        -9.71997443154392
      ],
      [
        "Ġoffer",
        -9.720260487485527
      ],
      [
        "Ġincreasing",
        -9.720802374622028
      ],
      [
        "Ġeasy",
        -9.720947379911255
      ],
      [
        "Ġidentified",
        -9.72273120481873
      ],
      [
        "Ġbasis",
        -9.722983609231242
      ],
      [
        "ĠDr",
        -9.724329942015116
      ],
      [
        "my",
        -9.724581898806054
      ],
      [
        "Ġrunning",
        -9.725530864282504
      ],
      [
        "Ġfeatures",
        -9.725569137139738
      ],
      [
        "Ġmulti",
        -9.725966159453009
      ],
      [
        "therefore",
        -9.726258555753768
      ],
      [
        "Ġdate",
        -9.72711626412201
      ],
      [
        "Ġplaintiff",
        -9.72771669163504
      ],
      [
        "Ġoffice",
        -9.727851728738273
      ],
      [
        "Ġ21",
        -9.728171684414985
      ],
      [
        "Ġarray",
        -9.729538753890422
      ],
      [
        "max",
        -9.730434125312394
      ],
      [
        "Ġgenes",
        -9.730863532034784
      ],
      [
        "ĠLicense",
        -9.731202124973668
      ],
      [
        "Ġenvironment",
        -9.731523919529495
      ],
      [
        "Ġmember",
        -9.73162108300754
      ],
      [
        "induced",
        -9.73328037448033
      ],
      [
        "item",
        -9.733424967239872
      ],
      [
        "Ġcreated",
        -9.733481649422773
      ],
      [
        "Ġcenter",
        -9.7335550372927
      ],
      [
        "Ġvideo",
        -9.735007589429124
      ],
      [
        "Ġapply",
        -9.735300039570626
      ],
      [
        "âĢĲ",
        -9.736154374772038
      ],
      [
        "Ġrelationship",
        -9.736842680051604
      ],
      [
        "Ġagreement",
        -9.737262718668084
      ],
      [
        "Ġfunctions",
        -9.737712896676276
      ],
      [
        "psi",
        -9.739373193864177
      ],
      [
        "Ġ19",
        -9.739609517503103
      ],
      [
        "ĠRe",
        -9.74048667258318
      ],
      [
        "Key",
        -9.74049612116274
      ],
      [
        "Ġinitial",
        -9.740997774854788
      ],
      [
        "48",
        -9.741182076098852
      ],
      [
        "37",
        -9.74164056955705
      ],
      [
        "sim",
        -9.742247721257083
      ],
      [
        "Error",
        -9.742542095318935
      ],
      [
        "Ġoil",
        -9.744035454221889
      ],
      [
        "ĠBy",
        -9.745678252063046
      ],
      [
        "Ġago",
        -9.746805968432076
      ],
      [
        ")/(",
        -9.747334190996703
      ],
      [
        "Ġwanted",
        -9.7484718198341
      ],
      [
        "Ġsamples",
        -9.74848944906666
      ],
      [
        "True",
        -9.749004729282928
      ],
      [
        "Ġnegative",
        -9.749006330369172
      ],
      [
        "Ġparameters",
        -9.750438124941672
      ],
      [
        "Ġdirection",
        -9.750531976912017
      ],
      [
        "Ġfront",
        -9.751274837519952
      ],
      [
        "Ġsearch",
        -9.75220759150431
      ],
      [
        "Ġcontext",
        -9.75231103153641
      ],
      [
        "Ġgas",
        -9.753533874003946
      ],
      [
        "+\\",
        -9.754868888856288
      ],
      [
        "Ġtitle",
        -9.754923670581054
      ],
      [
        "Ġ&&",
        -9.755311598053495
      ],
      [
        "Ġdirect",
        -9.756038287360449
      ],
      [
        "Ġprice",
        -9.756553904573726
      ],
      [
        "57",
        -9.756561567134147
      ],
      [
        "rangle",
        -9.757281390728394
      ],
      [
        "Ġnatural",
        -9.758572105677224
      ],
      [
        "Ã©",
        -9.75964354140466
      ],
      [
        "Ġdeep",
        -9.76305006419414
      ],
      [
        "Ġrequest",
        -9.763758888526626
      ],
      [
        "Ġequal",
        -9.763817024110145
      ],
      [
        "Ġlegal",
        -9.764779764001087
      ],
      [
        "top",
        -9.765163466614592
      ],
      [
        "\\])",
        -9.76572218655198
      ],
      [
        "File",
        -9.766187265196418
      ],
      [
        "base",
        -9.7665477728238
      ],
      [
        "msg",
        -9.766860087804352
      ],
      [
        "42",
        -9.768101375171222
      ],
      [
        "Ġexpect",
        -9.768324856208627
      ],
      [
        "Ġtraining",
        -9.76927048446485
      ],
      [
        "Ġ/*",
        -9.769508048248817
      ],
      [
        "Ġmemory",
        -9.770861948013446
      ],
      [
        "Ġstage",
        -9.77125855326944
      ],
      [
        "Ġelements",
        -9.771761737152582
      ],
      [
        "Ġ40",
        -9.77226542844578
      ],
      [
        "Ġavoid",
        -9.772865359277208
      ],
      [
        "Ġstatic",
        -9.77404671619168
      ],
      [
        "Ġbuild",
        -9.774743829177266
      ],
      [
        "Ġknowledge",
        -9.775067380299667
      ],
      [
        "Ġmice",
        -9.775654044080294
      ],
      [
        "Ġareas",
        -9.775757423469614
      ],
      [
        "Ġtypes",
        -9.77591195830641
      ],
      [
        "](",
        -9.776091676050912
      ],
      [
        "usually",
        -9.776589125408412
      ],
      [
        "developed",
        -9.77854951318537
      ],
      [
        "Ġtheory",
        -9.778796561265825
      ],
      [
        "Ġassume",
        -9.77888229580191
      ],
      [
        "One",
        -9.77960938259519
      ],
      [
        "although",
        -9.779772417525631
      ],
      [
        "Ġfire",
        -9.780706730724754
      ],
      [
        "Ġstatus",
        -9.781080284313806
      ],
      [
        "Ġdrug",
        -9.781522930257834
      ],
      [
        "Ġbehind",
        -9.782581777230636
      ],
      [
        "}(\\",
        -9.782751206197554
      ],
      [
        "ling",
        -9.783770285475166
      ],
      [
        "Ġbehavior",
        -9.784489812358574
      ],
      [
        "Ġrequire",
        -9.78450900765952
      ],
      [
        "Ġunit",
        -9.785346402798186
      ],
      [
        "Ġsuper",
        -9.785945428069914
      ],
      [
        "ĠInc",
        -9.78612677390623
      ],
      [
        "Ġweeks",
        -9.787967846932927
      ],
      [
        "Ġapplied",
        -9.788879449165954
      ],
      [
        "ÃĤ",
        -9.789790163114573
      ],
      [
        "Ġgreater",
        -9.790317716706616
      ],
      [
        "Ġratio",
        -9.791172723940218
      ],
      [
        "ring",
        -9.794187711791698
      ],
      [
        "ĠJohn",
        -9.794515868230222
      ],
      [
        "59",
        -9.794794113927807
      ],
      [
        "Ġreduce",
        -9.795611969952365
      ],
      [
        "Ġdi",
        -9.796253345922912
      ],
      [
        "Ġdouble",
        -9.796783867369216
      ],
      [
        "Ġpreviously",
        -9.7973562797309
      ],
      [
        "Ġlimited",
        -9.798588368842497
      ],
      [
        "ĠDNA",
        -9.799060193458274
      ],
      [
        "big",
        -9.799599727303807
      ],
      [
        "user",
        -9.79990695384718
      ],
      [
        "Ġask",
        -9.799961296538518
      ],
      [
        "Ġquestions",
        -9.800114378630958
      ],
      [
        "Ġpath",
        -9.800352316877795
      ],
      [
        "ĠWith",
        -9.800486068104137
      ],
      [
        "Ġglobal",
        -9.80211101829563
      ],
      [
        "invention",
        -9.803031871811813
      ],
      [
        "Ġreduced",
        -9.803688822252967
      ],
      [
        "Ġarticle",
        -9.80379027399148
      ],
      [
        "Ġlack",
        -9.8039401317568
      ],
      [
        "Ġpractice",
        -9.804321633485468
      ],
      [
        "use",
        -9.804819898023997
      ],
      [
        "Ġsaw",
        -9.80713733898629
      ],
      [
        "ĠPresident",
        -9.80745208116578
      ],
      [
        "Ġmonth",
        -9.808115105791428
      ],
      [
        "that",
        -9.80831053410194
      ],
      [
        "Ġrelative",
        -9.808820909567002
      ],
      [
        "ams",
        -9.810064736852192
      ],
      [
        "Ġ22",
        -9.810086609651462
      ],
      [
        "58",
        -9.810613675504383
      ],
      [
        "Because",
        -9.812147658848362
      ],
      [
        "Ġworks",
        -9.813466395000276
      ],
      [
        "Ġgames",
        -9.814791076125568
      ],
      [
        "dev",
        -9.815296500156428
      ],
      [
        "Ġopinion",
        -9.816501001893055
      ],
      [
        "quad",
        -9.818367238375211
      ],
      [
        "]^",
        -9.818793115211587
      ],
      [
        "Ġproduce",
        -9.819921386088833
      ],
      [
        "ate",
        -9.82091801190467
      ],
      [
        "Ġleave",
        -9.821110509372891
      ],
      [
        "Ġculture",
        -9.82256666439462
      ],
      [
        "Ġforward",
        -9.824498238867749
      ],
      [
        "Ġsoftware",
        -9.825112702590872
      ],
      [
        "term",
        -9.825155062827132
      ],
      [
        "particularly",
        -9.825970423809554
      ],
      [
        "Ġrule",
        -9.826385731345848
      ],
      [
        "Set",
        -9.826535065111214
      ],
      [
        "Ġword",
        -9.827306918671717
      ],
      [
        "Ġ(\\[",
        -9.830295749144236
      ],
      [
        "Ġseparate",
        -9.831855214211966
      ],
      [
        "operator",
        -9.831917256686475
      ],
      [
        "Ġmother",
        -9.832568511303332
      ],
      [
        "Ġincludes",
        -9.833409272894858
      ],
      [
        "Ġlimit",
        -9.834011984605572
      ],
      [
        "Ġchoice",
        -9.834928641901971
      ],
      [
        "ĠAct",
        -9.83546054817156
      ],
      [
        "By",
        -9.837058951705597
      ],
      [
        "Ġattack",
        -9.83714720621679
      ],
      [
        "Ġdisplay",
        -9.83721116877014
      ],
      [
        "Ġart",
        -9.837618431473585
      ],
      [
        "...\"",
        -9.838009317938688
      ],
      [
        "static",
        -9.83821233190996
      ],
      [
        "ĠCounty",
        -9.839015350260986
      ],
      [
        "corresponding",
        -9.839776877142254
      ],
      [
        "Ġinfluence",
        -9.839947150499198
      ],
      [
        "---------------",
        -9.840195694234154
      ],
      [
        "Ġplayers",
        -9.844397621718914
      ],
      [
        "Ġclaims",
        -9.845737677050892
      ],
      [
        "ities",
        -9.845748577605008
      ],
      [
        "whose",
        -9.847646527932392
      ],
      [
        "Ġaffect",
        -9.8487218210602
      ],
      [
        "Ġwritten",
        -9.848747202721457
      ],
      [
        "Ġmis",
        -9.849514907856316
      ],
      [
        "Text",
        -9.8496525177227
      ],
      [
        "app",
        -9.85042183370958
      ],
      [
        "Ġnature",
        -9.851495569489773
      ],
      [
        "Ġmessage",
        -9.85187515426146
      ],
      [
        "followed",
        -9.853166000207514
      ],
      [
        "Ġnational",
        -9.854329794892148
      ],
      [
        "index",
        -9.855509204251309
      ],
      [
        "Ġfine",
        -9.855868359246406
      ],
      [
        "node",
        -9.856309562364792
      ],
      [
        "les",
        -9.856425535264238
      ],
      [
        "back",
        -9.856507205592871
      ],
      [
        "ions",
        -9.856753482565036
      ],
      [
        "tried",
        -9.858619446522622
      ],
      [
        "form",
        -9.859627018422351
      ],
      [
        "Ġ[*",
        -9.860026805959563
      ],
      [
        "ley",
        -9.860037350017416
      ],
      [
        "map",
        -9.861535024269946
      ],
      [
        "Ġdistance",
        -9.861876920393692
      ],
      [
        "java",
        -9.862035437635008
      ],
      [
        "Ġargument",
        -9.86249665523683
      ],
      [
        "čĊ",
        -9.865076954462914
      ],
      [
        "Ġspecies",
        -9.86511187298649
      ],
      [
        "link",
        -9.865304676464152
      ],
      [
        "ng",
        -9.866393963710795
      ],
      [
        "Ġ$$",
        -9.868059243662364
      ],
      [
        "ĠHis",
        -9.868168721648589
      ],
      [
        "men",
        -9.86893013744464
      ],
      [
        "Test",
        -9.869175882105544
      ],
      [
        "sub",
        -9.869756683111223
      ],
      [
        "Ġliving",
        -9.86980371527826
      ],
      [
        "day",
        -9.869890314837315
      ],
      [
        "90",
        -9.870622195962136
      ],
      [
        "Ġsuccess",
        -9.871188889368655
      ],
      [
        "Ġlate",
        -9.872126416913511
      ],
      [
        "Ġwar",
        -9.87312795172588
      ],
      [
        "ĠSouth",
        -9.873605393854856
      ],
      [
        "Ġsecurity",
        -9.87473235338282
      ],
      [
        "72",
        -9.874887288434763
      ],
      [
        "She",
        -9.874994383576167
      ],
      [
        "anyone",
        -9.875512641834993
      ],
      [
        "Ġbrain",
        -9.876327327793842
      ],
      [
        "Now",
        -9.878028787538268
      ],
      [
        "ĠOur",
        -9.878740536885507
      ],
      [
        "Ġpurpose",
        -9.87898044262255
      ],
      [
        "Ġvector",
        -9.879347222078309
      ],
      [
        "Ġrecently",
        -9.879384257549548
      ],
      [
        "Ġindex",
        -9.87946905907268
      ],
      [
        "Ġappropriate",
        -9.879652166840224
      ],
      [
        "Sec",
        -9.880153059655974
      ],
      [
        "Ġstyle",
        -9.8810275350925
      ],
      [
        "Ġdefault",
        -9.881817206929906
      ],
      [
        "Ġlost",
        -9.88184366739084
      ],
      [
        "Ġthemselves",
        -9.882793543148946
      ],
      [
        "Ġwalk",
        -9.883332183928957
      ],
      [
        "Ġetc",
        -9.884091959186184
      ],
      [
        "generally",
        -9.884344024195029
      ],
      [
        "Ġexplain",
        -9.884473530296011
      ],
      [
        "čĊĠĠĠĠĠĠĠ",
        -9.884494097769876
      ],
      [
        "Ġfederal",
        -9.886688418990106
      ],
      [
        "Ġhospital",
        -9.88781434978176
      ],
      [
        "Ġcountries",
        -9.888001770268907
      ],
      [
        "Ġonline",
        -9.888055162152908
      ],
      [
        "Ġactive",
        -9.888418850660589
      ],
      [
        "Ġfailure",
        -9.88853981806644
      ],
      [
        "Ġdifferences",
        -9.889591154949558
      ],
      [
        "Ġappear",
        -9.889599451854608
      ],
      [
        "jury",
        -9.88964969271847
      ],
      [
        "Also",
        -9.890603186809516
      ],
      [
        "Ġex",
        -9.891054776857398
      ],
      [
        "ĠAmerica",
        -9.89119532699649
      ],
      [
        "Ġproposed",
        -9.892153655352596
      ],
      [
        "Ġred",
        -9.89224418918432
      ],
      [
        "Ġcharge",
        -9.892966235877612
      ],
      [
        "From",
        -9.89300703475025
      ],
      [
        "Ġreceive",
        -9.89448890677981
      ],
      [
        "}}$",
        -9.895342710496488
      ],
      [
        "Ġeconomic",
        -9.895351460504129
      ],
      [
        "we",
        -9.896008515779643
      ],
      [
        "Ġ28",
        -9.896032497322302
      ],
      [
        "003",
        -9.89718972726234
      ],
      [
        "Ġslow",
        -9.89798185673373
      ],
      [
        "Ġcomputer",
        -9.899007088199696
      ],
      [
        ":**",
        -9.900035347534544
      ],
      [
        "len",
        -9.900338018486751
      ],
      [
        "Ġ2012",
        -9.900909444966116
      ],
      [
        "}$,",
        -9.90136412041418
      ],
      [
        "Gamma",
        -9.90238934694465
      ],
      [
        "Ġhit",
        -9.902877847917772
      ],
      [
        "ĠGeneral",
        -9.90297541332361
      ],
      [
        "Ġ23",
        -9.903067391106724
      ],
      [
        "67",
        -9.903165728278507
      ],
      [
        "became",
        -9.903189738864066
      ],
      [
        "Ġcount",
        -9.903528282557684
      ],
      [
        "Ġhimself",
        -9.903558582693623
      ],
      [
        "Ġbasic",
        -9.903706063613186
      ],
      [
        "Ġvar",
        -9.904582347458671
      ],
      [
        "ĠMarch",
        -9.904729775194266
      ],
      [
        "\";",
        -9.90530161664029
      ],
      [
        "Omega",
        -9.90574199331395
      ],
      [
        "style",
        -9.90685553200576
      ],
      [
        "Ġpoor",
        -9.907970002011943
      ],
      [
        "ĠWorld",
        -9.908087373821235
      ],
      [
        "gave",
        -9.90849101079403
      ],
      [
        "color",
        -9.908705749591334
      ],
      [
        "Ġdensity",
        -9.90908533916838
      ],
      [
        "reasonable",
        -9.910237425722435
      ],
      [
        "def",
        -9.91046547464498
      ],
      [
        "ĠHouse",
        -9.910506149017214
      ],
      [
        "ING",
        -9.910590493050847
      ],
      [
        "Ġnotice",
        -9.91067583801828
      ],
      [
        "Ġconcern",
        -9.911612216339842
      ],
      [
        "Ġtable",
        -9.912408501844386
      ],
      [
        "rightarrow",
        -9.91296305060657
      ],
      [
        "ĠChina",
        -9.913389288850356
      ],
      [
        "Ġwebsite",
        -9.913622694913832
      ],
      [
        "Ġblock",
        -9.915039617749978
      ],
      [
        "Ġmeeting",
        -9.915516215526509
      ],
      [
        "group",
        -9.915657448065677
      ],
      [
        "85",
        -9.915839917365776
      ],
      [
        "Exception",
        -9.915973403242475
      ],
      [
        "66",
        -9.916917568790348
      ],
      [
        "Ġfocus",
        -9.91716788220752
      ],
      [
        "Ġderivative",
        -9.91805048455286
      ],
      [
        "ĠNorth",
        -9.918165713767795
      ],
      [
        "Ġunique",
        -9.918380294093163
      ],
      [
        "Ġrates",
        -9.919680058808115
      ],
      [
        "Ġ60",
        -9.92120705437345
      ],
      [
        "Ġpretty",
        -9.921804045452756
      ],
      [
        "ization",
        -9.921947209857368
      ],
      [
        "^[@",
        -9.921969865576868
      ],
      [
        "ĠCD",
        -9.92230560219406
      ],
      [
        "Ġdrive",
        -9.9224932249874
      ],
      [
        "68",
        -9.923356966343375
      ],
      [
        "Ġfinancial",
        -9.9235720215618
      ],
      [
        "});",
        -9.924960806335775
      ],
      [
        "Ġmap",
        -9.926068289094577
      ],
      [
        "63",
        -9.927051052919326
      ],
      [
        "ĠDepartment",
        -9.927436613236688
      ],
      [
        "Ġbackground",
        -9.927907309363748
      ],
      [
        "July",
        -9.928002958163743
      ],
      [
        "96",
        -9.928279986047604
      ],
      [
        "Ġserious",
        -9.928338679734004
      ],
      [
        "title",
        -9.92886544733642
      ],
      [
        "Ġregard",
        -9.92978353902948
      ],
      [
        "Ġcouple",
        -9.930632489847271
      ],
      [
        "Ġ/>",
        -9.93093967400965
      ],
      [
        "Ġland",
        -9.9323132685273
      ],
      [
        "Ġcorrect",
        -9.932901774562122
      ],
      [
        "designed",
        -9.933205129607964
      ],
      [
        "ĠDe",
        -9.933232754883225
      ],
      [
        "Ġrandom",
        -9.93329045706522
      ],
      [
        "ent",
        -9.93360047166969
      ],
      [
        "Ġgain",
        -9.933782896443878
      ],
      [
        "Ġfailed",
        -9.934896086935415
      ],
      [
        "=\\",
        -9.935151850953014
      ],
      [
        "hearing",
        -9.9373330986006
      ],
      [
        "pp",
        -9.937902924055312
      ],
      [
        "Ġ2013",
        -9.938667254835972
      ],
      [
        "Ġattempt",
        -9.93897589152388
      ],
      [
        "They",
        -9.93899149494066
      ],
      [
        "Ġcampaign",
        -9.940200383266506
      ],
      [
        "Ġpublished",
        -9.940276431992697
      ],
      [
        "70",
        -9.940276858302996
      ],
      [
        "Ġnumbers",
        -9.941476144429156
      ],
      [
        "Ġscale",
        -9.941635710474054
      ],
      [
        "Ġson",
        -9.941753495450806
      ],
      [
        "Ġoperation",
        -9.94197828541293
      ],
      [
        "Ġspeed",
        -9.942310923191243
      ],
      [
        "86",
        -9.943185990745013
      ],
      [
        "val",
        -9.9441523500361
      ],
      [
        "Ġmeet",
        -9.944361949543625
      ],
      [
        "follows",
        -9.944440747581975
      ],
      [
        "94",
        -9.945683841985772
      ],
      [
        "Ġ2016",
        -9.947293296038085
      ],
      [
        "Ġdegree",
        -9.947861390383078
      ],
      [
        "Ġinter",
        -9.948145916691924
      ],
      [
        "vec",
        -9.948179278432018
      ],
      [
        "Ġtissue",
        -9.948889785885552
      ],
      [
        "Ġallowed",
        -9.948999666927646
      ],
      [
        "ĠDo",
        -9.949253846922344
      ],
      [
        "Ġconcentration",
        -9.94988528853226
      ],
      [
        "ĠII",
        -9.949938674820164
      ],
      [
        "free",
        -9.950448027231827
      ],
      [
        "down",
        -9.950955536128546
      ],
      [
        "Ġwoman",
        -9.951215693997415
      ],
      [
        "Ġlarger",
        -9.95158195515411
      ],
      [
        "Ġstress",
        -9.951849821148976
      ],
      [
        "Size",
        -9.951887463109683
      ],
      [
        "88",
        -9.951997610551295
      ],
      [
        "Ġfindings",
        -9.952887393711178
      ],
      [
        "Ġdepend",
        -9.953105978600725
      ],
      [
        "Ġcomponent",
        -9.953727832459093
      ],
      [
        "expressed",
        -9.953889259811849
      ],
      [
        "saying",
        -9.954253974765937
      ],
      [
        "Ġportion",
        -9.954325670057814
      ],
      [
        "body",
        -9.954364099610158
      ],
      [
        "Ġmeasured",
        -9.954417895942708
      ],
      [
        "Ġimprove",
        -9.95457885943453
      ],
      [
        "čĊĠ",
        -9.955431119157875
      ],
      [
        "Ġexist",
        -9.955825053228734
      ],
      [
        "Ġ2014",
        -9.95611400375648
      ],
      [
        "Ġeveryone",
        -9.95625947324558
      ],
      [
        "Ġsoon",
        -9.956964679558654
      ],
      [
        "###",
        -9.957487166905365
      ],
      [
        "comes",
        -9.959851457867074
      ],
      [
        "App",
        -9.960268366868988
      ],
      [
        "located",
        -9.96085643178274
      ],
      [
        "Ġcurrently",
        -9.961656009102615
      ],
      [
        "Ċĉĉĉĉ",
        -9.96304284909552
      ],
      [
        "Ġheat",
        -9.96365632765433
      ],
      [
        "input",
        -9.965092394902197
      ],
      [
        "Ġmovement",
        -9.965139562925078
      ],
      [
        "After",
        -9.965613581239912
      ],
      [
        "Ġsafe",
        -9.96597299420778
      ],
      [
        "let",
        -9.966203489516158
      ],
      [
        "Ġalone",
        -9.96652886191915
      ],
      [
        "Ġselected",
        -9.967385369739256
      ],
      [
        "ĠString",
        -9.968301920925285
      ],
      [
        "knew",
        -9.96888967418495
      ],
      [
        "ĠHere",
        -9.969137440904788
      ],
      [
        "related",
        -9.971341479060833
      ],
      [
        "Ġsign",
        -9.971694830838002
      ],
      [
        "Ġattention",
        -9.972136513771847
      ],
      [
        "then",
        -9.972978273545818
      ],
      [
        "Ġdetails",
        -9.973281221141754
      ],
      [
        "divided",
        -9.973892496636685
      ],
      [
        "began",
        -9.974031263193933
      ],
      [
        "Ġapp",
        -9.975940230066705
      ],
      [
        "space",
        -9.9769243111734
      ],
      [
        "Ġstand",
        -9.977400437461744
      ],
      [
        "Ġpull",
        -9.97761596137086
      ],
      [
        "ĠJune",
        -9.97840784797561
      ],
      [
        "Ġvolume",
        -9.97894582315412
      ],
      [
        "False",
        -9.979752081705389
      ],
      [
        "Ġvehicle",
        -9.97980590773836
      ],
      [
        "Ġcompanies",
        -9.980683542712203
      ],
      [
        "true",
        -9.981632185544717
      ],
      [
        "Ġcharacter",
        -9.982246499272248
      ],
      [
        "Ġbio",
        -9.982769844621496
      ],
      [
        "Ġfriends",
        -9.982870476691415
      ],
      [
        "$\\",
        -9.983785905280978
      ],
      [
        "info",
        -9.98517400240952
      ],
      [
        "ĠâĪĴ",
        -9.985211660958855
      ],
      [
        "Ġtransfer",
        -9.98615881266324
      ],
      [
        "['",
        -9.98639624325144
      ],
      [
        "Ġsentence",
        -9.986873734643442
      ],
      [
        "98",
        -9.986905433632936
      ],
      [
        "Ġgoal",
        -9.988492699743718
      ],
      [
        "Ġindividuals",
        -9.990045053040742
      ],
      [
        "Ġlearn",
        -9.990249779140791
      ],
      [
        "Ġlocation",
        -9.99137900447086
      ],
      [
        "Ġreaction",
        -9.991397038297457
      ],
      [
        "ĊĠĠĠĠĠĠĠĠĠĠĠĠĠ",
        -9.994459279265705
      ],
      [
        "ĠFirst",
        -9.994560209181875
      ],
      [
        "struct",
        -9.995717521208352
      ],
      [
        "Ġchance",
        -9.995762538246986
      ],
      [
        "parties",
        -9.995875874791738
      ],
      [
        "Ġ26",
        -9.995985550363802
      ],
      [
        "highly",
        -9.99611404890782
      ],
      [
        "completely",
        -9.996651590526398
      ],
      [
        "Ġstar",
        -9.996957027363454
      ],
      [
        "Ġfixed",
        -9.997509323961756
      ],
      [
        "Ġeducation",
        -9.997642199785668
      ],
      [
        "ish",
        -9.998892574551771
      ],
      [
        "Ġ[**",
        -9.99959274300606
      ],
      [
        "Ġhappen",
        -10.000291598897448
      ],
      [
        "Ġnote",
        -10.001070349628325
      ],
      [
        "State",
        -10.001215667953856
      ],
      [
        "Ġfast",
        -10.00224248342616
      ],
      [
        "Ġmanagement",
        -10.002435487406208
      ],
      [
        "Ġproteins",
        -10.003536048858363
      ],
      [
        "Ġ2015",
        -10.003814135562536
      ],
      [
        "Which",
        -10.004337057146984
      ],
      [
        "Ġcomponents",
        -10.005500065374434
      ],
      [
        "Path",
        -10.005754818679517
      ],
      [
        "\"><",
        -10.00597139998098
      ],
      [
        "Ġrequires",
        -10.00598731976549
      ],
      [
        "useful",
        -10.006044657803406
      ],
      [
        "case",
        -10.006542723959829
      ],
      [
        "Ġpattern",
        -10.007025573855469
      ],
      [
        "Ġenjoy",
        -10.00720674991221
      ],
      [
        "Ġwin",
        -10.007343527839778
      ],
      [
        "Ġeyes",
        -10.00797892761986
      ],
      [
        "source",
        -10.00825144080169
      ],
      [
        "Ġtechnology",
        -10.008569910015584
      ],
      [
        "ified",
        -10.00903459285268
      ],
      [
        "Ġcentral",
        -10.009121871299223
      ],
      [
        "Of",
        -10.009429040266347
      ],
      [
        "¾",
        -10.010451812659458
      ],
      [
        "}$.",
        -10.010521445546363
      ],
      [
        "Ġfrequency",
        -10.010588286085197
      ],
      [
        "Ġ:=",
        -10.011350928741628
      ],
      [
        "goes",
        -10.011813075036056
      ],
      [
        "61",
        -10.01213932763898
      ],
      [
        "62",
        -10.014383662021611
      ],
      [
        "84",
        -10.01485754092214
      ],
      [
        "Ġindustry",
        -10.016565489869578
      ],
      [
        "\"/>",
        -10.017518949225083
      ],
      [
        "Info",
        -10.01768538749342
      ],
      [
        "error",
        -10.017907098485605
      ],
      [
        "Ġcopy",
        -10.017914559214116
      ],
      [
        "Ġearlier",
        -10.018313623876352
      ],
      [
        "den",
        -10.018667653165243
      ],
      [
        "produced",
        -10.01905300890056
      ],
      [
        "Ġfair",
        -10.01948623954588
      ],
      [
        "Ġnews",
        -10.019912548649195
      ],
      [
        "Ġmaintain",
        -10.019990441781378
      ],
      [
        "Ġwriting",
        -10.020052082278395
      ],
      [
        "Ġpass",
        -10.020248384880777
      ],
      [
        "ij",
        -10.020857034271804
      ],
      [
        "Ġconnection",
        -10.022172868243535
      ],
      [
        "Ġequation",
        -10.022179965829531
      ],
      [
        "Ġmechanism",
        -10.02280789663796
      ],
      [
        "Ġleading",
        -10.023249437788744
      ],
      [
        "Ġsent",
        -10.02441407957882
      ],
      [
        "Ġauto",
        -10.0265266161186
      ],
      [
        "Ġassert",
        -10.026855628088787
      ],
      [
        "Ġoverall",
        -10.027468161525558
      ],
      [
        "ĠJanuary",
        -10.02856036034183
      ],
      [
        "ĠSystem",
        -10.028877139226902
      ],
      [
        "Ġtoward",
        -10.029133770017973
      ],
      [
        "\\\\",
        -10.029486492701947
      ],
      [
        "Ġpresident",
        -10.029542605510528
      ],
      [
        "Ġcircuit",
        -10.030320206557452
      ],
      [
        "Ġremember",
        -10.030506679519307
      ],
      [
        "paid",
        -10.030789077308905
      ],
      [
        "());",
        -10.031142164009772
      ],
      [
        "easily",
        -10.031246376494574
      ],
      [
        "Ġindicate",
        -10.031512438609052
      ],
      [
        "ĠSome",
        -10.031667417773711
      ],
      [
        "ĠApril",
        -10.031941391422508
      ],
      [
        "Ġcontains",
        -10.032071920788882
      ],
      [
        "--------------",
        -10.03244217411908
      ],
      [
        "Ġmeasure",
        -10.032536241913792
      ],
      [
        "Ġimages",
        -10.032999106990628
      ],
      [
        "ĠCir",
        -10.034846379614002
      ],
      [
        "Ġ2011",
        -10.034950756496656
      ],
      [
        "which",
        -10.03499013443014
      ],
      [
        "Ġdemand",
        -10.035588281679564
      ],
      [
        "uint",
        -10.03565141000472
      ],
      [
        "giving",
        -10.03588986607359
      ],
      [
        "image",
        -10.03703029970945
      ],
      [
        "Ġfall",
        -10.03846151016767
      ],
      [
        "ence",
        -10.038778779654551
      ],
      [
        "Ġboard",
        -10.040483379586878
      ],
      [
        "ĠWest",
        -10.04091898200159
      ],
      [
        "Ġrepresent",
        -10.040924216729676
      ],
      [
        "Node",
        -10.040987130527888
      ],
      [
        "formed",
        -10.041164150042386
      ],
      [
        "per",
        -10.041238845793934
      ],
      [
        "Ġbar",
        -10.041618854533844
      ],
      [
        "Ġfigure",
        -10.041688466661528
      ],
      [
        "Ġmode",
        -10.041788468768338
      ],
      [
        "ĠNot",
        -10.04197871359081
      ],
      [
        "Ġ2010",
        -10.04226167214606
      ],
      [
        "December",
        -10.043221959643969
      ],
      [
        "Ġdefinition",
        -10.04323399993688
      ],
      [
        "Ġcosts",
        -10.04340655914992
      ],
      [
        "Ġhost",
        -10.044334141298611
      ],
      [
        "Ġestablished",
        -10.04451641457133
      ],
      [
        "Ġcounsel",
        -10.045690063128964
      ],
      [
        "read",
        -10.045750394935329
      ],
      [
        "Ġfinding",
        -10.045977295892706
      ],
      [
        "New",
        -10.04641605728521
      ],
      [
        "Ġsupported",
        -10.046976049570128
      ],
      [
        "Ġcritical",
        -10.047540608384972
      ],
      [
        "Ġtumor",
        -10.047893619462734
      ],
      [
        "**(",
        -10.05011390269561
      ],
      [
        "Ġgenerated",
        -10.050202068071547
      ],
      [
        "Index",
        -10.050353192579127
      ],
      [
        "Ġcomment",
        -10.050487037412244
      ],
      [
        "Ġhighest",
        -10.05052400051645
      ],
      [
        "77",
        -10.051150295247531
      ],
      [
        "Ġoption",
        -10.051414556259648
      ],
      [
        "version",
        -10.052615969450711
      ],
      [
        "Ġactivities",
        -10.053926763688134
      ],
      [
        "Ġlink",
        -10.056185946777129
      ],
      [
        "Ġfather",
        -10.0568217022305
      ],
      [
        "was",
        -10.058157261561378
      ],
      [
        "Ġpush",
        -10.05889130439088
      ],
      [
        "Ġcomparison",
        -10.059390577092744
      ],
      [
        "Ġtrade",
        -10.05994892482218
      ],
      [
        "Ġfelt",
        -10.06006147624058
      ],
      [
        "Ġ<<",
        -10.060324342677378
      ],
      [
        "Ġrelevant",
        -10.06052357170245
      ],
      [
        "Ġmatrix",
        -10.060572667153313
      ],
      [
        "Ġstaff",
        -10.06059305856732
      ],
      [
        "Ġcarrie",
        -10.060828292390338
      ],
      [
        "Ġnode",
        -10.060853611447907
      ],
      [
        "Ġstated",
        -10.06091530705412
      ],
      [
        "Ġallows",
        -10.060928160737571
      ],
      [
        "Re",
        -10.06119394569196
      ],
      [
        "Ġpair",
        -10.061422742623584
      ],
      [
        "Ġprime",
        -10.061551067624
      ],
      [
        "Ġprove",
        -10.0623235274191
      ],
      [
        "Ġcommand",
        -10.062724314016874
      ],
      [
        "78",
        -10.063047002487355
      ],
      [
        "Ġrace",
        -10.06369728254346
      ],
      [
        "Ġdomain",
        -10.064625928749864
      ],
      [
        "Ġusers",
        -10.064712600413069
      ],
      [
        "Ġ2017",
        -10.064871032919353
      ],
      [
        "Ġvariable",
        -10.065054118906414
      ],
      [
        "97",
        -10.065362450233431
      ],
      [
        "clearly",
        -10.065430960064756
      ],
      [
        "php",
        -10.065508708626504
      ],
      [
        "}_{\\",
        -10.066204776463458
      ],
      [
        "Ġcontaining",
        -10.066455547087998
      ],
      [
        "Ġconsist",
        -10.066828587677849
      ],
      [
        "Here",
        -10.06690126436405
      ],
      [
        "Ġoptions",
        -10.066987796960529
      ],
      [
        "Ġinvestigate",
        -10.067804406376588
      ],
      [
        "Ġactual",
        -10.067924862507851
      ],
      [
        "Ġdoor",
        -10.06815568322502
      ],
      [
        "Ġdevices",
        -10.068315543618269
      ],
      [
        "500",
        -10.06838259718905
      ],
      [
        "âĢ¢",
        -10.068413519325908
      ],
      [
        "Ġinvestigation",
        -10.068962703511644
      ],
      [
        "Ġpanel",
        -10.069077104424498
      ],
      [
        "Ġplease",
        -10.069467157219258
      ],
      [
        "Ġfiled",
        -10.07065975471678
      ],
      [
        "Ġserver",
        -10.070728353495776
      ],
      [
        "turned",
        -10.072025396634467
      ],
      [
        "}^{\\",
        -10.07235216169133
      ],
      [
        "Context",
        -10.072411725164669
      ],
      [
        "Ġbrought",
        -10.073323060452685
      ],
      [
        "Ġexcept",
        -10.073786827432215
      ],
      [
        "smaller",
        -10.074297750769444
      ],
      [
        "me",
        -10.074773776263108
      ],
      [
        "âĢĥ",
        -10.075034300279444
      ],
      [
        "ER",
        -10.075562835047553
      ],
      [
        "Ġcredit",
        -10.078214639662075
      ],
      [
        "wise",
        -10.078781638036755
      ],
      [
        "');",
        -10.080399029987356
      ],
      [
        "majority",
        -10.080422797323576
      ],
      [
        "langle",
        -10.08063072764328
      ],
      [
        "dir",
        -10.081798054294982
      ],
      [
        "dot",
        -10.08183028591614
      ],
      [
        "Ġreduction",
        -10.08268113272884
      ],
      [
        "Ġshowing",
        -10.082710810569608
      ],
      [
        "76",
        -10.08273030437302
      ],
      [
        "Ġunderstanding",
        -10.084590591172825
      ],
      [
        "ĠLa",
        -10.084778790113102
      ],
      [
        "decided",
        -10.084914142893595
      ],
      [
        "Ġsort",
        -10.085365726005904
      ],
      [
        "ice",
        -10.08544349803122
      ],
      [
        "Ġcollection",
        -10.085825223708571
      ],
      [
        "Ġsites",
        -10.086300063425004
      ],
      [
        "Ġcontrast",
        -10.086497498186114
      ],
      [
        "Ġfit",
        -10.087202546044168
      ],
      [
        "Ġinjury",
        -10.087515888114948
      ],
      [
        "Ġextra",
        -10.089092459153674
      ],
      [
        "Ġshape",
        -10.090157227364072
      ],
      [
        "Ġbeyond",
        -10.09068414604818
      ],
      [
        "Ġreading",
        -10.092495256470642
      ],
      [
        "Item",
        -10.092865613227556
      ],
      [
        "Ġlearning",
        -10.093339358933669
      ],
      [
        ")}",
        -10.093405141666244
      ],
      [
        "Ġtown",
        -10.093721025190847
      ],
      [
        "Ġexperiments",
        -10.09381113037862
      ],
      [
        "view",
        -10.094231936407343
      ],
      [
        "Ġparameter",
        -10.095457475409615
      ],
      [
        "Ġauthors",
        -10.095550334953254
      ],
      [
        "Ġshot",
        -10.095968716507333
      ],
      [
        "Ġwave",
        -10.096705924101196
      ],
      [
        "Ġtransition",
        -10.097240340021626
      ],
      [
        "Ġproof",
        -10.097610339721882
      ],
      [
        "Ġmorning",
        -10.097646544437731
      ],
      [
        "Ġperform",
        -10.09770621084686
      ],
      [
        "Ġheard",
        -10.098011708992969
      ],
      [
        "regarding",
        -10.09810573445519
      ],
      [
        "Ġinternational",
        -10.09825765254381
      ],
      [
        "Do",
        -10.098573855296122
      ],
      [
        "cap",
        -10.099563253490173
      ],
      [
        "Ġstore",
        -10.099707278154082
      ],
      [
        "Ġinternal",
        -10.09980224052739
      ],
      [
        "ĠAND",
        -10.099803172231413
      ],
      [
        "wrote",
        -10.100217210001803
      ],
      [
        "ĠOr",
        -10.10033011068239
      ],
      [
        "Ġalternative",
        -10.1016108714725
      ],
      [
        "Ġphoto",
        -10.101659704457656
      ],
      [
        "81",
        -10.102701077588923
      ],
      [
        "74",
        -10.10321953942648
      ],
      [
        "Ġtravel",
        -10.103681978580523
      ],
      [
        "ĠAl",
        -10.104005426189234
      ],
      [
        "Ġvisit",
        -10.104239366536138
      ],
      [
        "Ġ27",
        -10.104259642134354
      ],
      [
        "Ġcarry",
        -10.105018608658106
      ],
      [
        "Ġconstruction",
        -10.105974402412754
      ],
      [
        "obvious",
        -10.106340957350213
      ],
      [
        "Ġfeature",
        -10.10661456909093
      ],
      [
        "Ġdefense",
        -10.107107369547364
      ],
      [
        "Ġborder",
        -10.107461305951633
      ],
      [
        "Ġroot",
        -10.107912011448196
      ],
      [
        "Ġsound",
        -10.108680608489314
      ],
      [
        "};",
        -10.10892644405503
      ],
      [
        "002",
        -10.109324906191338
      ],
      [
        "Ġdef",
        -10.110365740233917
      ],
      [
        "but",
        -10.110730934041644
      ],
      [
        "Ġhear",
        -10.1113980195137
      ],
      [
        "exactly",
        -10.111572586734468
      ],
      [
        "api",
        -10.111780412940588
      ],
      [
        "box",
        -10.111899046129423
      ],
      [
        "89",
        -10.11255500161294
      ],
      [
        "[^",
        -10.112768437765686
      ],
      [
        "looked",
        -10.112923814995138
      ],
      [
        "Ġjudge",
        -10.11342192936413
      ],
      [
        "Ġbinding",
        -10.113610744588865
      ],
      [
        "}}_",
        -10.114273779851008
      ],
      [
        "Ġemail",
        -10.11492721732268
      ],
      [
        "ur",
        -10.11672581111328
      ],
      [
        "ĠId",
        -10.117661805137118
      ],
      [
        "indicated",
        -10.117724813327952
      ],
      [
        "Ġinfection",
        -10.118086640674685
      ],
      [
        "Ġchanged",
        -10.11825806879502
      ],
      [
        "Ġbuilt",
        -10.118377012611944
      ],
      [
        "|\\",
        -10.118474786288855
      ],
      [
        "content",
        -10.118502088543575
      ],
      [
        "Ġ($",
        -10.118512268483526
      ],
      [
        "Ġsend",
        -10.118824998185826
      ],
      [
        "Ġphone",
        -10.118859898637115
      ],
      [
        "Ġassociation",
        -10.119730920013394
      ],
      [
        "ham",
        -10.120207780871484
      ],
      [
        "83",
        -10.120547696614942
      ],
      [
        "Ġformation",
        -10.120930692815296
      ],
      [
        "ĠDistrict",
        -10.121412330587392
      ],
      [
        "long",
        -10.12178163730225
      ],
      [
        "Ġskin",
        -10.122215700566873
      ],
      [
        "url",
        -10.12267767449097
      ],
      [
        "Ġwall",
        -10.122701463679396
      ],
      [
        "73",
        -10.122827212060786
      ],
      [
        "Ġfeeling",
        -10.123424431265564
      ],
      [
        "Ġmilitary",
        -10.123770873178042
      ],
      [
        "Ġ29",
        -10.124269130642022
      ],
      [
        "Ġcover",
        -10.12460815992713
      ],
      [
        "Ġeye",
        -10.12485221984219
      ],
      [
        "Ġmachine",
        -10.125305854196869
      ],
      [
        "Ġsetting",
        -10.126202990594528
      ],
      [
        "Ġrules",
        -10.126807481233644
      ],
      [
        "Ġtherapy",
        -10.126900039768085
      ],
      [
        "Ġfriend",
        -10.127350411683516
      ],
      [
        "ĠHealth",
        -10.127536638888904
      ],
      [
        "Ġyield",
        -10.128203149102267
      ],
      [
        "Ġheight",
        -10.12835949221716
      ],
      [
        "Ġdefine",
        -10.12853535227403
      ],
      [
        "ĠCenter",
        -10.1286171541877
      ],
      [
        "().",
        -10.128754711773922
      ],
      [
        "are",
        -10.129180421352215
      ],
      [
        "Ġensure",
        -10.129484519232362
      ],
      [
        "Ġbuy",
        -10.1298670960628
      ],
      [
        "79",
        -10.130342710591773
      ],
      [
        "\":\"",
        -10.130484009160751
      ],
      [
        "Ġsubstantial",
        -10.130682845648842
      ],
      [
        "Ġbenefits",
        -10.131190418145884
      ],
      [
        "200",
        -10.13204863479382
      ],
      [
        "Ġfiles",
        -10.132076843600338
      ],
      [
        "Ġparts",
        -10.132335521569864
      ],
      [
        "Ġitems",
        -10.132959685877822
      ],
      [
        "Ġbill",
        -10.133860436597192
      ],
      [
        "start",
        -10.135194147633776
      ],
      [
        "Ġletter",
        -10.13540238055498
      ],
      [
        "nbsp",
        -10.135802332424223
      ],
      [
        "geq",
        -10.135809079601628
      ],
      [
        "Ġvariables",
        -10.13591113171161
      ],
      [
        "Ġzero",
        -10.13605484447927
      ],
      [
        "Ġseven",
        -10.1362358643217
      ],
      [
        "Array",
        -10.136842569414895
      ],
      [
        "Ġmedium",
        -10.138025879759557
      ],
      [
        "*~",
        -10.138660874572476
      ],
      [
        "Ġdevelop",
        -10.13874060699989
      ],
      [
        "Ġscore",
        -10.139649098264975
      ],
      [
        "Ġadministration",
        -10.140701258717458
      ],
      [
        "ĠOctober",
        -10.141161903179968
      ],
      [
        "ĠBe",
        -10.141265699532802
      ],
      [
        "ĠNow",
        -10.142103139144297
      ],
      [
        "Ġinteresting",
        -10.1425494796917
      ],
      [
        "core",
        -10.14291798906557
      ],
      [
        "Ġparents",
        -10.143363775396722
      ],
      [
        "Ġexercise",
        -10.14436305547214
      ],
      [
        "open",
        -10.146502255197417
      ],
      [
        "Ġchoose",
        -10.147107958582282
      ],
      [
        "frak",
        -10.147707058377891
      ],
      [
        "Ġeffort",
        -10.147874556626098
      ],
      [
        "87",
        -10.148960783482057
      ],
      [
        "played",
        -10.149055104612236
      ],
      [
        "Ġbenefit",
        -10.14914941849549
      ],
      [
        "throughout",
        -10.1495160905065
      ],
      [
        "Ġtask",
        -10.149679745188124
      ],
      [
        "Ĭ",
        -10.150290218334796
      ],
      [
        "Ġ\\<",
        -10.150736759257049
      ],
      [
        "ĠSeptember",
        -10.150832826563166
      ],
      [
        "Ġsubsequent",
        -10.150875485287717
      ],
      [
        "ĠHow",
        -10.151770165714264
      ],
      [
        "point",
        -10.151924279563998
      ],
      [
        "Ġinteraction",
        -10.152667976504205
      ],
      [
        "Ġ2008",
        -10.152688809925008
      ],
      [
        "Î±",
        -10.152816593703026
      ],
      [
        "Ġofficial",
        -10.15506958567298
      ],
      [
        "ĠSection",
        -10.155689477007863
      ],
      [
        "Ġaward",
        -10.15612898476758
      ],
      [
        "Ġ31",
        -10.156367283146926
      ],
      [
        "##",
        -10.156395737241787
      ],
      [
        "Ġparticipants",
        -10.157804159319127
      ],
      [
        "ĠSan",
        -10.157922828928449
      ],
      [
        "Ġfunctional",
        -10.157954420057346
      ],
      [
        "Ġprocesses",
        -10.15852884221395
      ],
      [
        "Ġstarting",
        -10.158780616750237
      ],
      [
        "Ġsolid",
        -10.158782583863468
      ],
      [
        "Ġexists",
        -10.15916179212922
      ],
      [
        "Ġmatch",
        -10.159509730100504
      ],
      [
        "Ġnor",
        -10.159904009282252
      ],
      [
        "Ġserve",
        -10.160400450832954
      ],
      [
        "Ġmale",
        -10.160468497571864
      ],
      [
        "ĠOR",
        -10.160522838136355
      ],
      [
        "Ġmaximum",
        -10.160581519563598
      ],
      [
        "Ġplayer",
        -10.161043522189106
      ],
      [
        "ĠObama",
        -10.16127033315084
      ],
      [
        "Each",
        -10.161837466292718
      ],
      [
        "ĠAugust",
        -10.161884891891551
      ],
      [
        ")*(",
        -10.163642433377724
      ],
      [
        "Ġsafety",
        -10.163999273303236
      ],
      [
        ")^",
        -10.16462953115413
      ],
      [
        "head",
        -10.16523858317088
      ],
      [
        "\\].",
        -10.166457814661804
      ],
      [
        "February",
        -10.168079455571087
      ],
      [
        "Ġaspect",
        -10.168450761927131
      ],
      [
        "Not",
        -10.169380040679126
      ],
      [
        ")$.",
        -10.169391231576094
      ],
      [
        "Ġchain",
        -10.169585287910392
      ],
      [
        "Ġreports",
        -10.16970023492397
      ],
      [
        "Ġfear",
        -10.170199306546245
      ],
      [
        "sometimes",
        -10.171023698586524
      ],
      [
        "Ġremove",
        -10.171615808960931
      ],
      [
        "Ġcombination",
        -10.172094643705316
      ],
      [
        "Ġidentify",
        -10.172713581476856
      ],
      [
        "93",
        -10.172909098966295
      ],
      [
        "Ġround",
        -10.17335118782715
      ],
      [
        "revealed",
        -10.17437030804859
      ],
      [
        "wife",
        -10.174459146268765
      ],
      [
        "well",
        -10.174931049339166
      ],
      [
        "71",
        -10.175595177125572
      ],
      [
        "Ġconnected",
        -10.17601420136836
      ],
      [
        "ĠUSA",
        -10.177945275083005
      ],
      [
        "------",
        -10.179025704004085
      ],
      [
        "where",
        -10.179696779036192
      ],
      [
        "Ġnice",
        -10.179768638593709
      ],
      [
        "Ġimmediately",
        -10.180041485319755
      ],
      [
        "Ġwait",
        -10.18007017061942
      ],
      [
        "Ġregular",
        -10.180775114151675
      ],
      [
        "molecules",
        -10.181121200366722
      ],
      [
        "Map",
        -10.181156955117428
      ],
      [
        "red",
        -10.181419839272436
      ],
      [
        "Ġlinear",
        -10.181582965607513
      ],
      [
        "Ġotherwise",
        -10.18201035384222
      ],
      [
        "Color",
        -10.182371874519282
      ],
      [
        "Ġgreen",
        -10.18321024705784
      ],
      [
        "ship",
        -10.18361557937383
      ],
      [
        "Î²",
        -10.183627444186206
      ],
      [
        "Ġmet",
        -10.185471511233272
      ],
      [
        "Ġclosed",
        -10.18636193126817
      ],
      [
        "Ġconsistent",
        -10.186996891498184
      ],
      [
        "Ġconclusion",
        -10.187121773008942
      ],
      [
        "Ġoccur",
        -10.187128859647594
      ],
      [
        "ĠNovember",
        -10.187519650049074
      ],
      [
        "Ġpopular",
        -10.187933564574749
      ],
      [
        "Oh",
        -10.187944458195608
      ],
      [
        "Ġopportunity",
        -10.18797829586954
      ],
      [
        "92",
        -10.189728846815145
      ],
      [
        "Ġ2009",
        -10.190738887108434
      ],
      [
        "91",
        -10.190866599552615
      ],
      [
        "During",
        -10.192342048885797
      ],
      [
        "providing",
        -10.193373528466902
      ],
      [
        "Ġworth",
        -10.194109900724388
      ],
      [
        "Class",
        -10.194175542493408
      ],
      [
        "())",
        -10.194723327313676
      ],
      [
        "Ġapplications",
        -10.194927897421591
      ],
      [
        "Ġresistance",
        -10.195572132224688
      ],
      [
        "[]",
        -10.196018951184683
      ],
      [
        "ĠWashington",
        -10.19608967200244
      ],
      [
        "Ġhands",
        -10.196443341144088
      ],
      [
        "verline",
        -10.196576682933632
      ],
      [
        "Ġmetal",
        -10.196717170822543
      ],
      [
        "attorney",
        -10.19671877778353
      ],
      [
        "Ġsex",
        -10.197119387252226
      ],
      [
        "Ġcon",
        -10.197210668821702
      ],
      [
        "alleged",
        -10.1974567268596
      ],
      [
        "Ġprocedure",
        -10.1983516848456
      ],
      [
        "Ġregions",
        -10.198401229911797
      ],
      [
        "Ġedge",
        -10.198403845464217
      ],
      [
        "level",
        -10.1987779478073
      ],
      [
        "Request",
        -10.19914401651737
      ],
      [
        "Finally",
        -10.199825575519773
      ],
      [
        "Ġvote",
        -10.199826381615832
      ],
      [
        "src",
        -10.20101364545757
      ],
      [
        "Ġlives",
        -10.20104945318334
      ],
      [
        "config",
        -10.201477852882634
      ],
      [
        "prime",
        -10.201842607288476
      ],
      [
        "Ġstrength",
        -10.202947775755948
      ],
      [
        "Ġstock",
        -10.203584487584402
      ],
      [
        "Ġwindow",
        -10.203694311264892
      ],
      [
        "Ġexposure",
        -10.203856431668402
      ],
      [
        "relatively",
        -10.205288357188028
      ],
      [
        "released",
        -10.20556852296887
      ],
      [
        "######",
        -10.206389736965772
      ],
      [
        "Ġdead",
        -10.206421422957623
      ],
      [
        "quickly",
        -10.207124192083311
      ],
      [
        "ĠSchool",
        -10.207843010446709
      ],
      [
        "mail",
        -10.210164894898652
      ],
      [
        "82",
        -10.210382028188931
      ],
      [
        "Ġpick",
        -10.211328498928893
      ],
      [
        "Image",
        -10.211517753806495
      ],
      [
        "Ġandroid",
        -10.211623380596004
      ],
      [
        "count",
        -10.21192971640847
      ],
      [
        "object",
        -10.211933077641849
      ],
      [
        "err",
        -10.212179351534653
      ],
      [
        "Ġmyself",
        -10.212367190917735
      ],
      [
        "statute",
        -10.212385065502229
      ],
      [
        "Ġload",
        -10.21306684336512
      ],
      [
        "Ġelection",
        -10.213297859868463
      ],
      [
        "-------------",
        -10.21564300705102
      ],
      [
        "row",
        -10.216133316577858
      ],
      [
        "port",
        -10.216164484034412
      ],
      [
        "Ġsources",
        -10.216288181097209
      ],
      [
        "Ġbecomes",
        -10.216440135341031
      ],
      [
        "Ġcolumn",
        -10.216510236607231
      ],
      [
        "Ġinterface",
        -10.217649581466713
      ],
      [
        "Ġstd",
        -10.219073631199953
      ],
      [
        "Ġargue",
        -10.219270244215377
      ],
      [
        "Ġdatabase",
        -10.219677689217557
      ],
      [
        "nearly",
        -10.22020989875568
      ],
      [
        "==========",
        -10.221306780125818
      ],
      [
        "Ġgeneration",
        -10.221432918018056
      ],
      [
        "Ġplant",
        -10.22148414520914
      ],
      [
        "Calculate",
        -10.222182731209022
      ],
      [
        "Ġguy",
        -10.222427840228484
      ],
      [
        "Ġreach",
        -10.222713976142598
      ],
      [
        "ever",
        -10.223717927828783
      ],
      [
        "Ġvoice",
        -10.223862814912763
      ],
      [
        "Ġfun",
        -10.224929694861135
      ],
      [
        "specific",
        -10.225538562501178
      ],
      [
        "Ġsave",
        -10.225587260116209
      ],
      [
        "resulting",
        -10.225686919892452
      ],
      [
        "distributed",
        -10.226577785940744
      ],
      [
        "Ġdetected",
        -10.22763272714212
      ],
      [
        "Ġmoved",
        -10.227952624438386
      ],
      [
        "Yes",
        -10.228264227226074
      ],
      [
        "Ġbox",
        -10.228587031817009
      ],
      [
        "nd",
        -10.229394885158696
      ],
      [
        "conducted",
        -10.229481291074366
      ],
      [
        "responsible",
        -10.229521204120967
      ],
      [
        "\",\"",
        -10.230315279501635
      ],
      [
        "Ġhundred",
        -10.230746990699416
      ],
      [
        "Ġroad",
        -10.231018236603436
      ],
      [
        "Ġofficer",
        -10.231193839170007
      ],
      [
        "Ġplaying",
        -10.23163406261532
      ],
      [
        "some",
        -10.2317411643013
      ],
      [
        "Ġselection",
        -10.23187941954265
      ],
      [
        "Ġperfect",
        -10.232330179667272
      ],
      [
        "arrow",
        -10.23249107621464
      ],
      [
        "variety",
        -10.232665711370508
      ],
      [
        "Ġmoving",
        -10.233301281156937
      ],
      [
        "Ġcalculated",
        -10.233625864727152
      ],
      [
        "Ġ2018",
        -10.23370037313306
      ],
      [
        "Event",
        -10.234308997272429
      ],
      [
        "Ġresources",
        -10.234526520761174
      ],
      [
        "$$",
        -10.235256012250446
      ],
      [
        "Ġdaily",
        -10.23555996906697
      ],
      [
        "Ġtesting",
        -10.23563770163884
      ],
      [
        "happened",
        -10.23645495908775
      ],
      [
        "ĠCalifornia",
        -10.236522192424966
      ],
      [
        "approximately",
        -10.236777187011867
      ],
      [
        "Ġfully",
        -10.237070118788075
      ],
      [
        "Ġthinking",
        -10.237485743455574
      ],
      [
        "manner",
        -10.23757759945316
      ],
      [
        "Ġhair",
        -10.23772672904848
      ],
      [
        "Ġyourself",
        -10.237796001600836
      ],
      [
        "Ġmembrane",
        -10.238120477162576
      ],
      [
        "Ġexchange",
        -10.23847989496717
      ],
      [
        "Ġnearest",
        -10.238816496043384
      ],
      [
        "ĠOf",
        -10.23922691391014
      ],
      [
        "Ġchar",
        -10.239536594583306
      ],
      [
        "Ġmaterials",
        -10.239940018360125
      ],
      [
        "Well",
        -10.241242328469264
      ],
      [
        "Ġcycle",
        -10.242349763672884
      ],
      [
        "ĠEuropean",
        -10.24250108135903
      ],
      [
        "limitation",
        -10.242670113672697
      ],
      [
        "Ġchannel",
        -10.243029561549305
      ],
      [
        "Ġdark",
        -10.243109116048831
      ],
      [
        "Ġweb",
        -10.24324589368633
      ],
      [
        "ĠPM",
        -10.243398240328718
      ],
      [
        "Ġready",
        -10.24409768341421
      ],
      [
        "Ġprotect",
        -10.24420727567082
      ],
      [
        "Ġprint",
        -10.244577940556544
      ],
      [
        "col",
        -10.245043757007991
      ],
      [
        "Ġmin",
        -10.24504557957208
      ],
      [
        "Ġsufficient",
        -10.245047444230542
      ],
      [
        "Ġexperimental",
        -10.245664427214145
      ],
      [
        "ĠWar",
        -10.246637001666423
      ],
      [
        "molecular",
        -10.247570445593489
      ],
      [
        "ĠMe",
        -10.247588470565312
      ],
      [
        "Ġmeaning",
        -10.247894654057816
      ],
      [
        "Ġpursu",
        -10.248185258728927
      ],
      [
        "lock",
        -10.24837157349837
      ],
      [
        "ĠPhys",
        -10.248734404006717
      ],
      [
        "Ġexisting",
        -10.248918063038706
      ],
      [
        "Service",
        -10.249648177821868
      ],
      [
        "Ġgovern",
        -10.25024730402594
      ],
      [
        "Ġgrant",
        -10.251735965983626
      ],
      [
        "ner",
        -10.252151395651664
      ],
      [
        "finally",
        -10.252328402328564
      ],
      [
        "Ġ/**",
        -10.252579929600683
      ],
      [
        "arg",
        -10.252585710414486
      ],
      [
        "^{(",
        -10.252870152373626
      ],
      [
        "Ġradio",
        -10.25359701818519
      ],
      [
        "Ġbound",
        -10.254703954387407
      ],
      [
        "scale",
        -10.25504062221968
      ],
      [
        "model",
        -10.255125335839754
      ],
      [
        "Ġreplacement",
        -10.255252517003454
      ],
      [
        "Ġbrief",
        -10.25542316844159
      ],
      [
        "Ġremoved",
        -10.25602376736975
      ],
      [
        "Ġdiscussion",
        -10.256107704233749
      ],
      [
        "Ġcareer",
        -10.256293832241044
      ],
      [
        "ensure",
        -10.256353397008468
      ],
      [
        "worked",
        -10.256570142350428
      ],
      [
        "Time",
        -10.25674202780862
      ],
      [
        "ĠCa",
        -10.257413924917197
      ],
      [
        "Ġrespond",
        -10.257449494750675
      ],
      [
        "Ġfields",
        -10.25753626271804
      ],
      [
        "Ġchallenge",
        -10.258219680660003
      ],
      [
        "Ġmiddle",
        -10.258550434474344
      ],
      [
        "Add",
        -10.258929786675234
      ],
      [
        "Ġwidth",
        -10.259221718076484
      ],
      [
        "page",
        -10.259570491957712
      ],
      [
        "ptr",
        -10.259974265778546
      ],
      [
        "Ġ(**",
        -10.26018488237868
      ],
      [
        "Ġanimals",
        -10.260642546887103
      ],
      [
        "Ġcapacity",
        -10.260670772055288
      ],
      [
        "demonstrated",
        -10.261878087108556
      ],
      [
        "ĠRepublican",
        -10.263123118270316
      ],
      [
        "Ġpiece",
        -10.263980890528732
      ],
      [
        "subset",
        -10.26438286984064
      ],
      [
        "ill",
        -10.265168733144836
      ],
      [
        "See",
        -10.26520417245854
      ],
      [
        "ter",
        -10.26525125246356
      ],
      [
        "Ġstuff",
        -10.26551222505118
      ],
      [
        "create",
        -10.26566093063269
      ],
      [
        "ĠFrom",
        -10.265920303641469
      ],
      [
        "holding",
        -10.26607588453728
      ],
      [
        "appears",
        -10.266459586940991
      ],
      [
        "init",
        -10.26719539781497
      ],
      [
        "ĠWhite",
        -10.26728639564747
      ],
      [
        "Why",
        -10.26825289265266
      ],
      [
        "Ġactions",
        -10.26848586564032
      ],
      [
        "Ġbottom",
        -10.2693982528961
      ],
      [
        "Ġcorrelation",
        -10.269516487770044
      ],
      [
        "Ġreflect",
        -10.26995570645098
      ],
      [
        "Ġdirector",
        -10.271627545815166
      ],
      [
        "}=",
        -10.271924866735723
      ],
      [
        "Ġscreen",
        -10.272184471664476
      ],
      [
        "Ġdebt",
        -10.27249295540376
      ],
      [
        "Ġclean",
        -10.272610494512117
      ],
      [
        "gen",
        -10.27295903962497
      ],
      [
        "Ġbeginning",
        -10.273519364600574
      ],
      [
        "ÂŃ",
        -10.273677399586544
      ],
      [
        "Ġbillion",
        -10.273858944132757
      ],
      [
        "Big",
        -10.273975233232722
      ],
      [
        "Ġfresh",
        -10.274138233544296
      ],
      [
        "Ġdecade",
        -10.274202238466485
      ],
      [
        "efficient",
        -10.274780147066112
      ],
      [
        "gone",
        -10.276972386190652
      ],
      [
        "Ġincome",
        -10.276987721452995
      ],
      [
        "Ġdescription",
        -10.277385787574138
      ],
      [
        "Ġhot",
        -10.277424134376837
      ],
      [
        "date",
        -10.277462416905234
      ],
      [
        "Ġsuggested",
        -10.277725781129858
      ],
      [
        "Ġeight",
        -10.278515158757312
      ],
      [
        "Ġchemical",
        -10.279145010358162
      ],
      [
        "Ġliquid",
        -10.279285059217536
      ],
      [
        "ray",
        -10.279386364990437
      ],
      [
        "Ġstation",
        -10.27947615266386
      ],
      [
        "Ġpetition",
        -10.280262073246789
      ],
      [
        "Ġtruth",
        -10.28059142627866
      ],
      [
        "Ġtraditional",
        -10.280605091465448
      ],
      [
        "Ġsevere",
        -10.281305704314418
      ],
      [
        "Ġupper",
        -10.281541104211598
      ],
      [
        "Ġclient",
        -10.28177842186458
      ],
      [
        "char",
        -10.28189781718509
      ],
      [
        "Ġwish",
        -10.283076768815096
      ],
      [
        "Our",
        -10.283467805843395
      ],
      [
        "fully",
        -10.283474220119254
      ],
      [
        "ĠNULL",
        -10.28416726398243
      ],
      [
        "Ġunits",
        -10.284219436731608
      ],
      [
        "unless",
        -10.284780057480845
      ],
      [
        "ĠBoard",
        -10.285469030817774
      ],
      [
        "Ġcomments",
        -10.285517838735975
      ],
      [
        "Ġsteps",
        -10.286160349355807
      ],
      [
        "ier",
        -10.28626365669974
      ],
      [
        "discussed",
        -10.286943243899852
      ],
      [
        "Ġonto",
        -10.287401816691755
      ],
      [
        "material",
        -10.28926863746918
      ],
      [
        "placed",
        -10.289496853074604
      ],
      [
        "ĠTO",
        -10.289647911568654
      ],
      [
        "Ġpassed",
        -10.289943820979756
      ],
      [
        "Ġten",
        -10.289952993544
      ],
      [
        "main",
        -10.290765343196751
      ],
      [
        "Ġprocessing",
        -10.29083775308469
      ],
      [
        "Ġdetection",
        -10.29085728058973
      ],
      [
        ")$,",
        -10.291751373059792
      ],
      [
        "Ġmagnetic",
        -10.292493271005691
      ],
      [
        "picked",
        -10.293475137149889
      ],
      [
        "Ġdrop",
        -10.293505750206904
      ],
      [
        "Ġpackage",
        -10.29351989587118
      ],
      [
        "Ġobjects",
        -10.293663738057203
      ],
      [
        "]:",
        -10.294365700542302
      ],
      [
        "++",
        -10.29446682500476
      ],
      [
        "Ġgenerate",
        -10.294649332229628
      ],
      [
        "ĠIndia",
        -10.29469688963378
      ],
      [
        "Ġcontain",
        -10.294760642231257
      ],
      [
        "num",
        -10.295147790108617
      ],
      [
        "Ġpoly",
        -10.295279111306334
      ],
      [
        "aware",
        -10.295622116944616
      ],
      [
        "Ġloop",
        -10.295823435860331
      ],
      [
        "Ġnation",
        -10.296099361554754
      ],
      [
        "ĠNa",
        -10.296506527760023
      ],
      [
        "Ġfirm",
        -10.296928889134556
      ],
      [
        "Ġframe",
        -10.297276762942596
      ],
      [
        "pre",
        -10.297661553763575
      ],
      [
        "raised",
        -10.297802843242147
      ],
      [
        "Ġoperator",
        -10.29875936883819
      ],
      [
        "Ġsymptoms",
        -10.299043528302136
      ],
      [
        "Ġinsurance",
        -10.299396130369123
      ],
      [
        "Ġalgorithm",
        -10.299548246900915
      ],
      [
        "stream",
        -10.299733563713204
      ],
      [
        "Ġessential",
        -10.299781148164328
      ],
      [
        "Sigma",
        -10.299927815484793
      ],
      [
        "Ġmaybe",
        -10.300120727152024
      ],
      [
        "\\<",
        -10.300201654414842
      ],
      [
        "older",
        -10.300440568995471
      ],
      [
        "ĠIL",
        -10.300787021705649
      ],
      [
        "Date",
        -10.301380375618496
      ],
      [
        "Ġblue",
        -10.301440868321269
      ],
      [
        "towards",
        -10.301654695473532
      ],
      [
        "Ġhealthy",
        -10.301880581217638
      ],
      [
        "talking",
        -10.30198292918482
      ],
      [
        "Ġshift",
        -10.30203704184266
      ],
      [
        "Model",
        -10.302087139849556
      ],
      [
        "ĠPublic",
        -10.302722488081022
      ],
      [
        "Ġdescribe",
        -10.303148943656096
      ],
      [
        "ĠIN",
        -10.303369858416096
      ],
      [
        "\"})",
        -10.303405884695596
      ],
      [
        "specifically",
        -10.303634741783831
      ],
      [
        "Ġcharacteristics",
        -10.303850508771829
      ],
      [
        "Ġgrow",
        -10.305461621409108
      ],
      [
        "dimensional",
        -10.305543917247771
      ],
      [
        "ĠResearch",
        -10.305816280653875
      ],
      [
        "Ġcriminal",
        -10.306288715019722
      ],
      [
        "Ġerr",
        -10.306575827024549
      ],
      [
        "Ġvariation",
        -10.306756803593968
      ],
      [
        "write",
        -10.306828745969414
      ],
      [
        "Ġspin",
        -10.306889395762694
      ],
      [
        "Ġworkers",
        -10.308374969316969
      ],
      [
        "Ġdiscuss",
        -10.309561720598078
      ],
      [
        "Ġcounter",
        -10.309827328334926
      ],
      [
        "Ġconduct",
        -10.31001692513956
      ],
      [
        "der",
        -10.310082165706731
      ],
      [
        "Phi",
        -10.310832656226346
      ],
      [
        "Ġactivation",
        -10.310894814957724
      ],
      [
        "Ġtests",
        -10.31090284954645
      ],
      [
        "Ġabuse",
        -10.311092715207256
      ],
      [
        "Ġbi",
        -10.311235022888807
      ],
      [
        "ĠIS",
        -10.31226984916354
      ],
      [
        "ward",
        -10.312504212903423
      ],
      [
        "bin",
        -10.313434350723366
      ],
      [
        "Ġcontinuous",
        -10.313693657901169
      ],
      [
        "Ġmuscle",
        -10.313791370782775
      ],
      [
        "Ġexpress",
        -10.314297690467152
      ],
      [
        "appellant",
        -10.314367308764162
      ],
      [
        "typically",
        -10.314545844610898
      ],
      [
        "Ġwonder",
        -10.31525724681896
      ],
      [
        "Ġmeasures",
        -10.315516209441853
      ],
      [
        "Ġproper",
        -10.315543919986796
      ],
      [
        "Message",
        -10.31598265611968
      ],
      [
        "spent",
        -10.31603936009333
      ],
      [
        "Ġweak",
        -10.316091783485966
      ],
      [
        "limits",
        -10.316355202257029
      ],
      [
        "Ġenter",
        -10.317868941200016
      ],
      [
        "Ġgenetic",
        -10.318116058337855
      ],
      [
        "block",
        -10.318228870925724
      ],
      [
        "ĠFig",
        -10.318654247741655
      ],
      [
        "denied",
        -10.318714813501837
      ],
      [
        "res",
        -10.319474317487591
      ],
      [
        "Ġcontinued",
        -10.319618577228864
      ],
      [
        "Ġmodern",
        -10.320905347887225
      ],
      [
        "reached",
        -10.32091166202138
      ],
      [
        "Ġforms",
        -10.321119686444128
      ],
      [
        "ĊĊĠĠĠĠĠĠĠĠĠĠĠ",
        -10.322076334492714
      ],
      [
        "Ġtestimon",
        -10.322429641379138
      ],
      [
        "(),",
        -10.322760099778913
      ],
      [
        "Ġnamed",
        -10.322925122363824
      ],
      [
        "Ġcrime",
        -10.323839302975909
      ],
      [
        "Ġestablish",
        -10.32461652416642
      ],
      [
        "growing",
        -10.32509292911474
      ],
      [
        "ĠEven",
        -10.32517690928196
      ],
      [
        "ĠUK",
        -10.325587717503709
      ],
      [
        "result",
        -10.325631611063752
      ],
      [
        "Once",
        -10.325684435788318
      ],
      [
        "âĪĴ",
        -10.32606187778418
      ],
      [
        "ģ",
        -10.326134595651036
      ],
      [
        "Ġspeak",
        -10.32655966032681
      ],
      [
        "Ġforeign",
        -10.327133486492183
      ],
      [
        "Ġ90",
        -10.327401717317189
      ],
      [
        "func",
        -10.327463048869664
      ],
      [
        "perhaps",
        -10.327905207770828
      ],
      [
        "Ġrapid",
        -10.328499929876948
      ],
      [
        "Ġprofessional",
        -10.329193268762936
      ],
      [
        "despite",
        -10.329368098926654
      ],
      [
        "cell",
        -10.329598678839512
      ],
      [
        "({\\",
        -10.330102080720232
      ],
      [
        "Ġmusic",
        -10.330422307697535
      ],
      [
        "run",
        -10.330473151815813
      ],
      [
        "ten",
        -10.330847329291824
      ],
      [
        "github",
        -10.33087936256019
      ],
      [
        "confirmed",
        -10.332160017678888
      ],
      [
        "Ġhappy",
        -10.332282786555762
      ],
      [
        "optical",
        -10.332629470454505
      ],
      [
        "Ġsurvey",
        -10.332718692885944
      ],
      [
        "Count",
        -10.333911898826797
      ],
      [
        "Ġprotection",
        -10.334630541626993
      ],
      [
        "Ġprograms",
        -10.334677375027706
      ],
      [
        "Code",
        -10.334697814645953
      ],
      [
        "Ġhour",
        -10.334794524885954
      ],
      [
        "Ġconfiguration",
        -10.334827626070387
      ],
      [
        "default",
        -10.335536110511208
      ],
      [
        "Ġswitch",
        -10.337065162295085
      ],
      [
        "Ġtool",
        -10.337866072124324
      ],
      [
        "ĠPark",
        -10.338003487283922
      ],
      [
        "ex",
        -10.338556822923762
      ],
      [
        "ĠOther",
        -10.338712348337056
      ],
      [
        "Ġclub",
        -10.33916076403188
      ],
      [
        "Ġreturned",
        -10.339587316477743
      ],
      [
        "using",
        -10.340154710275634
      ],
      [
        "2015",
        -10.341868792548665
      ],
      [
        "čĊĠĠĠĠĠĠĠĠĠĠĠ",
        -10.342668986222796
      ],
      [
        "ize",
        -10.342693857804743
      ],
      [
        "Ġscience",
        -10.342839017288563
      ],
      [
        "Manager",
        -10.34331184254354
      ],
      [
        "served",
        -10.344093400259268
      ],
      [
        "Ġupdate",
        -10.344340905531402
      ],
      [
        "properly",
        -10.344728942882366
      ],
      [
        "Ġ2007",
        -10.34494590358436
      ],
      [
        "ĠPaul",
        -10.345262910170812
      ],
      [
        "Ġkids",
        -10.345575644393662
      ],
      [
        "Ġcivil",
        -10.346398040994554
      ],
      [
        "First",
        -10.346586113585392
      ],
      [
        "Ġball",
        -10.346654345115272
      ],
      [
        "denote",
        -10.347131344200127
      ],
      [
        "Ġdetect",
        -10.347180315688544
      ],
      [
        "Ġfamilies",
        -10.347185273411574
      ],
      [
        "Ġstudie",
        -10.347407332181277
      ],
      [
        "},\\",
        -10.347571515667816
      ],
      [
        "Ġsurgery",
        -10.347811029992815
      ],
      [
        "Ġstrategy",
        -10.34815690807742
      ],
      [
        "Ġminor",
        -10.348213199152774
      ],
      [
        "------------",
        -10.348649897814855
      ],
      [
        "ists",
        -10.349045499159224
      ],
      [
        "Ġstudent",
        -10.34926547735515
      ],
      [
        "ĠCongress",
        -10.349659460117827
      ],
      [
        "Ġfemale",
        -10.34975485875182
      ],
      [
        "}}(",
        -10.350033615434269
      ],
      [
        "Ġmid",
        -10.350223734725436
      ],
      [
        "Ġexhibit",
        -10.350243418500972
      ],
      [
        "Ġtransport",
        -10.35041659353192
      ],
      [
        "circ",
        -10.350493787644396
      ],
      [
        "Ġnovel",
        -10.3504938956541
      ],
      [
        "xml",
        -10.350780540380988
      ],
      [
        ")**",
        -10.350933096263155
      ],
      [
        "Ġdrugs",
        -10.353528131362353
      ],
      [
        "ver",
        -10.354427006833074
      ],
      [
        "Ġhuge",
        -10.35558623211816
      ],
      [
        "accurate",
        -10.357121290232302
      ],
      [
        "Ġfloor",
        -10.357579448649672
      ],
      [
        "Ġsleep",
        -10.357787598106322
      ],
      [
        "Ġcommunication",
        -10.358056277160076
      ],
      [
        "Ġsuccessful",
        -10.358141470442888
      ],
      [
        "remains",
        -10.35842318771934
      ],
      [
        "ĠEnglish",
        -10.359091409430198
      ],
      [
        "Ġachieve",
        -10.359138861401911
      ],
      [
        "Ġbroad",
        -10.359645317896824
      ],
      [
        "Ġuses",
        -10.360812475091365
      ],
      [
        "ĠInternational",
        -10.361384868723873
      ],
      [
        "\"},",
        -10.361828111726476
      ],
      [
        "Ġ-->",
        -10.362235065697757
      ],
      [
        "Ġitem",
        -10.362291586990985
      ],
      [
        "Ġcore",
        -10.362984502284494
      ],
      [
        "Â»",
        -10.363320837179202
      ],
      [
        "society",
        -10.363707662555074
      ],
      [
        "Ġprofile",
        -10.363967971962984
      ],
      [
        "Ġagent",
        -10.365268624341352
      ],
      [
        "summary",
        -10.366636571803744
      ],
      [
        "ĠMo",
        -10.366653187788454
      ],
      [
        "Ġaccept",
        -10.366825353707648
      ],
      [
        "Ġpurchase",
        -10.367444763484766
      ],
      [
        "Ġprepared",
        -10.368103687762972
      ],
      [
        "circumstances",
        -10.369909286496068
      ],
      [
        "Ġ35",
        -10.370392723373689
      ],
      [
        "Ġinvolve",
        -10.370434781352344
      ],
      [
        "Ġrare",
        -10.370562506104388
      ],
      [
        "lin",
        -10.370647559146356
      ],
      [
        "Supreme",
        -10.37102233277583
      ],
      [
        "Ġstructures",
        -10.371112405115651
      ],
      [
        "Ġofficials",
        -10.371461910296611
      ],
      [
        "Ġdiet",
        -10.371773875003209
      ],
      [
        "ast",
        -10.37223577496686
      ],
      [
        "Ġtree",
        -10.37245170185272
      ],
      [
        "Ġtested",
        -10.372497834451444
      ],
      [
        "tic",
        -10.3725603854219
      ],
      [
        "Ġcombined",
        -10.373156764003411
      ],
      [
        "Ġfight",
        -10.37335725117238
      ],
      [
        "Ġsurvival",
        -10.373641270626637
      ],
      [
        ".](",
        -10.374283785376276
      ],
      [
        "Ġgirl",
        -10.374377172219251
      ],
      [
        "Ġhyper",
        -10.374934613405454
      ],
      [
        ")).",
        -10.37582327214584
      ],
      [
        "Ġdose",
        -10.376552700420524
      ],
      [
        "advantage",
        -10.37665636232947
      ],
      [
        "Ġwatch",
        -10.37696652535828
      ],
      [
        "*]{}",
        -10.377120313017016
      ],
      [
        "after",
        -10.37775483044122
      ],
      [
        "ĠCal",
        -10.37806741905188
      ],
      [
        "Ġdriver",
        -10.378674504626252
      ],
      [
        "Lambda",
        -10.378980331986382
      ],
      [
        "Ġquarter",
        -10.37935111308856
      ],
      [
        "kept",
        -10.379663589955042
      ],
      [
        "ĠGo",
        -10.379788514615454
      ],
      [
        "Ġkilled",
        -10.38010012934253
      ],
      [
        "Ġreceptor",
        -10.381058575388566
      ],
      [
        "can",
        -10.38172206833872
      ],
      [
        "Ġdemonstrate",
        -10.38198477295215
      ],
      [
        "Ġdoubt",
        -10.38220339576124
      ],
      [
        "our",
        -10.38259252190429
      ],
      [
        "Ġtrust",
        -10.382667287036304
      ],
      [
        "âĢ²",
        -10.382851299622056
      ],
      [
        "Ġplans",
        -10.383247418138431
      ],
      [
        "****************",
        -10.38327953212057
      ],
      [
        "Ġconflict",
        -10.383314510121464
      ],
      [
        "Ġplaces",
        -10.383979155421612
      ],
      [
        "Ġscheme",
        -10.384299857478435
      ],
      [
        "Ġminimum",
        -10.38445450604002
      ],
      [
        "Ġpicture",
        -10.384559144067238
      ],
      [
        "Ġcommercial",
        -10.385334513867877
      ],
      [
        "ĠApp",
        -10.385635559453398
      ],
      [
        "čĊč",
        -10.386232062732857
      ],
      [
        "explained",
        -10.386270274288409
      ],
      [
        "Ġbuffer",
        -10.386909306409269
      ],
      [
        "finite",
        -10.387159769255268
      ],
      [
        "Ġcatch",
        -10.387290868285518
      ],
      [
        "lang",
        -10.388145138848822
      ],
      [
        "Ġinteger",
        -10.388305601491332
      ],
      [
        "Î¼",
        -10.388528414482831
      ],
      [
        "Ġ(!",
        -10.38863469947808
      ],
      [
        "izing",
        -10.388964625031267
      ],
      [
        "Ġnuclear",
        -10.389702814125586
      ],
      [
        "\\],",
        -10.389871645746268
      ],
      [
        "matrix",
        -10.390266975864812
      ],
      [
        "Ġpromote",
        -10.390614398821276
      ],
      [
        "absence",
        -10.391057807320568
      ],
      [
        "Monday",
        -10.391223987273904
      ],
      [
        "analyzed",
        -10.391626264563058
      ],
      [
        "Ed",
        -10.39178986368185
      ],
      [
        "Ġfeet",
        -10.39323347129906
      ],
      [
        "Ġresolution",
        -10.394225263949313
      ],
      [
        "Ġconcept",
        -10.39477623205869
      ],
      [
        "quantum",
        -10.394975811837009
      ],
      [
        "Ġsuffer",
        -10.395948786666985
      ],
      [
        "Ġsolutions",
        -10.396006999511822
      ],
      [
        "Ġrow",
        -10.39605310989884
      ],
      [
        "Ġmental",
        -10.396139250444731
      ],
      [
        "intended",
        -10.396719352505556
      ],
      [
        "occurred",
        -10.397065054429646
      ],
      [
        "Ġmentioned",
        -10.397627624345407
      ],
      [
        "uk",
        -10.39766090105632
      ],
      [
        "Ġselect",
        -10.39799906681262
      ],
      [
        "improved",
        -10.398295452449643
      ],
      [
        "Ġextend",
        -10.398749667703626
      ],
      [
        "Ġrelation",
        -10.3989949557048
      ],
      [
        "Ġthrow",
        -10.399563791050303
      ],
      [
        "Ġplus",
        -10.3999667828819
      ],
      [
        "otimes",
        -10.40002528521924
      ],
      [
        "you",
        -10.400275137929524
      ],
      [
        "çļĦ",
        -10.401209473657884
      ],
      [
        "ĠDavid",
        -10.402052964661632
      ],
      [
        "}}}",
        -10.403106875259144
      ],
      [
        "Ġhandle",
        -10.404004351051064
      ],
      [
        "Ġprobability",
        -10.404301218601804
      ],
      [
        "Ġmotor",
        -10.40431973104721
      ],
      [
        "died",
        -10.405088389850308
      ],
      [
        "Ġsuit",
        -10.405190085767698
      ],
      [
        "check",
        -10.405362413361992
      ],
      [
        "Ġcollected",
        -10.405417266017723
      ],
      [
        "either",
        -10.405664435515298
      ],
      [
        "Ġmovie",
        -10.406456538682884
      ],
      [
        "Ġemployees",
        -10.406676020254428
      ],
      [
        "boldsymbol",
        -10.406720387551932
      ],
      [
        "Ġtreat",
        -10.407836238974523
      ],
      [
        "Ġsupply",
        -10.410070835993505
      ],
      [
        "Ġrise",
        -10.410095745491317
      ],
      [
        "guilt",
        -10.410807629899368
      ],
      [
        "Ġexternal",
        -10.411374653974113
      ],
      [
        "/**",
        -10.411553910689904
      ],
      [
        "Ġsubstrate",
        -10.411995486086148
      ],
      [
        "Click",
        -10.41244828833324
      ],
      [
        "Ġdocument",
        -10.412558649882438
      ],
      [
        "Ġscene",
        -10.413214738860637
      ],
      [
        "property",
        -10.413571537475278
      ],
      [
        "Ġaffected",
        -10.41421490936272
      ],
      [
        "order",
        -10.41511668065267
      ],
      [
        "Field",
        -10.415774344333466
      ],
      [
        "Ġintroduced",
        -10.41622038710694
      ],
      [
        "Ġopening",
        -10.416423410904764
      ],
      [
        "false",
        -10.416702637031404
      ],
      [
        "voltage",
        -10.41692259945589
      ],
      [
        "Ġpeak",
        -10.417914270671902
      ],
      [
        "Ġsexual",
        -10.418376549583412
      ],
      [
        "Ġ200",
        -10.419479511302818
      ],
      [
        "existence",
        -10.42028292841077
      ],
      [
        "has",
        -10.420855629251026
      ],
      [
        "Ġsummer",
        -10.42116737996442
      ],
      [
        "height",
        -10.421366487321464
      ],
      [
        "Ġdiagnosis",
        -10.421473873341334
      ],
      [
        "Ġjava",
        -10.42158669062749
      ],
      [
        "Ġclasses",
        -10.422130352061616
      ],
      [
        "Ġnil",
        -10.422517074970232
      ],
      [
        "Ġmurder",
        -10.423180480205517
      ],
      [
        "\"></",
        -10.42329464884075
      ],
      [
        "Ġcaus",
        -10.423446501195851
      ],
      [
        "System",
        -10.424163678022492
      ],
      [
        "Ġinvestment",
        -10.424240831440116
      ],
      [
        "Ġbeautiful",
        -10.42462430910756
      ],
      [
        "Â¶",
        -10.424936853591618
      ],
      [
        "Ġnone",
        -10.42504391356844
      ],
      [
        "kg",
        -10.425412036790926
      ],
      [
        "Ġequivalent",
        -10.426397912039834
      ],
      [
        "Ġoperations",
        -10.426862040162709
      ],
      [
        "Ġestimated",
        -10.42725635566068
      ],
      [
        "User",
        -10.42734686528546
      ],
      [
        "Ġattend",
        -10.427578875027416
      ],
      [
        "Ġbiggest",
        -10.42770739039102
      ],
      [
        "Ġsquare",
        -10.427714869175034
      ],
      [
        "ĠLondon",
        -10.429069994519567
      ],
      [
        "Ġmanager",
        -10.42915919769373
      ],
      [
        "Ġassessment",
        -10.429241669839495
      ],
      [
        "Ġcollege",
        -10.429533864536486
      ],
      [
        "house",
        -10.429583573952094
      ],
      [
        "Ġestimate",
        -10.42993988352807
      ],
      [
        "Ġremaining",
        -10.43038811915809
      ],
      [
        "Ġvirtual",
        -10.431060449883338
      ],
      [
        "Appellant",
        -10.431155848152482
      ],
      [
        "economy",
        -10.431535925341114
      ],
      [
        "Ġwild",
        -10.431898604273814
      ],
      [
        "Ġque",
        -10.432846101787874
      ],
      [
        "vert",
        -10.433062053320157
      ],
      [
        "2016",
        -10.43337834581282
      ],
      [
        "offense",
        -10.4338277487024
      ],
      [
        "Â½",
        -10.433881338961504
      ],
      [
        "Ġtechniques",
        -10.43402269124774
      ],
      [
        "0000",
        -10.434101852467824
      ],
      [
        "Ġband",
        -10.434110699557367
      ],
      [
        "Ġorganization",
        -10.434278636160151
      ],
      [
        "Ġrepresentation",
        -10.434432633256591
      ],
      [
        "Ġparent",
        -10.434911466782092
      ],
      [
        "ĠPat",
        -10.434922871015056
      ],
      [
        "Ġanimal",
        -10.435975822556856
      ],
      [
        "Ġdraw",
        -10.436083373005896
      ],
      [
        "Ġ2006",
        -10.436782327093852
      ],
      [
        "Ġbank",
        -10.437321038853652
      ],
      [
        "Theorem",
        -10.43777947676882
      ],
      [
        "Ġguess",
        -10.437779667661678
      ],
      [
        "message",
        -10.438469054712929
      ],
      [
        "violation",
        -10.439418952909651
      ],
      [
        "ĠGreen",
        -10.439723267194491
      ],
      [
        "Ġstorage",
        -10.439993820885723
      ],
      [
        "covered",
        -10.4406085354405
      ],
      [
        "ĠPlaintiff",
        -10.441075191473765
      ],
      [
        "Ġlinks",
        -10.441321729871737
      ],
      [
        "2014",
        -10.44149632009143
      ],
      [
        "Ġexperiment",
        -10.441934596713365
      ],
      [
        "Ġ70",
        -10.442191256890922
      ],
      [
        "Ġfootball",
        -10.44230611603185
      ],
      [
        "Ġfluid",
        -10.442370948782791
      ],
      [
        "2013",
        -10.44264279617149
      ],
      [
        "Ġsecret",
        -10.443968612096064
      ],
      [
        "CC",
        -10.444454436588254
      ],
      [
        "Ġsets",
        -10.444872478067914
      ],
      [
        "Ġprogress",
        -10.445296200623924
      ],
      [
        "Ġthank",
        -10.445957718155098
      ],
      [
        "ĠMan",
        -10.44595989862163
      ],
      [
        "button",
        -10.446231976983263
      ],
      [
        "Ġrequirements",
        -10.446462968552114
      ],
      [
        "contained",
        -10.446667296528656
      ],
      [
        "Ġextent",
        -10.446811221284808
      ],
      [
        "Ġconventional",
        -10.447009847633112
      ],
      [
        "============",
        -10.447188693324222
      ],
      [
        "Ġpress",
        -10.447627223013344
      ],
      [
        "font",
        -10.447907650835234
      ],
      [
        "IN",
        -10.448062810278802
      ],
      [
        "Group",
        -10.448127257310611
      ],
      [
        "amp",
        -10.448664439355449
      ],
      [
        "Ġfavor",
        -10.4491322992893
      ],
      [
        "cos",
        -10.449562504220552
      ],
      [
        "spectrum",
        -10.449672459565148
      ],
      [
        "ĠIsrael",
        -10.449830991964175
      ],
      [
        "print",
        -10.450139531979858
      ],
      [
        "Ġpredict",
        -10.450765137932292
      ],
      [
        "Ġcurve",
        -10.450976298187932
      ],
      [
        "ĠTV",
        -10.451040397484403
      ],
      [
        "Ġcreating",
        -10.452251510084622
      ],
      [
        "letters",
        -10.452674933648078
      ],
      [
        "Button",
        -10.453159270045315
      ],
      [
        "Ġtouch",
        -10.45327338752506
      ],
      [
        "Ġclick",
        -10.453769640230316
      ],
      [
        "ĠEast",
        -10.454421571165968
      ],
      [
        "Ġauthor",
        -10.454460497852516
      ],
      [
        "Ġblog",
        -10.45531849076159
      ],
      [
        "Ġassay",
        -10.456185983924556
      ],
      [
        "Ġtrack",
        -10.456360944565048
      ],
      [
        "Ġmissing",
        -10.456503112781162
      ],
      [
        "Ġformula",
        -10.456530452515414
      ],
      [
        "Ġconclude",
        -10.45678095598466
      ],
      [
        "Ġ2000",
        -10.456824366629842
      ],
      [
        "Ġplatform",
        -10.45702954871435
      ],
      [
        "reasons",
        -10.457425512378189
      ],
      [
        "Ġmodule",
        -10.457496054176485
      ],
      [
        "OR",
        -10.457784990122867
      ],
      [
        "Ġtechnique",
        -10.45796969599088
      ],
      [
        "Client",
        -10.458582029141208
      ],
      [
        "ĠTexas",
        -10.45971365342107
      ],
      [
        "post",
        -10.45991671766983
      ],
      [
        "que",
        -10.460375224338389
      ],
      [
        "arphi",
        -10.46082568945223
      ],
      [
        "adding",
        -10.461117245680075
      ],
      [
        "util",
        -10.46151930348401
      ],
      [
        "Ġtrip",
        -10.46180510521942
      ],
      [
        "bit",
        -10.46218600935071
      ],
      [
        "typical",
        -10.46236652081136
      ],
      [
        "action",
        -10.462488547536026
      ],
      [
        "charged",
        -10.463604676362968
      ],
      [
        "NO",
        -10.463996271040989
      ],
      [
        "mbox",
        -10.464211940482928
      ],
      [
        "Ġprob",
        -10.464556574530764
      ],
      [
        "ĠInstitute",
        -10.465232958583533
      ],
      [
        "ated",
        -10.465371631660688
      ],
      [
        "ĠMost",
        -10.465911367730794
      ],
      [
        "Ġcalls",
        -10.466309285667316
      ],
      [
        "ĠStreet",
        -10.466718279249427
      ],
      [
        "ĠLi",
        -10.46674854042076
      ],
      [
        "2012",
        -10.466828826448358
      ],
      [
        "slightly",
        -10.466909693942078
      ],
      [
        "driving",
        -10.466954851065516
      ],
      [
        "aid",
        -10.466970405051296
      ],
      [
        "Some",
        -10.467006213161213
      ],
      [
        "tag",
        -10.467108924834028
      ],
      [
        "ĠMa",
        -10.468833871576868
      ],
      [
        "onumber",
        -10.46906492136659
      ],
      [
        "Ġbirth",
        -10.46990206345812
      ],
      [
        "margin",
        -10.46995190916464
      ],
      [
        "dependent",
        -10.470719313255822
      ],
      [
        "Ġgun",
        -10.47126213251475
      ],
      [
        "Ġtools",
        -10.471374455504543
      ],
      [
        "ĠBank",
        -10.471700022165528
      ],
      [
        "kappa",
        -10.4718083951602
      ],
      [
        "Ġauthority",
        -10.472175199053886
      ],
      [
        "exp",
        -10.472320621426402
      ],
      [
        "Ġplate",
        -10.472415533742907
      ],
      [
        "possibility",
        -10.472435617956988
      ],
      [
        "img",
        -10.473612766129884
      ],
      [
        "con",
        -10.47412339035248
      ],
      [
        "Ġraise",
        -10.474696518812292
      ],
      [
        "range",
        -10.47487029461854
      ],
      [
        "Ġjoint",
        -10.474892243503335
      ],
      [
        "Ġcandidate",
        -10.474954488025029
      ],
      [
        "ĠBritish",
        -10.475466422112188
      ],
      [
        "offered",
        -10.47575235092702
      ],
      [
        "ĠRNA",
        -10.476491822139597
      ],
      [
        "NS",
        -10.476980516439388
      ],
      [
        "Ġseek",
        -10.477293266031728
      ],
      [
        "operating",
        -10.477389455918589
      ],
      [
        "ĠEurope",
        -10.477413388584232
      ],
      [
        "referred",
        -10.477974671271358
      ],
      [
        "ĠCommission",
        -10.478059856715612
      ],
      [
        "Ġlargest",
        -10.478204083227016
      ],
      [
        "Ġpathway",
        -10.478982826039667
      ],
      [
        "Ġharm",
        -10.479105337917597
      ],
      [
        "announced",
        -10.479110022437176
      ],
      [
        "Ġexception",
        -10.479395854330354
      ],
      [
        "Ġbalance",
        -10.479429592219113
      ],
      [
        "Ġdelay",
        -10.481007431427573
      ],
      [
        "CD",
        -10.481660703120662
      ],
      [
        "Ġformat",
        -10.482157796826383
      ],
      [
        "han",
        -10.482328938053916
      ],
      [
        "Ġdie",
        -10.482470215968664
      ],
      [
        "Ġpercentage",
        -10.48271565469394
      ],
      [
        "Ġbreast",
        -10.482944881966702
      ],
      [
        "Ġentry",
        -10.483121983338544
      ],
      [
        "Ġ37",
        -10.483251871820366
      ],
      [
        "Ġwarrant",
        -10.483437264724785
      ],
      [
        "Yeah",
        -10.483728427995729
      ],
      [
        "ties",
        -10.484012289842967
      ],
      [
        "Ġpurposes",
        -10.485255113371432
      ],
      [
        "approved",
        -10.485517273715317
      ],
      [
        "ase",
        -10.48552712173409
      ],
      [
        "Ġassess",
        -10.485529101081593
      ],
      [
        "mid",
        -10.485653474515688
      ],
      [
        "ĠHigh",
        -10.48572156416096
      ],
      [
        "Ġimplementation",
        -10.485922547017944
      ],
      [
        "Ġfat",
        -10.486002914210408
      ],
      [
        "Ġsummary",
        -10.486644421689723
      ],
      [
        "ĠYour",
        -10.48681660385182
      ],
      [
        "Ġfoot",
        -10.487316328546695
      ],
      [
        "ĠCan",
        -10.487358393172684
      ],
      [
        "Ġincident",
        -10.48742528664449
      ],
      [
        "ĠFoundation",
        -10.487554410192423
      ],
      [
        "ultimate",
        -10.487953752552508
      ],
      [
        "Ġplane",
        -10.48824456378275
      ],
      [
        "ĠBlack",
        -10.48870256902048
      ],
      [
        "Ġreveal",
        -10.489027151633014
      ],
      [
        "ĠCouncil",
        -10.48915416873354
      ],
      [
        "Ġadvance",
        -10.489298713450138
      ],
      [
        "ĠAM",
        -10.48935866797039
      ],
      [
        "čĊĉ",
        -10.489391155421783
      ],
      [
        "ĠJudge",
        -10.490026845953492
      ],
      [
        "ĠLaw",
        -10.490284665922111
      ],
      [
        "Ġcoverage",
        -10.490685261812104
      ],
      [
        "event",
        -10.49130926145406
      ],
      [
        "Ġvirus",
        -10.491525509649213
      ],
      [
        "Ġarm",
        -10.49205377628664
      ],
      [
        "**)",
        -10.492886754118258
      ],
      [
        "Ġrecords",
        -10.493794944597198
      ],
      [
        "Ġoutcome",
        -10.494631962172972
      ],
      [
        "ÃĹ",
        -10.494835429416066
      ],
      [
        "Ġderived",
        -10.49528262230016
      ],
      [
        "-----------",
        -10.495606069431007
      ],
      [
        "Ġobjective",
        -10.495737456250824
      ],
      [
        "target",
        -10.495943391209371
      ],
      [
        "ĠGet",
        -10.496443393068557
      ],
      [
        "Results",
        -10.497794906388624
      ],
      [
        "determination",
        -10.497818546415
      ],
      [
        "Ġeasi",
        -10.498266611146658
      ],
      [
        "2017",
        -10.498688080206
      ],
      [
        "Response",
        -10.498763657532546
      ],
      [
        "standing",
        -10.499136459041711
      ],
      [
        "ĠFriday",
        -10.499351932749205
      ],
      [
        "Ġcomplaint",
        -10.49942248361998
      ],
      [
        "ĠGoogle",
        -10.499442385724608
      ],
      [
        "Ġcapital",
        -10.499968960532676
      ],
      [
        "Ġmono",
        -10.499985734289218
      ],
      [
        "ĠCode",
        -10.500000896485776
      ],
      [
        "first",
        -10.500690446953218
      ],
      [
        "ard",
        -10.50089755969852
      ],
      [
        "ways",
        -10.500983610150035
      ],
      [
        "Ġthreat",
        -10.501092791953369
      ],
      [
        "Ġsubjects",
        -10.50117569447838
      ],
      [
        "Ġentered",
        -10.501938823597564
      ],
      [
        "Ġsmooth",
        -10.501985365673884
      ],
      [
        "Ġdry",
        -10.502745246399527
      ],
      [
        "ĠChinese",
        -10.502860733654364
      ],
      [
        "004",
        -10.502912339846324
      ],
      [
        "mp",
        -10.503319845824052
      ],
      [
        "Ãł",
        -10.50383932949377
      ],
      [
        "ĠCanada",
        -10.504158834741084
      ],
      [
        "ĠHer",
        -10.504642503490253
      ],
      [
        "Ġlatest",
        -10.50495330079722
      ],
      [
        "ĠNote",
        -10.5051949153603
      ],
      [
        "ĠRed",
        -10.50589103587254
      ],
      [
        "upplementary",
        -10.506079053631304
      ],
      [
        "Ġnoise",
        -10.507002441329726
      ],
      [
        "Ġcontrols",
        -10.507825726909235
      ],
      [
        "Ġcold",
        -10.508224089580208
      ],
      [
        "Ġadult",
        -10.508266027675282
      ],
      [
        "SD",
        -10.509275978420373
      ],
      [
        "Ġdog",
        -10.509445833713434
      ],
      [
        "Ġcontribute",
        -10.509738628671208
      ],
      [
        "$$\\",
        -10.510074877903952
      ],
      [
        "Ġprotected",
        -10.51018775230366
      ],
      [
        "These",
        -10.510674034526536
      ],
      [
        "Ġsales",
        -10.511861595522303
      ],
      [
        "Element",
        -10.512224615330128
      ],
      [
        "Ġrepeated",
        -10.51240803512341
      ],
      [
        "Ġtrain",
        -10.51349783847724
      ],
      [
        "importance",
        -10.51358779535368
      ],
      [
        "Ġdaughter",
        -10.513878630645925
      ],
      [
        "json",
        -10.514560258269848
      ],
      [
        "Ġagency",
        -10.514582289936508
      ],
      [
        "Ġrefer",
        -10.514768453350888
      ],
      [
        "Ġ2005",
        -10.516083955115445
      ],
      [
        "star",
        -10.516241532867154
      ],
      [
        "OUT",
        -10.5163879750451
      ],
      [
        "else",
        -10.51669331373023
      ],
      [
        "Ġenvironmental",
        -10.516913634622748
      ],
      [
        "Ġspend",
        -10.51719390880511
      ],
      [
        "ĠÎ¼",
        -10.518879373770217
      ],
      [
        "ĊĊĠĠĠĠĠ",
        -10.519075122249133
      ],
      [
        "ory",
        -10.519153209071863
      ],
      [
        "Ġspeech",
        -10.519194786992832
      ],
      [
        "changing",
        -10.519435809129162
      ],
      [
        "Ġequipment",
        -10.52029124971017
      ],
      [
        "Ġinterview",
        -10.520487399532769
      ],
      [
        "Ġeventual",
        -10.520635221797704
      ],
      [
        "Page",
        -10.521304631846649
      ],
      [
        "Ġanalyses",
        -10.521477984042097
      ],
      [
        "client",
        -10.521854401287376
      ],
      [
        "ĠUn",
        -10.522039177652818
      ],
      [
        "ĠLe",
        -10.522368127458124
      ],
      [
        "Ġdigit",
        -10.522538722776684
      ],
      [
        "king",
        -10.522818047919486
      ],
      [
        "Ġwants",
        -10.522917620469508
      ],
      [
        "Ġcharacters",
        -10.523357908337095
      ],
      [
        "**]{},",
        -10.523916355305824
      ],
      [
        ".$$",
        -10.524438358662229
      ],
      [
        "Ġagents",
        -10.524513685007076
      ],
      [
        "latter",
        -10.524604136975354
      ],
      [
        "Ġschools",
        -10.525209886271242
      ],
      [
        "Ġelectronic",
        -10.52536637564789
      ],
      [
        "Content",
        -10.525388455514593
      ],
      [
        "Ġvictim",
        -10.525667171647482
      ],
      [
        "Ġarrive",
        -10.526151915432676
      ],
      [
        "Ġdigital",
        -10.52618399107162
      ],
      [
        "Ġvisual",
        -10.526610407574609
      ],
      [
        "null",
        -10.527263960052911
      ],
      [
        "media",
        -10.52733592337332
      ],
      [
        "][",
        -10.528672785628094
      ],
      [
        "ĠCI",
        -10.529180748122648
      ],
      [
        "Ġstable",
        -10.529261528251991
      ],
      [
        "Ġinteractions",
        -10.529721400613145
      ],
      [
        "Ġsell",
        -10.529751309887605
      ],
      [
        "ney",
        -10.52993830349532
      ],
      [
        "Ġcamera",
        -10.530337826258798
      ],
      [
        "Ġcard",
        -10.53093319574732
      ],
      [
        "Ġcomposition",
        -10.531076356331136
      ],
      [
        "Ġfuel",
        -10.53123284929619
      ],
      [
        "ĊĊĠĠĠĠĠĠ",
        -10.53135789855537
      ],
      [
        "Ġdecide",
        -10.531536908993276
      ],
      [
        "non",
        -10.532681521286204
      ],
      [
        "Ġheavy",
        -10.533096369736755
      ],
      [
        "Ġwhatever",
        -10.533253131273373
      ],
      [
        "module",
        -10.533365238806216
      ],
      [
        "ĠJames",
        -10.533664272671974
      ],
      [
        "Ġcorrespond",
        -10.534667805050448
      ],
      [
        "Defendant",
        -10.534692006894174
      ],
      [
        "represented",
        -10.535017022382345
      ],
      [
        "Source",
        -10.53549414080194
      ],
      [
        "Ġevaluation",
        -10.53560623602977
      ],
      [
        "Ġprefer",
        -10.53560755486826
      ],
      [
        "Ġshared",
        -10.535695841018931
      ],
      [
        "appeared",
        -10.535851370481447
      ],
      [
        "nabla",
        -10.536162950877795
      ],
      [
        "Ġkill",
        -10.53693197062783
      ],
      [
        "ĠGroup",
        -10.537018125576756
      ],
      [
        "Ġtransmission",
        -10.537874105121007
      ],
      [
        "ĠSuch",
        -10.538041548349993
      ],
      [
        "Ġvalid",
        -10.538136201912373
      ],
      [
        "';",
        -10.539074497153246
      ],
      [
        "Ġcompleted",
        -10.53914784035638
      ],
      [
        "tab",
        -10.539473048888429
      ],
      [
        "Ġideal",
        -10.539860484882968
      ],
      [
        "ible",
        -10.54002248574288
      ],
      [
        "Ġowner",
        -10.54030632105382
      ],
      [
        "local",
        -10.540779565508128
      ],
      [
        "005",
        -10.540846235740196
      ],
      [
        "Ġchronic",
        -10.540889035873848
      ],
      [
        "Ġliver",
        -10.541125183445324
      ],
      [
        "']",
        -10.541225911435172
      ],
      [
        "MS",
        -10.541231031359818
      ],
      [
        "Ġ+=",
        -10.541437901371346
      ],
      [
        "})$",
        -10.541620898259293
      ],
      [
        "ants",
        -10.54165092775041
      ],
      [
        "2011",
        -10.541923549600252
      ],
      [
        "Thursday",
        -10.541987983095426
      ],
      [
        "Ġidentity",
        -10.542541361547205
      ],
      [
        "Ġhusband",
        -10.542928023721515
      ],
      [
        "format",
        -10.543280079746406
      ],
      [
        "work",
        -10.543935942567868
      ],
      [
        "her",
        -10.543980471922325
      ],
      [
        "context",
        -10.544461559547674
      ],
      [
        "ahead",
        -10.544837223841856
      ],
      [
        "**]{}",
        -10.545057453014453
      ],
      [
        "apache",
        -10.545168653025808
      ],
      [
        "Ġextract",
        -10.54648266756112
      ],
      [
        "ĠIndian",
        -10.546892967047674
      ],
      [
        "request",
        -10.547263744168992
      ],
      [
        "serum",
        -10.547398677557362
      ],
      [
        "Ġseat",
        -10.548531759753416
      ],
      [
        "Ġcool",
        -10.548727458505368
      ],
      [
        "Ġdepartment",
        -10.548928350777633
      ],
      [
        "Ġfilter",
        -10.549446682493164
      ],
      [
        "Ġlose",
        -10.549590179900004
      ],
      [
        "Label",
        -10.550574409982454
      ],
      [
        "Ġpayment",
        -10.550668745120449
      ],
      [
        "Ġsoft",
        -10.551254469450456
      ],
      [
        "current",
        -10.55176204805522
      ],
      [
        "ï¼Į",
        -10.551884493001507
      ],
      [
        "remainder",
        -10.552008145648635
      ],
      [
        "Ġengine",
        -10.552113361533891
      ],
      [
        "conviction",
        -10.552223963485734
      ],
      [
        "status",
        -10.552534250569904
      ],
      [
        "Ġplasma",
        -10.5525650430605
      ],
      [
        "ĠEq",
        -10.552572869733831
      ],
      [
        "Ġmobile",
        -10.552685157002996
      ],
      [
        "128",
        -10.553263688295
      ],
      [
        "2010",
        -10.553728320134825
      ],
      [
        "Ġquick",
        -10.554105101576797
      ],
      [
        "Ġreality",
        -10.5546918894445
      ],
      [
        "Ġjoin",
        -10.554982912709
      ],
      [
        "Ġsuspect",
        -10.556716858879572
      ],
      [
        "extremely",
        -10.556788363858304
      ],
      [
        "Ġepisode",
        -10.557240395776631
      ],
      [
        "Ġpatterns",
        -10.55728928829409
      ],
      [
        "worse",
        -10.558004048253837
      ],
      [
        "300",
        -10.558100919289728
      ],
      [
        "Ġplants",
        -10.558215308017273
      ],
      [
        "ĠSunday",
        -10.558496225181262
      ],
      [
        "Ġ\"[",
        -10.558929460163045
      ],
      [
        "ĠNews",
        -10.559750640244571
      ],
      [
        "Ġnano",
        -10.559935638072504
      ],
      [
        "ĠWestern",
        -10.560040796464344
      ],
      [
        "sensors",
        -10.561111079621588
      ],
      [
        "ĠPeople",
        -10.561354940930238
      ],
      [
        "Ġsecondary",
        -10.561541193783528
      ],
      [
        "Link",
        -10.56187890824633
      ],
      [
        "layout",
        -10.562290687808185
      ],
      [
        "ĠDon",
        -10.562870755442235
      ],
      [
        "employed",
        -10.562991077990327
      ],
      [
        "Ġsalt",
        -10.56358120757443
      ],
      [
        "active",
        -10.563651153534911
      ],
      [
        "directed",
        -10.563684774315732
      ],
      [
        "ĠKing",
        -10.564326986291409
      ],
      [
        "ĠCon",
        -10.564401856179536
      ],
      [
        "receiving",
        -10.565202903896262
      ],
      [
        "ious",
        -10.565393712450636
      ],
      [
        "ative",
        -10.566333891325309
      ],
      [
        "Ġannual",
        -10.566566053881894
      ],
      [
        "Ġ48",
        -10.567009946352147
      ],
      [
        "small",
        -10.5670364574609
      ],
      [
        "interested",
        -10.567813489067468
      ],
      [
        "Ġspot",
        -10.568167074100996
      ],
      [
        "Ġcontrolled",
        -10.568420315432798
      ],
      [
        "Ġteams",
        -10.568486378247936
      ],
      [
        "ating",
        -10.568638960897871
      ],
      [
        "leaving",
        -10.569159708402925
      ],
      [
        "AS",
        -10.569887643354
      ],
      [
        "Ġstars",
        -10.569981322416815
      ],
      [
        "Result",
        -10.570629568867446
      ],
      [
        "Ġprojects",
        -10.570902999703112
      ],
      [
        "zeta",
        -10.571027645428591
      ],
      [
        "server",
        -10.571067496741314
      ],
      [
        "belief",
        -10.57111428752296
      ],
      [
        "Ġmeasurements",
        -10.571443357808564
      ],
      [
        "Ġliterature",
        -10.57175433517874
      ],
      [
        "Ġsrc",
        -10.572347067823817
      ],
      [
        "Don",
        -10.572812519239244
      ],
      [
        "Int",
        -10.573370651440737
      ],
      [
        "Ġchurch",
        -10.573841182304138
      ],
      [
        "defendants",
        -10.57400501160358
      ],
      [
        "2018",
        -10.57484060600917
      ],
      [
        "Ġgap",
        -10.57519753216488
      ],
      [
        "examined",
        -10.575212822029323
      ],
      [
        "sensitivity",
        -10.575702996804996
      ],
      [
        "developing",
        -10.575869575859564
      ],
      [
        "Ġprotocol",
        -10.576526464808614
      ],
      [
        "assumption",
        -10.577293228549417
      ],
      [
        "Ġinstall",
        -10.578751691674611
      ],
      [
        "}}_{",
        -10.578983515720978
      ],
      [
        "SM",
        -10.579572499470478
      ],
      [
        "Ġmouse",
        -10.5802254853005
      ],
      [
        "Number",
        -10.5805232987491
      ],
      [
        "Ġsit",
        -10.580860441572778
      ],
      [
        "Ġcompare",
        -10.58124034082148
      ],
      [
        "ber",
        -10.58146344829675
      ],
      [
        "Ġleader",
        -10.58146863398441
      ],
      [
        "Ġbool",
        -10.581605406111928
      ],
      [
        "eat",
        -10.581624049248465
      ],
      [
        "wood",
        -10.581704208215148
      ],
      [
        "mixture",
        -10.58172635038145
      ],
      [
        "US",
        -10.58175271433927
      ],
      [
        "burden",
        -10.582138421899154
      ],
      [
        "capable",
        -10.583169933921829
      ],
      [
        "last",
        -10.583719421841709
      ],
      [
        "android",
        -10.584337864337783
      ],
      [
        "ĠCommittee",
        -10.584972621389358
      ],
      [
        ")=\\",
        -10.585830299323645
      ],
      [
        "ĠBoth",
        -10.585918065515427
      ],
      [
        "ĠSmith",
        -10.586165483468813
      ],
      [
        "precise",
        -10.586951562739047
      ],
      [
        "Ġangle",
        -10.587144672678187
      ],
      [
        "Ġdeliver",
        -10.587743097864312
      ],
      [
        "Ġlung",
        -10.58838006963608
      ],
      [
        "ĠCompany",
        -10.588960560167758
      ],
      [
        "Ġpermit",
        -10.589043499541138
      ],
      [
        "Ġalcohol",
        -10.5893503783802
      ],
      [
        "Input",
        -10.58978709932392
      ],
      [
        "powerful",
        -10.589930990287414
      ],
      [
        "Ġpure",
        -10.590161432812684
      ],
      [
        "ung",
        -10.590801811663038
      ],
      [
        "Ġaccus",
        -10.590829892193844
      ],
      [
        "Ġstraight",
        -10.590912358698162
      ],
      [
        "2000",
        -10.591274505741405
      ],
      [
        "Ġfaith",
        -10.591591602026474
      ],
      [
        "${{\\",
        -10.592511277928509
      ],
      [
        "Ġleaders",
        -10.592617659623995
      ],
      [
        "400",
        -10.593052262706353
      ],
      [
        "Ġnames",
        -10.593151388473451
      ],
      [
        "Base",
        -10.593338595008664
      ],
      [
        "ĠPa",
        -10.59343302540668
      ],
      [
        "Ġlicense",
        -10.593708983986426
      ],
      [
        "Ġorg",
        -10.593774799504324
      ],
      [
        "parent",
        -10.594165365647871
      ],
      [
        "duty",
        -10.594607530574182
      ],
      [
        "google",
        -10.594883532838622
      ],
      [
        "Ġneuro",
        -10.595475204575964
      ],
      [
        "ĠTwo",
        -10.595795764370967
      ],
      [
        "Ġsequences",
        -10.595907364086624
      ],
      [
        "Ġfish",
        -10.596073806189525
      ],
      [
        "ĠMichael",
        -10.596432850703064
      ],
      [
        "Ġappearance",
        -10.597111964240764
      ],
      [
        "Ġexact",
        -10.5971651384301
      ],
      [
        "Ġcustom",
        -10.597310884063418
      ],
      [
        "Ġspread",
        -10.59732374918318
      ],
      [
[...]
