{
  "version": "1.0",
  "truncation": null,
  "padding": null,
  "added_tokens": [
    {
      "id": 0,
      "content": "<|endoftext|>",
      "single_word": false,
      "lstrip": false,
      "rstrip": false,
      "normalized": false,
      "special": true
    },
    {
      "id": 1,
      "content": "<UNK>",
      "single_word": false,
      "lstrip": false,
      "rstrip": false,
      "normalized": false,
      "special": true
    }
  ],
  "normalizer": null,
  "pre_tokenizer": {
    "type": "ByteLevel",
    "add_prefix_space": true,
    "trim_offsets": true,
    "use_regex": true
  },
  "post_processor": null,
  "decoder": null,
  "model": {
    "type": "WordPiece",
    "unk_token": "<UNK>",
    "continuing_subword_prefix": "##",
    "max_input_chars_per_word": 100,
    "vocab": {
      "<|endoftext|>": 0,
      "<UNK>": 1,
      "!": 2,
      "\"": 3,
      "#": 4,
      "$": 5,
      "%": 6,
      "&": 7,
      "'": 8,
      "(": 9,
      ")": 10,
      "*": 11,
      "+": 12,
      ",": 13,
      "-": 14,
      ".": 15,
      "/": 16,
      "0": 17,
      "1": 18,
      "2": 19,
      "3": 20,
      "4": 21,
      "5": 22,
      "6": 23,
      "7": 24,
      "8": 25,
      "9": 26,
      ":": 27,
      ";": 28,
      "<": 29,
      "=": 30,
      ">": 31,
      "?": 32,
      "@": 33,
      "A": 34,
      "B": 35,
      "C": 36,
      "D": 37,
      "E": 38,
      "F": 39,
      "G": 40,
      "H": 41,
      "I": 42,
      "J": 43,
      "K": 44,
      "L": 45,
      "M": 46,
      "N": 47,
      "O": 48,
      "P": 49,
      "Q": 50,
      "R": 51,
      "S": 52,
      "T": 53,
      "U": 54,
      "V": 55,
      "W": 56,
      "X": 57,
      "Y": 58,
      "Z": 59,
      "[": 60,
      "\\": 61,
      "]": 62,
      "^": 63,
      "_": 64,
      "`": 65,
      "a": 66,
      "b": 67,
      "c": 68,
      "d": 69,
      "e": 70,
      "f": 71,
      "g": 72,
      "h": 73,
      "i": 74,
      "j": 75,
      "k": 76,
      "l": 77,
      "m": 78,
      "n": 79,
      "o": 80,
      "p": 81,
      "q": 82,
      "r": 83,
      "s": 84,
      "t": 85,
      "u": 86,
      "v": 87,
      "w": 88,
      "x": 89,
      "y": 90,
      "z": 91,
      "{": 92,
      "|": 93,
      "}": 94,
      "~": 95,
      "¡": 96,
      "¢": 97,
      "£": 98,
      "¤": 99,
      "¥": 100,
      "¦": 101,
      "§": 102,
      "¨": 103,
      "©": 104,
      "ª": 105,
      "«": 106,
      "¬": 107,
      "®": 108,
      "¯": 109,
      "°": 110,
      "±": 111,
      "²": 112,
      "³": 113,
      "´": 114,
      "µ": 115,
      "¶": 116,
      "·": 117,
      "¸": 118,
      "¹": 119,
      "º": 120,
      "»": 121,
      "¼": 122,
      "½": 123,
      "¾": 124,
      "¿": 125,
      "À": 126,
      "Á": 127,
      "Â": 128,
      "Ã": 129,
      "Ä": 130,
      "Å": 131,
      "Æ": 132,
      "Ç": 133,
      "È": 134,
      "É": 135,
      "Ê": 136,
      "Ë": 137,
      "Ì": 138,
      "Í": 139,
      "Î": 140,
      "Ï": 141,
      "Ð": 142,
      "Ñ": 143,
      "Ò": 144,
      "Ó": 145,
      "Ô": 146,
      "Õ": 147,
      "Ö": 148,
      "×": 149,
      "Ø": 150,
      "Ù": 151,
      "Ú": 152,
      "Û": 153,
      "Ü": 154,
      "Ý": 155,
      "Þ": 156,
      "ß": 157,
      "à": 158,
      "á": 159,
      "â": 160,
      "ã": 161,
      "ä": 162,
      "å": 163,
      "æ": 164,
      "ç": 165,
      "è": 166,
      "é": 167,
      "ê": 168,
      "ë": 169,
      "ì": 170,
      "í": 171,
      "î": 172,
      "ï": 173,
      "ð": 174,
      "ñ": 175,
      "ò": 176,
      "ó": 177,
      "ô": 178,
      "õ": 179,
      "ö": 180,
      "÷": 181,
      "ø": 182,
      "ù": 183,
      "ú": 184,
      "û": 185,
      "ü": 186,
      "ý": 187,
      "þ": 188,
      "ÿ": 189,
      "Ā": 190,
      "ā": 191,
      "Ă": 192,
      "ă": 193,
      "Ą": 194,
      "ą": 195,
      "Ć": 196,
      "ć": 197,
      "Ĉ": 198,
      "ĉ": 199,
      "Ċ": 200,
      "ċ": 201,
      "Č": 202,
      "č": 203,
      "Ď": 204,
      "ď": 205,
      "Đ": 206,
      "đ": 207,
      "Ē": 208,
      "ē": 209,
      "Ĕ": 210,
      "ĕ": 211,
      "Ė": 212,
      "ė": 213,
      "Ę": 214,
      "ę": 215,
      "Ě": 216,
      "ě": 217,
      "Ĝ": 218,
      "ĝ": 219,
      "Ğ": 220,
      "ğ": 221,
      "Ġ": 222,
      "ġ": 223,
      "Ģ": 224,
      "ģ": 225,
      "Ĥ": 226,
      "ĥ": 227,
      "Ħ": 228,
      "ħ": 229,
      "Ĩ": 230,
      "ĩ": 231,
      "Ī": 232,
      "ī": 233,
      "Ĭ": 234,
      "ĭ": 235,
      "Į": 236,
      "į": 237,
      "İ": 238,
      "ı": 239,
      "Ĳ": 240,
      "ĳ": 241,
      "Ĵ": 242,
      "ĵ": 243,
      "Ķ": 244,
      "ķ": 245,
      "ĸ": 246,
      "Ĺ": 247,
      "ĺ": 248,
      "Ļ": 249,
      "ļ": 250,
      "Ľ": 251,
      "ľ": 252,
      "Ŀ": 253,
      "ŀ": 254,
      "Ł": 255,
      "ł": 256,
      "Ń": 257,
      "##5": 258,
      "##2": 259,
      "##0": 260,
      "##3": 261,
      "##9": 262,
      "##7": 263,
      "##1": 264,
      "##D": 265,
      "##i": 266,
      "##f": 267,
      "##U": 268,
      "##t": 269,
      "##l": 270,
      "##s": 271,
      "##C": 272,
      "##a": 273,
      "##n": 274,
      "##p": 275,
      "##u": 276,
      "##R": 277,
      "##e": 278,
      "##c": 279,
      "##G": 280,
      "##m": 281,
      "##o": 282,
      "##r": 283,
      "##T": 284,
      "##Ð": 285,
      "##³": 286,
      "##»": 287,
      "##Ñ": 288,
      "##ĥ": 289,
      "##±": 290,
      "##¸": 291,
      "##½": 292,
      "##¾": 293,
      "##¹": 294,
      "##V": 295,
      "##b": 296,
      "##É": 297,
      "##Ļ": 298,
      "##{": 299,
      "##.": 300,
      "##}": 301,
      "##\\": 302,
      "##|": 303,
      "##)": 304,
      "##$": 305,
      "##d": 306,
      "##I": 307,
      "##g": 308,
      "##L": 309,
      "##A": 310,
      "##B": 311,
      "##E": 312,
      "##O": 313,
      "##H": 314,
      "##Ã": 315,
      "##£": 316,
      "##©": 317,
      "##x": 318,
      "##F": 319,
      "##y": 320,
      "##w": 321,
      "##8": 322,
      "##6": 323,
      "##4": 324,
      "##S": 325,
      "##v": 326,
      "##z": 327,
      "##'": 328,
      "##P": 329,
      "##h": 330,
      "##N": 331,
      "##¤": 332,
      "##ĸ": 333,
      "##å": 334,
      "##ĳ": 335,
      "##¨": 336,
      "##è": 337,
      "##¡": 338,
      "##Ģ": 339,
      "##æ": 340,
      "##¶": 341,
      "##Ĥ": 342,
      "##ç": 343,
      "##ī": 344,
      "##ĩ": 345,
      "##ı": 346,
      "##¯": 347,
      "##§": 348,
      "##ģ": 349,
      "##é": 350,
      "##Ŀ": 351,
      "##¢": 352,
      "##j": 353,
      "##Ł": 354,
      "##Ĳ": 355,
      "##ð": 356,
      "##k": 357,
      "##ĺ": 358,
      "##ä": 359,
      "##Ń": 360,
      "##ľ": 361,
      "##¿": 362,
      "##ĭ": 363,
      "##¼": 364,
      "##ħ": 365,
      "##į": 366,
      "##M": 367,
      "##W": 368,
      "##J": 369,
      "##°": 370,
      "##X": 371,
      "##+": 372,
      "##[": 373,
      "##Y": 374,
      "##*": 375,
      "##]": 376,
      "##K": 377,
      "##«": 378,
      "##ª": 379,
      "##ã": 380,
      "##®": 381,
      "##Ľ": 382,
      "##Ĵ": 383,
      "##Ĺ": 384,
      "##¦": 385,
      "##µ": 386,
      "##Ī": 387,
      "##Q": 388,
      "##·": 389,
      "##²": 390,
      "##q": 391,
      "##Z": 392,
      "##Ġ": 393,
      "##ł": 394,
      "##¥": 395,
      "##İ": 396,
      "##´": 397,
      "##¬": 398,
      "##Ø": 399,
      "##Ù": 400,
      "##Ħ": 401,
      "##Į": 402,
      "##Â": 403,
      "##-": 404,
      "##;": 405,
      "##:": 406,
      "##=": 407,
      "##ê": 408,
      "##ë": 409,
      "##ĵ": 410,
      "##ì": 411,
      "##^": 412,
      "##,": 413,
      "##<": 414,
      "###": 415,
      "##Ä": 416,
      "##Ċ": 417,
      "##ķ": 418,
      "##&": 419,
      "##º": 420,
      "##ļ": 421,
      "##Ĩ": 422,
      "##!": 423,
      "##?": 424,
      "##/": 425,
      "##\"": 426,
      "##á": 427,
      "##Ķ": 428,
      "##Î": 429,
      "##Ĭ": 430,
      "##ŀ": 431,
      "##_": 432,
      "##Å": 433,
      "##č": 434,
      "##(": 435,
      "##â": 436,
      "##Ï": 437,
      "##×": 438,
      "##à": 439,
      "##~": 440,
      "##>": 441,
      "##@": 442,
      "##%": 443,
      "##Ĕ": 444,
      "##ē": 445,
      "##ă": 446,
      "##í": 447,
      "##ĉ": 448,
      "##ě": 449,
      "##ď": 450,
      "##Ĝ": 451,
      "##ï": 452,
      "##Ò": 453,
      "##Ê": 454,
      "##Ö": 455,
      "##È": 456,
      "##Û": 457,
      "##`": 458,
      "##Ú": 459,
      "##î": 460,
      "##Ó": 461,
      "##Æ": 462,
      "##Ü": 463,
      "##ę": 464,
      "##đ": 465,
      "##Ė": 466,
      "##ė": 467,
      "##ĕ": 468,
      "##Đ": 469,
      "##Ę": 470,
      "##Ì": 471,
      "##Ç": 472,
      "##ß": 473,
      "##Ď": 474,
      "##Ë": 475,
      "##Õ": 476,
      "##Ē": 477,
      "##Ě": 478,
      "##ą": 479,
      "##ć": 480,
      "##Ô": 481,
      "##Í": 482,
      "##Þ": 483,
      "##ó": 484,
      "##Č": 485,
      "##ġ": 486,
      "##Ā": 487,
      "##ĝ": 488,
      "##ô": 489,
      "##Ğ": 490,
      "##ā": 491,
      "##Ă": 492,
      "##Ą": 493,
      "##Ć": 494,
      "##Ĉ": 495,
      "##ċ": 496,
      "##ğ": 497,
      "##Ý": 498,
      "##ĠĠ": 499,
      "Ġt": 500,
      "Ġa": 501,
      "##in": 502,
      "##he": 503,
      "##re": 504,
      "##on": 505,
      "##ĠĠĠĠ": 506,
      "Ġthe": 507,
      "##er": 508,
      "##at": 509,
      "Ġs": 510,
      "Ġo": 511,
      "##en": 512,
      "Ġc": 513,
      "Ġw": 514,
      "##is": 515,
      "##it": 516,
      "##or": 517,
      "##es": 518,
      "##ed": 519,
      "##nd": 520,
      "##al": 521,
      "Ġp": 522,
      "Ġf": 523,
      "Ġb": 524,
      "##ing": 525,
      "##an": 526,
      "Ġin": 527,
      "Ġof": 528,
      "##ar": 529,
      "##ion": 530,
      "##ou": 531,
      "Ġm": 532,
      "Ġd": 533,
      "##ic": 534,
      "Ġto": 535,
      "##--": 536,
      "##le": 537,
      "Ġand": 538,
      "##as": 539,
      "##ĠĠĠĠĠĠĠĠ": 540,
      "##ro": 541,
      "Ġth": 542,
      "Ġh": 543,
      "##ent": 544,
      "##ct": 545,
      "##et": 546,
      "Ġre": 547,
      "Ġn": 548,
      "##el": 549,
      "##om": 550,
      "##il": 551,
      "##st": 552,
      "Ġe": 553,
      "Ġl": 554,
      "##id": 555,
      "##ot": 556,
      "##ig": 557,
      "##ut": 558,
      "Ġis": 559,
      "##im": 560,
      "##ve": 561,
      "Ġg": 562,
      "Ġ(": 563,
      "ĠT": 564,
      "##----": 565,
      "##ol": 566,
      "ĠI": 567,
      "##am": 568,
      "##ation": 569,
      "##ce": 570,
      "##ly": 571,
      "Ġfor": 572,
      "##ur": 573,
      "##se": 574,
      "Ġbe": 575,
      "ĠS": 576,
      "##ow": 577,
      "##ĠĠĠ": 578,
      "Ġthat": 579,
      "Ġu": 580,
      "##ra": 581,
      "Ġon": 582,
      "ĠA": 583,
      "ĠC": 584,
      "Ġst": 585,
      "##ver": 586,
      "##ith": 587,
      "##ul": 588,
      "##ch": 589,
      "Ġ1": 590,
      "##ay": 591,
      "##if": 592,
      "##ad": 593,
      "Ġcon": 594,
      "Ġwith": 595,
      "Ġy": 596,
      "##ĠĠĠĠĠĠĠĠĠĠĠĠĠĠĠĠ": 597,
      "Ġan": 598,
      "Ġas": 599,
      "##ir": 600,
      "##od": 601,
      "##ter": 602,
      "Ġpro": 603,
      "âĢ": 604,
      "Ġ\"": 605,
      "##ate": 606,
      "Ġ$": 607,
      "Ġit": 608,
      "##her": 609,
      "##um": 610,
      "ĠM": 611,
      "Ġal": 612,
      "##pe": 613,
      "Ġwe": 614,
      "##ri": 615,
      "##ab": 616,
      "Ġv": 617,
      "##ag": 618,
      "Ġwh": 619,
      "##em": 620,
      "Ġ2": 621,
      "ĠP": 622,
      "##==": 623,
      "##pp": 624,
      "Ġyou": 625,
      "##res": 626,
      "Ġde": 627,
      "##qu": 628,
      "##ac": 629,
      "Ġex": 630,
      "##est": 631,
      "ĠThe": 632,
      "##ist": 633,
      "##nt": 634,
      "Ġwas": 635,
      "##os": 636,
      "ĠB": 637,
      "Ġ\\": 638,
      "Ġhe": 639,
      "Ġor": 640,
      "Ġcom": 641,
      "##ant": 642,
      "##--------": 643,
      "Ġsu": 644,
      "Ġare": 645,
      "##ment": 646,
      "##ers": 647,
      "Ġat": 648,
      "##igh": 649,
      "##oc": 650,
      "##00": 651,
      "##us": 652,
      "##iv": 653,
      "Ġha": 654,
      "Ġ=": 655,
      "##ity": 656,
      "##ess": 657,
      "##ain": 658,
      "ĠH": 659,
      "ĠF": 660,
      "##ect": 661,
      "Ġby": 662,
      "##ld": 663,
      "ĠD": 664,
      "##ill": 665,
      "##ore": 666,
      "##rom": 667,
      "##ort": 668,
      "ĠW": 669,
      "Ġnot": 670,
      "Ġse": 671,
      "Ġ-": 672,
      "Ġr": 673,
      "ĠR": 674,
      "##pt": 675,
      "##ive": 676,
      "##un": 677,
      "##ke": 678,
      "ĠL": 679,
      "##op": 680,
      "Ġne": 681,
      "Ġthis": 682,
      "ĠN": 683,
      "##art": 684,
      "##ĠĠĠĠĠĠĠ": 685,
      "Ġ*": 686,
      "##end": 687,
      "Ġfrom": 688,
      "##ight": 689,
      "##âĢ": 690,
      "âĢĻ": 691,
      "##ud": 692,
      "##red": 693,
      "Ġsh": 694,
      "##ial": 695,
      "##ies": 696,
      "##ell": 697,
      "##ction": 698,
      "ĠG": 699,
      "Ġch": 700,
      "##th": 701,
      "##pl": 702,
      "Ġhave": 703,
      "##ated": 704,
      "ĠE": 705,
      "##ef": 706,
      "##ure": 707,
      "'s": 708,
      "##ould": 709,
      "##ine": 710,
      "##our": 711,
      "##and": 712,
      "Ġle": 713,
      "Ġ0": 714,
      "##per": 715,
      "##all": 716,
      "##og": 717,
      "##ust": 718,
      "##ge": 719,
      "##ical": 720,
      "Ġcan": 721,
      "##ue": 722,
      "##ame": 723,
      "##ff": 724,
      "##iz": 725,
      "ĠO": 726,
      "Ġ{": 727,
      "##ich": 728,
      "ĊĠĠĠ": 729,
      "##rou": 730,
      "##age": 731,
      "Ġ3": 732,
      "##ib": 733,
      "Ġint": 734,
      "##ard": 735,
      "Ġus": 736,
      "##able": 737,
      "Ġres": 738,
      "##ase": 739,
      "Ġcl": 740,
      "Ġwhe": 741,
      "Ġab": 742,
      "##ath": 743,
      "##out": 744,
      "Ġj": 745,
      "##ack": 746,
      "##ult": 747,
      "##ost": 748,
      "Ġcont": 749,
      "##ome": 750,
      "##ther": 751,
      "Ġk": 752,
      "##ans": 753,
      "Ġpl": 754,
      "Ġcomp": 755,
      "##ide": 756,
      "##act": 757,
      "##ast": 758,
      "Ġad": 759,
      "##====": 760,
      "##ie": 761,
      "Ġme": 762,
      "##ass": 763,
      "=\"": 764,
      "Ġwere": 765,
      "ĠâĢ": 766,
      "##orm": 767,
      "ĊĊ": 768,
      "Ġim": 769,
      "##gh": 770,
      "Ġall": 771,
      "ĠJ": 772,
      "The": 773,
      "##**": 774,
      "##ign": 775,
      "##ere": 776,
      "ĠU": 777,
      "Ġ[": 778,
      "Ġdo": 779,
      "##ub": 780,
      "##cl": 781,
      ".\"": 782,
      "##ition": 783,
      "ĊĠĠĠĠĠĠĠĠ": 784,
      "##ak": 785,
      "##ip": 786,
      "Ġwhich": 787,
      "##cc": 788,
      "Ġhas": 789,
      "##ice": 790,
      "##ap": 791,
      "Ġ+": 792,
      "##ĠĠĠĠĠĠĠĠĠĠĠĠĠĠĠĠĠĠĠĠĠĠĠĠĠĠĠĠĠĠĠĠ": 793,
      "##ary": 794,
      "##ous": 795,
      "##du": 796,
      "##{\\": 797,
      "Ġbut": 798,
      "Ġtr": 799,
      "##ime": 800,
      "ĠIn": 801,
      "##one": 802,
      "##ĉĉ": 803,
      "##ind": 804,
      "##01": 805,
      "Ġdis": 806,
      "##are": 807,
      "##ens": 808,
      "##ress": 809,
      "##ong": 810,
      "##----------------": 811,
      "##ence": 812,
      "##ations": 813,
      "Ġ4": 814,
      "Ġwill": 815,
      "Ġwor": 816,
      "##ile": 817,
      ").": 818,
      "ĊĠĠĠĠĠĠĠ": 819,
      "##ok": 820,
      "Ġgo": 821,
      "##ex": 822,
      "Ġ<": 823,
      "##ru": 824,
      "Ġout": 825,
      "##ents": 826,
      "##ep": 827,
      "##ose": 828,
      "##ance": 829,
      "##ions": 830,
      "##ph": 831,
      "Ġif": 832,
      "Ġper": 833,
      "**": 834,
      "Ġen": 835,
      "Ġun": 836,
      "##ally": 837,
      "ĠTh": 838,
      "##au": 839,
      "##av": 840,
      "##ber": 841,
      "Ġ5": 842,
      "in": 843,
      "ĊĠ": 844,
      "##..": 845,
      "Ġhis": 846,
      "##ace": 847,
      "Ġone": 848,
      "##ear": 849,
      "##ely": 850,
      "##ia": 851,
      "##so": 852,
      "Ġthey": 853,
      "##int": 854,
      "##ory": 855,
      "##ype": 856,
      "##ire": 857,
      "##port": 858,
      "##ach": 859,
      "##//": 860,
      "Ġapp": 861,
      "Ġev": 862,
      "Ġso": 863,
      "##ec": 864,
      "##ord": 865,
      "##ond": 866,
      "##ang": 867,
      "##ry": 868,
      "##iff": 869,
      "Ġup": 870,
      "Ġqu": 871,
      "ĠSt": 872,
      "##lic": 873,
      "Ġar": 874,
      "Âł": 875,
      "##ll": 876,
      "Ġtheir": 877,
      "Ġmore": 878,
      "Ġpart": 879,
      "##ys": 880,
      "##ail": 881,
      "ĠK": 882,
      "_{": 883,
      "##ors": 884,
      "Ġthere": 885,
      "##ite": 886,
      "Ġpre": 887,
      "##eg": 888,
      "##ĠĠĠĠĠ": 889,
      "Ġag": 890,
      "Ġ}": 891,
      "##ake": 892,
      "Ġother": 893,
      "Ġli": 894,
      "##ound": 895,
      "##form": 896,
      "Ġyour": 897,
      "##very": 898,
      "Ġ$\\": 899,
      "##own": 900,
      "Ġhad": 901,
      "##ount": 902,
      "##vel": 903,
      "##urn": 904,
      "##ject": 905,
      "Ġsa": 906,
      "##ata": 907,
      "##ree": 908,
      "Ġbeen": 909,
      "##ont": 910,
      "Ġsp": 911,
      "##erm": 912,
      "Ġman": 913,
      "()": 914,
      "Ġsc": 915,
      "),": 916,
      "##ks": 917,
      "Ġalso": 918,
      "Ġwho": 919,
      "##erv": 920,
      "Ġany": 921,
      "##ates": 922,
      "Ġwould": 923,
      "}}": 924,
      "ĠV": 925,
      "Ġno": 926,
      "##te": 927,
      "Ġwhen": 928,
      ");": 929,
      "Ġabout": 930,
      "##ild": 931,
      "Ġmy": 932,
      "Ġrec": 933,
      "Ġ'": 934,
      "math": 935,
      "Ġ&": 936,
      "##ific": 937,
      "##oll": 938,
      "##eth": 939,
      "##nder": 940,
      "##ook": 941,
      "##ew": 942,
      "st": 943,
      "Ġob": 944,
      "Ġtime": 945,
      "Ġthan": 946,
      "##reat": 947,
      "##ple": 948,
      "'t": 949,
      "##ict": 950,
      "Ġass": 951,
      "Ġ6": 952,
      "Ġkn": 953,
      "Ġover": 954,
      "##wo": 955,
      "Ġits": 956,
      "Ġ19": 957,
      "Ġsome": 958,
      "##ring": 959,
      "ĠâĢľ": 960,
      "##clud": 961,
      "Ġdef": 962,
      "##rib": 963,
      "##fter": 964,
      "Ġspe": 965,
      "Ġind": 966,
      "Ġbet": 967,
      "Ġsy": 968,
      "##ces": 969,
      "##lect": 970,
      "Ġnew": 971,
      "Ġgen": 972,
      "##row": 973,
      "Ġdiff": 974,
      "Ġoff": 975,
      "##[@": 976,
      "Ġam": 977,
      "##ough": 978,
      "##irst": 979,
      "##ove": 980,
      "##ays": 981,
      "##we": 982,
      "##ied": 983,
      "Ġinter": 984,
      "ĠĠ": 985,
      "Ġbec": 986,
      "##ps": 987,
      "Ġsub": 988,
      "##rac": 989,
      "##ert": 990,
      "##hat": 991,
      "##ext": 992,
      "Ġget": 993,
      "##ons": 994,
      "##ode": 995,
      "##ater": 996,
      "Ġacc": 997,
      "Ġher": 998,
      "ĠY": 999,
      "##ause": 1000,
      "Ġcomm": 1001,
      "Ġact": 1002,
      "Ġinto": 1003,
      "Ġour": 1004,
      "Ġinc": 1005,
      "##ob": 1006,
      "##vers": 1007,
      "Ġro": 1008,
      "##ual": 1009,
      "Ġcons": 1010,
      "##ings": 1011,
      "##ov": 1012,
      "##tt": 1013,
      "ĠIt": 1014,
      "Ġunder": 1015,
      "##ink": 1016,
      "##old": 1017,
      "##ced": 1018,
      "Ġdes": 1019,
      "Ġrel": 1020,
      "Ġmay": 1021,
      "##iss": 1022,
      "Ġpe": 1023,
      "Ġonly": 1024,
      "##ative": 1025,
      "Ġtwo": 1026,
      "##ari": 1027,
      "Ġsaid": 1028,
      "Ġthem": 1029,
      "##ft": 1030,
      "}$": 1031,
      "Ġval": 1032,
      "##iew": 1033,
      "Ġyear": 1034,
      "##pect": 1035,
      "##ick": 1036,
      "Ġwork": 1037,
      "Ġstud": 1038,
      "Ġwhat": 1039,
      "##ular": 1040,
      "Ġlike": 1041,
      "Ġadd": 1042,
      "ĊĠĠĠĠĠĠĠĠĠĠĠ": 1043,
      "##ss": 1044,
      "00": 1045,
      "Ġ7": 1046,
      "##========": 1047,
      "##hed": 1048,
      "Ġret": 1049,
      "Ġmod": 1050,
      "##ark": 1051,
      "Ġreg": 1052,
      "Ġpos": 1053,
      "Ġbl": 1054,
      "ĠCh": 1055,
      "Ġtrans": 1056,
      "Ġra": 1057,
      "##unction": 1058,
      "Ġinv": 1059,
      "ĠThis": 1060,
      "##elf": 1061,
      "##oint": 1062,
      "Ġem": 1063,
      "##itt": 1064,
      "##ock": 1065,
      "Ġuse": 1066,
      "Ġte": 1067,
      "Ġco": 1068,
      "##stem": 1069,
      "Ġfl": 1070,
      "##ma": 1071,
      "##ish": 1072,
      "##âĢĿ": 1073,
      "Ġfirst": 1074,
      "Ġsuch": 1075,
      "##ased": 1076,
      "Ġjust": 1077,
      "Ġ201": 1078,
      "##ating": 1079,
      "Ġeff": 1080,
      "Ġph": 1081,
      "Ġ8": 1082,
      "Ġpres": 1083,
      "##ption": 1084,
      "Ġform": 1085,
      "Ġthese": 1086,
      "ĠWe": 1087,
      "##ian": 1088,
      "Ġprov": 1089,
      "Ġdiffere": 1090,
      "##arg": 1091,
      "10": 1092,
      "##ck": 1093,
      "Ġwhere": 1094,
      "##ne": 1095,
      "##cess": 1096,
      "##ility": 1097,
      "ref": 1098,
      "Ġexp": 1099,
      "Ġpat": 1100,
      "##ient": 1101,
      "Ġshe": 1102,
      "Ġpr": 1103,
      "Ġafter": 1104,
      "Ġdet": 1105,
      "Ġsign": 1106,
      "##ize": 1107,
      "##);": 1108,
      "##ix": 1109,
      "19": 1110,
      "Ġhow": 1111,
      "Ġ10": 1112,
      "##ood": 1113,
      "##ween": 1114,
      "##oth": 1115,
      "Ġneed": 1116,
      "##olog": 1117,
      "##ople": 1118,
      "Ġset": 1119,
      "Ġthen": 1120,
      "Ġcould": 1121,
      "##aw": 1122,
      "##ments": 1123,
      "##ublic": 1124,
      "##ution": 1125,
      "##ax": 1126,
      "Ġclass": 1127,
      "čĊ": 1128,
      "Ġtra": 1129,
      "##ident": 1130,
      "Ġ9": 1131,
      "##rough": 1132,
      "##fore": 1133,
      "Ġresult": 1134,
      "Ġatt": 1135,
      "Ġbetween": 1136,
      "Ġcell": 1137,
      "In": 1138,
      "Ġrem": 1139,
      "ĠĠĠĠĠĠĠĠĠ": 1140,
      "##ious": 1141,
      "type": 1142,
      "Ġ\\[": 1143,
      "Ġsupp": 1144,
      "##ollow": 1145,
      "Ġpol": 1146,
      "##ange": 1147,
      "Ġfe": 1148,
      "##ble": 1149,
      "##).": 1150,
      "##eld": 1151,
      "\",": 1152,
      "Ġgrou": 1153,
      "####": 1154,
      "Ġ|": 1155,
      "##ise": 1156,
      "Ġinclud": 1157,
      "Ġused": 1158,
      "##les": 1159,
      "al": 1160,
      "##hen": 1161,
      "##ible": 1162,
      "Ġdec": 1163,
      ".,": 1164,
      "Ċĉĉ": 1165,
      "Ġsec": 1166,
      "##ourt": 1167,
      "th": 1168,
      "##als": 1169,
      "Ġdid": 1170,
      "Ġdata": 1171,
      "ĠHe": 1172,
      "Ġnum": 1173,
      "Ġshow": 1174,
      "##ues": 1175,
      "Ġknow": 1176,
      "##oy": 1177,
      "com": 1178,
      "Ġfact": 1179,
      "ĊĠĠĠĠĠ": 1180,
      "Ġac": 1181,
      "##tern": 1182,
      "Ġpeople": 1183,
      "##ull": 1184,
      "Ġshould": 1185,
      "##ee": 1186,
      "Ġcol": 1187,
      "##ection": 1188,
      "##der": 1189,
      "##ics": 1190,
      "Ġcor": 1191,
      "Ġsim": 1192,
      "Ġhim": 1193,
      "##ever": 1194,
      "12": 1195,
      "Ġsur": 1196,
      "Ġspec": 1197,
      "##ning": 1198,
      "Ġrequ": 1199,
      "Ġfollow": 1200,
      "){": 1201,
      "##ox": 1202,
      "Ġ_": 1203,
      "Ġusing": 1204,
      "Ġdist": 1205,
      "##ER": 1206,
      "</": 1207,
      "##ract": 1208,
      "##ram": 1209,
      "##inal": 1210,
      "}\\": 1211,
      "##ruct": 1212,
      "##its": 1213,
      "Ġi": 1214,
      "##ade": 1215,
      "Ġsee": 1216,
      "##ta": 1217,
      "Ġback": 1218,
      "Ġbecause": 1219,
      "Ċĉ": 1220,
      "##ield": 1221,
      "##cy": 1222,
      "##ty": 1223,
      "##****": 1224,
      "Ġfunction": 1225,
      "Ġimp": 1226,
      "Ġconst": 1227,
      "##ined": 1228,
      "Ġsystem": 1229,
      "##ities": 1230,
      "##nce": 1231,
      "Ġmost": 1232,
      "the": 1233,
      "Ġinst": 1234,
      "Ġ.": 1235,
      "##ower": 1236,
      "##ng": 1237,
      "##rit": 1238,
      "##ool": 1239,
      "##ful": 1240,
      "##ited": 1241,
      "Ġinf": 1242,
      "Ġsm": 1243,
      "Ġend": 1244,
      "##--------------------------------": 1245,
      "##uring": 1246,
      "##ures": 1247,
      "Ġwell": 1248,
      "{\\": 1249,
      "Ġreturn": 1250,
      "Ġ200": 1251,
      "Ġthrough": 1252,
      "Ġprodu": 1253,
      "ĊĠĠĠĠĠĠĠĠĠĠĠĠĠĠĠ": 1254,
      "Ġtest": 1255,
      "Ġright": 1256,
      "Ġgener": 1257,
      "Ġ[@": 1258,
      "ĠUn": 1259,
      "11": 1260,
      "Ġbu": 1261,
      "##ms": 1262,
      "\">": 1263,
      "\"}": 1264,
      "Ġagain": 1265,
      "Ġext": 1266,
      "\\]": 1267,
      "Ġwant": 1268,
      "##hes": 1269,
      "000": 1270,
      "##ĠĠĠĠĠĠ": 1271,
      "##put": 1272,
      "##wn": 1273,
      "Ġhigh": 1274,
      "Ġdifferent": 1275,
      "Ġeach": 1276,
      "^{": 1277,
      "##ational": 1278,
      "##ized": 1279,
      "##mer": 1280,
      "Ġcase": 1281,
      "##ric": 1282,
      "Ġref": 1283,
      "Ġstate": 1284,
      "Ġdoes": 1285,
      "##imes": 1286,
      "##ins": 1287,
      "Ġent": 1288,
      "Ġeffect": 1289,
      "##ator": 1290,
      "##ically": 1291,
      "ĊĠĠĠĠĠĠĠĠĠĠĠĠĠĠĠĠ": 1292,
      "##round": 1293,
      "##ead": 1294,
      "](": 1295,
      "##uch": 1296,
      "##__": 1297,
      "##yp": 1298,
      "##ars": 1299,
      "Ġeven": 1300,
      "##riv": 1301,
      "##ily": 1302,
      "##ients": 1303,
      "Ġmake": 1304,
      "Ġmin": 1305,
      "##{}": 1306,
      "##ON": 1307,
      "##ev": 1308,
      "##ork": 1309,
      "##dd": 1310,
      "##rol": 1311,
      "Ġ@": 1312,
      "âĢĿ": 1313,
      "Ġ:": 1314,
      "01": 1315,
      "Ġevery": 1316,
      "##urre": 1317,
      "##io": 1318,
      "##ention": 1319,
      "##ethod": 1320,
      "Ġke": 1321,
      "Ġdisc": 1322,
      "Ġrep": 1323,
      "##\\]": 1324,
      "##uc": 1325,
      "##ute": 1326,
      "Ġconf": 1327,
      "Ġsame": 1328,
      "Ġcall": 1329,
      "##ants": 1330,
      "##up": 1331,
      "Ġway": 1332,
      "##cri": 1333,
      "Ġap": 1334,
      "##other": 1335,
      "Ġnow": 1336,
      "right": 1337,
      "Ġanal": 1338,
      "Th": 1339,
      "##cept": 1340,
      "Ġfind": 1341,
      "##aint": 1342,
      "##cal": 1343,
      "Ġ/": 1344,
      "->": 1345,
      "Ġdon": 1346,
      "##ince": 1347,
      "Ġincre": 1348,
      "Ġpoint": 1349,
      "Ġ12": 1350,
      "##oci": 1351,
      "Ġlook": 1352,
      "##oid": 1353,
      "Ġthose": 1354,
      "##velop": 1355,
      "##ĠĠĠĠĠĠĠĠĠĠĠĠĠĠĠĠĠĠĠĠĠĠĠĠĠĠĠĠĠĠĠĠĠĠĠĠĠĠĠĠĠĠĠĠĠĠĠĠĠĠĠĠĠĠĠĠĠĠĠĠĠĠĠĠ": 1356,
      "Ġlong": 1357,
      "Ġyears": 1358,
      "Ġvery": 1359,
      "Ġdi": 1360,
      "##ward": 1361,
      "Ġins": 1362,
      "##ason": 1363,
      "Ġpartic": 1364,
      "Ġloc": 1365,
      "Ġboth": 1366,
      "##let": 1367,
      "frac": 1368,
      "Ġvari": 1369,
      "##ense": 1370,
      "##ym": 1371,
      "##ns": 1372,
      "\":": 1373,
      "Ġhere": 1374,
      "##IN": 1375,
      "##ases": 1376,
      "##ines": 1377,
      "##irect": 1378,
      "Ġaut": 1379,
      "Ġmon": 1380,
      "Ġresp": 1381,
      "Ġmat": 1382,
      "##ample": 1383,
      "Ġfound": 1384,
      "Ġ//": 1385,
      "##ug": 1386,
      "Ġbel": 1387,
      "Ġbeing": 1388,
      "or": 1389,
      "Ġtri": 1390,
      "Ġmed": 1391,
      "Ġexper": 1392,
      "##eft": 1393,
      "...": 1394,
      "Ġpar": 1395,
      "Ġappro": 1396,
      "Ġpers": 1397,
      "Ġmany": 1398,
      "##ages": 1399,
      "Ġplay": 1400,
      "##omm": 1401,
      "Ġbefore": 1402,
      "##ife": 1403,
      "##ices": 1404,
      "##air": 1405,
      "##ared": 1406,
      "##atic": 1407,
      "##und": 1408,
      "Ġnumber": 1409,
      "Ġfil": 1410,
      "##led": 1411,
      "##ner": 1412,
      "ĠĠĠĠĠĠĠĠĠĠĠĠĠĠĠĠĠ": 1413,
      "]\\]": 1414,
      ")$": 1415,
      "ĠQ": 1416,
      "Ġmem": 1417,
      "Ġser": 1418,
      "?\"": 1419,
      "Ġchar": 1420,
      "##ror": 1421,
      "Ġx": 1422,
      "##alth": 1423,
      "##ature": 1424,
      "Ġpublic": 1425,
      "âĢī": 1426,
      "],": 1427,
      "##ified": 1428,
      "##aking": 1429,
      "##eng": 1430,
      "##arch": 1431,
      "##AT": 1432,
      "](#": 1433,
      "Ġhel": 1434,
      "Ġop": 1435,
      "##cer": 1436,
      "##ateg": 1437,
      "Ġcar": 1438,
      "}_": 1439,
      "ĠĠĠ": 1440,
      "##ody": 1441,
      "Ġgu": 1442,
      "Ġ**": 1443,
      "Ġthink": 1444,
      "}^": 1445,
      "##ran": 1446,
      "##yl": 1447,
      "Ġ11": 1448,
      "Ġche": 1449,
      "##ash": 1450,
      "::": 1451,
      "##xt": 1452,
      "##formation": 1453,
      "fig": 1454,
      "##ression": 1455,
      "Ġgood": 1456,
      "Ġprocess": 1457,
      "left": 1458,
      "##ES": 1459,
      "##ave": 1460,
      "Ġdown": 1461,
      "##ier": 1462,
      "ĊĊĠĠĠ": 1463,
      "##read": 1464,
      "Ġmodel": 1465,
      "ĠFor": 1466,
      "Ġmade": 1467,
      "Ġcourt": 1468,
      "Ġvalue": 1469,
      "Ġel": 1470,
      "Ġreport": 1471,
      "ĠâĢĵ": 1472,
      "##ively": 1473,
      "##ting": 1474,
      "##ism": 1475,
      "pro": 1476,
      "##ness": 1477,
      "##upp": 1478,
      "Ġ\\[[@": 1479,
      "Ġwhile": 1480,
      "Ġlevel": 1481,
      "##ired": 1482,
      "##ray": 1483,
      "Ġgiv": 1484,
      "Ġstudy": 1485,
      "Ġstr": 1486,
      "://": 1487,
      "ĠÂ": 1488,
      "mathb": 1489,
      "Ġsol": 1490,
      "Ġpresent": 1491,
      "##gg": 1492,
      "Ġer": 1493,
      "##pos": 1494,
      "Ġdevelop": 1495,
      "##ered": 1496,
      "##onst": 1497,
      "Ġstart": 1498,
      "##ument": 1499,
      "ĠLet": 1500,
      "##urrent": 1501,
      "##ained": 1502,
      "##dition": 1503,
      "Ġsupport": 1504,
      "##AR": 1505,
      "Ġcount": 1506,
      "##ually": 1507,
      "##ole": 1508,
      "Ġsecond": 1509,
      "ĠAl": 1510,
      "ĠAs": 1511,
      "##hip": 1512,
      "##ets": 1513,
      "Ġprev": 1514,
      "Ġmuch": 1515,
      "re": 1516,
      "Ġequ": 1517,
      "##ved": 1518,
      "Ġown": 1519,
      "13": 1520,
      "15": 1521,
      "))": 1522,
      "Ġprog": 1523,
      "We": 1524,
      "##cent": 1525,
      "##ision": 1526,
      "Ġhand": 1527,
      "ĠPro": 1528,
      "Ġserv": 1529,
      ".âĢĿ": 1530,
      "Ġterm": 1531,
      "##igned": 1532,
      "##ization": 1533,
      "Ġthree": 1534,
      "##cul": 1535,
      "##$\\": 1536,
      "Ġread": 1537,
      "ĠIf": 1538,
      "16": 1539,
      "##oad": 1540,
      "##erg": 1541,
      "Ġant": 1542,
      "##way": 1543,
      "Ġgra": 1544,
      "Ġpatients": 1545,
      "Ġest": 1546,
      "##lement": 1547,
      "##ider": 1548,
      "--": 1549,
      "##ale": 1550,
      "Ġmethod": 1551,
      "##uss": 1552,
      "201": 1553,
      "Ġet": 1554,
      "Ġposs": 1555,
      "##gan": 1556,
      "Ġwithout": 1557,
      "##ren": 1558,
      "##St": 1559,
      "Ġduring": 1560,
      "Ġorder": 1561,
      "##</": 1562,
      "Ġcells": 1563,
      "im": 1564,
      "##ency": 1565,
      "Ġnon": 1566,
      "##ron": 1567,
      "##ential": 1568,
      "##abel": 1569,
      "##ton": 1570,
      "##ctions": 1571,
      "Ġname": 1572,
      "##OR": 1573,
      "}{": 1574,
      "Ġsl": 1575,
      "to": 1576,
      "Ġgreat": 1577,
      "Ġcre": 1578,
      "##arly": 1579,
      "##ality": 1580,
      "What": 1581,
      "_{\\": 1582,
      "##ven": 1583,
      "##NA": 1584,
      "ĠĊ": 1585,
      "(\"": 1586,
      "Ġ20": 1587,
      "##ource": 1588,
      "It": 1589,
      "ĠAnd": 1590,
      "Ġactiv": 1591,
      "Ġhelp": 1592,
      "14": 1593,
      "##day": 1594,
      ",\"": 1595,
      "##bs": 1596,
      "##ration": 1597,
      "Ġ15": 1598,
      "##ank": 1599,
      "Ġline": 1600,
      "##ided": 1601,
      "##ists": 1602,
      "##idence": 1603,
      "##ify": 1604,
      "Ġgl": 1605,
      "Ġgroup": 1606,
      "##ann": 1607,
      "Ġimport": 1608,
      "Ġproper": 1609,
      "Ġperform": 1610,
      "ĠHow": 1611,
      "##rt": 1612,
      "##pan": 1613,
      "##cial": 1614,
      "ex": 1615,
      "get": 1616,
      "20": 1617,
      "##oot": 1618,
      "Ġmet": 1619,
      "##ters": 1620,
      "Ġcle": 1621,
      "##ather": 1622,
      "##ah": 1623,
      "$,": 1624,
      "Ġlast": 1625,
      "Ġav": 1626,
      "##amb": 1627,
      "Ġproble": 1628,
      "Ġlead": 1629,
      "##amp": 1630,
      "##ouse": 1631,
      "Ġsay": 1632,
      "',": 1633,
      "##ability": 1634,
      "Ġdep": 1635,
      "}(": 1636,
      "Ġz": 1637,
      "##ement": 1638,
      "Ġagainst": 1639,
      "ĠBut": 1640,
      "Ġiss": 1641,
      "##ey": 1642,
      "Ġsmall": 1643,
      "##vern": 1644,
      "##alk": 1645,
      "##ulation": 1646,
      "Ġoper": 1647,
      "##erest": 1648,
      "##ral": 1649,
      "##ving": 1650,
      "Ġthough": 1651,
      "Ġsignific": 1652,
      "end": 1653,
      "Ġmust": 1654,
      "##IT": 1655,
      "Ġtake": 1656,
      "Ġrun": 1657,
      "##ross": 1658,
      "Ġ,": 1659,
      "Ġtype": 1660,
      "Ġstill": 1661,
      "Ġcontrol": 1662,
      "##acter": 1663,
      "##aim": 1664,
      "Ġchild": 1665,
      "Ġperson": 1666,
      "Ġlaw": 1667,
      "##ote": 1668,
      "ĠYou": 1669,
      "$.": 1670,
      "##itive": 1671,
      "Ġappe": 1672,
      "Ġpur": 1673,
      "int": 1674,
      "##eb": 1675,
      "##line": 1676,
      "ĠThere": 1677,
      "St": 1678,
      "##irc": 1679,
      "Ġexpl": 1680,
      "Ġsom": 1681,
      "ĠAn": 1682,
      "Ġlet": 1683,
      "Ġcou": 1684,
      "##),": 1685,
      "Ġinformation": 1686,
      "##pha": 1687,
      "Ġ18": 1688,
      "##ret": 1689,
      "Ġdirect": 1690,
      "18": 1691,
      "Ġday": 1692,
      "##ination": 1693,
      "##ysis": 1694,
      "##oh": 1695,
      "(\\": 1696,
      "Let": 1697,
      "##ots": 1698,
      "200": 1699,
      "Ġcent": 1700,
      "Ġ13": 1701,
      "Ġfin": 1702,
      "Ġed": 1703,
      "##urther": 1704,
      "Fig": 1705,
      "Ġquest": 1706,
      "##ery": 1707,
      "##atch": 1708,
      "##chn": 1709,
      "##get": 1710,
      "##ium": 1711,
      "##ology": 1712,
      "##ames": 1713,
      "Ġprot": 1714,
      "##EN": 1715,
      "Ġpost": 1716,
      "Ġfam": 1717,
      "Ġtreat": 1718,
      "mathcal": 1719,
      "Ġresults": 1720,
      "##ected": 1721,
      "Ġca": 1722,
      "##ides": 1723,
      "##hi": 1724,
      "cl": 1725,
      "Ġident": 1726,
      "//": 1727,
      "Ġstand": 1728,
      "Ġmeas": 1729,
      "##crib": 1730,
      "Ġsignificant": 1731,
      "##]{}": 1732,
      "Ġelect": 1733,
      "##here": 1734,
      "##ience": 1735,
      "Ġaff": 1736,
      "##ission": 1737,
      "Ġbre": 1738,
      "Ġobs": 1739,
      "Ġfollowing": 1740,
      "();": 1741,
      "##arm": 1742,
      "##eral": 1743,
      "##yn": 1744,
      "##agn": 1745,
      "Ġwee": 1746,
      "Ġmult": 1747,
      "and": 1748,
      "##less": 1749,
      "##con": 1750,
      "##ule": 1751,
      "ĠNew": 1752,
      "##duct": 1753,
      "##view": 1754,
      "Ġdeterm": 1755,
      "##ately": 1756,
      "ĠĠĠĠ": 1757,
      "##ital": 1758,
      "##rm": 1759,
      "##ttp": 1760,
      "This": 1761,
      "Ġgoing": 1762,
      "##meric": 1763,
      "Ġallow": 1764,
      "##ording": 1765,
      "17": 1766,
      "].": 1767,
      "Ġdem": 1768,
      "Ġ14": 1769,
      "##man": 1770,
      "Ġcontin": 1771,
      "##ains": 1772,
      "Ġlim": 1773,
      "Ġcondition": 1774,
      "##ished": 1775,
      "##par": 1776,
      "##ior": 1777,
      "##ploy": 1778,
      "##aterial": 1779,
      "##ured": 1780,
      "Ġcare": 1781,
      "Ġwithin": 1782,
      "Ġ*/": 1783,
      "##aj": 1784,
      "##arge": 1785,
      "##ural": 1786,
      "text": 1787,
      "Ġsince": 1788,
      "##AN": 1789,
      "Ġrest": 1790,
      "Ġreal": 1791,
      "##ho": 1792,
      "Ġaround": 1793,
      "Ġrece": 1794,
      "Ġlife": 1795,
      "Ġstat": 1796,
      "Ġimm": 1797,
      "Ġwr": 1798,
      "Ġdev": 1799,
      ")}": 1800,
      "'m": 1801,
      "##ris": 1802,
      "Ġ16": 1803,
      "Ġworld": 1804,
      "Ġhum": 1805,
      "##alue": 1806,
      "##da": 1807,
      "##ivers": 1808,
      "Ġredu": 1809,
      "Ġcurrent": 1810,
      "##rid": 1811,
      "25": 1812,
      "Ġinterest": 1813,
      "##land": 1814,
      "##20": 1815,
      "##ackage": 1816,
      "##rict": 1817,
      "##any": 1818,
      "##oss": 1819,
      "ĠX": 1820,
      "##ott": 1821,
      "âĢľ": 1822,
      "##ently": 1823,
      "Ġaddition": 1824,
      "Ġhealth": 1825,
      "##AL": 1826,
      "Ġstruct": 1827,
      "Ġ--": 1828,
      "##ml": 1829,
      "##iqu": 1830,
      "##================": 1831,
      "##ived": 1832,
      "##chool": 1833,
      "Ġanother": 1834,
      "alpha": 1835,
      "##akes": 1836,
      "Ġ#": 1837,
      "Ġpass": 1838,
      "Ġmark": 1839,
      "##ts": 1840,
      "##arent": 1841,
      "Ġinvest": 1842,
      "##resent": 1843,
      "Ġopen": 1844,
      "Ġadv": 1845,
      "id": 1846,
      "##az": 1847,
      "Ġtry": 1848,
      "##cript": 1849,
      "ĠÃ": 1850,
      ",âĢĿ": 1851,
      "##yt": 1852,
      "Ġfield": 1853,
      "##lex": 1854,
      "Ġ</": 1855,
      "Ġarg": 1856,
      "Ġself": 1857,
      "##min": 1858,
      "Ġprob": 1859,
      "Ġdel": 1860,
      "32": 1861,
      "##amet": 1862,
      "Ġcommun": 1863,
      "Ġlist": 1864,
      "Ġexample": 1865,
      "##bers": 1866,
      "##ives": 1867,
      "Ġbas": 1868,
      "Ġobject": 1869,
      "Ġpower": 1870,
      "##ither": 1871,
      "##els": 1872,
      "Ġincluding": 1873,
      "]\\].": 1874,
      "##of": 1875,
      "##work": 1876,
      "21": 1877,
      "ĊĠĠĠĠ": 1878,
      "if": 1879,
      "ĠZ": 1880,
      "##osed": 1881,
      "Ġocc": 1882,
      "##ways": 1883,
      "##CT": 1884,
      "You": 1885,
      "##eq": 1886,
      "ĠCl": 1887,
      "Ġtoo": 1888,
      "ĠIs": 1889,
      "Ġmean": 1890,
      "##ething": 1891,
      "Ġclaim": 1892,
      "ĠTr": 1893,
      "Ġbeh": 1894,
      "Ġmight": 1895,
      "##********": 1896,
      "Ġgiven": 1897,
      "##onse": 1898,
      "##ury": 1899,
      "Ġhead": 1900,
      "##ST": 1901,
      "##raph": 1902,
      "Ġrespect": 1903,
      "Ġtem": 1904,
      "Ġart": 1905,
      "##ves": 1906,
      "âĢĵ": 1907,
      "##ribut": 1908,
      "##ends": 1909,
      "##0000": 1910,
      "##ably": 1911,
      "##ining": 1912,
      "Ġreally": 1913,
      "Ġchang": 1914,
      "##ope": 1915,
      "Ġassoci": 1916,
      "Ġplace": 1917,
      "##ump": 1918,
      "##lection": 1919,
      "##iness": 1920,
      "Ġprogram": 1921,
      "##lease": 1922,
      "##reen": 1923,
      "ĠHowever": 1924,
      "Ġless": 1925,
      "##rop": 1926,
      "Ġgovern": 1927,
      "##de": 1928,
      "Ġpot": 1929,
      "ĠAmeric": 1930,
      "ĊĠĠ": 1931,
      "ĠThey": 1932,
      "Ġ{#": 1933,
      "##ane": 1934,
      "##ik": 1935,
      "##In": 1936,
      "Ġhig": 1937,
      "##ength": 1938,
      "Ġfile": 1939,
      "Ġ$$\\": 1940,
      "def": 1941,
      "Ġlow": 1942,
      "Ġhapp": 1943,
      "##erence": 1944,
      "ĠWh": 1945,
      "Ġhome": 1946,
      "tr": 1947,
      "Ġbased": 1948,
      "CR": 1949,
      "Ġ199": 1950,
      "##eta": 1951,
      "##arn": 1952,
      "##ike": 1953,
      "Ġvis": 1954,
      "##(-": 1955,
      "Ġmonth": 1956,
      "##ety": 1957,
      "Ġtop": 1958,
      "Ġapplic": 1959,
      "ar": 1960,
      "##app": 1961,
      "##alcul": 1962,
      "##hor": 1963,
      "##ategory": 1964,
      "##aining": 1965,
      "##ird": 1966,
      "Ġcap": 1967,
      "##ivid": 1968,
      "##ault": 1969,
      "##LE": 1970,
      "'re": 1971,
      "Ġwom": 1972,
      "##alse": 1973,
      "##face": 1974,
      "})": 1975,
      "Ġve": 1976,
      "Ġcorre": 1977,
      "Ġfew": 1978,
      "ĊĊĠ": 1979,
      "##ccess": 1980,
      "Ġgrow": 1981,
      "##ocument": 1982,
      "##roll": 1983,
      "Ġbus": 1984,
      "Ġprote": 1985,
      "##elta": 1986,
      "##Ã©": 1987,
      "ĠNo": 1988,
      "##50": 1989,
      "Ġbest": 1990,
      "Ġanalysis": 1991,
      "##ream": 1992,
      "Ġindic": 1993,
      "Ġsing": 1994,
      "##icro": 1995,
      "Ġpop": 1996,
      "##thing": 1997,
      "##ittle": 1998,
      "ĠĠĠĠĠĠĠĠĠĠĠĠĠĠĠĠĠĠĠĠĠĠĠĠĠĠĠĠĠĠĠĠĠ": 1999,
      "Ġobserv": 2000,
      ")\\": 2001,
      "Ġnext": 2002,
      "ĠâĢĶ": 2003,
      "Ġimportant": 2004,
      "Ġmot": 2005,
      "Ġtechn": 2006,
      "##ĠĠĠĠĠĠĠĠĠĠĠ": 2007,
      "##fer": 2008,
      "Ġevidence": 2009,
      "Ġsomething": 2010,
      "Ġleft": 2011,
      "Ġpath": 2012,
      "##ems": 2013,
      "##ambda": 2014,
      "ĠSh": 2015,
      "Ġobt": 2016,
      "set": 2017,
      "Ġwhether": 2018,
      "Ġfour": 2019,
      "Ġopt": 2020,
      "##vert": 2021,
      "Ġcommon": 2022,
      "Ġproduct": 2023,
      "Ġ30": 2024,
      "##ware": 2025,
      ",\\": 2026,
      "Ġchange": 2027,
      "Ġconn": 2028,
      "##ats": 2029,
      "Ġput": 2030,
      "Ġteam": 2031,
      "##abl": 2032,
      "##rap": 2033,
      "##stand": 2034,
      "Ġfr": 2035,
      "Ġleg": 2036,
      "##cing": 2037,
      "Ġsugg": 2038,
      "##plic": 2039,
      "##orth": 2040,
      "Ġsuggest": 2041,
      "##ertain": 2042,
      "##ern": 2043,
      "02": 2044,
      "Ġview": 2045,
      "##over": 2046,
      "##hem": 2047,
      "##ification": 2048,
      "##leg": 2049,
      "Ġfail": 2050,
      "Ġexpect": 2051,
      "##ãģ": 2052,
      "Ġ17": 2053,
      "Ġparticular": 2054,
      "ĠInd": 2055,
      "ĠCom": 2056,
      "ĠWhat": 2057,
      "##amma": 2058,
      "},": 2059,
      "Ġprof": 2060,
      "Ġlight": 2061,
      "##att": 2062,
      "Ġunt": 2063,
      "Ġbo": 2064,
      "##AS": 2065,
      "##opy": 2066,
      "##ID": 2067,
      "##hib": 2068,
      "ĠEx": 2069,
      "label": 2070,
      "âĢĶ": 2071,
      "Ġinvol": 2072,
      "Ġdescrib": 2073,
      "cont": 2074,
      "##sc": 2075,
      "##uff": 2076,
      "Ġask": 2077,
      "Ġbetter": 2078,
      "use": 2079,
      "##ples": 2080,
      "Ġturn": 2081,
      "##por": 2082,
      "Ġsit": 2083,
      "24": 2084,
      "ĠPh": 2085,
      "##onf": 2086,
      "Ġabove": 2087,
      "##IC": 2088,
      "ĠSo": 2089,
      "##ED": 2090,
      "res": 2091,
      "Ġlarge": 2092,
      "##ional": 2093,
      "##---": 2094,
      "23": 2095,
      "Ġeas": 2096,
      "##nal": 2097,
      "##arget": 2098,
      "ĠUS": 2099,
      "mathbb": 2100,
      "##used": 2101,
      "##aps": 2102,
      "Ġproblem": 2103,
      "##ormal": 2104,
      "Ġsk": 2105,
      "Ġtrue": 2106,
      "Ġreason": 2107,
      "Ġnever": 2108,
      "##ilar": 2109,
      "##ended": 2110,
      "ĠPl": 2111,
      "Ġrese": 2112,
      "Ġwater": 2113,
      "##egin": 2114,
      "##ending": 2115,
      "Ġ{\\": 2116,
      "ch": 2117,
      "('": 2118,
      "ÃĲ": 2119,
      "##pr": 2120,
      "##igma": 2121,
      "30": 2122,
      "Ġconsider": 2123,
      "Ġtreatment": 2124,
      "Ġleast": 2125,
      "##mb": 2126,
      "Ġfre": 2127,
      "##urs": 2128,
      "Ġlittle": 2129,
      "##sp": 2130,
      "Ġsize": 2131,
      "Ġpossible": 2132,
      "Ġvers": 2133,
      "##ailable": 2134,
      "Ġgot": 2135,
      "Ġ)": 2136,
      "ĠAll": 2137,
      "ĠShe": 2138,
      ")/": 2139,
      "Ġlocal": 2140,
      "##son": 2141,
      "Ġposition": 2142,
      "Ġtot": 2143,
      "Ġthings": 2144,
      "22": 2145,
      "##lu": 2146,
      "##80": 2147,
      "Ġris": 2148,
      "Ġdue": 2149,
      "Ġopp": 2150,
      "Ġbuild": 2151,
      "##ajor": 2152,
      "Ġpay": 2153,
      "Ġmov": 2154,
      "Ġtyp": 2155,
      "##ET": 2156,
      "##rim": 2157,
      "Ġcharacter": 2158,
      "ĠSc": 2159,
      "##ividual": 2160,
      "##orn": 2161,
      "sh": 2162,
      "##ene": 2163,
      "##unt": 2164,
      "Ġproject": 2165,
      "Ġcome": 2166,
      "Ġimpro": 2167,
      "Ġide": 2168,
      "Ġrepresent": 2169,
      "##iod": 2170,
      "##ask": 2171,
      "div": 2172,
      "mu": 2173,
      "##IS": 2174,
      "##99": 2175,
      "##ega": 2176,
      "Ġ==": 2177,
      "##irm": 2178,
      "##illion": 2179,
      "##eturn": 2180,
      "Ġinit": 2181,
      "##epend": 2182,
      "##ina": 2183,
      "Ġfree": 2184,
      "##icle": 2185,
      "Ġhy": 2186,
      "Ġ24": 2187,
      "Ġelse": 2188,
      "Ġold": 2189,
      "Ġ100": 2190,
      "Ġbig": 2191,
      "##ised": 2192,
      "Ġquestion": 2193,
      "ĠTo": 2194,
      "##vent": 2195,
      "##idth": 2196,
      "Ġdefend": 2197,
      "Ġsever": 2198,
      "##set": 2199,
      "##iron": 2200,
      "##umm": 2201,
      "Ġhaving": 2202,
      "Ġdays": 2203,
      "##11": 2204,
      "!\"": 2205,
      "Ġshown": 2206,
      "##aring": 2207,
      "Ġoffic": 2208,
      "Ġgive": 2209,
      "##ĠĠĠĠĠĠĠĠĠĠĠĠĠĠĠ": 2210,
      "Ġhuman": 2211,
      "Ġrecord": 2212,
      "##ush": 2213,
      "##ological": 2214,
      "##not": 2215,
      "Ġfurther": 2216,
      "ĠDe": 2217,
      "##AC": 2218,
      "Ġorgan": 2219,
      "ĠOn": 2220,
      "##etic": 2221,
      "##onn": 2222,
      "Ġbro": 2223,
      "Ġgame": 2224,
      "begin": 2225,
      "Ġes": 2226,
      "Ġtrial": 2227,
      "Ġprom": 2228,
      "##imal": 2229,
      "Ġ25": 2230,
      "Ġgovernment": 2231,
      "ĠApp": 2232,
      "Ġnet": 2233,
      "05": 2234,
      "Ġsubst": 2235,
      "Ġhist": 2236,
      "##____": 2237,
      "Ġweek": 2238,
      "##ĪĴ": 2239,
      "Ġemploy": 2240,
      "ĠComm": 2241,
      "##ances": 2242,
      "ĠState": 2243,
      "Ġenerg": 2244,
      "##atory": 2245,
      "Ġprevious": 2246,
      "##ieve": 2247,
      "##$$": 2248,
      "Ġbi": 2249,
      "##ger": 2250,
      "ĠĠĠĠĠ": 2251,
      "##mega": 2252,
      "Ġkeep": 2253,
      "name": 2254,
      "##^{": 2255,
      "##action": 2256,
      "Ġjud": 2257,
      "Ġexpression": 2258,
      "Ġhard": 2259,
      "Ġindividual": 2260,
      "Ġfeel": 2261,
      "Ġden": 2262,
      "Ġprovide": 2263,
      "Ġpa": 2264,
      "Ġcost": 2265,
      "Ġalways": 2266,
      "##rain": 2267,
      "##itor": 2268,
      "Ġmain": 2269,
      "##arl": 2270,
      "Ġ!": 2271,
      "Ġpotential": 2272,
      "Ġâ": 2273,
      "Ġeither": 2274,
      "Ġcode": 2275,
      "##ours": 2276,
      "Ġsw": 2277,
      "Ġknown": 2278,
      "##rem": 2279,
      "Ġcalled": 2280,
      "Ġpriv": 2281,
      "Ġrad": 2282,
      "##uck": 2283,
      "Ġdiv": 2284,
      "}^{": 2285,
      "##yle": 2286,
      "Ġsimilar": 2287,
      "Ġschool": 2288,
      "001": 2289,
      "ĠThese": 2290,
      "##...": 2291,
      "Ġpred": 2292,
      "Ġcho": 2293,
      "##iple": 2294,
      "##usion": 2295,
      "ĠCourt": 2296,
      "ĠRe": 2297,
      "##60": 2298,
      "Ġuntil": 2299,
      "Ġavailable": 2300,
      "##though": 2301,
      "##ental": 2302,
      "ĠUnited": 2303,
      "##ception": 2304,
      "Ġfamily": 2305,
      "data": 2306,
      "Ġcomb": 2307,
      "##uro": 2308,
      "Ġgeneral": 2309,
      "Ġben": 2310,
      "##icient": 2311,
      "##ering": 2312,
      "##itle": 2313,
      "##ocial": 2314,
      "Ġside": 2315,
      "ĊĠĠĠĠĠĠĠĠĠ": 2316,
      "Ġsingle": 2317,
      "##LL": 2318,
      "##clude": 2319,
      "Ġfac": 2320,
      "Ġvol": 2321,
      "##lev": 2322,
      "If": 2323,
      "Ġdise": 2324,
      "Ġmeans": 2325,
      "Ġaction": 2326,
      "ĠRes": 2327,
      "03": 2328,
      "us": 2329,
      "##oney": 2330,
      "Ġlik": 2331,
      "ĠSe": 2332,
      "##rodu": 2333,
      "Ġspecific": 2334,
      "}}}": 2335,
      "Ġphys": 2336,
      "##angle": 2337,
      "aligned": 2338,
      "##bject": 2339,
      "Ġvalues": 2340,
      "Ġplan": 2341,
      "Ġword": 2342,
      "ĊĊĠĠĠĠĠĠĠ": 2343,
      "Ġ%": 2344,
      "##oor": 2345,
      "##cription": 2346,
      "Ġcases": 2347,
      "Ġable": 2348,
      "##val": 2349,
      "par": 2350,
      "Ġsequ": 2351,
      "##play": 2352,
      "sec": 2353,
      "):": 2354,
      "Ġchildren": 2355,
      "Ġmajor": 2356,
      "Ġtimes": 2357,
      "##itted": 2358,
      "##HE": 2359,
      "##inc": 2360,
      "##roup": 2361,
      "Ġcirc": 2362,
      "Ġseveral": 2363,
      "100": 2364,
      "Ġmaterial": 2365,
      "Category": 2366,
      "######": 2367,
      "##osp": 2368,
      "##ourse": 2369,
      "##ries": 2370,
      "##ww": 2371,
      "Ġorig": 2372,
      "Ġhold": 2373,
      "##package": 2374,
      "Ġunderstand": 2375,
      "##nc": 2376,
      "##Name": 2377,
      "##iversity": 2378,
      "Ġder": 2379,
      "import": 2380,
      "Ġsuper": 2381,
      "Ġhigher": 2382,
      "usepackage": 2383,
      "ĊĠĠĠĠĠĠĠĠĠĠĠĠĠĠĠĠĠĠĠ": 2384,
      "ĠThat": 2385,
      "##pped": 2386,
      "##ressed": 2387,
      "Ġarea": 2388,
      "##rant": 2389,
      "pone": 2390,
      "lambda": 2391,
      "Ġstudies": 2392,
      "##essage": 2393,
      "Ġ>": 2394,
      "##indow": 2395,
      "Ġabs": 2396,
      "Ġkey": 2397,
      "##ling": 2398,
      "Ġbody": 2399,
      "'ve": 2400,
      "##ember": 2401,
      "##ready": 2402,
      "##ystem": 2403,
      "##be": 2404,
      "##gen": 2405,
      "##iol": 2406,
      "##ten": 2407,
      "##ored": 2408,
      "##iting": 2409,
      "Ġmove": 2410,
      "Ġfull": 2411,
      "##ION": 2412,
      "##lected": 2413,
      "Ġrate": 2414,
      "Ġperiod": 2415,
      "this": 2416,
      "Ġwhy": 2417,
      "Ġerror": 2418,
      "##ney": 2419,
      "##ref": 2420,
      "part": 2421,
      "##rate": 2422,
      "Ġtotal": 2423,
      "##edi": 2424,
      "app": 2425,
      "##77": 2426,
      "##nces": 2427,
      "##raw": 2428,
      "Ġstandard": 2429,
      "}$$": 2430,
      "##OU": 2431,
      "Ġ21": 2432,
      "##ences": 2433,
      "Ġenergy": 2434,
      "\\[": 2435,
      "##ume": 2436,
      "Ġbusiness": 2437,
      "##40": 2438,
      "##omes": 2439,
      "Ġneg": 2440,
      "##ler": 2441,
      "Ġaccess": 2442,
      "##33": 2443,
      "Ġexist": 2444,
      "##ustom": 2445,
      "##utes": 2446,
      "Ġlater": 2447,
      "##rior": 2448,
      "##AM": 2449,
      "##idd": 2450,
      "##rug": 2451,
      "Ġlot": 2452,
      "ĠStates": 2453,
      "Ġspace": 2454,
      "##25": 2455,
      "Ġla": 2456,
      "Ġreview": 2457,
      "##alf": 2458,
      "##gment": 2459,
      "Ġsure": 2460,
      "for": 2461,
      "##tml": 2462,
      "##ift": 2463,
      "Ġ$(": 2464,
      "Ġprim": 2465,
      "##mp": 2466,
      "##right": 2467,
      "##Âł": 2468,
      "Ġ`": 2469,
      "##ables": 2470,
      "##_{": 2471,
      "Ġalready": 2472,
      "##aintiff": 2473,
      "Ġfinal": 2474,
      "Ġdidn": 2475,
      "##ibility": 2476,
      "Ġshort": 2477,
      "Ġinvestig": 2478,
      "span": 2479,
      "ĠĠĠĠĠĠ": 2480,
      "##rist": 2481,
      "Ġinteg": 2482,
      "Ġdiscuss": 2483,
      "##ister": 2484,
      "Ġcrit": 2485,
      "##ued": 2486,
      "As": 2487,
      "var": 2488,
      "ĠAt": 2489,
      "Ġreported": 2490,
      "Ġfar": 2491,
      "Ġamong": 2492,
      "##rack": 2493,
      "Ġassociated": 2494,
      "ĠWhen": 2495,
      "##outh": 2496,
      "##verage": 2497,
      "##70": 2498,
      "##qrt": 2499,
      "Ġmass": 2500,
      "Ġlevels": 2501,
      "Ġtre": 2502,
      "##conom": 2503,
      "##iver": 2504,
      "##88": 2505,
      "##olution": 2506,
      "##ape": 2507,
      "##aken": 2508,
      "##pond": 2509,
      "Ġpract": 2510,
      "##iving": 2511,
      "is": 2512,
      "Ġresponse": 2513,
      "Ġcertain": 2514,
      "Ġsent": 2515,
      "##rad": 2516,
      "Ġmen": 2517,
      "Ġalong": 2518,
      "http": 2519,
      "Ġ50": 2520,
      "##viron": 2521,
      "Ġstrong": 2522,
      "##ators": 2523,
      "Ġenc": 2524,
      "Ġparamet": 2525,
      "##ivity": 2526,
      "ĠBl": 2527,
      "Ġid": 2528,
      "Ġamount": 2529,
      "><": 2530,
      "Ġsubject": 2531,
      "##self": 2532,
      "##asing": 2533,
      "ĠAr": 2534,
      "Ġrequired": 2535,
      "50": 2536,
      "Ġdone": 2537,
      "##ayer": 2538,
      "He": 2539,
      "Ġwomen": 2540,
      "##uppose": 2541,
      "sub": 2542,
      "##isc": 2543,
      "##66": 2544,
      "##ava": 2545,
      "'ll": 2546,
      "mathbf": 2547,
      "##30": 2548,
      "Ġaway": 2549,
      "##OM": 2550,
      "##une": 2551,
      "##](": 2552,
      "rm": 2553,
      "Ġsays": 2554,
      "ĠCo": 2555,
      "Ġexperim": 2556,
      "And": 2557,
      "Ġpercent": 2558,
      "Ġfri": 2559,
      "Ġissue": 2560,
      "Ġ${\\": 2561,
      "Ġpress": 2562,
      "##RE": 2563,
      "##21": 2564,
      "qu": 2565,
      "##Id": 2566,
      "##../": 2567,
      "##ograph": 2568,
      "Ġdom": 2569,
      "Ġdesign": 2570,
      "##chan": 2571,
      "return": 2572,
      "##////": 2573,
      "ind": 2574,
      "##ique": 2575,
      "Ġoften": 2576,
      "Ġrequire": 2577,
      "Ġstep": 2578,
      "##icy": 2579,
      "Ġlog": 2580,
      "}_{": 2581,
      "##af": 2582,
      "Ġterms": 2583,
      "Ġactivity": 2584,
      "Ġexam": 2585,
      "ĠSp": 2586,
      "##ogn": 2587,
      "##ilon": 2588,
      "Ġsuff": 2589,
      "Ġmanag": 2590,
      "##ension": 2591,
      "Ġ=>": 2592,
      "##lation": 2593,
      "##Type": 2594,
      "];": 2595,
      "Ġdevelopment": 2596,
      "##osis": 2597,
      "##ribution": 2598,
      "Ġtell": 2599,
      "##ched": 2600,
      "col": 2601,
      "Ġgroups": 2602,
      "04": 2603,
      "Ġport": 2604,
      "Ġhowever": 2605,
      "up": 2606,
      "Ġfore": 2607,
      "##psilon": 2608,
      "##ids": 2609,
      "Ġage": 2610,
      "Ġthing": 2611,
      "ĠCol": 2612,
      "Ġwar": 2613,
      "Ġevent": 2614,
      "##aster": 2615,
      "Ġsens": 2616,
      "##hy": 2617,
      "Ġsuccess": 2618,
      "Ġpolit": 2619,
      "Ġcheck": 2620,
      "##lete": 2621,
      "But": 2622,
      "Ġ(\\": 2623,
      "it": 2624,
      "Ġvir": 2625,
      "Ġcur": 2626,
      "Ġsal": 2627,
      "##OT": 2628,
      "Ġkind": 2629,
      "Ġenough": 2630,
      "Ġcourse": 2631,
      "Ġaccount": 2632,
      "Ġsat": 2633,
      "##ores": 2634,
      "##by": 2635,
      "##uation": 2636,
      "##ttps": 2637,
      "Ċĉĉĉ": 2638,
      "##acy": 2639,
      "Ġtold": 2640,
      "Ġlower": 2641,
      "Ċĉĉĉĉ": 2642,
      "Ġrisk": 2643,
      "Ġpast": 2644,
      "string": 2645,
      "##75": 2646,
      "##ources": 2647,
      "##ley": 2648,
      "##place": 2649,
      "org": 2650,
      "Ġeng": 2651,
      "Ġcompared": 2652,
      "##IG": 2653,
      "##eed": 2654,
      "Ġstring": 2655,
      "beta": 2656,
      "##ories": 2657,
      "Ġfund": 2658,
      "##ener": 2659,
      "Ġrelations": 2660,
      "table": 2661,
      "##rated": 2662,
      "##89": 2663,
      "##ung": 2664,
      "##ison": 2665,
      "31": 2666,
      "##reg": 2667,
      "ĠĠĠĠĠĠĠ": 2668,
      "##71": 2669,
      "##omet": 2670,
      "Ġprovided": 2671,
      "##81": 2672,
      "##85": 2673,
      "Ġconv": 2674,
      "##aces": 2675,
      "sigma": 2676,
      "Ġmaking": 2677,
      "##equ": 2678,
      "Ġaccording": 2679,
      "##ING": 2680,
      "_\\": 2681,
      "##gin": 2682,
      "##----------------------------------------------------------------": 2683,
      "##ony": 2684,
      "Ġinclude": 2685,
      "##Cont": 2686,
      "##AP": 2687,
      "##rror": 2688,
      "\")": 2689,
      "##angu": 2690,
      "##augh": 2691,
      "Ġworking": 2692,
      "Ġvoid": 2693,
      "Ġnecess": 2694,
      "Ġupon": 2695,
      "Ġconditions": 2696,
      "ĠAd": 2697,
      "##pecial": 2698,
      "##84": 2699,
      "pi": 2700,
      "]{}": 2701,
      "Ġ([": 2702,
      "Ex": 2703,
      "Ġrole": 2704,
      "How": 2705,
      "ĠOr": 2706,
      "Ġtext": 2707,
      "##ND": 2708,
      "Ġfood": 2709,
      "Ġbit": 2710,
      "Ġann": 2711,
      "##ival": 2712,
      "##ubl": 2713,
      "##side": 2714,
      "Ġresearch": 2715,
      "Ġauthor": 2716,
      "Ġsection": 2717,
      "Ġmicro": 2718,
      "Ġtarget": 2719,
      "Ġincrease": 2720,
      "##uture": 2721,
      "##24": 2722,
      "Ġeffects": 2723,
      "Ġrange": 2724,
      "Ġcr": 2725,
      "Ġseen": 2726,
      "##ici": 2727,
      "##ession": 2728,
      "##cle": 2729,
      "Ġchanges": 2730,
      "##vironment": 2731,
      "##urity": 2732,
      "Ġexc": 2733,
      "Ġdoesn": 2734,
      "##OS": 2735,
      "Ġrespons": 2736,
      "Ġagre": 2737,
      "##ties": 2738,
      "##86": 2739,
      "Ġdou": 2740,
      "##ache": 2741,
      "##artment": 2742,
      "##enn": 2743,
      "]).": 2744,
      "Ġ([@": 2745,
      "ĠRep": 2746,
      "Ġlarg": 2747,
      "##90": 2748,
      "Ġtax": 2749,
      "Ġtoget": 2750,
      "##atures": 2751,
      "Ġtogether": 2752,
      "Ġbenef": 2753,
      "##ief": 2754,
      "##icense": 2755,
      "ĠâĢĺ": 2756,
      "Ġsource": 2757,
      "Ġbase": 2758,
      "---": 2759,
      "64": 2760,
      "bl": 2761,
      "Ġdetail": 2762,
      "ĠÎ": 2763,
      "Ġcompon": 2764,
      "Ġprotein": 2765,
      "Ġmoney": 2766,
      "Ġproperty": 2767,
      "Ġcomput": 2768,
      "Ġmil": 2769,
      "Ġjob": 2770,
      "Ġcomplet": 2771,
      "An": 2772,
      "##pper": 2773,
      "##oin": 2774,
      "Ġincreased": 2775,
      "bib": 2776,
      "##uit": 2777,
      "Ġbecome": 2778,
      "Ġmor": 2779,
      "##ands": 2780,
      "##FF": 2781,
      "pm": 2782,
      "Ġtalk": 2783,
      "Ġflu": 2784,
      "26": 2785,
      "For": 2786,
      "Ġfactors": 2787,
      "##empt": 2788,
      "##arc": 2789,
      "Ġphot": 2790,
      "Ġimage": 2791,
      "40": 2792,
      "ĊĊĊ": 2793,
      "Ġservice": 2794,
      "Ġmechan": 2795,
      "Ġcannot": 2796,
      "Ġobserved": 2797,
      "Ġdri": 2798,
      "##iction": 2799,
      "##iation": 2800,
      "Ġcomplex": 2801,
      "There": 2802,
      "Ġrequest": 2803,
      "Ġsepar": 2804,
      "##Ex": 2805,
      "Ġconduct": 2806,
      "Ġcountry": 2807,
      "Ġlove": 2808,
      "Ġthird": 2809,
      "ĠLe": 2810,
      "Ġparticip": 2811,
      "www": 2812,
      "Ġbook": 2813,
      "ĠUniversity": 2814,
      "##uration": 2815,
      "##istic": 2816,
      "Ġfoc": 2817,
      "\"}).": 2818,
      "##31": 2819,
      "Ġlo": 2820,
      "Ġmonths": 2821,
      "Ġregard": 2822,
      "Ġep": 2823,
      "##ground": 2824,
      "Ġuser": 2825,
      "cd": 2826,
      "of": 2827,
      "Ġdisease": 2828,
      "##ules": 2829,
      "##minist": 2830,
      "##AG": 2831,
      "Ġestabl": 2832,
      "></": 2833,
      "Ġcult": 2834,
      "pl": 2835,
      "Ġdeb": 2836,
      "Ġthought": 2837,
      "Ġmeasure": 2838,
      "sum": 2839,
      "##back": 2840,
      "##ruction": 2841,
      "ĠÐ": 2842,
      "Ġearly": 2843,
      "##ai": 2844,
      "Ġdoing": 2845,
      "ĠSee": 2846,
      "##roid": 2847,
      "mod": 2848,
      "Ġsocial": 2849,
      "add": 2850,
      "##rix": 2851,
      "Ġcreate": 2852,
      "Ġestim": 2853,
      "##respond": 2854,
      "Ġair": 2855,
      "##arrow": 2856,
      "un": 2857,
      "html": 2858,
      "##umber": 2859,
      "Ġmeet": 2860,
      "Ġmom": 2861,
      "Ġnormal": 2862,
      "##34": 2863,
      "##Cl": 2864,
      "Ġfrequ": 2865,
      "##ependent": 2866,
      "Ġeconom": 2867,
      "Ġ40": 2868,
      "Ġcalcul": 2869,
      "##mber": 2870,
      "Ġstructure": 2871,
      "##74": 2872,
      "Ġclear": 2873,
      "##Pro": 2874,
      "Ġdefendant": 2875,
      "Ġclin": 2876,
      "^{\\": 2877,
      "##ucle": 2878,
      "Ġcontent": 2879,
      "Ġ22": 2880,
      "Ġspecial": 2881,
      "##OD": 2882,
      "Ġprior": 2883,
      "Ġdescribed": 2884,
      "Ġdeath": 2885,
      "Ġbehav": 2886,
      "mathrm": 2887,
      "##76": 2888,
      "Ġprivate": 2889,
      "##use": 2890,
      "Ġmultiple": 2891,
      "To": 2892,
      "##35": 2893,
      "\\_": 2894,
      "sqrt": 2895,
      "Ġviol": 2896,
      "Ġfix": 2897,
      "##ortun": 2898,
      "Ġactually": 2899,
      "Ġpositive": 2900,
      "class": 2901,
      "##oms": 2902,
      "ĠCan": 2903,
      "Ġcy": 2904,
      "Ch": 2905,
      "Ġpoints": 2906,
      "Ġversion": 2907,
      "Ġcompany": 2908,
      "Ġred": 2909,
      "Ġstre": 2910,
      "td": 2911,
      "##mm": 2912,
      "Ġseason": 2913,
      "Ġdeg": 2914,
      "Ġwa": 2915,
      "##inary": 2916,
      "Ġdrug": 2917,
      "ĠĠĠĠĠĠĠĠ": 2918,
      "Ġsignal": 2919,
      "Ġacross": 2920,
      "Ġhappen": 2921,
      "##91": 2922,
      "ph": 2923,
      "Ġothers": 2924,
      "Ġquant": 2925,
      "##sequ": 2926,
      "##imum": 2927,
      "##nter": 2928,
      "##most": 2929,
      "Ġwin": 2930,
      "##ounds": 2931,
      "Ġdam": 2932,
      "Ġconcer": 2933,
      "Pro": 2934,
      "Ġsurface": 2935,
      "##itch": 2936,
      "Ġrather": 2937,
      "Ġbreak": 2938,
      "##omp": 2939,
      "##amm": 2940,
      "##pec": 2941,
      "Ġonce": 2942,
      "Ġmax": 2943,
      "##ĊĠ": 2944,
      "Ġinitial": 2945,
      "##atter": 2946,
      "ĠMr": 2947,
      "##ceed": 2948,
      "Ġq": 2949,
      "Ġcut": 2950,
      "##95": 2951,
      "ĠFig": 2952,
      "##onfig": 2953,
      "min": 2954,
      "##ctor": 2955,
      "Ġinj": 2956,
      "Ġey": 2957,
      "##fo": 2958,
      "##si": 2959,
      "##rand": 2960,
      "Ġlikely": 2961,
      "ĠJoh": 2962,
      "^{-": 2963,
      "Ġfive": 2964,
      "gamma": 2965,
      "Ġpick": 2966,
      "Ġshows": 2967,
      "Ġcorrespond": 2968,
      "Ġsaf": 2969,
      "Ġmillion": 2970,
      "Ġperformed": 2971,
      "Ġshowed": 2972,
      "Ġbelow": 2973,
      "Ġweight": 2974,
      "ĠAmerican": 2975,
      "li": 2976,
      "Ġpropos": 2977,
      "Ġmembers": 2978,
      "ĠAss": 2979,
      "Ġmatter": 2980,
      "ĠGo": 2981,
      "Ġfactor": 2982,
      "Ġmarket": 2983,
      "##box": 2984,
      "Ġhouse": 2985,
      "##ried": 2986,
      "Ġcame": 2987,
      "##ogen": 2988,
      ")*": 2989,
      "Ġsystems": 2990,
      "Ġapproach": 2991,
      "##uf": 2992,
      "Ġeval": 2993,
      "##ged": 2994,
      "##ude": 2995,
      "##idered": 2996,
      "delta": 2997,
      "value": 2998,
      "Ġspect": 2999,
      "##ilde": 3000,
      "ĠGod": 3001,
      "##36": 3002,
      "35": 3003,
      "Ġfalse": 3004,
      "Ġcause": 3005,
      "ĠMay": 3006,
      "Ġmus": 3007,
      "Ġans": 3008,
      "##AD": 3009,
      "Ġobtained": 3010,
      "##hing": 3011,
      "##ensity": 3012,
      "Ġsite": 3013,
      "Ġtook": 3014,
      "Ġmakes": 3015,
      "##obal": 3016,
      "Ġ(*": 3017,
      "##96": 3018,
      "##icult": 3019,
      "##CC": 3020,
      "##{{\\": 3021,
      "##000": 3022,
      "Ġnight": 3023,
      "##oard": 3024,
      ".)": 3025,
      "Ġvar": 3026,
      "##ires": 3027,
      "##onal": 3028,
      "##ones": 3029,
      "27": 3030,
      "Ġvarious": 3031,
      "Ġapplication": 3032,
      "Ġever": 3033,
      "Ġcancer": 3034,
      "on": 3035,
      "Ġblood": 3036,
      "ĠSec": 3037,
      "Ġlimit": 3038,
      "Ġexperience": 3039,
      "Ġsoft": 3040,
      ")(": 3041,
      "Ġwrit": 3042,
      "Ġdecre": 3043,
      "Ġbar": 3044,
      "34": 3045,
      "Ġdeal": 3046,
      "##94": 3047,
      "##anguage": 3048,
      "##oph": 3049,
      "'d": 3050,
      "year": 3051,
      "Ġtemper": 3052,
      "##uild": 3053,
      "Ġperm": 3054,
      "Ġwhole": 3055,
      "##anc": 3056,
      "Ġtaken": 3057,
      "##82": 3058,
      "Ġmar": 3059,
      "80": 3060,
      "Ġconsidered": 3061,
      "Ġadded": 3062,
      "Ġfuture": 3063,
      "Ġrelated": 3064,
      "##abor": 3065,
      "Ġclos": 3066,
      "##osition": 3067,
      "##ero": 3068,
      "Ġdemonst": 3069,
      "ĠOne": 3070,
      "##plement": 3071,
      "pr": 3072,
      "Ġele": 3073,
      "Ġyet": 3074,
      "Ġyoung": 3075,
      "Ġsam": 3076,
      "Ġconcent": 3077,
      "##ender": 3078,
      "##ches": 3079,
      "em": 3080,
      "##illed": 3081,
      "##umn": 3082,
      "Al": 3083,
      "Ġdefined": 3084,
      "##uses": 3085,
      "Ġaddress": 3086,
      "No": 3087,
      "##uth": 3088,
      "Ġparent": 3089,
      "##=\\": 3090,
      "Ġloss": 3091,
      "ĠIN": 3092,
      "Ġblock": 3093,
      "Ġanti": 3094,
      "over": 3095,
      "##sy": 3096,
      "Figure": 3097,
      "Ġbelieve": 3098,
      "##ĠĠĠĠĠĠĠĠĠĠĠĠĠĠĠĠĠĠĠĠĠĠĠĠĠĠĠĠĠĠĠĠĠĠĠĠĠĠĠĠĠĠĠĠĠĠĠĠĠĠĠĠĠĠĠĠĠĠĠĠĠĠĠĠĠĠĠĠĠĠĠĠĠĠĠĠĠĠĠĠĠĠĠĠĠĠĠĠĠĠĠĠĠĠĠĠĠĠĠĠĠĠĠĠĠĠĠĠĠĠĠĠĠĠĠĠĠĠĠĠĠĠĠĠĠĠĠĠ": 3099,
      "So": 3100,
      "Ġmut": 3101,
      "Ġnull": 3102,
      "ĠTe": 3103,
      "##cular": 3104,
      "Ġlib": 3105,
      "out": 3106,
      "##------------": 3107,
      "##iam": 3108,
      "Ġconsist": 3109,
      "ĠThen": 3110,
      "le": 3111,
      "##72": 3112,
      "Ġrelationship": 3113,
      "ĠWith": 3114,
      "test": 3115,
      "##rary": 3116,
      "##ilt": 3117,
      "Ġsolution": 3118,
      "##wards": 3119,
      "Ġcommunity": 3120,
      "ĠAfter": 3121,
      "partial": 3122,
      "##sg": 3123,
      "log": 3124,
      "ĠCal": 3125,
      "Ġstates": 3126,
      "##ino": 3127,
      "Ġsex": 3128,
      "Ġwent": 3129,
      "Ġminutes": 3130,
      "##List": 3131,
      "##rc": 3132,
      "ĠBe": 3133,
      "##itution": 3134,
      "%)": 3135,
      "ĠCent": 3136,
      "Ġrat": 3137,
      "rho": 3138,
      "##aff": 3139,
      "Ġemb": 3140,
      "##Ð¾": 3141,
      "ĠChrist": 3142,
      "ĠInt": 3143,
      "Ġdecision": 3144,
      "Ġappl": 3145,
      "Â°": 3146,
      "sc": 3147,
      "##ober": 3148,
      "leq": 3149,
      "Ġassess": 3150,
      "##32": 3151,
      "##resh": 3152,
      "##xim": 3153,
      "##fl": 3154,
      "##pping": 3155,
      "Ġmind": 3156,
      "Ġmix": 3157,
      "##iding": 3158,
      "Ġ26": 3159,
      "Ġland": 3160,
      "Ġseem": 3161,
      "ĠPat": 3162,
      "Ġdifficult": 3163,
      "##ulated": 3164,
      "Ġmaint": 3165,
      "Ġur": 3166,
      "Ġfra": 3167,
      "âĢ¦": 3168,
      "Ġdevice": 3169,
      "Ġtrying": 3170,
      "Ġdecl": 3171,
      "Ġincluded": 3172,
      "##rows": 3173,
      "##View": 3174,
      "ĠGen": 3175,
      "sp": 3176,
      "Ġcamp": 3177,
      "Is": 3178,
      "Ġcross": 3179,
      "ĠFl": 3180,
      "Ġinhib": 3181,
      "Ġdr": 3182,
      "eq": 3183,
      "Ġcard": 3184,
      "##verse": 3185,
      "Ġregion": 3186,
      "Ġcontract": 3187,
      "##tr": 3188,
      "##atus": 3189,
      "Ġenvironment": 3190,
      "')": 3191,
      "Ġ...": 3192,
      "##order": 3193,
      "Ġ},": 3194,
      "Ġhalf": 3195,
      "Ġground": 3196,
      "##ached": 3197,
      "Ġtoday": 3198,
      "Ġrespectively": 3199,
      "Ġface": 3200,
      "##ideo": 3201,
      "ĊĠĠĠĠĠĠĠĠĠĠĠĠĠĠĠĠĠĠĠĠĠĠĠĠĠĠĠĠĠĠĠĠ": 3202,
      "##II": 3203,
      "##inding": 3204,
      "##ply": 3205,
      "Ġclose": 3206,
      "##pen": 3207,
      "theta": 3208,
      "##izing": 3209,
      "##CR": 3210,
      "Ġmagn": 3211,
      "Ġdefin": 3212,
      "ÂĤ": 3213,
      "ĠAct": 3214,
      "Ġcustom": 3215,
      "],[@": 3216,
      "Ġreceived": 3217,
      "Tr": 3218,
      "[@": 3219,
      "ĠMore": 3220,
      "##itting": 3221,
      "Ġwon": 3222,
      "Ġadditional": 3223,
      "Ġentire": 3224,
      "##ternal": 3225,
      "##raft": 3226,
      "Ġsix": 3227,
      "##ector": 3228,
      "##name": 3229,
      "Ġtable": 3230,
      "Ġchall": 3231,
      "Ġcity": 3232,
      "##earch": 3233,
      "Ġsignificantly": 3234,
      "##odes": 3235,
      "Ġanything": 3236,
      "Ġpatient": 3237,
      "Ġdat": 3238,
      "##date": 3239,
      "##ball": 3240,
      "##ribute": 3241,
      "Ġfav": 3242,
      "Ġnetwork": 3243,
      "##etition": 3244,
      "Ġsimple": 3245,
      "Ġill": 3246,
      "ĠInst": 3247,
      "##oo": 3248,
      "new": 3249,
      "Ġflow": 3250,
      "ĠÂ§": 3251,
      "Ġaccept": 3252,
      "Ġbound": 3253,
      "ĠMy": 3254,
      "Ġdig": 3255,
      "Ġbring": 3256,
      "omega": 3257,
      "##92": 3258,
      "Ġnat": 3259,
      "Ġlink": 3260,
      "Ġgrowth": 3261,
      "Ġcompl": 3262,
      "45": 3263,
      "##iter": 3264,
      "##OP": 3265,
      "Ġ\\\\": 3266,
      "##ÂłÂł": 3267,
      "Ġneeds": 3268,
      "##istance": 3269,
      "Ġasked": 3270,
      "##lying": 3271,
      "##ilities": 3272,
      "28": 3273,
      "##apt": 3274,
      "##ervice": 3275,
      "phi": 3276,
      "##ocal": 3277,
      "##ensive": 3278,
      "##ederal": 3279,
      "Ġut": 3280,
      "en": 3281,
      "##erc": 3282,
      "##ying": 3283,
      "##heck": 3284,
      "Ġgetting": 3285,
      "param": 3286,
      "##rew": 3287,
      "36": 3288,
      "ve": 3289,
      "\");": 3290,
      "Ġhistory": 3291,
      "##dro": 3292,
      "##pecially": 3293,
      "##pose": 3294,
      "##for": 3295,
      "##fty": 3296,
      "Ġheart": 3297,
      "Ġtw": 3298,
      "as": 3299,
      "##ledge": 3300,
      "Ġlength": 3301,
      "ĠCont": 3302,
      "Ġindu": 3303,
      "##****************": 3304,
      "an": 3305,
      "Ġlooking": 3306,
      "Ġimprove": 3307,
      "Ġnear": 3308,
      "##aced": 3309,
      "ĠInc": 3310,
      "##Ðµ": 3311,
      "##SS": 3312,
      "Ġattack": 3313,
      "Ġdifference": 3314,
      "ĠMed": 3315,
      "Ġadm": 3316,
      "Ġhref": 3317,
      "##umb": 3318,
      "tau": 3319,
      "Ġmethods": 3320,
      "##....": 3321,
      "Ġseries": 3322,
      "bar": 3323,
      "const": 3324,
      "Ġcontact": 3325,
      "##orld": 3326,
      "Ġperformance": 3327,
      "Ġexec": 3328,
      "Ġfilm": 3329,
      "include": 3330,
      "##ication": 3331,
      "ĠĠĠĠĠĠĠĠĠĠĠĠĠĠĠĠĠĠĠĠĠĠĠĠĠ": 3332,
      "ĠEng": 3333,
      "##ãĤ": 3334,
      "##uly": 3335,
      "Ġpaper": 3336,
      "##isf": 3337,
      "##ersion": 3338,
      "##ama": 3339,
      "##OL": 3340,
      "Ġerr": 3341,
      "Ġproblems": 3342,
      "##EM": 3343,
      "Ġvia": 3344,
      "Ġplaintiff": 3345,
      "Ġach": 3346,
      "Ġinput": 3347,
      "Ġparty": 3348,
      "based": 3349,
      "ĠAm": 3350,
      "Ġthus": 3351,
      "Ġmiss": 3352,
      "Ġissues": 3353,
      "Ġinvolved": 3354,
      "$-": 3355,
      "Ġcorrect": 3356,
      "06": 3357,
      "Ġalmost": 3358,
      "Ġpattern": 3359,
      "ĠBy": 3360,
      "Ġroom": 3361,
      "##ges": 3362,
      "Ġadj": 3363,
      "##ummary": 3364,
      "##wise": 3365,
      "##to": 3366,
      "Ġnothing": 3367,
      "Ġhours": 3368,
      "big": 3369,
      "Ġservices": 3370,
      "Ġtherefore": 3371,
      "infty": 3372,
      "Ġ31": 3373,
      "##wer": 3374,
      "##irl": 3375,
      "Ġneeded": 3376,
      "Ġexpected": 3377,
      "##sel": 3378,
      "##now": 3379,
      "##hest": 3380,
      "Ġeduc": 3381,
      "ĠMc": 3382,
      "On": 3383,
      "Ġadminist": 3384,
      "##unc": 3385,
      "Ġassum": 3386,
      "##UT": 3387,
      "de": 3388,
      "times": 3389,
      "Ġ23": 3390,
      "Ġworks": 3391,
      "ĠCount": 3392,
      "Ġang": 3393,
      "Ġheld": 3394,
      "##uments": 3395,
      "##ising": 3396,
      "size": 3397,
      "##iles": 3398,
      "##Ð°": 3399,
      "##87": 3400,
      "ĠDef": 3401,
      "##fully": 3402,
      "Ġcoll": 3403,
      "33": 3404,
      "##ean": 3405,
      "ĠDep": 3406,
      "##atively": 3407,
      "Ġtum": 3408,
      "Ġpopulation": 3409,
      "Ġinstead": 3410,
      "Ġofficial": 3411,
      "Ġblack": 3412,
      "##ynam": 3413,
      "Ġ$$": 3414,
      "Ġinflu": 3415,
      "##urope": 3416,
      "##IM": 3417,
      "##hel": 3418,
      "Ġhost": 3419,
      "##fect": 3420,
      "Ġshall": 3421,
      "##83": 3422,
      "##enc": 3423,
      "##come": 3424,
      "##55": 3425,
      "Ġattempt": 3426,
      "Ġoccur": 3427,
      "Ġbegin": 3428,
      "Ġrecent": 3429,
      "time": 3430,
      "}{\\": 3431,
      "29": 3432,
      "fl": 3433,
      "##ros": 3434,
      "Ġlines": 3435,
      "Ġseems": 3436,
      "##aut": 3437,
      "Ġter": 3438,
      "##TR": 3439,
      "Ġ(-": 3440,
      "ĠCor": 3441,
      "Ġfall": 3442,
      "##anks": 3443,
      "Ġimplement": 3444,
      "Ġgene": 3445,
      "##atal": 3446,
      "##22": 3447,
      "##AB": 3448,
      "Ġver": 3449,
      "##olve": 3450,
      "##itten": 3451,
      "Ġremov": 3452,
      "Ġidea": 3453,
      "##(\\": 3454,
      "Ġpolice": 3455,
      "Ġpubl": 3456,
      "Ġstory": 3457,
      "Ġmotion": 3458,
      "https": 3459,
      "##EC": 3460,
      "Ġintrodu": 3461,
      "ap": 3462,
      "Ġelement": 3463,
      "##IL": 3464,
      "##yz": 3465,
      "Ġcomes": 3466,
      "Ġbad": 3467,
      "Ġstudents": 3468,
      "##ops": 3469,
      "ĠNot": 3470,
      "When": 3471,
      "##load": 3472,
      "Ġpredict": 3473,
      "Ġproduction": 3474,
      "Ġcolor": 3475,
      "##sec": 3476,
      "key": 3477,
      "##selves": 3478,
      "App": 3479,
      "Ġquality": 3480,
      "Ġtool": 3481,
      "##String": 3482,
      "Ġdisplay": 3483,
      "Ġoutput": 3484,
      "Ġsomeone": 3485,
      "}}$": 3486,
      "Ġ/*": 3487,
      "/*": 3488,
      "Ġmodels": 3489,
      "ĠTHE": 3490,
      "##anced": 3491,
      "Ġreve": 3492,
      "##oon": 3493,
      "##aging": 3494,
      "Ġtaking": 3495,
      "##rapy": 3496,
      "Ġstarted": 3497,
      "##ili": 3498,
      "##ales": 3499,
      "Ġpage": 3500,
      "Â±": 3501,
      "Ġdocument": 3502,
      "Ġord": 3503,
      "ĠYork": 3504,
      "ĠMin": 3505,
      "Ġfig": 3506,
      "Ġmedia": 3507,
      "ĠMan": 3508,
      "##IR": 3509,
      "Ġprovides": 3510,
      "Ġload": 3511,
      "Ġdistribution": 3512,
      "not": 3513,
      "##ills": 3514,
      "Ġpolicy": 3515,
      "Ġitself": 3516,
      "##erve": 3517,
      "form": 3518,
      "wh": 3519,
      "Ġsearch": 3520,
      "ĠPres": 3521,
      "ĠThus": 3522,
      "##UR": 3523,
      "Ġnecessary": 3524,
      "##elt": 3525,
      "##ENT": 3526,
      "##ections": 3527,
      "Ġrecogn": 3528,
      "##ulations": 3529,
      "Ġ60": 3530,
      "ass": 3531,
      "##EL": 3532,
      "##rown": 3533,
      "document": 3534,
      "Ġindust": 3535,
      "09": 3536,
      "Ġnucle": 3537,
      "ĠĠĠĠĠĠĠĠĠĠ": 3538,
      "##ccording": 3539,
      "Wh": 3540,
      "Ġaverage": 3541,
      "see": 3542,
      "##ites": 3543,
      "##unch": 3544,
      "Ġlive": 3545,
      "Ġproced": 3546,
      "ĠPol": 3547,
      "code": 3548,
      "IN": 3549,
      "##astic": 3550,
      "ĠDo": 3551,
      "##ospital": 3552,
      "##41": 3553,
      "Ġund": 3554,
      "Ġrights": 3555,
      "##reate": 3556,
      "Ġappear": 3557,
      "41": 3558,
      "Ġprobably": 3559,
      "Ġ||": 3560,
      "##ux": 3561,
      "##Res": 3562,
      "ĠTrump": 3563,
      "čĊč": 3564,
      "ĠNational": 3565,
      "60": 3566,
      "##OC": 3567,
      "Ġcompar": 3568,
      "##Data": 3569,
      "Ġdiagn": 3570,
      "Ġfront": 3571,
      "Ġoriginal": 3572,
      "##ips": 3573,
      "##utions": 3574,
      "Ġlearn": 3575,
      "##61": 3576,
      "])": 3577,
      "##rs": 3578,
      "Ġdire": 3579,
      "##aled": 3580,
      "Ġclinical": 3581,
      "Ġess": 3582,
      "##73": 3583,
      "Ġmoment": 3584,
      "##bit": 3585,
      "self": 3586,
      "Ġalleg": 3587,
      "Ġconfig": 3588,
      "}}\\": 3589,
      "##}$": 3590,
      "Ġexact": 3591,
      "Ġunc": 3592,
      "##ding": 3593,
      "##AA": 3594,
      "Ġintern": 3595,
      "Ġimpact": 3596,
      "Ġfunctions": 3597,
      "##uk": 3598,
      "That": 3599,
      "define": 3600,
      "##oke": 3601,
      "ĠĠĠĠĠĠĠĠĠĠĠ": 3602,
      "Ġsimply": 3603,
      "Ġproducts": 3604,
      "##rame": 3605,
      "##ils": 3606,
      "##eter": 3607,
      "Ġsum": 3608,
      "##65": 3609,
      "##ributed": 3610,
      "ĠOF": 3611,
      "##rest": 3612,
      "Ġphase": 3613,
      "Ġwalk": 3614,
      "##olic": 3615,
      "Ġpan": 3616,
      "Ġespecially": 3617,
      "Ġdim": 3618,
      "Ġindex": 3619,
      "*,": 3620,
      "ĠEurope": 3621,
      "Ġtemperature": 3622,
      "ĠAg": 3623,
      "Ġwords": 3624,
      "##ecause": 3625,
      "##clusion": 3626,
      "##hers": 3627,
      "Ġfoot": 3628,
      "Ġsequence": 3629,
      "##overed": 3630,
      "![": 3631,
      "##IV": 3632,
      "##istics": 3633,
      "Ġsample": 3634,
      "Ġprec": 3635,
      "##arily": 3636,
      "Ġproperties": 3637,
      "Ġcontext": 3638,
      "he": 3639,
      "Ġdest": 3640,
      "Ġdepend": 3641,
      "Ġchem": 3642,
      "##vious": 3643,
      "##SE": 3644,
      "Ġformer": 3645,
      "##RNA": 3646,
      "Ġinstall": 3647,
      "##rec": 3648,
      "Ġvalid": 3649,
      "Ġpersonal": 3650,
      "Ġ!=": 3651,
      "Ġeffort": 3652,
      "Ġprint": 3653,
      "Ġassert": 3654,
      "nu": 3655,
      "ll": 3656,
      "##inally": 3657,
      "Ġcomplete": 3658,
      "Ġderiv": 3659,
      "ĠCity": 3660,
      "##go": 3661,
      "Ġdetermined": 3662,
      "Ġpresence": 3663,
      "Ġsil": 3664,
      "Ġmedical": 3665,
      "Ġcopy": 3666,
      "Delta": 3667,
      "##perty": 3668,
      "Ġdistrict": 3669,
      "##rast": 3670,
      "Ġsqu": 3671,
      "ĠAdd": 3672,
      "Ġstatic": 3673,
      "ĠAb": 3674,
      "Ġevents": 3675,
      "##iddle": 3676,
      "##79": 3677,
      "Ġmole": 3678,
      "Ġgenes": 3679,
      "Ġquick": 3680,
      "##ĹÂ": 3681,
      "##sych": 3682,
      "^\\": 3683,
      "Ġcred": 3684,
      "##opt": 3685,
      "Ġcal": 3686,
      "Ġpolitical": 3687,
      "Ġoutside": 3688,
      "##pri": 3689,
      "##plit": 3690,
      "Ġpressure": 3691,
      "##ymb": 3692,
      "Ġsense": 3693,
      "ĠJan": 3694,
      "ĠMar": 3695,
      "##inks": 3696,
      "ĠCD": 3697,
      "44": 3698,
      "Ġrand": 3699,
      "Ġdate": 3700,
      "Ġarray": 3701,
      "##oun": 3702,
      "##IP": 3703,
      "Ġsatisf": 3704,
      "Ġstrateg": 3705,
      "Ġeffective": 3706,
      "Ġtypes": 3707,
      "##oma": 3708,
      "Ġlack": 3709,
      "##Ch": 3710,
      "Ġprimary": 3711,
      "Ġconsum": 3712,
      "ad": 3713,
      "ĠString": 3714,
      "Ġlanguage": 3715,
      "px": 3716,
      "##ronic": 3717,
      "##ults": 3718,
      "##ags": 3719,
      "Ãĳ": 3720,
      "Ġcharg": 3721,
      "hat": 3722,
      "Ġcreat": 3723,
      "Ġeverything": 3724,
      "Ġ&&": 3725,
      "##amed": 3726,
      "Ġwrong": 3727,
      "51": 3728,
      "Ġremain": 3729,
      "##eration": 3730,
      "Ġhom": 3731,
      "Ġ?": 3732,
      "Ġphysical": 3733,
      "Ġfeatures": 3734,
      "ĠÂ±": 3735,
      "Ġlonger": 3736,
      "##ocr": 3737,
      "ĠCar": 3738,
      "Cl": 3739,
      "##annel": 3740,
      "__": 3741,
      "##../../": 3742,
      "08": 3743,
      "Ġinside": 3744,
      "Ġpain": 3745,
      "Ġdetermine": 3746,
      "($": 3747,
      "Ġnews": 3748,
      "Ġselect": 3749,
      "oper": 3750,
      "Ġpresented": 3751,
      "##64": 3752,
      "Ġeasy": 3753,
      "Ġox": 3754,
      "Ġhyp": 3755,
      "Ġjudgment": 3756,
      "Ġquite": 3757,
      "Ġidentified": 3758,
      "Ġcreated": 3759,
      "##,\\": 3760,
      "Ġstop": 3761,
      "Ġprevent": 3762,
      "Ġacid": 3763,
      "##omb": 3764,
      "Ġrunning": 3765,
      "##ana": 3766,
      "Ġincreasing": 3767,
      "Ġsamples": 3768,
      "));": 3769,
      "##oat": 3770,
      "Ġbasis": 3771,
      "Ġ]": 3772,
      "ĊĠĠĠĠĠĠĠĠĠĠĠĠĠĠĠĠĠĠĠĠĠĠĠ": 3773,
      "##ging": 3774,
      "##aving": 3775,
      "Ġpoly": 3776,
      "ĠJohn": 3777,
      "Ġrandom": 3778,
      "Ġsurv": 3779,
      "##actions": 3780,
      "##ees": 3781,
      "Ġstay": 3782,
      "Ġparameters": 3783,
      "Ġevalu": 3784,
      "Ġwanted": 3785,
      "Ġhope": 3786,
      "Ġtiss": 3787,
      "##lt": 3788,
      "##lig": 3789,
      "Ġwhite": 3790,
      "Ġstatus": 3791,
      "Ġfollows": 3792,
      "Ġcontroll": 3793,
      "Ġstra": 3794,
      "##alculate": 3795,
      "public": 3796,
      "with": 3797,
      "Ġstatement": 3798,
      "##ha": 3799,
      "čĊĠĠĠ": 3800,
      "Ġmember": 3801,
      "##och": 3802,
      "42": 3803,
      "##het": 3804,
      "Ġ\"\"": 3805,
      "##urch": 3806,
      "##ards": 3807,
      "Ġapproxim": 3808,
      "Ġareas": 3809,
      "Âĥ": 3810,
      "##-\\": 3811,
      "Ġfire": 3812,
      "Get": 3813,
      "##ancial": 3814,
      "Ġpack": 3815,
      "##ãĥ": 3816,
      "Ġrespond": 3817,
      "ij": 3818,
      "Ġsem": 3819,
      "My": 3820,
      "Ġisn": 3821,
      "##ien": 3822,
      "Ġcontinu": 3823,
      "Un": 3824,
      "ĠGu": 3825,
      "trans": 3826,
      "ĠPart": 3827,
      "Ġelements": 3828,
      "##ÑĤ": 3829,
      "##CH": 3830,
      "ĠLicense": 3831,
      "ĠCon": 3832,
      "##51": 3833,
      "Ġframe": 3834,
      "##ager": 3835,
      "Ġweeks": 3836,
      "##ogle": 3837,
      "##asons": 3838,
      "ĠQu": 3839,
      "##ĉĉĉĉ": 3840,
      "Ġdirectly": 3841,
      "##bor": 3842,
      "##more": 3843,
      "file": 3844,
      "Ġpair": 3845,
      "Ġconstant": 3846,
      "Ġrecomm": 3847,
      "##hood": 3848,
      "##rial": 3849,
      "##ese": 3850,
      "##tty": 3851,
      "Ġste": 3852,
      "Ġquestions": 3853,
      "Ġago": 3854,
      "##itary": 3855,
      "##93": 3856,
      "##ottom": 3857,
      "ĠGe": 3858,
      "Ġfun": 3859,
      "##rite": 3860,
      "ĊĠĠĠĠĠĠ": 3861,
      "rel": 3862,
      "Ġmemory": 3863,
      "##vere": 3864,
      "Ġens": 3865,
      "Ġprinc": 3866,
      "##book": 3867,
      "Ġforce": 3868,
      "Ġnatural": 3869,
      "ĠPr": 3870,
      "Ġconfirm": 3871,
      "Ġcry": 3872,
      "Ġextra": 3873,
      "Ġ28": 3874,
      "Ġgames": 3875,
      "Ġrefer": 3876,
      "##olds": 3877,
      "Ġtheory": 3878,
      "##isions": 3879,
      "Ġtransfer": 3880,
      "##itation": 3881,
      "dis": 3882,
      "##ellant": 3883,
      "Ġtraining": 3884,
      "ĠRev": 3885,
      "##~~": 3886,
      "']": 3887,
      "Ġstri": 3888,
      "##ocol": 3889,
      "Ġsett": 3890,
      "##oles": 3891,
      "Ġpie": 3892,
      "am": 3893,
      "##âĪĴ": 3894,
      "Ġavoid": 3895,
      "##ians": 3896,
      "Ġ(\\[": 3897,
      "Ġknowledge": 3898,
      "##lementary": 3899,
      "Sh": 3900,
      "Ġ32": 3901,
      "reg": 3902,
      "ĠUs": 3903,
      "Ġgas": 3904,
      "##ights": 3905,
      "##ially": 3906,
      "Ġcontinue": 3907,
      "Ġ/>": 3908,
      "ĠAP": 3909,
      "rangle": 3910,
      "Ġopportun": 3911,
      "\\])": 3912,
      "##ett": 3913,
      "ĠDNA": 3914,
      "Ġple": 3915,
      "##erver": 3916,
      "##mon": 3917,
      "##arning": 3918,
      "Ġbuilding": 3919,
      "ĠHis": 3920,
      "##EG": 3921,
      "Ġbehind": 3922,
      "ĠSystem": 3923,
      "Ġfocus": 3924,
      "se": 3925,
      "##mpt": 3926,
      "##spect": 3927,
      "##clus": 3928,
      "Ġfib": 3929,
      "75": 3930,
      "##eff": 3931,
      "##ously": 3932,
      "Ġscreen": 3933,
      "Ġfem": 3934,
      "tilde": 3935,
      "Ġgreater": 3936,
      "##ows": 3937,
      "Ġcontain": 3938,
      "Ġapplied": 3939,
      "Ġshare": 3940,
      "Ġreplace": 3941,
      "##iet": 3942,
      "##ffic": 3943,
      "##erson": 3944,
      "Ġlimited": 3945,
      "##erences": 3946,
      "##bl": 3947,
      "##ayout": 3948,
      "Ġvideo": 3949,
      "##}}": 3950,
      "##Ar": 3951,
      "Ġmice": 3952,
      "##lick": 3953,
      "Ġdefault": 3954,
      "Ġrelease": 3955,
      "##elling": 3956,
      "Ġpreviously": 3957,
      "ĠPresident": 3958,
      "##odel": 3959,
      "##lege": 3960,
      "Ġbehavior": 3961,
      "term": 3962,
      "ĠSuppose": 3963,
      "##aves": 3964,
      "msg": 3965,
      "Ġmap": 3966,
      "Ġtitle": 3967,
      "Ġsaw": 3968,
      "Ġincludes": 3969,
      "Ġreduced": 3970,
      "Ġful": 3971,
      "but": 3972,
      "ĠDr": 3973,
      "##ague": 3974,
      "ĠTherefore": 3975,
      "##roph": 3976,
      "##78": 3977,
      "Ġvict": 3978,
      "=\\": 3979,
      "##________": 3980,
      "Ġability": 3981,
      "Ġnational": 3982,
      "Ġoption": 3983,
      "##Value": 3984,
      "##aged": 3985,
      "##semb": 3986,
      "ab": 3987,
      "##oming": 3988,
      "##ula": 3989,
      "Ġexpress": 3990,
      "Ġbur": 3991,
      "Ġveh": 3992,
      "ĠOur": 3993,
      "##plate": 3994,
      "ĠIntern": 3995,
      "ĠAf": 3996,
      "Ġprep": 3997,
      "Table": 3998,
      "Ġvac": 3999,
      "##SC": 4000,
      "Ġmessage": 4001,
      "Ġstyle": 4002,
      "##pite": 4003,
      "bf": 4004,
      "Ġ35": 4005,
      "Ġmach": 4006,
      "Ġarm": 4007,
      "Ġclaims": 4008,
      "##imate": 4009,
      "##osure": 4010,
      "##rief": 4011,
      "Ġdeveloped": 4012,
      "##44": 4013,
      "Ġarticle": 4014,
      "Ġimmedi": 4015,
      "Ġrev": 4016,
      "##isms": 4017,
      "Ġopin": 4018,
      "array": 4019,
      "##apter": 4020,
      "cdot": 4021,
      "âĢĲ": 4022,
      ".'": 4023,
      "Ġlayer": 4024,
      "Ġtransm": 4025,
      "ĠId": 4026,
      "##osph": 4027,
      "Ġinterp": 4028,
      "Ġfavor": 4029,
      "##rote": 4030,
      "}$,": 4031,
      "con": 4032,
      "##head": 4033,
      "##oud": 4034,
      ":**": 4035,
      "Ġimpl": 4036,
      "}(\\": 4037,
      "##Ã¡": 4038,
      "]^": 4039,
      "void": 4040,
      "Ġpresident": 4041,
      "Ġcompan": 4042,
      "at": 4043,
      "##icles": 4044,
      "Ġinvention": 4045,
      "##orks": 4046,
      "Ġsoftware": 4047,
      "Ġaffect": 4048,
      "##Ð¸": 4049,
      "ÃĤ": 4050,
      "##otic": 4051,
      "##aches": 4052,
      "Ġgr": 4053,
      "Ġhttp": 4054,
      "Ġoil": 4055,
      "Ġindependent": 4056,
      "Ġmother": 4057,
      "##ners": 4058,
      "Ġwrite": 4059,
      "##fra": 4060,
      "ĠFurther": 4061,
      "xi": 4062,
      "##ada": 4063,
      "##rl": 4064,
      "##math": 4065,
      "ĠIm": 4066,
      "Ġnumbers": 4067,
      "Ġplayers": 4068,
      "ĠDist": 4069,
      "Ġwritten": 4070,
      "Ġappropri": 4071,
      "Ġprotect": 4072,
      "Ġmatch": 4073,
      "Ġ2012": 4074,
      "Ġdouble": 4075,
      "Ġautom": 4076,
      "Ġreference": 4077,
      "Ġantib": 4078,
      "Ġfollowed": 4079,
      "ĠJust": 4080,
      "##urb": 4081,
      "ĠDes": 4082,
      "Ġcoming": 4083,
      "ĠSim": 4084,
      "##uary": 4085,
      "Ġparticularly": 4086,
      "eta": 4087,
      "##aign": 4088,
      "ĠCounty": 4089,
      "++": 4090,
      "ĠSouth": 4091,
      "##BC": 4092,
      "Ġcand": 4093,
      "ĠSince": 4094,
      "().": 4095,
      "ĠHar": 4096,
      "##atives": 4097,
      "##ocation": 4098,
      "Ġimmun": 4099,
      "Ġleave": 4100,
      "Ġir": 4101,
      "##apan": 4102,
      "Ġactive": 4103,
      "Ġobtain": 4104,
      "function": 4105,
      "Ġsecurity": 4106,
      "##word": 4107,
      "ĠWhile": 4108,
      "ĠAp": 4109,
      "ĠRuss": 4110,
      "Sec": 4111,
      "Ġ;": 4112,
      "##rupt": 4113,
      "Ġclean": 4114,
      "##MP": 4115,
      "Ġforward": 4116,
      "Ġnegative": 4117,
      "ĠPer": 4118,
      "Ġmention": 4119,
      "##62": 4120,
      "Ġunit": 4121,
      "##iven": 4122,
      "##itter": 4123,
      "All": 4124,
      "Ġrepe": 4125,
      "from": 4126,
      "##gor": 4127,
      "##ises": 4128,
      "##ishing": 4129,
      "ĠSm": 4130,
      "Ġrout": 4131,
      "Ġ29": 4132,
      "Ġcorresponding": 4133,
      "Ġhot": 4134,
      "Ġ[*": 4135,
      "Ġgirl": 4136,
      "Ġconstruct": 4137,
      "ĠOR": 4138,
      "ĠST": 4139,
      "pt": 4140,
      "ĠWill": 4141,
      "Ġwindow": 4142,
      "val": 4143,
      "Ġfriends": 4144,
      "##inated": 4145,
      "##uper": 4146,
      "##sh": 4147,
      "##where": 4148,
      "##leep": 4149,
      "##arth": 4150,
      "Ġlate": 4151,
      "ĠPa": 4152,
      "ĠHere": 4153,
      "ĠNorth": 4154,
      "Ġnature": 4155,
      "Ãĥ": 4156,
      "##PE": 4157,
      "Ġspecies": 4158,
      "Ġusually": 4159,
      "width": 4160,
      "##abase": 4161,
      "##aries": 4162,
      "ĠReg": 4163,
      "ĠEd": 4164,
      "Ġvot": 4165,
      "Ġrule": 4166,
      "##ashing": 4167,
      "Ġmis": 4168,
      "ĠPe": 4169,
      "07": 4170,
      "ĠDem": 4171,
      "Ġrates": 4172,
      "Ġdifferences": 4173,
      "ĠĠĠĠĠĠĠĠĠĠĠĠĠĠĠĠĠĠĠĠĠĠĠĠĠĠĠĠĠĠĠĠĠĠĠĠĠĠĠĠĠĠĠĠĠĠĠĠĠĠĠĠĠĠĠĠĠĠĠĠĠĠĠĠĠ": 4174,
      "Ġliving": 4175,
      "Ġetc": 4176,
      "Ġoffice": 4177,
      "##reme": 4178,
      "Ġaltern": 4179,
      "Ġalthough": 4180,
      "##gs": 4181,
      "Ġanswer": 4182,
      "Ġ2013": 4183,
      "Ġdynam": 4184,
      "=================": 4185,
      "Ġwhose": 4186,
      "Ġwebs": 4187,
      "Ġnote": 4188,
      "Ġorg": 4189,
      "Ġbox": 4190,
      "Ġglobal": 4191,
      ")^": 4192,
      "Ġpurch": 4193,
      "Ġpractice": 4194,
      "##ML": 4195,
      "ĠWorld": 4196,
      "Ġoffer": 4197,
      "Ġtried": 4198,
      "Ġ^": 4199,
      "Ġbrain": 4200,
      "Ġargument": 4201,
      "##To": 4202,
      "##levant": 4203,
      "##inate": 4204,
      "Ġanim": 4205,
      "Ġregular": 4206,
      "55": 4207,
      "##eline": 4208,
      "Ġonline": 4209,
      "95": 4210,
      "Ġgrant": 4211,
      "ĠOb": 4212,
      "Ġinstance": 4213,
      "Ġ2016": 4214,
      "002": 4215,
      "##atform": 4216,
      "Ġcompet": 4217,
      "Ġgenerally": 4218,
      "Ġlost": 4219,
      "##nown": 4220,
      ")=": 4221,
      "Ġrecently": 4222,
      "Re": 4223,
      "Ġbroad": 4224,
      "##itness": 4225,
      "Ġaccur": 4226,
      "ĠSome": 4227,
      "Ġwall": 4228,
      "Ġ2014": 4229,
      "##ze": 4230,
      "\".": 4231,
      "Ġthemselves": 4232,
      "##ethyl": 4233,
      "##urance": 4234,
      "\";": 4235,
      "##lim": 4236,
      "Ġbackground": 4237,
      "Suppose": 4238,
      "ĠPhys": 4239,
      "Ġanyone": 4240,
      "des": 4241,
      "##co": 4242,
      "Ġtakes": 4243,
      "Ġ27": 4244,
      "##ster": 4245,
      "Ġproposed": 4246,
      "##encies": 4247,
      "Ġcountries": 4248,
      "}$.": 4249,
      "ĠIS": 4250,
      "Ġwatch": 4251,
      "Ġagreement": 4252,
      "psi": 4253,
      "##45": 4254,
      "all": 4255,
      "##itte": 4256,
      "Ġsort": 4257,
      "ĠĠĠĠĠĠĠĠĠĠĠĠ": 4258,
      "##vey": 4259,
      "Ġdriv": 4260,
      "##ieved": 4261,
      "Ġresid": 4262,
      "ĠâĪĴ": 4263,
      "Ġsaying": 4264,
      "##illing": 4265,
      "ĠII": 4266,
      "}}_": 4267,
      "Ġexcept": 4268,
      "##It": 4269,
      "Ġdensity": 4270,
      "Ġball": 4271,
      "Ġstress": 4272,
      "##nsel": 4273,
      "ĠDav": 4274,
      "##////////": 4275,
      "70": 4276,
      "##Col": 4277,
      "Ġtreated": 4278,
      "##itute": 4279,
      "##arlier": 4280,
      "##gorith": 4281,
      "Ġessential": 4282,
      "ĠOct": 4283,
      "ĠMarch": 4284,
      "ĠFirst": 4285,
      "##orph": 4286,
      "Ġhimself": 4287,
      "##ste": 4288,
      "##joy": 4289,
      "Ġanalyz": 4290,
      "##osing": 4291,
      "ĠHouse": 4292,
      "Ġfriend": 4293,
      "##oe": 4294,
      "Ġlegal": 4295,
      "##vention": 4296,
      "Ġsurg": 4297,
      "Ġsituation": 4298,
      "ams": 4299,
      "Ġsynt": 4300,
      "-\\": 4301,
      "##ufact": 4302,
      "comp": 4303,
      "Ġpurpose": 4304,
      "Ġfederal": 4305,
      "##pril": 4306,
      "##ams": 4307,
      "##ptions": 4308,
      "Ġenh": 4309,
      "ĠSch": 4310,
      "Ġcenter": 4311,
      "Ġheav": 4312,
      "list": 4313,
      "90": 4314,
      "Ġbecame": 4315,
      "##lor": 4316,
      "##pace": 4317,
      "##irth": 4318,
      "ĠChina": 4319,
      "by": 4320,
      "be": 4321,
      "003": 4322,
      "Ġ2015": 4323,
      "Ġrelative": 4324,
      "ĠAmerica": 4325,
      "Ġfeed": 4326,
      "Ġconc": 4327,
      "Ġpretty": 4328,
      "Ġrot": 4329,
      "##anger": 4330,
      "...\"": 4331,
      "Ġspeed": 4332,
      "Ġdeep": 4333,
      "String": 4334,
      "epsilon": 4335,
      "Ġways": 4336,
      "Ġdirection": 4337,
      "Ġcover": 4338,
      "Ġrele": 4339,
      "Ġfinancial": 4340,
      "Ġhor": 4341,
      "##uel": 4342,
      "##igen": 4343,
      "##overy": 4344,
      "##ait": 4345,
      "^*": 4346,
      "Ġfailed": 4347,
      "##eader": 4348,
      "Ġserious": 4349,
      "##aily": 4350,
      "Ġfast": 4351,
      "##oes": 4352,
      "Ġwond": 4353,
      "##ride": 4354,
      "Ġpublished": 4355,
      "Ġhydro": 4356,
      "Ġ80": 4357,
      "##ulate": 4358,
      "##omy": 4359,
      "dev": 4360,
      "ĠDepartment": 4361,
      "ĠAust": 4362,
      "##OW": 4363,
      "line": 4364,
      "##98": 4365,
      "##position": 4366,
      "vare": 4367,
      "Ġ);": 4368,
      "Ġpict": 4369,
      "##acity": 4370,
      "##ULL": 4371,
      "cm": 4372,
      "43": 4373,
      "ĠPar": 4374,
      "supp": 4375,
      "varepsilon": 4376,
      "ĠAug": 4377,
      "-----------------": 4378,
      "Ġhighly": 4379,
      "##que": 4380,
      "*~": 4381,
      "Ġwoman": 4382,
      "Ġphen": 4383,
      "Ġprice": 4384,
      "Ġisol": 4385,
      "Ġfindings": 4386,
      "##rr": 4387,
      "##97": 4388,
      "Ġallowed": 4389,
      "Ġderivative": 4390,
      "Ġsufficient": 4391,
      "Omega": 4392,
      "##10": 4393,
      "##ky": 4394,
      "Ġselected": 4395,
      "##body": 4396,
      "Ġcharge": 4397,
      "Ġge": 4398,
      "old": 4399,
      "##oding": 4400,
      "ĠĊĠĠĠĠĠĠĠĠĠĠĠĠĠĠĠ": 4401,
      "Ġdegree": 4402,
      "##ĊĊ": 4403,
      "Ġnode": 4404,
      "##aching": 4405,
      "Ġoperation": 4406,
      "Res": 4407,
      "##orem": 4408,
      "##PS": 4409,
      "Ġcomponent": 4410,
      "**]{}": 4411,
      "##izes": 4412,
      "Ġcomment": 4413,
      "Ġcommand": 4414,
      "##uge": 4415,
      "##ociety": 4416,
      "##ournal": 4417,
      "Ġstage": 4418,
      "##ought": 4419,
      "##ae": 4420,
      "Ġlarger": 4421,
      "Ġdesigned": 4422,
      "Ġmeasured": 4423,
      "Ġlabel": 4424,
      "Ġtradition": 4425,
      "Ġgave": 4426,
      "##omen": 4427,
      "##rael": 4428,
      "Ġjury": 4429,
      "Cont": 4430,
      "Ġperfect": 4431,
      "ĠĠĠĠĠĠĠĠĠĠĠĠĠĠĠĠĠĠĠĠĠĠĠĠĠĠĠĠĠĠĠĠĠĠĠĠĠĠĠĠĠĠĠĠĠĠĠĠĠ": 4432,
      "..": 4433,
      "ĠGerm": 4434,
      "Ġdetails": 4435,
      "Ġgraph": 4436,
      "ĠEl": 4437,
      "##amer": 4438,
      "54": 4439,
      "Ġindividuals": 4440,
      "Ġsoon": 4441,
      "Gamma": 4442,
      "ĠGeneral": 4443,
      "##itc": 4444,
      "Ġcampaign": 4445,
      "Ġidentify": 4446,
      "ĠMe": 4447,
      "Ġstar": 4448,
      "Ġdraw": 4449,
      "##/>": 4450,
      "##me": 4451,
      "Ġimages": 4452,
      "Ġeveryone": 4453,
      "##rought": 4454,
      "##phi": 4455,
      "Ġsubstant": 4456,
      "Ġcurrently": 4457,
      "##off": 4458,
      "Ġcaused": 4459,
      "38": 4460,
      "##ening": 4461,
      "##haps": 4462,
      "sim": 4463,
      "Ġcyt": 4464,
      "Ġalone": 4465,
      "Ġpsych": 4466,
      "##ports": 4467,
      "Ġauth": 4468,
      "##ius": 4469,
      "=========": 4470,
      "##CL": 4471,
      "Ġlocation": 4472,
      "Ġ2011": 4473,
      "Ġproteins": 4474,
      "##bon": 4475,
      "that": 4476,
      "Ġ45": 4477,
      "Ġwasn": 4478,
      "##gy": 4479,
      "Ġque": 4480,
      "53": 4481,
      "Ġaud": 4482,
      "ĠJune": 4483,
      "ĠJapan": 4484,
      "Ġvisit": 4485,
      "##oper": 4486,
      "Ġgives": 4487,
      "ĠNow": 4488,
      "##hern": 4489,
      "##ken": 4490,
      "She": 4491,
      "Ġrestrict": 4492,
      "Ġcomponents": 4493,
      "Ġstreng": 4494,
      "##ridge": 4495,
      "ĠAlthough": 4496,
      "Ġ[**": 4497,
      "Ġ2010": 4498,
      "##ocks": 4499,
      "Ġeyes": 4500,
      "ĠFran": 4501,
      "##argin": 4502,
      "Ġstim": 4503,
      "Ġsubm": 4504,
      "Ġbank": 4505,
      "Ġfiles": 4506,
      "##aur": 4507,
      "ĠCou": 4508,
      "ĠGl": 4509,
      "ĠEn": 4510,
      "##orage": 4511,
      "Ġmatrix": 4512,
      "Ġprofess": 4513,
      "ĠRepublic": 4514,
      "Ġchoice": 4515,
      "##key": 4516,
      "Ġround": 4517,
      "Ġrequires": 4518,
      "Ġscale": 4519,
      "##icon": 4520,
      "Ġ:=": 4521,
      "##EF": 4522,
      "##SA": 4523,
      "ĠBar": 4524,
      "Ġattention": 4525,
      "##hesis": 4526,
      "Ġroad": 4527,
      "Ġfixed": 4528,
      "Ġappeal": 4529,
      "Ġclust": 4530,
      "Ġproceed": 4531,
      "##ĠĠĠĠĠĠĠĠĠ": 4532,
      "Ġsn": 4533,
      "Ġpromot": 4534,
      "+\\": 4535,
      "##ä¸": 4536,
      "Ġcompanies": 4537,
      "##den": 4538,
      "##ki": 4539,
      "##estern": 4540,
      "##iated": 4541,
      "we": 4542,
      "Ġbegan": 4543,
      "Ġknew": 4544,
      "Ġuseful": 4545,
      "##aker": 4546,
      "##gn": 4547,
      "Ġhyper": 4548,
      "ĠHealth": 4549,
      "Ġslow": 4550,
      "operator": 4551,
      "Ġleading": 4552,
      "Ġoptions": 4553,
      "Ġbal": 4554,
      "Ġpull": 4555,
      "Ġled": 4556,
      "max": 4557,
      "item": 4558,
      "##ivil": 4559,
      "Ġpoor": 4560,
      "Ġ2017": 4561,
      "Ġ///": 4562,
      "lib": 4563,
      "##oring": 4564,
      "##obile": 4565,
      "equ": 4566,
      "Ġfailure": 4567,
      "##king": 4568,
      "ĠPR": 4569,
      "Ġax": 4570,
      "##ouch": 4571,
      "##istry": 4572,
      "non": 4573,
      "str": 4574,
      "per": 4575,
      "Ġnotice": 4576,
      "Ġmanagement": 4577,
      "Ġcook": 4578,
      "go": 4579,
      "Ġfrequency": 4580,
      "Ġusers": 4581,
      "Ġthreat": 4582,
      "##ifically": 4583,
      "Ġ->": 4584,
      "Ġbed": 4585,
      "(-": 4586,
      "##ography": 4587,
      "ell": 4588,
      "Ġuns": 4589,
      "Ġeducation": 4590,
      "ĠRec": 4591,
      "ĠSept": 4592,
      "##iring": 4593,
      "52": 4594,
      "Ġunique": 4595,
      "Ġten": 4596,
      "index": 4597,
      "Ġcandid": 4598,
      "##EP": 4599,
      "Ġratio": 4600,
      "Ġtechnology": 4601,
      "##67": 4602,
      "ĠSen": 4603,
      "##\",": 4604,
      "Ġce": 4605,
      "Ġrecept": 4606,
      "##orney": 4607,
      "Ġcontains": 4608,
      "ĠĠĠĠĠĠĠĠĠĠĠĠĠ": 4609,
      "Add": 4610,
      "##42": 4611,
      "##63": 4612,
      "##uted": 4613,
      "##ned": 4614,
      "At": 4615,
      "Ġemerg": 4616,
      "Ġtim": 4617,
      "}=": 4618,
      "Ġdivided": 4619,
      "Ġsecret": 4620,
      "dim": 4621,
      "##rig": 4622,
      "ĠTH": 4623,
      "Ġcircum": 4624,
      "Ġcompletely": 4625,
      "##|---": 4626,
      "off": 4627,
      "Ġexerc": 4628,
      "Ġprime": 4629,
      "Ġacqu": 4630,
      "Ġgoal": 4631,
      "path": 4632,
      "Ġcosts": 4633,
      "Ġconnection": 4634,
      "Ġ90": 4635,
      "Ġsuit": 4636,
      "ĠWar": 4637,
      "##itude": 4638,
      "##US": 4639,
      "like": 4640,
      "##ifier": 4641,
      "##iciency": 4642,
      "Ġsubs": 4643,
      "Ġlat": 4644,
      "Ġparts": 4645,
      "##BS": 4646,
      "(),": 4647,
      "##rag": 4648,
      "Ġapply": 4649,
      "Ed": 4650,
      "Ġbuy": 4651,
      "Ġindustry": 4652,
      "Ġparties": 4653,
      "Ġcentral": 4654,
      "##File": 4655,
      "##light": 4656,
      ".\\": 4657,
      "ĠJanuary": 4658,
      "39": 4659,
      "Ġson": 4660,
      "Ġneigh": 4661,
      "$\\": 4662,
      "Ġenjoy": 4663,
      "Ġserver": 4664,
      "ĠApril": 4665,
      "no": 4666,
      "Ġappropriate": 4667,
      "Ġ70": 4668,
      "Ġearlier": 4669,
      "##zz": 4670,
      "pre": 4671,
      "ĠAN": 4672,
      "Ġfair": 4673,
      "Ġmulti": 4674,
      "Ġheat": 4675,
      "Ġmanufact": 4676,
      "37": 4677,
      "ĠWest": 4678,
      "Ġinform": 4679,
      "Ġfine": 4680,
      "Ġexpressed": 4681,
      "##|\\": 4682,
      "##Ð¾Ð": 4683,
      "##ube": 4684,
      "Ġ($": 4685,
      "ĠJuly": 4686,
      "Ġoverall": 4687,
      "Ġ\\<": 4688,
      "())": 4689,
      "##efore": 4690,
      "Ġdistance": 4691,
      ")-": 4692,
      "Ġpen": 4693,
      "Ġaim": 4694,
      "Ġsupported": 4695,
      "##Object": 4696,
      "Ġdead": 4697,
      "Ġgenerated": 4698,
      "state": 4699,
      "Ġdog": 4700,
      "Ġdefinition": 4701,
      "Ġ----------------": 4702,
      "varphi": 4703,
      "Ġequal": 4704,
      "Ġestablished": 4705,
      "Ġstated": 4706,
      "ST": 4707,
      "Ġallows": 4708,
      "ï¼": 4709,
      "Ġtrack": 4710,
      "ĠTrans": 4711,
      "Ġwidth": 4712,
      "Ġdevices": 4713,
      "##rations": 4714,
      "##ened": 4715,
      "##ails": 4716,
      "čĊĠ": 4717,
      "Ġhospital": 4718,
      "Ġengine": 4719,
      "aut": 4720,
      "##ancy": 4721,
      "Ġconvers": 4722,
      "Ġeasily": 4723,
      "script": 4724,
      "*.": 4725,
      "Ġboard": 4726,
      "##ittee": 4727,
      "Ġweb": 4728,
      "ĠCir": 4729,
      "\\\\": 4730,
      "ĠJud": 4731,
      "Ġ<<": 4732,
      "##nes": 4733,
      "Ġsites": 4734,
      "struct": 4735,
      "\"><": 4736,
      "##68": 4737,
      "ĠBrit": 4738,
      "Ġcontaining": 4739,
      "Ġreasons": 4740,
      "Ġtown": 4741,
      "They": 4742,
      "Ġfight": 4743,
      "##IF": 4744,
      "##abled": 4745,
      "##cember": 4746,
      "##ming": 4747,
      ".[": 4748,
      "Ġchalleng": 4749,
      "##TP": 4750,
      "Ġfinding": 4751,
      "##bsp": 4752,
      "##ios": 4753,
      "##enses": 4754,
      "65": 4755,
      "ĠMich": 4756,
      "##}\\": 4757,
      "ĊĠĠĠĠĠĠĠĠĠĠĠĠĠ": 4758,
      "##bran": 4759,
      "Now": 4760,
      "Ġhighest": 4761,
      "Ġcritical": 4762,
      "Ġlocated": 4763,
      "());": 4764,
      "Ġaw": 4765,
      "user": 4766,
      "Ġparameter": 4767,
      "Ġproduced": 4768,
      "Ġprop": 4769,
      "##Text": 4770,
      "Ġactivities": 4771,
      "Ġdiscl": 4772,
      "Ġleaders": 4773,
      "##ades": 4774,
      "Ġeconomic": 4775,
      "Ġtumor": 4776,
      "ĠFeb": 4777,
      "##omic": 4778,
      "Ġfather": 4779,
      "ĠĠĠĠĠĠĠĠĠĠĠĠĠĠ": 4780,
      "Ġstaff": 4781,
      "ĠRed": 4782,
      "Ġfiled": 4783,
      "48": 4784,
      "Ġtrust": 4785,
      "ĠStud": 4786,
      "ĠIsrael": 4787,
      "att": 4788,
      "Ġreduce": 4789,
      "Ġrelevant": 4790,
      "Ġworth": 4791,
      "Ġones": 4792,
      "Ġcapt": 4793,
      "cal": 4794,
      "Ġclearly": 4795,
      "Ġactual": 4796,
      "##\\*": 4797,
      "Ġconcept": 4798,
      "Ġauthors": 4799,
      "){#": 4800,
      "Ġnames": 4801,
      "el": 4802,
      "Ġsympt": 4803,
      "61": 4804,
      "Ġmeaning": 4805,
      "Ġfelt": 4806,
      "##change": 4807,
      "Ġmode": 4808,
      "##bar": 4809,
      "Ġstore": 4810,
      "##ica": 4811,
      "Ġopinion": 4812,
      "Ġvariable": 4813,
      "ĠSw": 4814,
      "ĠAND": 4815,
      "##ymbol": 4816,
      "##iate": 4817,
      "Ġbr": 4818,
      "Ġmys": 4819,
      "Ph": 4820,
      "##oice": 4821,
      "Ġhit": 4822,
      "Ġhands": 4823,
      "Ġvs": 4824,
      "##oses": 4825,
      "##down": 4826,
      "##ÑĢ": 4827,
      "Ġadjust": 4828,
      "##ham": 4829,
      "##older": 4830,
      "##ytes": 4831,
      "##ani": 4832,
      "Ġplant": 4833,
      "Ġles": 4834,
      "čĊĠĠĠĠĠĠĠ": 4835,
      "Ġwriting": 4836,
      "Ġtravel": 4837,
      "Ġliter": 4838,
      "##Exception": 4839,
      "##ponse": 4840,
      "One": 4841,
      "Ġqual": 4842,
      "ĠCons": 4843,
      "##ibly": 4844,
      "---------------------------------": 4845,
      "##ech": 4846,
      "##gram": 4847,
      "exp": 4848,
      "net": 4849,
      "Ġwebsite": 4850,
      "Ġsound": 4851,
      "et": 4852,
      "Ġinjury": 4853,
      "sm": 4854,
      "Ġchanged": 4855,
      "Ġproof": 4856,
      "._": 4857,
      "Ġbrought": 4858,
      "##lish": 4859,
      "Ġdro": 4860,
      "##cale": 4861,
      "##pro": 4862,
      "ĠID": 4863,
      "##onent": 4864,
      "Ġshowing": 4865,
      "overline": 4866,
      "Ġsmaller": 4867,
      "ĠÃĲ": 4868,
      "Pl": 4869,
      "Ġreceive": 4870,
      "ut": 4871,
      "##ovember": 4872,
      "Ġgoes": 4873,
      "Ġdoor": 4874,
      "##SP": 4875,
      "Col": 4876,
      "Ġuses": 4877,
      "Ġexperiments": 4878,
      "##cluded": 4879,
      "##\">": 4880,
      "##edia": 4881,
      "Ġagg": 4882,
      "Ġitems": 4883,
      "Ġlearning": 4884,
      "Ġdark": 4885,
      "Ġ2008": 4886,
      "Ġcontrast": 4887,
      "Ġfa": 4888,
      "Ġtransition": 4889,
      "Ġappears": 4890,
      "Ġrules": 4891,
      "##erved": 4892,
      "operatorname": 4893,
      "##rab": 4894,
      "Ġbey": 4895,
      "##na": 4896,
      "langle": 4897,
      "Ġmid": 4898,
      "##iance": 4899,
      "call": 4900,
      "Ġvector": 4901,
      "##aling": 4902,
      "Ġlooks": 4903,
      "Ġbeyond": 4904,
      "Ġrob": 4905,
      "##odies": 4906,
      "Ġhon": 4907,
      "Ġheard": 4908,
      "Ġinn": 4909,
      "Ġremains": 4910,
      "Ġculture": 4911,
      "##ÃĹÂ": 4912,
      "Ġcomputer": 4913,
      "ĠCong": 4914,
      ")$.": 4915,
      "Ġcounsel": 4916,
      "mm": 4917,
      "##ressive": 4918,
      "Ġ__": 4919,
      "Ġbuilt": 4920,
      "ĠGet": 4921,
      "Ġdu": 4922,
      "ĠFrom": 4923,
      "='": 4924,
      "##arter": 4925,
      "With": 4926,
      "Ġunderstanding": 4927,
      "##ille": 4928,
      "Ġnumer": 4929,
      "Ġhearing": 4930,
      "Ġrap": 4931,
      "Ġrelig": 4932,
      "##rum": 4933,
      "Ġinterpret": 4934,
      "js": 4935,
      "Ġbeaut": 4936,
      "##ashington": 4937,
      "Ġadvant": 4938,
      "##69": 4939,
      "##ests": 4940,
      "Ġlooked": 4941,
      "##ingly": 4942,
      "##cast": 4943,
      "ĠArt": 4944,
      "##UL": 4945,
      "Ġroot": 4946,
      "Ġturned": 4947,
      "##raz": 4948,
      "Ġalgorith": 4949,
      "##yth": 4950,
      "ĠNe": 4951,
      "Ġcarry": 4952,
      "Ġworked": 4953,
      "Ġheight": 4954,
      "##attle": 4955,
      "##rier": 4956,
      "âĢĥ": 4957,
      "69": 4958,
      "Ġtowards": 4959,
      "94": 4960,
      "\\].": 4961,
      "Ġfat": 4962,
      "##Ð½": 4963,
      "##iers": 4964,
      "Ġmajority": 4965,
      "ĠSy": 4966,
      "ĠPublic": 4967,
      "top": 4968,
      "Ġskin": 4969,
      "Ġtransport": 4970,
      "Ġprefer": 4971,
      "Ġextract": 4972,
      "back": 4973,
      "Ġplease": 4974,
      "##inct": 4975,
      "Ġbinding": 4976,
      "Ġregarding": 4977,
      "Ġvariables": 4978,
      "##sl": 4979,
      "Ġinternal": 4980,
      "Ġproduce": 4981,
      "##fort": 4982,
      "Ġdecided": 4983,
      "Ġdoub": 4984,
      "##utive": 4985,
      "Ġvert": 4986,
      "##+\\": 4987,
      "\\'": 4988,
      "act": 4989,
      "Ġlaws": 4990,
      "Ġexists": 4991,
      "##Key": 4992,
      "Ġsomet": 4993,
      "##osite": 4994,
      "##irt": 4995,
      "Ġtherapy": 4996,
      "Ġbenefits": 4997,
      "Ġconnect": 4998,
      "\"/>": 4999,
      "Ġdrive": 5000,
      "Ġfully": 5001,
      "read": 5002,
      ".*": 5003,
      "Ġlov": 5004,
      "ĠDistrict": 5005,
      "Ġ41": 5006,
      "Ġcounter": 5007,
      "Ġconcentration": 5008,
      "Ġcontribut": 5009,
      "Ġtissue": 5010,
      "Ġsubsequ": 5011,
      "Ġbirth": 5012,
      "Ġrepl": 5013,
      "ĠAugust": 5014,
      "requ": 5015,
      "Ġparents": 5016,
      "Ġeight": 5017,
      "Ġreports": 5018,
      "#####": 5019,
      "Ġtask": 5020,
      "Ġmilitary": 5021,
      "##cules": 5022,
      "Ġgun": 5023,
      "Ġcool": 5024,
      "Ġresulting": 5025,
      "##CA": 5026,
      "Ġmal": 5027,
      "Ġ2009": 5028,
      "}_{\\": 5029,
      "##eah": 5030,
      "Ġ34": 5031,
      "##Im": 5032,
      "ĠSchool": 5033,
      "Ġaccom": 5034,
      "Ġexactly": 5035,
      "##Ñģ": 5036,
      "Ġyield": 5037,
      "##ranch": 5038,
      "\":\"": 5039,
      "Ġcouple": 5040,
      "##enge": 5041,
      "##oken": 5042,
      "ĠTra": 5043,
      "Ġindicated": 5044,
      "##rang": 5045,
      "Not": 5046,
      "title": 5047,
      "##ypes": 5048,
      "Ġvirt": 5049,
      "ĠAccording": 5050,
      "##Item": 5051,
      "Ġinfection": 5052,
      "##ii": 5053,
      "ĠOctober": 5054,
      "##gest": 5055,
      "Ġdetect": 5056,
      "Ġsetting": 5057,
      "##ql": 5058,
      "Ġmedium": 5059,
      "Ġlinear": 5060,
      "##ATE": 5061,
      "Ġwrote": 5062,
      "##reet": 5063,
      "Ġandroid": 5064,
      "Ġelectro": 5065,
      "Ġmorning": 5066,
      "Ġ/**": 5067,
      "##00000000": 5068,
      "##urg": 5069,
      "##ncil": 5070,
      "##pat": 5071,
      "99": 5072,
      "##ford": 5073,
      "Ġmount": 5074,
      "Ġmaterials": 5075,
      "##asis": 5076,
      "Ġreading": 5077,
      "Ġvehicle": 5078,
      "Ġconsequ": 5079,
      "##TH": 5080,
      "geq": 5081,
      "Ġplayed": 5082,
      "Ġfeature": 5083,
      "ĠSeptember": 5084,
      "spec": 5085,
      "##ilter": 5086,
      "input": 5087,
      "81": 5088,
      "ĊĊĠĠĠĠĠĠĠĠĠĠĠ": 5089,
      "Ġscore": 5090,
      "Ġencou": 5091,
      "Ġobvious": 5092,
      "nbsp": 5093,
      "*]{}": 5094,
      "##force": 5095,
      "ĠAD": 5096,
      "##undred": 5097,
      "##âĶ": 5098,
      "##urt": 5099,
      "ĠDecember": 5100,
      "##OV": 5101,
      "Ġsolid": 5102,
      "Ġcolumn": 5103,
      "Ġgets": 5104,
      "##itro": 5105,
      "ld": 5106,
      "Ġinterview": 5107,
      "Ġmeeting": 5108,
      "ĠAfric": 5109,
      "##unk": 5110,
      "Ġseparate": 5111,
      "Ġreasonable": 5112,
      "Ġdefine": 5113,
      "##icip": 5114,
      "##CE": 5115,
      "Ġ42": 5116,
      "##str": 5117,
      "Ġreaction": 5118,
      ")).": 5119,
      "Ġfields": 5120,
      "##iforn": 5121,
      "##using": 5122,
      "Ġplayer": 5123,
      "Ġconstruction": 5124,
      "Ġ2018": 5125,
      "##icit": 5126,
      "ĠLa": 5127,
      "ĠDemocr": 5128,
      "Ġapplications": 5129,
      "Ġstarting": 5130,
      "Ġarrest": 5131,
      "##ells": 5132,
      "material": 5133,
      "Ġzero": 5134,
      "ĠSub": 5135,
      "Ġpul": 5136,
      "Ġthroughout": 5137,
      "Ġmaximum": 5138,
      "##arest": 5139,
      "Ġliqu": 5140,
      "Ġsold": 5141,
      "Ġinteresting": 5142,
      "##Path": 5143,
      "Ġparticipants": 5144,
      "ĠPM": 5145,
      "ĠAnt": 5146,
      "Ġnoted": 5147,
      "Ġvolume": 5148,
      "Ġdamage": 5149,
      "Ġprocesses": 5150,
      "ĠData": 5151,
      "##ESS": 5152,
      "Ġregions": 5153,
      "True": 5154,
      "Ġdomain": 5155,
      "##atrix": 5156,
      "static": 5157,
      "Ġformation": 5158,
      "Ġcollect": 5159,
      "Ġagree": 5160,
      "##iences": 5161,
      "à¤": 5162,
      "##miss": 5163,
      "##point": 5164,
      "Ġconnected": 5165,
      "##RI": 5166,
      "##cho": 5167,
      "##ares": 5168,
      "Ġbuff": 5169,
      "Ġclosed": 5170,
      "Ġsafety": 5171,
      "}^{\\": 5172,
      "Ġlives": 5173,
      "Ġarch": 5174,
      "Ġabsol": 5175,
      "Ġbecomes": 5176,
      "Ġformed": 5177,
      "Ġnor": 5178,
      "ĠBecause": 5179,
      "ac": 5180,
      "##$.": 5181,
      "##38": 5182,
      "Ġsources": 5183,
      "Ġfit": 5184,
      "Ġslight": 5185,
      "Ġadministration": 5186,
      "Ġitem": 5187,
      "Ġ95": 5188,
      "##irit": 5189,
      "##ellow": 5190,
      "gl": 5191,
      "Ġaspect": 5192,
      "link": 5193,
      "##fs": 5194,
      "##lated": 5195,
      "##ruary": 5196,
      "##RA": 5197,
      "Ġlay": 5198,
      "##asm": 5199,
      "Ġrevealed": 5200,
      "Ġcoord": 5201,
      "fn": 5202,
      "##omin": 5203,
      "Ġinternational": 5204,
      "Ġstru": 5205,
      "Ġinteraction": 5206,
      "49": 5207,
      "Ġtests": 5208,
      "##nam": 5209,
      "##Info": 5210,
      "Ġcit": 5211,
      "Ġstd": 5212,
      "ĠSection": 5213,
      "##bra": 5214,
      "base": 5215,
      "Ġswe": 5216,
      "Ġpo": 5217,
      "field": 5218,
      "Ġtransform": 5219,
      "Ġsleep": 5220,
      "Ġcollection": 5221,
      "Ġotherwise": 5222,
      "ĠPre": 5223,
      "Ġinject": 5224,
      "Ġbasic": 5225,
      "Sim": 5226,
      "ĠNovember": 5227,
      "Ġeth": 5228,
      "ĠDet": 5229,
      "Ġreflect": 5230,
      "##âĢĻ": 5231,
      "Ġhear": 5232,
      "##atur": 5233,
      "##enu": 5234,
      "##ifornia": 5235,
      "Ġimmediately": 5236,
      "ãĢ": 5237,
      "':": 5238,
      "##iable": 5239,
      "Ġult": 5240,
      "Ġmess": 5241,
      "##atically": 5242,
      "Ġequation": 5243,
      "##State": 5244,
      "##otal": 5245,
      "Ġdemand": 5246,
      "true": 5247,
      "ĠMoreover": 5248,
      "Ġpopular": 5249,
      "##Par": 5250,
      "['": 5251,
      "After": 5252,
      "Ġscient": 5253,
      "ĠCenter": 5254,
      "##ameter": 5255,
      "##ooth": 5256,
      "ĠIL": 5257,
      "##enty": 5258,
      "Ġign": 5259,
      "Ġactions": 5260,
      "Ġvictim": 5261,
      "##ico": 5262,
      "##TS": 5263,
      "Ġreduction": 5264,
      "ed": 5265,
      "Ġreleased": 5266,
      "^+": 5267,
      "ĠUSA": 5268,
      "##Time": 5269,
      "Ġthous": 5270,
      "Ġhous": 5271,
      "ĠWashington": 5272,
      "##pling": 5273,
      "##PA": 5274,
      "##alle": 5275,
      "Ġopportunity": 5276,
      "Ġtoward": 5277,
      "##works": 5278,
      "##cles": 5279,
      "ĠĠĠĠĠĠĠĠĠĠĠĠĠĠĠ": 5280,
      "};": 5281,
      "Ġpaid": 5282,
      "Ġmort": 5283,
      "Ġinfluence": 5284,
      "Ġmechanism": 5285,
      "Ġgiving": 5286,
      "##adem": 5287,
      "##pty": 5288,
      "which": 5289,
      "Ġremember": 5290,
      "ĠHigh": 5291,
      "Ġroll": 5292,
      "##board": 5293,
      "Supp": 5294,
      "');": 5295,
      "##ounced": 5296,
      "##cin": 5297,
      "Ġwide": 5298,
      "ĠAng": 5299,
      "Ġmetab": 5300,
      "##imony": 5301,
      "Ġcombination": 5302,
      "Ġconsistent": 5303,
      "##oz": 5304,
      "Ġgreen": 5305,
      "##riminal": 5306,
      "Ġfigure": 5307,
      "Ġtesting": 5308,
      "ĠPark": 5309,
      "46": 5310,
      "Ġwild": 5311,
      "ĠOf": 5312,
      "##ida": 5313,
      "ĠMark": 5314,
      "Ġmer": 5315,
      "Ġ51": 5316,
      "##sembly": 5317,
      "Ġdefense": 5318,
      "##eria": 5319,
      "Ġspeak": 5320,
      "##raint": 5321,
      "##frak": 5322,
      "Ġrelatively": 5323,
      "ĠCommission": 5324,
      "47": 5325,
      "##ront": 5326,
      "##rient": 5327,
      "mathfrak": 5328,
      "Ġensure": 5329,
      "Ġsometimes": 5330,
      "Ġresources": 5331,
      "Ġforms": 5332,
      "##37": 5333,
      "Ġphosph": 5334,
      "Ġresistance": 5335,
      "Ġcapital": 5336,
      "ĠAM": 5337,
      "Ġphone": 5338,
      "##gl": 5339,
      "Ġmur": 5340,
      "##alt": 5341,
      "##onic": 5342,
      "Ġyes": 5343,
      "##ael": 5344,
      "Ġquickly": 5345,
      "Ġclient": 5346,
      "Ġfunctional": 5347,
      "[]": 5348,
      "Ġaware": 5349,
      "}}(": 5350,
      "Ġ((": 5351,
      "##ny": 5352,
      "##39": 5353,
      "ĠGeor": 5354,
      "Ġmiddle": 5355,
      "##apping": 5356,
      "Ġthinking": 5357,
      "##pris": 5358,
      "##iques": 5359,
      "php": 5360,
      "Ġalleged": 5361,
      "Ġchance": 5362,
      "##iful": 5363,
      "##DA": 5364,
      "Ġstrength": 5365,
      "Ġ(**": 5366,
      "Ġutil": 5367,
      "Ġmyself": 5368,
      "Ġprocedure": 5369,
      "rep": 5370,
      ")**": 5371,
      "length": 5372,
      "##âĶĢ": 5373,
      "##tered": 5374,
      "##band": 5375,
      "Ġplaying": 5376,
      "##amin": 5377,
      "Ġprem": 5378,
      "ĠTable": 5379,
      "*-": 5380,
      "Ġnearly": 5381,
      "Ġharm": 5382,
      "Ġmembran": 5383,
      "config": 5384,
      "##dom": 5385,
      "java": 5386,
      "Ġchoose": 5387,
      "Ġremove": 5388,
      "ĠTw": 5389,
      "Ġinfl": 5390,
      "Ġportion": 5391,
      "Ġswitch": 5392,
      "Ġproviding": 5393,
      "Ġenter": 5394,
      "New": 5395,
      "Ġmovement": 5396,
      "Ġneut": 5397,
      "##room": 5398,
      "Ġmoved": 5399,
      "##uffer": 5400,
      "Ġdetected": 5401,
      "##ilies": 5402,
      "Ġhappened": 5403,
      "free": 5404,
      "Ġconducted": 5405,
      "##oly": 5406,
      "Ġdatabase": 5407,
      "By": 5408,
      "vec": 5409,
      "Ġachieve": 5410,
      "Ġblog": 5411,
      "Ġ~": 5412,
      "Over": 5413,
      "wid": 5414,
      "Ġbottom": 5415,
      "ĠHer": 5416,
      "Ġlegis": 5417,
      "Ġexisting": 5418,
      "\"},": 5419,
      "Ġobjects": 5420,
      "Ġstation": 5421,
      "Ġmoving": 5422,
      "Ġcore": 5423,
      "Ġspin": 5424,
      "Ġmi": 5425,
      "Here": 5426,
      "Ġestablish": 5427,
      "my": 5428,
      "Ġbrief": 5429,
      "ĠAustral": 5430,
      "Ġschem": 5431,
      "ĠObama": 5432,
      "71": 5433,
      "Ġcomplic": 5434,
      "##erate": 5435,
      ")$,": 5436,
      "Ġready": 5437,
      "Ġsup": 5438,
      "Ġchannel": 5439,
      "##iform": 5440,
      "Ġcircumst": 5441,
      "Ġreach": 5442,
      "ĠList": 5443,
      "Ġcommer": 5444,
      "Int": 5445,
      "Ab": 5446,
      "Ġhundred": 5447,
      "Ġequival": 5448,
      "##-----": 5449,
      "Con": 5450,
      "85": 5451,
      "Ġdaily": 5452,
      "Ġsteps": 5453,
      "##ensions": 5454,
      "Us": 5455,
      "Ġcalculated": 5456,
      "Ġfacts": 5457,
      "Ġpurs": 5458,
      "Ġlif": 5459,
      "##zym": 5460,
      "Ġcircuit": 5461,
      "group": 5462,
      "Ġanalys": 5463,
      "Ġincor": 5464,
      "##ndex": 5465,
      "Ġfinally": 5466,
      "Ġanimals": 5467,
      "inter": 5468,
      "##lication": 5469,
      "Ġdiss": 5470,
      "Ġcat": 5471,
      "ĊĊĠĠĠĠĠ": 5472,
      "Ġindicate": 5473,
      "##Size": 5474,
      "Ġyourself": 5475,
      "Big": 5476,
      "Ġdemonstrated": 5477,
      "##ipe": 5478,
      "##endant": 5479,
      "Ġnearest": 5480,
      "##etry": 5481,
      "Ġconvention": 5482,
      "Ġemail": 5483,
      "##ANT": 5484,
      "##itis": 5485,
      "ĠSer": 5486,
      "##encing": 5487,
      "Ġexhib": 5488,
      "Ġil": 5489,
      "lim": 5490,
      "Ġstatist": 5491,
      "##oto": 5492,
      "56": 5493,
      "##airs": 5494,
      "Ġunits": 5495,
      "ĠAlso": 5496,
      "ĠTex": 5497,
      "##ded": 5498,
      "##EX": 5499,
      "##ocket": 5500,
      "Ref": 5501,
      "##ara": 5502,
      "##oul": 5503,
      "##PL": 5504,
      "##itors": 5505,
      "Ġcomments": 5506,
      "Ġprove": 5507,
      "bm": 5508,
      "Ġupper": 5509,
      "ĠNet": 5510,
      "ĠNULL": 5511,
      "Oh": 5512,
      "Ġwave": 5513,
      "Ġregul": 5514,
      "##atin": 5515,
      "Ġband": 5516,
      "ĠCalifornia": 5517,
      "57": 5518,
      "Ġjur": 5519,
      "ĠSan": 5520,
      "Ct": 5521,
      "]:": 5522,
      "##ipp": 5523,
      "Ġcapacity": 5524,
      "ĠEm": 5525,
      "Ġtrade": 5526,
      "color": 5527,
      "##TER": 5528,
      "##lock": 5529,
      "\"]": 5530,
      "}.": 5531,
      "Ġcarried": 5532,
      "ĠVal": 5533,
      "Ġremoved": 5534,
      "Ġpetition": 5535,
      "Ġdoc": 5536,
      "##indows": 5537,
      "Ġplaced": 5538,
      "##rance": 5539,
      "Ġbacter": 5540,
      "ĠKing": 5541,
      "##iled": 5542,
      "Ġmg": 5543,
      "Ġborder": 5544,
      "Ġseven": 5545,
      "Ġsend": 5546,
      "##PR": 5547,
      "Ġprocessing": 5548,
      "ĠLaw": 5549,
      "rightarrow": 5550,
      "Ġpow": 5551,
      "object": 5552,
      "Ġfear": 5553,
      "chi": 5554,
      "%,": 5555,
      "Ġstuff": 5556,
      "Ġvariety": 5557,
      "quad": 5558,
      "^{(": 5559,
      "Ġsets": 5560,
      "Ġweak": 5561,
      "##UM": 5562,
      "Ġwitness": 5563,
      "##uty": 5564,
      "Ġshape": 5565,
      "##uced": 5566,
      "ĠOther": 5567,
      "Ġwife": 5568,
      "##otype": 5569,
      "##|---|---": 5570,
      "##atever": 5571,
      "##Context": 5572,
      "tem": 5573,
      "ĠFebruary": 5574,
      "Ġoperator": 5575,
      "##vest": 5576,
      "Ġblue": 5577,
      "##########": 5578,
      "##lin": 5579,
      "Ġdistributed": 5580,
      "Ġbenefit": 5581,
      "##kay": 5582,
      "Ġextrem": 5583,
      "##Sc": 5584,
      "##rome": 5585,
      "Ġsafe": 5586,
      "start": 5587,
      "##omas": 5588,
      "Ġcert": 5589,
      "Ġpackage": 5590,
      "Ġselection": 5591,
      "čĊčĊ": 5592,
      "##iment": 5593,
      "Ġimag": 5594,
      "Ġ2007": 5595,
      "##iot": 5596,
      "##acing": 5597,
      "Ġlabor": 5598,
      "Ġsuggested": 5599,
      "##ij": 5600,
      "ĠEven": 5601,
      "node": 5602,
      "##umin": 5603,
      "Ġpeak": 5604,
      "Ġmachine": 5605,
      "##olved": 5606,
      "Ġonto": 5607,
      "image": 5608,
      "ĠBoard": 5609,
      "Ġtruth": 5610,
      "ĠFigure": 5611,
      "Ġrecommend": 5612,
      "##======": 5613,
      "Ġnamed": 5614,
      "Ġrace": 5615,
      "]\\],": 5616,
      "##xy": 5617,
      "72": 5618,
      "Ġapparent": 5619,
      "Ġprograms": 5620,
      "##ÃŃ": 5621,
      "Ġhar": 5622,
      "ĠAssoci": 5623,
      "Ġcomparison": 5624,
      "Ġbill": 5625,
      "91": 5626,
      "Ġworkers": 5627,
      "##Ã³": 5628,
      "False": 5629,
      "##MS": 5630,
      "ĠAc": 5631,
      "004": 5632,
      "##EST": 5633,
      "Ġhealthy": 5634,
      "Ġconflic": 5635,
      "Ġnation": 5636,
      "Ġplatform": 5637,
      "ĠPal": 5638,
      "Ġincreases": 5639,
      "Ġshoot": 5640,
      "Ġunf": 5641,
      "Ġmagnetic": 5642,
      "##IA": 5643,
      "Ġsusp": 5644,
      "##olid": 5645,
      "ĠEuropean": 5646,
      "##rates": 5647,
      "##elle": 5648,
      "Ġsen": 5649,
      "##GF": 5650,
      "map": 5651,
      "Ġexposure": 5652,
      "related": 5653,
      "}}^": 5654,
      "##uman": 5655,
      "Ġnorm": 5656,
      "##ename": 5657,
      "62": 5658,
      "ĠRef": 5659,
      "ĠAut": 5660,
      "Ġpassed": 5661,
      "Ġmaybe": 5662,
      "Ġletters": 5663,
      "##Class": 5664,
      "Ġplaces": 5665,
      "Ġupd": 5666,
      "Ġresponsible": 5667,
      "Ġ\\,": 5668,
      "Ġvisual": 5669,
      "Ġmeasures": 5670,
      "count": 5671,
      "ĠIndia": 5672,
      "##reak": 5673,
      "##pany": 5674,
      "ĠBro": 5675,
      "Ġdiscussed": 5676,
      "##ffect": 5677,
      "Ġreplacement": 5678,
      "Ġrow": 5679,
      "##active": 5680,
      "##ithub": 5681,
      "Ġstream": 5682,
      "##ensional": 5683,
      ">(": 5684,
      "Ġmag": 5685,
      "Ġsave": 5686,
      "##yst": 5687,
      "##reek": 5688,
      "##berg": 5689,
      "Ġcorpor": 5690,
      "Ġapproximately": 5691,
      "Ġmusic": 5692,
      "ext": 5693,
      "##ondon": 5694,
      "##orb": 5695,
      "##aughter": 5696,
      "Ġpicked": 5697,
      "Ġletter": 5698,
      "ĠCON": 5699,
      "Ġcharacteristics": 5700,
      "Ġbul": 5701,
      "Ġincome": 5702,
      "ot": 5703,
      "Ġhair": 5704,
      "\\],": 5705,
      "Ġmanner": 5706,
      "##ript": 5707,
      "##ifying": 5708,
      "ĠMon": 5709,
      "##coh": 5710,
      "ĠAtt": 5711,
      "Ġsymptoms": 5712,
      "##pth": 5713,
      "Ġinsurance": 5714,
      "Ġupdate": 5715,
      "##``": 5716,
      "Ġemot": 5717,
      "Ġwid": 5718,
      "ĠFound": 5719,
      "ĠInter": 5720,
      "Ġfresh": 5721,
      "##52": 5722,
      "Ġdrugs": 5723,
      "Ġstructures": 5724,
      "##TC": 5725,
      "Ġ37": 5726,
      "##roy": 5727,
      "Ġtalking": 5728,
      "ĠResearch": 5729,
      "##acebook": 5730,
      ",-": 5731,
      "ĠWhite": 5732,
      "ĠPaul": 5733,
      "Ġbeginning": 5734,
      "Ġarriv": 5735,
      "ĠUK": 5736,
      "##ruit": 5737,
      "error": 5738,
      "rec": 5739,
      "Ġstraight": 5740,
      "ĠLib": 5741,
      "##ka": 5742,
      "ĠOff": 5743,
      "Ġhour": 5744,
      "Ġcontinued": 5745,
      "Ġbond": 5746,
      "ĠConst": 5747,
      "circ": 5748,
      "Ġshot": 5749,
      "Ġmodern": 5750,
      "##icity": 5751,
      "Ġpanel": 5752,
      "Ġnut": 5753,
      "Ġdie": 5754,
      "##UN": 5755,
      "init": 5756,
      "$$": 5757,
      "Ġtestimony": 5758,
      "Ġspread": 5759,
      ":\"": 5760,
      "##roller": 5761,
      "Ġassume": 5762,
      "Ġactivation": 5763,
      "Ġsevere": 5764,
      "Ġbud": 5765,
      "##izer": 5766,
      "Ġreturned": 5767,
      "rem": 5768,
      "Ġri": 5769,
      "##ĠĠĠĠĠĠĠĠĠĠĠĠĠ": 5770,
      "Ġtour": 5771,
      "Ġexperiment": 5772,
      "Ġhappy": 5773,
      "Ġadapt": 5774,
      "Ġtend": 5775,
      "ĠMor": 5776,
      "Ġedge": 5777,
      "ĠFurthermore": 5778,
      "Ġ36": 5779,
      "ĠRNA": 5780,
      "Ġdetection": 5781,
      "ĠDis": 5782,
      "Ġmit": 5783,
      "hand": 5784,
      "##))": 5785,
      "Ġscen": 5786,
      "Ġstock": 5787,
      "Ġpoll": 5788,
      "Ġforeign": 5789,
      "##ython": 5790,
      "was": 5791,
      "ĠPC": 5792,
      "Ġbab": 5793,
      "Ġ});": 5794,
      "Ġbillion": 5795,
      "ĠĠĠĠĠĠĠĠĠĠĠĠĠĠĠĠ": 5796,
      "##à¤": 5797,
      "Ġnice": 5798,
      ")/(-": 5799,
      "cent": 5800,
      "##aught": 5801,
      "##Set": 5802,
      "##Error": 5803,
      "Ġinvestigation": 5804,
      "##opl": 5805,
      "##ria": 5806,
      "Ġtree": 5807,
      "ĠMus": 5808,
      "Ġmale": 5809,
      "##itutional": 5810,
      "Ġmac": 5811,
      "Ġdelay": 5812,
      "Ġchemical": 5813,
      "##ync": 5814,
      "Ġaward": 5815,
      "##orter": 5816,
      "Ġexpand": 5817,
      "##lam": 5818,
      "##igation": 5819,
      "ent": 5820,
      "ĠGovern": 5821,
      "Ġthrow": 5822,
      "source": 5823,
      "Ġkids": 5824,
      "##iling": 5825,
      "##OG": 5826,
      "Ġscript": 5827,
      "##ano": 5828,
      "Ġfilter": 5829,
      "ĠDavid": 5830,
      "##reated": 5831,
      "Ġdescription": 5832,
      "]{": 5833,
      "Ġ44": 5834,
      "##arant": 5835,
      "Ġtherm": 5836,
      "PR": 5837,
      "Com": 5838,
      "##pi": 5839,
      "##ado": 5840,
      "##rench": 5841,
      "Ġclub": 5842,
      "##asion": 5843,
      "ĠEnglish": 5844,
      "ĠIll": 5845,
      "Ġrapid": 5846,
      "Ġexercise": 5847,
      "\\,": 5848,
      "##known": 5849,
      "##istant": 5850,
      "Ġexception": 5851,
      "Ġneur": 5852,
      "Ġ-->": 5853,
      "Ar": 5854,
      "Ġ[]": 5855,
      "##âĶĢâĶĢ": 5856,
      "Ġsexual": 5857,
      "Ġinterface": 5858,
      "##za": 5859,
      "Ġshift": 5860,
      "Ġspent": 5861,
      "##untu": 5862,
      "##$,": 5863,
      "Ġinsert": 5864,
      "Ġspecifically": 5865,
      "##LA": 5866,
      "Sc": 5867,
      "Ġdenied": 5868,
      "Ġchallenge": 5869,
      "Ġplans": 5870,
      "Im": 5871,
      "/(-": 5872,
      "##itional": 5873,
      "Ġsurgery": 5874,
      "do": 5875,
      "De": 5876,
      "Ġfamilies": 5877,
      "Ġ(!": 5878,
      "ĠCongress": 5879,
      "Ġreb": 5880,
      "Ġliquid": 5881,
      "Ġstrategy": 5882,
      "ĠWilliam": 5883,
      "Ġsolutions": 5884,
      "Ġalternative": 5885,
      "Ġserve": 5886,
      "##By": 5887,
      "Ġtested": 5888,
      "Ġwonder": 5889,
      "Ġcomplaint": 5890,
      "Ġmill": 5891,
      "Ġ2000": 5892,
      "Ġwait": 5893,
      "Ġrul": 5894,
      "Ġsto": 5895,
      "Ġofficials": 5896,
      "##gra": 5897,
      "Ġcareer": 5898,
      "ĠInternational": 5899,
      "Ġcouldn": 5900,
      "##ario": 5901,
      "Ġsummary": 5902,
      "##leb": 5903,
      "##anned": 5904,
      "##inger": 5905,
      "Ġwants": 5906,
      "##arian": 5907,
      "Ġmentioned": 5908,
      "co": 5909,
      "Ġjo": 5910,
      "ĠTO": 5911,
      "##olar": 5912,
      "ldots": 5913,
      "##Man": 5914,
      "Ġelection": 5915,
      "Ġtouch": 5916,
      "##erent": 5917,
      "##ignment": 5918,
      "##idem": 5919,
      "##equest": 5920,
      "Ġ2006": 5921,
      "br": 5922,
      "##iant": 5923,
      "Ġnovel": 5924,
      "##field": 5925,
      "*(": 5926,
      "##ingu": 5927,
      "Ġpark": 5928,
      "##iced": 5929,
      "##icial": 5930,
      "*)": 5931,
      "59": 5932,
      "##file": 5933,
      "Ġprepared": 5934,
      "Ġnil": 5935,
      "Ġclick": 5936,
      "##icks": 5937,
      "Ġhypot": 5938,
      "Ġ55": 5939,
      "Ġsumm": 5940,
      "##itz": 5941,
      "Ġleads": 5942,
      "ĠPost": 5943,
      "Ġdespite": 5944,
      "arg": 5945,
      "Ġoptim": 5946,
      "Ġthick": 5947,
      "Ġprol": 5948,
      "##ellig": 5949,
      "Ġstudent": 5950,
      "##abil": 5951,
      "Ġunless": 5952,
      "Ġadopt": 5953,
      "##igration": 5954,
      "Ġdebt": 5955,
      "Ġagent": 5956,
      "##iders": 5957,
      "Ġfemale": 5958,
      "Yes": 5959,
      "Ġlip": 5960,
      "##oom": 5961,
      "Ġcycle": 5962,
      "##olean": 5963,
      "Ġstudied": 5964,
      "##nsure": 5965,
      "##IB": 5966,
      "Ġmodule": 5967,
      "##ERS": 5968,
      "##ļĦ": 5969,
      "Ġ33": 5970,
      "Ġnone": 5971,
      "##zon": 5972,
      "##ĠĠĠĠĠĠĠĠĠĠ": 5973,
      "Ġimproved": 5974,
      "Ġkill": 5975,
      "Ġplate": 5976,
      "Ġ48": 5977,
      "##riday": 5978,
      "Ġnuclear": 5979,
      "Ġdiet": 5980,
      "##gar": 5981,
      "Ġtypically": 5982,
      "##": 5983,
      "day": 5984,
      "Ġcombined": 5985,
      "Ġ(\"": 5986,
      "##ek": 5987,
      "##CS": 5988,
      "Ġpush": 5989,
      "Ġexplain": 5990,
      "Ġmetal": 5991,
      "ĠSupp": 5992,
      "##idden": 5993,
      "ĠHam": 5994,
      "##upreme": 5995,
      "##RR": 5996,
      "##CD": 5997,
      "##actory": 5998,
      "##df": 5999,
      "content": 6000,
      "##ipment": 6001,
      "Ġeye": 6002,
      "86": 6003,
      "Ġexperimental": 6004,
      "##aser": 6005,
      "Ġgrowing": 6006,
      "Ġcontrols": 6007,
      "Â¾": 6008,
      "Ġplus": 6009,
      "Ġded": 6010,
      "Ġcast": 6011,
      "Ġentry": 6012,
      "Ġcommunication": 6013,
      "Ġsuccessful": 6014,
      "Ġminimum": 6015,
      "Ġhop": 6016,
      "ĠCH": 6017,
      "Ġvote": 6018,
      "##ascular": 6019,
      "##itivity": 6020,
      "Ġsurvival": 6021,
      "##enced": 6022,
      "\",\"": 6023,
      "Ġprogress": 6024,
      "Ġmm": 6025,
      "Ġcommercial": 6026,
      "##inese": 6027,
      "##icians": 6028,
      "Ġconfirmed": 6029,
      "Ġdanger": 6030,
      "##stract": 6031,
      "##FL": 6032,
      "ĠIndian": 6033,
      "Ġkilled": 6034,
      "##idel": 6035,
      "##Int": 6036,
      "Calculate": 6037,
      "##osen": 6038,
      "ĠÎ¼": 6039,
      "';": 6040,
      "##poses": 6041,
      "},\\": 6042,
      "##ĠĠĠĠĠĠĠĠĠĠĠĠ": 6043,
      "sl": 6044,
      "500": 6045,
      "ul": 6046,
      "##48": 6047,
      "##arr": 6048,
      "Ġmolecular": 6049,
      "ĠComp": 6050,
      "view": 6051,
      "Ġguy": 6052,
      "Ġcircumstances": 6053,
      "Ġinduced": 6054,
      "Ġsociety": 6055,
      "Ġpiece": 6056,
      "##Us": 6057,
      "create": 6058,
      "##================================": 6059,
      "##cknow": 6060,
      "Ġhttps": 6061,
      "Ġperhaps": 6062,
      "##add": 6063,
      "Ġagreed": 6064,
      "Ġmonitor": 6065,
      "Phi": 6066,
      "Ġdismiss": 6067,
      "Ġmotor": 6068,
      "Ġraised": 6069,
      "##stance": 6070,
      "Ġoperations": 6071,
      "**)": 6072,
      "Ġelectr": 6073,
      "Ġseed": 6074,
      "Ġanalyzed": 6075,
      "Ġunl": 6076,
      "Ġprotocol": 6077,
      "Ġprofessional": 6078,
      "Ġcivil": 6079,
      "##ias": 6080,
      "Ġillust": 6081,
      "Ġreached": 6082,
      "Ġjudge": 6083,
      "ĠYour": 6084,
      "Ġlinks": 6085,
      "ĠTV": 6086,
      "Ġcalls": 6087,
      "Ġwhereas": 6088,
      "github": 6089,
      "Ġaffected": 6090,
      "Ġdied": 6091,
      "check": 6092,
      "[^": 6093,
      "Ġtools": 6094,
      "##çļĦ": 6095,
      "Ġassociation": 6096,
      "ĠBank": 6097,
      "##allel": 6098,
      "Ġfeet": 6099,
      "Ġcru": 6100,
      "ĠNews": 6101,
      "##class": 6102,
      "##ulf": 6103,
      "Ġdrink": 6104,
      "Ġcop": 6105,
      "Ġemployees": 6106,
      "Ġofficer": 6107,
      "Ġclasses": 6108,
      "##onday": 6109,
      "ĊĠĠĠĠĠĠĠĠĠĠĠĠĠĠĠĠĠĠĠĠĠĠĠĠĠĠĠ": 6110,
      "##racy": 6111,
      "Ġminor": 6112,
      "ÂŃ": 6113,
      "Ġrare": 6114,
      "ĠMost": 6115,
      "##itely": 6116,
      "{{\\": 6117,
      "print": 6118,
      "ĠRel": 6119,
      "##soft": 6120,
      "Ġcauses": 6121,
      "Ġevolution": 6122,
      "ĊĊĉ": 6123,
      "##Event": 6124,
      "Ġsentence": 6125,
      "##izations": 6126,
      "Ġwouldn": 6127,
      "##rav": 6128,
      "Ġtrig": 6129,
      "Ġprobability": 6130,
      "ĠCR": 6131,
      "##SD": 6132,
      "red": 6133,
      "bolds": 6134,
      "Ġsrc": 6135,
      "##EV": 6136,
      "Ġkept": 6137,
      "##ctors": 6138,
      "Ġ75": 6139,
      "ĠNote": 6140,
      "Ġmedic": 6141,
      "Ġsurround": 6142,
      "ID": 6143,
      "Ġhandle": 6144,
      "Ġpref": 6145,
      "Ad": 6146,
      "Ġmental": 6147,
      "Ġren": 6148,
      "Ġefforts": 6149,
      "otimes": 6150,
      "Ġjava": 6151,
      "##acters": 6152,
      "Ġproport": 6153,
      "Ġ()": 6154,
      "Ġcollected": 6155,
      "##edom": 6156,
      "##ymph": 6157,
      "##AV": 6158,
      "##ialog": 6159,
      "op": 6160,
      "##issions": 6161,
      "Ġefficient": 6162,
      "Ġgradu": 6163,
      "Ġtraditional": 6164,
      "Ġoccurred": 6165,
      "Ġhuge": 6166,
      "82": 6167,
      "92": 6168,
      "##stream": 6169,
      "ĠUp": 6170,
      "Ġgal": 6171,
      "##etric": 6172,
      "##Node": 6173,
      "boldsymbol": 6174,
      "##ture": 6175,
      "comm": 6176,
      "Ġcredit": 6177,
      "Ġtrou": 6178,
      "Ġcatch": 6179,
      "Ġconver": 6180,
      "Ġprepar": 6181,
      "Ġintroduced": 6182,
      "Well": 6183,
      "Ġrelation": 6184,
      "Ġfaith": 6185,
      "##ĉĉĉ": 6186,
      "##bb": 6187,
      "ĠPlaintiff": 6188,
      "Ġast": 6189,
      "##asma": 6190,
      "Ġdiscussion": 6191,
      "Ġreject": 6192,
      "Ġsuggests": 6193,
      "Ġbehavi": 6194,
      "Ġsust": 6195,
      "ĠSuper": 6196,
      "ĠNOT": 6197,
      "##Index": 6198,
      "Ġestimated": 6199,
      "##opyright": 6200,
      "Ġcertainly": 6201,
      "##iny": 6202,
      "Ġ65": 6203,
      "Ġenzym": 6204,
      "\\<": 6205,
      "Ġexplained": 6206,
      "##MA": 6207,
      "Ġstorage": 6208,
      "Ġtechniques": 6209,
      "cap": 6210,
      "Ġkid": 6211,
      "##opic": 6212,
      "##ira": 6213,
      "Ġhistor": 6214,
      "Ġlock": 6215,
      "##eloc": 6216,
      "Why": 6217,
      "Ġcorrelation": 6218,
      "##ÂłÂłÂłÂł": 6219,
      "ĠTest": 6220,
      "Ġdiagnosis": 6221,
      "##ART": 6222,
      "ĠSet": 6223,
      "}})": 6224,
      "##ometry": 6225,
      "dot": 6226,
      "##resents": 6227,
      "Ġimplic": 6228,
      "Ġstatute": 6229,
      "ĠLondon": 6230,
      "Ġremaining": 6231,
      "Ġelectric": 6232,
      "ĠGroup": 6233,
      "Ġmovie": 6234,
      "##Of": 6235,
      "##pir": 6236,
      "Ġprotection": 6237,
      "Ġchrom": 6238,
      "Des": 6239,
      "Ġadvantage": 6240,
      "Ġgone": 6241,
      "Ġappellant": 6242,
      "##PI": 6243,
      "Ġkin": 6244,
      "##kin": 6245,
      "ĠCode": 6246,
      "Ġinflamm": 6247,
      "Ġbeautiful": 6248,
      "##cohol": 6249,
      "Ġforces": 6250,
      "##appa": 6251,
      "##stall": 6252,
      "one": 6253,
      "url": 6254,
      "Ġcriminal": 6255,
      "Ġalgorithm": 6256,
      "##',": 6257,
      "Ġchain": 6258,
      "Ġmist": 6259,
      "##isation": 6260,
      ")^{": 6261,
      "##ographic": 6262,
      "Ġbuffer": 6263,
      "Ġ2005": 6264,
      "Ġrequirements": 6265,
      "##esh": 6266,
      "Ġprosec": 6267,
      "Ġbiggest": 6268,
      "##race": 6269,
      "âĢ²": 6270,
      "84": 6271,
      "Ġoccup": 6272,
      "subset": 6273,
      "Ġvoice": 6274,
      "((": 6275,
      "##ERT": 6276,
      "src": 6277,
      "Ġrac": 6278,
      "##itled": 6279,
      "Ġformat": 6280,
      "Ġrecords": 6281,
      "Ġpun": 6282,
      "Ġabsence": 6283,
      "##inity": 6284,
      "Ġguess": 6285,
      "##Ps": 6286,
      "mon": 6287,
      "##pective": 6288,
      "Ġsyn": 6289,
      "Ġgeneration": 6290,
      "##QL": 6291,
      "##rel": 6292,
      "74": 6293,
      "##ivery": 6294,
      "##hens": 6295,
      "Ġtal": 6296,
      "prime": 6297,
      "58": 6298,
      "##osc": 6299,
      "Ġfootball": 6300,
      "Ġcardi": 6301,
      "Ġdoll": 6302,
      "ĠBr": 6303,
      "Ġolder": 6304,
      "Ġpicture": 6305,
      "ensure": 6306,
      "info": 6307,
      "ĠGreen": 6308,
      "Ġorganization": 6309,
      "Sigma": 6310,
      "Ġresponses": 6311,
      "ÃĲÂ": 6312,
      "Ġmissing": 6313,
      "Ġserved": 6314,
      "Ġtempor": 6315,
      "Ġcitiz": 6316,
      "##agement": 6317,
      "Ġwhom": 6318,
      "Our": 6319,
      "63": 6320,
      "ĠEast": 6321,
      "ĠEach": 6322,
      "Ġadding": 6323,
      "Lambda": 6324,
      "##With": 6325,
      "##onald": 6326,
      "Ġsell": 6327,
      "Ġoffers": 6328,
      "##wood": 6329,
      "##PC": 6330,
      "Ġoptical": 6331,
      "Ġbreast": 6332,
      "CON": 6333,
      "Ġquantum": 6334,
      "Ġfloor": 6335,
      "ĠPD": 6336,
      "Ġderived": 6337,
      "Ġeat": 6338,
      "Ġ52": 6339,
      "##rivate": 6340,
      "Ġcreating": 6341,
      "##asp": 6342,
      "Ġmanif": 6343,
      "Do": 6344,
      "Ġbrother": 6345,
      "Se": 6346,
      "Ġscience": 6347,
      "Ġsubjects": 6348,
      "ĠTexas": 6349,
      "Ġpurposes": 6350,
      "While": 6351,
      "Ġpolic": 6352,
      "##going": 6353,
      "##umer": 6354,
      "##ato": 6355,
      "##Sh": 6356,
      "Ġeconomy": 6357,
      "Ġexternal": 6358,
      "assert": 6359,
      "Ġanimal": 6360,
      "ĠBlack": 6361,
      "Ġideas": 6362,
      "##ologies": 6363,
      "ĠSD": 6364,
      "##actor": 6365,
      "Ġintended": 6366,
      "Ġschools": 6367,
      "##unday": 6368,
      "/**": 6369,
      "##rage": 6370,
      "##](#": 6371,
      "ĠOh": 6372,
      "Qu": 6373,
      "##tage": 6374,
      "Ġdrop": 6375,
      "Ġproperly": 6376,
      "block": 6377,
      "Ġrepresents": 6378,
      "##iler": 6379,
      "67": 6380,
      "##ebug": 6381,
      "##duc": 6382,
      "##icrosoft": 6383,
      "Ġresolution": 6384,
      "ĠSte": 6385,
      "Ġextent": 6386,
      "Ġsymm": 6387,
      "Ġesc": 6388,
      "Ġjoint": 6389,
      "005": 6390,
      ".](": 6391,
      "Ġglass": 6392,
      "ĠBritish": 6393,
      "##comes": 6394,
      "Ġpool": 6395,
      "Ġdecreased": 6396,
      "Ġdirector": 6397,
      "Ġthank": 6398,
      "##itory": 6399,
      "Ġgrand": 6400,
      "##elled": 6401,
      "Ġradio": 6402,
      "##bi": 6403,
      "Ġsummer": 6404,
      "##agram": 6405,
      "##esis": 6406,
      "wide": 6407,
      "##rees": 6408,
      "Ġthread": 6409,
      "##hold": 6410,
      "Ġbelong": 6411,
      "Ġcomfort": 6412,
      "Ġauthority": 6413,
      "ĠSupreme": 6414,
      "mbox": 6415,
      "##vis": 6416,
      "ĠEv": 6417,
      "Ġmechanisms": 6418,
      "nonumber": 6419,
      "Ġauto": 6420,
      "Ġprotected": 6421,
      "Ġvirus": 6422,
      "Ġdistinct": 6423,
      "ĠJew": 6424,
      "Ġcoeff": 6425,
      "Ġsav": 6426,
      "Ġlargest": 6427,
      "induced": 6428,
      "Ġsymb": 6429,
      "Ġ64": 6430,
      "Ġexperien": 6431,
      "Ġattorney": 6432,
      "Ġfeeling": 6433,
      "##orry": 6434,
      "##rep": 6435,
      "##state": 6436,
      "Ġcommunic": 6437,
      "Ġinterests": 6438,
      "Ġteams": 6439,
      "ensuremath": 6440,
      "ĠAny": 6441,
      "\"></": 6442,
      "Ġmembrane": 6443,
      "level": 6444,
      "Ġtechnique": 6445,
      "##isd": 6446,
      "Ġofficers": 6447,
      "Ġregist": 6448,
      "vert": 6449,
      "ĠJack": 6450,
      "Ġfirm": 6451,
      "##Qu": 6452,
      "ĠGoogle": 6453,
      "Ġcontained": 6454,
      "ĠMart": 6455,
      "Ġcrime": 6456,
      "ĠDon": 6457,
      "Ġteac": 6458,
      "However": 6459,
      "##sole": 6460,
      "case": 6461,
      "Ġslightly": 6462,
      "##arp": 6463,
      "Ġvan": 6464,
      "Ġcommit": 6465,
      "##Map": 6466,
      "Ġdry": 6467,
      "Ġsitu": 6468,
      "Ġmere": 6469,
      "##ements": 6470,
      "##utor": 6471,
      "local": 6472,
      "Ġloop": 6473,
      "##PP": 6474,
      "##EE": 6475,
      "##rian": 6476,
      "##rating": 6477,
      "default": 6478,
      "Ġsales": 6479,
      "Ġhem": 6480,
      "Ġarbit": 6481,
      "##uesday": 6482,
      "Ġstrugg": 6483,
      "##AY": 6484,
      "66": 6485,
      "body": 6486,
      "##ota": 6487,
      "err": 6488,
      "Ġshared": 6489,
      "Ġdriver": 6490,
      ")?": 6491,
      "Ġvent": 6492,
      "Ġgold": 6493,
      "##rin": 6494,
      "Ġguys": 6495,
      "Ġbool": 6496,
      "##Field": 6497,
      "##etes": 6498,
      "##BI": 6499,
      "Ġcharged": 6500,
      "Ġcompris": 6501,
      "##itions": 6502,
      "Ġopening": 6503,
      "Ġcharacters": 6504,
      "##ugin": 6505,
      "Ġdoubt": 6506,
      "Ġerrors": 6507,
      "Ġlatest": 6508,
      "^âĪĴ": 6509,
      "Ġprojects": 6510,
      "ĠAL": 6511,
      "Ġrise": 6512,
      "ĠChinese": 6513,
      "specific": 6514,
      "Ġoffered": 6515,
      "Ġepis": 6516,
      "Ġconventional": 6517,
      "Ġhus": 6518,
      "##ilarly": 6519,
      "Ġholding": 6520,
      "ĠRem": 6521,
      "Ġcoverage": 6522,
      "##%%": 6523,
      "Ġprison": 6524,
      "Ġannounced": 6525,
      "##ouble": 6526,
      "##Def": 6527,
      "Ġdra": 6528,
      "ĠAR": 6529,
      "Ġneighbor": 6530,
      "ĠCanada": 6531,
      "ĠNS": 6532,
      "ĠFoundation": 6533,
      "See": 6534,
      "ĠStreet": 6535,
      "post": 6536,
      "##hetic": 6537,
      "Ġexchange": 6538,
      "ĠEq": 6539,
      "ĠTwo": 6540,
      "##ya": 6541,
      "Ġdescribe": 6542,
      "Ġsurpris": 6543,
      "##aper": 6544,
      "##********************************": 6545,
      "Ġentered": 6546,
      "Ġconserv": 6547,
      "##Ref": 6548,
      "Ġweap": 6549,
      "ĠOver": 6550,
      "Ġgain": 6551,
      "##-------": 6552,
      "Ġfarm": 6553,
      "Ġagents": 6554,
      "Ġinteractions": 6555,
      "##TT": 6556,
      "Ġinvolve": 6557,
      "result": 6558,
      "Ġring": 6559,
      "Ġ${": 6560,
      "##rans": 6561,
      "ĠFriday": 6562,
      "##ATION": 6563,
      "Ġsupply": 6564,
      "##Form": 6565,
      "##plify": 6566,
      "##arks": 6567,
      "Ġrank": 6568,
      "0000": 6569,
      "Ġearn": 6570,
      "Ġdecrease": 6571,
      "##ariant": 6572,
      "ĠCirc": 6573,
      "##roduction": 6574,
      "ĠMod": 6575,
      "ĠClass": 6576,
      "ĠRober": 6577,
      "Ġ00": 6578,
      "Ġexpert": 6579,
      "##anged": 6580,
      "ĠRich": 6581,
      "**]{},": 6582,
      "##amera": 6583,
      "##mark": 6584,
      "Ġagency": 6585,
      "Ġanalyses": 6586,
      "##kt": 6587,
      ".[@": 6588,
      "Ġdose": 6589,
      "##Config": 6590,
      "}-": 6591,
      "##riage": 6592,
      "Ġprofile": 6593,
      "68": 6594,
      "##ipped": 6595,
      "ĠCalculate": 6596,
      "(&": 6597,
      "Ġconcentrations": 6598,
      "##abla": 6599,
      "Ġrepeated": 6600,
      "Ġcomposition": 6601,
      "âĢ¢": 6602,
      "ge": 6603,
      "Ġwish": 6604,
      "Ġ\"[": 6605,
      "##Array": 6606,
      "Ġsmooth": 6607,
      "##rete": 6608,
      "Ġarrang": 6609,
      "##oman": 6610,
      "model": 6611,
      "ĠCouncil": 6612,
      "ĠPeople": 6613,
      "čĊĉ": 6614,
      "##dds": 6615,
      "Ġoutcome": 6616,
      "Ġviews": 6617,
      "##ructions": 6618,
      "##ago": 6619,
      "ĠFOR": 6620,
      "##ensor": 6621,
      "ĠDi": 6622,
      "ĠJames": 6623,
      "ĠDirect": 6624,
      "##HT": 6625,
      "âĢĬ": 6626,
      "Ġquarter": 6627,
      "##Hand": 6628,
      "Ġowners": 6629,
      "Ġreceptor": 6630,
      "##cks": 6631,
      "##âĢĶ": 6632,
      "Ġgenetic": 6633,
      "##retion": 6634,
      "summary": 6635,
      "##ansion": 6636,
      "Ġwind": 6637,
      "##anging": 6638,
      "ĠCommun": 6639,
      "Ġsun": 6640,
      "ĠSuch": 6641,
      "Ġexistence": 6642,
      "##BA": 6643,
      "##_{\\": 6644,
      "Ġpossibility": 6645,
      "88": 6646,
      "Ġcold": 6647,
      "}}_{": 6648,
      "Ġplants": 6649,
      "Ġ+=": 6650,
      ")]": 6651,
      "Ġelim": 6652,
      "Ġoperating": 6653,
      "ĠAS": 6654,
      "Ġcompleted": 6655,
      "Ġdriving": 6656,
      "Ġstars": 6657,
      "Ġ38": 6658,
      "Ġelectron": 6659,
      "CH": 6660,
      "ĠArm": 6661,
      "pos": 6662,
      "Ġtrend": 6663,
      "Ġreturns": 6664,
      "Ġpatterns": 6665,
      "##illa": 6666,
      "Ġamb": 6667,
      "##ainer": 6668,
      "Ġaren": 6669,
      "\\}": 6670,
      "Ġinteger": 6671,
      "##alid": 6672,
      "Ġsignals": 6673,
      "##cious": 6674,
      "List": 6675,
      "##........": 6676,
      "Â»": 6677,
      "Ġwhatever": 6678,
      "##ĠĠĠĠĠĠĠĠĠĠĠĠĠĠ": 6679,
      "Ġbrand": 6680,
      "ĠUnder": 6681,
      "ĠĠĠĠĠĠĠĠĠĠĠĠĠĠĠĠĠĠĠ": 6682,
      "Ġ2004": 6683,
      "Ġidentity": 6684,
      "Ġcond": 6685,
      "Ġheavy": 6686,
      "Ġcir": 6687,
      "db": 6688,
      "core": 6689,
      "##aid": 6690,
      "##anges": 6691,
      "ĠWH": 6692,
      "AD": 6693,
      ")\"": 6694,
      "##raction": 6695,
      "det": 6696,
      "Ġdiseases": 6697,
      "Ġinterested": 6698,
      "âĢĿ.": 6699,
      "Ġgenerate": 6700,
      "Ġ--------": 6701,
      "##asks": 6702,
      "({\\": 6703,
      "ĠWed": 6704,
      "##pled": 6705,
      "##RL": 6706,
      "Ġstable": 6707,
      "Ġfinite": 6708,
      "##buntu": 6709,
      "Ġmeant": 6710,
      "Ġbutton": 6711,
      "##orders": 6712,
      "Ġpeace": 6713,
      "##onna": 6714,
      "\\|": 6715,
      "##cence": 6716,
      "Ġequivalent": 6717,
      "Ġquery": 6718,
      "Ġappeared": 6719,
      "Ġ};": 6720,
      "##itect": 6721,
      "Ġequipment": 6722,
      "Ġindicates": 6723,
      "##ancing": 6724,
      "##ITH": 6725,
      "##aste": 6726,
      "##imb": 6727,
      "Ġimportance": 6728,
      "ĠService": 6729,
      "Ġboy": 6730,
      "Ġ61": 6731,
      "Ġdisp": 6732,
      "ĠMonday": 6733,
      "Some": 6734,
      "Ġwat": 6735,
      "_.": 6736,
      "From": 6737,
      "Ġspectrum": 6738,
      "Def": 6739,
      "##UE": 6740,
      "Ġcontrolled": 6741,
      "Ġmobile": 6742,
      "Ġruns": 6743,
      "Ġsuppl": 6744,
      "man": 6745,
      "##ervices": 6746,
      "Ġcarbon": 6747,
      "##etilde": 6748,
      "Ġholds": 6749,
      "widetilde": 6750,
      "Ġconclusion": 6751,
      "Ġsequences": 6752,
      "Ġincorpor": 6753,
      "##oted": 6754,
      "Ġconvert": 6755,
      "ĠBoth": 6756,
      "Ġtom": 6757,
      "##amily": 6758,
      "##FP": 6759,
      "ĠWestern": 6760,
      "Ġnan": 6761,
      "Ġconfiguration": 6762,
      "čĊĠĠĠĠĠĠĠĠĠĠĠ": 6763,
      "Ġinterf": 6764,
      "Ġhappens": 6765,
      "##ament": 6766,
      "ĠFin": 6767,
      "Ġparticles": 6768,
      "##OST": 6769,
      "Ġcm": 6770,
      "Ġpregn": 6771,
      ")/(": 6772,
      "version": 6773,
      "Ġ2019": 6774,
      "func": 6775,
      "##ilit": 6776,
      "##ITY": 6777,
      "ĠBen": 6778,
      "nabla": 6779,
      "Ġsecondary": 6780,
      "96": 6781,
      "Ġdefendants": 6782,
      "kappa": 6783,
      "Ġtox": 6784,
      "Ġreality": 6785,
      "Ġmouse": 6786,
      "##As": 6787,
      "##istent": 6788,
      "Ġsuspect": 6789,
      "##ncy": 6790,
      "ĠOut": 6791,
      "##rect": 6792,
      "##ursday": 6793,
      "##iveness": 6794,
      "##ellent": 6795,
      "property": 6796,
      "Ġmaintain": 6797,
      "##ville": 6798,
      "Ġcatal": 6799,
      "Ġreferred": 6800,
      "##ĊĠĠĠ": 6801,
      "Ġapprec": 6802,
      "Ġmeasurements": 6803,
      "][": 6804,
      "##orrow": 6805,
      "Ġdigital": 6806,
      "##ilos": 6807,
      "Ġcanc": 6808,
      "##asc": 6809,
      "ĠCle": 6810,
      "Ġinstr": 6811,
      "##nesday": 6812,
      "Ġconstit": 6813,
      "##\\\\": 6814,
      "Ġ500": 6815,
      "Ġsurvey": 6816,
      "Data": 6817,
      "##bj": 6818,
      "##eless": 6819,
      "Ġsession": 6820,
      "Ġ------------": 6821,
      "##uries": 6822,
      "##cluding": 6823,
      "##eck": 6824,
      "##gebra": 6825,
      "Ġcontinuous": 6826,
      "Ġtrain": 6827,
      "ĠInstitute": 6828,
      "##rea": 6829,
      "##Color": 6830,
      "##LC": 6831,
      "Ġseemed": 6832,
      "Ġflex": 6833,
      "Ġbra": 6834,
      "ĠCa": 6835,
      "run": 6836,
      "Ġcompens": 6837,
      "##pected": 6838,
      "Ġdeveloping": 6839,
      "style": 6840,
      "##com": 6841,
      "open": 6842,
      "Ġstatements": 6843,
      "ĠTechn": 6844,
      "##Ð°Ð": 6845,
      "ĠĠĠĠĠĠĠĠĠĠĠĠĠĠĠĠĠĠ": 6846,
      "##Element": 6847,
      "##othe": 6848,
      "Ġnoise": 6849,
      "ĠDay": 6850,
      "Ġburn": 6851,
      "Ġing": 6852,
      "Ġlibrary": 6853,
      "##print": 6854,
      "ĠSP": 6855,
      "Ġalcohol": 6856,
      "##23": 6857,
      "Ġpure": 6858,
      "Ġlung": 6859,
      "##Att": 6860,
      "ĠSecond": 6861,
      "##icated": 6862,
      "ĠHT": 6863,
      "Ġneuro": 6864,
      "Ġspirit": 6865,
      "##inder": 6866,
      "Ġdream": 6867,
      "##rey": 6868,
      "Ġlit": 6869,
      "##ailed": 6870,
      "Ġattract": 6871,
      "ĠON": 6872,
      "Ġdownload": 6873,
      "2015": 6874,
      "so": 6875,
      "Ġchronic": 6876,
      "ĠSmith": 6877,
      "##ALL": 6878,
      "Ġcateg": 6879,
      "Ġbalance": 6880,
      "##othing": 6881,
      "Ġremainder": 6882,
      "Ġrepresentation": 6883,
      "Ġexcess": 6884,
      "ĠAir": 6885,
      "^[@": 6886,
      "Ġjobs": 6887,
      "Ġenvironmental": 6888,
      "##unn": 6889,
      "ĠCompany": 6890,
      "ĠJes": 6891,
      "Ġcollege": 6892,
      "ĠDel": 6893,
      "ĠMac": 6894,
      "Ġapproved": 6895,
      "##ested": 6896,
      "Ġdiab": 6897,
      "##omorph": 6898,
      "##orted": 6899,
      "##For": 6900,
      "##ellular": 6901,
      "ĠEvery": 6902,
      "ĠFacebook": 6903,
      "##heless": 6904,
      "Ġlatter": 6905,
      "##ted": 6906,
      "ĠCA": 6907,
      "98": 6908,
      "##abilities": 6909,
      "##cher": 6910,
      "##isted": 6911,
      "Ġissued": 6912,
      "ĠMal": 6913,
      "Ġliver": 6914,
      "Ġbow": 6915,
      "##TA": 6916,
      ")[": 6917,
      "Ġoverl": 6918,
      "Ġsquare": 6919,
      "Ġextremely": 6920,
      "Ġborn": 6921,
      "##onnection": 6922,
      "ĠItal": 6923,
      "Ġveloc": 6924,
      "##reshold": 6925,
      "Ġspeech": 6926,
      "##!--": 6927,
      "false": 6928,
      "##Pl": 6929,
      "Ġappoint": 6930,
      "Ġknows": 6931,
      "Ġhab": 6932,
      "Ġempty": 6933,
      "Ġwarrant": 6934,
      "Ġspot": 6935,
      "ĠSam": 6936,
      "Ġvill": 6937,
      "ĠSunday": 6938,
      "Ġorigin": 6939,
      "Ġestimate": 6940,
      "doc": 6941,
      "Ġjurisd": 6942,
      "Ġpartners": 6943,
      "Ġexamples": 6944,
      "Ġleader": 6945,
      "Ġabuse": 6946,
      "Ġcovered": 6947,
      "ĠMichael": 6948,
      "Ġcharges": 6949,
      "Ġtransmission": 6950,
      "ĠKore": 6951,
      "ĠPress": 6952,
      "Ġserum": 6953,
      "Ġexplicit": 6954,
      "##otes": 6955,
      "ĠBig": 6956,
      "##istan": 6957,
      "##ston": 6958,
      "Ġahead": 6959,
      "##rape": 6960,
      "ĠPort": 6961,
      "ĠFe": 6962,
      "Ġregulation": 6963,
      "sens": 6964,
      "Ġliterature": 6965,
      "##UD": 6966,
      "##Ãĥ": 6967,
      "prot": 6968,
      "##sey": 6969,
      "ĠFlor": 6970,
      "##IST": 6971,
      "##Manager": 6972,
      "Set": 6973,
      "me": 6974,
      "Ġsubstantial": 6975,
      "sw": 6976,
      "##eger": 6977,
      "Ġsigned": 6978,
      "]),": 6979,
      "ĠMS": 6980,
      "Ġopened": 6981,
      "Ġhusband": 6982,
      "##ette": 6983,
      "CD": 6984,
      "down": 6985,
      "Ġimplementation": 6986,
      "Ġterror": 6987,
      "ĠWhy": 6988,
      "76": 6989,
      "##Equ": 6990,
      "Ġscene": 6991,
      "Ġfluid": 6992,
      "Ġcustomers": 6993,
      "##asure": 6994,
      "Ġ54": 6995,
      "apache": 6996,
      "Ġlab": 6997,
      "##ytic": 6998,
      "##ogene": 6999,
      "##Comp": 7000,
      "Ġchurch": 7001,
      "Ġceleb": 7002,
      "##CP": 7003,
      "##edy": 7004,
      "Ġformula": 7005,
      "##hent": 7006,
      "##ructure": 7007,
      "Ġoccurs": 7008,
      "##ds": 7009,
      "##ORT": 7010,
      "##olf": 7011,
      "ĠTheorem": 7012,
      "Ġwarm": 7013,
      "Ġplasma": 7014,
      "##uing": 7015,
      "Ġintent": 7016,
      "ĠChristian": 7017,
      "Ġwood": 7018,
      "Ġrecorded": 7019,
      "\").": 7020,
      "long": 7021,
      "Ġvolunt": 7022,
      "Ġdelivery": 7023,
      "Ġcompounds": 7024,
      "##icted": 7025,
      "##aturday": 7026,
      "Ġdecisions": 7027,
      "ĊĊĠĠĠĠĠĠ": 7028,
      "##ishes": 7029,
      "point": 7030,
      "ĠChar": 7031,
      "({": 7032,
      "Ġappar": 7033,
      "ĠYes": 7034,
      "##amine": 7035,
      "##ulin": 7036,
      "##aa": 7037,
      "Ġcycl": 7038,
      "##yan": 7039,
      "Ġextension": 7040,
      "##prise": 7041,
      "you": 7042,
      "ĠAT": 7043,
      "Ġreceiving": 7044,
      "Ġevaluated": 7045,
      "Ġassay": 7046,
      "##stein": 7047,
      "Ġnetworks": 7048,
      "##erry": 7049,
      "##emma": 7050,
      "ĠMet": 7051,
      "Ġinner": 7052,
      "Ġallowing": 7053,
      "ĠLeg": 7054,
      "Ġcalling": 7055,
      "Ġextended": 7056,
      "Ġleaves": 7057,
      "##------": 7058,
      "ĠAmericans": 7059,
      "main": 7060,
      "##54": 7061,
      "ĠFrench": 7062,
      "Ġviolence": 7063,
      "##bo": 7064,
      "83": 7065,
      "Can": 7066,
      "Ġcris": 7067,
      "Ġhaven": 7068,
      "Ġpercentage": 7069,
      "ĠMont": 7070,
      "Or": 7071,
      "Ġdigit": 7072,
      "ĠUnion": 7073,
      "Ġbeg": 7074,
      "....": 7075,
      "Ġoutcomes": 7076,
      "ĠTR": 7077,
      ")*(": 7078,
      "head": 7079,
      "##itative": 7080,
      "Test": 7081,
      "##ini": 7082,
      "Ġconcerns": 7083,
      "select": 7084,
      "Ġassessment": 7085,
      "##->": 7086,
      "Ġsubsequent": 7087,
      "Ġleaving": 7088,
      "Ġthousands": 7089,
      "ĠCommittee": 7090,
      "endif": 7091,
      "Ġ2003": 7092,
      "Î¼": 7093,
      "ĠIns": 7094,
      "##oking": 7095,
      "Ġtestified": 7096,
      "Ġhelped": 7097,
      "According": 7098,
      "##ras": 7099,
      "Exp": 7100,
      "##imer": 7101,
      "Ġmostly": 7102,
      "Ġunderlying": 7103,
      "ĠMiss": 7104,
      "Ġowner": 7105,
      "Ġguarant": 7106,
      "ĠLeague": 7107,
      "Ġimmune": 7108,
      "ml": 7109,
      "ĠIP": 7110,
      "Ġarguments": 7111,
      "##NS": 7112,
      "ĠFinally": 7113,
      "Ġsale": 7114,
      "Ġefficiency": 7115,
      "##XX": 7116,
      "##elp": 7117,
      "py": 7118,
      "ĠDuring": 7119,
      "##okes": 7120,
      "ĠTuesday": 7121,
      "##ortunately": 7122,
      "##ributes": 7123,
      "Ġwire": 7124,
      "height": 7125,
      "ï¼Į": 7126,
      "Ġmuscle": 7127,
      "En": 7128,
      "Ġshut": 7129,
      "ĠKe": 7130,
      "ev": 7131,
      "##ilty": 7132,
      "##ifications": 7133,
      "##lands": 7134,
      "ĠAnal": 7135,
      "Ġlymph": 7136,
      "Ġrepresented": 7137,
      "##inux": 7138,
      "ĠUsing": 7139,
      "Ġtransl": 7140,
      "Ġcriteria": 7141,
      "##flow": 7142,
      "Ġadult": 7143,
      "##!!": 7144,
      "web": 7145,
      "Ġcentury": 7146,
      "ĠCO": 7147,
      "##nergy": 7148,
      "Ġuniform": 7149,
      "##endment": 7150,
      "}}{": 7151,
      "Ġraise": 7152,
      "##AND": 7153,
      "Ġgar": 7154,
      "##nson": 7155,
      "##lets": 7156,
      "Ġgreatest": 7157,
      "date": 7158,
      "using": 7159,
      "Ġexamined": 7160,
      "##ords": 7161,
      "##OUR": 7162,
      "Ġmanufacture": 7163,
      "##aneous": 7164,
      "Ġ{}": 7165,
      "Ġaffirm": 7166,
      "ĠLou": 7167,
      "Ġspecified": 7168,
      "Ġlearned": 7169,
      "##gent": 7170,
      "Ġeventually": 7171,
      "Ġbooks": 7172,
      "Ġ72": 7173,
      "where": 7174,
      "Ġpowerful": 7175,
      "Ġdiscrim": 7176,
      "ĠWeb": 7177,
      "##antly": 7178,
      "73": 7179,
      "Ġcandidate": 7180,
      "Ġcurve": 7181,
      ",'": 7182,
      "##omal": 7183,
      "##ostic": 7184,
      "Ġrestaur": 7185,
      "##tes": 7186,
      "Ġdepends": 7187,
      "zeta": 7188,
      "Ġlimitations": 7189,
      "Ġincident": 7190,
      "##pc": 7191,
      "ĠMany": 7192,
      "77": 7193,
      "##Request": 7194,
      "Ġpositions": 7195,
      "build": 7196,
      "Ġlicense": 7197,
      "##Test": 7198,
      "ĠOpen": 7199,
      "Ġelev": 7200,
      "Ġcere": 7201,
      "ĠIran": 7202,
      "message": 7203,
      "Ġscheme": 7204,
      "Ġsupposed": 7205,
      "Ġplane": 7206,
      "##GC": 7207,
      "##ampions": 7208,
      "ĠGermany": 7209,
      "##ella": 7210,
      "Ġvoltage": 7211,
      "##gments": 7212,
      "Ġdram": 7213,
      "ĠâĢ¦": 7214,
      "Ġinvestigated": 7215,
      "Sub": 7216,
      "Ġvary": 7217,
      "TR": 7218,
      "##ander": 7219,
      "##oret": 7220,
      "##ello": 7221,
      "Ġachieved": 7222,
      "##aud": 7223,
      "##ELE": 7224,
      "ĠScience": 7225,
      "##andard": 7226,
      "section": 7227,
      "Ġtypical": 7228,
      "Ġdefect": 7229,
      "ĠIII": 7230,
      "dots": 7231,
      "Any": 7232,
      "Ġresearc": 7233,
      "##ipal": 7234,
      "first": 7235,
      "##===": 7236,
      "Ġpathway": 7237,
      "\\*": 7238,
      "Ġgoals": 7239,
      "Ġpurchase": 7240,
      "##isher": 7241,
      "##utton": 7242,
      "##men": 7243,
      "Ġ${{\\": 7244,
      "Ġmixed": 7245,
      "Fl": 7246,
      "ĠJudge": 7247,
      "ĠNone": 7248,
      "Ġchanging": 7249,
      "Ġunivers": 7250,
      "api": 7251,
      "##rog": 7252,
      "Ġpolicies": 7253,
      "ĠCollege": 7254,
      "Ġ2001": 7255,
      "##inant": 7256,
      "Ġjournal": 7257,
      "93": 7258,
      "Ġfish": 7259,
      "Ġfraction": 7260,
      "art": 7261,
      "2013": 7262,
      "Ġprocedures": 7263,
      "##Fl": 7264,
      "Ġspring": 7265,
      "Ġstandards": 7266,
      "##ĠĠĠĠĠĠĠĠĠĠĠĠĠĠĠĠĠĠĠ": 7267,
      "Ġmetabol": 7268,
      "78": 7269,
      "##oop": 7270,
      "##rowser": 7271,
      "supplementary": 7272,
      "##Service": 7273,
      "Ġrecovery": 7274,
      "2016": 7275,
      "##oday": 7276,
      "Ġenforce": 7277,
      "Ġapplicable": 7278,
      "ĠAssociation": 7279,
      "##En": 7280,
      "Ġgranted": 7281,
      "Ġtub": 7282,
      "##erial": 7283,
      "Ġspend": 7284,
      "Ġfilms": 7285,
      "##Group": 7286,
      "ĠBre": 7287,
      "Ġflat": 7288,
      "Ġ39": 7289,
      "Ġbelief": 7290,
      "##12": 7291,
      "Ġrevers": 7292,
      "?âĢĿ": 7293,
      "ĠFR": 7294,
      "ĠGovernment": 7295,
      "Comp": 7296,
      ".</": 7297,
      "##ipl": 7298,
      "ĠBay": 7299,
      "##CTION": 7300,
      "Ġheter": 7301,
      "Ġacts": 7302,
      "##Th": 7303,
      "Ġisolated": 7304,
      "These": 7305,
      "Ġpert": 7306,
      "Ġflav": 7307,
      "Ġacknow": 7308,
      ")=\\": 7309,
      "Ġpolar": 7310,
      "97": 7311,
      "Ġom": 7312,
      "Ġdesired": 7313,
      "dimensional": 7314,
      "##akers": 7315,
      "Ġevaluation": 7316,
      "##MD": 7317,
      "Ġseeing": 7318,
      "ĠCP": 7319,
      "##CK": 7320,
      "##space": 7321,
      "option": 7322,
      "##ossible": 7323,
      "Ġeasier": 7324,
      "'}": 7325,
      "Ġsubstrate": 7326,
      "\\{": 7327,
      "Ġindeed": 7328,
      "Bl": 7329,
      "Ġsections": 7330,
      "2014": 7331,
      "Ġrelief": 7332,
      "Ġstrongly": 7333,
      "Ġtraffic": 7334,
      "}+": 7335,
      "##ildren": 7336,
      "Ġmorph": 7337,
      "Ġdetailed": 7338,
      "std": 7339,
      "Ġfunds": 7340,
      "Ġpaint": 7341,
      "##IZ": 7342,
      "Ġinvestment": 7343,
      "##arsh": 7344,
      "Ġbaby": 7345,
      "Ġfuel": 7346,
      "##aine": 7347,
      "Ġchosen": 7348,
      "Id": 7349,
      "Ġfourth": 7350,
      "Then": 7351,
      "Ġ300": 7352,
      "##onnect": 7353,
      "Ġentitled": 7354,
      "##iller": 7355,
      "Ġ{{\\": 7356,
      "Ġfol": 7357,
      "ĠChurch": 7358,
      "Ġmaster": 7359,
      "##ban": 7360,
      "dependent": 7361,
      "Ġreplic": 7362,
      "##MC": 7363,
      "##ftware": 7364,
      "Ġfreedom": 7365,
      "Ġcategory": 7366,
      "Ġstored": 7367,
      "Ġthin": 7368,
      "})$": 7369,
      "ĠRead": 7370,
      "Ġjoin": 7371,
      "Ġgly": 7372,
      "Ġcommitted": 7373,
      "Ġamaz": 7374,
      "Ġdaughter": 7375,
      "ĠUN": 7376,
      "##LS": 7377,
      "Ġcluster": 7378,
      "font": 7379,
      "ĠCI": 7380,
      "Ġduty": 7381,
      "\"}.": 7382,
      "Ġconclude": 7383,
      "##ceived": 7384,
      "Ġconsidering": 7385,
      "ĠWhich": 7386,
      "Ġdraft": 7387,
      "Ġdirected": 7388,
      "ĠĠĠĠĠĠĠĠĠĠĠĠĠĠĠĠĠĠĠĠ": 7389,
      "ĠMem": 7390,
      "ĠEngland": 7391,
      "ĠForm": 7392,
      "Ġtele": 7393,
      "##uls": 7394,
      "##annels": 7395,
      "Ċĉĉĉĉĉ": 7396,
      "##ih": 7397,
      "2012": 7398,
      "Ġsubt": 7399,
      "Ġsymbol": 7400,
      "Ġfif": 7401,
      "Ġpayment": 7402,
      "Ġthanks": 7403,
      "Ġvacc": 7404,
      "Ġgalax": 7405,
      "##hemical": 7406,
      "89": 7407,
      "ĠFlorida": 7408,
      "Ġprices": 7409,
      "Ġincub": 7410,
      "ĠPen": 7411,
      "ĠHill": 7412,
      "Â½": 7413,
      "/(": 7414,
      "ĠSl": 7415,
      "mem": 7416,
      "##amental": 7417,
      "Ġforced": 7418,
      "##ocytes": 7419,
      "Ġdocuments": 7420,
      "ĠDec": 7421,
      "Ġemph": 7422,
      "Ġreligious": 7423,
      "ĠWil": 7424,
      "ĠParty": 7425,
      "Just": 7426,
      "Ġintellig": 7427,
      ".**": 7428,
      "##Box": 7429,
      "##OF": 7430,
      "Ġsurf": 7431,
      "##Code": 7432,
      "##oned": 7433,
      "##velopment": 7434,
      "Ġintervention": 7435,
      "##uality": 7436,
      "Ġcup": 7437,
      "Ġlisted": 7438,
      "##wh": 7439,
      "##estic": 7440,
      "##ORD": 7441,
      "inf": 7442,
      "0001": 7443,
      "ĠSN": 7444,
      "Ġaccident": 7445,
      "##isk": 7446,
      "ĠIF": 7447,
      "##athe": 7448,
      "Ġskills": 7449,
      "Ġran": 7450,
      "Ġnav": 7451,
      "##ivo": 7452,
      "Ġoxid": 7453,
      "Ġconsult": 7454,
      "ĠThursday": 7455,
      "Ġdetermination": 7456,
      "Ġapparatus": 7457,
      "ĠCopyright": 7458,
      "Ġstories": 7459,
      "##zen": 7460,
      "Ġ--------------------------------": 7461,
      "Ġequations": 7462,
      "Ġstimul": 7463,
      "Ġrock": 7464,
      "Ġfocused": 7465,
      "##ui": 7466,
      "Ġinterm": 7467,
      "##rive": 7468,
      "ĠMo": 7469,
      "##56": 7470,
      "Ġalter": 7471,
      "Ġdepending": 7472,
      "Ġforth": 7473,
      "##aped": 7474,
      "Ġ2002": 7475,
      "ast": 7476,
      "target": 7477,
      "Ġwaiting": 7478,
      "cell": 7479,
      "Ġsch": 7480,
      "Ġlose": 7481,
      "EX": 7482,
      "ĠSal": 7483,
      "Ġplays": 7484,
      "Î²": 7485,
      "##itable": 7486,
      "Ġaccord": 7487,
      "##inn": 7488,
      "ĠWednesday": 7489,
      "Ġresulted": 7490,
      "Ġminim": 7491,
      "]--": 7492,
      "dt": 7493,
      "Ġfans": 7494,
      "##idelines": 7495,
      "##ygen": 7496,
      "Ġmo": 7497,
      "##clusive": 7498,
      "Ġaccum": 7499,
      "Ġmeasurement": 7500,
      "##venue": 7501,
      "Rev": 7502,
      "Ġuint": 7503,
      "Ġvirtual": 7504,
      "Ġconcern": 7505,
      "##Message": 7506,
      "Ġobservations": 7507,
      "Ġpossibly": 7508,
      "##ua": 7509,
      "##46": 7510,
      "Ġpad": 7511,
      "##levision": 7512,
      "null": 7513,
      "Ġversus": 7514,
      "Ġilleg": 7515,
      "Ġmodified": 7516,
      "ĠSur": 7517,
      "Ġbelieved": 7518,
      "##////////////////": 7519,
      "cdots": 7520,
      "dec": 7521,
      "ĠRussia": 7522,
      "util": 7523,
      "]]": 7524,
      "ĠConf": 7525,
      "##Model": 7526,
      "ĠHIV": 7527,
      "([": 7528,
      "ĠMA": 7529,
      "ĠWell": 7530,
      "##--------------------------------------------------------------------------------------------------------------------------------": 7531,
      "##Ã¶": 7532,
      "Ġexcellent": 7533,
      "Ġassuming": 7534,
      "##NT": 7535,
      "##ointer": 7536,
      "ĠExp": 7537,
      "##riend": 7538,
      "First": 7539,
      "##section": 7540,
      "ĠTime": 7541,
      "small": 7542,
      "##alty": 7543,
      "##argets": 7544,
      "##rypt": 7545,
      "Ġneither": 7546,
      "Ġtag": 7547,
      "Ġnodes": 7548,
      "##ushed": 7549,
      "gener": 7550,
      "Ġfees": 7551,
      "Ġangle": 7552,
      "##MR": 7553,
      "ĠDiv": 7554,
      "Ġexplan": 7555,
      "##YPE": 7556,
      "page": 7557,
      "Ġfloat": 7558,
      "Ġoffense": 7559,
      "Ġtwice": 7560,
      "write": 7561,
      "##Count": 7562,
      "Ġemployed": 7563,
      "##imately": 7564,
      "##pg": 7565,
      "##rapeut": 7566,
      "Ġapproaches": 7567,
      "Ġcommunities": 7568,
      "ĠAnn": 7569,
      "Ġfell": 7570,
      "Ġdamages": 7571,
      "char": 7572,
      "##47": 7573,
      "Ġoblig": 7574,
      "##des": 7575,
      "Ġrich": 7576,
      "ĠEX": 7577,
      "Ġcompare": 7578,
      "ĠVir": 7579,
      "##Ã¼": 7580,
      "##tx": 7581,
      "Ġearth": 7582,
      "79": 7583,
      "under": 7584,
      "##26": 7585,
      "Ġplanning": 7586,
      "##EB": 7587,
      "87": 7588,
      "Ġmanager": 7589,
      "Ġseek": 7590,
      "Ġresource": 7591,
      "Ġinvestigate": 7592,
      "##well": 7593,
      "ĠRob": 7594,
      "Ġscan": 7595,
      "Ġstanding": 7596,
      "Ġenhance": 7597,
      "##umns": 7598,
      "##stood": 7599,
      "Ġdisch": 7600,
      "2017": 7601,
      "img": 7602,
      "}/": 7603,
      "Ġscores": 7604,
      "Ġpreval": 7605,
      "Ġstreet": 7606,
      "##inations": 7607,
      "Ġtranscription": 7608,
      "ĠWindows": 7609,
      "Ġconfidence": 7610,
      "Ġbelie": 7611,
      "Ġaccuracy": 7612,
      "##AGE": 7613,
      "Ġ120": 7614,
      "##ipher": 7615,
      "##bert": 7616,
      "ÃĲÂµ": 7617,
      "Ġshock": 7618,
      "##imm": 7619,
      "Ġsole": 7620,
      "Ġfunding": 7621,
      "ĠFree": 7622,
      "##osh": 7623,
      "Ġhelps": 7624,
      "Ġbatter": 7625,
      "ĠFile": 7626,
      "Ġwilling": 7627,
      "Ġconcerned": 7628,
      "]--[@": 7629,
      "##oded": 7630,
      "Ġconflict": 7631,
      "##Un": 7632,
      "Ġhousing": 7633,
      "ĠĊĠ": 7634,
      "##inter": 7635,
      "Ġtrials": 7636,
      "##ician": 7637,
      "ĠMary": 7638,
      "ĠĠĠĠĠĠĠĠĠĠĠĠĠĠĠĠĠĠĠĠĠ": 7639,
      "ĠGold": 7640,
      "Ġsensitivity": 7641,
      "Ġanc": 7642,
      "##outhern": 7643,
      "ĠNa": 7644,
      "Ġegg": 7645,
      "Ġfab": 7646,
      "Ġcitizens": 7647,
      "ĠEnd": 7648,
      "##oster": 7649,
      "##hema": 7650,
      "Ġmainly": 7651,
      "Ġdepth": 7652,
      "Ġ_{": 7653,
      "Ġguilty": 7654,
      "##Ã¨": 7655,
      "##istory": 7656,
      "ĠSH": 7657,
      "Ġbudget": 7658,
      "Ġboundary": 7659,
      "Name": 7660,
      "Ġasking": 7661,
      "Ġelectronic": 7662,
      "cons": 7663,
      "##ashed": 7664,
      "Ġadults": 7665,
      "ĠHol": 7666,
      "output": 7667,
      "Ġrelationships": 7668,
      "Ġ43": 7669,
      "ĠMex": 7670,
      "##27": 7671,
      "##pload": 7672,
      "##posed": 7673,
      "##uous": 7674,
      "##inton": 7675,
      "##arts": 7676,
      "ĠCircuit": 7677,
      "ãĢĤ": 7678,
      "Ġparallel": 7679,
      "ĠSaturday": 7680,
      "ĠProgram": 7681,
      "Ġspat": 7682,
      "json": 7683,
      "Ġpal": 7684,
      "ĠJapanese": 7685,
      "Ġdatas": 7686,
      "Ġinvolving": 7687,
      "event": 7688,
      "Ġexperienced": 7689,
      "Ġanalog": 7690,
      "ĠAPI": 7691,
      "context": 7692,
      "ĠIR": 7693,
      "##xx": 7694,
      "ĠIslam": 7695,
      "Ġfinished": 7696,
      "Ġevaluate": 7697,
      "Ġcogn": 7698,
      "Ġ&=": 7699,
      "##rich": 7700,
      "Ġexposed": 7701,
      "##ita": 7702,
      "Since": 7703,
      "ne": 7704,
      "))/": 7705,
      "Ġrecip": 7706,
      "Ġexpansion": 7707,
      "Ġcos": 7708,
      "##eles": 7709,
      "Ġcontribution": 7710,
      "##pm": 7711,
      "##usal": 7712,
      "##col": 7713,
      "Ġsignaling": 7714,
      "Ġextends": 7715,
      "##athy": 7716,
      "##phone": 7717,
      "ĠAlex": 7718,
      "ĠBrown": 7719,
      "Ġadvice": 7720,
      "Ġprospect": 7721,
      "Ġworse": 7722,
      "##ulture": 7723,
      "##wide": 7724,
      "##ateral": 7725,
      "##SON": 7726,
      "ĠSolve": 7727,
      "status": 7728,
      "à¥": 7729,
      "button": 7730,
      "##yg": 7731,
      "ĠJesus": 7732,
      "Ġframework": 7733,
      "lang": 7734,
      "Ġemployee": 7735,
      "##standing": 7736,
      "Ġcontinues": 7737,
      "order": 7738,
      "appro": 7739,
      "ĠÃĹ": 7740,
      "##Se": 7741,
      "Ġburden": 7742,
      "%.": 7743,
      "Ġcapable": 7744,
      "NS": 7745,
      "##UG": 7746,
      "Which": 7747,
      "##wers": 7748,
      "##stal": 7749,
      "##INE": 7750,
      "Ġadvert": 7751,
      "##ACK": 7752,
      "ĠField": 7753,
      "Ġsettings": 7754,
      "ĠFederal": 7755,
      "Sp": 7756,
      "Ġideal": 7757,
      "Ġdepartment": 7758,
      "##elcome": 7759,
      "Ġdil": 7760,
      "Ġassessed": 7761,
      "Ġintensity": 7762,
      "##EY": 7763,
      "ĠAustralia": 7764,
      "parent": 7765,
      "##utely": 7766,
      "Ġplot": 7767,
      "ĠInternet": 7768,
      "Ġcritic": 7769,
      "Ġion": 7770,
      "ĠSun": 7771,
      "Don": 7772,
      "##ĠĠĠĠĠĠĠĠĠĠĠĠĠĠĠĠĠĠĠĠĠĠĠĠĠĠĠĠĠĠĠĠĠĠĠĠĠĠĠĠĠĠĠĠĠĠĠĠĠĠĠĠĠĠĠĠĠĠĠĠĠĠĠĠĠĠĠĠĠĠĠĠĠĠĠĠĠĠĠĠĠĠĠĠĠĠĠĠĠĠĠĠĠĠĠĠĠĠĠĠĠĠĠĠĠĠĠĠĠĠĠĠĠĠĠĠĠĠĠĠĠĠĠĠĠĠĠĠĠĠĠĠĠĠĠĠĠĠĠĠĠĠĠĠĠĠĠĠĠĠĠĠĠĠĠĠĠĠĠĠĠĠĠĠĠĠĠĠĠĠĠĠĠĠĠĠĠĠĠĠĠĠĠĠĠĠĠĠĠĠĠĠĠĠĠĠĠĠĠĠĠĠĠĠĠĠĠĠĠĠĠĠĠĠĠĠĠĠĠĠĠĠĠĠĠĠĠĠĠĠĠĠĠĠĠĠĠĠĠĠĠĠĠĠĠĠĠĠĠĠĠĠĠĠĠĠ": 7773,
      "**(-": 7774,
      "Ġphenomen": 7775,
      "nd": 7776,
      "Ġrent": 7777,
      "##28": 7778,
      "##ears": 7779,
      "##ccount": 7780,
      "##sf": 7781,
      "##enance": 7782,
      "##ounce": 7783,
      "ĠOffice": 7784,
      "Ġdys": 7785,
      "##etime": 7786,
      "ĠSecret": 7787,
      "##ivation": 7788,
      "ĠGeorge": 7789,
      "ĠPet": 7790,
      "Type": 7791,
      "Ġcompetition": 7792,
      "##raq": 7793,
      "Ġordered": 7794,
      "Ġadvance": 7795,
      "Ġadvanced": 7796,
      "Ġdemonstrate": 7797,
      "Ġbiological": 7798,
      "##rip": 7799,
      "ĠDC": 7800,
      "Ġguide": 7801,
      "Ġplaintiffs": 7802,
      "Ġbreath": 7803,
      "Ġpept": 7804,
      "Be": 7805,
      "Ġrelates": 7806,
      "Ġstack": 7807,
      "load": 7808,
      "ĠBel": 7809,
      "layout": 7810,
      "##apers": 7811,
      "Le": 7812,
      "Ġ71": 7813,
      "Ġecho": 7814,
      "io": 7815,
      "xml": 7816,
      "Ġmurder": 7817,
      "##ernel": 7818,
      ">>": 7819,
      "Ġpersons": 7820,
      "##Build": 7821,
      "else": 7822,
      "Go": 7823,
      "Ġdeliver": 7824,
      "##ramework": 7825,
      "Ġcash": 7826,
      "##Ñĥ": 7827,
      "##erior": 7828,
      "ĠGood": 7829,
      "Ġscope": 7830,
      "##ilton": 7831,
      "##43": 7832,
      "Ġstrain": 7833,
      "Ġchallenges": 7834,
      "Ġafford": 7835,
      "Ġsalt": 7836,
      "Ġpotentially": 7837,
      "##kins": 7838,
      "##rehens": 7839,
      "Ġsuitable": 7840,
      "##Out": 7841,
      "Ġ46": 7842,
      "Ġimaging": 7843,
      "Ġnorth": 7844,
      "##MT": 7845,
      "##estion": 7846,
      "ĠHall": 7847,
      "Ġhumans": 7848,
      "Ġvelocity": 7849,
      "ĠFIG": 7850,
      "ĠPlease": 7851,
      "2011": 7852,
      "##åı": 7853,
      "Ġindepend": 7854,
      "Ġinterval": 7855,
      "Ġconsent": 7856,
      "##Ð»": 7857,
      "Ġconference": 7858,
      "++)": 7859,
      "Ġrats": 7860,
      "Ġdecide": 7861,
      "Ġfill": 7862,
      "Ġstopped": 7863,
      "gen": 7864,
      "##rot": 7865,
      "##ycl": 7866,
      "##OUT": 7867,
      "num": 7868,
      "##DR": 7869,
      "Ġstatistical": 7870,
      "##inner": 7871,
      "Ġiron": 7872,
      "Ġconstraint": 7873,
      "Ġimprovement": 7874,
      "Ġstrict": 7875,
      "Ġarter": 7876,
      "2010": 7877,
      ";&": 7878,
      "ĠMcC": 7879,
      "Ġrecall": 7880,
      "Ġtight": 7881,
      "##hips": 7882,
      "##orthern": 7883,
      "ĠDefendant": 7884,
      "##iological": 7885,
      "##operative": 7886,
      "Ġcrow": 7887,
      "ĠGreat": 7888,
      "Ġclaimed": 7889,
      "dd": 7890,
      "Ġremained": 7891,
      "##arden": 7892,
      "kg": 7893,
      "}=\\": 7894,
      "Ġcourts": 7895,
      "##iliar": 7896,
      "Ġban": 7897,
      "##Stream": 7898,
      "US": 7899,
      "##ometric": 7900,
      "Simplify": 7901,
      "##ifferent": 7902,
      "bin": 7903,
      "Ġended": 7904,
      "current": 7905,
      "ĠType": 7906,
      "##iples": 7907,
      "Ġsides": 7908,
      "##ifies": 7909,
      "Ġchief": 7910,
      "##omer": 7911,
      "##inates": 7912,
      "##AME": 7913,
      "Ġunknown": 7914,
      "Ġpartial": 7915,
      "ĠER": 7916,
      "Ġduration": 7917,
      "ĠUse": 7918,
      "##dule": 7919,
      "ĠGa": 7920,
      "##urrence": 7921,
      "display": 7922,
      "Ġmand": 7923,
      "##rine": 7924,
      "Ġjump": 7925,
      "ĠStat": 7926,
      "Ġsuggesting": 7927,
      "##hedule": 7928,
      "##irty": 7929,
      "ĠRussian": 7930,
      "##sect": 7931,
      "|\\": 7932,
      "##MI": 7933,
      "##EO": 7934,
      "Rec": 7935,
      "'.": 7936,
      "Ġfrequently": 7937,
      "Ġdiscovered": 7938,
      "##helial": 7939,
      "Ġhence": 7940,
      "ĠAv": 7941,
      "Ġbranch": 7942,
      "##eople": 7943,
      "ĠÂ£": 7944,
      "has": 7945,
      "Ġadequ": 7946,
      "Ġdoctor": 7947,
      "ĠRepublican": 7948,
      "ĠWork": 7949,
      "##itud": 7950,
      "##29": 7951,
      "##PT": 7952,
      "Ġbag": 7953,
      "Ġlic": 7954,
      "ins": 7955,
      "Ġreverse": 7956,
      "##clusions": 7957,
      "rd": 7958,
      "Ġargues": 7959,
      "ĠRule": 7960,
      "ĠMat": 7961,
      "Ġorient": 7962,
      "##orption": 7963,
      "##ODE": 7964,
      "Ġsan": 7965,
      "Ġlimits": 7966,
      "##Ent": 7967,
      "Ġbright": 7968,
      "ĠChe": 7969,
      "Ġnecessarily": 7970,
      "##eal": 7971,
      "##uh": 7972,
      "Ġnine": 7973,
      "Ġlegisl": 7974,
      "Ġ150": 7975,
      "##________________": 7976,
      "Ġ49": 7977,
      "Ġarms": 7978,
      "##hemat": 7979,
      "Ġannual": 7980,
      "##ye": 7981,
      "##53": 7982,
      "##plete": 7983,
      "ĠANY": 7984,
      "ĠCL": 7985,
      "Ġmarked": 7986,
      "##ployment": 7987,
      "Ġsynd": 7988,
      "Ġseconds": 7989,
      "Ġpharm": 7990,
      "2000": 7991,
      "Ind": 7992,
      "\\}$": 7993,
      "âĢĿ,": 7994,
      "##ubb": 7995,
      "Ġradiation": 7996,
      "##dden": 7997,
      "Ġvariation": 7998,
      "Ġaxis": 7999,
      "Ġformal": 8000,
      "Ġassembly": 8001,
      "Ġdestroy": 8002,
      "Ġstability": 8003,
      "Ġrough": 8004,
      "ĠLord": 8005,
      "##antic": 8006,
      "##rative": 8007,
      "cor": 8008,
      "##49": 8009,
      "##roke": 8010,
      "Ġcolon": 8011,
      "##ools": 8012,
      "##iverse": 8013,
      "##EW": 8014,
      "Ġul": 8015,
      "ĠHence": 8016,
      "ĠMinister": 8017,
      "ĠMad": 8018,
      "##agon": 8019,
      "ĠObject": 8020,
      "Ġwidely": 8021,
      "Ġtrip": 8022,
      "Ġtick": 8023,
      "Ass": 8024,
      "df": 8025,
      "âĪĴ": 8026,
      "##night": 8027,
      "Ġacute": 8028,
      "Ġantibody": 8029,
      "Ġthereby": 8030,
      "##Ã¤": 8031,
      "##^{-": 8032,
      "Ġstick": 8033,
      "MS": 8034,
      "Ġgluc": 8035,
      "Ġdefinitely": 8036,
      "##icious": 8037,
      "ĠLike": 8038,
      "Ġthreshold": 8039,
      "Ġoral": 8040,
      "Ġconven": 8041,
      "##^[@": 8042,
      "Ġtables": 8043,
      "Ġprovision": 8044,
      "ĠTwitter": 8045,
      "##house": 8046,
      "##FC": 8047,
      "##ups": 8048,
      "Ġice": 8049,
      "##App": 8050,
      "101": 8051,
      "##UB": 8052,
      "Ġpossess": 8053,
      "Ġlinked": 8054,
      "Ġdimension": 8055,
      "Ġgrav": 8056,
      "Comm": 8057,
      "Override": 8058,
      "Ġaspects": 8059,
      "ĠJohnson": 8060,
      "ĠmRNA": 8061,
      "SD": 8062,
      "ĠLog": 8063,
      "##ady": 8064,
      "Ġcort": 8065,
      "Ġattacks": 8066,
      "nav": 8067,
      "##usiness": 8068,
      "ĠCT": 8069,
      "##âĢľ": 8070,
      "Ġkeeping": 8071,
      "Ġimplies": 8072,
      "Ġnumerous": 8073,
      "##eting": 8074,
      "Ġstarts": 8075,
      "##icago": 8076,
      "Ġpopulations": 8077,
      "ĠFrance": 8078,
      "Ġ56": 8079,
      "##time": 8080,
      "Ġindicating": 8081,
      "Î±": 8082,
      "ĠGerman": 8083,
      "\"),": 8084,
      "ĠWITH": 8085,
      "##ABLE": 8086,
      "Ġmixture": 8087,
      "ĠJustice": 8088,
      "ĠOnce": 8089,
      "Ġidentification": 8090,
      "Ġ[[": 8091,
      "Ġfundamental": 8092,
      "Text": 8093,
      "Ġopposite": 8094,
      "Ġ47": 8095,
      "Ġaccepted": 8096,
      "client": 8097,
      "##âĢ¦": 8098,
      "##sd": 8099,
      "ĠSand": 8100,
      "##apped": 8101,
      "ĠJer": 8102,
      "ĠOnly": 8103,
      "Ġinterpretation": 8104,
      "##hell": 8105,
      "Ġmortality": 8106,
      "Ġunable": 8107,
      "##xi": 8108,
      "Ġinstructions": 8109,
      "##itionally": 8110,
      "Ġentirely": 8111,
      "Ġviolation": 8112,
      "Ġarchitect": 8113,
      "##On": 8114,
      "Ġbath": 8115,
      "Ġmission": 8116,
      "##oration": 8117,
      "Ġinteract": 8118,
      "ĠAppe": 8119,
      "Ġcoach": 8120,
      "Ġbeat": 8121,
      "##aming": 8122,
      "Ġtruly": 8123,
      "##FFFF": 8124,
      "Ġabsolute": 8125,
      "Ġrecognized": 8126,
      "Note": 8127,
      "dat": 8128,
      "010": 8129,
      "Ġsouth": 8130,
      "300": 8131,
      "##!\\": 8132,
      "Ġcellular": 8133,
      "ĠĊĠĠĠ": 8134,
      "Ġbone": 8135,
      "Ġgonna": 8136,
      "Â·": 8137,
      "Ġpractices": 8138,
      "Ġdistingu": 8139,
      "##care": 8140,
      "##road": 8141,
      "Ġgirls": 8142,
      "##57": 8143,
      "msgid": 8144,
      "##asy": 8145,
      "Ġju": 8146,
      "Ġcontribute": 8147,
      "Ġnotes": 8148,
      "Ġends": 8149,
      "Ġspl": 8150,
      "Ġnarrow": 8151,
      "##ensed": 8152,
      "Ġdegrees": 8153,
      "More": 8154,
      "Ġsudden": 8155,
      "ĠProject": 8156,
      "Ġpartner": 8157,
      "##Des": 8158,
      "##ethods": 8159,
      "Ġmassive": 8160,
      "##GA": 8161,
      "Ġrelax": 8162,
      "Ġsupporting": 8163,
      "month": 8164,
      "ĠIraq": 8165,
      "ĠPA": 8166,
      "##ashion": 8167,
      "tab": 8168,
      "row": 8169,
      "Ġmouth": 8170,
      "ĠMass": 8171,
      "ĠSenate": 8172,
      "msgstr": 8173,
      "##ME": 8174,
      "ĠTur": 8175,
      "##lections": 8176,
      "ĠIC": 8177,
      "Ġresponsibility": 8178,
      "##apse": 8179,
      "Ġunp": 8180,
      "Ġreact": 8181,
      "Ġsigns": 8182,
      "Ġbecoming": 8183,
      "Ġmiles": 8184,
      "Ġemployment": 8185,
      "Ġpolymer": 8186,
      ":\\": 8187,
      "Ġec": 8188,
      "Per": 8189,
      "ĠSC": 8190,
      "##FS": 8191,
      "čĊĠĠĠĠĠ": 8192,
      "ÃĹ": 8193,
      "##untime": 8194,
      "Ġattached": 8195,
      "##hether": 8196,
      "ĠPH": 8197,
      "Ġappearance": 8198,
      "Ġcamera": 8199,
      "can": 8200,
      "##ducation": 8201,
      "\"})": 8202,
      "##orters": 8203,
      "Ġtechnical": 8204,
      "##van": 8205,
      "##Controller": 8206,
      "Ġaccompl": 8207,
      "Ġdisk": 8208,
      "Ġsched": 8209,
      "md": 8210,
      "##atric": 8211,
      "^+^": 8212,
      "##urrency": 8213,
      "##uled": 8214,
      "Ġcompound": 8215,
      "Ġhole": 8216,
      "Ġmanaged": 8217,
      "Ġconj": 8218,
      "Ġresidents": 8219,
      "Ġcoh": 8220,
      "ĠGive": 8221,
      "format": 8222,
      "Ġdependent": 8223,
      "Ġ81": 8224,
      "ĊĠĠĠĠĠĠĠĠĠĠĠĠĠĠĠĠĠ": 8225,
      "-----------------------------------------------------------------": 8226,
      "Ġsmart": 8227,
      "names": 8228,
      "Ġvitro": 8229,
      "Ġroute": 8230,
      "Ġminute": 8231,
      "Ġmolecules": 8232,
      "##ĠĠĠĠĠĠĠĠĠĠĠĠĠĠĠĠĠĠĠĠĠĠĠĠĠĠĠĠĠĠĠĠĠĠĠĠĠĠĠĠĠĠĠĠĠĠĠĠ": 8233,
      "ĠNO": 8234,
      "widehat": 8235,
      "Ġenable": 8236,
      "Ġconcluded": 8237,
      "Ġdynamic": 8238,
      "Solve": 8239,
      "ĠFre": 8240,
      "mg": 8241,
      "##yr": 8242,
      "$)": 8243,
      "Ġamounts": 8244,
      "Ġapart": 8245,
      "Ġcommonly": 8246,
      "##rie": 8247,
      "png": 8248,
      "##ao": 8249,
      "##${": 8250,
      "##PD": 8251,
      "Ġpix": 8252,
      "_{{\\": 8253,
      "ĠSing": 8254,
      "Ġassigned": 8255,
      "Ġconsideration": 8256,
      "Ġcommission": 8257,
      "Ġdivers": 8258,
      "Ġprolif": 8259,
      "##onym": 8260,
      "##iral": 8261,
      "Ġunderstood": 8262,
      "Ġarticles": 8263,
      "##omial": 8264,
      "Ġdynamics": 8265,
      "##map": 8266,
      "ĠTheir": 8267,
      "##čĊ": 8268,
      "ĠMot": 8269,
      "Ġsought": 8270,
      "ĠPlan": 8271,
      "Ġrequirement": 8272,
      "##Line": 8273,
      "##herent": 8274,
      "Ġfacilit": 8275,
      "ĠJava": 8276,
      "*^": 8277,
      "ĠInstead": 8278,
      "##onts": 8279,
      "$$\\": 8280,
      "##ä»": 8281,
      "Ġeffectively": 8282,
      "##Image": 8283,
      "References": 8284,
      "ĠTor": 8285,
      "2018": 8286,
      "Ġaccurate": 8287,
      "##ynt": 8288,
      "android": 8289,
      "##mt": 8290,
      "##EA": 8291,
      "CL": 8292,
      "author": 8293,
      "##Ø§": 8294,
      "sin": 8295,
      "Ġestimates": 8296,
      "Ġjurisdiction": 8297,
      "Ġpray": 8298,
      "Ġsensitive": 8299,
      "ray": 8300,
      "Ġmicrosc": 8301,
      "module": 8302,
      "Americ": 8303,
      "##De": 8304,
      "##itchen": 8305,
      "##adian": 8306,
      "##adata": 8307,
      "Ġship": 8308,
      "ĠBo": 8309,
      "Ġspaces": 8310,
      "Ġtemplate": 8311,
      "##ola": 8312,
      "##ls": 8313,
      "Ġsin": 8314,
      "Ġfilled": 8315,
      "Ġrender": 8316,
      "Ġgap": 8317,
      "ĠAfrica": 8318,
      "##uscript": 8319,
      "##brid": 8320,
      "Ġsplit": 8321,
      "Psi": 8322,
      "System": 8323,
      "request": 8324,
      "\\]).": 8325,
      "ĠIT": 8326,
      "##etch": 8327,
      "May": 8328,
      "ĠProf": 8329,
      "ĠNor": 8330,
      "##59": 8331,
      "Ġmel": 8332,
      "##uster": 8333,
      "Ġdecades": 8334,
      "##Log": 8335,
      "Ġwaste": 8336,
      "Ġusual": 8337,
      "opt": 8338,
      "Ġmessages": 8339,
      "ĠPhil": 8340,
      "uint": 8341,
      "##quad": 8342,
      "ijms": 8343,
      "ĠBill": 8344,
      "Ġbinary": 8345,
      "ĠThomas": 8346,
      "Ġestate": 8347,
      "ĠScott": 8348,
      "fe": 8349,
      "Ġoxygen": 8350,
      "Ġjustice": 8351,
      "Ġspending": 8352,
      "##ARR": 8353,
      "append": 8354,
      "Ġmic": 8355,
      "##aked": 8356,
      "##perties": 8357,
      "Ġwww": 8358,
      "Ġforg": 8359,
      "##Query": 8360,
      "Object": 8361,
      "##uccess": 8362,
      "Ġseeking": 8363,
      "##ura": 8364,
      "##rapeutic": 8365,
      "ĠTom": 8366,
      "next": 8367,
      "Ġdisput": 8368,
      "Ġfluores": 8369,
      "ĠTimes": 8370,
      "Ġ*)": 8371,
      "Ġadmitted": 8372,
      "Ġsac": 8373,
      "Ġnegot": 8374,
      "~~~": 8375,
      "Ġsenior": 8376,
      "##ena": 8377,
      "Ġfavorite": 8378,
      "ĠRiver": 8379,
      "find": 8380,
      "##uy": 8381,
      ")))": 8382,
      "##ivered": 8383,
      "\\/": 8384,
      "ĠGr": 8385,
      "##izont": 8386,
      "Ġstrategies": 8387,
      "##Or": 8388,
      "Ġsecure": 8389,
      "Ġphoto": 8390,
      "Ġpet": 8391,
      "##istor": 8392,
      "Ġobjective": 8393,
      "Ġconsumption": 8394,
      "tra": 8395,
      ".$$": 8396,
      "Ġsqrt": 8397,
      "ĠEarth": 8398,
      "Ġsweet": 8399,
      "ĠPCR": 8400,
      "Pre": 8401,
      "ret": 8402,
      "Ġabund": 8403,
      "Ġbroken": 8404,
      "##bal": 8405,
      "##$(": 8406,
      "Ġassistance": 8407,
      "Ġcharacterized": 8408,
      "Ġsimpl": 8409,
      "##ju": 8410,
      "##ba": 8411,
      "ĠProt": 8412,
      "Ġgender": 8413,
      "work": 8414,
      "ĠMag": 8415,
      "##aph": 8416,
      "Ġintra": 8417,
      "Ġplastic": 8418,
      "Ġintention": 8419,
      "##icken": 8420,
      "##mit": 8421,
      "Ġcorrel": 8422,
      "action": 8423,
      "Ġsmallest": 8424,
      "Ġacadem": 8425,
      "ĊĠĠĠĠĠĠĠĠĠĠĠĠĠĠĠĠĠĠĠĠĠĠĠĠĠĠĠĠĠĠĠ": 8426,
      "ĠFore": 8427,
      "##style": 8428,
      "##00000": 8429,
      "Ġpredicted": 8430,
      "Yeah": 8431,
      "Ġemission": 8432,
      "ĠIndeed": 8433,
      "##agger": 8434,
      "##li": 8435,
      "Ġtissues": 8436,
      "##ributions": 8437,
      "##osa": 8438,
      "##à¸": 8439,
      "##ERE": 8440,
      ")}\\": 8441,
      "##anta": 8442,
      "Ġorders": 8443,
      "##itutions": 8444,
      "Please": 8445,
      "Ġfan": 8446,
      "##amber": 8447,
      "Ġchair": 8448,
      "Ġalt": 8449,
      "##rick": 8450,
      "ĠIV": 8451,
      "Reg": 8452,
      "##olecules": 8453,
      "##ursor": 8454,
      "ĠMil": 8455,
      "Ġtransf": 8456,
      "Ġneurons": 8457,
      "##udd": 8458,
      "Ġprinciple": 8459,
      "##Add": 8460,
      "##ymm": 8461,
      "Ġscientific": 8462,
      "##eness": 8463,
      "ĠRobert": 8464,
      "Ġpages": 8465,
      "Your": 8466,
      "Ġlawy": 8467,
      "Ġexpensive": 8468,
      "##ffee": 8469,
      "ĠCarol": 8470,
      "ii": 8471,
      "Ġmarriage": 8472,
      "Â¸": 8473,
      "cf": 8474,
      "del": 8475,
      "ĠRad": 8476,
      "Ġzone": 8477,
      "Ġrecommended": 8478,
      "ĠMedical": 8479,
      "Ġphilos": 8480,
      "ĠMer": 8481,
      "Ġsupports": 8482,
      "##ILE": 8483,
      "##ogenic": 8484,
      "##onents": 8485,
      "Am": 8486,
      "Ġcorner": 8487,
      "Ġcustomer": 8488,
      "#:": 8489,
      "Ġparticle": 8490,
      "ĠBur": 8491,
      "Ġpieces": 8492,
      "scale": 8493,
      "##otted": 8494,
      "Me": 8495,
      "##58": 8496,
      "Ġrid": 8497,
      "ĠFranc": 8498,
      "**,": 8499,
      "Ġmanuscript": 8500,
      "ĊĠĠĠĠĠĠĠĠĠĠĠĠ": 8501,
      "Aut": 8502,
      "##\\[": 8503,
      "ĠMuslim": 8504,
      "Ġperman": 8505,
      "AS": 8506,
      "ĠLouis": 8507,
      "Ġwatching": 8508,
      "AR": 8509,
      "##ci": 8510,
      "ĠInformation": 8511,
      "##iability": 8512,
      "Ġexceed": 8513,
      "private": 8514,
      "match": 8515,
      "Ġlaunch": 8516,
      "ĠStep": 8517,
      "ĠSpec": 8518,
      "##cribed": 8519,
      "Ġdiscretion": 8520,
      "##ker": 8521,
      "##no": 8522,
      "Ġcausing": 8523,
      "ĠĠĠĠĠĠĠĠĠĠĠĠĠĠĠĠĠĠĠĠĠĠ": 8524,
      "Ġchannels": 8525,
      "Ġsuccessfully": 8526,
      "Ġtelevision": 8527,
      "##bour": 8528,
      "ĠSil": 8529,
      "Ġmargin": 8530,
      "##All": 8531,
      "Ġtoler": 8532,
      "MA": 8533,
      "##adow": 8534,
      "Ġtranscript": 8535,
      "##Up": 8536,
      "ĠArab": 8537,
      "Ġinfo": 8538,
      "ĠDen": 8539,
      "ĠpH": 8540,
      "120": 8541,
      "Ġtargets": 8542,
      "Ġbaseline": 8543,
      "##oral": 8544,
      "last": 8545,
      "mL": 8546,
      "Ġreducing": 8547,
      "##seud": 8548,
      "##Äģ": 8549,
      "Ġcrisis": 8550,
      "ĠHospital": 8551,
      "##OB": 8552,
      "Ġsegment": 8553,
      "Ġ1999": 8554,
      "Ġvit": 8555,
      "Ġbird": 8556,
      "Ġlargely": 8557,
      "Ġbattle": 8558,
      "Ġunion": 8559,
      "Ġimpossible": 8560,
      "##acent": 8561,
      "##Button": 8562,
      "Ġinhibition": 8563,
      "Ġhighlight": 8564,
      "other": 8565,
      "Ġcomposite": 8566,
      "##NF": 8567,
      "\\\"": 8568,
      "##orts": 8569,
      "split": 8570,
      "Up": 8571,
      "##Point": 8572,
      "Ġautomatically": 8573,
      "##ollowing": 8574,
      "ĠBi": 8575,
      "##mas": 8576,
      "##chron": 8577,
      "Ġsitting": 8578,
      "Ġinstalled": 8579,
      "Ġinformed": 8580,
      "ĠMath": 8581,
      "''": 8582,
      "ĠCap": 8583,
      "Ġepit": 8584,
      "pass": 8585,
      "Ġsupplement": 8586,
      "##eries": 8587,
      "Ġdiabetes": 8588,
      "/\\": 8589,
      "Ġauthorities": 8590,
      "Ġpromote": 8591,
      "Ġresearchers": 8592,
      "Ġattend": 8593,
      "##ermine": 8594,
      "Ġâī": 8595,
      "Ġvess": 8596,
      "Ġsupra": 8597,
      "di": 8598,
      "Ġaccel": 8599,
      "##eek": 8600,
      "ĠQue": 8601,
      "Ġdesc": 8602,
      "Ġstructural": 8603,
      "##ediate": 8604,
      "Ġworry": 8605,
      "ĠOS": 8606,
      "met": 8607,
      "2008": 8608,
      "Ġsand": 8609,
      "II": 8610,
      "ĠSoftware": 8611,
      "##iki": 8612,
      "Ġexamination": 8613,
      "Ġmarried": 8614,
      "006": 8615,
      "Ġorganic": 8616,
      "Ġsector": 8617,
      "ĠCentral": 8618,
      "Ġreform": 8619,
      "##vas": 8620,
      "##Inter": 8621,
      "Ġcompact": 8622,
      "##Result": 8623,
      "##inite": 8624,
      "conf": 8625,
      "Ġdisorder": 8626,
      "ĠCS": 8627,
      "##ogenesis": 8628,
      "Ġrepresentative": 8629,
      "Ġtor": 8630,
      "##oder": 8631,
      "control": 8632,
      "Ġwithd": 8633,
      "Ġknock": 8634,
      "Ġcloud": 8635,
      "Ġstrains": 8636,
      "##andom": 8637,
      "ms": 8638,
      "##eli": 8639,
      "Ġbott": 8640,
      "##ums": 8641,
      "##yd": 8642,
      "Ġweekend": 8643,
      "Ġproportion": 8644,
      "Ġseat": 8645,
      "Ġputting": 8646,
      "Ġvisible": 8647,
      "##Mod": 8648,
      "ĠVol": 8649,
      "Ġjoined": 8650,
      "Ġfaster": 8651,
      "Ġguard": 8652,
      "Ġconcerning": 8653,
      "ĠLemma": 8654,
      "ĠBack": 8655,
      "cle": 8656,
      "ĠView": 8657,
      "##NU": 8658,
      "ĠIts": 8659,
      "Par": 8660,
      "Ġveget": 8661,
      "Ġdiagram": 8662,
      "Ġeditor": 8663,
      "Ġreplaced": 8664,
      "##ulating": 8665,
      "Ġfacilities": 8666,
      "Ġfinish": 8667,
      "Ġobservation": 8668,
      "##ais": 8669,
      "ĠFed": 8670,
      "Ġnom": 8671,
      "ĠAfrican": 8672,
      "Ġsolve": 8673,
      "##HS": 8674,
      "```": 8675,
      "Ġdebate": 8676,
      "ĠGal": 8677,
      "Ġton": 8678,
      "ĠGL": 8679,
      "Ġsi": 8680,
      "ĠChicago": 8681,
      "Ġstret": 8682,
      "Ġoffset": 8683,
      "Ġherself": 8684,
      "Ġalgebra": 8685,
      "Ġacting": 8686,
      "##ortion": 8687,
      "Ġ101": 8688,
      "Ġbehaviour": 8689,
      "Ġurl": 8690,
      "Ġlayers": 8691,
      "##otten": 8692,
      "##uant": 8693,
      "Thanks": 8694,
      "##bf": 8695,
      "##NN": 8696,
      "##ASS": 8697,
      "##edge": 8698,
      "##riev": 8699,
      "ĠAnother": 8700,
      "google": 8701,
      "Ġhomes": 8702,
      "Ġantibodies": 8703,
      "Ġassumed": 8704,
      "Ġble": 8705,
      "Ġdangerous": 8706,
      "cc": 8707,
      "##Table": 8708,
      "Although": 8709,
      "Ġturns": 8710,
      "ĠClinton": 8711,
      "##ora": 8712,
      "Ġscal": 8713,
      "ĠEqu": 8714,
      "##Property": 8715,
      "Ġcandidates": 8716,
      "##yles": 8717,
      "Ġ53": 8718,
      "##eer": 8719,
      "Ġrein": 8720,
      "2009": 8721,
      "Ġinvolves": 8722,
      "Ġembed": 8723,
      "##anda": 8724,
      "##anel": 8725,
      "Ġreson": 8726,
      "Ġmerely": 8727,
      "Ġmatters": 8728,
      "Ġapopt": 8729,
      "ĠAre": 8730,
      "range": 8731,
      "Ġemergency": 8732,
      "Ġsugar": 8733,
      "Ġlie": 8734,
      "Ġpropag": 8735,
      "Ġampl": 8736,
      "##lements": 8737,
      "##iscuss": 8738,
      "##while": 8739,
      "Ġsea": 8740,
      "##ixed": 8741,
      "Ġcart": 8742,
      "Ġboot": 8743,
      "##DS": 8744,
      "ĠSecurity": 8745,
      "Ġ1990": 8746,
      "Ġjour": 8747,
      "Ġcontainer": 8748,
      "ĠBer": 8749,
      "##han": 8750,
      "Ġdifferential": 8751,
      "media": 8752,
      "Ġexperiences": 8753,
      "Ġperspective": 8754,
      "Ġhundreds": 8755,
      "##HA": 8756,
      "##mic": 8757,
      "ĠĠĠĠĠĠĠĠĠĠĠĠĠĠĠĠĠĠĠĠĠĠĠ": 8758,
      "##QU": 8759,
      "Ġ2020": 8760,
      "##arser": 8761,
      "##normal": 8762,
      "Ġluck": 8763,
      "Ġpassing": 8764,
      "ĠHuman": 8765,
      "Ġamazing": 8766,
      "Ġlowest": 8767,
      "quot": 8768,
      "Ġexplore": 8769,
      "Ġpairs": 8770,
      "Ġexecutive": 8771,
      "Ġdetermining": 8772,
      "Ġneglig": 8773,
      "exec": 8774,
      "Ġrepair": 8775,
      "##erves": 8776,
      "##ASE": 8777,
      "Ġ91": 8778,
      "bb": 8779,
      "##ameters": 8780,
      "Ġlived": 8781,
      "##Script": 8782,
      "##width": 8783,
      "Ġforget": 8784,
      "Ġclosely": 8785,
      "##urd": 8786,
      "Ġbias": 8787,
      "##ellar": 8788,
      "Ġsimult": 8789,
      "##aneously": 8790,
      "///": 8791,
      "ĠÃł": 8792,
      "Ġproved": 8793,
      "Mr": 8794,
      "Ġcoc": 8795,
      "##EAD": 8796,
      "Ġdirectory": 8797,
      "Ġaid": 8798,
      "css": 8799,
      "Ġwrt": 8800,
      "Ġouter": 8801,
      "Pr": 8802,
      "##lectric": 8803,
      "##ivated": 8804,
      "ĠWhere": 8805,
      "##Al": 8806,
      "Ġposted": 8807,
      "Ġnative": 8808,
      "Ġregister": 8809,
      "equiv": 8810,
      "Ġwalking": 8811,
      "##jud": 8812,
      "##vant": 8813,
      "Another": 8814,
      "Ġclar": 8815,
      "Ġpolitics": 8816,
      "##++": 8817,
      "##Ĥ¬": 8818,
      "Ġconversation": 8819,
      "Ġprincipal": 8820,
      "##afe": 8821,
      "ĠFour": 8822,
      "Ġgate": 8823,
      "Ġpump": 8824,
      "Ġmenu": 8825,
      "Ġliability": 8826,
      "show": 8827,
      "##cribe": 8828,
      "##host": 8829,
      "Ġpp": 8830,
      "ĠSocial": 8831,
      "Ġdelet": 8832,
      "high": 8833,
      "Ġtrees": 8834,
      "Ġmilk": 8835,
      "Ġfamiliar": 8836,
      "##ressing": 8837,
      "Ġinstant": 8838,
      "Ġ---": 8839,
      "##che": 8840,
      "ĠGra": 8841,
      "Ġmonitoring": 8842,
      "Ġtelling": 8843,
      "gt": 8844,
      "##enth": 8845,
      "ĠMatt": 8846,
      "Ġprimarily": 8847,
      "##oked": 8848,
      "Ġinnov": 8849,
      "##length": 8850,
      "##uzz": 8851,
      "##icular": 8852,
      "Ġsignificance": 8853,
      "Ġblocks": 8854,
      "ĠOffic": 8855,
      "##coming": 8856,
      "Ġinitially": 8857,
      "Ġinequ": 8858,
      "##ooking": 8859,
      "Ġtrac": 8860,
      "##ented": 8861,
      "Ġloved": 8862,
      "pol": 8863,
      "Ġdepos": 8864,
      "Ġobst": 8865,
      "Ġargue": 8866,
      "##Source": 8867,
      "Ġcities": 8868,
      "Ġvivo": 8869,
      "})\\": 8870,
      "Ġoperators": 8871,
      "ĠFrank": 8872,
      "Read": 8873,
      "ĠLong": 8874,
      "Ġhonest": 8875,
      "Where": 8876,
      "ĠDev": 8877,
      "##Trans": 8878,
      "##rat": 8879,
      "Ġpip": 8880,
      "Ġlots": 8881,
      "##icate": 8882,
      "Ġdollars": 8883,
      "Ġhell": 8884,
      "Ġinjuries": 8885,
      "Ġshell": 8886,
      "Ġmaps": 8887,
      "Ġeating": 8888,
      "Ġ\\{": 8889,
      "Ġvision": 8890,
      "##eding": 8891,
      "110": 8892,
      "Ġvul": 8893,
      "Ġrational": 8894,
      "Ġdelivered": 8895,
      "Ġimplemented": 8896,
      "##avel": 8897,
      "Ġphotos": 8898,
      "Ġdisorders": 8899,
      "##how": 8900,
      "options": 8901,
      "ĠColor": 8902,
      "Ġwear": 8903,
      "##IES": 8904,
      "Ġfont": 8905,
      "documentclass": 8906,
      "##Ã§": 8907,
      "Ġgrown": 8908,
      "Ġbusinesses": 8909,
      "##igan": 8910,
      "Ġbind": 8911,
      "Ġ400": 8912,
      "sign": 8913,
      "Ġcontributions": 8914,
      "ĠControl": 8915,
      "##rovers": 8916,
      "Ġconsists": 8917,
      "##erman": 8918,
      "##ATA": 8919,
      "Ġaccompan": 8920,
      "dir": 8921,
      "Ġinjection": 8922,
      "##idential": 8923,
      "Ġassault": 8924,
      "Ġpret": 8925,
      "Ġsensor": 8926,
      "Ġaccordance": 8927,
      "##ophy": 8928,
      "query": 8929,
      "Ġsports": 8930,
      "##Handler": 8931,
      "Ġbio": 8932,
      "##isting": 8933,
      "ĠJones": 8934,
      "Ġbigger": 8935,
      "Ġenhanced": 8936,
      "Ġoptimal": 8937,
      "##Date": 8938,
      "Act": 8939,
      "Ġcloser": 8940,
      "##weet": 8941,
      "ĠLife": 8942,
      "##mazon": 8943,
      "##even": 8944,
      "##plex": 8945,
      "ĠÎ²": 8946,
      "minimal": 8947,
      "Ġ\"(": 8948,
      "Ġ1998": 8949,
      "description": 8950,
      "Ġbodies": 8951,
      "##omain": 8952,
      "Ġleadership": 8953,
      "Ġgrid": 8954,
      "##tn": 8955,
      "##ipping": 8956,
      "obj": 8957,
      "ĠEU": 8958,
      "Ġlaser": 8959,
      "##ptr": 8960,
      "##Client": 8961,
      "##GB": 8962,
      "Ġterminal": 8963,
      "Ġaccounts": 8964,
      "##reatment": 8965,
      "Ġcaught": 8966,
      "Ġpig": 8967,
      "Ġorganizations": 8968,
      "##appe": 8969,
      "Ġ99": 8970,
      "Ġgenome": 8971,
      "Ġleague": 8972,
      "Ġmethyl": 8973,
      "Ġlocations": 8974,
      "##oyal": 8975,
      "##osity": 8976,
      "Ġextend": 8977,
      "##iament": 8978,
      "Ġremark": 8979,
      "##asts": 8980,
      "##mail": 8981,
      "cos": 8982,
      "Ġconsequences": 8983,
      "Ġpin": 8984,
      "Ġillegal": 8985,
      "Ġopportunities": 8986,
      "Ġsorry": 8987,
      "##ether": 8988,
      "Ġminimal": 8989,
      "Ġelectrical": 8990,
      "##Call": 8991,
      "jpg": 8992,
      ".-": 8993,
      "Ġfraud": 8994,
      "##avas": 8995,
      "Ġcorrectly": 8996,
      "Ġfold": 8997,
      "Co": 8998,
      "[\\": 8999,
      "##urally": 9000,
      "ĠPut": 9001,
      "ĠRT": 9002,
      "Ġfigures": 9003,
      "Ġmaintenance": 9004,
      "Ġrig": 9005,
      "##med": 9006,
      "Are": 9007,
      "##onds": 9008,
      "Ġarrived": 9009,
      "Ġdenote": 9010,
      "Trans": 9011,
      "Ġfacility": 9012,
      "##ruption": 9013,
      "Ġthermal": 9014,
      "##what": 9015,
      "##plet": 9016,
      "##From": 9017,
      "##gress": 9018,
      "Ġthoughts": 9019,
      "Two": 9020,
      "##rants": 9021,
      "Ġclosest": 9022,
      ")|": 9023,
      "ĠÃĳ": 9024,
      "ĠExt": 9025,
      "Ġpathways": 9026,
      "Ġprevalence": 9027,
      "called": 9028,
      "##plant": 9029,
      "##racellular": 9030,
      "ĠStar": 9031,
      "Ġenem": 9032,
      "Ġpil": 9033,
      "te": 9034,
      "Of": 9035,
      "##ecess": 9036,
      "##rity": 9037,
      "ĠMax": 9038,
      "Ġsyndrome": 9039,
      "##ifts": 9040,
      "##irus": 9041,
      "Ġinternet": 9042,
      "odds": 9043,
      "##Not": 9044,
      "##agen": 9045,
      "##odium": 9046,
      "##User": 9047,
      "dist": 9048,
      "##INT": 9049,
      "Ġremoval": 9050,
      "##GG": 9051,
      "##ading": 9052,
      "400": 9053,
      "150": 9054,
      "##gu": 9055,
      "##[\\": 9056,
      "Ġtrouble": 9057,
      "##Ã£": 9058,
      "}]": 9059,
      "Ġpointed": 9060,
      "Ġxml": 9061,
      "Ġdisplayed": 9062,
      "Ġsurrounding": 9063,
      "##asic": 9064,
      "##izontal": 9065,
      "Ġmutations": 9066,
      "ĠName": 9067,
      "Ġabsolutely": 9068,
      "##idents": 9069,
      "typ": 9070,
      "]^.": 9071,
      "Ġwarn": 9072,
      "Ġpractical": 9073,
      "Ġpri": 9074,
      "Ġcas": 9075,
      "ĠDemocratic": 9076,
      "##rics": 9077,
      "ĠSS": 9078,
      "Ġinstruction": 9079,
      "Ġupdated": 9080,
      "Ġcoron": 9081,
      "Ġprohib": 9082,
      "ĠRichard": 9083,
      "Ġcreation": 9084,
      "Ġapparently": 9085,
      "Ġfruit": 9086,
      "##ohn": 9087,
      "Ġintegrated": 9088,
      "Ġinstrument": 9089,
      "##ws": 9090,
      "deg": 9091,
      "Ġbacteria": 9092,
      "Ġunre": 9093,
      "ĠCup": 9094,
      "Ġflux": 9095,
      "CIT": 9096,
      "Out": 9097,
      "##otherapy": 9098,
      "Ġmetast": 9099,
      "Ġclients": 9100,
      "Error": 9101,
      "Ġstages": 9102,
      "ĠSpring": 9103,
      "##organ": 9104,
      "Ġprofession": 9105,
      "##ester": 9106,
      "Ġgrad": 9107,
      "##Ut": 9108,
      "tag": 9109,
      "ĠReview": 9110,
      "##gers": 9111,
      "template": 9112,
      "ĠTre": 9113,
      "ĠMedic": 9114,
      "##åĪ": 9115,
      "^-": 9116,
      "float": 9117,
      "##iations": 9118,
      "##po": 9119,
      "project": 9120,
      "]);": 9121,
      "Ġpreced": 9122,
      "Ġhelping": 9123,
      "##achment": 9124,
      "Ġdefe": 9125,
      "Dis": 9126,
      "number": 9127,
      "Ġdepression": 9128,
      "Ġuncertain": 9129,
      "Ġ1997": 9130,
      "Ġspectra": 9131,
      "Ġdepart": 9132,
      "Ġmedian": 9133,
      "Ġevening": 9134,
      "##iest": 9135,
      "##&\\": 9136,
      "Ġemotional": 9137,
      "Ġcoupling": 9138,
      "Ġscreening": 9139,
      "Ġconviction": 9140,
      "ĠVirgin": 9141,
      "Ġsounds": 9142,
      "cs": 9143,
      "Ġimplied": 9144,
      "##Is": 9145,
      "##ooks": 9146,
      "Ġ1000": 9147,
      "Ġoutl": 9148,
      "##see": 9149,
      "Ġregression": 9150,
      "Ġadopted": 9151,
      "').": 9152,
      "Ġtail": 9153,
      "Ġsubmitted": 9154,
      "ĠSign": 9155,
      "##roups": 9156,
      "##ochond": 9157,
      "ĠAppellant": 9158,
      "Ġneighborhood": 9159,
      "Ġ\"\"\"": 9160,
      "Ġcommittee": 9161,
      "##athered": 9162,
      "##plus": 9163,
      "##everal": 9164,
      "##vider": 9165,
      "##ICE": 9166,
      "Ġtopic": 9167,
      "##endants": 9168,
      "Ġingred": 9169,
      "sensors": 9170,
      "Ġsong": 9171,
      "##BP": 9172,
      "##uts": 9173,
      "Ġorth": 9174,
      "Ġasc": 9175,
      "Ġneck": 9176,
      "Ġsurve": 9177,
      "Ġconstructed": 9178,
      "Ġ110": 9179,
      "Ġrail": 9180,
      "##aven": 9181,
      "ĠPolice": 9182,
      "Ġ96": 9183,
      "Ġargued": 9184,
      "Ġsynthesis": 9185,
      "Ġamplit": 9186,
      "ĠPS": 9187,
      "Ġdescribes": 9188,
      "Ġpictures": 9189,
      "Ġclassical": 9190,
      "Ġdogs": 9191,
      "Ġflag": 9192,
      "Ġgast": 9193,
      "128": 9194,
      "##do": 9195,
      "Ġprovisions": 9196,
      "bit": 9197,
      "Ġsuc": 9198,
      "Ġamino": 9199,
      "Ġsolar": 9200,
      "Ġrecover": 9201,
      "##group": 9202,
      "\\]),": 9203,
      "011": 9204,
      "=\"#": 9205,
      "##va": 9206,
      "Ġepisode": 9207,
      "Ġtheoret": 9208,
      "ĠMult": 9209,
      "##riter": 9210,
      "Ġcollabor": 9211,
      "Ġencoura": 9212,
      "Ġbeam": 9213,
      "Ġ\\*": 9214,
      "Ġcounts": 9215,
      "Ġcharacteristic": 9216,
      "##KE": 9217,
      "Ġessentially": 9218,
      "File": 9219,
      "=\"../../": 9220,
      "Ġsheet": 9221,
      "Ġlig": 9222,
      "Ġ\\>": 9223,
      "ĠMD": 9224,
      "Ġkick": 9225,
      "Ġmarkets": 9226,
      "ĠÃĹÂ": 9227,
      "Ġcopyright": 9228,
[...]
