.	51345805
,	44049392
Ġthe	41261139
Ġof	23434678
Ġand	19906891
Ġto	19242854
-	16314630
ĊĊ	15694551
Ġa	15448128
Ġin	14146105
Ċ	14095467
s	10729075
_	10088458
Ġis	9675114
Ġthat	8312520
Ġ(	8204882
)	7558352
Ġfor	7396563
:	7067731
1	6380994
2	6007580
(	5963472
Ġwith	5751881
Ġon	4909850
/	4727010
Ġ"	4711459
0	4556492
Ġas	4481027
Ġbe	4360101
Ġwas	4352484
Ġit	4279990
*	4069494
ĠI	4045880
Ġby	3932978
Ġare	3890451
;	3867386
Ġ=	3792104
{	3640663
}	3509754
\	3507659
Ġ-	3404494
"	3350079
Ġthis	3319752
Ġfrom	3286408
3	3270080
Ġyou	3261263
Ġat	3254666
ĠThe	3242321
âĢĻ	3221399
Ġor	3191871
Ġnot	3159968
ĠĠĠĠĠĠĠĠĠĠĠĠĠĠĠĠ	3135383
Ġ$	3056580
Ġhave	2948865
's	2806865
Ġan	2805602
a	2800858
e	2798350
Ġ\	2737073
>	2532538
d	2522396
ĊĠĠĠĠ	2487169
t	2431060
ing	2372198
4	2362964
Ġwe	2311536
$	2265065
n	2151555
Ġcan	2130522
5	2088233
Ġwere	2086398
i	2035520
Ġ0	1987738
."	1977907
<	1965131
Ġwhich	1951403
ed	1950990
x	1932579
="	1919548
A	1903735
The	1884194
Ġhas	1878069
y	1860590
Ġ+	1778067
Ġbut	1769084
ĊĠĠĠĠĠĠĠĠ	1748742
Ġ1	1742527
).	1713605
Ġwill	1706268
Ġhe	1706258
ĠĠ	1706214
?	1698769
I	1687191
Ġall	1651502
ĊĠĠ	1628914
Ġhis	1569793
S	1565550
Ġone	1565538
Ġ*	1521928
Ġthey	1506218
Ġ{	1500217
C	1492599
**	1491571
6	1486690
Ġ2	1415166
Ġtheir	1407868
ĊĠĠĠĠĠĠĠĠĠĠĠĠĠĠĠ	1406685
r	1405899
Ġmore	1397426
8	1373472
m	1369051
Âł	1346965
er	1345440
B	1341000
p	1323401
7	1323142
_{	1305546
Ġif	1298610
Ġhad	1279120
c	1274406
o	1270928
=	1269587
k	1268353
Ġbeen	1263222
);	1255962
b	1244999
Ġ$\	1237715
),	1231111
Ġalso	1227352
Ġyour	1225817
[	1222487
'	1214935
]	1208480
in	1192753
Ġabout	1175185
ly	1168869
Ġwhen	1159443
Ġwould	1157954
9	1153344
Ġout	1143081
Ġso	1140616
Ġtime	1134301
^	1133802
Ġthere	1133271
't	1128976
Ġother	1108093
g	1082129
ĠIn	1079638
Ġmy	1075457
Ġwho	1075319
ĠâĢľ	1071331
f	1070476
h	1068561
ĠĠĠ	1065014
R	1046640
Ġdo	1046327
Ġno	1040442
Ġthan	1038870
l	1026016
Ġ3	1020587
Ġup	1019622
D	1003341
ĠA	998394
Ġits	981851
Ġinto	979620
E	978602
</	975097
T	948676
Ġour	945336
Ġonly	938499
Ġher	936279
Ġtwo	934731
Ġsaid	925596
ĊĠĠĠĠĠĠĠĠĠĠĠĠ	919564
Ġ[	917723
----------------	913420
Ġ&	912930
Ġwhat	905963
Ġlike	904581
P	902696
%	898781
Ġany	895541
Ġsome	885794
Ġmay	879659
Ġ'	878075
ĊĠ	866007
Ġnew	863792
Ċĉ	852566
ĠIt	848833
F	848410
Ġsuch	845837
#	845660
Ġfirst	844593
Ġthese	828765
ĠThis	827815
+	817548
al	801482
ref	800094
Ġthem	798165
u	797149
Ġget	786495
type	782693
Ġover	780482
ĠĠĠĠĠ	776660
v	772840
Ġuse	772699
Ġthen	771709
{\	769873
Ġ4	768156
Ġjust	767549
L	766121
Ġme	765547
Ġafter	763869
M	762571
N	762350
Ġbetween	756223
es	755315
ĠWe	732117
Ġused	719197
on	717301
Ġcould	713992
Ġwhere	712245
.,	710979
Ġ5	705723
",	701084
ĊĠĠĠĠĠĠ	696145
Ġdata	695361
Ġpeople	684901
X	683357
z	683069
j	681976
10	675049
In	671515
Ġshe	670468
//	666401
Ġusing	653987
Ġbecause	653899
if	648399
H	642788
!	631342
}\	626630
Ġshould	623862
Ġwell	615416
Ġ[@	610071
Ġhow	603835
Ġmost	598500
K	596662
or	595209
ĠĠĠĠ	590677
Ġeach	590120
){	590002
Ġi	587870
Ġv	587596
Ġhim	582710
V	565676
Ġunder	562973
~	562538
G	561866
ĠHe	560559
q	559817
Ċĉĉ	556529
Ġclass	556324
Ġ<	553612
Ġmake	552485
Ġwork	544967
Ġ10	543850
Ġthrough	543394
->	539895
Ġcase	539167
to	537899
Ġsame	537695
Ġway	536070
Ġsee	526229
Ġeven	524537
Q	523007
Ġthose	521877
frac	521353
Ġnow	520599
Ġvery	519799
Ġyears	519732
Ġboth	516290
w	516112
Ġknow	515529
()	510412
ic	509384
Ġbeing	505471
Ġ.	502304
Ġdid	501705
--	501395
Ġmany	498676
Ġneed	497429
Y	497410
?"	496654
Ġbefore	494895
Ġdifferent	494409
Ġnumber	494384
}$	493405
O	492100
](#	491696
">	491647
âĢī	490425
Ġright	488246
|	488166
Ġset	488027
right	487762
Ġhere	483906
ation	482882
W	482780
Ġback	480591
::	480371
Ġdon	476914
ĠU	476419
th	474454
id	472959
left	472197
return	472022
âĢĿ	470320
12	469984
the	467117
ĊĊĠĠĠĠ	466583
Ġ|	466274
fig	464226
Ġus	463531
Ġ_	463418
ĉ	459389
Ġmade	458425
J	453059
We	450121
://	449298
ĠâĢĵ	447565
Ġvalue	447122
Ġ@	446168
is	445430
Ġ\[[@	445359
Ġhigh	445075
11	445061
ers	444294
Ġsystem	444199
le	443205
Ġfound	441245
Ġ6	440634
com	439870
Ġp	439305
Ġmuch	435954
Ġwhile	435251
ĠS	433069
Ġgood	432854
Ġstudy	432157
.âĢĿ	429793
":	429594
Ġthree	428819
Ġstate	427758
Ġwant	425128
end	424629
ĠC	423513
Ġpatients	423120
an	421591
_{\	420667
Ġwithout	417713
Ġduring	417106
Ġcourt	416148
Ġcells	415693
Ġfunction	414117
What	413499
&	411919
ĠLet	411850
Ġdoes	407357
,"	405616
It	405510
Ġthink	405499
ĠFor	405014
int	404897
and	404862
get	402544
$,	402412
Ġorder	401586
Z	400700
Ġx	399781
Ġyear	399001
en	398366
ĠIf	397941
ĠF	395503
Ġpart	393444
Ġgo	390766
Ġname	389553
Ġdown	389303
$.	388868
00	388695
ity	387507
',	387067
ate	384642
us	384352
Ġgroup	384081
Ġend	382879
Ġnon	381935
This	381787
Ġagainst	381321
U	380987
re	379965
Ġlong	377722
("	376799
able	375795
Ġtake	375400
Ġmust	374396
ĠĠĠĠĠĠĠĠĠ	372280
Ġstill	371508
}{	371412
Ġlast	369077
ĠR	368504
(\	365366
Ġal	365043
Ġinformation	363498
],	361008
ll	360867
...	360344
Ġday	357334
ĠBut	356283
Ġsecond	353066
Let	352987
Ġ:	352469
ion	350606
ĠĠĠĠĠĠ	350195
Ġ7	349503
mathcal	347542
Ġtype	345972
Ġresults	345673
^{	344886
@	344118
it	342893
();	341714
Ġfollowing	339923
âĢľ	338446
Ġoff	337850
Ġfind	335640
ĠJ	335436
ĠĊ	335245
Ġgoing	334281
].	333843
ĠB	333072
Ġlife	332421
Ċĉĉĉ	332222
Ġ8	331591
Ġ**	331074
nt	329477
)$	328077
Ġwithin	327633
'm	327450
Ġsince	326041
ĠAnd	323307
Ġaround	323289
Ġ,	322792
ĠD	322206
20	321548
Ġam	320887
Ġpoint	320516
Ġm	320135
ĠAs	319147
15	319091
16	319006
alpha	318580
Ġe	316297
name	316106
ĠP	315738
ĠYou	315158
Ġmodel	314344
Ġcontrol	314194
Ġanother	313782
You	313773
ĠĠĠĠĠĠĠ	313488
âĢĵ	311855
,âĢĿ	310188
000	308766
Ġown	308650
ĠN	307403
Ġn	305699
ĠE	305266
ĠL	304931
Ġexample	303989
Ġline	303867
]\].	302392
Ġincluding	302216
13	301497
ĠT	300590
ĊĊĠĠ	300442
Ġtoo	300105
Ġshow	299489
et	299163
Ġde	299022
Ġevery	298515
ve	297908
Ġhelp	297669
Ġcell	297600
Ġgiven	297508
čĊ	296354
Ġet	295949
CR	295815
Ġreally	294622
Ġmight	294316
ia	293791
Ġworld	293614
\]	293126
Ġd	292881
ĠM	292789
Ġsay	292394
Ġtest	290667
},	289820
Ġprocess	289089
Ġ$$\	287598
ti	287055
To	287055
Ġpresent	286226
ĠThey	286116
Ġ{#	286022
ĠHowever	285730
're	285712
Ġbased	285142
public	283388
Ġform	283353
this	283182
Ġsupport	282810
Ġfile	282733
14	281472
Ġk	281251
Ġhome	280751
Ġresult	280698
,\	280662
ine	280560
te	279355
ĠNo	279006
Ġ12	278186
ĠĠĠĠĠĠĠĠ	277575
Ġanalysis	277263
Ġbest	276938
Ġc	276762
st	275374
ĊĠĠĠĠĠ	274844
}(	274159
text	273924
ĠâĢĶ	273501
Ġmethod	273441
Ġper	273406
Ġevidence	273236
ng	272117
Ġnext	271961
Ġsomething	271935
32	271741
Ġ\[	271357
ies	271289
Ġchange	269893
Ġsmall	269639
Ġwhether	269199
Ġt	268584
mu	267872
âĢĶ	267811
Ġleft	267014
Ġ20	266239
ĠH	266237
Ġfact	265969
Ġplace	265900
Ġs	265157
Ġun	264807
data	264541
ĠX	264450
ĠNew	263852
ar	261024
as	259955
Ġimportant	259673
))	259603
Ġpower	259211
Ġless	258448
label	258136
Ġfew	257956
for	257928
Ġbetter	257885
ĠWhat	257837
div	257453
)\	256998
at	256710
Ġabove	256365
Ġwater	256342
Ġlarge	256121
rm	256035
Ġh	255552
ĠThere	255090
If	255024
Ġl	255011
Ġlevel	254340
man	254279
ive	252977
Ġnever	252352
18	251951
up	251681
el	251483
Ġcome	251195
Ġtrue	250961
ĊĠĠĠ	250864
ment	250764
mathbb	250551
ĠK	249657
Ġ9	249487
Ġtreatment	248841
Ġdue	248756
Ġleast	248641
Ġlittle	248155
Ġpossible	247483
Ġpublic	247219
Ġthings	245851
of	245775
Ġproblem	245318
ĠTo	244601
Ġlow	244121
set	243499
01	243460
ge	242956
Ġy	242143
Ġgreat	240775
17	239156
Ġlook	239148
Ġr	238809
!"	238735
Ġlaw	238669
begin	237101
Ġb	236956
ta	236463
Ġhaving	236109
Ġgive	236077
Ġ}	235926
Ġdays	235792
Ġshown	235591
('	235453
Ġeffect	235307
Ġfield	235215
pi	234908
Ġcommon	234579
Ġfurther	234274
Ġgot	233898
ated	233833
Ġgame	233785
Name	233503
Ġg	233013
As	232828
Ġtrial	232723
rs	232621
Ġ{\	231178
Ġself	230585
19	230332
ss	230322
Ġcode	230066
ĠSo	229671
ĠShe	229478
Type	229389
Ġf	228126
Ġhealth	227809
ce	227290
Ġ15	227206
30	226825
Ġprovide	226751
Ġside	226721
Ġexpression	226186
Ġalways	225466
ist	225258
ne	225140
Ġfree	225052
Ġagain	224758
\[	224708
25	224185
Ġgovernment	224114
li	224048
Ġ11	223994
For	223707
Ġfour	223555
Ġeither	223361
Ġsingle	223265
Ġknown	222996
Ġcalled	222260
ĊĠĠĠĠĠĠĠĠĠĠ	221929
"}	221927
Ġcurrent	221368
Ġman	221173
ĠĠĠĠĠĠĠĠĠĠĠĠĠ	220922
http	220695
Ġuntil	220557
ĠCourt	219823
Ġpost	219763
Ġfamily	219743
Category	219736
Ġavailable	219720
ness	219478
Ġhuman	219429
Ġsize	219240
ĠState	219170
Ġ/	218962
ĠThese	217887
Ġw	217806
}}	217466
ck	216875
He	216701
Ġmeans	216483
ĊĊĠĠĠĠĠĠĠĠ	216173
aligned	215883
pone	215467
Ġ==	215080
ĠĠĠĠĠĠĠĠĠĠ	214986
var	214587
um	214384
):	214253
Ġlocal	213995
Ġable	213787
Ġaction	213754
Ġmean	213723
ĠUnited	213625
Ġtimes	213611
Ġcases	213599
nd	213113
Ġseveral	212963
Ġvalues	212868
os	212783
ĠO	212766
import	212710
Ġchildren	212345
Ġlight	212255
Ġteam	211652
Ġreal	211363
ĠW	211281
lambda	210684
Ġ30	210593
usepackage	210434
Ġhigher	210371
ĠG	210214
de	209976
Ġcare	209923
log	209888
Ġarea	209834
ns	209779
}$$	209444
ie	209112
Ġstudies	209050
Ġtotal	208973
've	208696
Ġtop	207625
ch	207577
---	207455
ant	207269
Ġsignificant	206899
And	206888
ĠThat	206726
Ġrate	206492
ĠAll	206490
21	206422
Ġput	206101
Ġwhy	205700
span	205435
Ġbody	205349
Ġhand	205322
Ġfull	204925
ry	204885
Ġrun	204564
ĠZ	204497
table	204226
Ġenergy	203667
Ġdidn	202057
ating	201328
ĠStates	200716
Ġspace	200496
Ġerror	200354
string	200208
Ġstart	200147
Ġsimilar	199880
================	199564
ÃĲ	199562
Ġgeneral	199146
Ġalready	199073
/*	198079
Ġlet	197926
Ġperson	197557
Fig	197482
Ġopen	197462
ĠV	197413
Ġlot	197334
Ġassociated	197139
Ġreturn	196961
self	196958
Ġlevels	196819
><	196742
Ġ100	195920
];	195836
org	195492
}_	195395
No	194802
Ġ--	194639
bar	194321
ent	193517
09	192991
Ġz	192878
Ġwomen	192655
Ġissue	192544
ĠWhen	192509
Ġquestion	192303
est	192170
`	191984
'll	191866
mathbf	191789
Ġresponse	191787
tt	191771
sh	191767
Ġaway	191533
Ġspecific	191277
Ġsays	191214
Ġdone	190005
Ġoften	189982
ĊĊĊ	189881
Ġrequired	189867
24	189525
out	189159
22	188314
Ġu	187915
Ġterms	187845
ĠĠĠĠĠĠĠĠĠĠĠ	187767
Ġ${\	187619
Ġactivity	187387
Ġ)	187050
Ġsure	186911
Ġfinal	186071
Ġage	185758
Ġamong	185702
Ġgroups	185625
ization	185616
Ġhowever	185561
Ġcall	185525
Ġfar	185498
50	185442
Ġreported	185311
Ġsub	185243
100	185205
Ġ50	185161
Ġthing	185155
Ġkey	184671
Ġread	184595
_\	184539
class	184137
beta	183981
ter	183954
line	183858
ĠĠĠĠĠĠĠĠĠĠĠĠ	183704
Ġlater	183648
So	183029
05	182799
Ġenough	182732
Ġlist	182664
Ġcourse	182610
*/	182543
Ġtold	182011
Ġthough	181569
But	181023
Ġcompared	180836
Ġ#	180403
Ġ16	180136
Ġplay	179893
Ġresearch	179867
sigma	179826
ized	179717
ff	178997
ian	178988
Ġmaking	178973
tr	178920
Ġworking	178912
String	178718
Ġprovided	178697
sum	178608
Ġalong	178342
}_{	178067
08	178041
ism	177973
Ġlower	177400
ĠY	176922
Ġupon	176858
Ċĉĉĉĉ	176737
Ġo	176595
Ġconditions	176445
Ġre	176393
Ġrisk	176284
Ġdoesn	176123
Ġweek	176054
Ġrole	175755
Ġpotential	175516
Ġ14	175264
^{\	175173
Ġ([	175098
Ġold	175020
Ġinclude	174929
no	174861
Ġrange	174658
Ġincrease	174249
Ġsection	174189
Ġprogram	174073
Ġeffects	174055
Ġposition	173764
Ġseen	173738
la	173261
Ġdevelopment	173170
sec	173013
Ġchanges	172961
Ġhead	172889
Ġ*/	172836
]).	172730
Ġkeep	172587
const	172260
Ġ=>	172231
Ġbusiness	171580
Ġmoney	171449
Ġmain	171422
Ġtogether	171325
value	170821
ĊĊĉ	170521
Ġprotein	170370
na	170339
Ġimage	170240
Ġsource	170135
Ġ([@	169978
ĠâĢĺ	169914
Ġincreased	169895
ĠOn	169861
Ġelse	169817
Ġbecome	169779
Ġschool	169674
Ġ`	169486
Ġservice	169409
www	169276
pm	169116
Ġfactors	168929
io	168670
Ġ13	168664
html	168534
Ġaddition	168454
Ġj	168398
23	168199
Ġobserved	168184
Ġlove	168109
Ġcannot	168047
Ġparticular	167762
time	167754
Id	167632
There	167584
Ġdisease	167544
></	167491
td	167445
Ġproperty	167419
Ġcountry	167114
Ġthird	167099
Ġ%	166912
"}).	166676
Ġaccording	166058
one	165972
Ġmonths	165910
Data	165908
ĠUniversity	165561
da	165426
Ġdoing	165183
ton	165105
Ġearly	164847
Is	164680
Ġmultiple	164678
ial	164449
tion	164322
Ġpositive	164146
Ġhard	163866
code	163655
[@	163501
06	162977
Ġstructure	162565
ĠSt	162512
Ġshort	162155
}^{	161980
Ġdescribed	161919
mathrm	161854
Ġdefendant	161742
se	161728
ID	161633
sqrt	161306
Ġcreate	161180
Ġanti	161141
min	161123
phi	160956
Ġactually	160837
xi	160428
Ġint	160314
Ġcompany	160175
Ġuser	160114
ts	160073
Ġ18	160048
Ġthought	159925
Ġpoints	159596
Ġsurface	158986
Ġacross	158899
Ġmen	158859
64	158843
Ġview	158746
53	158574
ous	158509
Ġperiod	158417
Ġothers	157977
ure	157870
\_	157526
ical	157408
gamma	157392
Ġreport	157092
On	157084
ĠAt	157068
Ġamount	156940
do	156900
Ġcame	156872
Ġversion	156775
Ġrather	156722
am	156645
Ġonce	156623
Ġobject	156516
delta	156507
ra	156299
.)	155697
Ġmatter	155683
'd	155582
Ġfive	155450
Ġlikely	155443
Ġbase	155332
test	155223
key	154955
Ġshows	154871
hi	154816
Ġfactor	154656
Ġmillion	154568
Ġperformed	154493
Ġshowed	154417
Ġid	154243
Ġbelow	154155
Ġadd	154004
Ġfeel	153820
42	153549
Ġfalse	153503
Ġ24	153486
ĠAmerican	153405
il	153384
Ġbig	153360
Ġpast	153347
Ġsystems	153099
Ġsocial	152860
bib	152510
Ġstandard	152407
ĠGod	152254
Ġclear	152232
Ġsite	152205
Ġcause	151986
ad	151828
Ġtry	151694
Ġobtained	151662
Ġseason	151577
Ġtook	151388
Ġmakes	151321
nc	150249
40	150237
Ġever	150073
Ġfood	150057
Ġvarious	149804
co	149602
Ġcancer	149585
]{}	149460
Ġexperience	149369
80	149303
Ġinterest	149118
ator	149069
Ġwhole	149050
52	148904
)(	148698
Ġapplication	148647
Ġtaken	148397
ling	148121
51	148093
Ġconsidered	147927
07	147897
pt	147865
Ġ>	147855
Ġbelieve	147827
Ġcontent	147804
Ġfuture	147803
Ġadded	147685
Ġrelated	147552
49	147198
Ġterm	146949
Ġyet	146932
Ġproject	146883
Ġ(*	146759
%)	146699
ee	146317
Ġvoid	146196
ize	146052
Figure	145917
nu	145788
Ġaccess	145710
Ġdefined	145484
Ġbit	145444
27	145406
^{-	145400
ma	145352
rho	145268
}^	145198
ol	145114
Â°	145071
ĠOne	144608
");	144394
Ġface	144285
Ġ25	144100
List	144097
Ġapproach	143955
sa	143788
partial	143463
Ġsolution	143219
ĠUS	143167
")	143158
Ġcommunity	143053
Ġblood	142823
ting	142517
ĠĠĠĠĠĠĠĠĠĠĠĠĠĠ	142491
Ġmajor	142391
Ġwent	142337
Ġminutes	142315
Ġstates	142281
em	142277
ĠQ	142130
Ġstring	141996
ĠThen	141679
Ġkind	141621
Ġwon	141500
ĠSee	141240
Ġdecision	141089
Ġindividual	141072
size	141013
Ġmaterial	140642
ot	140344
ea	140149
ki	140093
Ġpercent	140086
Ġq	140044
28	139975
include	139708
si	139633
Ġtrying	139556
Ġincluded	139275
less	139172
)/	139108
Ġreason	139063
Ġcar	138892
new	138878
Ġdevice	138763
Ġnormal	138762
theta	138517
times	138468
Ġtoday	138409
ĠĠĠĠĠĠĠĠĠĠĠĠĠĠĠ	138367
View	138095
ĠAn	138072
Ġmembers	138028
mm	137960
Ġrespectively	137892
ÂĤ	137520
ide	137502
Ġvia	137390
43	137389
Ġclose	137362
Ġregion	137298
],[@	137187
omega	137146
eq	136892
When	136833
Ġreceived	136800
def	136658
26	136625
ĠAfter	136563
Table	136490
Ġadditional	136372
ĠCo	136243
Ġsignificantly	136145
Ġanything	136086
ip	136023
Ġcity	136012
Ġpatient	135897
ke	135774
ĠIs	135606
Ġsimple	135527
Ġcertain	135427
001	135211
tic	135086
ative	135061
di	134860
Ġgrowth	134807
Ġhalf	134784
Ġ$(	134727
Ġchild	134701
Ġtext	134646
by	134540
02	134436
tu	134381
Ġclaim	134299
Ġasked	134102
Ġneeds	134095
rd	133990
}{\	133926
tau	133848
add	133810
Ġmass	133744
ha	133664
Ãĥ	133580
Ġdeath	133563
list	133479
Ġgetting	133339
Ġair	133249
Ġreview	133229
Ġnight	132979
Ġnull	132971
Ġmedia	132944
Ġevent	132887
ble	132773
69	132628
Ġhistory	132601
void	132480
leq	132419
$\	132414
ey	132090
ni	132086
$-	131838
Ġlooking	131834
Ġpre	131775
31	131489
age	131459
59	131419
Ġcheck	131406
Ġroom	131356
How	131267
Ġdifference	131264
mp	131253
Ġproduct	131164
based	130911
Ġpay	130877
Ġparty	130715
son	130615
Ġpaper	130549
Ġseries	130532
Ġperformance	130529
ty	130500
Ġmethods	130386
Ġproblems	130269
56	130041
ur	129865
Ġ17	129804
Ġthus	129640
Ġinvolved	129370
Ġissues	129290
per	129282
ĠMr	129209
year	129199
Ġhref	129167
Ġalmost	129160
file	129048
https	128893
Ġrecord	128871
Ġunderstand	128811
Ġnetwork	128811
Ġnothing	128806
infty	128705
Ġhours	128583
ell	128511
Ġprevious	128482
âĢ¦	128443
Ġcost	128364
Ġtherefore	128347
Ġneeded	128212
Ġla	128201
hat	128168
Ġservices	128096
ance	127903
That	127771
Ġpolice	127657
54	127401
35	127382
Ġheld	127329
lo	127140
Ġconsider	127117
ct	126866
Ġpopulation	126860
Ġfilm	126695
tor	126615
Ġinstead	126584
Ġcomplex	126502
Ġtarget	126345
Ġexpected	126320
58	126186
ary	126168
29	126015
Ġweight	125924
Ġtell	125911
Ġidea	125832
33	125536
Ġrecent	125533
Ġlive	125407
57	125379
Ġproduction	125374
ĠÂ§	125248
Ġseems	125090
Â±	125014
-\	124974
Ġ(-	124926
ER	124872
Ġdesign	124737
Ġgene	124727
Ġmarket	124711
Ġspecial	124502
Ġlines	124491
All	124475
ĠYork	124461
/**	124285
Ġstep	124095
ci	123965
Ġloss	123951
Ġcondition	123550
Ġconst	123514
Ġstory	123495
81	123484
ĠMy	123419
Ġcomes	123279
Ġmotion	123276
Ġprior	123269
Ã©	123215
Ġpolicy	123213
Ġstudents	123083
Ġjob	123055
Ġplan	123050
not	123032
ĠDr	122982
63	122878
^\	122784
Get	122750
Ġhouse	122671
Value	122487
Ġlead	122475
Ġquality	122392
param	122353
Ġsomeone	122304
03	122126
ĠBy	122093
Ġtaking	121756
lu	121681
Ġmove	121678
46	121672
ec	121658
sp	121600
Ġmodels	121588
55	121584
see	121578
Ġmind	121498
Ġstarted	121311
case	121305
define	121248
Ġpage	121225
86	121120
Ġbook	121102
Ġblack	121094
60	121060
cal	120824
*,	120774
61	120754
')	120734
Ġprovides	120644
be	120623
Ġstrong	120473
Ġ\\	120417
Ġitself	120397
res	120351
Ġdistribution	120314
Ġtable	120300
ro	120222
Ġsignal	120159
Ġnecessary	120132
Ġheart	119679
eta	119399
Ġaverage	119148
41	119122
04	118853
ĠNational	118811
go	118779
ĠĊĠĠĠĠĠĠĠĠĠĠĠ	118722
ĠInc	118692
path	118591
ka	118518
ir	118447
Ġworks	118389
ĠĠĊ	118311
Ġ---------------	118268
Ġrights	118229
mb	118034
Ġprobably	118014
Ġoriginal	117979
ĠTrump	117936
})	117819
Ġ40	117812
62	117749
old	117706
Delta	117575
Ġphase	117428
Ġturn	117392
With	117251
Ġclinical	117192
ep	117134
]\]	116957
Ġshall	116945
003	116900
..	116833
My	116746
yl	116665
Ġ21	116654
Ġ...	116574
Ãĳ	116567
ĠThus	116552
Ġrespect	116443
let	116382
ĠTHE	116323
Ġ60	116305
Ġ//	116272
ĠĊĊ	116165
Ġsample	116119
Ġsimply	116117
Ġaccount	116075
71	116011
Ġproducts	115969
ex	115927
Ġallow	115927
ST	115919
Ġmedical	115873
Ġfunctions	115873
}}\	115732
Ġsense	115700
](	115641
At	115626
ul	115602
Ġsequence	115544
Ġyoung	115525
Ġespecially	115490
__	115435
45	115376
Ġpath	115303
Ġtemperature	115281
ally	115261
Ġoutside	115238
Ġ	115149
Ġwords	115016
ĠMay	114879
Ġ19	114792
Ġlength	114778
ĠOF	114765
72	114506
83	114492
my	114283
Ġinside	114182
));	114014
dd	113951
ED	113903
ps	113845
Ġ!=	113796
76	113715
])	113540
ase	113515
Ġnear	113433
Ġpressure	113427
Ġpresence	113419
Ġsix	113402
Ġcomplete	113399
op	113381
92	113343
all	113337
Ġbad	113297
width	113280
čĊĠĠĠĠĠĠĠĠĠĠĠ	113143
Ġdetermined	113101
Ġproperties	113094
array	113024
ons	112986
bi	112931
me	112903
px	112792
Ġdate	112770
ĠAct	112743
âĪĴ	112736
pe	112722
ĠCity	112647
Ġaddress	112613
čĊĠĠĠĠ	112552
ms	112421
from	112401
84	112374
Ġgenes	112374
Ġfollow	112176
36	112160
Ġinter	112068
Ġevents	111906
Ġpolitical	111894
Ġco	111877
ities	111742
Ġfront	111428
ga	111194
Ġeffective	110976
34	110779
ĠWith	110623
File	110579
///	110407
Ġtypes	110369
Ġwhite	110350
Ġeverything	110326
val	110197
za	110173
Ġlanguage	110149
Ġprimary	110045
Ġpersonal	109895
sub	109842
\\	109754
Ġelement	109687
Ġstop	109665
ĠDo	109614
Ġinput	109566
Ġsubject	109555
Ġlonger	109535
Ġphysical	109503
73	109484
Ġfeatures	109258
91	109238
ap	109141
Ġdetermine	109095
ut	109001
Ġeasy	108780
($	108748
net	108741
Ġpresented	108719
ast	108686
Ch	108635
Object	108610
ĠÂ±	108572
Ġquite	108521
Ġidentified	108378
+\	108349
ner	108175
=\	108136
over	108119
Ġjudgment	108073
Ġmicro	107926
Ġrunning	107835
Ġsamples	107789
Ġ||	107702
Ġbasis	107647
Ġformer	107622
Ġcolor	107590
Ġcross	107583
Ġcreated	107556
with	107538
Ġisn	107403
hr	107286
Ġwanted	107178
44	107120
82	106974
Ġfollows	106877
ish	106875
ba	106693
89	106627
Ġground	106508
Ġrest	106488
rt	106464
function	106435
he	106387
Âĥ	106353
Ġstatement	106232
Ġareas	106204
Ġparameters	106192
lt	106190
)}	106128
Ġmember	106114
Ġago	106031
Ġ$$	105953
der	105817
Ġ22	105817
ful	105780
93	105655
Ġarray	105562
87	105550
".	105482
79	105480
un	105445
Ġvideo	105437
Ġweeks	105131
ite	105053
âĢĲ	105019
Ġ28	104983
om	104972
Ġdirectly	104932
Ġoutput	104929
Ġelements	104927
Ġstatus	104720
95	104692
Set	104580
ĠLicense	104559
ĊĊĠĠĠĠĠĠĠĠĠĠĠĠĠĠ	104458
chi	104404
Ġinitial	104374
Ġquestions	104342
Ġred	104266
Ġcharacter	104233
private	104128
}$,	104100
Ġrelationship	104077
Ġnatural	104068
max	104057
bf	103846
Ġwar	103791
ĠJohn	103769
Ġwrong	103586
Ġtraining	103549
ĠBe	103500
Ġgames	103449
ted	103387
Ġtheory	103323
Ġforce	103258
\])	103165
Ġmemory	103132
ca	102956
Ġmice	102926
Ġsearch	102872
Ġtax	102755
Ġacid	102657
Ġ&&	102578
74	102576
Ġgas	102470
Ġindex	102432
Ġ(\[	102295
Ġknowledge	102289
rangle	102154
{{\	102087
Ġnational	101887
tilde	101718
94	101712
Ġbar	101707
Ġlayer	101583
ins	101484
Ġbehind	101448
Ġbuilding	101406
ĊĠĠĠĠĠĠĠ	101399
39	101364
ĠCD	101348
Ġdi	101330
Ġnews	101267
so	101259
js	101166
Ġdeal	101097
ac	101075
ĠDNA	100999
";	100829
}(\	100806
Ġdifficult	100770
psi	100758
Ġapplied	100721
Ġgreater	100719
use	100705
Ġlimited	100468
};	100391
Ġunit	100384
NS	100327
Ġflow	100262
field	100160
By	100158
Ġrequest	100154
38	100124
Ġpreviously	100058
ĠSuppose	100038
Ġsaw	100015
land	99902
like	99882
Ġmonth	99876
ks	99837
Ġcut	99803
Ġreduced	99792
Key	99712
Ġincludes	99699
Ġrule	99668
bl	99601
Ġdistrict	99599
Ġrelease	99559
Ġdrug	99555
Ġability	99356
Ġinvention	99289
back	99263
ko	99024
96	98921
ÃĤ	98890
Ġdirect	98736
Ġdeveloped	98663
![	98662
graph	98625
cdot	98547
bo	98524
bb	98503
Ġclaims	98431
Ġarticle	98337
Ġoil	98333
:**	98205
Ġindependent	98162
90	98135
AL	98106
Ġword	98079
Ġstyle	97967
Ġimpact	97939
way	97913
}$.	97820
Ġrequire	97793
cc	97748
ĠTherefore	97689
70	97639
gl	97579
Ġcontact	97529
Ġetc	97521
Ġmap	97489
Ġnote	97482
Ġcontinue	97338
Ġsoftware	97121
ors	97059
ĠOur	96873
top	96648
Ġnegative	96615
Ġcontext	96594
ĠPresident	96588
Ġplayers	96539
$$	96450
Ġnumbers	96396
Ġcoming	96361
Ġwritten	96310
().	96230
Ġfollowed	96180
les	96147
Ġbuild	96080
Ġparticularly	96039
Ġleave	95970
item	95916
(-	95820
br	95787
Ġreference	95729
Ġpain	95722
002	95717
Ġstatic	95715
ists	95703
ĠCounty	95638
va	95441
Ġlate	95418
ĠSouth	95261
fi	95256
Ġobtain	95240
Ġ23	95237
Ġ2012	95054
ay	94962
Ġsecurity	94931
Ġhope	94909
Ġnature	94868
red	94803
Ġactive	94640
pa	94636
Ġforward	94579
Ġmessage	94500
ise	94476
base	94445
Ġcorresponding	94343
Ġentire	94337
ping	94334
Ġtitle	94259
Ġwrite	94257
Ġshare	94164
Ġspecies	93933
Ġusually	93922
Ġblock	93908
led	93878
static	93847
that	93801
user	93725
ĠII	93668
Ġrates	93610
Ġdifferences	93595
ĠHis	93476
Ġliving	93470
lib	93435
ls	93423
sm	93412
Ġoffice	93328
Ġalthough	93239
68	93182
Ġwhose	93054
Ġanswer	92975
ING	92932
Ġpractice	92922
ĠSince	92898
Ġtried	92886
Ġhold	92858
Ġ35	92856
Ġ[*	92845
One	92828
47	92767
state	92711
75	92656
She	92638
Ġonline	92601
IN	92477
Ġdis	92433
37	92427
48	92404
ley	92381
ĠRe	92368
Ġprivate	92342
Ġargument	92276
Suppose	92190
str	92176
ĠWorld	92170
Ġgenerally	92122
Ġlost	92108
Ġrecently	92041
ile	92016
Ġ2013	91968
view	91774
ya	91719
66	91688
Ġlegal	91635
Ġthemselves	91626
ĠLa	91570
Ġanyone	91468
document	91415
Ġ2016	91410
.'	91352
Ġplaintiff	91325
Ġglobal	91320
ĠWhile	91314
Ġfederal	91291
Ġsaying	91290
Ġtakes	91238
Ġcountries	91201
Ġproposed	91144
ĠAmerica	91128
88	90916
Ġagreement	90894
Ġpurpose	90892
mo	90766
ĠHouse	90736
ĠHere	90691
Ġart	90685
else	90554
Ġsituation	90528
Ġ2014	90494
Ġmoment	90492
ĠFig	90487
Ġdensity	90435
App	90394
Ġbrain	90270
Ġtreated	90147
CH	90091
ger	90061
ĠMarch	90035
67	90021
See	89969
ĠNorth	89935
ler	89845
Ġhimself	89806
ĠString	89652
Do	89593
Ġsuper	89571
Ġcenter	89531
Ġland	89321
Co	89284
RA	89248
Ġstage	89183
ON	89120
..."	89088
ĠGo	88969
ĠChina	88959
ĠLe	88893
cr	88852
vi	88816
CA	88748
ĠNot	88731
Test	88711
ice	88706
ped	88696
Text	88676
Ġbecame	88662
Ġcharge	88636
Ġenvironment	88610
epsilon	88573
Ġpretty	88351
La	88320
Ġways	88319
Ġen	88286
)=	88282
ab	88197
Ġrelative	88164
ĠSome	88120
CC	88061
Error	87904
we	87856
Ġdirection	87802
Ġoffer	87801
Ġtalk	87729
nn	87675
Ġ?	87662
Ġprice	87624
Ġfailed	87584
Ġpublished	87527
Ġ2015	87355
ĠDepartment	87331
Omega	87295
varepsilon	87268
ĉĉ	87259
99	87252
Gamma	87163
Ġpass	87148
Ġwoman	87143
Ġhighly	87136
ĊĊĊĊ	87114
Ġsp	87063
Ġlimit	86969
sl	86965
Ġfocus	86943
Ġact	86904
Ġ/>	86846
map	86841
Ġfindings	86833
sc	86803
Ġderivative	86791
ah	86640
ue	86564
fe	86525
Ġmet	86427
ze	86388
Ġallowed	86335
izing	86319
Ġdegree	86311
color	86305
tra	86262
fn	86179
ĠFirst	86170
Ġgave	86144
day	86134
Ġdouble	86110
Ġcontract	86070
her	86068
pp	86018
Ġlarger	85976
gg	85948
Ġmeasured	85942
Ġdesigned	85921
ver	85843
index	85819
Ġbring	85818
ard	85761
Ġprime	85734
Ġjury	85610
Ġfine	85580
Ġdefault	85512
qu	85428
Ġconstant	85372
Item	85352
Ġindividuals	85352
Ġwasn	85281
Ġeveryone	85275
Ġdetails	85268
ĠSch	85221
ft	85097
app	85081
Ġcentral	85060
Ġselected	85055
Ġcurrently	84978
Ġoperation	84972
Ġalone	84959
ĠHow	84955
Ġcaused	84946
zi	84859
Ġcorrect	84789
off	84732
Ġfriends	84655
Ġproteins	84621
Ġbreak	84610
ho	84568
Ġimages	84520
Ġinstance	84509
ĠOR	84487
Ġcomponent	84438
ĠGeneral	84434
Ġgives	84306
ĠDi	84258
Ġeyes	84223
Ġbehavior	84179
Ġask	84147
title	84072
Ġratio	83950
Ġattention	83948
}}$	83881
cm	83870
ib	83791
78	83785
Ġcomponents	83739
ds	83646
Ġ45	83609
Ġ2011	83578
ĠJune	83541
Ġsl	83505
Ġchoice	83473
Ġhost	83452
Ġrequires	83297
Of	83285
###	83273
Ġsent	83180
Ġappropriate	83175
Ġ29	83156
Ġmatrix	83120
Ġcompanies	83115
Ġhttp	83113
Ġ2010	83072
Ġbegan	82993
Ġknew	82981
Ġ:=	82968
Ġlocation	82944
ĠIN	82934
ĠOr	82932
Ġfixed	82880
Ġlearn	82868
cl	82830
Ġfiles	82758
ĠNow	82714
Ġscale	82706
im	82654
ĠAl	82647
ĠUn	82640
Ġleading	82633
java	82586
Ġhit	82570
\].	82497
Ġseem	82492
Ġled	82479
ina	82424
Ġmother	82322
Ġnode	82288
They	82275
NG	82263
ium	82211
Ġmanagement	82152
struct	82111
ess	82081
ology	82072
Ġfinancial	82072
Now	82025
ev	82022
Ġfrequency	82005
gi	81960
Ġ[**	81921
Ġ26	81911
Ġfailure	81907
Ġ37	81838
85	81830
Ġeducation	81830
ations	81821
info	81805
Ġ2017	81742
čĊĠĠ	81716
Ġusers	81579
ier	81533
Ġunique	81527
Ġtechnology	81487
"><	81439
From	81417
ence	81346
men	81287
Ġson	81284
Ġdivided	81074
Ġ80	81042
Ġfire	80990
Ġcontains	80986
Ġcompletely	80956
Ġheat	80955
Ġgoal	80939
ĠGa	80933
Ġincreasing	80932
(),	80896
Ġextra	80818
Ġcosts	80724
Ġeconomic	80702
Ġlack	80677
su	80671
NT	80496
Exception	80459
97	80388
ĠWest	80314
SE	80263
Ġwin	80242
Ġindustry	80223
Ġparts	80209
Ġpattern	80081
Ġsuggest	80063
Path	80058
ow	80054
Ġparties	80042
free	79902
State	79884
Ġearlier	79844
77	79755
Class	79726
ui	79698
Ġstress	79663
Ġdistance	79659
fa	79642
After	79618
db	79594
Ġequal	79546
¡	79542
Ġexpressed	79503
Ġuseful	79502
ĠIS	79495
Ġpresident	79439
Ġlink	79402
sim	79379
rightarrow	79373
ĠAlthough	79352
Size	79333
Ġoverall	79310
An	79292
Ġoption	79281
ĠJanuary	79251
varphi	79247
Ġconnection	79244
ĠApril	79237
mi	79032
Ġstated	78982
Ġgenerated	78974
Ġestablished	78967
Ġsupported	78965
.\	78954
Ġallows	78942
ability	78934
ĊĠĠĠĠĠĠĠĠĠĠĠĠĠĠ	78897
Ġdevices	78859
Ġspeed	78788
Ġ($	78776
SS	78775
}=	78774
ug	78747
Ġ90	78735
Sh	78733
Ġweb	78720
Ġeasily	78704
Ċĉĉĉĉĉ	78659
ĠTh	78642
Ġstay	78624
čĊĠĠĠĠĠĠĠĠ	78612
big	78536
004	78495
ĠJuly	78438
Ġmode	78422
Ġoptions	78416
ible	78406
Ġorg	78406
Ġsites	78374
py	78314
Ġboard	78303
='	78275
Ġbl	78189
Ġreasons	78167
Ġcontaining	78115
Ġapply	78063
Ġfinding	77947
term	77942
Ġsoon	77935
Info	77879
Ġ!	77878
Ġreduce	77877
());	77870
ĠGu	77789
cy	77783
\<	77766
ĠMan	77730
Ġhighest	77687
Ġserver	77680
Ġcritical	77678
og	77665
Ġmeasure	77655
Ġlocated	77635
LA	77597
ification	77536
Ġcount	77527
Ġproduced	77448
Ġactivities	77342
*-	77319
Ġtumor	77314
ph	77287
Ġ70	77265
ĠCir	77161
ĊĠĠĠĠĠĠĠĠĠ	77156
Ġstaff	77107
)$.	77101
Ġfelt	77077
TA	77013
Ġfiled	76993
Ġones	76987
Ġrelevant	76915
._	76906
Ġparameter	76844
)^	76820
Ġclearly	76809
link	76778
Ġvs	76762
){#	76749
dev	76699
Ġauthors	76680
nce	76650
Ġskin	76556
box	76524
Ġcopy	76516
Ġopinion	76383
lla	76374
Ġ27	76350
Ġ^	76340
Ġmin	76336
ten	76317
Ġcampaign	76314
Ġappeal	76259
ised	76227
ster	76221
ber	76195
Ġactual	76180
Context	76120
}_{\	76008
ret	75963
Ġ34	75925
Ġwriting	75904
\'	75875
Ġle	75849
Ġshowing	75832
Ġsign	75820
Ġvariable	75811
Ħ	75789
Ġwebsite	75727
"/>	75666
Na	75637
Ġbrought	75567
Ġinjury	75553
ĠHealth	75508
Ġbinding	75500
Ġstar	75498
Ġunderstanding	75473
overline	75451
LE	75434
Ġ48	75378
Ġsmaller	75317
['	75312
lit	75260
gen	75256
Ġapp	75248
ak	75242
Ġchanged	75241
Ġgoes	75227
Ġmulti	75219
ana	75166
vec	75164
Ġexperiments	75164
RI	75150
Ġreceive	75131
Ġlearning	75125
art	75117
eg	75060
ging	75058
Ġ36	75036
Ġhands	75035
Ġcommand	75027
New	75023
langle	74986
Ġcontrast	74979
});	74937
ĊĊĠĠĠĠĠĠĠĠĠĠĠ	74921
Ġappears	74880
True	74864
operatorname	74861
Ġuses	74703
Ġrandom	74691
Ġnotice	74683
98	74643
Ġ;	74624
Ġlooks	74623
Ġheard	74596
Ġstore	74586
que	74581
Ġremains	74553
ere	74539
Ġbeyond	74534
St	74531
Ġdoor	74517
Ġculture	74505
Ġcomputer	74493
ino	74479
Ġrules	74457
ĠTi	74409
Ġfast	74309
cap	74195
LL	74191
Ġcouple	74189
Ġplease	74180
Ġbuilt	74161
Ġ2008	74141
Ġmeet	74101
Ġwide	74090
Ġseparate	74049
IT	74041
Ġ42	74036
*.	74035
Ġmorning	74021
Ġhearing	74006
');	73946
are	73944
node	73912
RE	73912
Ġlooked	73873
Ġturned	73789
ĠSystem	73712
Ġworked	73703
ning	73697
Ġsh	73673
Not	73671
input	73666
OR	73652
dy	73648
ny	73633
Ġ->	73629
col	73621
Ġtowards	73613
ĠCal	73609
har	73599
Ġconstruction	73594
Ġauto	73561
Ġreasonable	73424
Ġmajority	73423
Ġdrive	73398
assert	73384
Ha	73350
ĠAND	73335
ĠSan	73330
Ġappear	73209
Ġvector	73192
CE	73165
Ġexist	73106
Ġdecided	73093
Ġ<<	73092
Ġitems	73082
Ġbox	73061
Ġproduce	73056
Ġfall	73000
Sec	72964
den	72924
Ġregarding	72893
Ġtherapy	72867
AS	72854
Ġvariables	72851
form	72842
Ġmatch	72818
Ġdisplay	72801
Pi	72766
AP	72759
GA	72757
image	72729
start	72725
Ġexcept	72712
Ġfully	72708
Ġbenefits	72706
Ġimprove	72704
Ġformation	72703
group	72672
Ġconcentration	72613
0000	72600
Ġtissue	72567
[]	72564
Ġexists	72557
Ġ</	72551
}^{\	72427
Ġparents	72397
Ġmilitary	72390
TI	72388
Ġreports	72383
true	72324
Ġradio	72315
length	72274
":"	72267
Ġresulting	72223
CT	72201
ĠCa	72153
TE	72145
Ġtransfer	72096
Ġfather	72069
ĠDistrict	72044
Ġexactly	72014
android	71935
':	71904
Ġpoor	71901
Ġprevent	71868
Ġindicated	71813
Ġinfection	71789
Ġsex	71710
Cl	71706
Ġwrote	71646
but	71631
Ġ2009	71606
Ġnor	71600
Ġmedium	71599
read	71571
Ġinteresting	71544
ĠPhys	71539
Ġlinear	71537
ates	71513
Ġsafe	71512
Ġque	71509
ĠAugust	71492
)).	71485
Ġcounsel	71452
|\	71399
65	71382
Ġsetting	71366
ĠFrom	71366
Ġvolume	71359
can	71168
Ġ32	71140
IC	71131
ĠPat	71085
Ġmaterials	71081
Ġreading	71072
Ġ31	71071
Ġplayed	71069
Ġadministration	71023
content	70969
Ġvehicle	70964
Be	70956
nbsp	70893
Ct	70857
ĠOctober	70844
Re	70841
Ġtask	70835
Ġzero	70759
Ġavoid	70738
Ġgets	70728
Ġremember	70693
Ġmeeting	70640
Ġhospital	70572
*~	70554
Here	70543
ĠPM	70505
Ġfeature	70501
which	70476
ĠSp	70462
$(	70412
err	70400
ĠData	70357
ĠWar	70356
ģ	70333
Ġsuccess	70332
Ġreaction	70274
Ġscore	70270
Ġproof	70228
lic	70198
ĠSeptember	70159
rc	70125
ĠTO	70106
Ġvisit	70105
Ġdeep	70074
Ġinternal	70065
Ġapplications	70037
ef	70030
Ġfit	70016
ĠDecember	69982
Ġ);	69959
Ġstarting	69915
ĠWi	69879
Ġlives	69852
Ġthroughout	69842
Ġparticipants	69782
Ġchance	69767
IP	69750
ular	69733
Ġ38	69728
mer	69680
Ġnoted	69650
Ġ95	69642
ics	69641
Ġprocesses	69612
Ġdamage	69605
Ġregions	69564
II	69540
ĊĉĠ	69527
)*	69523
ES	69522
Ġmaximum	69504
row	69499
Ġsafety	69420
Ġcolumn	69380
Or	69364
Ġfields	69302
Ra	69299
Ġformed	69292
Ġconnected	69221
Ġ2018	69214
Ġbecomes	69208
Ġclosed	69206
Ġplayer	69205
Ġinternational	69181
AT	69175
Ġerr	69170
Ġbenefit	69146
ĵ	69127
Map	69065
*)	68948
Ġsources	68947
ĠÃĲ	68937
Ġdomain	68929
Ġrevealed	68910
error	68897
url	68867
Ġfriend	68858
Ġinteraction	68810
dot	68753
Ġphone	68724
ĠUSA	68723
Ġbackground	68715
dr	68707
****************	68685
Ġsound	68662
Ġinfluence	68609
ual	68568
Ġonto	68558
Ġtests	68456
ml	68412
ĠFe	68395
Color	68365
wa	68286
tc	68215
ĠRed	68210
Code	68200
AD	68197
Ġfunctional	68190
Ġequation	68172
Ġbasic	68170
Ġregular	68130
Ġimmediately	68130
Ġotherwise	68082
ĠCenter	68081
ding	68067
body	68067
Ã¡	68055
Mo	67960
Ġstand	67950
Ġcollection	67942
Ġfun	67885
Ġcover	67760
Ġreleased	67757
Ġreduction	67730
Time	67689
Ġ(\	67673
)-	67644
Ġexpect	67640
ND	67636
ĠIL	67606
Ġresistance	67593
ĠNovember	67562
Ġtoward	67551
Ġdes	67519
Ġopportunity	67517
Ġdefense	67509
False	67501
PA	67500
Ġbuy	67487
Ġpaid	67451
Ġmechanism	67435
Ġgiving	67435
tri	67395
ara	67391
using	67389
ķ	67380
php	67334
Ġcombination	67309
MS	67287
rec	67257
}}_	67245
Ġ39	67220
SC	67203
du	67162
ai	67160
)$,	67131
Ġpoly	67098
ĠMore	67046
Ġroad	67043
Un	67015
Ġidentify	67008
Ġconsistent	67004
ĠWashington	66988
ĠHer	66986
Ġactions	66977
Ġdefine	66921
ĠBar	66917
Ġfigure	66909
^{(	66907
source	66875
ii	66843
.[	66829
ae	66820
Ġrelatively	66798
Ġblue	66784
fl	66757
len	66750
Ġtesting	66732
mathfrak	66726
Ġten	66705
Ġchar	66678
Ġsometimes	66659
\,	66641
hip	66595
IS	66592
geq	66579
Ġforms	66575
related	66530
au	66515
Ġsolid	66492
Yes	66458
char	66413
MA	66397
SA	66390
Ġrace	66365
Ġquickly	66292
Ġhot	66274
sha	66261
Ġwall	66240
Ġensure	66233
Ġplant	66222
Int	66200
Ġtool	66178
ach	66176
api	66136
xe	66135
ĠOf	66121
Ġthinking	66079
Ġcomment	66052
Ġmiddle	66041
ĠMoreover	66037
Ġprove	66033
Ġchoose	66029
Ġresources	65917
Ġmyself	65879
"},	65831
Node	65825
Ġroot	65712
Ġ(**	65691
Ġplaying	65679
005	65640
Ġtrade	65621
Ġnearly	65618
NA	65551
Index	65548
((	65533
gn	65514
Ġmis	65492
OS	65481
Ġuns	65467
ĠCon	65454
Ġportion	65450
Ġmovement	65425
ĠSection	65421
num	65412
Ġproviding	65405
Ġitem	65399
cs	65380
Ġdetected	65376
Ġeye	65369
ĠÂł	65360
Ġhappened	65355
Ġmoved	65352
ions	65341
Ġselection	65330
Ġconducted	65323
Ġagree	65312
Ġhair	65299
Ī	65292
Ġready	65249
ĠObama	65225
,-	65209
style	65196
Ġex	65168
ose	65167
Ġmoving	65164
Array	65150
Ġcore	65145
Ġgreen	65129
ĠId	65116
##	65080
rr	65073
ĠBecause	64992
dl	64986
ub	64985
Ġhappen	64984
Ġexisting	64977
ĊĊĠĠĠĠĠĠ	64975
ĠSchool	64970
Ġobjects	64944
Ġreach	64933
Ġprocedure	64916
uri	64878
ain	64871
Ġdaily	64859
AC	64857
ix	64847
ied	64822
lli	64806
down	64766
]:	64754
Ġcalculated	64735
Le	64730
ral	64688
######	64663
Ġdatabase	64640
Ġsteps	64620
quad	64616
Ġ43	64600
Ġanimals	64584
Ġremove	64580
Ġfacts	64577
ĠDe	64562
Ġwindow	64515
Ġchannel	64505
ĠTable	64479
())	64453
ĠCalifornia	64439
Ġindicate	64419
Ġyourself	64417
Ġtown	64373
Ġattack	64323
port	64319
ĠRev	64292
Ġdemonstrated	64263
Ġupper	64251
Ġnearest	64224
Ġdocument	64205
point	64181
ĠEuropean	64177
Ġworth	64163
Image	64128
UN	64095
Ġ__	64037
AR	63979
ron	63927
ĠApp	63913
Ġserious	63848
ĠDu	63813
script	63802
Ġbottom	63801
Ġmid	63738
%,	63734
Ġremain	63725
Ġunits	63722
ings	63702
Ġheight	63692
Ġperfect	63666
ind	63627
Ġdefinition	63597
Ġcomments	63551
Ġfinally	63527
ĠID	63517
dir	63488
ĠAd	63469
han	63452
Ġcom	63440
bit	63425
Ġsort	63406
\],	63366
Ġseven	63342
[^	63329
ox	63322
ĳ	63309
Ġcarried	63295
Ġcapacity	63262
Ġplaced	63188
ĠNi	63165
Ġsufficient	63162
Ġmg	63162
Ġprocessing	63130
cell	63123
Ġtrans	63117
Ġremoved	63115
500	63101
Ġreplacement	63084
Ġmanner	63056
ĠResearch	63052
Ġstuff	63034
Ġmachine	63030
Ġclient	62991
RS	62969
Ġvariety	62938
Ð¸	62913
ĠWhite	62908
';	62854
Ġemail	62825
Ġwife	62813
result	62810
Ġrepresent	62795
count	62780
Ġsets	62778
Ġhear	62755
Ġmagnetic	62749
Ġshape	62694
sin	62668
Ġperform	62597
ica	62582
ators	62512
Ġnice	62451
)**	62443
ĠDon	62426
EN	62425
Event	62421
std	62358
tan	62357
ĠAlso	62348
ĺ	62261
ĠBo	62226
wi	62219
Ġ49	62197
Ġtruth	62191
ĠPaul	62174
ĠLu	62171
Dr	62161
core	62143
mon	62133
ja	62087
]\],	62083
Ġsuggested	62079
ĠTa	62077
Ġbeginning	62030
Fe	62007
version	61953
ified	61889
bm	61857
Ġ46	61846
ĠFigure	61840
Ġwidth	61828
Ġdu	61778
Ġoperator	61767
Ġ33	61742
ĠFebruary	61740
Ġprograms	61735
config	61718
hu	61696
reg	61682
Ġ2007	61619
Ġnamed	61597
006	61585
System	61549
ĠBoard	61530
Ġworkers	61524
Ġhealthy	61507
con	61450
Ġincreases	61439
Ġcomparison	61433
Ġ44	61427
°	61423
print	61415
Ro	61382
RT	61349
vo	61339
Î±	61327
Ġsend	61326
Ġdistributed	61273
oc	61264
Ġpro	61256
æ	61254
Ġexposure	61243
Ġdetection	61237
ĠPublic	61182
ĠHo	61182
Ĳ	61173
ĠCI	61152
object	61147
Ġbegin	61146
Ġwait	61106
Al	61096
ĠNULL	61093
ker	61086
Ġletters	61059
ane	61058
Ex	61019
Ġpassed	60997
Ġplaces	60992
Ġauthor	60989
Ġdark	60977
Ġscreen	60976
Ġmusic	60967
Ġmaybe	60965
Ġ47	60964
Ġmeasures	60949
default	60937
Ġresponsible	60934
Ġdiscussed	60929
ĠAM	60916
Ġdrugs	60886
Ġsave	60872
Ġdevelop	60830
Ġtransition	60806
ax	60795
Ġload	60779
Ġ64	60761
Ġapproximately	60739
Ġpicked	60698
IL	60688
Ġactivation	60676
EL	60656
ĠBl	60630
Ġcharacteristics	60611
ĠIndia	60605
Ġda	60598
Ġincome	60589
Ġinsurance	60582
NE	60577
Ġspin	60553
Ġsymptoms	60543
Ġletter	60514
Add	60498
Ġ55	60441
ĠMS	60440
Ġ200	60416
Cr	60378
ora	60365
create	60362
ome	60321
}}(	60269
Ġcircuit	60263
ĠBa	60258
ĠEven	60246
Ġedge	60236
Ġstructures	60199
lin	60183
init	60174
Ġmodern	60155
Ġtalking	60139
âĢ¢	60121
SI	60107
ek	60106
Ġframe	60103
Ġaffect	60095
CD	60090
Ġchallenge	60078
page	60030
Ġab	60017
Ġessential	59994
Ġmeaning	59987
ore	59986
Ġmale	59974
Ġround	59962
gu	59923
Ġcontinued	59915
Oh	59888
Ed	59842
Ġshot	59807
Ġ52	59797
Ġ\<	59796
Ne	59787
ĠST	59774
čĊĉ	59667
action	59636
Ġeight	59611
ĠUK	59610
Ġinvestigation	59606
ij	59591
Ġassume	59569
Model	59563
Ġeffort	59557
src	59556
acy	59529
ect	59485
Ġsun	59485
Date	59454
Ġtestimony	59454
į	59448
Ġpanel	59430
Ġhappy	59422
Request	59414
Ġnone	59409
ĠLi	59384
ĠMe	59383
open	59282
Ġpe	59273
ru	59218
Ġreturned	59201
)/(-	59132
Ġbillion	59126
oid	59121
ĠHa	59095
Ġpick	59078
Ġstock	59041
ali	59038
ł	59026
ĠPA	59023
Ġforeign	58993
ĠEx	58961
NC	58929
ring	58895
},\	58857
Ġbound	58856
Ġwild	58823
Ġpopular	58820
Ġkids	58779
User	58744
Ġproper	58735
ify	58729
ans	58727
Ġblog	58683
Ġtree	58661
Ġwatch	58603
ĠGet	58579
Bo	58577
Ġcounter	58560
Ġexercise	58541
Ġrow	58539
","	58514
Ġpair	58496
Ġball	58495
/(-	58400
Ġbio	58355
Ġpress	58295
ĠMo	58293
Ġ56	58277
Ķ	58272
ri	58266
Ġconduct	58229
Ġcouldn	58211
Ġsc	58206
dt	58202
ĠFurthermore	58196
Ġ()	58170
has	58126
^*	58100
Ġwalk	58086
Ġprofessional	58061
po	58057
Ġmental	58055
ĠNe	58053
Ġspent	58023
ious	57993
ĠDavid	57986
ants	57961
ĠEnglish	57950
Ġplans	57943
Ġspecifically	57941
Ġprob	57935
Ġsurgery	57929
ÂŃ	57907
ĠRa	57864
Ġfamilies	57853
Ġdenied	57847
Ġliquid	57844
ky	57806
Ġcontain	57797
Ġserve	57768
TC	57762
ĠPi	57756
cos	57750
Ġsolutions	57741
Ġplus	57710
Ġ2000	57695
ĠMa	57693
Ļ	57644
Ġalternative	57619
ĠAm	57618
Ġtested	57616
Ġformat	57610
Ġstrategy	57600
Ġcareer	57571
Ġofficials	57559
Ġ54	57546
Ġcycle	57544
Ġ\,	57544
Ġ(!	57523
model	57488
Ġdead	57465
Ġwants	57430
Ġmentioned	57389
200	57387
Ġupdate	57357
ldots	57342
Ġrelation	57340
Ġ""	57340
Ġstrength	57289
ĠCongress	57273
Ġinterface	57267
Ġelection	57264
Ġvoice	57261
Ġhuge	57246
ert	57229
sta	57175
**)	57156
Ġel	57136
oo	57108
*(	57105
ĠInternational	57080
Ġbill	57039
Ġ53	57024
Â¾	56994
However	56978
------	56964
Ġsleep	56951
Phi	56946
Ġprepared	56932
main	56928
Well	56922
While	56864
HA	56858
Ġleads	56854
Calculate	56847
Ġdespite	56847
ĠCan	56835
gs	56827
Ġofficial	56825
ĠLo	56818
Ģ	56816
Ġnil	56798
Ġ51	56723
Ġ~	56722
pl	56719
]^	56680
Ġtrust	56663
Ġstudied	56639
Ġfemale	56619
Ġ2006	56617
circ	56602
Ġsummary	56599
çļĦ	56592
SP	56586
ig	56573
board	56560
Ġinf	56556
Ġimproved	56543
Ġstudent	56530
Ġphoto	56511
Ġparent	56511
·	56479
level	56464
Ġnuclear	56460
Ġtypically	56445
Ġmetal	56422
SD	56420
Group	56378
Ġexplain	56367
ĠCode	56366
ĠAD	56355
Ġwave	56352
Ġcombined	56339
Our	56326
Ġ65	56326
Field	56321
prime	56320
ments	56304
Ġprotect	56291
Ġ41	56280
:"	56278
ĠList	56250
ĠPC	56237
Ġsurvival	56233
ĠHigh	56227
height	56226
Ġsuccessful	56209
Ġgrowing	56188
Ġexperimental	56180
ku	56082
Ġcommunication	56065
Ġran	56055
Ġcontrols	56049
Ġvote	56037
Ġagent	56013
Ġunless	55984
Ġoccur	55933
zo	55932
GL	55918
DE	55911
where	55907
ĠSa	55867
Ta	55834
Ġconfirmed	55829
era	55819
Ġattempt	55793
ĠNews	55790
Ġpiece	55778
Ġkilled	55763
Ġminimum	55720
Ġbank	55719
fs	55700
ĠYour	55684
Why	55676
Ġoptical	55643
break	55632
Ġguy	55569
king	55560
Ġpicture	55558
Ġhour	55557
Ġmolecular	55546
Ġsociety	55490
specific	55449
Ġinduced	55437
func	55436
Ġperhaps	55424
Ġwouldn	55422
github	55387
ŀ	55327
Ġagreed	55315
ľ	55305
Str	55303
Ġrec	55302
ĠEl	55298
Count	55265
tar	55242
block	55235
Ġraised	55234
Ġanalyzed	55232
Ġcircumstances	55223
Ġassociation	55164
VE	55146
Ġcalls	55143
ĊČ	55142
Ġreached	55131
amp	55126
Ġwhereas	55125
ĠTV	55120
Ġ75	55119
.$$	55118
ens	55114
ji	55109
Ġsum	55109
Ġjudge	55106
Ġoperations	55103
Ġaffected	55057
Ġchain	55053
Service	55052
Ġselect	55052
Ġexternal	55050
Ġdied	55049
istic	55041
ua	55035
Ġfeet	55035
font	55019
First	54986
ĠGi	54975
exp	54968
otimes	54937
ld	54914
Ġlinks	54888
Ġofficer	54869
yn	54857
Ġbuffer	54853
Ġemployees	54830
Ġpackage	54779
Ġcauses	54752
cha	54741
Ġtrack	54722
Ġclasses	54722
ĠCO	54722
Ġtools	54711
Ġdrop	54709
ov	54681
Ġrep	54662
Sp	54640
Ġentry	54614
Go	54571
Ġnames	54565
Ġret	54563
AM	54545
ĠDE	54527
Ġprobability	54511
Ġjava	54502
aa	54497
Ġkept	54487
ĠMar	54486
ological	54436
NO	54430
Me	54402
Ġcredit	54400
Ĥ	54390
Ġad	54387
Ġefforts	54367
check	54333
our	54315
Ġcriminal	54313
ric	54310
Ġcollected	54310
ud	54299
Ġsentence	54276
Ġtraditional	54258
007	54223
©	54210
boldsymbol	54182
Ġsoft	54165
Ġoccurred	54140
je	54126
eb	54126
ju	54121
Ġcorrelation	54089
she	54064
Ġintroduced	54034
ĠSu	54018
Ġsuggests	53969
ht	53950
Ġdiscussion	53948
local	53931
bs	53907
Lambda	53903
è	53867
Ġcertainly	53833
Ġestimated	53801
Ġtechniques	53771
ĠPark	53768
Ġnovel	53738
Ġexplained	53735
Message	53717
^[@	53694
Ġarm	53682
Ġdiagnosis	53668
US	53662
Ġ("	53654
Ġequivalent	53652
Ġstation	53648
bin	53637
£	53611
Sigma	53606
nes	53597
FA	53595
Ġgone	53587
Ġmovie	53564
Ġgeneration	53563
ª	53562
ving	53538
Ġabsence	53499
ĠLondon	53456
Ġprotection	53453
ĥ	53447
Ġsexual	53447
ĠPer	53445
ĠNote	53424
ode	53421
Ġstatute	53402
Ġsummer	53398
Ġremaining	53339
ĠMost	53339
ĠBi	53334
ries	53332
post	53325
Ġappellant	53316
Ġstorage	53279
Ġforces	53264
Ġwhom	53260
Ref	53177
Ġ72	53177
Ġnet	53141
Ġhandle	53121
iv	53089
']	53086
Ġalgorithm	53069
Î²	53040
ĠMon	53037
Ġbiggest	53034
Ġsemi	53033
Ġlog	53020
¸	53014
ĊĊĉĉ	52999
uint	52945
ĠRNA	52941
kin	52897
Ġrequirements	52893
ham	52879
UI	52857
Ġmodule	52855
Ġholding	52819
Can	52816
Ġbed	52801
Ġ((	52798
Ġrecords	52791
ang	52756
Th	52751
Ġband	52714
Ġgun	52685
AA	52679
ĠGe	52664
ok	52646
Hi	52630
Ġpar	52628
Ġconventional	52619
ĠCA	52602
atic	52598
({\	52576
Ġwish	52576
Ġclean	52572
ĠMA	52546
Ġolder	52531
long	52509
its	52504
TR	52495
Ġhttps	52474
ws	52460
Ġprogress	52458
Ġflat	52445
Ġfear	52425
ori	52416
gt	52410
Ġ2005	52397
Ġlaws	52369
Ġexchange	52368
Ġfloor	52355
Ġserved	52345
date	52319
Ġborder	52308
IR	52282
Ġdescription	52261
Ġadding	52258
.](	52249
Ġorganization	52234
oa	52224
Bar	52222
Ġmissing	52216
Ġextent	52212
Ġoffers	52186
Ġcapital	52186
Ġquantum	52161
Ġimport	52137
SO	52136
rn	52132
Ġsevere	52084
you	52073
AN	52060
ĠHi	52054
'}	52029
Ġcreating	52007
Ġscience	51999
Ġloop	51988
Ł	51975
Ġsubjects	51963
ĠEast	51951
ged	51925
´	51901
PS	51896
Ġvalid	51891
Ġeconomy	51865
Ġpurposes	51864
"></	51846
ĠGreen	51838
Ġderived	51800
Ġanimal	51800
ĠPe	51788
Ġresponses	51764
ani	51760
}-	51759
Ġideas	51723
ĠPl	51703
Ġschools	51677
DA	51632
ĠGroup	51625
à¸	51624
Ġenter	51605
Gr	51594
Ġintended	51581
Ġfresh	51548
ult	51514
ĠTexas	51504
jo	51473
side	51470
ĠSub	51463
Ġmono	51462
induced	51458
\}	51447
Ġha	51427
Ġproperly	51389
Ġrepresents	51384
act	51369
)?	51352
ĠStreet	51347
)]	51339
Ġem	51327
mar	51291
Ġdecreased	51284
Ġmotor	51276
util	51271
active	51268
Ġresolution	51254
ĠPa	51242
Big	51233
++	51233
Ġdirector	51230
Ġpara	51218
RO	51178
Ġcur	51163
Ġachieve	51163
ĠCl	51163
Ġexperiment	51148
mbox	51096
)"	51087
ĠIsrael	51082
ĠSha	51050
*]{}	51003
Ġ-->	51000
Ġfair	50994
nonumber	50991
Ġse	50981
ĠBritish	50971
Ġmechanisms	50963
ĠJa	50961
Ġrise	50957
Ġvirus	50935
Ġ/*	50916
oi	50915
car	50908
Ġdoubt	50895
ĠAr	50891
Ġauthority	50885
2015	50871
ini	50856
ene	50852
Ġfeeling	50845
Ġlargest	50829
ĠSupreme	50829
ĠNO	50827
ĠSC	50788
ĠEach	50780
ĠFA	50749
ĠBlack	50711
Ġcold	50701
Ġteams	50677
Ġattorney	50669
»	50668
Ġinterests	50659
property	50658
cor	50645
Ġsrc	50645
ensuremath	50640
ĠEurope	50637
Ġmembrane	50631
ned	50622
Ġtechnique	50599
ato	50597
sis	50590
Ġeat	50579
cat	50557
ick	50555
čĊčĊ	50555
ĠSi	50549
_.	50543
ĠCH	50520
cu	50509
Ġofficers	50508
Ġcrime	50498
Page	50494
Ġdie	50438
Ġbalance	50419
Ġslightly	50415
Mar	50380
Ġcontained	50375
Ġprofile	50365
ç	50267
Log	50260
ray	50233
IF	50232
Ġfoot	50224
CO	50222
write	50190
vis	50153
ĠFoundation	50130
ition	50104
Ġfight	50079
Ġav	50064
ĠCouncil	50056
Ġsales	50054
Ġcoverage	50053
Ġformula	50031
ĠSA	50031
ãĥ	50030
Ġguys	50023
(&	50007
lat	50001
zz	49972
ĠVi	49940
was	49926
Ġcharged	49893
Ġopening	49880
Ġinstall	49874
lim	49868
Ġnoise	49859
Ġslow	49850
ĠCommission	49823
Ġcharacters	49803
ĠIP	49790
Ġdev	49788
Ġref	49785
gh	49762
Ġdose	49746
gar	49742
Ġtravel	49712
sk	49710
mal	49710
vert	49707
Ġlatest	49707
ME	49701
008	49699
ĠPeople	49698
Ġprojects	49695
material	49692
Ġoffered	49691
well	49687
summary	49674
Ġ57	49669
**]{},	49661
Ġcard	49646
Ġannounced	49609
Property	49608
tes	49586
ĠCalculate	49562
head	49514
non	49496
Ġspread	49492
Ġshared	49489
ĠCanada	49456
][	49444
¬	49442
auto	49436
Pro	49413
Ġenvironmental	49409
ĠChinese	49405
ĠGoogle	49402
Ġring	49398
af	49369
ĠChrist	49368
Ġres	49356
Ġgain	49324
Ġinteractions	49314
Ġentered	49308
Ġagents	49302
order	49276
âĢĿ.	49261
Ġerrors	49237
oni	49226
ys	49214
Some	49210
Ġsupply	49180
doc	49177
čĊĠĠĠĠĠ	49163
SH	49135
ĠFa	49127
Ġst	49125
Ġimmun	49124
run	49081
Ġdecrease	49077
Ġdriver	49076
({	49073
Ġ58	49069
target	49067
ĠAS	49045
ale	49044
.[@	49040
Ġspeech	49037
ĠHar	49009
IA	48987
Ġdog	48982
ĠPost	48974
'.	48972
Ġanalyses	48952
Rec	48949
prop	48947
message	48917
Ġneuro	48895
Ġconcentrations	48884
pc	48855
Ġagency	48847
ĠFriday	48846
kappa	48812
Ġaccept	48788
Â½	48780
Ġchronic	48758
Ġborn	48740
Ġoutcome	48716
ser	48714
EC	48711
Ġgenetic	48686
Ġscript	48680
[\	48659
Ġexistence	48647
TO	48646
Ġreceptor	48631
Ġdigital	48631
Ġviews	48624
Ġ61	48611
ă	48604
Ġstable	48562
OP	48555
false	48544
Ġcustom	48540
Ġfinite	48514
ati	48482
Ġplants	48475
Ġcommercial	48473
Ġstars	48464
Ġpossibility	48463
Ġequipment	48455
Ġexpress	48433
Ġpurchase	48430
Ġcarbon	48414
Ġdriving	48391
Ġoperating	48386
ĠRes	48376
Ġac	48354
ĠQu	48351
¶	48342
Ġgirl	48334
ĠSe	48331
DI	48311
Di	48302
Ġbeautiful	48295
TT	48271
ĠSl	48263
Number	48255
Ġpatterns	48210
]{	48198
Ġwhatever	48187
Ġheavy	48180
Ġhyper	48178
md	48176
Ġsignals	48161
Ġcompleted	48157
eu	48142
Ġliver	48114
Ġguess	48107
Fa	48090
Ġstd	48088
Ġtransport	48073
§	48052
ĠRE	48050
ĠCu	48023
ĠLA	48006
Ġdiseases	48002
ET	48001
ĠTwo	47995
0001	47970
ves	47968
Ġsmooth	47966
ress	47962
Ġinterested	47955
Ġmobile	47937
ĠKa	47932
ano	47927
MP	47919
Ġtransmission	47912
Ġidentity	47902
xml	47881
ī	47877
Ġalleged	47856
ort	47841
ĠJames	47841
ĠCor	47837
ĠNa	47820
Si	47797
Ġreturns	47786
pre	47780
Ġappeared	47747
ĠTu	47740
Ġrich	47713
Ġimportance	47712
LI	47703
PC	47698
Ġaren	47688
ĠJust	47664
Ġscene	47655
Ġindicates	47649
ĠBank	47623
Manager	47613
Ġspectrum	47603
Con	47601
âĢĬ	47593
Ġmaintain	47581
Ġrel	47561
ĠSuch	47561
Ġ59	47561
ı	47538
ass	47518
Ġhusband	47514
IM	47511
ĊĊĠ	47498
ĠFree	47496
Ġconcept	47481
ĠNOT	47473
Ġ2004	47469
ĠIC	47455
widetilde	47436
Ġhappens	47434
Ġcontrolled	47428
book	47427
ĠInter	47406
ĠBE	47398
work	47374
Ġgenerate	47370
Ġdemand	47366
sb	47365
Ġ+=	47355
Ġruns	47348
Ġsequences	47337
Ġinner	47337
CS	47334
Ġholds	47332
Ġconclusion	47319
ute	47309
ĩ	47291
Ġstraight	47288
Ġabuse	47274
button	47264
gan	47262
Ġ"[	47262
101	47253
kg	47247
Ġfootball	47238
scale	47230
nabla	47224
Button	47201
Ġpeak	47186
current	47161
Bl	47156
Ġ${	47141
Ba	47139
Ġtrip	47133
Ġparticles	47133
{}	47130
ag	47113
ĠMac	47113
¯	47094
Ġimp	47094
ĠDO	47082
Ġconfiguration	47065
Ġfilter	47056
ĠService	47046
ĠAT	47032
Ġreality	47024
Ġ62	47013
ire	47010
ern	46995
").	46989
ata	46985
Se	46973
Ġ63	46965
EM	46959
met	46950
Ġgrow	46946
ĠWestern	46945
End	46927
Ġdefendants	46914
EA	46894
ably	46870
Ġdraw	46837
Ġbreast	46835
Ġplasma	46822
,'	46819
Ġ66	46817
PL	46815
Ġsecondary	46800
Ġmeasurements	46785
ĠMonday	46779
Į	46771
Ġreferred	46769
ight	46762
Ġmouse	46742
EX	46726
Ġdel	46711
first	46707
ĠTheorem	46700
Ġinteger	46696
Element	46686
format	46672
Ġtri	46640
od	46636
ĠBen	46620
ĠTra	46599
Sub	46594
context	46577
endif	46563
ĭ	46553
ĠCT	46546
ĠInstitute	46539
ï¼Į	46519
}}{	46515
Ġinterview	46515
2016	46513
Ġrepresentation	46511
Ġcontinuous	46511
Ġseemed	46506
ford	46504
Ġempty	46492
Ġ2019	46479
Ġdeveloping	46446
ob	46437
Ġdescribe	46417
load	46396
ulation	46389
VI	46387
Ġthank	46369
ory	46356
Ġshift	46316
final	46300
bool	46292
Ġtend	46285
wn	46272
Ġremainder	46272
]),	46253
ala	46245
TH	46242
Ġspeak	46242
Ġadvantage	46237
¤	46225
ĠLaw	46221
DO	46219
ik	46206
These	46202
Mi	46200
2013	46199
mod	46168
Ġnation	46160
CI	46150
\{	46121
Ġstatements	46119
Ġsold	46118
ord	46113
Ġfat	46111
ĠSunday	46107
ĠWeb	46106
Ġcatch	46099
null	46094
ĠSet	46093
2014	46075
Man	46058
Ġquery	46030
Ġbus	45997
Ľ	45989
ĠBoth	45983
vel	45979
Ġleaders	45968
Ġhaven	45959
uk	45942
Ġjobs	45930
Ġbutton	45929
Ġliterature	45928
fu	45921
Cs	45913
Ġadult	45910
inc	45891
Ġchemical	45889
ĠCar	45880
Ġcollege	45859
hl	45855
Ġworse	45837
Fr	45813
Ġapproved	45793
oma	45748
ĠSmith	45727
Ġlatter	45724
ĠMI	45720
Don	45714
oe	45712
})$	45709
Ġap	45661
ĸ	45645
120	45628
110	45626
Ġcarry	45621
Ġlibrary	45607
Ġissued	45600
Ka	45594
ĠCompany	45591
\*	45579
ĠSuper	45576
009	45573
Ġclub	45571
Ġextremely	45569
³	45558
tal	45553
request	45552
Ġpl	45537
Ġmm	45508
ĠFOR	45505
cast	45501
parent	45500
Ġplatform	45467
Ġknows	45458
ĠPress	45452
Ġgraph	45433
ĠDay	45421
uring	45419
ĠAss	45416
Ń	45413
ĠCommittee	45408
ĠRep	45380
lang	45371
Ġsquare	45367
Ġestimate	45366
2012	45356
ĠRec	45353
ĠFacebook	45350
Ġcon	45348
ĠArt	45343
Ġalcohol	45342
Ġsi	45332
Ġ00	45329
Ġleader	45325
Ġbooks	45314
Ġcovered	45303
Ġdef	45299
Ġ500	45297
Ġcharges	45282
Ġserum	45261
Ġahead	45235
ong	45232
Ġconf	45214
Ġexamples	45170
Ġfill	45158
Ġregulation	45147
Pa	45144
ĠMichael	45141
Ġcool	45102
apache	45097
µ	45092
¥	45092
Ġport	45086
El	45076
Ġaware	45072
011	45053
ĠUnion	45038
Ti	45017
Ġopened	44987
wo	44984
Sa	44943
ĠPart	44929
ĠEn	44926
Ġsubstantial	44922
Ġfluid	44920
float	44895
Min	44883
Ġchurch	44881
ĠJapan	44875
Ġcustomers	44867
Ġsuit	44851
ĠSO	44851
Ġbo	44848
Ġoccurs	44811
Ġfa	44805
ĠBig	44780
¨	44774
range	44770
Ġsigned	44770
event	44753
Ġfish	44749
Ġlose	44747
client	44737
ona	44736
&\	44730
ĠLeague	44724
Ġexception	44722
ash	44716
Ġcompounds	44690
df	44667
ĊĊĠĠĠĠĠĠĠ	44648
Tr	44632
Ġsession	44631
Ġ},	44624
Ġrecorded	44614
Ġdiscuss	44610
Ġsw	44601
Ġdelivery	44598
Ġdecisions	44582
ĠSun	44578
ĠAccording	44578
Source	44555
ĠPh	44532
ĠRo	44525
Ġexact	44522
Ġassay	44506
Ĩ	44503
Ġcalling	44503
čĊĉĉ	44496
}}^	44489
Ġreceiving	44477
Ġpowerful	44474
Ġevaluated	44472
Ġfreedom	44469
Ġdiet	44463
ack	44461
ace	44449
}}}	44443
inf	44432
und	44422
BA	44415
iation	44412
Ġuna	44411
.</	44407
)*(	44407
Ġallowing	44405
ĠPro	44395
Ġviolence	44392
berg	44364
Ġnetworks	44353
Then	44349
2000	44345
ĠAmericans	44334
Ġleaves	44321
ptr	44279
Ġplate	44273
Ġimplementation	44269
Ġextended	44263
Ġ]	44260
Ġoutcomes	44257
Ġextension	44248
ming	44237
Just	44235
ĠBrown	44216
Ġpercentage	44198
([	44195
Ġconcerns	44192
Ġestablish	44171
Ġsale	44168
Ġleaving	44153
Ġthousands	44134
Ga	44132
Ġbirth	44128
Ġsubsequent	44116
Ġassessment	44116
Ġhelped	44089
Ġfaith	44079
media	44070
Ġsta	44067
Ġmuscle	44061
Ġmostly	44056
ĠFrench	44049
Ġimmune	44034
Ġorigin	44011
}}_{	44010
Ġaid	44002
Ġevolution	44000
Ġtestified	43991
zeta	43977
ye	43976
ĠTrans	43967
pr	43935
call	43927
Ġunderlying	43921
Ġefficiency	43907
Box	43896
ĠAL	43896
ets	43892
sw	43888
Ġfix	43869
LD	43866
}+	43859
ĠFu	43837
ĠCollege	43831
ĠKo	43816
Ġra	43815
mg	43792
part	43775
Client	43733
mat	43729
Ġ2003	43721
ĠSP	43710
Ġcentury	43703
CF	43692
GE	43689
Ġrepresented	43682
ou	43678
ote	43677
Ġtraffic	43669
dimensional	43659
Ġapparatus	43633
web	43626
Config	43623
position	43611
rate	43609
ath	43597
lan	43596
Ġgreatest	43578
Ġexamined	43556
Ġbaby	43545
....	43529
Ġcriteria	43475
FI	43474
dependent	43464
ĠBur	43463
don	43446
ION	43429
Ġlearned	43429
status	43426
IO	43425
ery	43424
Ġarguments	43410
ĠĊĠĠ	43409
Ġche	43405
ign	43385
ĠWhy	43382
module	43375
Ġeventually	43365
2017	43363
win	43360
Ĺ	43355
ĠGovernment	43351
Read	43343
Ġowner	43343
Ġplane	43314
Ġpush	43304
dots	43286
ded	43275
ĠAssociation	43262
¦	43239
ĠPD	43223
json	43205
012	43192
Ġdry	43185
"]	43183
Ġro	43163
ĠKing	43147
Ġcandidate	43138
Ġvisual	43135
Since	43121
Ġspecified	43119
Ġcurve	43108
Ġincident	43090
Ġ68	43079
?âĢĿ	43078
dg	43066
ļ	43061
arg	43061
¼	43060
Ġscheme	43056
mail	43044
)=\	43031
Ġdetail	42986
Base	42978
Ġvoltage	42976
Ġpositions	42974
ural	42969
.*	42956
light	42954
Ġsurvey	42949
ĠChurch	42939
PI	42925
Ġinvestigated	42919
Ġfuel	42919
Ġdistinct	42919
ew	42908
ĠIT	42905
gin	42903
Ġ85	42873
ĠTuesday	42824
Ġachieved	42818
128	42816
Pre	42804
ĠTri	42792
Ġenjoy	42777
Ġcho	42777
Ġtypical	42765
ãĢĤ	42762
Ġdepends	42745
Ġsecret	42735
Ġpathway	42727
Ġgoals	42703
oh	42689
ĠGermany	42667
ĠPo	42666
ole	42661
ĠScience	42639
hy	42631
Ġlicense	42631
other	42620
Ġchanging	42620
rb	42600
ĠPS	42590
Ġglass	42587
Ġspend	42581
Ġpolicies	42571
Ġmaster	42559
ĠEq	42553
ĠPar	42549
Ġfilms	42518
DS	42511
Ġprocedures	42504
ĠAc	42504
supplementary	42502
NI	42496
atory	42490
Ġstandards	42487
ĠUsing	42456
Ġdigit	42445
ĠâĢ¦	42437
Ġmixed	42423
ĠSc	42420
ĠDa	42418
PR	42391
Ġ67	42388
Ġrecovery	42384
ĠOpen	42381
DB	42371
Ġcla	42368
disc	42361
lock	42360
Ġne	42351
Ġthin	42346
Ġbiological	42338
Ġapplicable	42321
Ġgranted	42314
Ġcast	42310
Bu	42308
ient	42306
----	42305
vin	42301
Ġcivil	42296
Ġcomplaint	42291
Rev	42261
ÃŃ	42246
Ġ${{\	42228
Ġstrain	42208
ost	42199
)[	42191
ĠTime	42178
ened	42177
emen	42149
Ġisolated	42149
Ġexpansion	42147
}.	42146
Ġquick	42146
Ġmax	42135
Part	42129
mid	42127
Ġfavor	42093
Ġ2001	42089
Ġlimitations	42082
Ġangle	42079
Ġmurder	42061
Ġacts	42055
ĠJudge	42055
ÃĹÂ	42041
Ð°	42034
DC	42033
Ġseeing	42029
Ġsalt	42026
Ġgl	42005
Ġcap	42001
300	41991
ĠReg	41979
ering	41976
Ġdesired	41973
ĠMany	41970
Ġeasier	41952
150	41942
Ġevaluation	41942
ime	41930
>(	41922
Ġsubstrate	41909
]}	41903
Ġyes	41903
Ġstanding	41889
Ġvar	41884
Ġcup	41878
Ġmar	41877
ĠAP	41857
ĠWell	41852
Ġfl	41826
als	41825
Ġindeed	41809
Ġstrongly	41795
select	41793
Ġsections	41776
uc	41765
¢	41754
Ġevaluate	41753
Ġelectronic	41738
Ġdetailed	41738
ĠFinally	41736
Ġinvestment	41730
.**	41727
Ġrelief	41727
Ġfunds	41718
ĠCC	41717
Ġjoin	41715
Ġinvestigate	41714
Ġobvious	41699
Ġsouth	41645
Ca	41631
Ġfourth	41624
Ġchosen	41589
2011	41588
ãĤ	41574
ade	41544
ĠDuring	41530
Ġentitled	41513
Ġsell	41504
ust	41503
last	41500
Ġweak	41483
²	41473
Ġkill	41463
Content	41457
ĠKe	41448
Ġtrain	41434
Ġprint	41434
Ġund	41420
put	41417
ĠAb	41416
¹	41400
"}.	41400
ĠInt	41398
show	41396
Ġbroad	41393
Ġmanager	41392
CP	41391
Ġdaughter	41375
Ġth	41367
Ġmeant	41357
ĠHu	41350
Ġstored	41345
ĠRA	41344
ĠCR	41333
Ŀ	41328
ĠWa	41320
2010	41307
Ġconsidering	41289
Ġduty	41258
Ġdelay	41256
Ġconclude	41256
Ġcommitted	41236
ĠAdd	41231
ĠWhich	41228
Ġdirected	41225
ĠGeorge	41211
EE	41206
layout	41202
author	41190
Ho	41190
Ġser	41188
ĠEngland	41187
Da	41186
Ġlo	41177
des	41172
output	41162
Ġskills	41152
Ġprices	41130
Version	41129
mark	41119
Â·	41104
Note	41104
Ġ71	41099
query	41096
ĠDC	41096
any	41090
Ġthanks	41086
ĠSE	41079
Ġreligious	41067
Ġvictim	41066
Ġ99	41051
Ġau	41050
Ġforced	41033
Ġreplace	41032
Su	41026
urs	41020
ĠParty	40991
Ġdebt	40975
Ġintervention	40973
Ġstream	40972
Ġdocuments	40962
trans	40958
Ġspot	40958
Ġsolve	40947
Ġlisted	40940
ĠFlorida	40939
Ġpayment	40931
MC	40921
Result	40919
tre	40912
é	40909
Ġplays	40901
ĠUnder	40861
¾	40858
Ġcluster	40826
van	40810
ill	40808
010	40797
Ġconflict	40793
ĠBill	40793
Web	40792
Ġpen	40792
ĠOther	40792
Ġequations	40786
ĠIII	40785
Ġstories	40784
Ĭ	40763
Ġfocused	40724
Ġdepending	40712
iti	40704
Ġdetermination	40697
ari	40696
Ġvariation	40690
ĠKu	40685
Ġmiles	40677
Ġconcern	40674
ĠGerman	40670
pu	40660
Comp	40659
Ġcategory	40644
Ġexcellent	40618
Ġcash	40604
Ġfans	40595
Ni	40594
Ġswitch	40590
Ġresulted	40583
Ġwaiting	40573
ĠSolve	40564
Ġmeasurement	40504
Ġbrief	40498
Ġobservations	40479
Ġclick	40466
Ġsea	40463
eli	40462
OL	40457
Ġpossibly	40456
Ġna	40444
%.	40434
cdots	40421
ĠAir	40417
find	40413
number	40412
Ġbelieved	40410
Ġtreat	40367
tab	40365
FF	40365
ĠRussia	40364
ĠMark	40339
Ġregard	40324
Ġ300	40314
ĠTest	40295
Ġ69	40288
Ġ2002	40281
Ġassuming	40277
ĠFo	40275
Ar	40273
BC	40255
match	40251
Ġversus	40243
isation	40240
Ġparallel	40239
Ġinc	40222
section	40213
Ġhousing	40199
ĠComp	40195
Ġrev	40188
dis	40185
Ġch	40166
Ke	40158
dec	40155
Ġneither	40150
rg	40141
ven	40115
Ġfees	40106
ĠFrance	40103
Â¶	40090
Ġmodified	40082
Ġtwice	40064
ars	40056
Click	40045
Ġapproaches	40038
Ġcommunities	40036
Method	40031
Ġemployed	40024
Override	40012
tz	40004
PT	39990
ĠBra	39967
HI	39963
ĠThursday	39962
}=\	39961
Ġtouch	39959
ĠAR	39959
Ġgrand	39952
PP	39950
INT	39947
ĠUN	39939
ĠHIV	39937
ĠLord	39934
ĠOffice	39932
Ġoffense	39921
Ġprotocol	39917
160	39911
Te	39899
Ge	39899
ock	39875
Ġplanning	39867
ĠOS	39864
Ġqui	39859
Ġlabel	39848
pos	39846
ĠCircuit	39842
ĠChe	39838
Ġbi	39836
try	39829
sch	39823
AB	39816
ĠDis	39803
ran	39800
2018	39797
Which	39796
Ġdamages	39794
Ġpo	39791
Ġconfidence	39789
ĠOver	39787
Ġaward	39783
ĠNone	39782
ĠHome	39763
Last	39759
Filter	39732
/>	39729
fin	39721
ħ	39692
Create	39692
Ġseek	39682
ision	39680
Ġboy	39677
tle	39645
Ġcompare	39643
Ġfunding	39640
ĠWednesday	39634
cent	39631
uit	39624
nic	39622
±	39617
Ġnodes	39612
img	39601
Ġwaste	39594
**(-	39588
Ġstreet	39588
Ġhelps	39583
)))	39576
$$\	39574
ĠÃ	39571
]--[@	39562
Ġduration	39543
Ġscores	39541
ĠTom	39541
Ġconcerned	39540
**]{}	39527
Ġaccuracy	39511
Ġefficient	39506
Ġship	39497
Ġtrials	39486
Ġwear	39483
âĢ²	39460
LO	39453
++)	39447
Ġ96	39446
comp	39437
Lo	39434
frame	39431
Ġscope	39427
''	39413
Ġadvice	39412
Ġsensitivity	39399
Ġmainly	39391
ĠSaturday	39383
According	39380
:\	39378
Ġsm	39369
Ġbudget	39334
Ġasking	39334
Ġadults	39310
ĠGl	39306
ura	39303
ym	39299
Out	39291
Ġrelationships	39287
ther	39265
ville	39262
ĠWindows	39256
TS	39234
Ġboundary	39230
Ġguilty	39227
Ġfirm	39214
Ġexperienced	39210
arr	39200
Du	39189
next	39184
Ġinvolving	39184
De	39170
iss	39164
Ã¤	39147
Ġelectron	39145
AF	39117
/\	39115
ĠNS	39113
ĠEd	39111
wood	39108
conf	39104
Ġexposed	39104
template	39095
Ġsignaling	39087
Ðµ	39073
Ġburden	39070
SU	39066
Ġdisc	39059
Ġfan	39058
icon	39028
Ġcontribution	39025
Ġconsent	38994
ĠLO	38979
ĠStar	38973
º	38957
Ġthread	38955
Ġcoach	38954
ĠJapanese	38949
Ġcapable	38944
Ġiso	38941
Ġresource	38938
Ad	38914
ĠJesus	38914
Ġideal	38904
ĠDan	38900
Ġcontinues	38898
Ġacute	38897
yt	38893
Ġfinished	38892
Ġ77	38853
Ġfundamental	38844
Ġframework	38840
Ġ73	38833
die	38829
ĠMinister	38827
)^{	38820
Ċĉĉĉĉĉĉ	38809
Ġest	38800
Ġreverse	38781
Ġcomposition	38781
Ġassessed	38757
"})	38749
meta	38746
Ġiron	38746
ids	38737
ĠYes	38731
Ġ{{\	38705
Ġsides	38704
Ġintensity	38704
Ġdepartment	38703
ĠEC	38683
ĠCL	38660
Ġemployee	38658
eh	38655
Ġ81	38646
ĠSM	38638
fo	38623
Ġguide	38623
hn	38580
]]	38565
Ġmassive	38561
package	38557
ĠTA	38552
¿	38551
Ġsugar	38548
Ġsplit	38536
kh	38524
cd	38521
ich	38515
Ġdemonstrate	38515
à¤	38514
ĠFederal	38509
âĢĿ,	38502
Ġice	38499
ĠBay	38497
Ġdecide	38496
Ġrelates	38494
Ġadvanced	38484
Ġpartner	38472
Ġ84	38466
Ġplaintiffs	38460
ĠAustralia	38453
Ġraise	38443
Ġgrant	38427
Ġsn	38422
Ġordered	38421
ĠInternet	38407
Ġar	38404
Any	38403
Ġpull	38398
Ġassess	38393
ez	38390
Action	38388
Ps	38382
Response	38371
Ġextends	38352
Ġgold	38334
/(	38329
Ġbrother	38309
Ġimaging	38288
Ġpersons	38286
Ġpotentially	38275
Ġnorth	38275
Psi	38265
Ġsuitable	38264
Ġchallenges	38263
ĠDA	38255
host	38249
Ġhumans	38248
"),	38233
fr	38229
sen	38228
ĠJustice	38219
ith	38204
background	38197
tl	38192
Ġrats	38189
Ġjoint	38189
bu	38182
Ġconference	38177
Ġexc	38175
^+^	38166
ln	38151
^âĪĴ	38139
IE	38139
Simplify	38133
\"	38130
Ġvelocity	38130
$)	38124
Ġchief	38120
Ġ74	38119
Ġstatistical	38117
Ġstopped	38116
ĠAny	38112
description	38109
del	38107
Ġimprovement	38079
Ġidentification	38072
ĠRef	38071
Ġdoctor	38065
\/	38057
ĠĊĠĠĠĠ	38054
Start	38053
Ġintent	38051
osis	38046
Mode	38041
Ġintra	38029
Ġsit	38028
Line	38020
Ġplot	38010
400	38008
Ġrare	38008
Solve	38000
Ġ_{	37987
FE	37976
Cor	37952
Ġcourts	37949
Ġremained	37947
Ġclaimed	37944
ĠType	37939
Ġinterval	37935
ening	37898
CL	37898
Ġopposite	37898
Ġsettings	37886
Ġcm	37886
ĠClass	37880
020	37867
Ġles	37865
Ġpop	37845
Ġended	37838
Ġlung	37835
Ġobjective	37826
otic	37817
Ġnano	37813
Ġce	37802
Li	37796
-----	37785
ĠGood	37781
Label	37780
ĠHA	37762
Ġ76	37754
Ġsuggesting	37746
}]	37741
Ġspring	37736
Ġ78	37716
Ġfrequently	37670
}}}}	37655
MO	37653
Ġbag	37642
Ġradiation	37627
Ġhence	37624
Ġdiscovered	37614
Although	37613
ĠMc	37609
Ġnine	37591
ris	37588
HO	37579
_{{\	37551
Ġmon	37548
Ġengine	37546
ì	37536
Ġreflect	37536
Ġ===	37525
Status	37524
ĠJo	37515
ĠRussian	37502
Ġsweet	37501
Ġpartial	37492
PE	37490
ĠEU	37490
SM	37479
Ġbone	37456
Ġjustice	37451
Ġunknown	37450
ĠRepublican	37443
Ġind	37425
Ġargues	37424
itis	37412
build	37402
Ġdownload	37391
Ġarms	37382
Ġmarriage	37377
Ġnecessarily	37373
append	37360
Res	37359
ĠMC	37351
server	37344
Ġprincipal	37343
Ġestate	37339
Ġwind	37318
Ġlimits	37310
ĠDec	37308
Ġannual	37304
Ġgap	37281
more	37243
PD	37243
Per	37241
obj	37218
double	37209
ĠVo	37185
Ġstability	37181
Ġvi	37167
References	37165
Dis	37160
Default	37128
ĠÂ£	37127
ĠDel	37117
ĠUse	37109
Ġmine	37108
ĠOut	37106
}})	37100
star	37090
*^	37085
ĠName	37085
some	37076
Ġwidely	37075
equiv	37072
Ġseconds	37071
Ġdependent	37057
Your	37033
ĠRule	37032
OK	37011
Ġantibody	36998
Ġthereby	36995
ĠCS	36986
Ġoral	36979
ĠANY	36977
Ġgender	36970
Ġdefinitely	36962
Ġassembly	36962
Handler	36952
Ġwarm	36944
ste	36939
house	36936
Ġvo	36931
pro	36925
png	36908
\-	36896
Ġdisorder	36884
Ġforth	36868
Ġquarter	36858
ĠTwitter	36856
Ġpetition	36848
yp	36839
Ġaspects	36835
ĠUI	36833
Ġbrand	36828
Ġpeace	36815
Ġthreshold	36813
ibility	36812
Ġma	36812
Ġrespond	36802
Ġattacks	36799
Ġge	36796
)}\	36794
mode	36790
Ġlinked	36788
Ġho	36785
Ġnumerous	36782
Ġkeeping	36780
Ġabsolute	36773
Ġpopulations	36770
ĠPR	36769
Ġelectric	36754
ĠSS	36743
ĠÃĹ	36739
options	36732
Ġdetect	36728
split	36723
195	36718
Hu	36712
rel	36711
Ġmouth	36710
Ġindicating	36708
gr	36705
Ġstarts	36705
ĠHence	36704
Ġsupra	36703
Two	36697
Ġstructural	36693
Ġprovision	36691
gue	36690
Ġrelations	36689
tag	36688
Please	36675
ĠPlease	36671
Ġimplies	36669
ĠCr	36662
Ġmixture	36655
Ġroute	36643
Check	36623
hal	36618
||	36609
Ġcomposite	36602
rem	36601
Ġpool	36578
imi	36576
msgid	36560
Ġpan	36553
Ġmortality	36543
ĠMal	36541
anti	36539
Ġdebate	36526
Ġinterpretation	36516
.-	36514
Ġcent	36509
Ġentirely	36504
ĠSH	36504
ered	36500
Ġunable	36500
Ġaccepted	36500
ĠJohnson	36494
Ġmission	36471
MI	36469
Ġtruly	36449
ĠRu	36449
ĠCP	36448
ena	36446
ram	36436
Ġsupposed	36435
ĠGive	36434
Ġgonna	36424
inter	36423
Ġends	36416
Ġ*)	36411
iva	36407
Ġ82	36396
Ġrecognized	36394
Ġcellular	36394
msgstr	36388
Ġmark	36386
after	36376
Point	36376
Ġhole	36368
Ġcontribute	36367
Ġpractices	36366
Ġgirls	36361
Ġcamera	36346
ĠPen	36338
Ġrepair	36336
Ġinstructions	36335
ĠFurther	36328
Ġviolation	36326
Ġscientific	36324
}/	36319
Ġaxis	36318
hen	36312
space	36290
Ġ150	36271
ĠChristian	36263
che	36259
rin	36258
Ġaim	36257
Ġdegrees	36254
Ġarrest	36250
mL	36239
Ġsupporting	36201
Ð	36195
Ġnarrow	36195
kl	36183
din	36173
Gi	36156
Ġexplore	36154
Ġbattle	36148
Ġnotes	36139
hs	36127
Ġfraction	36124
xa	36108
Ġmix	36108
Ġstruct	36093
Ġemployment	36075
Ġbecoming	36073
Ġsigns	36066
DD	36055
Ġresponsibility	36055
Ġprison	36024
Ġpa	36023
word	36016
Input	36011
***	35994
Ġvitro	35988
ĠEr	35983
ĠSenate	35975
ĠIll	35945
Ġtechnical	35944
DM	35938
Tra	35937
Ġminute	35929
Ġ88	35914
Ġattached	35899
Ġappearance	35888
Ġsensitive	35877
Ġresidents	35874
ware	35864
lb	35863
ĠTimes	35848
103	35844
GR	35832
{{	35796
widehat	35787
ima	35783
Ġmolecules	35783
Ġenable	35782
Ġ92	35773
Ġcompound	35770
Ġmanaged	35768
att	35767
ita	35757
ĠPu	35733
Ġconcluded	35695
ĠChi	35680
Ġcommonly	35663
mor	35659
600	35657
Ġandroid	35652
~~~	35648
Mr	35648
Ġamounts	35640
Ġdisk	35636
Are	35630
iter	35628
<!--	35624
buffer	35613
option	35607
ĠRobert	35604
ĠHospital	35596
ama	35593
ĠGA	35588
izer	35563
Ġpp	35559
Ġassigned	35526
high	35525
omp	35520
MM	35511
ĠIndian	35509
Ġconsideration	35506
Ġ120	35492
ĠAC	35486
Ġunderstood	35484
cin	35479
GO	35477
Ġdynamics	35474
nat	35473
ext	35473
DR	35471
ĠMP	35470
Ġsecure	35468
2008	35466
Ġarticles	35466
ĠFI	35463
Ġdynamic	35462
ĠOnly	35458
Ġfell	35455
ket	35453
ola	35448
ĠHall	35434
HE	35431
ĠOnce	35430
Ġsought	35429
bro	35426
fold	35413
\]).	35411
Ġdivide	35411
entry	35410
ĠAPI	35405
Ġeffectively	35398
ĠIR	35387
Ġaccurate	35380
ĠGr	35377
Ġprinciple	35376
BO	35368
Ġexpert	35355
only	35352
Ġ191	35318
illa	35308
ĠRead	35308
search	35304
Ġestimates	35300
ĠLife	35298
ĠProject	35297
Ġrequirement	35291
Ġval	35243
ĠAfrica	35241
ball	35237
âĢĥ	35225
Ġune	35224
ising	35223
RC	35205
Ġoxygen	35193
Ġspaces	35180
amine	35177
ple	35174
ĠME	35170
Ġminimal	35164
Ġmo	35160
Ġfilled	35156
Ġ83	35128
**,	35120
Cell	35116
Ġjurisdiction	35116
Ġearth	35113
Ġdecades	35110
Ġusual	35102
#:	35093
Ġhomes	35091
ĠGen	35090
ĠAfrican	35073
ijms	35071
ĠSecond	35064
102	35055
})\	35046
root	35040
ĠTheir	35035
Ġbranch	35030
Bi	35028
Ġspending	35020
Ã³	35018
Ġmenu	35018
zed	34990
Next	34989
Ġqu	34964
ĠSam	34962
update	34952
RNA	34945
ĠPL	34944
2009	34938
ency	34914
google	34904
Ġsenior	34904
ãģ	34900
Other	34892
Ġseeking	34891
hand	34888
00000	34888
Car	34882
NAME	34879
Ġadmitted	34865
013	34845
Ġfavorite	34844
display	34833
Find	34833
Ġconsumption	34820
Ġzone	34804
Ġwilling	34798
Ġtelevision	34789
Buffer	34786
ÃĹ	34778
Layout	34765
Ġ[]	34751
Ġbaseline	34739
Ġstrategies	34736
ĠEarth	34728
aw	34719
ĠThomas	34692
Query	34686
130	34682
ĠMor	34681
rad	34680
iz	34674
ida	34668
Ġlaser	34665
Yeah	34663
Ġ79	34659
ĠSal	34643
Ġmessages	34639
method	34632
ĠâĪĴ	34632
--------	34623
"""	34621
ero	34616
Ġbroken	34614
gra	34613
ĠRiver	34610
Ġcharacterized	34608
Ġsqrt	34607
BR	34606
home	34605
WA	34604
Ġfloat	34598
Ġassistance	34591
ĠRT	34567
Ġlabor	34553
Sc	34548
Ġvan	34543
stream	34540
Format	34534
hed	34527
Ġtag	34519
Ġwww	34517
Ġorganic	34510
subset	34499
ĠKi	34498
Ġoptimal	34481
Ġamino	34476
yo	34475
ĠSea	34466
ĠĊĠ	34456
Ġcompetition	34439
Ġfail	34428
Ġsmallest	34425
×	34420
Where	34410
Ġpres	34405
Ġdimension	34399
ĠPCR	34387
Ġemission	34382
Ġminor	34380
Ġtissues	34378
ĠSw	34376
Â¸	34374
Ġcompact	34370
Ġpredicted	34368
lc	34363
```	34358
Ġsin	34358
mit	34345
ula	34336
Ġbinary	34336
Ġprop	34332
Ġdepth	34327
ake	34325
Ġamazing	34323
Ġdangerous	34321
Ĵ	34316
Ġexpensive	34289
ĠInstead	34268
rit	34264
ĠLemma	34225
Ġneurons	34222
Ġwitness	34218
Ġorders	34218
Ġph	34201
Ġmilk	34201
Ġvision	34197
GS	34181
ĠSer	34171
å	34163
low	34163
Ġconnect	34154
["	34150
Ġfund	34130
ĊĠĠâĢĥ	34128
ident	34120
Ġnative	34116
1000	34107
KE	34102
ivity	34097
IV	34092
ration	34086
ĠTH	34064
Sl	34063
Ġphotos	34060
Ġrecommended	34058
Ġ192	34049
ĠVa	34033
ĠBC	34029
ĠHuman	34027
={	34019
ĠFIG	34013
Äģ	34007
yr	33994
==========	33982
ians	33980
Ġop	33977
ĠCopyright	33976
Ġsupports	33974
ĠCh	33968
Ġpieces	33958
Ġmanuscript	33943
Ġpi	33921
Thanks	33917
Ġinhibition	33917
Ġ400	33915
Ġwatching	33914
water	33910
Ġ}}	33905
}"	33894
loc	33893
ĠCM	33892
ider	33891
Ġparticle	33890
ĠShi	33887
Ġsyndrome	33871
Ġpages	33871
;&	33869
Ġoffset	33868
ĠBu	33867
Ġinfo	33866
ĠSD	33838
Ġgu	33835
Ġmiss	33811
Ġcausing	33803
Ġlaunch	33794
css	33790
Ġthreat	33786
ĠVal	33778
Ġcustomer	33776
enti	33773
Ġsuccessfully	33769
Ab	33741
Ġdepend	33724
real	33723
ĠPI	33717
cer	33711
ega	33706
Ġsat	33700
000000	33688
Ġposts	33668
ĠMO	33666
Ġfruit	33649
Ġcrisis	33648
Open	33642
Ġchannels	33642
Ġthermal	33633
Ġreducing	33633
ĠMedical	33626
ĠAg	33626
lp	33624
cing	33610
Ġbright	33588
san	33585
Ġtargets	33574
ead	33566
ĠProgram	33565
Ġrecommend	33564
ĠMD	33561
Another	33553
Ġsitting	33552
Ġlargely	33542
Ġimpossible	33538
Ġbool	33528
ĠRen	33514
Ġthrow	33499
ĠClinton	33498
Ġrepresentative	33494
Ġdist	33491
Ġ97	33490
Ġpure	33489
ĠInformation	33483
card	33473
ĠpH	33457
CM	33447
Ġ86	33445
how	33440
cf	33430
msg	33414
Ġfinish	33408
OC	33397
014	33389
Ñĥ	33387
Ġinformed	33385
Ġexamine	33384
]);	33382
UR	33377
Ġstr	33377
itation	33376
align	33370
Ġresearchers	33370
Link	33366
Ġdiabetes	33366
Ġauthorities	33350
Ġtight	33349
Ġinstalled	33348
Ġautomatically	33345
Ġpromote	33338
Ġouter	33323
ĠWill	33316
ĠIndeed	33309
Ġprefer	33308
cb	33306
ĠLee	33304
Ġconstitutional	33300
ility	33297
Ġrat	33293
lem	33290
Fi	33270
response	33255
alo	33252
Call	33245
Ġfeed	33238
ĠIV	33235
^-	33227
Ġsector	33223
ĠDefendant	33222
ung	33212
rep	33211
Ġ1999	33208
Because	33199
Ġmarried	33197
lation	33180
Ġforget	33176
Ġder	33176
HC	33175
Gu	33173
Ġseat	33164
Ġexamination	33161
En	33137
echo	33135
ë	33122
Ġperi	33110
Ġconversation	33110
015	33103
Ġstrains	33087
Ġweekend	33079
ĠCentral	33079
UT	33076
oli	33070
ĠAN	33061
life	33059
ĠVer	33052
Ma	33047
Ġfore	33043
lm	33042
Ġputting	33038
Ġturns	33022
RD	33015
Ġbias	33014
Ġalpha	33009
(*	33003
ĠTR	33000
ÑĢ	32998
ĊĊĊĊĊ	32998
uni	32990
Ġfaster	32983
Ġprotected	32979
Ġjoined	32954
Before	32949
Ġunion	32940
Ġera	32940
EP	32939
ĠEnd	32926
Dec	32925
opt	32923
lar	32916
Ġfacilities	32905
Br	32896
Ġlie	32895
Ġconcerning	32894
Ġmeat	32880
Ġdream	32879
Ġherself	32873
Ġreplaced	32863
CIT	32862
Update	32847
Po	32838
ography	32810
control	32809
111	32803
ĠHE	32793
ĠGL	32793
Ġtro	32788
ĠSoftware	32784
ĠChicago	32782
ĠObject	32776
ĠBre	32771
Reg	32770
Ġacting	32765
ĊĉĠĠĠ	32765
Style	32764
dist	32763
Ġargue	32753
Ġvisible	32745
ĠIts	32741
Ġcitizens	32724
attr	32718
Ġtaste	32717
Ġformal	32717
Ġevening	32712
Ġantibodies	32707
Ġmention	32698
Ġillegal	32688
while	32687
ĉĉĉ	32665
Ġassumed	32663
xy	32658
fully	32658
Ġpsycho	32655
mem	32653
Ġadvance	32652
Ġcorner	32644
>>	32643
vs	32641
Ġcreation	32640
GC	32633
Ġ87	32625
More	32620
ĠNE	32619
125	32618
Ġinvolves	32617
180	32611
Ġtherapeutic	32593
Ġplastic	32590
dom	32587
center	32582
Ġrefer	32582
pass	32580
]\	32577
Ġharm	32568
-(	32564
Ġcandidates	32564
Ġmatters	32563
ĠMath	32563
ĠmRNA	32560
Ġdep	32558
lia	32553
Ġmerely	32550
ĠGreat	32549
approx	32542
desc	32541
ink	32538
Ind	32535
Ġsu	32526
Ġemergency	32519
Ġlayers	32518
eth	32517
Ġmoral	32513
Ġyield	32508
Ġ91	32508
ĠCha	32497
None	32495
Ġrealize	32495
Ġ89	32491
WE	32490
oph	32479
Ġdifferential	32477
Ġexperiences	32466
Ġhundreds	32460
Ġbra	32459
Ġobservation	32453
ĠDen	32453
ily	32452
Ġneutral	32450
oss	32442
Who	32431
Ġhundred	32431
ĠDM	32428
ĠCup	32423
eno	32422
Ġ110	32417
Ġperspective	32416
Inter	32407
Ġhate	32407
super	32402
sn	32398
Ġpassing	32394
math	32393
Max	32393
Ġexecutive	32382
Ġ193	32376
ÑĤ	32372
Ġuniform	32359
ĠSI	32359
ux	32358
Ġni	32358
Ġlowest	32355
PH	32345
ining	32308
Ġpairs	32305
ĠBA	32303
Cu	32296
Ġdec	32284
osi	32279
Ġlived	32275
pin	32271
Ġdetermining	32262
Block	32259
Op	32257
Ġfamiliar	32249
016	32235
Ġclosely	32233
').	32228
filter	32195
Ġinstant	32188
Ġaspect	32182
mann	32177
sup	32173
Ġrain	32163
Ġins	32163
Ġproved	32159
Ġwrt	32152
Ġ1990	32152
ĠÃł	32136
Ġcat	32130
uct	32116
oke	32103
Post	32103
Ġpolitics	32101
Ġtelling	32099
Ġposted	32094
Ġsignificance	32088
Ġwalking	32081
ĠSecurity	32074
ĠTor	32068
Ġscreening	32061
hood	32043
Ġ94	32043
FR	32041
Ġvivo	32038
]$	32029
Ġtrees	32027
Ġshooting	32025
Ġ2020	32019
Ġpin	32015
ule	32013
Ġguard	32011
ĠPower	32001
Ġserving	31991
ame	31989
Ġstack	31980
site	31979
==	31966
Ġ[[	31965
cp	31960
Ġrapid	31955
Ġliability	31942
air	31939
Ġtip	31932
Ġterminal	31905
Ġshut	31901
Ġprimarily	31900
sur	31894
AI	31894
2007	31891
Ġmonitoring	31882
note	31876
PO	31876
Ġloved	31851
ĠFile	31851
Ġtube	31847
Ġdirectory	31843
flow	31838
Ġextract	31834
Ġinitially	31833
ĠPlan	31828
minimal	31821
ĠField	31814
Ġgi	31804
=======	31795
ĠAnother	31787
Ġclassification	31782
½	31769
close	31763
GI	31753
RR	31752
Ġoperators	31751
Ġfi	31748
ĠControl	31743
Ġcities	31742
Ġblocks	31733
osa	31727
ada	31726
Ġtrend	31724
Ġidentical	31722
Ġlots	31715
Ġ98	31704
element	31699
een	31686
Ġsports	31685
Ġ93	31683
Ġregression	31679
Ġdollars	31675
Ġbeam	31669
Ġeating	31668
Ġmal	31657
ĠHol	31646
Ġinjuries	31643
ĠLike	31641
Ġleague	31636
rot	31626
Mon	31623
Ġmeta	31622
nm	31619
Ġvirtual	31613
Ġmaps	31613
Control	31609
Ġdelivered	31608
Ġdisorders	31607
Ġmedian	31601
Ġdrink	31600
oz	31597
documentclass	31593
Ġgrown	31590
Ġclassical	31585
txt	31573
Ġcloser	31573
FS	31570
sf	31558
GT	31554
Ġbusinesses	31551
ado	31548
Ġimplemented	31541
war	31526
2006	31525
sol	31524
Ġinjection	31502
BI	31501
Ġcontributions	31500
ont	31492
Am	31491
Ġassault	31489
UM	31485
ĠSU	31485
sensors	31480
Ġthick	31479
Ġconsists	31479
019	31477
Â»	31473
Ġhydro	31472
bio	31455
BE	31442
late	31441
ĠIns	31441
par	31436
most	31436
Ġaccordance	31427
Ġsensor	31422
ĠBel	31420
bc	31419
med	31418
ĠER	31414
Ġleadership	31409
BL	31408
ination	31407
Ġunc	31403
Ġbigger	31401
pan	31390
jpg	31375
Ġremoval	31372
sing	31368
250	31366
called	31352
zy	31346
Ġenhanced	31344
ĠAre	31338
Ġpossession	31336
Command	31329
ĠON	31325
Ġpet	31312
Ġprevalence	31308
<?	31307
čĊĠ	31307
Ġbodies	31302
args	31293
Ġthi	31291
ĠPlaintiff	31291
Ġneck	31282
&&	31273
}|	31269
nz	31269
Ġpatent	31261
=(	31249
Ġmechanical	31248
AG	31234
Ġextend	31230
Ġtransform	31221
Ġsurgical	31210
>,	31209
Ġorganizations	31204
Ġcaught	31197
ĠJones	31194
Ġgenome	31187
ĠLong	31180
sel	31178
sd	31174
Ġsynthesis	31169
header	31165
dra	31159
105	31151
Ġaccounts	31149
Ġapparent	31147
Stream	31142
ĠIran	31137
Ġconsequences	31134
Ġopportunities	31132
}}{\	31118
Ġelectrical	31118
border	31115
Ġcontainer	31112
Ġsorry	31110
Ġapproval	31096
hor	31081
ĠSocial	31078
ĠRO	31077
ĠInd	31073
OM	31072
Ġlocations	31072
rib	31071
Token	31062
vector	31056
Ġlib	31047
Ġ1998	31047
Ġdepression	31042
018	31033
Ġfigures	31033
-------	31028
Ġcorrectly	31028
rest	31021
Ġed	31021
bed	31012
Ġtough	31010
Ġsa	31010
ĠJan	31004
ann	31003
URL	31003
pace	30997
Ġnu	30992
Ġ\{	30992
)+	30987
Ġmaintenance	30982
Ġarrived	30973
AND	30948
yst	30943
make	30931
pdf	30923
Ġthoughts	30923
Ġinternet	30923
inv	30920
Instance	30913
Ġpathways	30913
Ġfacility	30910
ese	30900
small	30895
Net	30866
./	30860
]{},	30841
Ġplain	30840
Ġclosest	30830
dep	30825
nar	30824
Ġban	30821
Ġdenote	30818
ĠBio	30809
ĠÃĳ	30807
push	30802
av	30801
bottom	30796
Ġhi	30784
ĠSen	30772
ward	30763
®	30757
Ġproportion	30755
env	30749
Ġtrouble	30746
Ġshop	30730
ail	30728
Ġpointed	30718
Ġaccident	30715
Ġsurrounding	30710
]^.	30689
ĠPre	30689
Ġcharacteristic	30677
Ġabsolutely	30676
ÂĢ	30674
Ġdisplayed	30672
Ġmutations	30670
buf	30665
Ġregister	30651
Ġpractical	30647
Ġseed	30643
Ġpark	30637
Ġrepeated	30626
Ġbacteria	30626
Local	30615
ubuntu	30602
)/(	30590
ĠMin	30585
Ġ101	30578
used	30576
Ġapparently	30572
Ġemotional	30569
ges	30566
Ġintegrated	30561
Ġcultural	30555
ĠGar	30554
Ġrotation	30547
ĠView	30542
lam	30541
sal	30536
Ġdiameter	30528
esc	30517
ĠVan	30505
cher	30503
ĠDemocratic	30497
Ġhelping	30495
Ġtea	30488
ĠCF	30485
Ġhypothesis	30484
bound	30483
child	30461
rio	30453
Ġstages	30452
Ġden	30451
impl	30446
Ġinstruction	30443
Ġsoil	30435
ĠNA	30434
Tab	30420
Ġcentre	30419
2019	30418
under	30416
Ġprec	30414
Ġexit	30412
Ġclients	30409
Ġspectra	30396
ney	30393
Ġsmart	30367
ĠApple	30359
Ġcoupling	30357
Ġcommittee	30357
Builder	30340
ulated	30339
Top	30338
ines	30337
vol	30335
Ġincidence	30323
ico	30318
Ġsounds	30318
Ġfashion	30318
wise	30305
Ġmu	30304
017	30303
mt	30300
108	30300
ĠPT	30292
Ġadopted	30288
Ã¼	30284
ĠÎ²	30279
ĠCE	30275
vers	30274
Ġkitchen	30273
\]),	30268
Ġimplied	30260
xc	30250
Up	30246
cur	30243
dp	30236
service	30221
Ġsubmitted	30220
Attribute	30214
Ġdomestic	30199
Ġsolar	30194
Ġconviction	30190
Ġsheet	30178
Frame	30177
protected	30174
Ġrecall	30173
Ġremote	30167
nis	30159
Ġstrike	30158
="#	30145
ett	30138
Ġdraft	30133
Ġdogs	30129
imp	30124
Ġconstructed	30124
ĠCont	30117
dx	30111
RM	30110
Ġdescribes	30109
2001	30105
ĠMcC	30096
Ġpictures	30093
Ġ1997	30088
Ġargued	30085
project	30063
Ġupdated	30062
Ġcoffee	30062
ota	30061
cit	30046
ĠMartin	30045
Ġil	30039
Ġ"(	30037
ever	30033
pol	30031
EF	30028
Ġepisode	30028
Ġwh	30027
Ġtransformation	30026
ĠLake	30023
Ġclimate	30013
ĠFind	30012
ides	30005
2005	30000
ished	29997
Bra	29993
Ġimplement	29990
foo	29985
Ġcol	29985
Ġtopic	29981
=>	29977
ira	29975
}'	29970
Ġmill	29963
}{-	29960
Factory	29960
Ġprovisions	29960
Ġapart	29957
ĠLand	29956
ĠWilliams	29948
Ġmarkets	29925
Ġessentially	29924
tain	29922
Ġev	29911
det	29898
Options	29889
Supp	29887
Var	29886
tom	29882
strong	29881
MB	29870
Ġtheorem	29867
ĠEducation	29864
Ġtotally	29863
ille	29856
Ġmanage	29852
ĠAnn	29848
Ġconversion	29846
Ġmarked	29845
ĠBor	29826
Ġill	29825
ees	29815
123	29796
Ġcounts	29796
Ġexplanation	29787
Component	29776
]"	29773
:(	29765
.$	29765
FT	29750
Ġspatial	29745
etic	29740
setlength	29734
ark	29732
Ġexpand	29730
rus	29723
Ġja	29721
Ġtaxes	29714
Ġguidelines	29713
Ġfe	29706
wing	29699
TYPE	29699
Ġfeedback	29699
Ġspeaking	29690
oll	29685
âĢĺ	29683
CK	29683
ĠBlue	29674
TL	29673
lor	29670
Ġmaintained	29653
)}}	29646
Ġdesire	29630
Ġba	29629
Ġdiscretion	29627
Ġcra	29616
Ġregime	29610
\|	29599
ĠPolice	29592
Ã¶	29590
Length	29584
ila	29581
Ġprobe	29579
Ġcategories	29578
mol	29568
Ġchapter	29560
SL	29550
Ġrecording	29550
ĠKey	29549
Ġdeclared	29545
Ġultimately	29543
Results	29533
ying	29531
ĠPE	29531
+-	29528
È±	29526
}^{(	29521
Ġcognitive	29518
Ġimmediate	29515
iff	29514
Ġoffering	29505
ĠES	29499
amsmath	29497
lines	29489
Ġgrid	29486
Ġshock	29481
Ġflag	29479
Ġfo	29473
ĠAB	29471
Ġinv	29465
Ġ1000	29460
ces	29446
Ġwonder	29444
Ġcopyright	29435
####	29434
Ġtasks	29431
Ġtells	29429
ĠCare	29428
TG	29420
Ġkilling	29416
104	29415
Ġecho	29412
margin	29402
Ġcons	29395
Ġtail	29381
Ġfellow	29365
GP	29364
ĠÐ	29353
Ġgrade	29352
zing	29350
nav	29347
place	29342
109	29337
OT	29336
Ġtreatments	29332
Ġrecognition	29331
dm	29329
Ġpreparation	29325
ĠMs	29321
Ġreporting	29317
Ġ1996	29311
Ġwire	29310
194	29309
rop	29299
Resource	29297
Right	29289
ria	29284
ĠServices	29280
ship	29279
Ġfiber	29279
Impl	29278
Ġwa	29277
amssymb	29276
dan	29273
Ġexp	29271
Ġwine	29263
Controller	29241
ĠCorp	29238
ĠEM	29233
Use	29227
][@	29224
amsfonts	29208
Ġhelpful	29204
inal	29190
ĠDes	29188
Ġ{}	29176
when	29175
GG	29174
Ġpermit	29174
ĠDI	29168
neq	29162
192	29158
Ġspoke	29151
ĠChief	29151
km	29150
OD	29145
Ġrespective	29145
ĠUp	29144
Im	29143
Ġer	29142
mathrsfs	29141
Ġbars	29136
Ġfinds	29135
amsbsy	29132
Ġregulations	29132
upgreek	29131
wide	29127
Trans	29118
Ġcurves	29117
Ġlogic	29114
ĠAttorney	29114
Ġobviously	29112
ken	29111
ĠAF	29111
TER	29110
ĠOs	29106
Ġrock	29104
ĠBr	29099
Ġprinciples	29098
Ġcamp	29098
oddsidemargin	29097
face	29097
END	29097
oxy	29095
Ġca	29094
wasysym	29091
Ġclock	29091
Ġbond	29091
Ġdeliver	29077
Ġfu	29074
Ð¾	29057
ĠSk	29056
Es	29055
PRO	29054
ĠOl	29054
Pr	29048
Ġlen	29048
Ġsituations	29037
ĠDevelopment	29035
Ass	29023
**(	29023
qquad	29010
Ġencoding	29004
ĠNC	29001
Ġtumors	28996
uv	28986
ĊĠĠĠĠĠĠĠĠĠĠĠ	28980
Ġleg	28978
ĠPO	28976
Ġcha	28975
ĠCheck	28975
Ġdiscovery	28974
tm	28957
molecules	28957
els	28942
Ġraw	28934
Ġrequested	28933
Fl	28930
256	28930
ined	28921
cil	28919
Ġsal	28914
Ġnm	28906
ĠSh	28902
dh	28901
ĠOP	28883
Ġparticipate	28880
ocytes	28876
location	28874
Row	28874
Ġattend	28868
Ġworst	28865
Pe	28842
ulate	28833
ĠIsland	28830
Ġbeat	28823
Ġlies	28812
who	28807
normal	28797
ĠWho	28781
Ġcrucial	28780
Ġanyway	28780
nec	28778
mic	28777
Â	28774
Ac	28772
Ġbug	28772
ĠSecretary	28764
une	28763
Ġurl	28763
uth	28754
uch	28751
Ġyouth	28749
rich	28747
ĠGO	28744
ĠCall	28742
Ġuniversal	28737
112	28723
pack	28719
ĠHill	28714
tree	28712
los	28699
Tex	28699
Ġunf	28697
unit	28694
Ġbought	28693
Ġcompliance	28680
ils	28676
---------	28676
ancy	28675
Over	28671
Ġion	28669
Ġloan	28656
CG	28651
{"	28648
nie	28645
Ġcl	28645
Ġpulled	28638
Col	28635
^+	28631
Ġsur	28630
internal	28628
Ġstem	28627
rat	28608
Ġconfig	28604
Ġhappening	28600
Ġsuperior	28599
ĠReal	28599
Ġfamous	28590
play	28588
ĠDemocrats	28585
Ġmodify	28579
RP	28569
ĠMil	28560
ĠYu	28556
ically	28555
2004	28552
People	28550
Ġsomewhat	28549
ĠPRO	28546
Ã©r	28535
rl	28528
ĠTre	28526
ats	28524
Ġassets	28523
urg	28517
Ġbehaviour	28516
Ġtranscription	28515
Ġowners	28508
Ġspectral	28507
two	28502
Ġacademic	28498
Ġarrested	28490
Supplementary	28485
Ġcalculate	28481
Ġhurt	28479
Ġ$(\	28478
Ġgate	28473
uta	28472
HR	28468
Ġtape	28463
}}^{	28462
ici	28461
unsigned	28458
Also	28458
ĠDonald	28445
ĠBO	28433
Ġruling	28427
----------	28426
Ġdrawn	28424
Ġcal	28419
ĠJournal	28411
Step	28409
Ġteaching	28409
fp	28408
roc	28407
Ġenforcement	28407
pen	28406
Server	28397
Ġimagine	28393
gon	28389
"}](	28387
Project	28386
Red	28366
fd	28363
Function	28363
Ġglucose	28362
ĠSociety	28358
Ġworry	28343
Ġbear	28332
Ġpicking	28325
Ġsegment	28324
Ġintelligence	28323
HS	28303
140	28299
Ġinfected	28298
tw	28292
Ġdeaths	28277
ĠMicrosoft	28271
ĠDirector	28271
ras	28270
kes	28268
Reference	28265
ĠGold	28263
band	28261
Ġpreferred	28251
Ġdriven	28245
Ġmapping	28229
eps	28210
Ġwonderful	28209
Ġrequests	28204
ĠBR	28190
Qu	28188
conv	28186
cut	28183
Ġweather	28181
Ġfighting	28170
mes	28161
fc	28159
Description	28159
(_	28159
cho	28158
ĠMake	28153
sit	28151
Ġass	28150
before	28135
Ġcontents	28135
Ġenzyme	28133
{(	28132
)}$	28127
Ġconfirm	28122
ĠPeter	28122
Vert	28119
byte	28113
Ġvoters	28109
Ġnormally	28109
Ġvillage	28108
Ġapplying	28107
Ġhall	28104
ĠFund	28102
ories	28100
------------	28095
UC	28091
ĠÎ±	28085
ĠEp	28085
device	28082
Ġlay	28056
ctx	28052
bra	28052
ĠRock	28050
Ġnoticed	28038
Ġpowers	28034
offset	28031
Ġju	28028
Ġprepare	28025
Ġproliferation	28024
Ġec	28024
sy	28020
Ġweapons	28020
VA	28014
ique	28005
Ġrealized	27999
ĠAdditionally	27995
isa	27994
Ġmess	27993
Ġwood	27991
Ġhidden	27991
urn	27990
Configuration	27975
Ġcarrying	27970
Ġdiagnostic	27956
čĊĉĉĉ	27949
THE	27948
Ġextreme	27940
ĠHO	27923
Ġassumption	27918
Ġdivision	27917
Ġcounty	27908
GH	27906
Ġescape	27899
Ġtemplate	27886
Ġintegral	27881
Ġschedule	27879
ĠRoad	27873
Ġdischarge	27858
ĊĠĠĠĠĠĠĠĠĠĠĠĠĠ	27854
Ġreads	27851
Tri	27845
Form	27845
$_	27845
Ġourselves	27843
system	27837
Ġuncon	27830
ĠGC	27828
yd	27822
Ġtransaction	27817
ĠTop	27813
dc	27810
âĢ	27808
Ġroles	27807
Ġacids	27801
Build	27796
than	27793
>&	27793
ĠCe	27791
Ġrein	27786
Ġinfections	27781
ures	27777
Ġseparation	27775
%),	27773
weight	27768
-----------	27766
CB	27764
ĠIM	27764
bre	27760
Width	27759
Ġbeta	27759
Ġng	27752
Ġobserve	27751
kt	27738
Ġsubstantially	27736
Ġattempts	27727
Ġsetup	27722
Tu	27720
orm	27719
Thread	27696
eas	27683
law	27681
BU	27679
ren	27671
Ġboost	27657
ĠRichard	27654
FC	27645
Ġmillions	27643
Ġaccused	27643
Ġexcited	27634
ĠWal	27633
ĠAp	27633
Ġregistered	27621
Ġintermediate	27618
}\,	27598
Even	27598
Target	27595
ĠThose	27594
LC	27593
Ġmask	27593
ters	27591
Ġseparated	27586
193	27582
room	27581
Ġcolon	27580
kr	27577
iso	27574
Ġag	27573
Ġ:)	27569
Ġexperts	27566
Ġpermission	27565
Ag	27558
ĠWater	27557
what	27553
ĠKorea	27549
Ġmoderate	27544
Ġlegislation	27538
Ġpaying	27521
ĠCho	27520
sed	27513
Application	27513
isi	27512
Ġbrown	27512
Ġconstruct	27511
ili	27505
dn	27505
remove	27499
Ġmedicine	27498
Ġintegration	27496
ao	27494
ave	27488
Ġdropped	27485
Ġuniversity	27479
LP	27471
rev	27466
Ġcorrelated	27463
here	27458
Â¼	27449
Ġviral	27444
namespace	27435
Ġmetric	27417
Ġopposition	27410
About	27405
Ġplanned	27402
ĠLos	27401
ĠmM	27399
values	27381
ĠTE	27381
021	27378
ĠInf	27376
121	27368
Ġdealing	27363
Location	27348
Ġbowl	27347
Ġintroduce	27346
Ġchi	27340
thm	27337
Ġstick	27335
ald	27332
menu	27330
Ġsister	27327
Ġfee	27321
gers	27319
ĠVol	27314
Ġorgan	27310
Ġinstitutions	27307
there	27302
Ġrecognize	27298
mn	27285
ĠDivision	27282
}+\	27280
MD	27280
ĠTe	27276
Ġtranslation	27269
ĠSN	27259
Ġč	27249
Ġ250	27245
Ġ>=	27240
ĠParis	27233
common	27227
============	27225
aring	27219
Ġpurchased	27218
American	27213
Je	27212
Ġcars	27212
cript	27209
Ġconc	27201
Ġreactions	27198
Ġknowing	27195
Ġfeels	27193
ĠCard	27192
Ġconsumer	27186
Ġsimulation	27170
Ġcorporate	27165
Ġradius	27162
Ġdinner	27159
ĠĊĠĠĠĠĠĠĠ	27155
pers	27153
Ġim	27152
kar	27148
Ġsizes	27144
})}	27137
Ġcrystal	27136
ĠRoman	27132
Ġwinning	27130
Output	27120
sys	27119
Thank	27117
ĠRel	27107
Ġreligion	27094
empty	27086
ĠHam	27086
dit	27071
Ġincreasingly	27070
Ġreliable	27069
Ġgli	27068
Hey	27062
fire	27049
mathsf	27037
Ġokay	27028
az	27024
Ġpy	27014
ĠMu	27014
Ġkinds	27003
ech	26999
Ġcontroller	26998
Ġsharing	26991
Ġsurprise	26981
Ġcomplicated	26975
Many	26970
Ġindustrial	26970
Ġowned	26966
Ġtransferred	26965
cri	26962
bp	26962
Case	26962
«	26952
edit	26940
Ġvictims	26918
rar	26916
Ġrapidly	26914
cul	26911
Ġdecade	26910
fer	26896
Ġforming	26895
Ġdust	26894
Ġsubstance	26883
rp	26882
Ġoriginally	26882
Ñģ	26875
Ġok	26873
Ġpromise	26865
Ġhem	26861
)*(-	26860
Second	26857
Ġdual	26856
Ġpump	26855
Ġanswers	26844
Ġslowly	26837
OUT	26830
Ġmail	26830
Ġbr	26827
Ph	26824
Ġextensive	26817
ĠAmendment	26817
Ġflash	26811
game	26801
alt	26775
ĠLog	26775
ĠCy	26771
Ġgift	26770
====	26767
aries	26764
step	26763
Ġresist	26762
ios	26761
task	26760
ties	26758
Ġacquired	26754
Ġlattice	26747
Ġpot	26742
his	26741
ution	26724
Ġvertical	26718
ais	26716
abs	26693
tmp	26678
Ġinduction	26678
ses	26674
nl	26673
>.	26668
have	26658
Ġrent	26651
231	26643
Ġli	26639
Ġrestaurant	26623
LY	26622
Ġrisks	26621
{-	26617
asm	26615
ĠVI	26613
ĠMexico	26613
Ġaddressed	26611
ĠIraq	26607
ĠHor	26607
ĊĊĊĠĠĠĠĠĠ	26602
process	26599
ĠTro	26595
Ġana	26593
Ġpresentation	26592
Ġregulatory	26586
Ġbattery	26580
mate	26578
Ġwinter	26576
His	26573
cache	26570
)}{	26569
rim	26564
}^\	26561
Ġcu	26552
Window	26550
Address	26545
burg	26544
ĠGrand	26521
Ġflu	26517
ĠKar	26515
Ġfairly	26514
Ġreviewed	26508
~,	26505
Ġspan	26504
ito	26498
BB	26498
ĠMaybe	26496
example	26492
00000000	26491
FO	26490
Ġfails	26488
Total	26487
Ġinflammatory	26484
Ġarg	26481
Ġstatistics	26480
ĠConstitution	26480
Back	26476
month	26475
ked	26473
Ġpayments	26470
Ġaudience	26468
handle	26463
Ġdependence	26463
Ġresolve	26462
2003	26459
Like	26456
MT	26450
Ġhydrogen	26446
Ġcompensation	26446
Ġstroke	26433
TD	26431
command	26428
nia	26426
Ve	26422
unc	26419
117	26416
Ġfault	26413
ĠTC	26408
Ġenhance	26406
Ġsuffering	26402
ĠFar	26402
Ġmomentum	26399
Ġcircle	26378
Ġclusters	26369
Ġexcess	26366
ĠModel	26362
Ġconvert	26357
107	26355
Ġ1995	26333
Ġwindows	26329
ĠWilliam	26329
ĠCol	26325
idi	26323
^,	26318
Ġtele	26315
Ġgoods	26309
Ġhotel	26305
address	26303
106	26297
Ġbrowser	26296
Ġrecover	26295
Ġflux	26294
-------------	26287
Ġcoll	26285
ĠSec	26285
ĠDS	26280
ĠPur	26276
Ġpit	26269
Num	26268
Ġmigration	26265
Pl	26262
Ġtemperatures	26261
Ġdocumentation	26261
front	26255
ener	26255
kk	26254
Ġkeys	26252
Ġ\>	26247
ĠOrder	26244
UP	26235
dim	26232
Ġtwenty	26232
Ġregardless	26232
ãģ®	26230
Ġci	26230
rov	26229
xs	26223
ĠGame	26220
ela	26183
ĠWall	26174
Ġcomfortable	26173
edu	26165
Ġuniverse	26157
ĠPort	26150
ĠDR	26150
Ġengaged	26140
hot	26138
Ġvehicles	26134
Ġregional	26130
mut	26128
Ġsimulations	26125
ĠMedia	26122
sto	26115
"}),	26115
Ġbanks	26115
ĠDar	26115
Ġsurfaces	26105
Ġadverse	26105
vm	26104
IB	26102
cup	26097
,$$	26096
ĠKr	26094
ĠAI	26093
Ġpublication	26085
,$	26075
Ġcook	26074
ĠVirginia	26072
Ġchoices	26067
Ġpursuant	26063
Ġyounger	26062
then	26052
Ġshell	26048
LT	26047
Ġ1980	26045
ĠAppellant	26043
Ġaside	26034
zu	26032
Ġstrip	26016
Ġlaboratory	26006
ĠmiR	26003
Range	26002
asi	26000
Ġreform	25996
Ġrational	25992
Ġsymbol	25988
Ġuint	25986
Ġta	25984
Section	25977
Ġcoupled	25977
Ġ102	25977
Ġoperate	25956
ĠLE	25955
Ġprogression	25954
ĠSte	25951
BS	25945
Ġsuffered	25943
Ġvast	25934
Ġturning	25930
ĠPP	25929
ĠScott	25906
Ġstores	25903
spe	25896
Ġlisten	25896
'$	25892
Ġodd	25888
Ġbreath	25886
Ġmini	25884
Ġheads	25883
Ġedges	25875
Ġscenario	25874
Ġsubsequently	25868
ĠMen	25862
}},	25849
Ġsky	25848
Ġmutation	25844
Her	25842
Ġrows	25842
Ġspr	25839
Ġ104	25838
[[	25837
Ġelectrode	25829
nan	25825
Good	25825
Ġrefused	25821
ĠWhere	25821
á»	25817
ĠEvery	25815
Ġes	25810
Ġbuildings	25810
Ġelectro	25798
Ġwarning	25797
Ġhell	25797
ĠOhio	25797
ĠTeam	25793
Ġproducing	25792
Ġcolumns	25788
During	25786
Ġcapture	25784
ĠGNU	25784
Ġcalculation	25778
Ġ01	25776
Ġinhibitor	25775
Ġsmoking	25770
ĠTw	25770
Ġfoods	25768
119	25761
ĠAli	25753
Ġwalls	25750
Ġstimulation	25750
Ġgrounds	25749
Ġattempted	25748
ĠRI	25746
Ġlock	25734
TM	25731
ĠIsraeli	25731
ĠAppeals	25725
Ġstood	25723
Most	25720
Â´	25715
will	25709
Ġsubt	25705
Ġentity	25699
fill	25698
ĠURL	25698
ype	25697
NET	25696
ĠSm	25692
ĠCur	25691
Ġver	25687
Ġacc	25686
Ġapoptosis	25685
ĠStra	25684
ĠMel	25683
Rep	25676
Ġflight	25672
ĠMrs	25664
Ġcorresponds	25659
Ġproposal	25653
ground	25650
2002	25646
Ġboys	25645
ĠJewish	25644
Ġfarm	25639
Ġfacing	25624
Ġbelief	25622
Ġstands	25620
Ġbid	25614
Change	25606
Ġheter	25606
Ġsubs	25595
Ġreg	25595
Âģ	25592
Ġcontributed	25590
ENT	25581
~*	25575
Ġplenty	25574
Ġclo	25574
Did	25573
Ġbeer	25572
ĠCanadian	25570
Ġemployer	25566
eric	25560
temp	25553
ĠBush	25549
III	25547
Ġwelcome	25547
--------------	25545
Ġrepresenting	25543
Ġmacro	25543
ĠText	25543
Ġbasically	25542
Ġbin	25540
Ġroll	25535
Ġinvolvement	25529
och	25521
ĠCarolina	25518
una	25515
)|	25513
Ġlens	25508
Ġminister	25504
Ġinflammation	25504
ices	25501
High	25501
Ġversions	25498
Ġreceptors	25495
ĠGene	25490
%;	25485
Par	25476
Ġnum	25468
190	25463
Ġproceedings	25461
Expand	25457
Ġcream	25441
ĠHI	25440
022	25438
800	25437
Ġgre	25434
ĠRepublicans	25427
LS	25423
PER	25410
Ġchamber	25408
ĠMary	25402
Ġinclusion	25385
Ġcolors	25382
Ġprotest	25380
Ġarbitrary	25380
iness	25376
xt	25364
Ġyellow	25362
ĠOh	25356
Ġteacher	25353
ĠVersion	25342
ĠValue	25341
rid	25338
Ġwalked	25336
unt	25333
Ġequally	25321
ĠLouis	25312
Ġmodes	25309
Ġcomfort	25307
ĠCharles	25307
ĠZe	25300
Ġgauge	25298
Ġexecution	25296
ict	25295
ĠReview	25291
Ġconsumers	25288
Ġcoefficient	25283
vir	25281
Ġopposed	25280
Jo	25278
Ġthickness	25274
Ġisland	25272
Ġpulse	25270
Ġ<-	25258
ĠTan	25254
layer	25247
Ġperforming	25245
Ġcollect	25238
Ġbacterial	25234
full	25233
Ġtab	25233
Ġjourney	25230
Ġverdict	25226
ĠMap	25225
hes	25222
Ġmoves	25214
ific	25210
Script	25208
Ġpassword	25206
Å	25204
metric	25203
ended	25203
arch	25202
just	25195
cation	25195
ĠBell	25188
Header	25180
ĠBI	25175
"))	25163
Ġdiversity	25162
Ġagencies	25158
ĠAustralian	25156
EG	25153
Ġapplies	25152
ifying	25148
params	25147
ĠMiddle	25141
Ġfly	25139
Ø	25136
Module	25134
Ġadjacent	25131
Ġhat	25125
Ġpregnancy	25124
ĠWE	25124
replace	25122
Ġrepeat	25120
ĠRh	25119
0002	25114
elect	25106
Under	25099
Ġdecline	25098
Ġinduce	25096
Ġterr	25087
Ġcontrary	25086
Ġstronger	25083
ĠHan	25083
Ġneo	25082
Ġperiods	25079
rint	25078
Ġengage	25076
Ġpour	25073
Ġplanet	25073
Ġ1994	25072
Ġsatisfied	25067
Ġsand	25065
Ġcouncil	25063
Ġsharp	25062
Ġmes	25062
Val	25059
Finally	25057
Ġbutter	25057
via	25056
Ġhonor	25056
Ġmissed	25053
equ	25037
UL	25037
ĠHR	25028
mc	25023
tn	25020
MR	25012
ĠDoes	25006
ĠSur	25000
ĠAmong	24998
Ġstatistically	24996
Ġmutant	24996
master	24994
Ġgarden	24994
Spec	24978
Ġwherein	24976
Ġmagnitude	24973
ĠExp	24973
Ġpermanent	24971
Ġcreates	24969
access	24966
about	24964
ĠPrime	24962
white	24959
Ġbulk	24952
ĠMer	24952
Ġcards	24947
;</	24944
Ġbegins	24940
files	24935
Ġintake	24934
Ġongoing	24923
Char	24922
Ġshares	24918
ĠJoe	24916
Ġcommission	24915
Ġclassic	24909
ĠThree	24908
Ġthereof	24896
Ġspirit	24892
Ġdecreasing	24890
cpp	24886
Ġdimensions	24885
Ġcoefficients	24880
Ġhyp	24876
ĠJack	24874
External	24873
ght	24871
Ġtheme	24870
ski	24868
Ġbringing	24864
iro	24862
Ġprofiles	24854
Ġcutting	24853
ear	24848
Ġ$|	24839
Ġnewly	24833
Ġconnections	24826
127	24824
Ġmarkers	24820
FL	24813
Gen	24804
Ġevil	24801
ĠJackson	24799
ros	24798
.âĢĻ	24797
İ	24796
Ãħ	24795
Ġrank	24790
ved	24786
ĠReport	24786
113	24777
Ġexcluded	24777
Ġefficacy	24776
Ġsymmetry	24772
(\[	24771
Ġcomprehensive	24771
Ġteachers	24768
Ġanxiety	24765
Ġvictory	24756
para	24751
expect	24749
Auto	24741
mathscr	24740
OH	24740
Ġaudio	24740
Core	24735
total	24731
dal	24731
Ġconsequence	24725
Ġos	24724
Ġsick	24722
Ġlosing	24720
Edit	24717
Ġchose	24712
ĠFL	24712
ĠBL	24712
matrix	24711
ĠMike	24709
Ġtrace	24708
Non	24698
Ġshouldn	24696
Ġherein	24692
AGE	24689
kn	24684
Ġselling	24684
|-	24681
Ġrequiring	24679
Ġmanufacturing	24675
Ġdelete	24674
Ġmit	24669
Ġblind	24668
Ġcomplications	24666
Ġsaved	24662
Ġvariance	24661
Search	24652
1999	24639
John	24638
DIR	24637
Ġcorrespond	24633
Ġsubset	24632
Unit	24625
Ġextracted	24622
Ġtargeted	24620
Ġadequate	24614
Lu	24609
click	24607
Ġlesions	24603
token	24594
positive	24587
Ġpowder	24585
Ġje	24582
SET	24581
ĠHD	24581
Ġinjured	24571
ĠTim	24571
Ġradical	24565
Ġusage	24560
ĠGR	24553
now	24546
aka	24546
Ġorientation	24543
ĠYet	24540
Ġsuspect	24533
quot	24532
cks	24532
Ver	24531
214	24525
column	24524
Column	24524
ĠAv	24524
erg	24521
Ġdeclare	24521
las	24517
Dir	24509
ifies	24503
áĢ	24502
Ġtrained	24501
Ġob	24499
Def	24498
Ġanalyze	24493
Ġalign	24491
ban	24490
sql	24470
Ġinfrastructure	24468
ĠFla	24464
ICE	24448
ĠTen	24440
Connection	24435
ĠMT	24433
awa	24429
Ġstrange	24429
Ġmetabolic	24429
inte	24424
ĠNetwork	24421
Ġtour	24416
Ġpredict	24416
store	24408
RES	24407
Ġvaluable	24406
hm	24400
including	24397
Ġinsu	24390
ius	24376
Ġafternoon	24373
Ġbrings	24367
Ġprofit	24363
URE	24360
ĊĊĠĠĠ	24360
omo	24345
Ġwearing	24340
Ġconservative	24337
Ġ105	24337
Â²	24334
should	24333
Ġmoments	24328
oom	24300
rol	24299
parse	24296
Ġmild	24293
!!	24292
Ġfaces	24289
osition	24286
Ġdet	24279
Access	24278
ĠArmy	24272
git	24265
ĠStat	24265
limits	24263
Ġlymph	24263
Tree	24257
Ġcalculations	24256
lip	24255
Ġdifferentiation	24254
ĠGiven	24254
such	24248
cli	24245
ĊĠĠĠĠĊĠĠĠ	24244
Ġtechnologies	24240
Ġdiagram	24238
stat	24231
ĠTer	24231
ĠSn	24230
ond	24217
Ġactivated	24217
Ġtruck	24211
Ġreviews	24210
ele	24204
Ġ190	24202
Ġinstances	24200
Ġarchitecture	24198
uation	24192
Ġattribute	24190
Ġbridge	24187
Ġapartment	24187
Ġpitch	24184
wall	24181
Ġrely	24181
pd	24176
115	24176
had	24171
ĠGP	24171
Ġbits	24165
ĠFire	24164
born	24162
Har	24158
Ġhash	24158
Sw	24154
ced	24147
Ġreserved	24147
scope	24142
ĠLI	24142
Em	24139
Ġfolder	24139
Ġbroadcast	24137
ential	24132
Ġheader	24124
ĠBoston	24106
Ġchicken	24104
Port	24102
${	24098
town	24092
ĠFrank	24092
ĠChristmas	24086
TP	24081
ALL	24079
Ġ<=	24076
NP	24072
oto	24070
ĠED	24066
power	24063
Win	24062
Ġelected	24057
blue	24048
Ġdict	24047
Ġcardiac	24041
aging	24038
Ġrenal	24031
Ġgel	24029
Ġcloud	24024
Ġallegations	24023
Ġcomputed	24018
Ġsad	24017
bul	24015
ups	24006
Ġintroduction	24004
Ġclassified	23999
np	23997
Ġease	23986
ction	23985
Ġseriously	23983
Ġoverride	23978
Ġdedicated	23978
Current	23958
Ġsatisfy	23956
Ġordinary	23950
Ġdistributions	23946
Ġrevenue	23944
Ġpolymer	23941
ĠCra	23934
Ġgalaxies	23932
axis	23931
ĠCorporation	23929
Ð°Ð	23926
Url	23925
Ġaged	23925
Ġtract	23921
Ġhistorical	23910
change	23906
hon	23904
Ġ103	23904
hash	23902
Ġvary	23900
AK	23899
padding	23891
Make	23885
ound	23882
Ġ106	23876
Ġdecay	23875
255	23872
Ġsnow	23872
Ġsemiconductor	23872
dor	23871
ĠKh	23870
Ġsteel	23869
\;	23860
\}$	23856
.^[@	23851
opic	23850
Ġye	23850
Ġboolean	23849
Ġdiscover	23846
nb	23838
gy	23836
Ġrid	23835
Ġpaint	23832
Ġpresents	23829
Ġ$\{	23824
ull	23823
Ġgiant	23823
Ġtheoretical	23817
Ġcorrection	23817
Task	23815
.]	23815
ured	23813
iet	23811
Ġreader	23810
ĠNP	23808
vent	23805
Ġkit	23802
ĠCB	23801
ĠPri	23796
Ġperfectly	23793
export	23789
gui	23788
delete	23788
Ġbind	23788
Ġeditor	23784
Ċĉĉĉĉĉĉĉĉĉ	23782
ĠAction	23778
Ġinstrument	23777
Ġpartners	23776
Ġinvolve	23765
Ġcolour	23762
oy	23760
Ġcrew	23756
ogenic	23751
Ġdiagnosed	23750
Ġstaining	23743
ĠSimilarly	23742
Main	23740
Ġchecked	23739
Ġ1993	23738
uction	23736
product	23734
Ġillness	23730
âĢĭ	23729
FD	23729
Ġwarrant	23729
Ġanywhere	23727
Ġ1992	23720
PCR	23717
Ġmom	23717
CN	23711
gal	23708
ĠPet	23705
ĠClub	23697
ĠBon	23689
Ġlaunched	23686
Ġincubated	23677
send	23665
lg	23663
ĠNor	23663
232	23659
Ġdiffer	23657
Ġchest	23657
700	23653
Ġmetabolism	23643
Ġya	23639
Ġprediction	23637
Ġcarefully	23628
kins	23623
Ġbis	23621
ited	23619
Ġhum	23618
Tag	23611
ĠAnalysis	23608
Ġeducational	23607
Ġdiv	23605
Ġafford	23603
instance	23602
Ġ130	23600
Ġĉ	23590
ĠError	23588
Ġep	23587
Ġyesterday	23582
Ġurban	23575
Sch	23572
Ġstrict	23570
Ġcompete	23568
onic	23557
ĠRP	23557
adi	23534
---------------	23529
Ġmatches	23526
Level	23521
Ms	23512
Ġinsulin	23507
Select	23505
Introduction	23504
-*	23500
Ġbreaking	23499
grade	23495
Ġfraud	23490
ĠAngeles	23488
),\	23487
lie	23484
Ġthousand	23481
Ġstatutory	23480
ĠLight	23479
ĠLast	23475
ĠShow	23474
Ġwriter	23473
Ġride	23473
NN	23464
Ru	23461
ĠSho	23457
ĠPal	23447
United	23446
materials	23444
Does	23443
yes	23436
matic	23436
Ġste	23435
ĠDep	23432
arm	23431
^)	23430
Ġhardware	23427
acc	23425
ĠYOU	23424
global	23415
Come	23415
Doc	23408
116	23399
Ġrounded	23387
Ġdrinking	23387
ava	23376
ĠCre	23374
Ġdance	23371
sil	23367
Ġsole	23367
Ġlit	23367
oca	23363
Order	23360
Ġdomains	23345
Once	23344
Ġsufficiently	23344
FP	23340
docs	23338
ital	23334
Ġcomplexity	23332
+^	23330
Ġroutine	23330
stra	23326
Ġpartially	23326
Ġcarrier	23325
Ġà¤	23324
ĠSim	23324
Act	23319
Ġneighborhood	23317
DP	23316
Ġpseudo	23316
they	23313
Ġdataset	23313
Ġcontends	23313
ifier	23309
Ġquantitative	23306
ĠArm	23297
ĠDespite	23294
}-\	23288
Ġreact	23287
ĠCreate	23283
Cat	23278
Ġwest	23278
Ġdisclosed	23276
ĠDetermine	23273
Ġcomparable	23271
ĠOfficer	23271
Ġsomewhere	23270
Ġmonitor	23267
AE	23263
Ġreferences	23257
Ġkernel	23253
114	23251
ĠKan	23241
122	23237
Ġloaded	23236
uns	23233
KI	23230
Ġimposed	23227
Ap	23225
known	23210
Ġcontrolling	23206
zer	23205
ĠAdv	23203
Ġpred	23202
Ġyields	23201
Ġcrowd	23199
SN	23192
Ġdenominator	23192
Ġfont	23189
outs	23182
Ġrender	23182
Ġnumerical	23182
)),	23181
ĠSar	23181
ĠEX	23179
rial	23173
Ġfra	23173
Ġbelieves	23173
Write	23157
ĠIF	23148
onal	23146
Ġthrows	23142
ĠPan	23140
ĠJava	23140
ĠMass	23138
Ġjump	23135
Ġequ	23135
alg	23127
zero	23121
Ġdiscrimination	23120
mediated	23115
ĠSpecial	23112
cia	23109
itor	23103
Ġreveal	23100
________________	23098
ĠDev	23098
Ġsampling	23093
Ġspo	23076
ĠAtt	23076
Ġbehalf	23075
Ġsight	23073
Ġcommit	23060
HD	23059
Ġtables	23059
Ġperipheral	23055
}\\	23052
ĠFE	23052
Ġadmission	23049
Ġbytes	23047
sor	23046
Ġmarketing	23045
ĠBritain	23044
cus	23043
Ġtr	23037
Product	23035
Ġbread	23033
iated	23031
ĠAG	23031
ĠCell	23026
ĠLie	23023
FILE	23019
ĠHS	23017
Ġserves	23014
container	23012
Ġ180	23008
Ġcache	23001
ento	22999
Ġhonest	22998
Provider	22994
Ġgeneric	22994
ĠMet	22989
Ġeast	22985
}}}$	22977
310	22977
ĠFed	22965
Left	22955
DL	22950
Ġ".	22943
Ġhandling	22942
ami	22937
Ġkid	22934
ior	22931
MENT	22929
Ġchallenging	22928
textbf	22918
ĠSpace	22914
ĠAu	22907
Ġgrew	22899
ĠAA	22898
Ġbu	22895
?'	22893
ĠTrue	22892
Ġconstraints	22891
wr	22885
}[	22879
nom	22875
ĠMain	22872
ono	22869
Ġexplicitly	22864
Ġcited	22862
}_\	22859
COM	22851
170	22850
Ġte	22846
Ġsimultaneously	22843
ĠCat	22843
Ġfre	22841
Ġalive	22840
Ġhorizontal	22835
years	22823
cas	22821
gun	22813
Ġalgebra	22811
Ġ111	22809
iol	22808
ĠAccordingly	22807
Ġmales	22806
ĠNext	22798
wl	22792
Ġ-\	22788
Ġproven	22787
Ġtiming	22785
ĠForce	22776
Ġburn	22773
Ġneural	22767
Ġ"\	22763
210	22761
debug	22760
Ġproud	22755
ĠGro	22753
Ġhealthcare	22748
Ġvariations	22747
usr	22744
CON	22744
Ġgreatly	22738
Only	22731
ĠBased	22730
Ġbet	22722
Ġquiet	22717
Ġwheel	22716
ĠFox	22714
bd	22711
Ins	22706
Ġfiling	22700
ĠRight	22699
email	22698
ĠHTML	22696
Ġblend	22692
plane	22688
Ġdress	22687
Ġresponded	22683
ĠBol	22683
foot	22677
care	22676
191	22674
Ġamplitude	22661
?)	22657
Ġimproving	22654
move	22650
ĠAsia	22648
Debug	22646
ĠUC	22646
Ġcovering	22644
prod	22643
Ġfer	22641
Ste	22636
Ġcarcinoma	22635
west	22630
Ant	22623
Ġfewer	22623
ĠRS	22623
Ġingredients	22620
Ġfed	22612
Using	22610
Cal	22609
Ġabstract	22598
ĠOld	22593
SELECT	22583
pres	22581
ĠTechnology	22576
ĠWomen	22568
PM	22563
Gl	22560
ĠThanks	22558
ĠJr	22557
Ġprogramme	22554
Ġrose	22551
Ġpenalty	22551
ĠNon	22550
â	22544
Ġapproximation	22544
Height	22541
ĠWT	22537
clear	22531
Ġchair	22530
ĠSol	22525
ĠMatt	22523
ĠBusiness	22518
types	22517
Ġelevated	22517
Ġadministrative	22516
Ġcohort	22514
VER	22513
030	22501
Ġhasn	22497
switch	22495
Ġbottle	22495
Ġloading	22483
ĠUV	22482
usion	22481
ĠYoung	22479
Ġsending	22477
Ġinform	22477
Ġgay	22476
Ġmovies	22474
Ġnamely	22469
ĠLy	22469
Document	22465
Ġrooms	22459
'),	22456
Ġnearby	22455
ĠUser	22453
Ġbull	22441
|^	22439
Ġtrigger	22433
lay	22432
GM	22429
DF	22429
Ġcopies	22426
Ġmatching	22424
Ġfailing	22419
Ġcomparing	22418
Ġdrivers	22413
Ġquantity	22412
Ġpapers	22410
Ġdifficulty	22408
Ġcompute	22405
rv	22401
Ġcodes	22401
uck	22395
Ġnorm	22394
ĠCase	22391
ĠValley	22388
Ġblow	22384
Ġtoken	22382
window	22374
Ġomitted	22362
hing	22361
377	22361
Ġrejected	22358
enter	22355
Ġcommitment	22355
dw	22351
oper	22350
124	22350
Ġprecisely	22345
Equal	22344
Ġru	22342
Ġfrequent	22338
ĠÃĹÂ	22334
loop	22324
gov	22321
ĠLocal	22320
Ġfifth	22318
Ptr	22315
Ġinequality	22312
Ãł	22310
ĠMag	22309
sci	22304
Ġgear	22302
cro	22292
ĠCON	22291
Ġspiritual	22287
Record	22285
DT	22280
'>	22276
Ġovercome	22276
Ġinvestors	22271
Ġlunch	22270
Title	22268
Ġ128	22264
ĠOK	22260
ĠProv	22257
Ġprovider	22256
Ġdivisor	22247
Ġnotion	22240
Ġscientists	22239
Ġmachines	22239
Ġabsorption	22238
cmd	22231
Ġpr	22231
Ġexhibit	22231
Ġbuying	22222
Ġatoms	22222
Ġsmile	22220
Ġfemales	22205
ĠLove	22198
Ġcompetitive	22187
Ġbusy	22187
ĠRam	22187
Ġnaturally	22185
åħ	22177
May	22177
Ġshoot	22177
ature	22175
Ġsan	22174
Ġreward	22172
Ġdiverse	22170
ĠMaster	22170
diff	22166
Ġdoctors	22166
Ġwet	22163
_{(	22162
ĠIllinois	22160
ĠAng	22159
draw	22151
iver	22147
ents	22141
fit	22135
Ġscan	22132
ĠRob	22132
Ġclosing	22118
Look	22117
Ġcareful	22113
ĠTS	22113
Offset	22112
Ġsignature	22106
Ð²	22102
%).	22097
ido	22094
ĠEc	22094
Ġsuppress	22092
bn	22090
Ġmarker	22084
week	22081
ĠDavis	22081
ĠCivil	22080
Ġparticipation	22077
Ġcuts	22075
Ġelections	22068
Position	22067
Ġmeasuring	22065
Ġscored	22064
Ġsubmit	22063
yan	22057
Ġcheese	22056
ĠRoyal	22056
Ġroof	22055
ĠSupp	22046
Entry	22045
application	22043
cre	22042
ĠChapter	22042
pat	22039
ĠToday	22036
RF	22030
BP	22030
Ġ108	22030
spi	22029
uous	22028
!âĢĿ	22024
ĠKim	22023
Ġsurprised	22021
ĠMichigan	22013
ĠShar	22007
install	22006
Mac	22006
ĠMB	22006
Ġreduces	22004
Ġriver	21991
Ġrestricted	21990
ĠSQL	21984
Ðº	21983
}^{-	21983
sv	21980
interface	21974
ication	21968
Ġadjusted	21960
ĠBal	21958
Ġyards	21955
Ġcable	21945
domain	21944
copy	21944
ĠEst	21943
join	21942
Ġprivacy	21939
ĠNov	21931
ĠAmazon	21930
ĠCatholic	21925
Ġfeelings	21920
ĠItaly	21916
hole	21913
Ġscheduled	21912
making	21907
Ġindependently	21906
Ġleaf	21905
ĠMat	21905
Ġcomposed	21904
Ġ\;	21903
)_	21901
////////////////	21899
Ġtelephone	21898
Ġsuffer	21897
Ġcoordinates	21892
Ġcere	21882
bus	21880
Ġpepper	21876
Ds	21875
release	21873
Ġhom	21872
dict	21870
Ġcheap	21870
Template	21868
ĠImage	21865
Ġdominant	21859
Ġadds	21859
Ġarmy	21847
ĠEm	21845
Ġanymore	21836
Ġpresidential	21835
Ġbundle	21835
Ġserial	21834
Ġmistake	21834
;\	21831
Ġjo	21831
mag	21824
lon	21824
world	21820
Ġkinase	21820
Ġsuppose	21818
ĠCEO	21817
equal	21813
Ġcontinuing	21812
ĠDem	21812
auth	21802
gel	21797
Cache	21797
Ġve	21792
ĠSyria	21786
Ġskill	21782
Ġsilver	21781
oon	21775
ĠInv	21771
Ġrear	21768
iate	21759
obe	21758
ĠPut	21752
132	21751
Ġunusual	21751
Ġteeth	21750
Ġsettlement	21750
Ġinstallation	21748
Ġlipid	21745
ĠGal	21744
ĠRet	21742
Ġear	21738
IVE	21731
Ġmodification	21730
Ð»	21726
mil	21723
Ġtensor	21720
Parameter	21715
isan	21707
Ġcrimes	21707
throw	21706
Ġtalked	21706
vc	21704
bot	21703
Ġboat	21703
IG	21698
ĠEnergy	21697
SR	21695
Ġalter	21694
Ġprogramming	21693
nal	21692
ught	21688
Ã§	21684
Ġcommunications	21683
Ġko	21679
Ġaircraft	21678
ĠFort	21677
ĠNumber	21673
Ġri	21670
Ġalignment	21670
Ġbroke	21663
ĠChris	21658
Collect	21657
uss	21650
Ġprecise	21646
binding	21644
ĠResults	21644
Ġloose	21643
ĠHave	21642
Ġgenerating	21637
023	21636
Ġsmoke	21628
Ġ"$	21626
ibly	21624
wd	21618
Ġopinions	21617
ĠBest	21617
sat	21615
bat	21615
Ġga	21600
ĠWA	21598
Ġsol	21593
tx	21586
Ġski	21578
Ġwealth	21576
transform	21570
Ġarc	21570
reference	21567
ody	21567
ĠHC	21564
Ġlegs	21563
Long	21562
Okay	21561
ĠArch	21557
Ġlists	21556
Ġmanifest	21555
fre	21554
ĠSpe	21545
Ġshoulder	21541
Ġwaves	21534
Ġlocally	21534
Ġva	21532
Ġafraid	21532
Ġexecuted	21530
Ġdad	21529
Ġvectors	21528
Device	21526
.;	21525
Ġinsert	21524
Ġdanger	21524
ĠCom	21518
track	21517
Ġ140	21514
ĠPra	21513
Ġ125	21503
ĠNY	21499
Ġhide	21498
pop	21495
ML	21492
AV	21491
Ġreceiver	21491
Ġ**(	21488
Ġcrazy	21485
Free	21481
Ġoccurrence	21477
126	21475
Ġinfinite	21475
ĠNF	21475
tp	21473
Ġextraction	21473
Phys	21471
Ã¢	21468
sign	21468
Ġsuddenly	21466
Ġpetitioner	21465
\>	21461
Ġrefers	21455
ĠYear	21454
rea	21441
Ġhouses	21436
Ġaimed	21427
Process	21417
Appellant	21416
Î	21414
Mc	21412
ĠItalian	21412
nh	21411
gp	21411
ĠForm	21410
Sal	21408
Ġlip	21404
ERROR	21403
addr	21402
Ġ112	21400
ella	21399
ĠTB	21399
Photo	21396
Ġinhibitors	21395
Ġalert	21395
Inst	21389
Ġbath	21389
ĠMiss	21388
Ġtaught	21384
Ġjail	21380
','	21377
Ġwhenever	21375
Ġacquisition	21375
'_	21371
Ġlab	21371
support	21366
eff	21362
133	21358
Fin	21352
118	21350
Ġstreets	21347
DNA	21338
ĠGeorgia	21337
ĠBY	21336
ĠJe	21334
Ġcultures	21333
dar	21331
ĠSon	21331
Ġforum	21329
Http	21327
ĠAsian	21324
Ġenabled	21318
ĠLS	21311
Ġdrag	21310
Ġbur	21306
Ġcont	21301
ĠProp	21297
Ġexpenses	21291
Ġencourage	21288
Ġpriority	21286
ĠDisc	21286
Ġpartition	21284
Ġvital	21283
Ġsqu	21280
Ġtemporary	21279
Ġpur	21275
131	21274
Ġplea	21273
ĠMed	21273
Put	21271
Ġpassage	21271
session	21270
Ġbreach	21266
amb	21265
>\	21264
DU	21263
Ġweapon	21260
connect	21253
oop	21252
Ġexplicit	21252
ĠRay	21250
Entity	21242
Ġ160	21240
Ġlease	21237
ĠProposition	21236
!\	21232
)$$	21229
Ġconsecutive	21229
ĠEli	21227
ĠManagement	21225
Ġatmosphere	21221
ĠBefore	21221
Ġwestern	21219
gate	21216
\[[@	21214
Ġwatched	21211
Activity	21210
rum	21209
Ġdistinguish	21208
fast	21205
ĠCross	21204
ĠØ	21203
tol	21201
Ġupdates	21196
odo	21195
cker	21194
Ġplurality	21194
Ġpret	21193
Ġproduces	21190
ĠFour	21181
Ġnerve	21179
Ġsymmetric	21177
Ġ1991	21174
ĠAnti	21173
rect	21172
ĠRights	21171
virtual	21165
Ġappreciate	21162
ways	21161
Ġexecute	21160
ĠDB	21154
Ġ::	21154
screen	21150
methyl	21148
Ġfrequencies	21148
ĠGra	21148
Ġalt	21143
Ġvalve	21141
Ġearn	21139
Ġsoul	21137
Ġtrading	21132
Cy	21128
Ġcrack	21121
ä»	21118
ĠWork	21118
Listener	21116
register	21108
Os	21107
():	21101
Ġpsychological	21099
Ġawareness	21099
ĠMR	21097
ril	21096
ishing	21095
Ġtiny	21092
bel	21090
Ġreasonably	21086
ĠPolicy	21083
0005	21076
Ġhook	21067
ede	21061
ATION	21061
Ġassist	21057
mac	21055
help	21049
ocation	21042
cn	21037
Ġ}\	21037
Ġpipe	21035
green	21034
hol	21031
,{\	21031
ĠSR	21023
Ġlosses	21021
135	21020
Ġlawyer	21020
Ġprocessed	21019
Ġplates	21019
Ġpersonnel	21016
Ġ189	21005
Ġimprovements	21004
ison	21003
Ġtranscript	21003
ape	20999
xf	20996
second	20996
hop	20996
RY	20994
Ġsauce	20987
ĠTake	20987
Ġsomehow	20985
wrap	20984
ĠPhoto	20983
iri	20980
General	20979
Ġcrash	20973
ĠKn	20970
Ir	20968
Sort	20965
Ġgang	20961
Ġwitnesses	20959
ĠDer	20959
Ġstruggle	20954
Ġweren	20953
ĠJu	20953
chain	20943
bigg	20941
linear	20938
Ġ};	20938
Ġtalks	20933
Ġdump	20927
Ġproviders	20926
ĠWin	20926
ĠVe	20923
Ġtank	20918
Ġexplains	20918
Ġvascular	20916
ĠBack	20916
Ġtexture	20915
Ġoxide	20914
Rel	20910
ï	20905
~)	20905
hem	20905
Ġholes	20905
Ġfluorescence	20904
Ġvideos	20902
Sen	20896
Ġantigen	20892
Ġminimize	20879
olo	20876
Ġtemporal	20874
ĠRest	20872
Theta	20868
Ġorganized	20867
Store	20866
ĠGlobal	20866
negative	20865
Ġmarks	20865
Disc	20863
eur	20860
Ġcampus	20849
iel	20842
-$	20841
Ġgoverning	20840
ĠAsh	20837
Ġaffirm	20834
Ġadopt	20834
Ġlift	20832
Â¿	20828
)'	20826
ĠBan	20825
Med	20819
none	20813
rom	20812
deg	20808
Ġstone	20802
Ġreturning	20801
Ġmanufacturer	20798
Ġ>>	20793
Ġ&\	20790
Ġrespiratory	20783
ject	20780
lis	20778
Ġroughly	20778
Ġunlikely	20775
angle	20773
ĠLC	20765
/.	20764
Â®	20761
ued	20761
ĠConf	20760
Ġinterior	20758
Ġdestroy	20758
Ġdem	20755
Ġcreative	20748
Ġtu	20747
Ġinvariant	20747
Load	20745
Ev	20745
ulating	20742
Î³	20738
render	20732
Ġinteract	20732
ston	20731
Ġ600	20726
129	20721
Ġent	20720
ĠBP	20720
ĠĠĠĊĠ	20719
Mark	20713
Ġnervous	20713
1998	20711
Ġcooking	20709
ĠCook	20707
pad	20701
147	20701
Ġdirections	20699
plot	20695
thread	20694
Ġ($\	20694
Ġpermitted	20691
ĠFR	20689
Ġuncertainty	20688
Ġrecipe	20681
'\	20680
ĠThank	20677
ott	20674
OO	20672
ĠMiller	20671
Ġtall	20670
Ġelsewhere	20670
press	20669
Ġ(%)	20664
Ġinvalid	20662
itive	20656
Ġeliminate	20655
raw	20654
ĠBro	20652
ĠÏ	20650
report	20646
record	20646
ĠUP	20645
elo	20643
ĠWilson	20643
ACT	20642
Ġmeal	20642
Ġpad	20641
Ġignore	20640
Ġfabric	20639
Ġcovers	20638
Ġfoundation	20631
Container	20629
ĠBM	20629
icit	20626
Ġcre	20626
mine	20623
Ġstretch	20623
217	20620
ĠCentre	20620
JS	20618
ĠNat	20614
Ġvertex	20612
Ġparking	20609
Ġdisagree	20608
pic	20607
ĠFC	20607
comm	20599
Ġdeviation	20599
Ġsystematic	20594
Ġverify	20588
Ġbounded	20586
Ġcleaning	20585
ĠVA	20581
Ġcro	20572
Ġrestriction	20568
race	20566
yer	20564
ĠAlex	20564
Ġpatch	20543
Ġkeeps	20537
Ġcompletion	20533
Ġconsisting	20530
Ġcycles	20527
sr	20526
Ġsodium	20526
ĠRepublic	20526
Ġinvasion	20524
Ġmod	20522
Ġkn	20519
0003	20518
ĠBou	20518
Mod	20513
ĠCN	20510
Ġevident	20505
Ġseasons	20502
Hy	20501
Ġcor	20492
Ġchecks	20492
Ġviolent	20491
ĠMuslim	20489
stone	20486
Ġconsole	20485
Ġutility	20484
ĠBase	20483
ĠGM	20478
ĠMax	20477
Ġmarijuana	20475
Show	20472
Ġaffects	20470
Ġattributes	20467
Ġcontracts	20466
ree	20464
por	20460
Ġalgorithms	20458
Ġdisability	20453
Ġarch	20453
Ġconclusions	20451
Ġpeptide	20443
======	20442
Ġbike	20442
Ġoffensive	20436
stein	20430
lab	20430
\^	20427
Ġ1970	20426
dro	20420
Ġconcrete	20418
Ġchip	20418
expr	20417
Ġscattering	20410
Ġtheories	20408
Ġrice	20405
Ġwake	20403
RG	20402
\.	20401
even	20393
Ġmedication	20393
region	20387
Ġconsiderable	20386
Ù	20384
WS	20379
ĠRF	20378
Ġresonance	20376
ĠAge	20374
Ġaccumulation	20369
Ġreaders	20363
ĠPin	20362
CU	20358
ĠLett	20352
Ġunt	20348
ben	20344
Ġonset	20344
cle	20341
Ġpor	20340
Ġcert	20340
textrm	20338
ots	20336
ĠÑģ	20334
raise	20327
oplus	20327
hd	20326
GB	20324
save	20323
Assert	20319
Ġhybrid	20319
language	20316
900	20316
175	20316
Types	20314
!)	20314
Ġmas	20313
Ce	20311
SIZE	20309
Ġrobust	20309
Ġdispute	20307
Ġgeometry	20298
Ġavailability	20291
Ġrural	20286
Ġconverted	20281
Ġmodules	20277
Ġdoctrine	20277
ĠIslam	20277
Ġviewed	20275
Ġmaintaining	20275
treated	20273
SF	20270
Ġprevention	20270
ĠGS	20270
Ġspec	20264
Ġhorse	20262
ĠCG	20262
disp	20260
ĠFROM	20258
ĠÃ©	20257
anc	20256
Ġpushed	20256
ude	20255
mis	20252
mia	20252
ĠJersey	20246
Ġvol	20242
ĠET	20239
eed	20236
WH	20233
Ġcoli	20232
Ġpilot	20229
Ġpersonally	20229
Ġsong	20227
Ġhang	20225
Ġcraft	20221
Ġaggressive	20221
$^{	20217
168	20215
Pos	20214
tf	20206
Ġ((-	20202
API	20200
Ġadvantages	20191
profile	20190
Ċĉĉĉĉĉĉĉ	20188
ĠWil	20181
Ġking	20180
ĠPH	20177
Ġsmell	20173
Ġphenomenon	20159
uel	20155
ĠâĢ	20155
220	20152
Ġom	20148
queue	20147
Ġ107	20147
Ġresolved	20146
Ġconvicted	20144
Vector	20143
Ġdysfunction	20143
cou	20142
Ġguarantee	20142
comment	20139
ĠTM	20134
fore	20132
black	20132
Ġfired	20131
phone	20129
Ġ{{	20129
being	20127
Ġsurvive	20127
Ġdiscussions	20125
Ġinterference	20123
Ġteach	20118
Ġquasi	20115
drop	20114
144	20112
Ġsequencing	20111
Ġmirror	20108
Ġlifetime	20105
Ġ''	20105
}}}\	20103
ĠÐ²	20099
Ġcart	20098
Ġending	20097
Ġastr	20096
Run	20094
ĠFood	20092
Ġhousehold	20091
images	20087
Ġmargin	20086
ĠFra	20085
Mu	20082
bing	20081
Ġbarrier	20079
Ġrede	20077
ĠBS	20075
Ġdefeat	20073
Ġvacuum	20070
mel	20064
ĠSource	20056
STR	20054
Ġregularly	20051
ĠCount	20051
Ġkm	20050
Ġownership	20045
fb	20037
ĠMad	20037
Ġenc	20035
Tool	20032
Ġcompeting	20032
IST	20025
Ġpaths	20025
Ġ123	20024
Ġsir	20021
Ġeggs	20016
ĠLine	20012
ĠSouthern	20007
Ġfinger	20006
ĠMicro	20006
ĠImp	20006
Ben	20005
Ġtens	20001
Ġoperated	19997
Ġ"/	19996
ĠGer	19989
Ġexclusive	19988
;">	19987
Ġcomprising	19984
ogen	19981
Ġcoal	19980
Ġprofessor	19976
248	19967
ĠWood	19965
ĠApplication	19959
Ġthinks	19956
Ġcenters	19955
Att	19954
ĠPres	19954
edge	19953
ographic	19952
rob	19951
fields	19950
Rect	19949
Ġentries	19947
rac	19944
Grid	19942
ĠCommunity	19936
ching	19935
enum	19929
Sm	19922
Ġliberal	19921
Ġguns	19921
vy	19919
Child	19919
Ġip	19914
jar	19912
member	19907
Ġ(âĢľ	19906
pur	19904
Ġentering	19901
wedge	19899
mus	19895
GET	19894
Ġfusion	19894
cons	19889
uff	19887
mber	19880
ĠDescription	19879
insert	19878
Ġancient	19866
Ġstrings	19865
Ġgovernments	19858
Ġdegradation	19857
Ġjudicial	19854
ĠHal	19852
ĠArab	19850
figure	19849
gm	19847
Ġfalling	19847
wave	19846
]=	19845
Ġhack	19841
ĠDesign	19836
Ġms	19831
family	19829
Ġsustained	19828
round	19821
Exp	19821
Ġtomorrow	19818
ATE	19817
Ġ109	19817
))/(	19804
Ġflavor	19801
Ġcaptured	19798
Ġì	19791
Ġreaching	19787
Ġsatisfies	19785
Ġdemands	19782
nf	19780
Ġknee	19776
Ġinterventions	19776
Bio	19773
Ġcolleagues	19772
ops	19763
Ġoste	19755
}({\	19752
wp	19752
Ġvice	19752
Ġcond	19750
Ġstorm	19749
ĠRem	19749
Ġrecommendations	19748
Ġ187	19746
ract	19745
person	19744
Ġremoving	19744
Ġdiff	19742
ĠMill	19736
Inv	19733
vor	19732
Ġcoding	19730
Ġext	19728
ĠPoint	19728
Age	19727
Ġinverse	19726
ope	19725
Ġ115	19720
iy	19718
SQL	19716
ien	19715
Ġcoast	19714
Ġ$[	19714
155	19713
Ġadmit	19710
Ġtemp	19706
ĠSpanish	19702
NF	19700
Ġdismissed	19695
Ġfalls	19689
ĠDist	19688
ĠÎ	19679
Ġportions	19679
Ġincorporated	19679
OF	19678
Ġroots	19678
each	19676
ĠMi	19675
ĠConference	19674
Ġmut	19671
opa	19670
Ġobj	19670
Ġexpanded	19667
Ġqualified	19656
Ñĭ	19653
Ġworldwide	19646
stop	19641
ĠHy	19638
Ġarise	19636
sic	19634
sens	19632
ette	19632
Ġmasses	19632
Session	19624
ience	19622
gene	19615
Ġlayout	19614
Ġkidney	19614
Met	19612
ias	19609
Ġprospective	19608
aff	19596
AU	19596
spin	19595
Ġstations	19595
Operation	19594
ĠÂ°	19591
Ġfaced	19591
145	19587
Ġadministered	19585
Ġassays	19582
Ġloud	19579
enh	19576
ĠFrancisco	19576
204	19572
subseteq	19571
Ġcontest	19567
nos	19566
iding	19565
Ġprejudice	19563
Has	19561
Ġexcessive	19551
Ġrem	19534
Expression	19533
áĥ	19523
Ġdoors	19522
Ġfolks	19521
lement	19517
PU	19517
HT	19517
Ġflo	19515
ĠNFL	19512
Rule	19507
Ġresidence	19505
ĠÂ¶	19504
component	19503
INE	19503
Ġseparately	19501
guard	19500
ĠCas	19500
Ġstuck	19493
Ġdecreases	19493
mean	19491
Ġscales	19489
emp	19488
Ġgut	19486
associated	19484
NR	19483
]{}]{}	19478
ĠTea	19476
gent	19474
sort	19473
Ġglad	19473
Ġworker	19471
yme	19470
wt	19466
console	19464
ĠPakistan	19464
HP	19459
ĠEN	19459
ĠServer	19456
ĠApache	19455
License	19454
ĠSF	19454
Ġprominent	19451
ĠPay	19450
ĠHenry	19448
ĠLatin	19447
ĠDid	19444
Ġmortgage	19441
Ġpackages	19437
*]{},	19432
Sk	19429
Ġintervals	19429
Ġspl	19428
Ġdeb	19420
Ġvotes	19418
Ġrub	19415
280	19412
Ġfriendly	19408
Ġprotective	19404
Ġphysics	19403
Ġtoxic	19401
ĠTrust	19401
Ġ1989	19400
vic	19395
Ġtargeting	19395
Ġgradient	19391
Mor	19389
Ġbunch	19385
iant	19383
Ġegg	19381
translation	19375
153	19373
uer	19367
ĠUr	19362
ĠGI	19362
Interface	19361
Ġbeach	19361
hour	19355
Ġprofessionals	19354
Have	19352
Ġshit	19350
Ġcommut	19350
bt	19342
ĠLev	19342
Ġmounted	19331
Ġclinic	19329
ĠSat	19322
dam	19321
141	19321
KEY	19318
Ġpromoter	19308
ĠCons	19298
Ġcr	19295
Ġbearing	19295
Ġrising	19294
igen	19291
:=	19289
xx	19281
Ġargs	19281
ĠChar	19281
hw	19278
Del	19277
ĠNu	19275
Ġvariants	19272
UA	19269
Ġaddresses	19265
Ġbands	19258
TV	19254
>)	19248
osed	19246
Ġps	19244
Ġscalar	19242
Ġappointed	19242
arc	19241
Ġthr	19241
Ġheavily	19240
Ġflexible	19240
setminus	19239
short	19236
defined	19232
ĠDate	19232
mask	19231
genes	19230
ĠDef	19227
lets	19226
Det	19226
gc	19221
Ġtre	19220
Ġ188	19219
iled	19218
Ġnamespace	19218
Ġdb	19215
Ġpasses	19209
activity	19208
Ġreflected	19203
Ġconstitute	19201
CAT	19200
izes	19197
Ġlikelihood	19197
Ġemb	19194
Ġjuice	19193
colon	19192
BER	19192
ĠCro	19190
Ġ1988	19190
Ġabsent	19189
ĠDor	19187
Ġappeals	19186
Ġexpectations	19181
Ġaccomplish	19181
ield	19178
ĠMah	19175
Ġpace	19157
Ġinsufficient	19152
zh	19141
TRA	19140
Ġratios	19140
through	19133
ĠBob	19132
Ġsoldiers	19128
Ġsuspension	19127
Â»Â	19125
ols	19124
Ġmovements	19123
Ġvalidation	19122
Ġdismiss	19122
ĠSand	19122
Ġexpressions	19121
Ġbatch	19121
yy	19120
|}	19119
ĠStudies	19119
Ġdrawing	19118
Ġpm	19117
Ġvis	19115
Ġseeds	19115
MAX	19114
Ġvaccine	19112
kan	19108
ĠRat	19107
Ġseverity	19105
Ġyeah	19104
Ġsolely	19104
ĠFl	19104
Ġlimitation	19103
Ġgod	19103
Ġdish	19103
Ġconstantly	19101
kel	19100
Ġnp	19096
Ġimm	19094
eral	19092
Ġsimilarly	19091
ĠEP	19090
odi	19088
Ġsees	19087
}.$$	19086
ĠWord	19086
Ġhospitals	19081
Ġadvertising	19080
yi	19079
Ġstupid	19076
Ġpromotion	19076
Ġjoy	19076
ĠHas	19075
ĠFarm	19075
Ġenzymes	19073
../	19070
Ġrelating	19068
pal	19060
ington	19059
Ġbeauty	19059
ival	19051
=-	19051
Ä	19049
ĠRun	19048
proc	19047
ĠSir	19046
ĠPlay	19045
Ġ\"	19043
DIS	19031
Ġtap	19031
Ġanswered	19030
Ġengineering	19025
Ġtriple	19024
ĠIr	19024
Ġslip	19023
ĠTaylor	19023
ĠBeach	19017
stack	19014
wer	19012
Ġdestination	19010
inate	19007
Ġawarded	19006
Ġrestrictions	19005
channel	19004
Ext	19003
Ġsubjected	19003
Ġfeeding	19003
ĠEs	18999
ocal	18996
Ġcru	18992
Ġmeetings	18990
Ġforest	18989
Three	18988
Ġhist	18988
Ġorth	18985
Sim	18984
Ġcomprises	18982
uli	18979
ational	18978
vari	18974
ih	18972
ĠJud	18971
imate	18969
ĠDaniel	18969
Ġpat	18966
ãĢģ	18965
printf	18965
ologic	18961
Ġassistant	18960
ĠAcademy	18960
erc	18954
ACE	18954
åı	18949
Ġcoordinate	18949
mov	18948
ĠRC	18946
Ġcontra	18945
Ġbeneficial	18945
isk	18943
San	18941
PF	18941
Ġhoping	18938
ĠPage	18937
ÎĶ	18933
Ġdisclosure	18932
Ġsupplied	18931
widget	18928
bling	18927
rian	18925
asp	18922
Ġcomp	18920
Ġslight	18919
136	18916
bell	18915
ĠALL	18914
Ġdense	18909
kind	18906
shape	18905
ĠTour	18903
wan	18902
eter	18900
ĠCU	18897
ijerph	18896
Ġnations	18894
grid	18891
PB	18891
Ġenjoyed	18890
Ġmanual	18887
oro	18886
ĠPatent	18886
Ġvarying	18885
ĠOff	18885
Vis	18882
aut	18879
iling	18876
Ġimplications	18876
ĠMedicine	18876
Ġprojection	18874
Settings	18870
Ġprosecution	18870
Ġlights	18866
inn	18861
Ġproceed	18860
Ġedit	18860
Ġresidual	18857
pir	18854
Ġ113	18853
Ġshr	18852
ĠAnal	18852
Ali	18851
[**	18849
205	18848
Ġphysician	18848
Ġcombat	18846
GF	18842
ĠBoy	18842
away	18839
ĠWas	18838
Ġneedle	18836
Ġimmunity	18836
ĠMajor	18835
Ġaccessible	18834
'(	18829
mas	18827
Ġclothes	18825
<\	18820
toc	18815
**.	18813
ense	18812
Body	18812
ipe	18805
).$$	18805
QU	18791
Ġages	18791
EB	18789
Ġproceeding	18789
ĠAndroid	18785
ester	18784
ĠWITHOUT	18782
}}$.	18781
cells	18781
Ġmaximal	18778
ĠIslamic	18777
cis	18773
good	18771
uro	18770
ĠCarl	18764
prom	18760
ĠHon	18759
Ġchart	18757
}})$	18756
Day	18756
Ġsuicide	18750
asse	18749
Pol	18749
<<	18744
Ġsilicon	18744
Ġlaid	18739
ĠFBI	18739
ĠNorthern	18738
tools	18737
ĠPennsylvania	18729
Ġcalm	18722
Ġ186	18711
cop	18708
âĢħ	18705
Ġbonds	18704
Ġbomb	18704
rated	18703
Ġabundance	18697
iar	18690
ĠLow	18689
Ġheating	18682
Close	18680
Rs	18678
rf	18675
Ġchem	18674
underline	18673
Each	18673
Ġcalcium	18673
Wa	18670
ĠDiv	18670
Ġchat	18669
ĠFre	18664
ĠSche	18655
inst	18653
ĠJoseph	18652
Ġtips	18650
Media	18649
cam	18646
Ġpixel	18645
Ġjet	18645
ĠDam	18642
Ġsizeof	18641
Menu	18640
ĠEA	18640
ĠSL	18635
Ġartery	18634
ĠAndrew	18633
ĠTax	18632
Ġcord	18630
ection	18626
Ġpack	18622
Ġgar	18619
`,	18609
Ġcle	18609
Ġvitamin	18605
Ġranging	18599
ĠWeek	18577
Ġimmigration	18576
Ġcorporation	18576
Ġdefensive	18574
ĠArticle	18574
Ġdestroyed	18567
Defendant	18563
Ġautomatic	18560
âĪ	18555
ĊĊĉĉĉ	18554
Ġdesirable	18547
Ġsupers	18544
Ġtrim	18543
bes	18537
Ġlogical	18533
lio	18522
gro	18522
Ġdevelopers	18522
ĠRyan	18521
AY	18519
ĠGreek	18519
Ġdys	18518
Av	18517
Ġfur	18517
Ġink	18514
ĠWhether	18514
gre	18510
040	18507
iance	18501
ĠAdministration	18500
unk	18498
Ġcollective	18498
Ġfunc	18495
Ġpal	18487
Ġdefines	18486
Ġfibr	18483
Ġeligible	18483
Ġgrass	18480
Ġspecify	18479
.),	18478
Ġinsight	18478
Ġarmed	18476
Ġ114	18475
Ġ\|	18474
square	18470
emb	18468
Ġluck	18468
Ġeffectiveness	18468
Er	18465
Ġproc	18465
Ġaltered	18460
ĠLinux	18460
Thus	18457
Ġacceptable	18457
ĠKer	18454
scripts	18451
OW	18446
inated	18443
Ġearned	18443
ois	18442
ĠTI	18442
ĠLtd	18442
Ġfragment	18441
Ġaff	18439
Ġerred	18437
Ġphosph	18433
Ġlateral	18433
ĊĊĠĠĠĠĠĠĠĠĠ	18431
.(	18427
Ġdesc	18427
Ġassignment	18427
Ġstruck	18424
dagger	18423
Work	18423
Background	18417
gie	18415
Ġattractive	18415
Ġconsistently	18414
Ġpreliminary	18409
Ġsport	18406
Ġedition	18404
pto	18402
Ġunclear	18401
uce	18397
Ġwound	18394
fall	18392
Ġguidance	18392
Ġ02	18391
anal	18385
ĠPol	18384
ĠPatients	18382
è¯	18380
ĠMM	18380
Ġaer	18378
Cap	18377
CV	18376
1996	18376
Ġvoting	18373
isc	18367
Utils	18366
ean	18365
ĠHead	18364
Fla	18363
ĠSteve	18362
ulin	18353
Ġhadn	18353
Ġmatrices	18350
Dialog	18349
pool	18346
Ġsessions	18345
Ġfacilitate	18345
Match	18343
Ġintention	18335
Ġ&=	18335
mot	18334
kit	18332
Ġskip	18330
Ġpipeline	18330
Ġperceived	18322
_+	18321
Ġ\}	18321
Ġmol	18318
ĠSanta	18318
Ġeverybody	18316
143	18314
phase	18313
*\	18313
Ġboot	18311
Ġmolecule	18310
Ġpoll	18305
Ġgen	18300
FB	18298
Ġtar	18294
atin	18292
news	18291
Ġarrangement	18291
Ġsac	18289
ĠHard	18287
ĠSym	18281
Au	18280
watch	18279
ĠBer	18276
Ġnormalized	18275
Ġtone	18271
flags	18269
extra	18267
ĠMulti	18267
ively	18262
Ġtracking	18261
Ġattract	18255
ĠAuto	18253
ĠDun	18247
Ã©s	18245
Ġoverlap	18243
Ġsystemic	18242
>"	18241
ĠDue	18241
PRE	18240
ĠIm	18239
Ġvisited	18238
Ġintense	18238
Ġshopping	18233
Ġcomplexes	18232
ãģĦ	18230
bor	18226
Ġsteady	18225
Ġiter	18225
Ġflags	18224
Ġidentifying	18223
mond	18220
sample	18219
Ġbirds	18219
025	18218
Ġrarely	18217
UE	18214
}}}(	18213
Ġruled	18209
Ġprecision	18207
Ġadapt	18207
=$	18205
Ġrandomly	18204
Ġregistration	18200
Ġtreating	18198
walk	18197
Ġpromising	18196
Ġmountain	18194
omer	18193
Ġattended	18193
Ġdesigns	18187
NULL	18185
Ġchildhood	18181
Ġshorter	18179
Ġpoliticians	18177
Bro	18172
ĠJews	18172
vt	18170
Ġcry	18169
ĠColorado	18168
Ġaging	18167
ĠIreland	18166
Handle	18163
Ġtransportation	18162
ĠBook	18161
yard	18159
Ġmat	18158
ump	18157
TY	18156
sym	18153
edi	18149
ĠRB	18149
iot	18147
Che	18146
Ġprep	18146
Ġultimate	18141
Ġartificial	18138
cel	18135
$]{}	18135
Ġdest	18130
wait	18129
Ð½	18124
ĠMid	18124
Hello	18121
gly	18120
Ġflour	18120
1997	18117
Ġchemotherapy	18117
Ã©e	18116
pose	18113
ĠLen	18112
}}_{\	18111
Ġwashed	18111
Ġmagnet	18110
tbl	18108
Every	18107
ĠJim	18105
tool	18100
pb	18099
ĠTown	18099
Ġpregnant	18097
nder	18094
Ġdeeply	18092
ĠAcc	18090
Ġsto	18089
ĠEll	18089
Ġ121	18088
category	18087
Pat	18085
Ts	18083
0004	18083
Ġmagic	18082
ĠLT	18082
rie	18081
="../../../../	18079
avi	18074
Ġdeposition	18074
Ġblame	18069
Ġintegrity	18067
ĠSupport	18066
Ġharder	18064
Ġconcepts	18063
Ġnotation	18052
Ġrh	18048
ĠStandard	18047
ĠArizona	18047
Ġmold	18042
ĠPython	18040
Ġwash	18035
Take	18031
enc	18030
Ġpol	18029
did	18026
appe	18023
Ġclause	18022
Font	18020
Ġeverywhere	18020
ĠKl	18015
Ġdenial	18010
ume	18008
Ġresidues	18007
area	18004
Author	18000
Ġforever	18000
Ġ202	17996
icle	17987
ĠSoc	17985
ĠAgreement	17984
cycle	17982
Ġdefend	17975
Ġdefect	17975
ĠKit	17965
ason	17964
Ġmixing	17961
\,\	17954
Ġallegedly	17953
nel	17950
Ġmere	17946
Ġangular	17946
Ġphases	17945
ĠNevertheless	17945
ĠBas	17941
Ġprogressive	17936
ĠUpdate	17935
ç»	17931
nea	17931
Ġamended	17929
}}$,	17925
items	17921
Ġfunny	17919
ĠPath	17914
inline	17911
Ġdemo	17911
ulo	17905
Ġinstitution	17902
Ġretain	17901
Ġfinance	17899
}}(\	17898
ĠTHIS	17898
ĠDefendants	17897
carbon	17896
Ġsentencing	17894
Ġsig	17888
Ġ+/-	17884
Convert	17883
Ġimpairment	17883
Ġclosure	17883
Hash	17882
Ġinit	17882
Ġnewspaper	17880
zone	17874
Ġcomputing	17870
because	17868
ĠUnfortunately	17862
perp	17859
Ġassign	17856
ova	17850
hspace	17844
MOESM	17844
SY	17840
]{.	17838
ĠPass	17837
ĠOct	17836
Ġgall	17832
čĊčĊĠĠĠ	17832
bec	17831
å¤	17830
Ġ++	17828
Ġutilized	17826
Ġexport	17826
iner	17825
0010	17822
ĠGrant	17821
240	17820
rant	17818
TEST	17815
Ġpeer	17813
ĠHel	17812
ĠTal	17809
fix	17807
bie	17807
EXT	17806
exe	17803
Ġ1983	17802
Ġrepeatedly	17798
Ġmonthly	17797
bal	17790
Ġwrites	17790
Ġlandscape	17789
pes	17787
Return	17786
Prop	17784
itude	17783
Ġintellectual	17774
Ġlegislative	17773
Ġcollapse	17771
Comm	17770
adv	17769
resource	17768
Ġcomplement	17766
ĠRad	17766
Ġoven	17764
Ġexhibited	17762
Ġaccompanied	17762
uted	17758
134	17755
dog	17754
Ġlying	17745
ĠSeries	17745
Ġfold	17743
tk	17740
Ġarranged	17739
ĠMas	17739
hou	17734
ĠdÃ©	17734
Ġham	17733
Ġdece	17729
Ġsnap	17728
Ġanchor	17721
Plan	17719
ĠCam	17712
Lat	17709
Ġgovernor	17709
Ġenemy	17708
imm	17707
hep	17707
expected	17706
irm	17697
Ġpulmonary	17696
too	17691
à	17689
Ġvessel	17689
Ġabnormal	17688
Ġscr	17686
Ġviolated	17685
Ġbyte	17684
Ġfitting	17679
dat	17677
Ġsurveillance	17677
Ġmitochondrial	17673
Windows	17669
ush	17667
Ġreporter	17667
Ġenvironments	17666
Ġbankruptcy	17663
rist	17662
Ġoccurring	17662
Ġdiscrete	17651
Ġsilent	17650
password	17647
Ġchecking	17640
ĠBitcoin	17640
Ġreveals	17637
spec	17636
random	17635
typedef	17634
Ġax	17633
Ġ('	17632
inflammatory	17631
Ġultra	17631
Ġstudying	17629
cases	17628
142	17627
Ġphilosophy	17622
iii	17621
Ġcurrency	17621
analysis	17620
à¬	17618
ĠFollowing	17618
Ġ127	17617
variable	17615
bind	17613
xb	17612
ained	17612
Ġrib	17611
far	17609
Host	17607
Ġresin	17601
Ġreadily	17597
Ġvoted	17595
Ġdeclined	17595
thing	17594
Ġæ	17593
Ġpropose	17590
ĠUnit	17587
poly	17583
Ġsupporters	17583
âĤ¬	17581
ĠCancer	17581
Ġperception	17580
1995	17579
DATA	17578
made	17577
Ġ(@	17575
Ġtopics	17574
Ġlanguages	17571
ĠDra	17569
Ġrecovered	17566
phy	17563
Ġunlike	17562
Ġrough	17560
ater	17557
.*]{}	17552
Ġpanels	17543
ĠPG	17538
ĠDal	17538
rh	17537
lex	17536
bad	17536
Reader	17534
Ġdip	17532
Ġderivatives	17527
ĠCPU	17527
ĠVen	17526
BD	17525
Pen	17524
Ġparse	17522
ÂĹ	17521
Ġdoses	17512
ĠMars	17512
Ġaudit	17508
Ġcoating	17507
plugin	17506
Ġreversed	17502
connection	17500
UG	17495
Ġdefects	17493
Ġcorrelations	17491
ĠMerc	17490
ĠKingdom	17490
GU	17489
Ġtroops	17486
Ġtrauma	17480
Ġadjust	17478
EV	17475
children	17471
Ġsouthern	17470
ĠFO	17470
omic	17469
Ġhandler	17469
Ġinterpreted	17463
Ġstellar	17461
ĠTur	17459
Ġatom	17456
rite	17454
349	17446
require	17445
Dim	17445
ĠAbout	17445
VM	17444
Ġpacket	17444
ĠMit	17444
Ġliked	17443
Ġ1986	17442
ĠFair	17441
neg	17440
Ġ×	17439
ĠInclude	17439
Ġml	17429
Ġfibers	17429
Ġdisaster	17428
ĠSpain	17428
ÂłĊ	17427
metry	17425
Ġflip	17423
ĠSeveral	17423
iat	17419
eva	17414
Ġcholesterol	17411
ĠAstr	17411
Ġtransactions	17408
Ġfri	17406
050	17405
Ġwedding	17404
Ġtill	17403
Ġpod	17402
cz	17398
Ġing	17398
Ġwireless	17392
Ġembedded	17392
ĠIndex	17390
ĠFamily	17387
Ġseal	17386
Ġlifestyle	17386
čĊĉĉĉĉ	17383
jp	17381
Ġdisabled	17380
Ġairport	17378
Ġcriticism	17376
nor	17367
ĠUt	17366
Ġprinted	17365
Ġenv	17364
Ġduties	17360
javascript	17350
187	17349
ĠĊĉ	17349
Ġattachment	17348
ĠEastern	17348
Ġcooling	17347
Ġ116	17346
Ġlabeled	17345
Ġexciting	17343
ĠSin	17343
ĠIO	17341
ĠCap	17341
Ġfilling	17339
lv	17336
mM	17332
Ġphysiological	17332
Ġprinting	17331
Ġnorthern	17328
ĠMarket	17325
vie	17320
roid	17320
Ġpointer	17319
Ġdiffusion	17319
ĠÂĹ	17315
east	17313
aba	17312
Ġcombine	17312
itz	17311
031	17310
Ġexpressing	17306
Ġinfluenced	17300
Ġillustrated	17299
ites	17297
ĠMethods	17297
Ġprosecutor	17294
Ġwage	17284
human	17281
Ġassociations	17281
ĠIE	17281
ĠOC	17279
Ġdistinction	17275
Ġgained	17270
VC	17267
Report	17267
ĠYe	17267
ĠStudy	17267
\_[	17266
Ġ"<	17266
)_{	17261
Va	17257
ĠHim	17257
ĠCt	17257
188	17253
)\,	17251
Ġcourses	17251
cert	17250
Ġstra	17249
Ġphenotype	17247
ĠPlaintiffs	17245
ESS	17241
Ġgenomic	17241
ĠLuc	17241
ĠBull	17239
lot	17238
;"	17238
holder	17236
Ġisolation	17235
wire	17230
Ġrating	17228
Ġplug	17226
Ġtension	17222
Ġraising	17222
Ġloans	17220
SW	17219
Ġattitude	17219
ĠPy	17218
your	17217
ĠCome	17216
Ġauthorized	17214
ĠMari	17212
cont	17210
ĠStep	17207
ANT	17203
Ġinspired	17200
Ġactor	17197
Ġ^{	17197
sey	17196
Ġdiss	17193
Ġcyst	17192
}:	17189
xp	17187
eqn	17186
Ġconnecting	17186
Life	17181
osing	17179
ika	17178
-->	17174
Ġintersection	17174
Ġgrab	17174
Ġvalidity	17169
Ġ1987	17167
rows	17163
Ġgalaxy	17160
*~*	17157
Cur	17156
pher	17154
Arg	17153
Ġhopes	17152
Ġ\#	17151
ives	17150
Ġze	17150
Ġdim	17149
ERS	17144
Cons	17140
Ãª	17136
Ġsomebody	17134
Ġdisappear	17133
RU	17132
(){	17130
gas	17125
Ġcontention	17120
security	17118
Ġawesome	17114
ĠWARRANTIES	17114
ĠJun	17113
Maybe	17110
Mag	17110
ĠClark	17109
ĠAff	17107
cover	17105
Ġgross	17101
etc	17098
idence	17097
Ġcake	17097
202	17096
ĠEle	17096
req	17095
Ġpel	17093
ĠAma	17093
also	17091
Ġfro	17091
TB	17087
ĠCle	17087
Null	17082
ĠImages	17080
ances	17079
Ġguest	17078
market	17075
REG	17075
limit	17074
Ġglyc	17072
ĠAccess	17068
Ġcontacts	17060
Ġperiodic	17059
Ġrap	17058
Ġphosphorylation	17058
Ġtherm	17057
pg	17055
Ġprost	17055
ĠKorean	17055
arian	17054
Parent	17054
ĠAgain	17054
Ġcardiovascular	17053
Ġpreventing	17049
oral	17046
^{*	17046
Ġbrush	17046
licenses	17042
prob	17041
ĠPacific	17041
ĠJSON	17038
Ġequilibrium	17037
iga	17033
Ġtolerance	17028
LOG	17027
Ann	17027
ression	17026
Ġignored	17025
uz	17024
Ġmad	17021
Ġtransmitted	17016
Ġliterally	17014
Ġestimation	17013
ĠZealand	17008
à®	17006
ĠHistory	17006
tub	16998
Ġton	16996
asing	16995
ĠEV	16994
Ġembodiment	16988
ĠCommissioner	16987
city	16984
ĠGames	16982
demo	16981
Ġpounds	16980
Abstract	16979
Ġkick	16979
UD	16975
ĠLD	16974
asy	16973
Ġ800	16972
âĢ²-	16971
stic	16968
hea	16967
Ġswitching	16967
Ġmotivation	16967
ĠAgency	16967
wal	16965
come	16964
aj	16963
áº	16961
rent	16961
189	16958
Ġasc	16956
Additional	16955
Ġmethyl	16950
IAL	16949
jd	16948
Ġpublicly	16939
138	16938
Ġautom	16938
ĠDown	16936
Art	16934
152	16934
Ġdestruction	16934
Ġtonight	16931
Ġovernight	16931
amo	16930
Ġgenuine	16929
ĠChildren	16926
Ġorbit	16925
Ġpending	16924
astic	16921
Full	16917
Ġbathroom	16916
uting	16913
Ġretro	16912
2020	16910
Ġelectricity	16909
found	16905
iving	16903
Ġworried	16903
}}}_	16902
Widget	16901
Ġobesity	16899
Ġdenotes	16899
Ġenhancement	16898
Ġregulated	16895
ĠThough	16894
umb	16892
Ġnose	16891
Collection	16890
Sample	16885
zan	16883
ĠML	16883
court	16880
eld	16874
Ġdifficulties	16872
Util	16870
165	16866
ĠDoc	16863
åĪ	16860
modules	16860
Ġtrap	16858
Ġ122	16854
Ġalarm	16852
Ġtin	16851
Ġspecificity	16846
Ġassumptions	16846
Ġepisodes	16840
Ġ185	16840
ĠNan	16839
[$	16837
Ġphysically	16837
Ġdelayed	16835
ĠNR	16834
Ġamendment	16830
ĠHamiltonian	16830
Ñı	16829
TF	16826
aro	16825
Ġpoverty	16824
ĠMus	16823
Ġspell	16820
212	16819
146	16819
Ġlaugh	16819
151	16816
HL	16813
lr	16810
ĠÂ	16810
Ġfounded	16809
ĠSpring	16809
Ġlabels	16808
ĠSW	16807
Ġsearching	16806
Ġgravity	16802
Ġunexpected	16801
Star	16800
original	16798
Ġnucle	16798
Ġouts	16796
)}(	16791
Print	16788
Ġ),	16787
Integer	16785
^{-\	16784
Ġattributed	16781
čĊčĊĉ	16778
Ġhardly	16772
Ġ132	16771
ĠFull	16770
Ġcallback	16766
ĠAnderson	16758
Ġ'\	16758
ĠComb	16757
185	16755
Ġcommunicate	16754
Ġâī¥	16753
Ġretail	16753
Ġdisplays	16753
ĠLook	16753
rod	16749
days	16748
Ġacknowledge	16747
take	16746
Ġsynthetic	16746
ĠStart	16746
ĠRegister	16745
ĠGas	16745
Ġabortion	16741
JA	16740
Ġweird	16735
initial	16733
ĠArray	16732
points	16731
aco	16731
ĠTele	16722
Ġboxes	16721
KA	16718
$^	16718
Ġwing	16718
Ġpie	16718
ĠSB	16717
âĶ	16711
Ġshoes	16704
Ġopt	16704
âĢĻ.	16703
Ġhits	16697
Ġrevolution	16696
sz	16695
standing	16694
""	16692
Ġbeliefs	16692
Ġthromb	16689
Items	16687
orn	16684
energy	16678
Ġblocked	16678
Despite	16674
Ġcompatible	16673
Ġsilence	16670
ĠIowa	16669
1994	16668
comb	16665
Ġpunishment	16664
sem	16663
onia	16658
1993	16655
Ġmature	16652
pn	16645
Ġpleasure	16645
esh	16644
Ġpartnership	16642
done	16641
137	16641
ĠMini	16641
tip	16640
Public	16639
Ġreset	16637
own	16636
Ġqueue	16636
Ġenables	16631
Ġtra	16630
rog	16629
Ġaffecting	16627
Ġsec	16624
PG	16621
doi	16620
Ġpotent	16618
230	16614
ĠStephen	16612
ĠRadio	16612
Pop	16611
Ġgotten	16610
Ġ..	16609
Ġtrends	16608
Ġvisits	16602
Ġmeaningful	16602
ously	16601
het	16599
Today	16599
Inc	16598
Ġobtaining	16593
Ġboss	16592
ĠProfessor	16591
hom	16589
Game	16585
Ġhol	16585
Meta	16574
156	16569
Ġengagement	16567
Ġdifferently	16567
Ġ117	16564
aga	16563
hab	16562
_(	16562
FOR	16559
Ġframes	16557
pit	16553
ready	16550
Ġtradition	16550
ĠSky	16549
Ġple	16544
ĠWITH	16544
Ġpolar	16542
mission	16541
Ġdescribing	16540
Ġyeast	16539
ury	16536
Ġbehaviors	16535
Ð´	16534
Ġreflects	16529
Ġpermissions	16529
hard	16527
Ġdemocracy	16520
VO	16517
Ġasks	16516
roph	16514
Ġ1985	16512
yg	16509
degree	16507
Ġxe	16507
Ġpic	16506
Values	16505
Ġdeals	16504
Ret	16501
male	16499
ĠThird	16497
ugg	16495
terminal	16493
Param	16492
Ġassert	16489
Ġfits	16488
_*	16486
Ġunderwent	16486
ĠWithout	16484
ĠSaudi	16482
Ġtit	16480
Ġselective	16480
Ġfunctionality	16479
Ġagenda	16477
ÑģÑĤ	16476
Ġfake	16476
Ġinterviews	16473
Ġ['	16473
ĠStill	16473
ĠLas	16472
RL	16471
olar	16469
four	16469
Ġjson	16469
ĠFord	16469
Ġinvestigations	16468
ĠAlb	16464
Ġdesignated	16462
Ġradi	16461
stage	16460
Unc	16460
Ġintrinsic	16459
igation	16458
ĠmL	16456
Ġfactual	16454
Ġkiss	16453
HTML	16452
ĠPBS	16452
derived	16447
Ġanger	16447
Identifier	16442
ĠTy	16438
Ġpolynomial	16430
ĠSav	16426
btn	16425
$^{-	16425
ĠPerhaps	16425
ĠColumbia	16422
999	16418
Fs	16417
Ġmock	16415
isp	16413
LF	16413
Ser	16409
erial	16407
MAP	16406
Callback	16406
\|_{	16405
Ġemphasis	16405
Ġfitness	16400
Ġannouncement	16400
Ġorange	16394
Both	16391
ues	16385
dimen	16382
Ġpassion	16382
rig	16379
Ġbreaks	16378
forall	16376
assertEquals	16376
Ġpredictions	16375
ĠTitle	16373
Ġpos	16372
ored	16365
Chapter	16360
ages	16359
Âµ	16357
chr	16355
Ġretirement	16351
mass	16350
NK	16349
Ġspray	16345
Ġapproximate	16345
Ġlistening	16340
Ġeu	16340
ĠJordan	16340
450	16339
ĠMinistry	16338
Ġapps	16334
Ġ124	16334
Ġfarmers	16332
Ġweekly	16331
1990	16328
Ġcommands	16326
Ġcrossing	16324
âĢ¯	16323
Ġprescription	16323
Global	16321
Ġradial	16321
ĠAward	16317
Ġequality	16315
Ġcomputational	16314
'"	16312
anth	16307
nucle	16305
Ġconsciousness	16303
Ġproportional	16299
Ġhypertension	16299
Ġfocusing	16299
Ġsegments	16296
Ġderive	16295
ĠAve	16295
Ġarr	16291
hel	16287
Ġputs	16285
Ġdetector	16283
hold	16282
ĠCarr	16280
ĠCamp	16278
Ġfactory	16277
Ġconspiracy	16277
uis	16275
stri	16275
Ġgenerator	16275
driver	16271
Based	16270
Down	16269
fish	16266
complete	16266
ĠSciences	16265
Root	16263
ĠNT	16262
ĠConsequently	16262
ĠTru	16258
Ġoptimization	16254
Ġboundaries	16254
ĠJon	16249
Ġconvey	16248
Init	16243
Ġtrivial	16242
Ġinserted	16242
Ġweights	16241
Ġparam	16239
Ġattempting	16238
+)	16237
Ġangry	16236
Ġfavorable	16231
uate	16229
price	16229
Ġtrail	16229
ĠRound	16229
Ġtransc	16225
ĠGaussian	16224
181	16221
Ġclip	16218
Ġfranchise	16215
Ġcomputers	16215
pid	16213
Ġscaling	16213
Ġdent	16212
ressed	16211
mr	16211
Json	16208
Ġtie	16206
inj	16203
agg	16203
attribute	16201
SB	16199
ĠNick	16198
LV	16196
Import	16194
Ġadapted	16194
ĠEL	16192
Ġregulate	16186
rain	16185
171	16184
Ġterrible	16184
party	16183
Ġvaried	16183
Ġmsg	16183
ĠBible	16183
âĦ¢	16180
Ġphysicians	16178
callback	16177
)^{-	16177
Ġintracellular	16176
Ġrescue	16175
ĠAle	16174
Ġupgrade	16172
Ġexcuse	16169
Ġphrase	16167
Ġimpressive	16167
Sign	16166
GN	16165
piece	16161
NL	16161
Ġchocolate	16160
Ġchlor	16160
Â§	16159
Ġconvenient	16157
Ġaims	16154
Ġroads	16150
Ġdeeper	16150
ĠNatural	16150
aver	16146
ĉĉĉĉ	16145
ĠFin	16144
priv	16143
ĠAdditional	16140
OB	16139
AST	16138
ania	16136
154	16135
Ġnod	16132
Ġfatty	16131
Ġreject	16127
Ġspark	16125
WN	16124
Params	16123
ĠMU	16123
opp	16122
ĠExt	16120
Ġsettled	16113
Ġdiscount	16113
Pref	16112
Ġfunded	16112
react	16109
Ġ1984	16108
Ġreflection	16103
ĠPF	16103
Ġvariant	16102
Ġrestaurants	16102
Ġexclusion	16102
Ġcombinations	16102
Ġimpression	16097
oot	16096
SEC	16096
Ġhero	16096
Ñ	16095
ĠPlace	16095
video	16094
sky	16092
ĠSpirit	16091
âĸ	16090
Super	16086
Ġracial	16085
Active	16083
Ġheading	16082
Ġrendered	16079
Ġdiver	16079
except	16077
Ġfounder	16077
Ġpeaks	16076
MIN	16069
_{-	16067
Ġmood	16067
Ġchains	16067
Mer	16066
222	16065
Ġlimiting	16065
stan	16061
Ġnegligence	16061
pf	16058
micro	16057
ĠMem	16057
Ġfingers	16054
Ġdates	16054
ĠKat	16054
people	16052
Ġmagazine	16050
Ġbelt	16050
Ġquantities	16049
Ġdrama	16049
Ġsettle	16046
Ġur	16043
dest	16041
Ġappend	16039
Aw	16038
Ġscoring	16036
CODE	16033
python	16032
yz	16031
"));	16031
Ġcontend	16031
Ġjustify	16030
filename	16028
Ġepithelial	16027
mpt	16023
'))	16021
lated	16018
Ġov	16014
ĠTar	16011
rule	16009
Ġ|\	16004
admin	16003
Ġsucceed	16003
Ġdans	16000
320	15997
350	15995
Ġbil	15995
Ġsatisfying	15993
Support	15992
Ġconsensus	15992
Ġmath	15991
Ġgrip	15991
ĠÐ¿	15988
Ġproposition	15988
Ġvertices	15987
igo	15986
eval	15986
Ġvulnerable	15985
simeq	15984
Ġchoosing	15984
exec	15982
Ġann	15978
ĠAh	15976
Ġrepo	15975
Ġped	15974
Ġprima	15972
Four	15969
keys	15968
ĠTF	15968
ĠAdam	15968
ank	15967
Ġlawsuit	15967
Ġconfident	15967
Ġmi	15966
Discussion	15965
Ġou	15965
Ġ135	15964
LU	15963
Ġdollar	15961
Ġwondering	15960
.).	15956
161	15955
oice	15953
bibr	15953
Ġdamaged	15951
ĠEric	15951
Ġpreferably	15950
Ġmanually	15948
Ġquit	15945
sg	15940
Ġ129	15940
041	15939
.:	15932
Helper	15931
ĠAlt	15929
bert	15926
Ġtied	15925
ely	15924
contr	15924
Ġstat	15923
omb	15922
ided	15921
Ġlikes	15920
Ġmatched	15919
Ġtransparent	15918
ĠCore	15917
Ġholiday	15916
10000	15915
Ġstrictly	15914
ĠStri	15912
Ġrepresentations	15911
}&	15905
Ġsupplies	15905
ĠRose	15901
cad	15899
ims	15898
Ġshots	15893
plain	15892
Ġbelong	15892
tti	15891
à¥	15889
}$)	15888
Stack	15885
Ġpython	15885
READ	15884
166	15877
Ġdeveloper	15877
Ġindices	15876
="/	15875
Ġisolates	15875
ĠâĢ¢	15874
Ġcone	15871
Ġlegitimate	15868
xF	15867
ĠPrior	15865
ĠCoast	15864
Ġio	15862
Ġfatal	15856
Ġ118	15854
aged	15852
may	15851
ĠFlu	15848
Ġ{@	15841
Ġconcur	15841
ĠSpr	15841
OG	15838
Ġpushing	15838
Ġcow	15836
177	15833
Ġbehavioral	15833
ĠColor	15833
Ġions	15830
Ġbreakfast	15823
Ġvisitors	15819
ĠTP	15818
nutrients	15814
VF	15814
NM	15814
Ġrs	15813
Ġaspir	15813
tage	15812
Ġbrew	15811
Ġbills	15811
mir	15801
Parameters	15797
Ġhy	15797
Ġviruses	15796
uge	15794
Ġreputation	15794
Ã	15793
âĢ¦.	15791
Float	15784
Round	15782
ĠLar	15782
148	15781
RB	15780
è¿	15778
Display	15778
cv	15776
ĠIg	15771
Enc	15768
alis	15767
211	15767
()->	15767
ĠLittle	15767
ones	15766
ches	15766
Ġtort	15765
utils	15764
Ġyours	15761
Ġobjection	15761
Ġdimensional	15761
}}}^	15760
Share	15760
Delete	15760
ĠSpecifically	15760
bon	15757
ĠParliament	15756
ĠAk	15753
dent	15752
ĠSil	15741
Ã¨	15737
Ah	15736
quer	15733
Ġ119	15731
aca	15728
Rat	15722
chan	15720
Ġbaseball	15720
ĠMinnesota	15719
Ġdebtor	15718
Ġemerging	15715
jan	15714
ĠSoviet	15713
lig	15709
Ġgray	15709
}$$\	15708
Ġhealing	15706
Ġpill	15705
Multi	15703
Ġreferring	15702
Ġentities	15700
Ġadj	15700
\*\*	15699
Ġequipped	15698
Ġnucleus	15697
nell	15695
lect	15695
idx	15691
043	15691
Ġinspect	15691
Ġicon	15690
Ġbirths	15689
Ġquote	15687
Icon	15684
inner	15682
Ġum	15681
erm	15680
Ġprov	15680
ĠDH	15680
uf	15679
Ġposterior	15676
wiki	15665
Ġcavity	15665
Ġ131	15664
enable	15663
1992	15663
ĠPoly	15663
Â³	15661
ĠArea	15661
Ġreply	15659
expl	15658
Den	15656
Space	15653
ety	15651
ĠUs	15651
ĠAV	15651
BT	15650
Ġlap	15647
Ġtoxicity	15646
Ġpocket	15646
Ġinquiry	15646
Ġdeficiency	15644
Ġcompos	15644
ĠOri	15642
Ġrob	15639
ĠDur	15639
,.	15637
Ġsensors	15637
ĠTurkey	15636
ĠFisher	15636
ĠFactor	15635
izable	15633
Ġterritory	15632
Ġoxidative	15631
Ġven	15623
Ep	15622
craft	15620
Ġvessels	15618
Ġmembership	15615
"\	15612
Ġstomach	15609
Ġpromised	15609
å®	15607
Ġarrive	15607
Ġtired	15606
Initial	15603
Ġinvited	15603
Ġpreserve	15597
ount	15596
Ġtetra	15596
Ġsed	15595
enn	15594
Ġinspection	15594
ĠFS	15593
zen	15590
ners	15590
Ġmodeling	15590
Ġextending	15590
ĠPHP	15590
LIB	15587
++;	15586
Ġsaving	15586
Ġmuscles	15585
itate	15583
Ġmoon	15579
ĠCambridge	15578
XF	15576
World	15575
Ġsingular	15574
Ġdefining	15574
Ġnurse	15570
Ġcoil	15569
Ġboil	15569
Ġparticipated	15566
ĠOb	15563
Ġstrategic	15562
ĠJane	15562
Ġodds	15560
Ġbounds	15559
Ġrestore	15558
Ġagreements	15558
Ġinflation	15556
Ġdil	15555
Ġwr	15554
ams	15545
Ġcertificate	15545
184	15542
>();	15541
Ġdeny	15540
ĠJacob	15539
Send	15537
Ġinjected	15537
Ġ126	15536
ĠRather	15535
1991	15532
Ġpointing	15530
ocyte	15529
Ġaccurately	15529
mos	15525
################	15525
;;	15523
_,	15520
Ġplatforms	15518
ĠAssembly	15518
Ġencounter	15517
pri	15516
Ġsuspected	15516
Pal	15515
Ġunsigned	15515
ãģ«	15514
139	15512
USE	15509
ĠAna	15509
Ġti	15505
Ġnobody	15503
ĠHarris	15503
xd	15502
Ġgrateful	15501
ĠKen	15501
Ġobligation	15500
Ġsustain	15499
Ġsuck	15499
Ġauthentic	15499
commit	15497
Ġ170	15497
Ġestablishment	15496
Ġcortex	15496
ĠFunction	15496
rank	15494
ĠYeah	15492
names	15490
Ġregarded	15485
IX	15483
Ġtalent	15483
162	15478
dynamic	15476
ĠFT	15476
Ġdivorce	15470
OA	15469
ĠMoore	15469
ĠCorn	15468
Ġtransit	15466
Ġexpense	15466
Ġhunt	15461
ĠAfghanistan	15460
Ġresistant	15457
825	15451
Ġenforce	15450
Ġrect	15449
174	15448
ĠTNF	15448
Ġfavour	15447
Ġdeemed	15443
_>	15442
Ġstayed	15441
ĠLewis	15441
century	15439
Ġamp	15439
Ġsuspended	15436
ĠWh	15436
ĠFalse	15435
Ġpharmac	15434
Ġeff	15432
Ġbird	15431
Ġresort	15428
Ġpromoting	15428
ĠBh	15428
Mill	15427
Copyright	15426
sun	15424
Ġnarrative	15424
lag	15421
account	15421
Ġtor	15419
čĊĉĉĉĉĉ	15419
Ġcomply	15416
Ġelectrons	15413
ĠToronto	15413
Ġreliability	15409
Ġcomparisons	15408
Ġmicroscopy	15407
Ġhighlight	15404
Ġapi	15402
Ð¼	15401
Ġpossess	15401
blog	15400
ĠBrazil	15400
Ġsink	15399
Ġelderly	15399
ĠJS	15398
War	15397
Properties	15397
Ġanalytical	15397
Ġresident	15396
ĠLive	15395
Ġindication	15391
ĠCou	15390
operative	15388
~\	15387
Ġendothelial	15387
ITE	15379
Ġdecor	15378
ĠOp	15378
Ġ133	15377
ĠBat	15376
157	15375
Ġlas	15374
ĠKal	15374
inary	15373
Ġtrick	15373
Ġunw	15372
Ġhoney	15372
itt	15370
Ġenergies	15365
ĠCommonwealth	15364
Ġangi	15363
ĠĠĊĠĠĠ	15361
Ġpersonality	15356
Ġsuppression	15353
Ġdemonstrates	15348
CONFIG	15346
Ġspots	15346
Ġreplication	15345
512	15344
FIG	15339
ĠHaw	15339
Ġblast	15337
ÃĲÂµÃĲ	15335
selected	15335
Ġgrain	15334
Ġadjustment	15334
ĠPr	15334
360	15333
ĠSel	15333
Ġhor	15332
Ġmeth	15331
Ġarising	15331
Math	15330
`.	15328
Ġuptake	15327
Ġ09	15326
Ġthreats	15325
ĠBridge	15325
ĠWay	15320
schema	15319
Ġticket	15319
erge	15317
Direct	15316
Ġarrival	15316
Ġsk	15315
Ġtournament	15314
eng	15313
ĠScale	15313
Ġexisted	15311
WR	15308
Ġinhibited	15306
ĠLim	15306
Ġrape	15305
olic	15303
}),	15302
Ġobs	15302
pot	15301
Ġvariability	15301
elli	15297
Ala	15296
ĠLin	15295
Real	15293
Common	15292
Ġvisiting	15292
EQ	15289
Ġpublish	15288
Ġbases	15288
Ġhabit	15287
Ġdocumented	15287
apply	15281
Ġlocalization	15281
Ġcomplain	15279
ĠHTTP	15279
Ġdistances	15277
ĠIndiana	15275
Ġ=\	15275
Ġopens	15272
ĠIFN	15269
ĠFather	15267
force	15266
Ġdefinitions	15264
Ġtends	15260
Ġ1981	15258
INFO	15256
Ġ255	15255
kb	15254
Ġexclude	15251
ãĤĴ	15250
sex	15247
SV	15247
ĠEv	15247
LR	15246
Ġble	15246
ĠMethod	15246
ait	15240
Ġsatisfaction	15240
Ġrail	15239
Ġcoat	15239
SK	15238
ĠSV	15233
Ġpolarization	15232
ĠHouston	15232
expression	15231
Ġnavigation	15231
Ġminority	15231
ĠSystems	15231
oked	15228
164	15227
BM	15221
settings	15215
Ġheaded	15211
UND	15210
Ġren	15210
ĠSports	15209
Ġbranches	15208
WT	15201
946	15199
quire	15198
Ġcommun	15195
Ġ["	15195
ĠDP	15194
Ġconfusion	15193
IGN	15192
ĠTrade	15191
Ġcomplaints	15190
network	15187
ogy	15186
large	15186
182	15183
Ġnitrogen	15183
&=	15182
Ġparagraph	15182
ĠException	15180
Fri	15175
ove	15174
Ġshirt	15174
Ġhtml	15172
oring	15169
Ġalongside	15169
Gs	15168
(.	15167
ĠLibrary	15167
Ġwarranty	15165
ĠDefense	15165
cca	15157
ĠDaily	15156
Ġthirty	15153
Ġranges	15153
Ġdental	15153
Ġemerged	15152
Ġlibraries	15151
ĠChristians	15150
omy	15145
Ġsurprising	15144
oric	15138
UB	15135
Ġblot	15131
$_{	15129
lands	15128
Ġabsorb	15123
Ġupset	15122
Ġ1960	15121
Factor	15118
apa	15115
ĠQueen	15113
ĠDL	15112
ief	15109
Ġunders	15109
ĠSort	15109
enta	15108
Ġwise	15099
Ġplugin	15098
ĠTry	15097
prefix	15096
POST	15096
regulation	15093
pon	15093
APP	15090
Ġdenying	15090
Ġcran	15090
026	15087
Ġbasketball	15087
ĠMis	15085
bis	15084
oids	15082
Ġfaculty	15081
Ġprompt	15080
ĠNations	15080
186	15077
ĠInterestingly	15076
ilt	15071
Ġsuggestions	15071
ĠChen	15071
nr	15070
ched	15070
Will	15069
Ġscrew	15069
Ġpreparing	15067
ĠHay	15066
ayer	15062
ribution	15061
Bur	15061
cond	15060
MAN	15058
Ġparticipant	15056
Ġbro	15056
Ġrum	15055
ĠMol	15053
println	15052
Ġcapabilities	15050
Cont	15048
ĠHz	15043
Ġdrain	15040
aster	15038
arn	15037
fan	15034
ĠMonte	15034
ases	15033
Ġoccasion	15031
AH	15029
models	15026
Ġcollaboration	15026
kov	15025
'],	15022
Ġbench	15018
best	15017
Ġvirtually	15013
oria	15009
Ġprote	15008
Lin	15006
ĠRos	15004
essed	15001
Ġextrem	15000
))$	14999
ĠDifferent	14999
ece	14995
Stop	14993
Ġsigning	14992
Ġinduces	14989
ando	14988
Definition	14988
ĠSelect	14988
024	14985
Ġdecimal	14983
cycl	14982
Ġwinner	14982
iu	14980
ĠCV	14980
Try	14976
tv	14975
linux	14974
iers	14974
Ġ05	14971
roll	14970
PORT	14969
Ġwelfare	14969
Ġtear	14965
Xi	14963
ĠHad	14963
Ġgeometric	14961
Ġclaiming	14953
coll	14952
Desc	14949
ĠBlock	14949
Ġwaters	14948
results	14947
shift	14944
Editor	14943
ĠSenator	14943
gb	14939
ards	14939
Ġrespondents	14937
rey	14935
Ġaccus	14935
sche	14934
Ġ"#	14934
News	14933
Ġwrap	14930
ention	14929
Ġfluor	14929
Ġswing	14928
Ġhosts	14927
ĠTotal	14926
Ġfiscal	14924
ĠLP	14924
Ġprobable	14923
*(-	14921
Graph	14920
Ġtransient	14919
Ġcoronary	14918
ĠVE	14918
Ġeigen	14916
Ġreceives	14914
ĠSilver	14909
leg	14907
Ġ03	14906
ĠMcG	14899
Ġbleeding	14898
\)	14897
ancies	14896
Ġlys	14895
pub	14894
ĠAla	14891
Ġlongitudinal	14889
Ġchances	14888
Ġinterpret	14887
Given	14886
Ġgerm	14886
ĠFM	14884
Ġ184	14884
Conf	14882
Ġreb	14882
Ġblocking	14882
resh	14878
ĠProperty	14878
Ġfrozen	14876
Ġrecurrence	14874
+(	14872
Panel	14866
Ġprotocols	14866
rap	14864
ĠHeat	14864
Ġmac	14861
Dep	14859
Ġtransformed	14851
Ġvac	14849
Ġaffirmed	14848
Ġcultured	14843
zip	14842
Ġlocked	14839
Ġwavelength	14838
hit	14836
Ġdecomposition	14836
ĠPrice	14836
Ġ'.	14834
hma	14833
Ġphotograph	14830
Ġsteam	14829
Ġnonlinear	14829
_-	14828
Ġsudden	14828
ĠHB	14827
orb	14826
icate	14824
Ġshortly	14824
Ġatomic	14823
Ġshower	14821
176	14820
Ġhistoric	14819
Ġshaft	14818
ĊĊĠĠĠĠĠ	14816
NOT	14815
172	14814
ĠColl	14811
ony	14809
Gal	14807
ĠTD	14807
Layer	14805
regulated	14804
ĠHand	14804
*=	14801
ĠKy	14797
iles	14795
ĠPV	14795
Ġdistress	14793
Ġ134	14791
Transform	14789
179	14783
Ġss	14782
theme	14781
Variable	14779
Java	14776
Ġbold	14776
seq	14775
Ġcompression	14774
Ġtwist	14773
Ġbacks	14773
Ġdonor	14770
Ġsolved	14769
Ġdetermines	14769
Ġwins	14767
Ġtimely	14766
Ġcircular	14766
Ġtracks	14765
Ġmutants	14765
gathered	14763
Ġrestr	14762
Ġefficiently	14762
exit	14759
Network	14759
753	14758
225	14756
Ġappreciated	14755
213	14754
ä¸	14751
ĠTHAT	14750
ĠÂ»	14747
Ġscroll	14747
Ġappointment	14747
Enter	14746
odia	14745
ĠÑ	14743
plan	14741
Async	14741
Ġpursue	14741
Ġconstraint	14741
Ġconstants	14734
ĠIgG	14733
three	14732
ASSERT	14730
Ġpostoperative	14726
Ġsecured	14725
Ġrot	14722
Press	14720
Ġtender	14716
Ġheaven	14716
factor	14713
Ġmemories	14713
ĠNM	14711
iment	14709
ĠStation	14707
ĠSem	14707
Ġstimulus	14704
Enabled	14702
JO	14698
Ġthreatened	14698
=""	14697
ders	14695
Ġ[$	14695
Bre	14692
Ġinputs	14692
032	14691
Ġstriking	14691
ĠSign	14691
Ġsim	14689
Ġthrown	14688
Wait	14686
``	14685
ĠShan	14680
Ġcookies	14679
Option	14676
aid	14675
Ġsubgroup	14674
ĠWis	14673
Ġcancers	14672
aire	14671
aking	14669
Ġcustody	14668
Sn	14664
Ġsail	14663
Ġanybody	14663
ulator	14662
ĠDeb	14662
dk	14661
Ġasset	14660
xl	14658
Ġmothers	14658
)^{\	14657
Ġflood	14657
Ġinstruments	14654
istics	14653
ĠBall	14653
Ġflying	14652
Ġattach	14652
Ġcircuits	14650
ĠCru	14650
203	14648
Ġtech	14648
Ġinfer	14648
Ġfantastic	14647
ĠCNN	14643
Ġ",	14640
Ã³n	14639
}}=	14639
ĠCau	14636
ĠMart	14633
Ä±	14632
Mus	14631
fat	14629
Ġdoc	14629
actic	14623
1986	14616
Ġdamn	14616
know	14615
oqu	14614
handler	14611
Ġshelter	14608
Ġ"-	14608
spect	14605
utes	14603
Ġeveryday	14603
Ñĩ	14602
esis	14600
ĠWild	14599
encies	14598
ĠPK	14598
ĠHoly	14596
ĠTT	14594
properties	14593
oj	14593
Ġhalo	14593
Ġtries	14592
annotation	14591
Ġchallenged	14589
Ġentrance	14588
ĠâĢĭ	14587
custom	14586
rence	14585
hbar	14585
Ġliable	14584
Ġnons	14582
Ġmerit	14581
PK	14580
Ġord	14580
Ġ1982	14579
vet	14578
,_	14578
Ġkin	14578
Ġgrave	14578
Ġlitigation	14577
ĠDocument	14576
ĠHM	14574
QUE	14573
ifdef	14571
ĠKeep	14571
otype	14570
anced	14570
ĠAri	14570
ometric	14568
Home	14567
Ġinches	14567
Ġdispersion	14566
ĠWatch	14566
Ġpri	14565
Ġdried	14564
istry	14563
Ġvegetables	14563
Writer	14562
Ġsel	14561
ĠFeb	14561
Ġacted	14558
scan	14557
standard	14555
Ġmathematical	14555
compl	14554
Lib	14554
Ġdrove	14554
Ġstained	14553
ĠRome	14553
ÃĦ	14552
(:	14552
Ġcorn	14551
Ġ04	14550
æĺ¯	14547
Ġconvergence	14547
Ġblank	14545
direct	14540
Ġresidential	14540
Ġflows	14540
ĠAug	14539
ĠVis	14536
West	14533
ethyl	14532
Ġartist	14532
ĠAllen	14530
ĠInsurance	14529
ĠFilm	14528
ĠĊĠĠĠĠĠ	14528
Ġtraits	14525
Ġsatellite	14525
Ġviewing	14522
multi	14521
Ġmining	14521
foreach	14520
ulsion	14518
mma	14518
Ġphoton	14518
uid	14517
ãģ§	14516
Ã©t	14514
hc	14514
196	14514
}}}_{	14512
.\[[@	14512
Ġconserved	14512
Video	14511
Ġminds	14510
oint	14509
mk	14508
ived	14507
Ġadaptation	14505
Ġseats	14501
History	14498
ĠÎ¼g	14498
Ġasthma	14498
Ġshake	14497
Ġreconstruction	14497
Ġgradually	14490
bow	14488
present	14487
AW	14487
Ġoh	14487
Ġexclusively	14486
urb	14482
feed	14482
abstract	14482
Ġfuck	14481
metadata	14480
iology	14480
Example	14479
ĠWisconsin	14478
Ġgraphs	14476
ĠWor	14476
ÙĨ	14474
berry	14473
Us	14473
Book	14473
&#	14473
question	14471
Ġperpet	14471
Ġbedroom	14471
Î¼	14468
Bytes	14468
Ġlady	14465
Ġflowers	14464
Ġprevented	14460
cept	14458
028	14457
Men	14456
ĠMean	14456
bet	14454
Ġwidespread	14451
ĠHP	14451
Stud	14448
Adapter	14441
Ġconfused	14441
ĠBB	14441
ÑĮ	14436
Ġmaternal	14436
ĠInterest	14436
$).	14432
Ġgeneralized	14430
Ġsimilarity	14429
Ġinsertion	14429
Ġactors	14428
ough	14427
burn	14427
prev	14426
Ġestablishing	14420
1989	14419
ĠCOM	14416
Ġinject	14415
Coll	14414
Ġ![	14414
Ġindependence	14413
jm	14410
Ġsubstitute	14410
Ġjoining	14403
Ġstating	14402
'])	14401
Ġmarginal	14400
Ġmethylation	14399
********	14396
Ġslot	14396
Ġknife	14396
ĠGE	14395
Ġ136	14394
Ġreplied	14391
Ġrespondent	14390
Ġbelonging	14390
Ġadm	14390
BF	14388
Ġbarely	14385
Ġsentenced	14384
Ġdescending	14383
asc	14374
Ġscenes	14373
ĠTam	14371
aining	14368
Const	14367
Ġber	14367
Ġacceptance	14366
ĠNet	14366
Ġvas	14363
Ber	14362
ĠShould	14362
ĠĠĊĠ	14362
ĠFinal	14361
ĠSher	14359
Ġmate	14358
Ġguests	14353
Ġloves	14352
itic	14351
Ġseeks	14350
Ġsquad	14349
Ġanterior	14345
ission	14344
othe	14342
AIN	14342
033	14342
Ġmyth	14340
čĊĠĠĠ	14340
Bel	14339
ĠPB	14339
opy	14335
ĠDisease	14333
Ã±	14332
Ġrealistic	14331
design	14329
Ġquestionnaire	14329
ĠCop	14329
Ġocean	14321
Ġsake	14319
lif	14318
Ġdin	14318
Ġpropag	14317
bg	14316
ĠEu	14316
Ġmotions	14314
Ġexhaust	14314
reme	14309
ool	14309
would	14307
ĠStore	14307
Ġjournal	14306
night	14305
Ġtam	14302
Ġeq	14302
Save	14301
Ġincredible	14300
Ġdot	14300
ĠCast	14300
TIME	14298
ĠKelly	14296
âĢĿ)	14293
Ġhop	14293
ĠCooper	14292
users	14291
Ġcrop	14290
Ġpersistent	14289
Ġdeletion	14288
Ġantenna	14288
Ġprescribed	14284
Ġcomputation	14284
Ġdramatic	14283
ĠJean	14281
ITY	14279
aks	14277
DN	14277
Ġcapability	14277
Ġpreference	14276
Ġdating	14275
163	14274
hydroxy	14271
Ġsymbols	14270
Ġsalary	14268
ĠĠĠĠĠĠĠĠĠĠĠĊĠ	14262
mock	14261
ange	14260
Ġ&=&	14260
Ġcontroversial	14259
pay	14257
Ġshed	14253
ĠKansas	14250
Flags	14249
Ġmanaging	14247
à¥į	14245
Ġcanonical	14244
)</	14243
ister	14240
Ġbriefly	14240
relation	14238
Ġunfair	14238
Ġstake	14238
Ġtestify	14237
âĢĻ,	14236
alloc	14236
bid	14233
Ġ+\	14228
operation	14227
Des	14224
Ġ08	14224
Card	14222
ĠUT	14222
toString	14221
"};	14219
Ġattorneys	14219
aya	14218
Ġcritic	14212
chem	14207
plus	14205
ĠGT	14205
stud	14198
Ġfilters	14197
Ġpeptides	14196
Ġemissions	14195
Ġplacement	14194
Ġhar	14194
ĠReact	14191
Ġ144	14190
ĠKra	14189
ĠConsider	14189
^*$	14187
ender	14186
Custom	14186
Ġisot	14186
Ġprocessor	14185
Ġacknowledged	14183
178	14182
Ġâ	14182
Ġexploit	14182
pk	14181
ĠVin	14181
Ġpartly	14179
Sol	14176
Ġsurely	14175
Ġupload	14171
ĠNature	14171
Ġethnic	14170
Ġindictment	14168
Ġoffices	14166
Ġgrace	14165
ĠNode	14164
ĠÙ	14162
Ġdietary	14161
Ġviolations	14160
Ġcylinder	14154
Ġundergo	14152
Ġprotecting	14150
ror	14148
ional	14147
Mal	14147
Ġletting	14147
Ġempirical	14144
igr	14141
PATH	14140
Ġstere	14138
Sur	14136
ĠSometimes	14131
ĠSanders	14131
Changed	14130
Ġinvestigating	14130
Ġrigid	14129
Ġsavings	14128
ĠHF	14128
cost	14127
Ġcocaine	14127
pha	14126
iden	14122
Ġparticipating	14122
Ġconservation	14122
|$	14120
ĠMassachusetts	14118
158	14117
ĠABC	14117
ĠBos	14116
Demo	14115
Ġacquire	14115
integer	14112
Ġrandomized	14110
Ġgastro	14110
vd	14109
[(	14105
149	14105
speed	14104
.",	14104
ĠFB	14104
mur	14103
coming	14102
Ġscrap	14102
Ġprovince	14102
Ġshade	14101
Ġemploy	14097
ologies	14096
omi	14095
omet	14095
Ġunnecessary	14095
pret	14094
pgen	14094
,[	14094
simple	14092
ried	14091
uda	14090
ĠBrian	14090
Ġmediated	14089
="{	14086
Microsoft	14085
Job	14084
Ġinterrupt	14079
Ġgolf	14077
ĠOrganization	14077
ĠMuseum	14076
Ġknock	14075
ĠSyrian	14073
fac	14072
empt	14072
bank	14070
required	14067
Ġadvised	14062
Register	14061
ĠRon	14060
five	14058
ÃŃa	14057
White	14057
rif	14056
abilities	14056
Ġtherein	14056
Ġrepresentatives	14055
ĠGOP	14054
'-	14053
Lock	14052
á	14049
Ġbelongs	14045
genic	14043
BIT	14043
chlor	14039
Ġfelony	14037
ĠChild	14031
Ġmodifications	14027
Ġcoc	14027
080	14026
Ġstyles	14016
ĠPot	14016
bytes	14015
Ġphenomena	14015
ĠAw	14015
FM	14014
oci	14013
ĠPlus	14013
Ġmembranes	14012
Ġ})	14009
Ġremarkable	14009
ĠNeu	14009
Ġlovely	14008
Ġplots	14007
engine	14006
Rest	14006
159	14006
ĠFF	14005
fun	14004
ales	14004
Ġcopper	14004
Ġconditional	14001
ĠRM	14001
Ġoutstanding	14000
---|---|---	13999
Bal	13996
Ġtent	13993
half	13991
Ġcooperation	13991
ĠXML	13990
Est	13989
job	13986
Ġpurified	13981
ĠKong	13981
Ġwarned	13980
jet	13978
Ġ]{}	13977
183	13976
Ġelectrodes	13976
ĠShort	13972
erred	13971
060	13970
ĠGh	13969
ĠFri	13968
Ġinfant	13967
ĠKam	13967
PIN	13965
Ġemotions	13965
ĠBad	13965
Ġcos	13962
ĠMir	13962
ĠGB	13953
ĠDirect	13952
sync	13949
ĠScotland	13948
Ġ).	13947
ĉĉĉĉĉ	13947
__(	13946
Ġimpaired	13945
ĠUSE	13945
0008	13944
Ġtowns	13943
ĠServ	13942
train	13941
Ġlucky	13939
rav	13938
Ġcasual	13938
Ġnursing	13937
ĠUnless	13934
Ġactively	13932
general	13928
Ġdebut	13923
Ġqualitative	13922
Ġconfigured	13921
åĲ	13920
216	13920
worth	13918
STE	13916
ĠChange	13916
ĠHart	13915
ĠBru	13915
chy	13913
arrow	13912
ACC	13911
Ġexert	13911
shaped	13910
writer	13909
Ġsecretion	13908
Ġduplicate	13907
\#	13904
Ï	13900
LICENSE	13899
)},	13899
ĠFD	13892
Ġcyclo	13891
Ġemerge	13890
Ġsentences	13888
prov	13886
Ġaccomplished	13886
ĠIrish	13884
role	13883
uto	13879
MAT	13879
Ġrings	13879
igh	13876
Ġaden	13875
ytic	13873
ĠAU	13873
ĠAvenue	13872
pipe	13871
Ġrelate	13871
===	13868
Ġhex	13867
Ġdecent	13867
hex	13866
Ġwider	13864
Ġelect	13863
rupt	13862
Channel	13860
score	13859
Ġ$-	13859
Ġorbital	13858
actor	13857
Ġencouraged	13857
library	13856
Ġdiscloses	13855
Ġlisting	13852
Ġintestinal	13852
Ġconv	13850
ĠUkraine	13850
Ġolive	13848
ĠCit	13848
controller	13847
Ð¿	13844
Ġinfants	13843
nds	13842
Ġcorruption	13840
oth	13839
acity	13837
lap	13835
ĠKevin	13829
Ġrelies	13828
ĠNar	13828
LM	13827
Ġinitiated	13827
Ġbehave	13826
Ġshield	13825
Ġrevision	13824
ĠChem	13823
mapsto	13816
Ġasp	13816
ĠHotel	13815
ĠContent	13815
Ġpaste	13813
Ø§	13812
Ġmutual	13812
Ġlend	13811
à¤¾	13807
Ġprivilege	13806
Normal	13805
Ġpositively	13805
gif	13804
Ġsecretary	13804
Ġgenerations	13804
Ġfiring	13803
)})	13802
photo	13800
ĠAppro	13800
Ġdye	13799
Ġtub	13793
Ġposting	13793
Ġreasoning	13791
Ġfunctioning	13791
Remove	13790
234	13790
mers	13789
Ġcircles	13789
actions	13786
Ġexplored	13782
inator	13781
ĠImmun	13781
aine	13780
Ġbirthday	13777
Ġshipping	13776
displaystyle	13775
ament	13775
Ġdominated	13773
wy	13772
Release	13772
053	13772
ĠEF	13770
Ġgraft	13769
Ġnest	13766
Ġ-------	13762
Ġstudio	13760
Ġimportantly	13755
Ġwhis	13754
Ġstops	13754
Edge	13753
iac	13751
ago	13751
structure	13749
dem	13749
South	13747
)*-	13747
Tw	13744
miss	13742
Ġarrow	13742
à¹	13741
Ġlands	13741
Ġshame	13740
Ġanalytic	13739
8000	13738
ĠSeven	13736
Ġchill	13735
ĠRod	13733
Ġquark	13731
ĠÐ¸	13730
atch	13729
Ġbas	13728
Ġcure	13725
ĠSy	13725
pmatrix	13724
Ġshadow	13723
Adv	13720
ĠIl	13720
iser	13719
Ġpixels	13719
aching	13718
167	13717
ĠMur	13716
share	13714
ĠSix	13714
Bank	13713
Ġbrothers	13713
Ġpermits	13712
ĠEvent	13708
Ġattacked	13707
Ġfirms	13706
Ġinstitutional	13705
ĠBit	13705
Ġmus	13704
ĠManager	13703
ĠJeff	13702
Ġster	13701
ĠChan	13697
icular	13695
=[	13695
ĠDT	13695
Ġcontinuously	13694
Ġlesion	13692
Ġethical	13692
Ġimpose	13691
ĠBus	13691
Ġnav	13690
Ġcop	13690
Binding	13689
Ġconsult	13689
DES	13686
ÐµÐ	13685
ĠMom	13685
ently	13684
Ġ183	13683
JSON	13681
Engine	13681
Args	13679
Ġgains	13678
Ġanalog	13678
ĠBin	13677
cale	13672
Ġupcoming	13672
Imp	13669
0020	13664
HF	13663
037	13663
Ġintegr	13662
Ġtags	13659
Ġmesh	13658
.""	13657
Ġslope	13655
Ġelastic	13653
Pet	13652
ĠSab	13652
Ġprofits	13651
ĠJay	13651
Ġconvinced	13650
ê	13648
Ġconflicts	13647
Methods	13645
Equ	13644
ends	13641
Draw	13641
XML	13640
Ġtooth	13640
Ġmayor	13638
ache	13636
ONE	13636
Ġexpertise	13635
ĠEgypt	13634
dst	13630
NH	13626
DW	13626
jk	13625
Ġslide	13623
ĠNavy	13622
1984	13617
Screen	13616
iza	13614
Ġfluctuations	13610
({{\	13607
Ġwebsites	13607
ĠSep	13607
ĠSau	13607
God	13606
ĠSteel	13606
ĠOUT	13606
ARD	13605
0000000000000000	13604
Ġtunnel	13601
Ġscratch	13601
Ġdownstream	13600
Ġbags	13597
boolean	13595
Len	13593
Ġprom	13593
Ġretained	13589
ĠBBC	13589
Ġgraduate	13588
Ġcausal	13587
ĠND	13587
ĠLabor	13586
038	13584
ĠMaryland	13583
Ġpas	13582
ĠGovernor	13582
Ġburning	13578
Ġbell	13578
ĠDrug	13578
0000000	13572
Ġquoted	13572
Ġscanning	13570
Ġethanol	13570
~-	13567
Eq	13565
ĠEt	13565
Ġfeatured	13563
420	13562
acle	13561
Ly	13561
ĠATP	13556
prec	13551
ĠSEC	13550
Ġsy	13549
Ġdrives	13549
Ġguaranteed	13548
Ġdevelopmental	13548
Ġsocio	13547
Ġir	13547
Ġchampionship	13547
yb	13546
Ġrelied	13543
Ġimper	13543
Ġaf	13542
ĠLes	13539
obs	13538
nv	13538
ARY	13537
Ġcontemporary	13537
Ġinhibit	13536
Ġ07	13535
Ġterrorist	13531
Ġtopological	13530
Ġinline	13530
Ġgathered	13530
Ġelite	13529
Ġstimuli	13528
Ġcytokines	13527
chol	13526
ĠBT	13524
cloud	13522
Ġdatasets	13519
without	13517
emia	13515
Ġincubation	13515
ĠAE	13515
containing	13514
lower	13513
ĠBowl	13513
Ġconsistency	13511
!!!	13507
risk	13506
Gre	13504
ĠÎĶ	13503
ĠMun	13502
Ġediting	13501
ĠKel	13501
Ġmodulation	13496
Ġgal	13495
Ġtobacco	13494
ĠSummer	13493
mont	13492
Ġpersist	13486
Ġchromosome	13486
Ġ1979	13485
Ġpray	13483
Ġske	13481
ĠProcess	13480
Ø±	13478
uan	13478
cluster	13478
Ġfate	13478
Ġcave	13478
Ġesc	13477
Ġaccounting	13477
Ġwriters	13476
Ġaffinity	13476
ums	13474
Ġscreens	13473
ĠDD	13473
ĠLED	13472
COMP	13471
Ġmacrophages	13471
Ġconce	13471
Ġrental	13470
thy	13469
quality	13467
ophil	13463
nger	13463
ĠOregon	13463
224	13461
ĠCli	13461
ques	13458
Files	13457
Ġought	13457
Ġreaches	13456
Ġprof	13456
Ġordering	13455
Ġstrengthen	13453
Account	13452
Ġindicator	13452
Ġclothing	13451
ared	13450
Ġdeposit	13450
Ġmanifold	13449
Ġconsisted	13449
Ġbackup	13446
Ġrip	13444
eye	13442
hist	13440
goto	13438
Ġoverr	13438
Ġinnocent	13435
sea	13434
sig	13431
Ġlacking	13431
Ġentertainment	13431
221	13430
Ġoz	13429
orious	13426
Ġoptional	13424
owner	13423
è®	13422
Ġfort	13421
Ġexpectation	13421
ige	13417
Stat	13417
HM	13414
Ġsolvent	13414
Player	13411
Ġstruggling	13409
ĠGuide	13405
continue	13404
article	13404
Ġlum	13404
elle	13401
ilo	13398
Ġasymptotic	13398
Ġsanctions	13397
ÐµÑĢ	13396
Ġstaying	13395
Ġawait	13395
169	13390
ĠClinical	13390
ometry	13389
elf	13389
Ġtemple	13389
Ġgenerates	13389
ifi	13388
ĠFuture	13387
hur	13385
ĠTask	13385
Ġtrou	13382
ĠPers	13382
Ġtrailer	13381
Ġdra	13381
ditional	13377
/"	13377
Ġhypot	13376
ĠHong	13375
ĠGun	13375
wk	13373
Ġretired	13369
Ġtackle	13368
Ġpale	13368
ĠOil	13368
icul	13366
ĠTs	13366
VERSION	13364
Ġtermination	13363
Ġoccupation	13361
Ġmedications	13361
ĠVictoria	13361
çĶ¨	13358
both	13357
aws	13357
around	13357
ĠBuild	13357
Email	13356
)&	13355
Ġmerge	13354
Ġanimation	13354
Ġsubstances	13353
Ġpredictive	13353
Ġdear	13353
allow	13352
Ġenormous	13351
medi	13347
Ġcarb	13346
ĠMuslims	13344
amino	13343
Dan	13343
URI	13340
Schema	13339
ĠPrince	13339
program	13337
Ġcorrected	13335
ĠRoss	13335
ĠNic	13335
AMP	13333
Ġ350	13333
ĊĉĊ	13332
CHAR	13330
1987	13330
him	13329
1985	13327
270	13326
Ġcarries	13321
Empty	13318
Ġconstitu	13317
Ġacqu	13317
xff	13316
Ġcann	13311
ema	13310
(!	13309
Ġdistant	13308
ĠRN	13306
)}{\	13305
Ġspect	13305
LINE	13301
Ġreplacing	13301
Effect	13300
Consider	13299
0006	13299
Ġantioxidant	13299
Ġolig	13298
works	13296
027	13296
vas	13295
ague	13294
Pool	13289
NB	13289
Ġbeg	13289
ĠObserv	13289
209	13288
Ġlogo	13288
Ġhighway	13288
ĠExecutive	13287
utf	13286
Ġspinal	13286
ĠHus	13286
upt	13284
CONT	13283
Ġdreams	13281
Gar	13275
\(	13274
Ġconscious	13274
Ġtick	13272
ĠScientific	13272
iest	13271
mill	13264
ired	13264
ensive	13264
Ġplacebo	13264
soc	13262
Bs	13262
Ġservers	13262
ĠKIND	13262
aki	13256
Ġpainful	13253
pper	13251
Ġfragments	13250
uh	13249
Ġcollision	13249
Ġreporters	13248
Ġpc	13248
fm	13244
abe	13244
ĠÐº	13242
ĠUbuntu	13240
very	13239
icated	13239
ĠNeuro	13239
tb	13235
Ġsync	13235
Ġmorph	13235
Single	13234
Ġ06	13233
iterator	13232
anda	13232
Ġscenarios	13230
Ġcontributing	13228
*}	13226
Ġentropy	13226
ĠHat	13224
cted	13223
Ġinitiative	13223
Ġhind	13221
ĠHillary	13216
ĠCommand	13213
ĠGraph	13209
mix	13207
Ġgastric	13206
shared	13203
AX	13197
ĠHollywood	13197
Api	13196
gram	13195
Ġshifts	13195
Ġships	13194
ĠComm	13194
Ġnie	13192
Join	13191
Runtime	13189
Ġxml	13189
Ġsweat	13187
Arch	13185
Ġstraightforward	13183
nx	13182
ĠHarry	13181
Bit	13180
Ġexceptions	13179
Ġinhibitory	13178
Ġtendency	13173
ĠFan	13172
Ġpossibilities	13171
}))	13167
David	13166
Ġburst	13166
Route	13162
Ġhip	13162
Ġbroader	13160
Ġsor	13159
Hol	13158
Ġkil	13158
Ġpoorly	13157
pet	13156
Ġschemes	13156
Ġguilt	13156
ĠCommon	13155
1988	13152
Ġdock	13150
Ġ1977	13150
Ġhired	13148
Ġutil	13146
ĠVP	13146
exception	13144
Ġcharacterize	13142
Ġ$${\	13141
Ġlicensed	13137
Ġbegun	13137
Ġallele	13137
uing	13136
Ġsyntax	13133
Ġfitted	13133
Ġmarch	13132
ĠLab	13131
ĠClick	13130
yle	13128
rene	13126
Ġspokesman	13125
Ġpresenting	13125
ĠEth	13122
Ġpig	13120
ĠPop	13119
Ã¨re	13118
Ġgit	13118
Ġlawyers	13116
ĠRab	13114
tet	13113
Ġstrand	13113
Ġchairman	13113
Ġneighbors	13111
Ġhire	13111
Ok	13110
Obj	13110
cot	13109
Platform	13109
Ġdetecting	13109
Ġforecast	13104
ĠCredit	13104
ises	13103
Ġartic	13101
aneous	13100
ĠPel	13100
ĠPack	13100
Ġnoting	13099
Ġdeck	13098
Ġmile	13096
hb	13093
Ġinvest	13093
Ġneuronal	13091
Ġencountered	13091
Ġ138	13091
wards	13090
ĠFle	13090
cong	13089
ĠMN	13089
cross	13088
Directory	13088
enu	13087
___	13084
Ġanalysed	13084
ĠDet	13084
valid	13082
pair	13082
minute	13082
[*	13082
Ġcrypto	13082
ĠAlabama	13082
Ġwanting	13081
ĠLLC	13081
Ġcurvature	13080
^{+	13079
ĠFP	13077
returns	13075
Ġinvasive	13075
Ġroyal	13074
Ġoxid	13074
fg	13073
Ġarchive	13073
ssl	13072
Ġequity	13070
ĠMiami	13070
pec	13069
Ġscar	13069
ĠOklahoma	13069
period	13068
ĠARE	13068
Ġ137	13067
Ġflower	13066
ĠHU	13066
depth	13065
SYS	13064
roy	13063
hh	13061
Ġfishing	13059
ĠStr	13059
ĠNothing	13059
ĠPhiladelphia	13058
Ġindividually	13057
251	13056
Ġmanagers	13054
ĠLL	13054
Ġamid	13053
Ġessay	13049
173	13048
Ġlogin	13047
ĠFil	13047
ogenesis	13044
Ġoccupied	13044
Therefore	13041
Ġhemat	13039
}}^{\	13038
Package	13038
Ġdiscipline	13038
Ġinconsistent	13037
Ġdiagonal	13037
Ġmeals	13036
Ġmist	13034
Ã¡Âº	13033
ĠOk	13032
Ġkg	13030
Rem	13029
Ġstolen	13028
})^{	13026
>'	13026
Ġhearts	13024
Ġinterfere	13020
oster	13018
oga	13018
Ġchemicals	13018
ĠCells	13018
Ġgentle	13017
ĠSimon	13017
Connect	13016
:</	13016
Ġroutes	13016
ĠThor	13016
player	13015
Ġdelicious	13013
Ġash	13013
Ġassociate	13012
say	13010
Ġcelebrate	13006
Ġdar	13005
Ġworship	13001
Ġgenotype	12999
Ġaligned	12999
ĠHen	12999
ĠOd	12998
ĠWy	12996
Ġsphere	12994
Ġ145	12994
Pin	12993
Ġ1978	12991
Ġspecimens	12989
edia	12988
051	12988
bh	12987
Gener	12987
Ġaffairs	12987
Ġvirtue	12985
ĠBox	12984
ĠCSS	12983
decl	12982
Ġirre	12981
ĠRas	12981
sent	12979
FU	12979
Pur	12976
Ġesp	12975
ores	12974
Ġhomogeneous	12974
Ġexceptional	12974
ĠTL	12973
Ġborrow	12971
Ġ182	12971
wed	12969
ĠNik	12968
Ġsurrounded	12966
ibi	12964
Ġfever	12963
Ġpositioned	12961
ĊĊĉĉĉĉ	12961
ĠDiego	12960
Ġlogistic	12958
ĠBMI	12958
pent	12957
Ġsci	12957
Ġalien	12956
execute	12955
Ġurine	12955
Ġdont	12955
Ġovert	12954
Ġformulation	12954
ĠCollection	12953
ĠROS	12952
flag	12951
editor	12951
223	12950
ï¼ļ	12949
Ġorganize	12948
exper	12947
social	12946
single	12946
hero	12945
Names	12945
Ġcitizen	12943
Ġcheer	12942
âĶĢâĶĢâĶĢâĶĢ	12940
BY	12939
215	12939
Ġtwe	12938
Ġraises	12934
Ġlegislature	12934
Ġoperational	12932
ĠWrite	12932
Ġsubmission	12931
Ġlocalized	12931
Ġarises	12931
233	12928
DH	12923
Kit	12922
ĠMatthew	12922
Ġbite	12921
Ġcomme	12920
Kind	12919
vp	12918
rett	12917
Ġaddressing	12917
ĠJavaScript	12917
Character	12916
Ġrack	12916
Ã£o	12915
Abs	12915
301	12915
Ġbeings	12915
ĠBureau	12914
Matrix	12912
330	12912
Ġproto	12912
Ġprostate	12911
Ġnegotiations	12910
ĠAz	12910
springframework	12909
rand	12909
patch	12909
arily	12908
Trump	12900
distance	12899
ĠForest	12899
Those	12898
Pointer	12898
inar	12895
ifer	12895
ERR	12893
ĠSimilar	12893
Ġstir	12892
Ġcompiler	12887
radio	12885
Ġhandled	12885
Ġbump	12885
ĠInvention	12884
Tom	12882
"],	12882
Ġdistribute	12882
iny	12880
aris	12880
Ġplat	12880
Ġbail	12880
quant	12875
ĠMeta	12875
ĠLabour	12874
Ġgru	12873
Ġlets	12871
Ġgrants	12871
ession	12864
Ġallocation	12864
ĠMusic	12863
![](	12862
Ġsocket	12861
ĠAnt	12861
iber	12857
upp	12854
:'	12852
ĠStock	12851
Ill	12850
ABLE	12850
Ġgy	12849
Ġcorporations	12849
260	12848
035	12848
ĠInstr	12848
))/	12847
ĠEnc	12847
ĠNight	12846
ĠÂ«	12845
suppl	12844
osomes	12842
nam	12842
Ġmel	12842
Temp	12841
ĠAngel	12840
Evaluate	12839
Ġorgans	12838
username	12837
Valid	12837
ĠCapital	12837
Depend	12836
Ġsubstitution	12834
ĠFive	12832
Hz	12830
ĠLevel	12829
ÂłÂłÂłÂłÂłÂłÂłÂł	12828
Ġconvenience	12827
ĠLanguage	12827
ppat	12825
Ġdesk	12825
ĠLink	12825
Ġintensive	12824
ĠSeattle	12824
DEF	12823
clean	12819
abi	12817
Ġpup	12817
erv	12811
/)	12810
Ġflex	12810
Proc	12809
Ġclubs	12809
Ġverified	12806
ĠLac	12806
Ġrolling	12805
Black	12804
ĠMoon	12804
âĢ©	12803
ulf	12803
Ġconsiderations	12803
ĠMarine	12802
ĠHub	12798
paper	12797
particle	12795
course	12795
MN	12793
Ġlips	12791
}$-	12788
Ġ181	12788
ĊĉĉĠĠĠ	12788
sheet	12787
Ġsheets	12782
Ġcarriers	12782
Ġtransplant	12781
calc	12780
Ġshapes	12778
Ġhighlighted	12777
ĠElement	12775
Ġ$.	12775
Ġcosm	12771
Ð½Ð¾	12769
XX	12768
Ġdrill	12768
Ġtransmit	12767
ï¼	12766
DEBUG	12765
206	12765
ĠÎ¼m	12763
ĠPU	12763
Queue	12762
Double	12759
Ġoccasionally	12759
Ġinsights	12759
Health	12756
ĠShare	12755
ãģĹ	12750
Ġexpanding	12749
sam	12746
Ġonc	12746
Ġlumin	12746
catch	12745
ĠÎ¼M	12745
Ġbarriers	12745
olog	12744
Ġvibration	12744
Ġlobby	12744
Ġengaging	12744
erson	12743
Ġpunch	12742
Ġsimulated	12740
Ġflexibility	12735
Ġleak	12734
Ġinde	12734
Ġquadr	12732
ARE	12730
ĠEdward	12730
natal	12727
Ġbreed	12727
ĠSus	12725
ĠEditor	12725
ĠImm	12722
}}})	12720
Creat	12718
Ġ(<	12718
ĠWS	12716
Ġbreathing	12711
Ġdistricts	12710
Ġsuggestion	12709
ĠRick	12708
ĠMotion	12708
Ġdig	12703
Ġapproached	12703
ĠHaving	12703
parameter	12700
Ġundefined	12700
cht	12698
Ã¡n	12697
VS	12697
ĠCAR	12697
orted	12695
ĠâĤ¬	12695
Ġmetallic	12695
ĠMaria	12694
*\<	12693
ãģŁ	12692
Ġremarks	12691
ĠFr	12690
bullet	12689
Ġhub	12689
Ġaccommodate	12689
ĠIdent	12689
heat	12688
brief	12688
Ġdishes	12686
Ġincredibly	12684
igma	12682
identifier	12682
ĠFootball	12681
SHA	12680
Ġvolunteers	12680
$;	12679
Ġmonitored	12678
>>>	12676
Â¤	12675
Ġidentifier	12675
\!	12671
itch	12670
Ġremedy	12670
Ġangles	12670
Basic	12667
Ġimpacts	12667
Ġenvelope	12667
ĠGab	12664
wx	12661
clock	12659
abc	12658
Great	12655
ĠForeign	12655
Ġforgive	12653
264	12650
Ġtongue	12649
ĠEuro	12648
Ġterror	12647
NY	12645
Ġsleeping	12645
Term	12644
brain	12643
into	12642
ĠDad	12642
Ġsolving	12640
fil	12639
]+	12635
Ġtitles	12634
ĠStone	12634
journal	12631
North	12630
===========	12625
Ġquant	12622
Ġteaspoon	12620
variant	12619
rick	12619
Ġdying	12619
åľ¨	12618
Prote	12618
029	12618
Ġgarlic	12618
Ġdisposed	12613
Ġinference	12611
fusion	12609
Ġconstructor	12609
Ġts	12608
cular	12607
Ġconform	12607
Ġabandoned	12606
ĠStre	12606
ivo	12605
ĠOper	12605
oms	12603
ĠMAP	12603
Ġjoke	12602
Ġarrays	12602
tags	12601
ĠChannel	12601
delim	12600
ĠÃħ	12600
tests	12599
Ġimply	12599
Ġextracts	12599
Track	12598
Ġpurely	12593
Ġconversations	12593
Ġslice	12592
Ġdr	12592
ä¹	12590
Ġ%>	12590
ĠStudent	12588
ÃĲÂµ	12587
Ġbalanced	12585
3000	12584
Users	12583
Ġcoin	12583
Ġadhesion	12583
dig	12581
Ġfilename	12580
Ġspoken	12579
dz	12578
Ġsuppressed	12578
FONT	12576
ĠNH	12576
Sam	12575
Ġmandate	12574
Ġlemma	12574
ĠDoctor	12574
Ġjar	12571
bits	12570
fect	12569
itative	12567
iler	12567
>()	12567
Ġrestrict	12565
Ġligand	12563
Ġlemon	12563
ogram	12562
norm	12560
Ġhitting	12560
pping	12559
Ġballot	12556
Ġpension	12552
Ġ1975	12552
****	12551
ĠEqu	12548
otion	12546
fact	12546
cpu	12541
uma	12539
Further	12539
rica	12537
ĠOxford	12535
Ġgranul	12534
Ġvalidate	12531
serial	12529
asa	12529
lers	12528
Ġfocuses	12528
Ġinnovation	12527
ĠEss	12526
Ġoccup	12525
Ġsteal	12523
Ġke	12520
1983	12519
......	12518
Ġsixth	12518
Ġpleased	12516
Ġalk	12516
Ġpulling	12515
Ġox	12514
Ġmandatory	12514
Ġcontroversy	12513
Ġproceeds	12511
Ġretrospective	12509
rans	12508
etti	12508
Short	12507
Pay	12505
Ġfin	12500
ĠFel	12500
Mat	12499
Ġpromoted	12499
Ġdozen	12498
Ġconsiderably	12498
quote	12496
Ġtransitions	12496
Ġ139	12494
platform	12493
Ġaccordingly	12493
hidden	12491
Ġdeleted	12491
ĠHeart	12491
ãģ¯	12490
Ns	12490
ĠMessage	12489
Ġaggregate	12488
Ġarguing	12487
Ġ'/	12487
look	12485
Ġdisplacement	12484
ĠLit	12484
333	12483
ĠResponse	12481
Ġcultiv	12479
ĠJP	12473
protect	12472
Ġexhibits	12472
Ġmorphology	12471
Ġexplaining	12471
Ġtranscripts	12469
Ġintact	12469
ctor	12468
ĠBot	12465
XC	12464
ĠDisney	12464
ĠHT	12463
Ġautomobile	12462
ĠSmall	12462
lessly	12461
Word	12460
ĠLeft	12460
ood	12458
ĠGarden	12458
PECT	12457
ending	12456
proof	12455
Ġhr	12452
ibilities	12449
Ġmobility	12449
Ġic	12449
equals	12447
oking	12445
Bru	12439
Ġindirect	12438
ĠTheory	12438
WIN	12437
Ġpun	12435
Ġdeclaration	12435
Cas	12430
ĠVisual	12427
Ġ220	12427
Copy	12424
uses	12423
ometer	12423
Extra	12423
Ġvolunteer	12423
olution	12422
Ġcompromise	12421
ĠWO	12420
ĠMissouri	12419
ĠVideo	12418
ĠTRA	12418
Ġconfirmation	12417
Elect	12416
="../	12414
tile	12413
ĠNBA	12411
Ġ});	12410
Ġadoption	12408
Ġanonymous	12407
Ġrepl	12405
UTE	12402
Ġmanufacture	12402
Wil	12401
Ġencoded	12401
312	12400
Ġchol	12400
Ġties	12398
Ban	12396
Ġdt	12395
>;	12394
Invalid	12393
Ġevaluating	12393
Clear	12391
Ġvolumes	12391
ĠOverall	12391
hens	12390
,âĢĻ	12390
Ġconducting	12389
osity	12387
Ġplacing	12387
Ġhanging	12386
Ġ240	12386
ĠOnline	12377
Ġphones	12376
ĠMorris	12376
fy	12373
isco	12372
ĠDU	12371
GD	12369
Ġreportedly	12369
Summary	12368
ĠVM	12368
ĠWhit	12367
ĠCustom	12367
classes	12366
ACK	12364
228	12364
Ġ'<	12364
Ġasserted	12362
Ġcannabis	12361
Ġrelaxation	12359
Ġrecruitment	12359
ĠTher	12359
Ãº	12353
Ġmuseum	12353
ĠFun	12352
Ġenemies	12351
Ġ360	12351
ads	12350
Ġatt	12347
ĠEG	12347
Ġchips	12346
imum	12343
Ġreserve	12343
Ġprayer	12343
Ġsew	12341
Ġreviewing	12341
ĠRapids	12341
ĠMot	12340
parallel	12339
Ġ(_	12338
Jan	12337
Ġofficially	12337
Ġballs	12337
oting	12336
Sy	12334
Policy	12334
æķ°	12333
Miss	12330
Ġpink	12325
Ġblockchain	12325
ĠTem	12323
[:	12322
Standard	12322
Ġexon	12322
extern	12321
Ġimplementing	12321
ĠSurvey	12321
Ġlegally	12320
Ġtransl	12319
Ġquarterback	12319
Ã©m	12318
ĠAppl	12318
Ġhormone	12317
chen	12316
Ġimplements	12316
success	12314
iw	12314
Ġward	12313
Mask	12311
Ġens	12311
Ġsustainable	12309
ĠEB	12307
eting	12305
Prep	12305
eto	12302
ĠRelated	12300
Ġvaries	12299
ante	12298
Ġsubsection	12298
Ġplum	12298
YS	12297
icing	12294
Ġcounting	12293
Ġbare	12292
Ġriding	12291
Watch	12289
Ġthrew	12288
Ġoutdoor	12287
tail	12286
Ġtranslate	12284
Ġdecom	12284
ĠSquare	12284
Ġfetch	12283
036	12281
TX	12280
Subject	12279
Ġaw	12279
SG	12277
Ġopera	12275
}^*	12274
Ġinst	12273
KO	12272
ĠâĢĻ	12272
Byte	12270
ules	12269
Ġ1976	12269
ĠWolf	12266
Contact	12265
Ġintim	12265
ĠYouTube	12263
KS	12256
Fat	12256
ĠBD	12256
Ġfiction	12249
äº	12247
Ġoverwhelming	12244
ĠModi	12244
got	12243
HB	12243
ĠFrancis	12242
Ġtraveling	12241
ĠRap	12241
Scale	12240
Ġfestival	12240
ĠThrough	12235
Ġpollution	12234
Ġmethodology	12234
xsl	12231
Ġproxy	12230
Ġcatheter	12230
Ġgamma	12229
typename	12227
ĠWars	12227
ĠLip	12227
ĠIo	12227
nil	12226
TN	12225
Ġconstitutes	12224
PAR	12223
Ġferm	12219
Ġmyel	12218
Ġmetastasis	12218
Ġbee	12216
aton	12215
ĠEver	12215
Ġdenoted	12213
ĠMont	12212
Ġnuclei	12210
Ð¾Ð²	12209
Ġtears	12208
were	12207
Db	12207
irl	12206
Ġlessons	12206
=".	12204
Ġcomparative	12202
Ġmunicipal	12201
license	12200
ĠProc	12200
tech	12198
Ġshifted	12195
0011	12194
Åį	12193
Ġhes	12192
ually	12191
Hen	12190
Ġventure	12189
ĠMRI	12189
ĠGolden	12189
AME	12188
tha	12185
Year	12185
Ġbiology	12185
ĠSearch	12181
Ġlig	12177
Ġlesser	12177
Ġinnovative	12177
Ġcalendar	12176
ĠPalestinian	12176
rier	12174
gf	12174
amed	12172
Light	12172
Comb	12168
Ġappearing	12168
ĠSou	12168
imer	12166
Ġsusceptibility	12166
Ġsubstrates	12166
Ġraces	12165
ĠHold	12165
ãĢ	12161
Ġdrops	12160
Ġcurious	12160
Ġadvocate	12160
bia	12159
exists	12158
Ġreproduce	12157
Ġclaimant	12155
.[]{	12154
Ġimmigrants	12151
Ġlengths	12149
sized	12148
Ġwages	12148
twitter	12147
Ġcups	12147
Ġwheat	12146
ĠLam	12146
Ġpole	12144
ĠSTR	12144
ĠGy	12144
Ġextracellular	12143
ĠBUT	12143
illo	12139
Ġ``	12138
ĠSad	12138
cence	12137
1982	12136
Ġorganisms	12136
Ġbasal	12136
mouse	12135
Ġ203	12135
formula	12134
Member	12134
Ġviable	12134
Ġcit	12134
Ġcancel	12134
aling	12129
)/((-	12129
Ġstepped	12128
Ġrally	12128
hydro	12127
Ġobjectives	12126
Ġprobation	12124
252	12123
Ġram	12120
Ġoxidation	12120
Ġcaptain	12120
Ġappellate	12120
Seq	12119
Mean	12119
Ġ700	12118
Ġspeaker	12116
Ġdispens	12114
rome	12112
Ġdro	12112
Ġerroneous	12110
Ġdramatically	12110
Ġdiscussing	12110
Ġ155	12110
Ġabilities	12109
Ġfallen	12106
Ġconfigurations	12106
ĠWithin	12106
æľ	12105
abil	12105
))*	12104
čĊĠĠĠĠĠĠĠĠĠ	12104
Ġinfluenza	12102
merge	12101
Ġsubtle	12100
Ġmot	12100
Off	12099
chel	12098
Ġ204	12098
ART	12096
Ġmerits	12095
Ġdevelopments	12093
Ġmanipulation	12091
>::	12090
Ġinvestigators	12090
organ	12089
Ġvacation	12088
Program	12087
Ġpra	12087
Ġ157	12087
extend	12085
Ġcyto	12085
ä¸Ń	12084
ÂłÂł	12084
emon	12084
WO	12083
ĠrÃ©	12083
Ġhighlights	12082
=&	12081
qual	12080
Ġprefix	12079
Ġcharging	12078
Lett	12077
Ġwithdrawal	12076
ĠDallas	12074
Ġsalad	12073
Express	12072
Ġasserts	12069
ĠSure	12069
Information	12068
Storage	12067
Following	12067
itated	12066
1980	12065
Ġsumm	12065
Ġgather	12065
Court	12064
Ġredirect	12064
ĠINC	12062
hang	12061
Ġtransverse	12061
IZ	12060
ĠReturns	12060
Ġpose	12058
Ġcirc	12057
Ġparams	12055
Ġwisdom	12054
Ġprize	12052
oda	12050
Ġnecessity	12050
Ġdefe	12049
Selected	12045
anta	12044
Ġfluorescent	12043
proto	12041
207	12041
utt	12039
Ġrobbery	12039
Ġconvex	12039
ĠRou	12037
ĠGener	12037
Ġexcitation	12036
atur	12035
ORT	12034
Ġdialogue	12034
ledge	12032
ĠBurn	12031
ĠBerlin	12031
alc	12030
Ġmos	12030
Ġattending	12030
Ġhumanity	12029
ĠNav	12029
Ġnutrition	12028
ql	12026
Ġ179	12021
_;	12020
Play	12020
Ġgathering	12018
caps	12017
Ġdiscontin	12016
ĠProcedure	12016
ĠNotice	12016
Ġdefence	12014
ĠVir	12014
subject	12013
Ġmount	12013
Ġoperates	12011
Ġbp	12011
Ġmodest	12010
ĠRules	12009
070	12008
hill	12005
5000	12004
riz	12001
Ġsafely	12000
Ġpretend	12000
contract	11998
pattern	11997
Ġreceipt	11997
ĠIde	11996
algebra	11995
Ġprevents	11994
reset	11993
opol	11993
ĠSingapore	11992
ĠFinancial	11991
beat	11990
^](#	11989
ĠHelp	11985
Ġlighting	11984
Ġaffordable	11984
Ġtw	11983
Ġnut	11982
245	11980
Ġproducer	11980
Ġol	11979
Ġfucking	11979
208	11976
Ġcredibility	11976
irect	11975
Sat	11975
Ġxmlns	11975
Ġstopping	11975
Ġassertion	11975
Ġ151	11975
Ġly	11973
chart	11972
Ġdonors	11972
{$	11971
Serial	11971
Ġprojected	11971
Ġalterations	11970
fx	11969
Ġfreely	11969
Ġhanded	11967
vn	11966
Ġalternate	11966
Ġhorror	11965
)~	11963
pling	11960
opathy	11960
jax	11960
Ġadditive	11959
Ġ175	11958
linked	11957
Ġunity	11957
ĠTennessee	11956
grat	11954
Ġpassive	11952
Ġbud	11952
hav	11951
Ġpacked	11951
Ġcatalog	11951
Ġincorrect	11950
ĠAlexander	11950
{|	11949
Ġutilize	11948
ãģ¨	11941
0007	11941
ĠWu	11939
Move	11938
inity	11937
ĠProtection	11937
Ġpac	11936
Ġcatalyst	11934
Complete	11932
Ġgolden	11931
Ġbother	11931
ift	11928
Ġcombining	11928
Fed	11927
ĠGot	11927
ĠBeck	11927
[-	11926
Ġ"%	11926
rection	11925
Ġnurses	11925
Ġbow	11925
,\,	11923
Ġroller	11923
gor	11922
Ġmeets	11921
ĠMorgan	11921
044	11918
Ġcameras	11915
Ġamplification	11914
PV	11913
ĠTony	11913
ĠChampionship	11912
miR	11911
UTF	11911
Ġtriggered	11911
rust	11910
Ġnom	11910
Ġathletes	11909
Ġjam	11907
National	11906
Ġment	11906
oming	11904
Ġmilit	11903
ĠMexican	11903
Ġexam	11902
Ġinherent	11901
Âĩ	11899
ubs	11898
Ġremand	11898
Ġretention	11897
vac	11896
utter	11896
ĠPlayer	11896
soft	11895
Hon	11895
Ġdeficit	11895
Ġ143	11895
Ġdensities	11894
Ġconcert	11894
ĠPURPOSE	11890
azi	11889
Fore	11888
Ġ[(	11887
bridge	11886
ncing	11885
Ġineffective	11881
since	11880
ĠRand	11879
Ġbitter	11877
)",	11876
Ġ142	11876
Ġrival	11875
Ġarbitration	11875
Argument	11874
Simple	11873
Ġ---	11873
itary	11872
Flow	11871
ogra	11870
]))	11870
|^{	11867
Ġinitiation	11867
Ġbonus	11867
}{(	11866
ressive	11866
Power	11866
Ġconnector	11866
FROM	11865
BN	11865
Ġinvestments	11864
ĠPas	11864
ĠAy	11864
750	11862
ĠCab	11862
Ġreass	11860
ĠWalker	11860
Ùħ	11859
resp	11857
ĠMY	11857
wh	11856
Ġoccasions	11856
Ġpromises	11855
mf	11853
Ġconsultation	11853
Ġclimb	11852
oil	11851
ĠCel	11848
cause	11847
Ġprotests	11847
Ġartists	11847
Ġrobot	11846
ĠPremier	11846
route	11844
Security	11843
ORY	11843
Ġaqu	11843
pie	11842
jc	11841
itical	11840
Ġfence	11838
ĠHawaii	11837
Ġure	11836
eler	11835
Ġfle	11835
ĠOT	11835
perform	11834
ĠLang	11834
Ġinsist	11833
Ġpub	11832
ĠSelf	11832
Ġinspiration	11829
events	11827
Ġdemocratic	11825
ĠHunt	11825
ĠGre	11825
ĠCulture	11825
Ġ\*	11823
Ġ?>	11822
ĠRelease	11820
phys	11818
Ġë	11818
éĢ	11815
ĠWould	11815
Place	11814
ĠCav	11814
Ġmistakes	11810
ĠSG	11806
Ġjudges	11805
ĠAuthority	11805
ÙĪ	11804
vee	11804
itution	11804
OPT	11802
ĠGall	11799
Texture	11798
Spe	11798
Ġ210	11798
pref	11793
Ġads	11792
Paul	11789
zza	11787
counter	11787
Green	11787
Ġinsured	11787
tax	11786
ĠJosh	11786
Ġhepat	11785
istance	11784
ĠÐ¾	11784
Ã©n	11783
ÃĲÂµÃĳ	11783
Rate	11783
ĠDark	11783
ĠMcK	11782
manager	11778
iah	11778
Ġmotivated	11778
shell	11776
haw	11775
once	11773
Ġbaking	11772
Ġensuring	11771
Ġapt	11771
Ġdatabases	11765
Ġbroker	11763
Ġactivists	11762
Ġpalm	11761
every	11760
ĠDefault	11759
Ġfacial	11757
osite	11756
Ġsav	11756
Ġcircum	11756
props	11754
grad	11754
$:	11754
olin	11753
compare	11753
Func	11753
mad	11751
ĠWhe	11751
Ġdated	11750
Ġabundant	11750
Ang	11749
Ġ153	11747
ĠStudio	11744
Ġearnings	11742
218	11741
Ġboards	11741
ĠLeg	11741
Ġsurge	11740
ĠWorks	11740
cess	11739
Ġele	11738
Ġamongst	11738
ĠExpression	11736
Ġwrit	11732
ĠRD	11730
ĠArabia	11730
Ġtheater	11729
})$.	11727
Ġdeparture	11727
Ġ165	11727
etric	11726
Ġdowntown	11726
Ġprognosis	11725
ĠSite	11725
---|---|---|---|	11724
Ġthrowing	11723
ĠVice	11723
Gene	11722
Ġpremises	11722
Ġhypert	11722
Ġdisadvantage	11722
à´	11721
ĠMeanwhile	11721
ĠSarah	11720
typ	11718
401	11716
Ġtherapies	11714
Ġcompile	11714
ĠĠĠĠĠĠĠĠĠĠĠĠĠĠĊĠ	11714
cine	11713
Ġduct	11713
ĠMagn	11713
ĠHoward	11713
convert	11712
Af	11712
ifndef	11711
usc	11710
=\"	11710
rx	11708
information	11701
Acc	11699
Ġshops	11699
MF	11698
Ġwithdraw	11698
Google	11697
uls	11695
)$-	11695
Ġ___	11694
bas	11693
ÐµÐ½	11692
375	11691
ĠJason	11690
Ġmodul	11689
ĠInn	11688
Ġreactive	11687
Ġdeployment	11687
Ġlos	11685
Ġvent	11683
panel	11682
Ġentr	11682
Ġcats	11678
ĠMAR	11678
ĠSY	11676
Ġ,\	11675
ĠMother	11674
Io	11673
Ġchopped	11673
Ġindustries	11672
ires	11667
ĠVar	11666
Parser	11664
ĠDIS	11664
Ġspeaks	11662
USA	11660
Sil	11660
Bundle	11660
Ġcytos	11660
540	11659
-,	11658
Ġuniversities	11658
CUR	11657
Ġrush	11656
Ġrespons	11656
ÙĬ	11655
Ġlag	11654
Ġjustified	11654
ULT	11651
bour	11650
Ġmanufacturers	11649
ĠTreatment	11649
Plugin	11648
:[	11648
Ġgrey	11647
)+\	11646
Ġsoup	11645
Ġcurl	11644
aker	11642
shire	11640
bach	11639
zb	11637
dose	11637
Ġzip	11636
Ġmusical	11634
Ġantibiotics	11634
Ġpassenger	11633
Ġrefuse	11631
034	11630
../../	11628
Ġmigr	11627
Ġfloating	11626
ĠCruz	11626
Far	11625
Ġlac	11625
Ġ-------------	11623
inkle	11619
Never	11619
303	11619
ĠCut	11617
sten	11616
ĠLater	11615
ĠCOURT	11615
PUT	11614
Ġemails	11614
ĠParent	11613
Ġprofound	11612
Ġarts	11612
ĠNK	11612
ĠAnna	11612
live	11610
Ġaveraged	11608
ĠIranian	11608
ĠBuilding	11608
Ġurge	11606
Ġfought	11606
Ġveteran	11604
Should	11601
Ġpackaging	11601
Ġmainstream	11601
Ġgro	11601
Ġtower	11600
kill	11598
Ġavoided	11598
Render	11597
Inf	11597
0009	11595
ĠcDNA	11595
ĠEmb	11595
urance	11594
Ġdeserve	11594
ĠDick	11593
ĠPARTICULAR	11591
dfrac	11590
HU	11590
Ġobligations	11588
Ġmicroscope	11588
Ġdebug	11586
ĠBU	11585
Bean	11584
Ġfruits	11584
ĠSK	11584
Ġplatelet	11582
Ġdismissal	11580
awn	11579
ĠFred	11577
Ġsho	11576
Ġratings	11576
Ġconvention	11576
Ġoptim	11575
340	11574
Ġthroat	11573
Ġexperiencing	11573
ĠCHECK	11572
asts	11571
ĠÐ´	11569
Ġcaution	11569
Ġceiling	11566
ĠFat	11566
ãģª	11564
\^[	11561
endo	11560
download	11559
ĠMeg	11557
Ġ141	11557
ĠMayor	11556
Ġsupplement	11555
Ġactu	11555
entity	11554
CHECK	11553
Ġter	11552
inct	11551
ĠFront	11549
ĠCOVID	11549
Memory	11548
Internal	11548
Ġramp	11548
ĠCaptain	11548
Leg	11546
Ġhorizon	11546
Ġlar	11545
forward	11544
Ġsteep	11544
pire	11541
Ġpreserved	11541
views	11539
environment	11539
HH	11539
Ġadvances	11539
ĠUSB	11539
ĠMountain	11539
oblast	11537
Scope	11537
later	11536
Ġkiller	11536
Ġbrilliant	11536
submit	11535
Ġalternatives	11535
Ġplaque	11534
Ġintelligent	11534
ĠMount	11534
}).	11532
Ġagricultural	11531
fra	11530
Ġadventure	11529
ĠDutch	11529
åį	11526
ptic	11526
ernal	11526
Ġlabour	11526
Ġhappiness	11523
ĠPrevious	11523
ĠPsych	11521
Ġ1950	11521
BASE	11519
ĠRemove	11517
rates	11514
ĠNL	11513
imo	11512
Ġrubber	11511
Ġintercept	11511
Ġcaps	11510
Poly	11509
Ġtrait	11508
ĠLegend	11508
team	11507
Ġgranting	11507
Ġexploration	11507
Sem	11506
ĠDN	11506
Quant	11505
Ġsearched	11505
Ġ....	11504
factory	11503
batch	11501
Ġmetrics	11501
ĠFerr	11501
observ	11499
]-[@	11499
===============	11499
ĠWales	11499
uity	11498
ands	11498
assign	11497
Ġregret	11497
Ġaz	11496
*:	11495
æł	11494
Ġeastern	11494
ĠAuthor	11493
ĠLock	11492
_[	11491
upload	11489
Ġvoluntary	11489
}{{\	11488
aint	11488
NV	11487
Ã´	11485
Ġexceed	11484
Ġcontamination	11483
Ġevolutionary	11480
Ġbrains	11479
Comment	11477
Ġsusceptible	11477
Ġsubjective	11477
ĠElizabeth	11474
Ġfasc	11473
Ġdispar	11473
`)	11472
Ġimpe	11471
Ġexplosion	11469
ĠBart	11468
unique	11466
Ġresidue	11464
Though	11462
Ġrevised	11460
Ġ256	11459
Ġclinically	11457
Ġclarify	11455
Ġswap	11454
Ġdistal	11454
Ġloads	11452
Ġdiabetic	11452
modal	11450
rab	11449
enia	11448
Ġselecting	11448
oxid	11447
Ġfertil	11447
Ġcabinet	11447
Ġdrift	11446
))?	11443
Ġadhere	11443
same	11441
mv	11441
Low	11441
Ġsuspicion	11439
ĠDouble	11439
Ġmedal	11438
osome	11436
293	11436
Ġtumour	11434
Ġviability	11432
UV	11431
Span	11431
Ġprimers	11430
}$]{}	11429
Was	11429
Ġunlawful	11429
ĠAccount	11429
Ġ146	11429
cred	11428
Ġstationary	11424
Ġupstream	11423
ilic	11421
Ġyard	11421
Ġpride	11420
Ġillustrate	11419
loss	11418
ĠIB	11417
quoting	11416
dump	11416
Ġ178	11416
Ġ152	11416
{{{\	11415
trace	11415
Ġdos	11415
)\\	11413
ĠBesides	11413
Ġvon	11412
Ġtrustee	11411
Ġpou	11411
Py	11410
Ġdisclose	11410
ĠBrad	11410
Ð·	11408
Keep	11408
Ġredshift	11408
Ġranked	11406
Ġinvite	11406
Ġinvent	11406
tex	11404
cmp	11403
character	11403
Ġfork	11403
ĠArts	11403
Ġmang	11401
Ġket	11401
Ġconsumed	11401
Ġexponential	11398
Ġintend	11397
ork	11396
Ġcompl	11396
ĠSenior	11396
ĠExpress	11396
Pass	11395
Ġ1973	11395
anim	11393
Ġmimic	11393
Ġcounted	11393
ĠAndre	11393
Ġrecipes	11389
EST	11388
iam	11387
Ġpremium	11387
Ġstamp	11386
Ġrelevance	11386
ĠCin	11386
STATE	11384
Ġresponsive	11382
Ġbot	11380
ĠComput	11380
mul	11379
Com	11379
Ġtranscriptional	11379
their	11375
Ġdesktop	11375
bury	11373
ĠReturn	11373
ĠIntel	11372
Ġdisrupt	11371
Ġunderw	11370
Ġthereafter	11370
Ġembarrass	11370
\{\	11369
Ġwaiver	11369
Ġpeaceful	11368
Ġrocket	11366
deb	11364
JP	11363
Ġpap	11360
emit	11358
nces	11357
Ġfigured	11356
Ġexcit	11356
ĠKin	11356
Cast	11355
Ġthumb	11353
ĠKnow	11353
Ġendogenous	11352
ĠTG	11351
ĠEE	11350
RNAs	11349
basic	11348
Ġbuck	11348
Ġpile	11347
lies	11346
MEM	11346
itter	11344
ViewController	11342
Ġphosphate	11342
ĠDog	11342
login	11341
)-\	11341
Ġsie	11340
Ġpredetermined	11338
Ġcenturies	11338
ĠUtah	11338
Ġintroducing	11336
Ġlake	11335
ĠVietnam	11333
ĠExtra	11333
oco	11330
ĠConvention	11330
odot	11328
Ġremind	11326
Ġ$|\	11326
Ġincomplete	11324
Ġhint	11322
ĠLM	11321
ĠRequest	11318
Ġbeef	11317
Ġtickets	11316
Ġlaptop	11316
tim	11313
Ġfoo	11313
Ġprolonged	11312
Ġfetal	11312
termin	11311
}\|	11310
Ġfurniture	11309
ĠBuck	11305
Ġappellants	11304
0015	11303
Related	11302
Ġreception	11302
Ġclassroom	11302
parser	11299
)->	11295
Ġincidents	11295
Ġblade	11294
oct	11293
Ġcrossed	11293
Descriptor	11292
039	11292
Ġprimer	11290
fly	11288
&=&	11288
Ġaffidavit	11288
ingly	11287
Ġemphasize	11287
ĠMos	11287
241	11283
ĠEquation	11283
vable	11282
ĠTex	11280
Ġcardi	11278
Ġinfectious	11274
Ġsacrifice	11270
Ġclearance	11270
Ġpanic	11268
ãĥ³	11267
ä½	11266
urt	11266
Ġprospect	11266
ĠDuke	11266
ĠRow	11263
Ġmem	11262
ĠUpon	11262
osure	11261
ĠLouisiana	11259
Ġ1972	11259
infected	11256
Ġseemingly	11256
ĠTurn	11256
Pad	11255
sters	11254
Ġventricular	11254
incre	11253
Ġannounce	11253
Ġdeadline	11250
Ġstri	11249
izon	11247
fileID	11244
Ċĉĉĉĉĉĉĉĉ	11244
Ġcorrections	11243
vascular	11241
Ġrhythm	11241
ilit	11240
å°	11237
Obv	11236
Ġhorses	11236
ĠRich	11236
},$$	11235
inch	11235
Ġinqu	11235
Ġevolved	11235
Ġfig	11234
Ġsheep	11232
Ġrepository	11230
Ġhabitat	11226
ĠWHO	11226
Warning	11224
aps	11223
Ġcertified	11222
ĠRy	11222
Best	11219
Ġeng	11219
Scroll	11217
))\	11217
Ġrecommendation	11216
Ġlocus	11215
[{	11213
Ġbrands	11212
arXiv	11211
Rad	11211
Msg	11210
Ġconcurrent	11210
ĠAffairs	11210
242	11209
,*	11209
Ġabdominal	11208
Ġsubspace	11206
ĠTrib	11206
ĠFITNESS	11205
Selection	11202
Ġsing	11202
afe	11201
.}	11201
ĠCurrent	11201
uj	11200
Ġ225	11199
Ġundergoing	11195
Ġgravitational	11195
à²	11193
Mock	11193
Ġemployers	11193
}>	11191
254	11191
Ġ149	11191
Trace	11190
Capt	11190
independent	11188
Ġharvest	11187
Ġdynamical	11187
219	11186
Ġfracture	11186
Ġtau	11185
Ġrotating	11185
Ġdesert	11185
ĠTr	11185
Ġawards	11182
ĠChap	11182
President	11179
Ġvoc	11177
Ġorthogonal	11177
ĠSay	11175
Ġtwelve	11174
DV	11173
olate	11172
Ġdemonstrating	11171
ĠOA	11169
ĠiPhone	11167
ĠNASA	11167
groups	11164
acco	11162
ĠPhysics	11162
ĠLPS	11162
kers	11155
Ġtur	11153
(__	11150
Ġcouples	11147
Ã§Ã£o	11146
Ġremark	11146
ĠâĢľ[	11145
Ġvir	11145
Ġupward	11145
243	11143
Ġamb	11143
ĠVery	11143
ĠVC	11143
ĠInfo	11143
ĠEmploy	11143
ĠCann	11143
Ġprinter	11142
âģ	11141
GFP	11141
Ġfeasible	11141
ĠSeason	11141
Ġordinance	11139
iki	11138
condition	11137
ä¸Ģ	11136
Ġrecombinant	11135
Ġinsurer	11135
Ġfool	11134
Ġachieving	11134
Ġfulfill	11133
ĠOD	11133
Ġlamin	11130
ĠBag	11128
Ent	11127
Ġjournalist	11127
radius	11126
Ġactin	11126
ĠAbu	11125
302	11124
Ġrendering	11124
Ġnights	11121
Ġbuttons	11121
ĠAssistant	11121
)>	11120
sect	11119
Dest	11118
Ġcf	11117
Ġcube	11116
raz	11115
Phil	11115
Ġemit	11115
Ġcad	11114
oft	11113
ICA	11113
Ġverb	11113
gment	11112
Ġ-----------	11111
ĠAddress	11110
atar	11109
045	11109
Ġconjunction	11109
ĠNetherlands	11109
ĠTarget	11108
Ġenrolled	11107
Ġpublications	11106
months	11105
Ġsorts	11105
ĠNeed	11105
Ġhoped	11101
Div	11100
Limit	11099
ĠNigeria	11096
Ġgraphics	11095
Ġlesson	11092
ĠLou	11092
ĠExample	11092
Care	11090
Ġsupervisor	11090
Ġempower	11087
pkg	11086
Ġpt	11086
ĠMg	11085
Mad	11081
Ġspontaneous	11081
safe	11080
omin	11080
Ġsys	11079
ĠsiRNA	11079
follow	11075
XP	11075
Ġpressed	11074
ĠCIA	11074
Sum	11073
Plaintiff	11073
)]{}	11068
à¦	11067
istration	11067
Ġresume	11067
Ġreside	11067
ĠSant	11067
ality	11066
cg	11065
)](#	11065
Ġtubes	11065
Ġsubd	11065
Ġcontacted	11065
]*	11064
Ġswimming	11062
ĠDave	11061
ĠBeing	11059
Ġ171	11059
480	11056
ander	11055
Spr	11050
Ġstab	11050
Ġtopology	11048
Ġunemployment	11046
Head	11042
Ġtorture	11042
235	11040
rator	11039
Ġ205	11037
Ġintegrate	11036
esse	11034
ĠTokyo	11034
external	11032
Ġinappropriate	11030
ÂĮ	11028
Dig	11028
ĠThink	11025
ĠPac	11025
Ġ------	11025
Ġcerebral	11024
550	11023
Ġstip	11023
Ġears	11023
hetic	11022
Profile	11022
ĠLot	11022
Ġdirectors	11021
ĠInteger	11021
bigl	11020
RET	11020
lict	11019
Sun	11018
Ġ1974	11017
ĠLind	11016
Ġoutline	11015
-.	11014
ĠEngineering	11014
luc	11013
techn	11010
Ġpromotes	11010
Ġcontributes	11010
247	11009
Ġtheft	11009
ials	11008
Ġsends	11008
Ġfatigue	11008
Mil	11007
;}	11005
Ġscared	11005
Ġcorrupt	11004
ĠAppendix	11004
GEN	11003
Ġtons	11003
Ġbabies	11003
æľī	11002
Ġwashing	11002
*),	10996
emphasis	10995
Ġut	10995
Ġloving	10995
Ġessence	10995
ronic	10994
heart	10994
Ø§Ø	10992
iction	10992
ĠUnlike	10992
fail	10991
Ġvaccination	10991
aph	10990
Ġfoster	10990
Ġadaptive	10990
ĠSaint	10990
CAR	10988
Ġspine	10988
Ġ"âĻª	10988
ican	10986
Ġphen	10983
ĠMember	10981
ĠElectric	10981
ĠMut	10980
Ġretrieve	10979
Ġflesh	10979
shadow	10978
('.	10976
ĠSingle	10975
ĠJerusalem	10975
iful	10972
ĠTon	10971
Ġneighbor	10970
Ġkinetic	10970
lad	10969
ĠPle	10969
ĠLat	10968
Ġ"",	10967
angi	10966
Ġloops	10964
Ġ154	10963
Ġisomorphism	10961
utable	10960
Ġconvictions	10960
ĠNeg	10960
Ġcant	10959
ains	10957
Ġgrin	10957
229	10956
Ġaqueous	10956
ĠOrgan	10956
ÙĦ	10955
flu	10951
PN	10950
$-$	10945
Ġneph	10945
Ġgra	10945
Ġspecification	10944
resistant	10943
emic	10939
Ġinstability	10939
Ġclustering	10939
Ġactivate	10939
238	10937
Blue	10934
Ġtel	10934
ĠProtein	10934
olve	10933
Unknown	10932
Ġattain	10932
ĠFourier	10930
talk	10929
memory	10928
rics	10927
Ġconcentrated	10927
ĠSOFTWARE	10925
$),	10924
Ġrejection	10924
ĠHell	10924
Ġproposals	10922
hbox	10919
Bet	10919
ĠPil	10918
Database	10917
Ġextraordinary	10917
ĠPractice	10917
aming	10915
Ġharmful	10915
Ġspouse	10914
Ġdeter	10914
ĠPenn	10914
Ġbeneath	10913
Ġpharmaceutical	10911
Ġ--------------	10911
ĠCart	10910
0100	10909
ĠEffect	10909
ĠMand	10908
Ġuniformly	10907
Ġdrunk	10905
Ġinch	10904
Ġtransfected	10902
Ġsword	10901
éĩ	10900
Â¡	10900
aud	10900
Socket	10900
BLE	10899
{%	10898
Ġsuff	10898
Ġhal	10897
Pan	10896
Framework	10896
Ġdrinks	10895
Ġdistinguished	10894
Ġalkyl	10892
ĠTerm	10892
ĠCuba	10891
arb	10890
Ġinstructed	10890
omas	10889
Ġsons	10888
ĠSci	10888
ĠHum	10888
ystem	10887
ĠExchange	10887
Ġheated	10886
ross	10879
ĠEmpire	10878
Ġnegatively	10877
Ġdialog	10876
Matt	10875
ĠSDS	10873
ension	10872
Ġinadequate	10872
Ġapple	10872
ĠResources	10872
ĠFlow	10872
xsd	10871
Ġthreads	10869
Ġcooked	10869
aria	10867
Ġsynthesized	10865
ĠFal	10865
ĠHash	10864
âĪĹ	10863
something	10863
ĠAnne	10863
Ġjunction	10862
Ġinfluences	10862
Ġgym	10862
Ġenumer	10862
Ġbacked	10862
ivation	10861
March	10861
reli	10860
aus	10860
ĠMig	10858
iko	10855
ĠStatistical	10855
artifactId	10854
\](	10854
Ġstocks	10854
Ġdeg	10854
Ġ177	10854
Ġabroad	10852
ĠBern	10851
Prom	10850
plo	10849
Ġcondens	10849
Ama	10845
Ġlegacy	10845
Ġsurveys	10843
Ġdir	10843
FG	10842
ĠWel	10842
ĠAbb	10841
operator	10840
Ġcriterion	10840
effective	10838
ĠDetroit	10836
aration	10832
042	10832
Ġpolyp	10832
attach	10831
Ġmort	10830
meth	10828
Ġsem	10828
ĠJar	10827
employ	10826
ĠBow	10826
Ġforg	10825
Ġdiffuse	10825
ĠKir	10825
encing	10824
Ġproducers	10824
ĠOntario	10824
ĠCreat	10824
rer	10823
Ġhopefully	10823
Ġdx	10823
){\	10818
Ġautomated	10818
fluor	10815
Ġhepatic	10814
ĠCong	10809
Parse	10808
Ġresection	10808
Ġdeciding	10808
ĠMann	10807
books	10806
ride	10805
okin	10804
ibe	10804
MV	10803
Android	10803
Ġwhilst	10803
:-	10802
maker	10801
hp	10801
driven	10798
Ġdrew	10798
ĠGET	10798
Ġcervical	10796
ĠBlood	10796
Ġcomprised	10795
Ġtempt	10794
ĠWright	10792
viruses	10791
boot	10791
................	10791
Ġlanding	10789
ĠStop	10789
ĠLORD	10789
-)	10788
Ġsensory	10788
Ġhumor	10785
WC	10784
Ġreleases	10784
stand	10783
bold	10783
Ġqueries	10783
obi	10782
ĠEPA	10782
="-	10781
Ġwrapped	10781
ILL	10780
Ġvalidated	10780
Ġtranslated	10780
323	10777
mathop	10776
wen	10775
lev	10775
Ġutilizing	10775
ĠCloud	10775
čĊčĊĠĠĠĠĠĠĠ	10774
Ġbiopsy	10773
ife	10772
hpp	10770
Ġrelax	10770
ĠVS	10770
Ġethics	10769
ĠAustin	10769
Ġmyocardial	10768
uts	10767
arma	10767
Ġridiculous	10767
Ġenterprise	10767
Ġbilateral	10766
hesis	10765
Ġplotted	10765
Ġpediatric	10764
skin	10763
Ġmp	10763
Review	10762
Ġschema	10762
ilation	10761
ask	10761
groupId	10760
ĠMarc	10757
Ġ---------	10757
Bon	10756
Ġbru	10755
ÑĤÐ¾	10753
Role	10753
logo	10752
Vs	10752
Ġtoll	10752
ysis	10750
scala	10750
Ġpolls	10750
ĠRecently	10750
Ġeryth	10749
Ġ156	10749
lead	10748
Eth	10748
Ġlev	10748
Ġstatutes	10746
ĠHamilton	10746
rock	10745
reflect	10745
Ġpsychiatric	10745
Ġfavourite	10745
oat	10744
Ġhouseholds	10744
Ġjer	10743
ggle	10741
testing	10739
Ġacceleration	10738
contact	10736
Ġtact	10734
ĠColon	10734
HW	10732
Ġsuite	10732
rame	10731
Ġeliminated	10730
Ġcollecting	10727
ifiable	10726
Ġshaped	10726
Ġfractions	10725
Ġunstable	10724
ĠSafety	10724
fed	10723
Ġterrorism	10722
Ġns	10721
ĠOpp	10721
Ġrecon	10720
ĠThompson	10720
Details	10719
Prov	10718
Ġpree	10718
Ġconsist	10718
Help	10717
Ġrestored	10717
Ġneutrino	10717
Ġhabits	10716
ĠSweden	10715
DG	10714
ĠBerg	10714
ĠMaterial	10713
Ġpron	10712
Ġintro	10712
Ġacet	10710
Center	10709
Ġhill	10708
304	10707
ĠUlt	10706
Ã¼r	10705
oka	10705
Ġharsh	10701
ĠTree	10700
ĠLV	10700
Ġheal	10699
Loader	10698
Ð±	10697
Ġunto	10697
Ġ.$$	10697
Proxy	10695
smallcaps	10694
ĠPRE	10694
Ġlane	10693
ĠPad	10693
Nav	10691
MODE	10690
ĠDemocrat	10690
Appe	10689
amount	10686
Prior	10686
.....	10685
ĠOtherwise	10685
í	10684
Ġ148	10683
Timeout	10682
dv	10681
Ġopposing	10681
Jud	10679
720	10679
Ġtoss	10679
Ġspare	10679
Question	10669
Ġenrichment	10669
fetch	10667
Ġmounting	10667
Ġholder	10667
),$$	10665
Ġgrows	10665
Ġcs	10665
Ġquestioned	10663
Ġaluminum	10663
ĠBet	10663
bx	10662
Ġweighted	10662
Ġcalibration	10662
NUM	10658
WD	10657
Rom	10657
1981	10657
ĠRaj	10657
)\]	10656
Ġregards	10656
Ġcomedy	10656
scroll	10655
Conclusion	10655
ĠDie	10655
Ġdisruption	10654
ĠCAN	10654
hire	10653
Ġsil	10653
Ġ164	10653
oS	10652
Ġencouraging	10651
Ġneg	10650
Ġdeposited	10650
227	10649
Ġwars	10649
Ġexploring	10648
Ġdemanding	10647
VP	10644
Ġchemistry	10643
ĠFDA	10643
ologist	10642
Ġscandal	10642
Ġenabling	10640
Ġoutputs	10639
policy	10638
igan	10636
generation	10636
305	10635
Ġdependency	10635
ĠToo	10635
Ġillustrates	10632
Ġfears	10631
ĠDean	10631
opl	10630
Proof	10630
Ġrounds	10629
iable	10628
defendant	10628
Ġrefugees	10627
*^*	10626
[]{	10625
Ġstimulate	10625
Ġreservoir	10625
Ġmapped	10625
storage	10624
ĠRail	10624
ĠGuard	10622
ĠIsa	10621
ĠOlympics	10620
ĠDomin	10620
dden	10619
phosph	10618
Follow	10618
Ġ161	10617
Several	10616
Ġprobes	10616
aves	10615
Tor	10615
words	10613
Include	10613
Ġfoam	10613
Ġabandon	10613
Ġremembered	10612
Ġeuro	10612
Ġdeploy	10612
ĠGov	10612
386	10610
ĠPAR	10609
Â£	10608
alin	10607
MY	10606
404	10606
roe	10605
Having	10605
gnu	10602
Ġequivalence	10601
Ġdisable	10601
Ġcoe	10601
proxy	10600
Ġexamining	10600
Ġmultic	10598
Ġcoaches	10597
Ġ168	10596
Ġdining	10594
Ġdemographic	10593
Ġjournalists	10592
Ġconsume	10592
ĠRub	10592
Ġsau	10591
Ġassessing	10590
achi	10589
components	10588
usa	10587
ĠQuant	10587
etch	10586
Ġmetals	10586
345	10585
Ġwalks	10585
Ġpreclude	10585
dale	10584
ĠâĨĴ	10584
Ġseg	10583
Ġconfidential	10581
Ġcoronavirus	10580
ZE	10577
tg	10576
ĠVO	10576
Statement	10575
ĠMarx	10574
ĠRic	10573
aze	10572
364	10571
Ġups	10571
ĠFall	10571
^*(	10569
315	10569
Ġexpecting	10569
between	10568
Ġforcing	10568
vey	10567
/-	10567
Ġanticipated	10567
Ġextensions	10562
ĠArg	10562
ĠAnthony	10562
constant	10561
Ġopponents	10561
Ġ162	10560
Ġrode	10559
Ġimproper	10559
nov	10558
ĠExpl	10558
Ġcrude	10557
ĠPhil	10557
509	10556
Ġcumulative	10555
uy	10553
mount	10553
Ġ158	10553
ook	10552
resolved	10549
Ġscre	10548
Ġbitcoin	10548
ĠCarter	10548
ĠRs	10547
lass	10546
alert	10546
Ġoffenses	10546
Ġmall	10546
inating	10545
Robert	10545
Private	10545
ĠTech	10545
Ġintimate	10541
QL	10540
4000	10540
collection	10539
052	10539
Ġchim	10538
311	10535
Ġembedding	10533
ĠLady	10533
does	10532
Ġmechanics	10532
410	10531
Ġintern	10531
Ġdri	10531
Ġrotate	10529
Comput	10528
created	10526
Mintage	10526
ĠVector	10524
Still	10522
ĠCounsel	10522
ĠAtlanta	10522
Ġserv	10520
Ġslower	10518
bigr	10517
Ġmountains	10517
Ġedited	10517
Ġdrum	10514
iting	10513
ĠIntegr	10513
Ġconstitution	10512
ĠHAVE	10510
unch	10506
ochemical	10506
ĠPerson	10506
nol	10505
380	10505
ĠBarack	10501
feature	10500
connected	10500
Native	10499
aly	10498
Ġpreceding	10498
ĠEdit	10497
244	10496
ĠANOVA	10495
Ġ163	10495
repeat	10494
Ġgarage	10490
iating	10489
ĠSept	10489
ĠFourth	10489
ĠCos	10489
middle	10487
profit	10485
ete	10485
ĠTN	10485
ĠPed	10484
ĠEb	10484
corn	10483
INTER	10483
Ġshrink	10483
borne	10481
Ġeg	10479
Area	10477
Ġanalogous	10477
ĠCost	10477
Ġpolit	10476
Ġantibiotic	10474
Ġallocated	10474
Symbol	10473
OE	10473
EU	10473
Ġaxial	10473
ĠKill	10473
ĠConst	10473
).\	10472
Ġsentiment	10472
ĠINTO	10472
boy	10470
,,	10470
Ġreve	10469
ĠAbd	10468
Ġallies	10466
posed	10465
ĠBeth	10465
parameters	10463
Ġhosted	10461
Ġprofession	10460
ĠEngine	10460
Ġproductive	10459
+$	10457
313	10456
ĠLiberal	10456
ĠSupplementary	10455
ĠRange	10454
Ġ147	10453
Ġ%}	10453
bian	10452
Ġbandwidth	10452
ĠKath	10452
complex	10451
Ġelevation	10450
Ġaccommodation	10449
ĠLan	10449
Moreover	10447
Download	10446
rast	10445
Ġtmp	10444
Ġcalc	10443
Ġsimplicity	10442
topic	10441
ĠIron	10441
Ġqualify	10440
Ġpancreatic	10439
oes	10438
held	10437
Ġnovo	10437
Ġmaximize	10437
Ġsitu	10436
ĠKnight	10434
special	10432
Ġswim	10430
Ġsummarized	10430
Ġbypass	10430
Ġavoiding	10430
ĠFestival	10429
uba	10427
agen	10427
ĠRoute	10427
ĠMoscow	10427
socket	10424
Ġpassengers	10423
Jack	10422
Ġhandful	10421
agent	10420
Ġfol	10420
diag	10419
HTTP	10419
Ġthoroughly	10419
Ġrod	10419
Ġcorners	10419
carb	10418
Michael	10418
KL	10418
Ġwhereby	10416
Ġagrees	10416
Ġregulating	10415
Sorry	10413
Ġtutorial	10413
Ġdisposition	10413
??	10411
Ġattitudes	10411
Ġpropagation	10410
Ġoverview	10410
ĠGreece	10408
ĠEnt	10408
natural	10406
Ġneutron	10406
ÂĴ	10405
ĠGill	10405
Grad	10404
COL	10402
Ġborders	10402
ĠManchester	10402
ä¸į	10401
))**	10401
Ġhike	10401
Ġ------------	10399
259	10397
))))	10397
Ġsimpl	10397
Domain	10396
compile	10395
Ġmalignant	10394
important	10393
Ġtremendous	10392
Ġmonster	10392
ĠCONDITIONS	10392
need	10391
*\*	10390
Ġveget	10389
Auth	10387
Ġhomogen	10387
Ġcoalition	10387
ĠINT	10386
ĠStaff	10385
ĠRevolution	10385
Ġprecedent	10383
Anim	10378
Ġoutlined	10378
TRUE	10377
kw	10376
Ġcontinuum	10376
ĠNEW	10376
Ġminim	10375
Ġsurvived	10374
uno	10373
ĠAbs	10373
Iterator	10372
ĠPlant	10372
325	10371
Ġbal	10371
correct	10366
machine	10365
QC	10364
Ġspor	10363
Ġrele	10362
benz	10361
isen	10359
Ġperformances	10359
Ġbenz	10359
ĠMV	10359
ild	10357
Ġadequately	10356
Ġbeds	10355
ĠCer	10354
rell	10353
cout	10353
phenyl	10352
Ġcyber	10351
ĠRav	10350
Ġdeadly	10349
keyword	10348
Ġsensing	10347
ĠWL	10347
âī¥	10346
Ġsymptom	10345
jit	10344
hide	10342
alias	10342
Ġ[\	10341
ĠAK	10340
Xml	10339
school	10337
ĠNazi	10336
Ġauthentication	10335
toggle	10334
functions	10334
Ġproving	10334
Ġlimb	10334
ĠCondition	10334
trial	10333
pages	10333
Ġluminosity	10333
CAP	10332
ĠCOL	10332
arse	10331
Price	10330
Der	10330
Ġsne	10330
Rob	10329
Ġsoy	10329
Ġlean	10329
English	10326
oprotein	10325
Ġinteracting	10324
viol	10322
Ġquest	10321
optional	10320
Ġsandwich	10320
Ġbrutal	10320
Ġasync	10319
ocr	10318
isite	10317
Ġmed	10317
ĠGil	10317
frequency	10316
ivities	10314
|_{	10313
Ġds	10312
ĠTol	10311
Ġwand	10310
Ġappellee	10310
ectomy	10309
TABLE	10309
reason	10308
Ġcritics	10308
amer	10307
Ġdelta	10306
Ġorganisation	10305
eria	10304
Ġantis	10304
:"){	10302
239	10302
ĠNeither	10301
Ġcrown	10300
mand	10299
ĠConservative	10299
Ġpneumonia	10298
Ġbubble	10298
inite	10293
Ġrecipient	10292
VB	10291
MG	10291
Ġdepart	10291
Ġcampaigns	10291
Shape	10290
Ġdirty	10290
Ġtout	10289
fee	10286
atom	10285
Ġmaintains	10285
ĠEight	10285
coord	10284
Ġbesides	10284
LOC	10283
Ġinteractive	10282
Ġcourage	10282
TEM	10281
Ġnotable	10281
ĠPersonal	10281
invoke	10280
1979	10279
Ġfixing	10279
Ġembrace	10279
isting	10278
ays	10278
Ġproductivity	10278
Ġexemption	10278
Ġbeans	10277
ĠLaboratory	10277
Ġspecialized	10275
ogn	10274
ĠDVD	10274
Ġkeyword	10273
Ġcontainers	10273
third	10272
pcbi	10272
Ġpreferences	10271
Ġleuk	10271
Ġcab	10271
enabled	10269
eling	10268
aux	10267
LB	10266
Ġquotes	10262
Ġgoverned	10262
skip	10261
[...]
