.	51198745
,	43828624
Ġthe	41299131
Ġof	23445043
Ġand	19924844
Ġto	19262770
-	15991712
ĊĊ	15748858
Ġa	15664484
Ċ	14983285
Ġin	14335010
_	10017914
Ġis	9721421
Ġ(	8532379
Ġthat	8318886
)	7765523
Ġfor	7499117
:	6985163
Ġ	6079084
1	5975696
Ġwith	5760617
(	5607621
2	5550645
Ġ"	5258872
Ġon	4922277
/	4680958
Ġas	4502508
Ġbe	4395722
Ġwas	4359257
Ġit	4293672
ĠI	4289614
s	4030836
Ġby	3931906
Ġare	3892766
Ġ=	3868696
0	3829134
ĠĠĠĠĠĠĠĠĠĠĠĠĠĠĠĠ	3786094
;	3766948
Ġ-	3577304
Ġthis	3395050
ĠThe	3364953
Ġfrom	3296691
Ġ$	3292286
Ġat	3282923
{	3266261
Ġyou	3264171
âĢĻ	3220265
Ġor	3190181
Ġnot	3163530
Ġ\	3155217
*	3154714
}	3134353
Ġhave	2949929
\	2906447
's	2860887
Ġan	2824335
3	2800168
"	2757879
ĊĠĠĠ	2661789
Ġ0	2563991
>	2559161
Ġ*	2436170
Ġwe	2322975
Ġ1	2299293
Ġcan	2119833
Ġwere	2085708
4	2027525
."	1984868
$	1980475
Ġwhich	1953730
="	1947789
t	1921414
Ġhas	1878802
ĊĠĠĠĠĠĠĠ	1820704
5	1810228
Ġ+	1805068
Ġ{	1785043
Ġbut	1772027
A	1765409
The	1758226
Ġhe	1722387
x	1718029
?	1710095
Ġwill	1707131
).	1682940
a	1678054
Ġall	1654835
Ġ2	1650904
I	1641396
d	1641117
B	1612783
Ġif	1612009
ĊĠ	1599342
Ġhis	1571205
Ġone	1570391
S	1561789
C	1537655
i	1536265
ĠA	1531485
n	1515466
Ġthey	1506744
ĠS	1409438
Ġtheir	1404614
Ġmore	1397549
**	1356736
ĠC	1353940
c	1339838
Âł	1331656
]	1309992
_{	1296134
p	1285281
Ġhad	1278450
b	1269845
<	1269570
Ġ$\	1264807
Ġbeen	1263518
'	1250014
Ġyour	1228703
Ġalso	1227976
Ġ<	1219935
ĠIn	1213602
),	1211651
);	1206361
m	1192633
6	1181946
=	1178751
Ġabout	1175657
f	1163616
Ġ3	1163473
Ġwhen	1161889
Ġwould	1159602
Ġout	1158705
in	1146629
Ġso	1139601
Ġtime	1138208
Ġthere	1133635
^	1117791
't	1112775
Ġother	1110787
Ġmy	1093290
8	1093007
[	1088264
ĠâĢľ	1076179
Ġwho	1071583
D	1046793
Ġno	1045004
Ġup	1043762
Ġthan	1043286
Ġdo	1038254
Ġ[	1036867
k	1033112
ĠP	1032016
7	1021365
ĠB	1020940
----------------	1020141
ĠĠ	1009641
ĠM	1006031
T	998768
Ġ5	988651
P	987642
e	984406
Ġ4	982905
Ġits	982548
Ġinto	974237
Ġ&	971529
Ġ'	969096
ĠT	967446
R	965426
Ġ}	962932
ĊĠĠĠĠĠĠĠĠĠĠĠ	960536
F	959513
ĠD	951480
Ġour	945750
g	945734
Ċĉ	942376
M	940554
Ġonly	939421
Ġtwo	935043
Ġher	929543
Ġsaid	925692
Ġwhat	904413
Ġlike	901692
Ġany	898618
Ġp	887550
Ġsome	887241
Ġnew	882742
Ġmay	881632
%	880604
E	879839
ĠIt	866714
ĠThis	859187
9	855932
r	852167
Ġfirst	847147
Ġsuch	846933
ĠR	835094
ĠF	834585
j	828876
Ġthese	828249
H	827964
ĠL	823579
h	821625
Ġs	810468
N	808473
ĊĠĠĠĠĠĠĠĠĠĠĠĠĠĠĠ	807232
ĠH	803506
Ġover	798152
Ġget	796710
Ġthem	796041
Ġme	794619
ref	792809
+	791557
L	791216
type	781215
Ġuse	778076
Ġthen	772777
Ġjust	771997
Ġafter	765328
v	756768
Ġbetween	756698
Ġv	753828
ĠWe	738686
10	726693
",	725253
ĠG	720099
Ġused	719908
Ġwhere	715550
Ġcould	715169
Ġdata	712344
Ġc	711698
.,	709648
ĊĠĠĠĠĠ	708642
</	708469
G	705474
Ġm	699077
ĠN	698457
In	697802
Ġpeople	685167
#	673800
Ġshe	668844
ing	665163
Ġusing	662338
y	657408
Ġbecause	654670
ĠE	653720
{\	653140
l	644608
Ġi	639948
Ġd	632317
u	631388
Ġt	630130
!	627564
Ġshould	626211
Ġ6	621796
}\	616867
Ġ[@	614577
Ġwell	614050
Ġ10	608507
Ġhow	603263
){	602661
K	598548
Ġmost	598063
Ġ.	596534
Ġb	593637
Ġeach	590830
Ġcase	586689
X	586346
Ġf	585664
Ċĉĉ	583717
Ġhim	582728
w	580817
Ġclass	579567
Ġunder	579047
ĠU	578225
Ġ|	574519
~	574299
W	571097
ĠHe	570434
Ġwork	557491
Ġmake	556006
ĠĠĠ	554395
ĠK	545715
Ġthrough	543563
Ġsame	537666
Ġ@	537450
z	536572
Ġway	536558
q	533485
Ġ7	533080
Ġsee	531686
o	527211
Ġeven	527081
J	526721
Ġthose	522127
->	520927
Ġyears	519951
Ġvery	519919
frac	519562
Ġnow	518886
Ġboth	518216
Ġknow	515580
ed	511832
Ġset	511475
Ġ8	511173
V	511101
Ġbeing	505756
com	505482
Ġ_	504895
Ġdid	504205
00	503921
Ġneed	502402
Q	502344
ly	501621
Ġmany	498994
ĠJ	498314
Ġbefore	497909
ĠW	496785
Ġdifferent	495236
right	494447
()	493826
Ġnumber	492761
](#	492248
âĢī	491484
?"	491452
Ġright	491088
to	491055
}$	490485
Ġreturn	490463
Ġback	490171
12	487677
">	485958
Ġde	485869
Ġn	484955
--	476621
Ġhere	474814
Ġre	473966
::	473035
ĊĊĠĠĠ	471680
Ġdon	470537
Ġe	470303
left	469988
re	468513
Ġh	467913
11	462615
Ġl	462357
ĠV	460193
âĢĿ	458982
Ġmade	458577
Ġvalue	458489
Ġus	455738
fig	454861
Ġr	454112
Ġ\[[@	452581
Ġwhile	451637
ĠâĢĵ	450248
id	450101
Ġun	447037
Ġsystem	446670
://	446543
Ġhigh	445717
th	444475
Ġg	444230
Ġfound	444116
O	442387
":	440089
the	438721
Ġ**	436707
Ġmuch	435114
Ġstudy	432165
.âĢĿ	431946
Ġstate	431730
Ġgood	431323
Ġfunction	431158
Ġthree	428432
Ġwant	424026
ĠFor	423798
Ġpatients	423179
Ġend	423122
Ġpublic	421441
ĠIf	421301
end	421147
Ġwithout	418581
Ġduring	417445
Ġcourt	416861
We	416691
ĠLet	415581
,"	413959
Ġcells	413425
Ġname	412840
Ġdoes	411173
ĠĠĠĠ	410583
_{\	410529
What	409986
',	408062
U	405654
Ġx	404494
Ġorder	403498
Ġthink	401345
Ġ//	400737
Ġ:	399633
$,	399032
Ġdown	397617
ĉ	396739
Z	395954
Ġyear	394379
Ġnon	392906
Ġpart	391454
get	388651
Ġgroup	386230
It	385474
("	383793
15	383507
Ġal	382428
Ġagainst	381689
//	379383
ĠO	378412
Ġlong	378025
|	374871
Ġtake	374627
$.	373932
(\	373054
Ġ9	372538
}{	372177
Ġmust	371972
Ġgo	371048
Ġstill	370786
Ġlast	368017
ĠĊ	366931
Ġtype	366670
and	363646
20	361235
...	360017
Ġinformation	359887
ĠBut	358574
Ġday	357476
int	356567
Y	355969
čĊ	354875
16	354307
Ġsecond	353745
Let	353226
or	351745
This	350061
ĊĠĠĠĠ	349870
ĠAs	349387
Ġ,	348374
mathcal	347543
is	347033
Ġresults	346823
Ġoff	345342
if	343385
],	342319
();	341064
Ġfollowing	339993
18	339879
19	339876
Ċĉĉĉ	337695
13	337341
^{	336556
000	336165
01	335541
Ġfind	334494
&	334084
Ġgoing	333850
âĢľ	333129
Ġw	331896
Ġlife	328339
Ġwithin	327869
'm	326099
14	325405
Ġsince	324930
].	324686
ĠYou	324590
Ġam	324087
Ġaround	323341
ĠAnd	323094
Ġpoint	322174
Ġ*/	318598
alpha	318387
,âĢĿ	315235
Ġcontrol	314810
Ġmodel	314635
able	314337
Ġanother	314139
)$	313606
ĠĠĠĠĠ	312572
as	312208
CR	312204
Ġ12	308693
17	307834
ĊĠĠ	307593
Ġ</	306840
âĢĵ	306617
Ġshow	305633
Ġown	305279
]\].	305236
Ġk	305158
Ġexample	304609
Ġline	304217
Ġincluding	302556
ĊĊĠ	302334
Ġself	302208
You	301739
Ġtoo	300842
Ġtest	300656
name	300456
Ġevery	298802
Ġcell	298495
32	298265
Ġgiven	298113
Ġhelp	297364
Ġ#	297038
ation	296775
\]	295307
Ġreally	294672
Ġmight	294501
Ġworld	294360
Ġ20	293742
Ġsay	293054
Ġresult	293027
ĠNo	292775
Ġfile	292770
ĠHowever	292097
Ġform	291600
Ġet	291063
st	290574
Ġper	290515
Ġprocess	289642
Ġ{#	289558
ĠThey	289445
're	287204
al	286993
Ġbased	285195
Ġ$$\	283681
Ġsupport	283292
Ġpresent	283235
on	282069
Ġhome	279569
Ġ15	279102
Ġy	278190
Ġanalysis	277456
mu	276533
Ġmethod	276352
ĠĠĠĠĠĠ	275065
Ġnext	275055
Ġbest	274953
ĠâĢĶ	274279
Ġ\[	273251
Ġevidence	272072
Ġsomething	271931
Ġleft	271149
Ġchange	270421
Ġsmall	269961
Ġwhether	269895
ers	269835
er	268526
text	267855
}(	267271
us	266857
âĢĶ	266021
ĠNew	265236
ĠX	264859
Ġfact	262612
30	262271
Ġplace	261699
Ġ18	260819
Ġpower	260126
}}	259551
Ġimportant	258808
ĠThere	258594
,\	257924
ĠWhat	257817
Ġbetter	257648
Ġfew	257511
Ġint	257269
25	257195
le	256949
Ġabove	256745
Ġlarge	255819
Ġj	255543
Ġ11	255506
data	254765
it	253911
Ġless	253493
Ġtrue	253434
set	253328
Ġnever	252487
Ġwater	252131
label	251842
Ġlevel	251741
mathbb	250413
Ġtreatment	248965
Ġleast	248753
Ġlittle	248218
Ġ{\	247807
Ġpossible	247703
To	247153
ĠĠĠĠĠĠĠ	246248
Ġcome	246187
Ġthings	245941
Ġlow	244862
Ġdue	244578
21	244355
div	244219
ĊĠĠĠĠĠĠĠĠĠ	243888
Ġproblem	243345
ĠTo	242846
Ġlaw	242580
Ġu	242425
of	242083
man	242016
24	241486
Ġgreat	240103
ĠRe	239510
Ġlook	238689
Ġ--	237696
un	237365
os	237361
)\	237114
Ġfield	237044
Ġhaving	236299
Ġdays	236055
ic	236030
Ġshown	235610
))	235575
Ġpre	235220
begin	234768
Ġgive	234552
Ġfurther	234499
Ġeffect	234301
@	234150
en	233566
!"	233509
Ġcommon	233387
Ġgot	233104
Ġ/	232941
de	232460
Ġtrial	232429
at	230928
ĠSo	230569
pi	229778
el	229351
If	229208
As	228984
Name	228582
Ġsize	228292
Ġgame	228103
Ġhealth	227977
up	227564
Ġsub	227452
Ġlet	227380
Type	227018
ĠZ	226835
Ġexpression	226713
tr	226661
Ġcode	226242
Ġ30	226241
Ġprovide	226228
Ġalways	225788
ĊĊĠĠĠĠĠĠĠ	225645
):	225484
('	225456
Ġcurrent	225426
Ġagain	224668
"}	224635
\[	224632
li	224601
Ġgovernment	224470
22	224167
Ġeither	223741
Ġfour	223586
table	223405
rm	223295
Ġknown	223046
Ġcalled	222611
ĠCourt	221578
ĠY	221178
ĠState	221121
ĠThese	220909
Ġ16	220897
Ġo	220708
Ġside	220547
Ġfree	220504
Ġuntil	220439
Ġavailable	220229
Ġfamily	220031
ĠShe	220012
ĠUnited	219896
ia	219704
Ġsingle	219455
Category	219299
ating	218904
ĠSt	218385
Ġreal	218236
Ġpost	218193
Ġelse	217917
Ġman	217689
Ġhuman	217563
aligned	217493
Ġ19	217449
Ġmeans	216649
Ġaction	216533
ĠĠĠĠĠĠĠĠ	215859
05	215633
64	215109
Ġ==	214917
ism	214870
Ġvalues	214676
Ġcases	213838
Ġable	213785
Ġchildren	213588
Ġlocal	213460
pone	213446
Ġhand	213428
Ġlight	213292
es	213209
Ġmean	213198
Ġ14	212890
ian	212817
Ġseveral	212372
}$$	212328
lambda	210556
Ġhigher	210454
usepackage	210436
ĠThat	209938
this	209594
Ġarea	209569
Ġteam	209446
ant	209414
23	209414
've	209393
Ġtop	209234
Ġstudies	209076
span	208944
For	208904
Ġco	208884
Ġbody	208384
http	207210
Ġtimes	207066
Ġsignificant	206980
Ġput	206487
Ġstart	206371
ate	206254
Ġ)	206026
ist	206001
Ġerror	205830
import	205747
Ġwhy	205669
Ġrate	205458
org	205448
Ġfull	204816
Ġcare	204810
ized	204729
ul	204649
ine	204348
Ġenergy	203887
Ġrun	202360
27	202261
ve	201855
];	201681
28	201380
am	201172
ĠStates	201161
Ġtotal	200935
Ġsimilar	200018
Ġperson	199982
Ġopen	199958
Ġalready	199303
Ġdidn	199185
}_	198613
Ġspace	198408
ÃĲ	198349
},	198260
ĠAll	198166
Ġgeneral	198145
And	197757
ts	197673
Ġassociated	197388
Ġlevels	196890
ization	196744
He	196701
Ġkey	196695
><	196377
ie	196221
ĊĊĊ	196169
Ġlot	195674
Ġresponse	195585
Ġ100	195583
ment	195347
string	195291
Fig	195092
ĠWhen	195025
out	194757
---	194587
ĠĠĠĠĠĠĠĠĠ	194365
Ġfinal	193930
co	193606
Ġquestion	192899
Ġ13	192572
Ġrequired	192533
Ġwomen	192274
sec	192223
'll	192222
Ġlist	192152
Ġdone	191826
_\	191812
Ġspecific	191774
mathbf	191772
Ġaway	191588
Ġissue	191230
Ġsays	191226
Ġz	190270
sum	190159
Ġoften	190034
Ġ${\	189896
Ġcall	189403
io	188636
================	188495
Ġterms	188087
Ġactivity	187836
ations	187594
Re	187455
26	186685
Ġ=>	186541
for	186236
Ġlater	186104
Ġgroups	185870
Ġhowever	185840
Ġamong	185800
Ġreported	185377
Ġthing	184722
sigma	184700
bar	184624
Ġfar	184510
Ġsure	184451
beta	184004
ac	183855
ated	183323
Ġcourse	182781
Ġenough	182735
Ġage	182468
Ġread	182394
Ġ`	182267
Ġtold	182097
Ġconst	181992
Ġhead	181895
Ġthough	181683
Ġst	181496
`	181475
ity	181063
Ġcompared	180871
Ċĉĉĉĉ	180793
Ġ%	180643
Ġprogram	180632
Ġplay	180539
ies	180415
ness	180412
ally	179980
Ġalong	179687
ak	179444
Ġprovided	179182
Ġmaking	179107
il	179026
></	178719
return	178596
Ġposition	178426
ĠOn	178231
Ġinclude	178110
Ġworking	177418
class	177260
Ġupon	177119
35	176946
Ġconditions	176803
td	176578
Ġweek	176383
Ġrole	176236
But	176003
Ġpotential	175626
Ġlower	175314
Ġ17	175160
Ġvoid	174642
Ġrange	174480
}_{	174387
Ġincrease	174324
Ġdevelopment	174160
Ġeffects	174156
Ġseen	173867
Ġold	173712
Ġrisk	173630
]).	173573
50	173073
Ġ24	172926
Ġdoesn	172919
80	172805
^{\	172595
Ġchanges	172534
ID	172485
Ġresearch	172187
31	172078
No	172029
Ġbusiness	171846
um	171791
Ġ([@	171686
Ġsection	171631
ĊĊĉ	171614
Ġtogether	171397
Ġsource	171064
Ġmoney	170928
Ġprotein	170570
Ġproperty	170552
ĠâĢĺ	170513
Ġkeep	170452
Ġservice	169975
Ġincreased	169932
Ġbecome	169897
Ġschool	169787
}^{	169444
www	169185
Ġfactors	169085
Ġimage	169079
Ġtry	169021
Ġ([	169006
ĠQ	168815
html	168690
Ġaddition	168628
36	168535
Ġcannot	168349
Ġmain	168271
Ġobserved	168266
Ġ25	168255
Ġparticular	167949
Ġcountry	167523
Ġlove	167516
ors	167505
ch	166993
Ġshort	166823
ting	166685
ĠUniversity	166584
pm	166564
Ġuser	166517
ad	166363
Ġaccording	166163
Ġmonths	166113
"}).	166051
29	165757
Ġ50	165704
Ġdisease	165631
Ġthird	165592
40	165030
Ġearly	164949
Ġdoing	164921
ĠAn	164819
Ġcreate	164467
an	164442
code	164394
ĠĠĠĠĠĠĠĠĠĠ	164321
Ġview	164059
33	164040
Ġadd	163640
ion	163590
ell	163574
Ġstructure	162860
ĠCo	162691
Ġobject	162672
Ġdefendant	162633
Data	162399
Ġdescribed	162114
ĠAt	162079
mathrm	161859
\_	161788
Ġprivate	161589
time	161585
Ġperiod	161576
Ġmultiple	161493
key	161487
sqrt	161462
Ġcontent	161218
ĠSee	161213
Ġthought	161124
value	161041
Ġactually	160955
Ġpositive	160888
Ġid	160618
95	160467
Ġpoints	160360
Ġcompany	160343
45	160267
There	159837
");	159724
Ġversion	159576
Ġhard	159572
ĠĠĠĠĠĠĠĠĠĠĠ	159205
Ġacross	158973
gamma	158364
Ġmen	158343
34	158332
no	158125
Ġothers	158055
Ġreport	158038
Is	157812
ar	157628
001	157614
Ġamount	157550
38	157092
Ġsurface	157089
Ġrather	156957
Ġbase	156880
Ġonce	156736
delta	156071
String	156043
Ġanti	155776
Ġstring	155644
test	155633
100	155534
")	155526
'd	155517
Ġlikely	155508
one	155261
Ġfive	155207
Ġshows	154776
Ġterm	154742
Ġmillion	154647
.)	154632
Ġperformed	154565
Ġshowed	154452
Ġbelow	154349
line	154336
ĠĠĊ	154062
Ġpast	154034
}^	154030
Ġmatter	153800
ĠAmerican	153432
Ġcame	153371
Ġfeel	153338
Ġsystems	153124
Ġch	153060
[@	152947
Ġstandard	152808
Ġclear	152719
Ġq	152583
Id	152216
Ġfalse	152149
Ġcause	152086
Ġsite	152020
Ġsocial	151921
37	151905
Ġobtained	151767
bib	151713
Ġtook	151405
Ġfactor	151140
)(	151050
Ġinterest	150954
et	150953
/*	150720
Ġwhole	150359
Ġbig	150068
Ġever	150054
Ġmakes	150011
Ġapplication	149932
Ġcancer	149626
size	149605
ne	149554
Ġfood	149509
Ġexperience	149418
Ġ(*	149153
est	148989
Ġvarious	148848
Ġseason	148670
Ġtaken	148490
Ġ>	148224
Ġproject	148202
rho	148139
Ġconsidered	148113
Ġfuture	148048
Ġadded	148048
Ġsp	147938
Ġrelated	147864
ins	147723
phi	147567
eq	147341
ai	147231
ive	147089
Ġbit	146893
Ġaccess	146889
Ġyet	146874
Ġdefined	146130
ĠOne	145829
Figure	145640
ĠGod	145473
Ã©	145319
nu	145281
Ġbelieve	144989
Â°	144945
Ġcon	144894
Ġdi	144857
ee	144837
ir	144835
partial	144831
02	144614
^{-	144398
ical	144320
So	144093
Ġapproach	144008
)/	143804
ling	143745
%)	143712
ĠThen	143475
Ġsolution	143375
omega	143301
Ġcommunity	143150
Ġcar	143090
Ġblood	142935
Ġreason	142846
ings	142826
theta	142362
Ġminutes	142358
Ġwent	142356
Ġstates	142229
au	142106
em	142076
ĠAfter	141697
ĠUS	141691
Ġtext	141553
90	141538
Ġdecision	141453
39	141308
Ġindividual	141307
Ġmaterial	141040
Ġkind	140920
On	140572
Ġsh	140489
Ġdis	140107
Ġpercent	140104
Ġdevice	139976
65	139823
times	139795
log	139672
Ġtrying	139628
ary	139530
Ġincluded	139520
ent	139228
not	139217
Ġmajor	139163
60	138981
ner	138747
Ġregion	138681
Ġ$(	138435
Ġmembers	138292
Ġtoday	137999
Ġrespectively	137953
ex	137942
Ġclose	137616
ÂĤ	137520
ĠDe	137472
var	137464
Ġclaim	137343
Ġex	137339
Ġchild	137281
],[@	137191
Ġreceived	137128
Ġwon	137095
ĊĠĠĠĠĠĠ	136967
all	136770
list	136720
Ġadditional	136712
by	136709
ator	136627
Ġnormal	136531
ĠSh	136497
Ġcity	136242
tau	136224
Ġsignificantly	136171
Ġanything	136165
Ġpatient	136023
Ġ},	135880
Ġevent	135738
ish	135567
Ãĥ	135537
Ġcheck	135209
Ġair	135187
Table	135146
ty	135131
ley	134692
Ġhalf	134499
Ġgrowth	134431
Ġmass	134384
Ġcertain	134349
List	134333
Ġneeds	134261
Ġnull	134255
Ġasked	134180
ĠĠĠĠĠĠĠĠĠĠĠĠ	134180
Ġface	134137
ĊĠĠĠĠĠĠĠĠ	133893
include	133789
self	133711
Ġdeath	133690
Ġreview	133619
Ġnight	133585
ĠĊĊ	133407
Ġgetting	133405
ro	133404
pt	133328
Ġsimple	133198
View	133032
ĠCh	133019
Ġhistory	133003
âĢ¦	132959
75	132768
Ġproduct	132495
leq	132295
}{\	132180
ap	132176
add	132011
Ġ21	131972
Ġlooking	131888
99	131603
Ġen	131579
ge	131465
op	131409
Ġdifference	131367
Ġhref	131138
Ġmethods	131068
Ġroom	130977
Ġseries	130970
70	130960
br	130868
Ġperformance	130735
$-	130604
Ġvia	130555
Ġpaper	130409
Ġ\\	130371
Ġproblems	130360
Ġtarget	130355
Ġunderstand	130298
ĠMr	130176
48	130116
ering	130056
Ġparty	130000
based	129925
Ġthus	129771
ite	129537
ol	129534
Ġissues	129489
Ġinvolved	129487
infty	129330
res	129307
Ġnetwork	129247
Ġalmost	129211
ab	129179
Ġfilm	129146
Ġprevious	129025
ig	128870
Ġnothing	128809
Ġhours	128747
Ġservices	128628
Ġtherefore	128587
year	128521
Ġneeded	128347
Ġexpected	128194
ance	128134
ll	128068
new	127959
so	127870
When	127775
Ġpay	127739
ĠAl	127712
Ġheld	127450
be	127405
Ġconsider	127280
ur	127268
ĠĠĠĠĠĠĠĠĠĠĠĠĠ	127254
How	127232
Ġgene	127102
Ġcost	127085
Ġrecord	127027
Ġpopulation	126897
im	126862
Ġinstead	126846
ists	126735
ah	126549
ĠÂ§	126345
https	126335
Ġcondition	126289
Ġcomplex	126289
Ġdesign	125991
min	125825
file	125795
ative	125437
69	125424
Ġrecent	125367
Ġseems	125129
ans	125098
ates	124821
*,	124735
Ġidea	124724
Ġlines	124696
Ġsuper	124494
ĠYork	124453
se	124231
old	124223
Â±	124191
ĠIs	124058
ING	124052
Ġloss	123996
čĊĠĠĠ	123823
sh	123808
Ġpolice	123728
Ġjob	123721
Ġtable	123668
Ġpolicy	123633
Ġstory	123593
04	123563
Ġla	123328
Ġstep	123256
Ġse	123246
Ġcomes	123197
te	123044
hat	122944
Ġstudents	122896
Ġmotion	122870
Ġweight	122789
ton	122760
Ġproduction	122725
Ġhouse	122647
Ġ...	122616
ED	122561
Ġmove	122561
Ġquality	122532
Ġplan	122399
see	122284
Ġvar	122282
Ġtell	122243
Ġlead	122169
Ġsomeone	122070
03	121871
Ġ40	121868
Ġmodels	121839
Ġtaking	121835
Ġpage	121832
Ġprior	121786
Ġmarket	121702
net	121555
Ġ(-	121460
Ġstarted	121451
xi	121435
Ġblack	121321
Ġspecial	121320
44	121240
Ġmedia	121122
Ġprovides	120850
Value	120848
Ġstrong	120626
Ġitself	120548
AS	120372
ĠThus	120354
Ġnecessary	120305
di	120200
Ġ22	120102
Ġdistribution	119735
Ġlive	119526
));	119400
Ġaverage	119348
That	119338
Ġpath	118983
px	118976
^\	118925
Ġmind	118886
Ġinter	118880
Get	118636
Ġturn	118631
define	118588
Ġallow	118568
als	118525
ĠBy	118521
lo	118513
ens	118413
]{}	118375
Ġrights	118363
Ġshall	118304
less	118174
Ġsignal	118160
Ġprobably	118090
ĠĠĠĠĠĠĠĠĠĠĠĠĠĠĠ	117811
42	117715
ĠTrump	117516
Delta	117405
09	117399
Ġclinical	117185
eta	117117
son	117077
\\	116983
Ġaccount	116957
08	116766
ri	116755
ĠNational	116663
Ġoriginal	116619
Ġrespect	116572
param	116525
Ġlength	116404
Ġfunctions	116278
Ġbook	116246
Ġsimply	116189
Ġproducts	116179
Ġ||	116036
Ġpro	115962
')	115961
Ġphase	115906
Ġespecially	115550
Ġyoung	115549
All	115510
}}\	115471
Ġtemperature	115437
ĠTHE	115425
str	115339
Ġsequence	115308
Ġsample	115275
Ġheart	115272
Ġwords	115269
ase	114984
ĠMy	114855
Ġproperties	114748
Ġinput	114623
ise	114620
Ġsix	114592
ĠOF	114481
With	114468
ous	114420
Ãĳ	114416
ize	114371
AN	114343
ial	114095
ĠĠĠĠĠĠĠĠĠĠĠĠĠĠ	114029
led	113893
Ġ!=	113842
Ġaddress	113717
Ġcomplete	113523
ments	113499
sp	113329
Ġpresence	113270
ĠWith	113267
me	113141
Ġdetermined	113141
ĠCity	113089
Ġmedical	113056
app	112993
Ġcolor	112831
Ġstatic	112612
Ġevents	112587
})	112452
";	112294
Ġbad	112044
po	112017
-\	111958
Ġpolitical	111946
96	111940
Ġoutside	111881
Ġpressure	111780
Ġsense	111749
Ġarray	111675
AL	111560
Ġdate	111525
over	111504
])	111458
ics	111355
my	111353
68	111336
43	111214
Ġeffective	111164
sub	111126
Ġworks	111071
Ġsubject	111047
Ġoutput	110954
(-	110950
Ġprimary	110939
Ġfront	110855
Ġtax	110818
Ġlanguage	110784
Ġgenes	110768
field	110629
oo	110574
ide	110526
Ġelement	110514
Ġfollow	110500
om	110381
Ġeverything	110358
Ġ$$	110085
98	110045
Ġwhite	109977
ful	109889
Ġtypes	109774
ag	109645
ĠÂ±	109625
Ġfeatures	109609
Ġlonger	109599
ants	109555
94	109549
age	109541
Ġnear	109535
Ġcross	109382
Ġinside	109247
41	109188
Ġstop	109140
ip	109127
Ġdetermine	109108
he	109012
Ġphysical	109006
Ġ28	109004
ĠString	108902
bf	108872
Ġpresented	108872
ions	108861
ĠInc	108836
Ġeasy	108800
Ġjudgment	108551
ta	108536
My	108533
Ġquite	108510
len	108506
Ġidentified	108455
]\]	108414
Ġcreated	108379
Ġ23	108259
67	108253
Ġrunning	108133
ier	108122
..	108026
Ġsamples	108011
Ġbasis	107829
Ġcharacter	107824
Ġ&&	107750
ane	107686
Âĥ	107572
Ġmember	107514
63	107505
St	107477
Ġformer	107411
Ġparameters	107369
An	107321
ĠDr	107268
Ġwanted	107251
array	107182
__	107175
Ġbreak	107113
let	107057
Ġstatus	106981
Ġfollows	106981
Ġrest	106847
Ġstatement	106809
AT	106709
way	106707
ra	106686
Ġinitial	106653
ĠMay	106487
mm	106452
](	106287
Ġareas	106225
ard	106138
go	106055
âĢĲ	105945
Ġpersonal	105763
ry	105745
Ġwar	105723
($	105636
ns	105532
Ġisn	105466
Ġelements	105443
Ġago	105438
Object	105392
Ġfl	105297
ĠLicense	105265
public	105264
77	105255
Ġweeks	105170
Ġdirectly	105064
ler	105031
Ġindex	104955
97	104900
ure	104866
izing	104781
Ġground	104747
ets	104656
Ġquestions	104487
we	104323
Ġrelationship	104229
File	104191
Ġnatural	104148
Ġsearch	104075
path	104039
Ġwrong	103917
les	103912
Ġmemory	103892
Ġ/*	103887
ca	103835
land	103828
pr	103796
void	103790
Ġrequest	103741
ut	103721
Ġforce	103705
max	103652
const	103592
}$,	103561
Ġgames	103423
Ġtheory	103360
rangle	103276
ti	103239
ĠCon	103195
Ġcontext	103024
Ġdeal	103016
bo	103005
Ġtraining	102974
tilde	102864
si	102809
Ġnews	102798
IN	102581
Ġdirect	102529
Ġred	102453
Ġknowledge	102438
88	102361
}(\	102125
ĠAct	102009
Ġcontinue	101970
from	101875
ĠJohn	101869
con	101822
ĊĠĠĠĠĠĠĠĠĠĠĠĠĠ	101565
Ġ(\[	101563
Ġbuilding	101537
Ġvideo	101532
Ġbehind	101495
ms	101388
Ġbuild	101102
Ġgreater	101023
Ġapplied	100852
Ġdifficult	100801
61	100616
Ġacid	100564
Ġlimited	100556
ities	100437
47	100434
Ġmice	100425
ÃĤ	100412
Ġmonth	100324
ast	100308
Ġrelease	100264
Ġdistrict	100178
ĠDNA	100173
Ġpreviously	100166
ĠSuppose	100049
ea	100037
Ġtitle	99913
Ġincludes	99890
Ġreduced	99875
cal	99860
At	99801
cdot	99782
91	99764
+\	99759
ĠTherefore	99691
Ġrequire	99665
Key	99521
:**	99486
AC	99472
AR	99441
Ġability	99430
ox	99414
ice	99331
Ġgas	99312
yl	99274
Ġ26	99250
51	99244
Ġdrug	99240
Ġflow	99182
Ġstyle	99175
state	99135
Ġmulti	99122
ars	99086
width	99019
Ġmessage	98964
back	98945
Ġdef	98753
Ġclaims	98737
Ġdeveloped	98688
06	98658
)}	98576
off	98543
Ġ60	98539
Ġarticle	98522
".	98367
od	98343
ically	98326
with	98322
Ġlayer	98236
ĠLe	98193
Ġcom	98172
ĠOur	98049
07	97938
Ġsaw	97751
Ġbar	97749
Ġcontact	97676
Ġsoftware	97572
ph	97508
Ġinvention	97468
Ġwrite	97325
![	97069
Ġindependent	96951
IS	96938
Ġmap	96855
pl	96823
la	96739
\])	96734
().	96604
Ġle	96604
Ġnumbers	96603
Ġplayers	96594
Ġwritten	96580
Ġhttp	96578
ons	96538
ats	96532
$\	96511
cl	96488
Ġoil	96420
46	96395
Ġreference	96360
66	96344
ES	96277
Ġfollowed	96262
Ġcoming	96188
Ġ2012	96149
psi	96146
Ġnational	96116
Ġparticularly	96082
ĠCounty	95939
Ġleave	95930
ob	95922
Ġunit	95769
ĠSouth	95737
Ġcut	95656
ĠMa	95640
Ġactive	95550
Ġact	95474
Ġsecurity	95339
like	95295
Ġobtain	95277
ĠSince	95257
Ġimpact	95149
Ġ27	95057
ĠPresident	95050
Ġnegative	95015
Ġforward	94960
Ġdefault	94960
Ġnote	94834
}$.	94768
ators	94746
CA	94724
term	94673
ability	94607
function	94574
ĠWhile	94418
Ġentire	94372
Ġpass	94289
Ġdouble	94280
Ġword	94264
By	94261
85	94190
Ġshare	94170
Ġpain	94144
Ġ[*	94054
Set	94050
AP	94037
ĠHis	94005
Ġspecies	93983
Ġusually	93973
Ġnature	93908
Ġart	93865
ality	93833
Ġblock	93794
Ġrule	93767
js	93749
Ġrates	93637
Ġdifferences	93621
Ġliving	93446
Ch	93430
Ġoffice	93420
IC	93385
Ġland	93336
Ġalthough	93287
item	93256
Ġwhose	93191
Ġhope	93114
Ġpractice	92996
Ġ2013	92989
ha	92951
Ġtried	92924
Ġglobal	92922
Ġanswer	92879
ĠHere	92768
ĠWorld	92670
Ġonline	92653
Ġstr	92648
Ġenvironment	92614
Ġetc	92597
Ġhold	92582
Ġth	92551
its	92503
sa	92423
53	92422
=\	92375
user	92305
Ġcorresponding	92280
Ġ2016	92258
Ġgenerally	92214
Ġlost	92145
Ġargument	92102
Ġrecently	92068
ter	91861
Ġthemselves	91679
Ġbrain	91646
Ġplaintiff	91573
EN	91552
Suppose	91525
lib	91492
Ġfederal	91450
Ġ2014	91448
Ġanyone	91446
af	91352
Ġtakes	91330
92	91284
Ġproposed	91265
Ġcountries	91248
Ġlate	91233
Ġagreement	91120
Ġpurpose	90937
top	90933
71	90923
els	90750
Ġsaying	90677
Ġmet	90612
Ġdensity	90523
Ġapp	90442
epsilon	90410
Ġres	90375
ĠâĪĴ	90354
ce	90311
are	90239
Ġtreated	90195
ang	90089
81	89900
Ġhimself	89851
ou	89816
Ġ29	89748
One	89739
Gamma	89603
ĠChina	89560
eb	89555
OS	89512
Ġlegal	89503
App	89441
base	89382
Omega	89379
Ġsituation	89356
ĠDo	89347
OR	89345
Ġmicro	89325
ek	89274
ĠHouse	89265
ĠBe	89210
our	89186
iv	89166
ĠFirst	89157
ĠII	89100
Ġcenter	88923
ĠMarch	88921
oc	88853
do	88779
49	88704
Ġbecame	88702
Ġrelative	88608
ill	88594
Ġpretty	88518
ĠAmerica	88491
Ġ2015	88394
CC	88327
Ġprice	88173
use	88139
sc	88096
ĠÂł	88076
ana	88041
82	88037
link	88012
Ġfailed	87958
Ġways	87855
Ġpublished	87792
Error	87703
Ġoffer	87668
IP	87614
ology	87610
ĠDepartment	87535
Ġ/>	87443
De	87418
varepsilon	87271
ma	87245
ae	87223
Ġhighly	87169
IT	87162
Ġ?	87161
Ġ);	87129
Ġwoman	87074
ĠNorth	87034
Ġfocus	86994
Ġfindings	86936
)=	86931
ĠCa	86904
čĊĠĠĠĠĠĠĠ	86893
per	86840
that	86827
Ġallowed	86821
Ġnode	86780
Ġbl	86775
Text	86743
Ġderivative	86730
Ġcharge	86717
Ġtalk	86709
Ġselected	86621
Ġcontract	86605
ĠAr	86590
Ġmoment	86541
ification	86461
Ġdegree	86454
ev	86384
Ġsc	86308
..."	86295
ĠSome	86272
PA	86265
ore	86220
dev	86203
Ġsent	86149
55	86090
Ġlimit	86082
Ġstage	86052
Ġcomponent	86036
Ġlarger	85995
ara	85990
Ġmeasured	85983
Ġgave	85947
Ġdesigned	85942
mo	85940
ĠSystem	85931
Ġoperation	85891
ence	85888
pa	85809
Ġjury	85805
Ġbring	85804
Ġinstance	85750
(),	85691
iz	85662
Ġdetails	85600
ible	85598
map	85594
ised	85573
003	85524
AD	85429
Ġindividuals	85422
az	85359
Ċĉĉĉĉĉ	85333
ale	85323
Ġconstant	85301
ted	85218
big	85159
Ġeveryone	85130
Ġcl	85084
Ġcurrently	85051
Ġimages	85029
Ġdirection	85026
Ġcaused	85026
Ġalone	84995
"><	84970
ĠCD	84959
ĠGeneral	84957
Ġwin	84865
ĠMe	84835
document	84785
Ġbackground	84756
Ġfriends	84735
###	84697
Ġlocation	84687
Ġproteins	84629
Item	84622
Ġbehavior	84593
index	84572
Ġwasn	84505
cr	84478
box	84431
Ġgives	84386
ĠJune	84355
Ġ2011	84335
ĊĊĠĠĠĠĠĠĠĠĠĠĠ	84234
Ġcomponents	84213
ec	84081
Ġattention	84041
Ġask	84007
Ġexpect	83957
Ġ2010	83890
ĠAlthough	83889
Ġmatrix	83880
Ġchoice	83876
dr	83872
Test	83849
Ġcorrect	83849
Ġscale	83782
Ġrequires	83689
ĠNot	83615
ĠFig	83562
ters	83549
Ġ:=	83424
fs	83271
av	83186
Ġcompanies	83170
Ġbegan	83000
Ġknew	82994
ron	82932
chi	82893
52	82827
ĠHow	82797
Ġfixed	82794
Ġleading	82727
script	82708
ĠSe	82686
Ġratio	82642
Ġ;	82634
Ġoptions	82624
SA	82596
73	82573
Ġmother	82558
Ġhost	82537
Ġdisplay	82537
čĊĠ	82512
Ġ///	82507
Ġeyes	82498
}}$	82488
day	82474
Ġfailure	82416
Ġ2017	82412
Ġ[**	82324
Ġfinancial	82124
Ġmanagement	82123
Ġfrequency	82102
Ġtrans	82074
side	82052
');	81891
ax	81820
ĠNow	81820
Ġunique	81818
LE	81783
500	81755
Ġ->	81689
fn	81671
Ġeducation	81625
Ġusers	81560
Ġtechnology	81522
Ġappropriate	81447
)-	81429
93	81405
ru	81393
Ġcontains	81380
\].	81369
{{\	81288
Ġqu	81255
Ġled	81221
She	81220
Ġdivided	81063
static	81045
Ġad	81044
ium	81024
sim	81018
Ġcompletely	81007
Ġincreasing	80967
title	80948
Ġpattern	80876
ile	80875
Ġfire	80848
ach	80847
ina	80804
Ġprime	80786
Ġcosts	80784
struct	80761
Ġorg	80741
Ġconnection	80735
ning	80683
Ġ31	80663
ik	80660
ĠCir	80659
ade	80649
CH	80546
());	80455
Ġparts	80439
Ġseem	80380
lin	80374
Now	80339
Ġapply	80324
Ġindustry	80284
Ġparties	80283
Ġsuggest	80250
form	80243
62	80227
Ġoption	80181
ino	80154
Ġcount	80144
Ġfiles	80104
Ġserver	80089
Of	80073
ĠJanuary	80066
Ġgoal	80055
Ġcentral	79959
Ġearlier	79897
Ġfine	79876
._	79792
ĠApril	79792
TC	79671
From	79646
Ġexpressed	79575
Ġlack	79574
rightarrow	79446
Exception	79446
Ġdistance	79398
varphi	79317
ĠJuly	79311
def	79294
State	79275
Ġsupported	79272
Ġ\<	79262
};	79237
Ġgenerated	79228
cm	79216
Ġoverall	79148
Ġestablished	79103
Ġstated	79070
pro	79043
Ġallows	79043
)).	78987
att	78959
Ġdevices	78930
ash	78927
Ġmode	78926
They	78903
Ġuseful	78767
Ġeasily	78732
Ġcopy	78678
Ġlink	78668
MS	78608
Ġstay	78569
Class	78547
Ġbi	78466
*-	78454
Ġheat	78439
su	78413
ran	78409
Path	78408
Ġsites	78387
ls	78373
ot	78369
Ġweb	78364
Ġcontaining	78358
54	78317
Ġreasons	78313
Ġpr	78215
.'	78211
ĠId	78136
Ġfinding	78090
Ġequal	78058
gr	78012
ui	78005
Cl	78000
da	77937
row	77923
"/>	77921
Ġsoon	77921
)$.	77869
rs	77795
hr	77777
Ġhighest	77771
ĠTr	77720
Ġmeasure	77714
Ġlocated	77712
78	77694
Ġ<<	77583
val	77562
Ġparameter	77538
Ġproduced	77504
Ġstress	77469
ni	77454
Ġactivities	77431
pos	77372
Ġexcept	77295
ĠEx	77282
Ġeconomic	77272
view	77254
Ġtr	77213
ii	77160
Ġnotice	77150
Ġim	77142
SC	77140
Ġreduce	77094
Ġpar	77089
Ġrelevant	77066
$$	77056
Ġfiled	77048
Ġcritical	76947
Ġ32	76946
Ġclearly	76913
)^	76886
Ġsign	76856
Ġsuccess	76787
){#	76778
ub	76620
Ġfelt	76606
':	76591
ĊĊĊĊ	76588
Ġappeal	76585
oid	76569
rin	76568
Ġvariable	76553
ĠIN	76546
57	76525
Ġopinion	76478
na	76471
ĠWest	76463
Ġhit	76390
Ġcampaign	76362
ĠHealth	76356
002	76284
Size	76245
Ġtumor	76244
Ġson	76207
ĠMar	76171
Ġmin	76138
uk	76082
Ġstore	76047
Context	76033
}_{\	76032
CT	76028
Ġwriting	76026
*.	76007
Ġstaff	75993
Ġdoor	75825
Ġwebsite	75818
72	75785
Ġpresident	75765
Ġbox	75741
Ġinjury	75672
Ġchanged	75631
Ġbrought	75623
bb	75605
}^{\	75604
overline	75546
cap	75538
Ġactual	75534
ĉĉ	75528
Ġ__	75515
Ġvs	75497
qu	75483
Ġshowing	75464
lu	75413
ew	75410
Ġrandom	75399
ĠAND	75393
Ġreceive	75381
Ã¡	75380
Ġsmaller	75351
node	75331
body	75326
Ġ35	75307
Ġgoes	75253
Ġcommand	75195
Ġuses	75188
Ġexperiments	75168
red	75107
Ġlearning	75049
200	75026
Ġ2008	75000
Ġauthors	74966
Ġwidth	74958
Ġappears	74954
ren	74944
ay	74927
Ġvector	74920
ST	74900
Ġcontrast	74898
operatorname	74862
langle	74849
ational	74810
Ġitems	74808
SP	74777
}=	74736
Ġsl	74732
['	74675
Ġbeyond	74658
Ġlooks	74653
ĠOR	74639
Ġrules	74607
Ġheard	74607
86	74595
Ġremains	74593
Ġcomputer	74587
Ġculture	74475
ke	74456
uc	74451
After	74451
java	74441
err	74438
Ġbuilt	74437
ba	74371
CO	74301
true	74282
ĠUn	74255
py	74222
Ġboard	74212
Ġhearing	74205
Ġunderstanding	74130
Ġmeet	74125
Ġmis	74006
ho	74002
¡	73963
Ġmatch	73962
Ġlooked	73898
Ġskin	73838
Ġturned	73813
dy	73752
Ġworked	73729
Ġheight	73710
og	73690
Ġtowards	73658
group	73605
hi	73509
Ġmajority	73455
AM	73380
ud	73354
Info	73331
True	73323
ep	73308
Ġchar	73297
Ġplease	73249
Ġbinding	73230
Ġproduce	73228
Ġregarding	73201
Ġvariables	73188
Ġappear	73179
SE	73169
Ġinternal	73151
Ġones	73143
ray	73138
Ġ!	73131
Ġdecided	73130
TR	73077
Ġdrive	73060
Ġexists	72996
color	72924
Ġspeed	72920
case	72914
ship	72908
Ġfun	72886
Ġtherapy	72870
ci	72841
Ġfall	72837
Ġbenefits	72817
Ġfully	72770
83	72737
[^	72689
ĠFrom	72666
89	72665
Ġfast	72661
Al	72639
Ġconcentration	72636
ĠDistrict	72636
ue	72622
Ġimprove	72605
Ġtissue	72591
Ġ($	72583
ij	72534
Ġtask	72519
ez	72516
Ex	72503
Ġparents	72494
Ġreports	72454
ER	72439
Un	72429
Ġmilitary	72419
free	72415
ĠPhys	72386
":"	72346
Ġresulting	72344
ĠAugust	72344
New	72323
Ġstar	72321
Ġ2009	72261
Ġnor	72250
ps	72066
Ġexactly	72064
)$,	72063
ung	72038
ys	71959
vec	71940
Ġindicated	71895
Ġprevent	71889
mer	71852
ots	71850
Ġandroid	71848
ĊĠĠĠĠĠĠĠĠĠĠĠĠ	71800
Ġinfection	71793
Ġcouple	71790
Ġfather	71768
Ġgr	71719
Ġsetting	71707
Ġwrote	71681
sl	71678
ĠOctober	71621
Ġfriend	71614
Ġmorning	71555
ef	71544
Ġextra	71503
fe	71484
CD	71411
ok	71284
Ġmaterials	71227
Ġreading	71175
Ġvehicle	71157
Ġlog	71143
Ġzero	71123
Ġstand	71118
Ġplayed	71096
nbsp	71076
tu	71043
ica	71025
Ġhands	71025
eh	70969
ĠSeptember	70922
Ġlearn	70905
Ġfit	70902
pe	70899
Ġfeature	70895
dis	70850
.\	70843
Ġcolumn	70832
Ġavoid	70816
Con	70785
Ġexist	70722
lan	70721
Ġmeeting	70707
79	70677
Ġseparate	70677
ĠDecember	70668
Ġgets	70665
ened	70626
Ġpoly	70595
Ġreasonable	70535
ĠOr	70500
='	70497
ening	70488
)*	70488
nd	70433
Ġseven	70426
NS	70423
Ġproof	70392
]:	70376
Ġdefine	70342
Ġmedium	70334
read	70319
Ġten	70319
Ġdeep	70313
Ġreaction	70297
ĠData	70291
Ġplayer	70286
ĊĊĠĠĠĠĠ	70228
Ġfields	70221
Ġpl	70170
ano	70155
Ġconstruction	70137
Ġ2018	70109
Ġstarting	70101
Ġapplications	70097
TA	70009
ib	69951
Ġvolume	69924
Ġthroughout	69874
Ġinteresting	69850
ĠBr	69844
Ġparticipants	69810
uring	69774
Ġcounsel	69765
ham	69758
Ġnoted	69704
Ġdamage	69697
ĠBo	69696
Ġprocesses	69676
Ġmaximum	69673
****************	69663
Sec	69652
Ġregions	69624
Ġformation	69590
info	69534
Ġconnected	69534
Ġlinear	69523
db	69505
Ġlives	69497
Not	69494
Ġsafety	69461
Ġtransfer	69453
Ġpoor	69402
cc	69395
Ġsex	69394
image	69372
59	69351
Ġclosed	69342
RA	69340
Ġbecomes	69315
Ġformed	69310
Ġitem	69298
\,	69288
ome	69257
input	69248
Ġdomain	69240
Ġinternational	69231
reg	69222
Ġsources	69191
Ħ	69172
Ġadministration	69155
sin	69132
ĵ	69119
ĠBecause	69116
but	69109
Ġerr	69100
Ġdocument	69044
length	69037
ĠEl	69035
Ġscore	69034
fa	69010
gen	69009
Ġsafe	68978
Ġrevealed	68925
Ġroad	68856
Ġque	68794
MA	68771
Ġhospital	68674
Ġinteraction	68649
ene	68529
Ġotherwise	68508
Ġcollection	68507
mi	68466
ĠSection	68456
PR	68419
Ġbasic	68418
Ġtests	68375
Ġinfluence	68338
ĠLa	68335
ĠNovember	68297
*~	68281
Ġ80	68241
Ġimmediately	68236
Ġvisit	68231
cs	68224
which	68187
Ġequation	68151
ĠMoreover	68057
ĠCenter	68043
Ġscreen	68038
ata	67941
.[	67893
dot	67877
';	67844
source	67831
Ġreduction	67816
Ġreleased	67805
Ġactions	67802
Ġpe	67733
Ġopportunity	67616
ĠOf	67595
Ġtoward	67589
ĠUSA	67555
Ġwide	67553
Ġdefense	67553
PS	67552
CL	67526
Ġpaid	67510
ĠĠĠĠĠĠĠĠĠĠĠĠĠĠĊĠ	67491
Ġmechanism	67480
Ġgiving	67478
Co	67470
Ġwindow	67428
pre	67396
port	67393
Ġremember	67368
Ð°	67363
Ġcombination	67360
ified	67338
ĠWashington	67315
Ġbr	67300
col	67292
Ġregular	67275
Ġattack	67269
ĠPat	67248
Ġ^	67246
^*	67242
II	67223
Ġtown	67213
Ġ90	67198
php	67189
fl	67144
den	67093
Ġtrade	67059
Ġidentify	67057
Ġconsistent	67044
ĠÃĲ	67036
tra	67010
Ġfigure	67009
Ġtesting	67002
Ġcover	66953
Ġphone	66878
ĠSan	66871
Ġroot	66854
Ġrelatively	66815
ka	66805
oe	66765
mathfrak	66726
Node	66701
Ġensure	66699
}}_	66691
Ġsometimes	66689
men	66684
geq	66676
False	66611
Ġresources	66568
Ġresistance	66558
Ġforms	66554
ris	66539
Ġcr	66502
sk	66476
Ġchance	66469
ĠPa	66467
Ġhear	66442
Ġclient	66365
Ġquickly	66301
Here	66269
Ġmiddle	66236
related	66225
ds	66200
error	66184
TO	66176
ĠMc	66167
ĠAd	66110
version	66096
Ġthinking	66076
ides	66052
ual	66046
point	66009
Ġsound	65982
ros	65980
ya	65946
ģ	65913
Ġmyself	65896
dir	65892
ines	65888
ck	65865
Ġprocedure	65843
Ġhappen	65827
Ġhot	65815
ological	65799
EL	65778
Ġsolid	65760
Ġcomment	65716
Ġplaying	65708
Ġchoose	65675
^{(	65645
Ġnearly	65636
Ġremove	65549
ĠTh	65542
ong	65529
era	65511
Ġproviding	65481
Ġmovement	65467
Ġmoved	65436
ĠSchool	65431
Ġportion	65430
bit	65426
Ġdetected	65424
Ġchannel	65424
Ġagree	65416
Ġtool	65405
Ġhappened	65392
Ġdatabase	65376
Ġconducted	65372
\],	65324
Ġexisting	65220
Ġstd	65205
Ġobjects	65199
Ġ(**	65188
Ġmoving	65184
0000	65129
ĠApp	65121
rr	65117
Ġready	65114
LL	65057
%,	65005
Ġreach	64982
Ġmon	64969
bm	64939
Ġdaily	64916
ĠObama	64886
Ġcalculated	64805
Ġbottom	64801
ix	64776
Ġsum	64751
EC	64715
Ġfunctional	64713
Ġfacts	64708
ĠCalifornia	64700
Ġbuy	64677
Ġfinally	64675
######	64667
Index	64628
Ġsteps	64617
Color	64610
Ġanimals	64599
Ct	64581
Do	64537
((	64536
dd	64514
eth	64506
quad	64490
Ġborder	64472
mar	64467
Ġindicate	64465
Ġyourself	64428
PC	64413
down	64347
56	64346
Ġupper	64332
Ġdemonstrated	64294
Map	64280
well	64271
ĠPr	64265
Ġnearest	64250
ĠTable	64248
Ġwall	64204
Ġblue	64169
ero	64142
Ġworth	64113
Ġ(\	64084
dt	64067
start	64039
Ġremain	63990
her	63953
ose	63942
Ġserious	63923
Ġcore	63921
Ġunits	63907
ĠAlso	63906
Ġdefinition	63862
using	63834
ain	63832
Time	63824
","	63800
Ġprove	63784
Ġcomments	63783
Ġ200	63775
istic	63720
TS	63666
RI	63657
ĠNULL	63638
())	63600
bi	63576
84	63576
Ġrepresent	63569
Ġplant	63545
lm	63525
ini	63479
amp	63437
Ġcapacity	63436
ĠMore	63407
ey	63387
Ġshape	63382
num	63340
DA	63326
87	63325
Ġcarried	63324
Ġsufficient	63317
Ġremoved	63309
"},	63305
ives	63283
Ġplaced	63249
Image	63226
*)	63198
ua	63162
Ġprocessing	63155
aw	63105
Ġ/**	63099
ĠPublic	63092
space	63068
)/(-	63024
Ġvariety	62957
ov	62889
Ġbegin	62881
ick	62850
Ġwife	62842
Ġframe	62824
Ġ45	62820
ear	62769
Ġsets	62756
Ġ37	62748
ĠIL	62719
Ġoperator	62608
,-	62595
Ġbenefit	62569
Ġdistributed	62556
Ġstrength	62513
ains	62501
[]	62462
ake	62450
Ġauto	62442
Ġonto	62425
ĠFebruary	62422
ĠSp	62405
74	62380
Ġsend	62343
Ġselection	62333
Ġmachine	62332
ess	62319
RE	62299
Ġ2007	62260
Ġtruth	62188
Ġsuggested	62171
Ġmg	62122
]\],	62121
Ed	62107
ĠIS	62029
ÂŃ	61924
cent	61921
Ġauthor	61892
ĠSch	61872
ĠFigure	61870
Ġperfect	61839
Ġnamed	61813
Ġprograms	61779
Array	61723
Ġcomparison	61690
Event	61640
bin	61639
Ġworkers	61636
ret	61611
ÃĹ	61606
Ġsort	61599
Ġhealthy	61526
ged	61520
Ġeight	61509
url	61505
ny	61501
med	61486
Ġincreases	61472
IA	61464
Ġmeaning	61411
Ġmagnetic	61398
US	61378
sen	61341
ind	61334
hu	61332
Ġexposure	61292
ĠEuropean	61220
ĠCO	61209
SD	61195
##	61151
Ġpassed	61140
Ġmaybe	61138
ĠTO	61137
Ġrace	61111
Ġletters	61107
Ðµ	61094
Ġemail	61069
Ġplaces	61056
ķ	61041
Ġgreen	61027
æ	61015
ĠWhite	61009
Ġresponsible	61008
ml	61005
Ġ95	61002
Ġmeasures	60992
Ġdiscussed	60970
|\	60961
Ġreplacement	60946
Int	60939
ĺ	60904
content	60850
Ġletter	60828
ĠIndia	60810
Ġapproximately	60808
Ġsave	60792
ages	60787
Ð¸	60786
Ġpicked	60731
Ġinsurance	60708
Ġprint	60700
Ġdevelop	60693
Ġincome	60682
Î±	60676
Ġcharacteristics	60676
$(	60668
ĠGet	60664
Ġmanner	60659
Code	60626
ari	60621
Ġrow	60604
Ġclean	60583
Ġupdate	60572
ĠResearch	60562
Ġsymptoms	60550
Ġel	60534
ĠRo	60496
atory	60468
ĠSa	60436
Phi	60433
ĠWar	60427
ĠEven	60417
ĠPM	60416
Ġeye	60369
api	60359
ute	60357
config	60357
ole	60344
Ġcircuit	60342
Ġtrust	60316
ath	60303
bs	60289
Ġdrugs	60281
ĠBoard	60267
Ġstructures	60255
Ġdark	60255
ery	60207
Ġselect	60201
ass	60187
Ġ70	60178
core	60162
Ġtalking	60159
mod	60157
Ġaffect	60157
Ġmale	60142
page	60098
Ġbeginning	60098
čĊĉ	60079
Ĳ	60059
vert	59986
Ġpair	59984
Ġcontinued	59976
oy	59970
ĠPro	59867
ber	59848
Ġball	59777
005	59731
gl	59719
Ġhair	59702
Ġtestimony	59692
Ġload	59650
Ġpo	59638
action	59635
čĊčĊ	59594
Ġpanel	59588
ich	59586
Ġeffort	59586
ĠNe	59581
Ġassume	59577
Ġactivation	59552
Ġedge	59529
ites	59523
Ġreturned	59519
Request	59483
oma	59442
ively	59437
Ġhappy	59432
Ġdead	59431
ks	59420
head	59419
DS	59410
Ġtree	59365
ĠCal	59359
ĠPe	59341
ĠFurthermore	59334
Ġshot	59305
Ġdetection	59291
yn	59288
ĠUK	59273
create	59249
Yes	59243
ave	59205
Ġforeign	59193
},\	59181
Ġmodern	59181
Ġbillion	59136
Ġnice	59116
Ġinvestigation	59094
Ġconduct	59079
\{	59049
Ġ});	59033
osis	59009
Ġbo	58918
\<	58859
PL	58849
Ġ48	58831
ices	58803
Ġkids	58783
ably	58782
ĠHer	58776
Ġwild	58723
į	58704
ala	58630
Ġmid	58630
Ġtransition	58613
ford	58574
ming	58570
Ġdescription	58562
ious	58560
Ġproper	58547
Ġ36	58541
Ġinterface	58528
ify	58507
]{	58463
Ġparent	58459
github	58447
Ġessential	58424
ians	58387
ĠMan	58367
fully	58354
cos	58322
Ġexercise	58315
ory	58312
Ġstuff	58300
yr	58278
Oh	58272
Ġmusic	58272
ĠEnglish	58260
mon	58252
IR	58187
ĠCl	58187
ĠDavid	58162
ker	58078
CS	58049
rd	58037
Ġspecifically	58029
Ġspent	58025
Ġspin	58017
Ġdenied	58007
Ġchallenge	57991
/(-	57990
ited	57981
Ġplans	57972
ger	57966
art	57954
Ġsurgery	57948
Ī	57907
count	57891
Ġfamilies	57874
({\	57832
Ġstrategy	57824
Ġpopular	57782
Ġsolutions	57769
part	57755
Ġalternative	57746
Ġdes	57736
ng	57728
Â¾	57709
Ġstock	57672
Ġtested	57670
Ġwait	57603
âĢ¢	57581
Ġofficials	57573
ga	57566
Ġserve	57560
char	57559
Ġcareer	57538
ĠCongress	57534
Ġcouldn	57503
Ġperform	57488
open	57483
Ġsummary	57479
58	57465
Ġwants	57441
Ġmentioned	57427
Ġ\,	57423
ow	57395
ĠInternational	57362
ĠHigh	57347
ldots	57344
Ġoccur	57342
}}(	57284
ents	57277
Ġround	57271
Ġsw	57204
Ġ2006	57204
acy	57189
Ġ2000	57185
User	57163
Model	57137
src	57136
SS	57130
]^	57099
Ġwatch	57098
iss	57093
Ġelection	57082
Ġprepared	57026
**)	57019
ses	57009
Ġstudent	56993
ĠMo	56984
cell	56978
ama	56967
.](	56967
ĳ	56965
IL	56947
ON	56910
init	56902
vi	56888
Ġofficial	56880
Ġ((	56880
Ġdespite	56868
Ġcounter	56848
Ġleads	56841
AA	56805
Ġfemale	56782
Ġunless	56777
)**	56742
Ġcycle	56688
Ġagent	56674
king	56672
object	56655
Ġstudied	56647
Ġmetal	56614
çļĦ	56592
Ġimproved	56570
Ġgl	56539
Le	56480
Ġtypically	56478
Ġcombined	56451
Ġjudge	56427
ĠIsrael	56425
Ġnuclear	56422
Ġnil	56362
ids	56341
Ġcard	56328
kin	56268
rate	56250
Ġexplain	56239
Ġexperimental	56229
position	56227
ores	56224
Ġgrowing	56194
Ġplus	56192
ĠMon	56188
Ġbound	56180
Ġcontrols	56166
bl	56138
Ġsuccessful	56133
Ġpick	56132
Ġcommunication	56105
ĊČ	56084
exp	56081
Ġvote	56072
Ġentry	56063
Service	56055
specific	56050
Calculate	56035
Ġsurvival	56034
Ġ]	55996
Ġpackage	55984
Ġmodule	55965
Ġ-->	55961
ĠEn	55955
Ġimport	55949
Field	55945
_.	55943
Ġattempt	55920
ville	55911
Ġca	55884
Ġconfirmed	55872
LA	55828
Ġkilled	55787
ith	55773
SI	55772
board	55748
Ġhour	55739
Ġminimum	55723
ĠYour	55707
ack	55706
lang	55685
act	55684
prime	55659
Lambda	55647
par	55620
Ġpa	55606
Ġcontain	55606
Ġmolecular	55590
ug	55573
Ġjava	55531
/**	55522
Ġcircumstances	55517
Ġem	55513
Ġguy	55512
Ġsociety	55502
Ġinduced	55498
Ġpiece	55490
Ġ~	55487
^[@	55466
ĠPl	55464
ĠCom	55461
Ġperhaps	55459
Ġwalk	55439
sm	55436
AG	55432
°	55405
Ġagreed	55382
non	55378
Ġhttps	55333
Ġraised	55322
SM	55315
Ġoperations	55294
Ġanalyzed	55249
Ġprofessional	55217
ĠList	55215
Why	55191
Ġreached	55185
Well	55178
Ġwhereas	55152
Ġaffected	55123
has	55112
Ġlinks	55111
"></	55093
otimes	55087
Ġdied	55080
Ġassociation	55061
ŀ	55052
Ġtools	55046
Ġcalls	55026
Ġfeet	55022
Ġhandle	55014
Ġofficer	55004
Ġemployees	54997
Ġclasses	54984
Ġwave	54969
ured	54925
ging	54904
trans	54887
Ġnames	54882
OT	54880
Ġvalid	54880
Ġche	54870
ĠHa	54841
Group	54820
gu	54816
Ġcauses	54799
date	54798
Add	54788
(&	54788
Ġsentence	54775
ures	54758
Ġwouldn	54692
*(	54672
è	54669
}-	54645
Ġ("	54626
Ġprobability	54609
iation	54569
tre	54542
ĊĠĠĠĠĠĠĠĠĠĠ	54538
ĠCode	54536
Ġkept	54522
{{	54442
ĠCan	54396
Ġefforts	54383
NO	54373
circ	54368
Ġgun	54359
Ġcollected	54358
Ġtraditional	54275
Ġoccurred	54247
.[@	54243
Ġ33	54239
Ġhuge	54238
Ġvoice	54222
Sh	54210
level	54203
Ġsrc	54201
boldsymbol	54182
Ġmental	54151
MP	54136
run	54102
ĠNews	54096
rb	54089
ĠEurope	54087
Ġintroduced	54080
Ġcapital	54067
Our	54062
Ġrelation	54023
Ġdiscussion	53993
Ġsuggests	53989
write	53977
Ġstorage	53974
Ġprotect	53954
ĠBar	53944
ances	53926
ĠMost	53926
Ġestimated	53883
Ġcredit	53881
Ġcertainly	53856
Date	53852
Ġradio	53829
Ġpress	53827
CI	53826
Ġexplained	53801
Ġtechniques	53777
ĠNote	53771
cor	53742
PP	53722
Ġcorrelation	53709
While	53702
76	53698
Ġmovie	53694
Ġdiagnosis	53687
model	53682
ric	53674
ĠLondon	53649
Ġstatute	53614
izer	53605
Ġremaining	53569
where	53557
rf	53556
ram	53553
ĠPaul	53546
Sigma	53545
Ġ(!	53543
Ġprotection	53528
ĊĊĉĉ	53512
Ġsexual	53494
Ġgone	53478
ĠCar	53458
Ġappellant	53451
eu	53439
Ġbuffer	53421
ked	53409
Ļ	53385
Message	53379
ĠGroup	53352
DE	53346
Ġret	53339
Ġforces	53279
Ġcriminal	53263
sy	53254
Ġwhom	53227
)?	53218
inter	53200
eds	53200
Ġins	53184
Ġrequirements	53115
BS	53096
ography	53071
Ġbiggest	53052
alt	53026
Ġ2005	52993
ĠRNA	52979
Ġbill	52959
CP	52957
ases	52907
Ġbed	52907
Ġnovel	52900
light	52876
lim	52862
Ġ34	52859
Ġchain	52856
Big	52846
)"	52821
block	52814
čĊĠĠĠĠĠĠĠĠĠĠĠ	52790
Ġabsence	52779
Ġrecords	52775
ush	52759
Ġformat	52725
300	52700
Ġgeneration	52628
Ġphoto	52626
ere	52622
ĠInter	52588
Ġpicture	52560
Ġprob	52536
Ġolder	52514
cu	52502
Ġorganization	52494
£	52476
iting	52459
Ġdu	52458
Ġresponses	52456
Ġmissing	52444
DC	52437
IM	52421
Ġserved	52420
arg	52388
Ġsleep	52374
Ġlaws	52358
ney	52328
Ġadding	52324
Ġoffers	52264
Ġoptical	52252
ĠEast	52247
ĠEach	52199
Ġquantum	52182
mbox	52154
Ġderived	52144
Ġinstall	52131
({	52113
Ġcreating	52107
First	52102
ock	52096
can	52096
ver	52092
*]{}	52089
ail	52080
active	52073
âĪĴ	52066
.</	52051
Ġsun	52043
ľ	52028
Ġscience	52021
Ġsubjects	52019
EA	52001
Ġnation	52000
Ġpurposes	51994
uck	51983
ĠRed	51980
tag	51964
print	51937
Î²	51921
main	51919
ĠCommission	51910
Ġarm	51898
Ġblog	51892
scale	51874
Ġeconomy	51868
ently	51859
Count	51856
ĠTexas	51852
Ġalgorithm	51850
inal	51845
ust	51823
ĠCA	51797
material	51771
Ġassert	51742
Ġideas	51730
Ġ42	51716
Ġsummer	51708
default	51705
Ġintended	51698
LI	51691
Ġschools	51683
004	51667
tab	51661
Ġnone	51647
ding	51640
à¸	51624
Ġ38	51612
Ġfresh	51586
Ġanimal	51581
ato	51568
ora	51538
ĠSc	51524
Ġproperly	51517
range	51502
ĠGu	51488
Com	51474
Ġrepresents	51459
work	51455
ied	51455
induced	51434
Ġexternal	51429
Ġac	51426
Ġresolution	51420
GL	51412
ĠGen	51392
Ġextent	51374
Ġtrack	51359
Ġfear	51323
Ġstation	51290
Ġdecreased	51287
style	51283
ĠTV	51252
Ġliquid	51240
Ġsu	51214
Ġma	51195
OL	51193
result	51182
ĠBritish	51110
Ġbank	51095
ĠBl	51074
izes	51063
ĠJust	51062
ĠSupreme	51058
ĠPark	51058
Ķ	51044
Ġauthority	51041
Ġ""	51008
nonumber	50995
Ġmechanisms	50986
ĠGo	50978
Ġvirus	50955
Ġprotected	50937
Ġachieve	50902
Ġlargest	50882
Ġattorney	50849
Ġfeeling	50842
Ġcomp	50820
order	50804
Ġdie	50803
Ġar	50737
Ġinterests	50734
kappa	50716
0001	50662
eps	50657
Ġmembrane	50647
Ġtechnique	50643
ensuremath	50640
Ġteams	50638
RS	50619
However	50611
Ġofficers	50582
ĠGoogle	50529
Ġcrime	50524
ĠAM	50522
Ġcontained	50502
rat	50489
Ġstruct	50486
ani	50481
Ġdirector	50457
Ġslightly	50439
TER	50402
comp	50361
ç	50350
don	50294
ĠEq	50212
sch	50174
rl	50144
**]{},	50141
ĠCouncil	50136
Ġfight	50122
Ġsales	50119
Ġshared	50059
Ġdriver	50058
Ġguys	50024
").	50010
ãĥ	50009
Ġsoft	50008
ales	50006
Ġcharged	49998
tan	49997
Ġopening	49948
Ġtransport	49926
Ġrise	49925
Ġcharacters	49918
uff	49910
Ġbool	49898
Ġerrors	49868
Ġlatest	49855
TH	49852
Ġprojects	49832
ĠAb	49812
DI	49798
âĢĿ.	49787
sn	49778
Ġfloor	49769
ele	49764
č	49757
ky	49752
ĠID	49750
Ġoffered	49747
Ġconventional	49692
Ġholding	49686
rot	49660
Ġmotor	49648
Ġcoverage	49646
ĠChinese	49639
Ġannounced	49621
Ġsevere	49614
Be	49598
Ġscript	49596
čĊĉĉ	49574
ł	49547
Ġmax	49543
ĠFoundation	49543
post	49542
Ġexchange	49529
Property	49517
du	49501
Ġfat	49497
ĠStreet	49493
Ġentered	49442
ĠCanada	49423
mat	49421
IV	49413
ao	49412
ĠAm	49412
Ġgirl	49387
Ġdescribe	49387
Ġnet	49365
check	49360
Ġagents	49337
ĠRa	49335
Ġinteractions	49334
Ġcustom	49329
ĠBlack	49325
AB	49306
rel	49296
Ġband	49266
PI	49227
Ġsupply	49208
']	49197
ining	49195
Ġmod	49191
df	49164
ĠCalculate	49120
lon	49119
akes	49118
Ġdecrease	49107
Ġgain	49103
Ġspread	49076
++	49048
Ġloop	49048
Ġro	49045
cher	49035
ko	49033
mid	49027
Ġprofile	49015
Ġmo	49012
Ġenter	49005
ĠGr	49001
Ġagency	49000
Ł	48978
fi	48965
Ġanalyses	48961
}.	48950
summary	48947
Ġfilter	48944
han	48933
Ġdose	48928
ita	48900
func	48896
Ġconcentrations	48887
local	48884
Ġconcept	48874
IF	48872
star	48855
Ġoutcome	48793
Ġexperiment	48742
tal	48710
Ġviews	48706
Ġgenetic	48701
âĢĬ	48693
Ġwish	48689
Â½	48684
See	48674
Ġreceptor	48661
ĠJames	48661
ster	48626
¸	48613
ă	48604
ĠTwo	48603
Ġexception	48599
gi	48570
400	48561
LS	48558
Pr	48548
Ġexistence	48546
Ġcommercial	48545
Ġfinite	48542
:"	48524
ĠĊĠĠĠĠĠĠĠ	48519
vis	48508
Ġswitch	48508
Ġpossibility	48508
Ġequipment	48508
ĠÃĹ	48507
aa	48504
Ġplants	48477
ĠPeople	48458
PE	48455
Ġdrop	48452
Ġoperating	48448
ĠRev	48401
Ġdriving	48394
Ġcompleted	48387
Ġ+=	48384
´	48382
ĠSuch	48381
Ġhyper	48370
ser	48366
Ġne	48360
Ġweak	48357
Ġreturns	48335
ĊĊĠĠĠĠĠĠ	48329
cy	48318
Ġbeautiful	48302
Ġpatterns	48284
Ġinteger	48261
Ġdoubt	48249
rv	48241
ues	48238
Ġsignals	48234
Ġwhatever	48229
nt	48215
Ġrel	48213
ended	48194
hs	48161
Ġidentity	48153
Ġheavy	48142
Ġaren	48141
Ġsmooth	48131
¬	48129
ope	48096
.*	48092
System	48061
Ġ2004	48057
ying	48055
eg	48010
Ġdiseases	48007
Ġ()	48006
UI	48001
Ġinterested	47979
Ġgenerate	47978
Ġalleged	47977
]),	47969
.$$	47954
*/	47935
Ġinf	47917
ten	47908
ĠDi	47904
Ġcold	47900
Ġslow	47886
Ġstable	47885
ali	47839
sing	47837
Ġcat	47815
©	47804
ĠFriday	47790
ĠService	47784
lt	47781
Ġappeared	47779
Ġstars	47771
Ġindicates	47753
ely	47748
ĠNOT	47716
property	47704
ink	47701
Ġimportance	47697
Ġequivalent	47695
ĠGreen	47671
Ġspectrum	47630
»	47600
Ġlo	47590
Ġmobile	47556
Ġ"[	47554
Ġconfiguration	47549
Ġbutton	47539
nabla	47535
Ġcontrolled	47528
Ġ};	47512
last	47500
][	47487
onic	47471
ned	47469
ries	47465
Ġholds	47452
widetilde	47448
Manager	47429
ÃŃ	47420
Ġconclusion	47412
gt	47390
Ġsequences	47387
Ġcatch	47360
Ġruns	47342
·	47335
Ġdog	47309
MC	47306
ze	47290
aries	47285
ees	47255
CE	47244
IO	47237
Ġsm	47226
Ġhappens	47222
Ġadvantage	47192
Ġmouse	47178
you	47171
Ġdemand	47170
apache	47165
ĠTrans	47160
Ġparticles	47149
oh	47140
ared	47138
ĠWestern	47127
arr	47110
Ġfootball	47056
}}}	47051
Ġsecondary	47048
Ġdefendants	47044
Ġreality	47037
Ġbreast	47024
long	46995
Ĥ	46992
Ġfaith	46973
Ġshift	46972
Ġsk	46968
util	46966
Ġ2019	46965
Ġgraph	46961
ĠLaw	46945
Ġnoise	46918
lock	46898
Ġmaintain	46863
ï¼Į	46861
ĠDon	46859
Ġstraight	46853
Pro	46849
ola	46846
low	46835
tt	46834
OD	46831
Ġreferred	46818
RP	46813
que	46812
Ġmeasurements	46805
ĠInstitute	46760
Ġrev	46757
Ġring	46731
Ġthrow	46697
any	46694
pc	46669
ĠBoth	46657
ending	46638
Ġdigital	46636
Ġsession	46627
dimensional	46623
Ġquery	46617
Ģ	46606
Ġcontinuous	46585
Ġinterview	46557
ĠSub	46547
false	46546
Ġseemed	46514
Some	46507
ural	46485
Ġdeveloping	46466
och	46424
Ġaccept	46396
ena	46392
Ġdistinct	46390
Ġstatements	46377
abs	46323
Ġspeak	46312
MI	46310
ges	46304
Ġexpress	46303
ĠSmith	46294
tl	46291
ico	46288
oxy	46270
Â»	46255
Ġprogress	46248
Ġlibrary	46241
Ġalcohol	46241
ord	46186
rol	46160
Ġremainder	46150
Cs	46139
Ġfish	46133
height	46118
ĠMonday	46083
ĠAccording	46080
------	46047
zeta	46032
SH	46029
Ġbalance	46010
event	46008
Ġrepresentation	45986
Ġinner	45983
Į	45980
Ġleaders	45972
fr	45971
Ġeat	45965
Ġchemical	45918
Ġenvironmental	45906
Ġcollege	45885
ĠMichael	45874
Ġapproved	45871
ĠCompany	45854
2015	45830
Ġgrow	45796
EX	45792
ada	45788
Ġjobs	45766
DR	45759
Ġcarry	45723
Ġlatter	45721
}+	45714
cd	45688
Ġissued	45676
AF	45644
\*	45643
DB	45640
har	45639
Element	45613
xe	45612
current	45604
section	45601
Ġsquare	45590
ral	45585
Ġextremely	45584
ert	45562
Ġspeech	45552
Ġclub	45526
ĠCommittee	45518
sup	45497
Ġknows	45481
Ġleader	45473
Ġborn	45470
UN	45467
Ġempty	45456
ĠFacebook	45434
Ġliver	45422
RC	45416
Ġestimate	45411
aj	45408
Ġfix	45396
Ġ${	45374
Ġexamples	45369
Ġabuse	45367
Ġformula	45359
Ġcovered	45357
ĠCor	45353
ese	45343
Ġtransmission	45342
ays	45333
ĠSet	45306
Sub	45294
Ġ500	45293
CG	45279
Ġcharges	45270
oi	45257
600	45253
Ġplatform	45252
Ġahead	45246
Ġregulation	45242
FC	45226
Ġliterature	45224
Ġplasma	45171
Ċĉĉĉĉĉĉ	45165
Ġserum	45122
ĠJapan	45116
CF	45112
load	45107
tor	45106
Ġaware	45103
Ġsubstantial	45102
Ġsigned	45088
Ġguess	45088
Ġscene	45079
Ġopened	45078
Ġhusband	45075
Ġchronic	45066
ibility	45042
Ġimplementation	45027
006	44971
ĠKing	44967
isation	44961
Ġval	44940
Ġfoot	44917
ops	44915
Ġpurchase	44908
Ġchurch	44903
Ġcustomers	44900
EP	44891
font	44889
Ġcent	44888
Or	44881
ws	44878
Ġtravel	44872
Ġoccurs	44826
ĠChrist	44813
ĠTheorem	44787
ĠDis	44777
BC	44766
Ġha	44765
Ref	44750
ı	44747
)*(	44719
Ġrecorded	44718
Ġref	44701
Ġcompounds	44690
doc	44683
nn	44678
des	44669
message	44666
Ġdecisions	44656
vo	44654
ested	44649
Ġdiscuss	44643
Ġdelivery	44632
Can	44625
Box	44609
Ġfair	44605
nie	44586
ils	44576
Ġextension	44556
dependent	44554
Ġreceiving	44531
ss	44527
Ġevaluated	44523
Ġassay	44503
Ġnetworks	44493
first	44485
Ġvisual	44455
Ġallowing	44450
Ġcalling	44444
Ġextended	44434
Ġ75	44424
Ġleaves	44422
ĭ	44420
Ġplate	44410
etic	44405
NC	44405
ĠPress	44405
mark	44389
Ġviolence	44385
Ġbirth	44374
Ġcool	44370
Ġdigit	44366
ĠNa	44365
ders	44351
ĠAmericans	44344
Ġrep	44327
Button	44319
Ġpercentage	44316
Ġhaven	44306
Ġestablish	44280
Ġoutcomes	44273
ĠBank	44252
ĠArt	44240
ĠFrench	44230
Ġconcerns	44227
Ps	44223
Ġleaving	44197
Ġassessment	44189
ĠSunday	44182
ĠUnion	44171
ĠBa	44171
Ġsubsequent	44168
ĠLeague	44167
ĸ	44166
Ġthousands	44162
OP	44152
endif	44148
Dis	44132
rad	44115
Ġtestified	44102
Ġhelped	44100
Ġowner	44090
$$\	44087
Ġmuscle	44084
Ġcol	44073
Ġmostly	44072
FS	44066
Ġ2003	44054
rit	44048
}}{	44045
Ġunderlying	44042
arm	44037
**]{}	44037
Ġimmune	44036
Ġsale	44030
ĠYes	44019
Ġarguments	43999
Ġfluid	43973
ann	43957
null	43943
Ġefficiency	43935
ĠFinally	43898
Ġthank	43884
¶	43879
ward	43875
aged	43875
Ġport	43871
Ġ39	43844
ifying	43820
dots	43815
ĠWhy	43788
dl	43781
Ġadult	43769
Ġrepresented	43765
ĠHo	43758
Me	43754
Ġab	43751
ode	43748
ĠDay	43741
ĠFOR	43732
Ġcriteria	43728
Ġexact	43714
Ġcentury	43710
ising	43703
Ġcarbon	43703
Ġraise	43699
SU	43689
gs	43684
Ġdebt	43651
Ġapparatus	43633
[\	43619
itt	43591
Ġgreatest	43586
more	43584
Ġdraw	43582
Ġexamined	43576
Ġdel	43567
zo	43540
>(	43540
)=\	43533
})$	43526
ln	43514
ĠWeb	43513
LY	43498
ias	43487
ulation	43478
lers	43471
target	43458
Ġspecified	43458
Ġmm	43453
Ġlearned	43451
ĠDuring	43445
yo	43416
Ġeventually	43408
SO	43404
Ġbroad	43382
ĠUsing	43379
Ġpowerful	43346
ĠUnder	43340
oke	43328
Ad	43319
frame	43308
Ġevolution	43308
é	43304
ingly	43301
ĊĠĠĠĠĠĠĠĠĠĠĠĠĠĠ	43293
Ġcandidate	43289
las	43279
Ġcurve	43264
cast	43245
Ġge	43244
2013	43214
Ġdepends	43205
ĠCI	43198
Ġlimitations	43190
'.	43173
berg	43166
Ġincident	43166
ĠOther	43140
Ġplane	43139
Ġpositions	43131
Ġlicense	43129
Source	43112
some	43109
ĠRE	43088
ished	43073
Ġpeak	43059
mg	43052
Ġbooks	43043
Ġscheme	43037
ĠBig	43034
Ġvoltage	43019
2016	43001
Client	42970
ona	42969
ĠEd	42968
xml	42956
ring	42949
Tr	42936
Ġinvestigated	42922
ĠTuesday	42915
ĠJudge	42909
ĠGermany	42902
These	42901
eng	42897
ender	42868
¦	42861
2014	42860
ļ	42855
ĠSun	42855
air	42852
TD	42834
Ġachieved	42831
Ġenjoy	42829
ination	42826
Ġnine	42809
Ġthin	42790
aps	42783
Just	42779
Ġtypical	42779
ãĢĤ	42762
Ġpathway	42735
FA	42718
ĠScience	42715
Ġtraffic	42714
ado	42706
rie	42688
Ġ${{\	42686
Ġmixed	42673
Ġchanging	42651
ĠFe	42642
Ġpolicies	42634
oa	42627
ki	42558
ĠCollege	42538
Ġprocedures	42530
¥	42525
Ġstandards	42525
âĢ²	42520
ĠNone	42518
supplementary	42499
parent	42496
win	42477
Ġrecovery	42477
Ġapplicable	42444
ined	42438
Se	42434
Ġgranted	42430
Ġcomplaint	42426
Ġfilms	42387
ĠMany	42376
hl	42374
}=\	42369
Don	42363
Ġ2001	42355
button	42318
128	42313
Then	42310
Number	42269
Ġgoals	42264
Ġ64	42245
Ġspend	42243
aff	42229
Ġmark	42196
Ġacts	42194
Ġbaby	42188
Ġisolated	42186
rp	42179
select	42175
Ġmurder	42155
json	42153
Ġdesired	42079
ª	42074
Config	42052
ands	42046
ĠAssociation	42046
itation	42045
lam	42042
Ġdelay	42042
Ġevaluation	42041
Ġseeing	42033
Ġflat	42026
lem	42024
Ġyes	42013
?âĢĿ	42012
Ġsold	41999
Ġeasier	41967
ular	41935
Ġlabel	41929
Ġsea	41925
Ġsubstrate	41923
ĠIII	41900
icon	41874
2012	41872
ards	41867
ider	41861
ace	41861
Ġsections	41857
Ġsurvey	41847
Ġindeed	41842
\"	41840
Ġstrongly	41829
kg	41823
Ġ55	41821
:\	41820
ple	41802
Ġfunds	41785
Ġdetailed	41784
EM	41783
Ġinvestment	41759
¤	41738
Ġquick	41732
Ġobvious	41717
INT	41716
mers	41712
Ġchosen	41700
Ar	41697
used	41690
put	41689
Ġbrief	41652
Ġentitled	41637
FF	41635
Ġ44	41623
nor	41601
che	41588
ĠWhich	41587
Ġrelief	41580
Ġfourth	41575
Ĩ	41565
Ġglass	41565
ĠChurch	41558
ptr	41550
Ġfreedom	41547
Ġ65	41547
late	41544
ĠPar	41538
Sp	41537
Ġstored	41525
Ġcategory	41525
Ġdiet	41524
La	41515
"),	41508
itis	41504
ĠGovernment	41500
%.	41499
ends	41498
Ġsecret	41484
ĠPost	41446
Ġtend	41445
ĠTest	41440
Ġcommitted	41437
Ġcluster	41428
Ġjoin	41416
Ġ{{\	41408
Ġdaughter	41400
Ġmeant	41370
ĩ	41369
Ġduty	41368
Ġconclude	41367
Ġsuit	41356
Ġconsidering	41340
erate	41338
Ġkill	41328
}}_{	41312
Ġstream	41311
Ġdirected	41294
Ġop	41292
lic	41284
Ġpush	41274
Ġsa	41258
Ca	41255
Ġspot	41255
¯	41254
module	41242
std	41233
ext	41224
bu	41223
Ġsell	41223
ĠEngland	41217
^âĪĴ	41213
Ġpayment	41211
$)	41189
Ġthanks	41188
MO	41184
ĠPer	41179
rc	41177
kers	41164
Ġprices	41159
Ġelectron	41147
oon	41146
oring	41142
ãĤ	41120
Ġdocuments	41096
context	41094
Ġforced	41091
....	41070
ĠFlorida	41059
atic	41056
ony	41054
ost	41048
uint	41043
Ġimmun	41032
sed	41030
ĠParty	41020
status	41011
ump	41009
else	40993
ips	40992
Ġlisted	40990
ME	40983
Ġ41	40977
ense	40972
ĠQu	40965
2017	40953
Ġvictim	40931
Ġclick	40890
call	40883
dec	40862
čĊĠĠĠĠĠ	40848
Ġdetermination	40839
ĠPre	40834
ella	40822
Ġstories	40821
Ġskills	40817
,'	40814
Ġequations	40814
Ġfocused	40796
Ġbus	40788
Ġdepending	40755
Override	40751
Ľ	40747
hand	40722
Since	40722
Ġwaiting	40712
ĥ	40709
ĠAc	40701
ĠSuper	40697
}}^	40695
/(	40693
Ġlose	40692
Ġrec	40688
Content	40678
ĠâĢ¦	40656
ional	40648
ori	40647
ette	40628
Ġresulted	40628
ĠCopyright	40619
ime	40616
Ġ2002	40574
Ġcivil	40569
2000	40568
Ġmeasurement	40557
Ġconcern	40547
Ġvirtual	40526
Ġuint	40526
Ġobservations	40519
Ġpossibly	40513
Ġburden	40492
md	40488
Ġversus	40486
Ġmodified	40468
ux	40467
Ġplays	40464
Ġbelieved	40443
ĠGeorge	40438
Ã¤	40435
Result	40433
amine	40422
cdots	40419
ĠRussia	40413
Ġprotocol	40402
Version	40391
Ġfans	40379
Ġregard	40375
va	40366
Ġpol	40324
-(	40307
ĠCr	40299
erman	40296
format	40292
elle	40292
sto	40289
Ġassuming	40289
sta	40276
Ġexcellent	40274
Â·	40272
Ġran	40268
"}.	40255
ĠClass	40249
/\	40242
ĠTe	40240
Ġneither	40223
jo	40218
ĠHIV	40201
Ġangle	40200
\|	40198
Ń	40190
Ġfees	40176
lat	40174
vers	40154
Ġoffense	40151
Ġboy	40148
ĠAdd	40135
§	40134
server	40120
ĠOpen	40118
ously	40110
pers	40109
ĠHar	40106
Ġtwice	40100
BA	40080
Ġemployed	40062
Ġapproaches	40048
Ġcommunities	40042
Ġreligious	40025
ĠThursday	40022
Ġresource	40019
_{{\	40010
Ġdamages	40005
nc	40000
Ġdetail	39999
ĠAny	39999
Ġcons	39964
Ġfloat	39963
house	39937
Ġconfidence	39923
ows	39922
Ġdry	39920
oz	39907
rus	39902
Ġnodes	39899
.**	39891
Ġplanning	39882
Ġfavor	39840
ored	39834
Ġmanager	39828
Ġreplace	39826
Ġinvestigate	39801
ily	39774
eas	39774
Ġ300	39772
Ġstanding	39765
Ġimp	39753
Ġtrain	39740
ĠFree	39735
Ġte	39732
Ġstreet	39713
ths	39710
oli	39706
ī	39702
)[	39701
cont	39696
ĠĊĠĠĠ	39692
ĠWednesday	39688
ique	39672
Ġcompare	39672
"]	39651
Ġaccuracy	39644
ility	39641
Ġfunding	39618
ĠWindows	39601
itions	39587
ĠNS	39587
Ġhelps	39568
Ġconcerned	39564
]--[@	39562
MT	39558
arn	39555
HA	39537
Ġhousing	39536
sf	39533
Ġefficient	39531
other	39525
Ġintervention	39524
Ġtrials	39520
Ġscores	39517
Ġconflict	39515
Ġtouch	39513
Base	39512
Ġtreat	39495
client	39477
Ġsensitivity	39476
za	39469
Ġho	39469
ĠTime	39466
dom	39457
Ġdetect	39452
ĠSaturday	39440
layout	39439
Ġrich	39436
Which	39435
¨	39408
ctors	39407
2010	39406
Ġmainly	39400
Ġguilty	39388
120	39371
Ġbudget	39363
android	39360
Ġboundary	39360
2011	39357
Ġasking	39352
Ġadults	39327
Ġrelationships	39320
oph	39300
ble	39300
ency	39282
En	39282
ipping	39280
ĠCircuit	39278
800	39267
Ġelectronic	39266
)^{	39242
Ġinvolving	39236
Ġexperienced	39227
Method	39206
msgid	39200
ÑĢ	39191
yes	39188
Last	39183
ras	39180
rem	39172
Ġfinished	39170
Ġevaluate	39170
Ġfirm	39168
References	39156
)]	39154
Ġexposed	39147
ĠIm	39144
ĠJapanese	39128
web	39124
CM	39118
âĢĿ,	39112
Ġexpansion	39107
Ġcontribution	39106
Ġsignaling	39081
Th	39080
ort	39065
Ġmaster	39061
NA	39058
DP	39053
Ġextends	39051
TI	39049
Ġadvice	39036
LP	39034
Ġworse	39030
cker	39023
["	39013
ĠSolve	38996
tle	38993
gers	38993
Ġemployee	38984
under	38972
Ġframework	38942
entry	38940
ĠJesus	38934
&\	38931
ĊĠĠâĢĥ	38927
Ġsur	38926
Ġcontinues	38913
ĠAS	38907
Psi	38905
Ġcapable	38896
mann	38882
ĠFile	38881
ographic	38874
TE	38863
Read	38859
ĠFederal	38833
ire	38832
Ġcomposition	38825
Ġsettings	38805
ERS	38804
BL	38801
Ġpeace	38788
HE	38783
lie	38774
otic	38773
Ġassessed	38770
cha	38766
Ġintensity	38766
Bar	38765
nan	38758
Ġplot	38758
rich	38745
MM	38733
wood	38717
**(-	38716
\/	38709
\]).	38702
Ġ00	38701
SR	38699
Ġecho	38695
Ġ49	38692
Pre	38675
orn	38661
ĠAustralia	38634
nm	38624
ĠInternet	38621
Ġdr	38600
Ġordered	38574
Ġdemonstrate	38568
Ġadvanced	38566
Ġbiological	38565
ĠOffice	38565
ĠBrown	38559
Ġplaintiffs	38546
Ġ_{	38532
Ġcash	38520
ĠPC	38519
inger	38516
Ġrelates	38514
ads	38490
Ġcup	38489
GE	38473
pu	38442
ĠST	38438
Ġsn	38428
ded	38427
BP	38426
Ġquarter	38425
ĠWell	38418
TT	38412
Note	38405
Ġpersons	38399
à¤	38388
Ġthread	38386
Action	38351
Simplify	38344
Ġscope	38336
ura	38314
Ġchallenges	38312
NI	38307
Ġbrother	38307
Ġpotentially	38306
Ġinterval	38298
Ġsuitable	38296
ĠPA	38295
ĠBur	38293
110	38287
Ġimaging	38282
ails	38281
png	38280
ĠMac	38278
Ġli	38262
Ġhumans	38253
Ġvelocity	38251
]);	38249
Ġgold	38240
Ġideal	38218
Ġ47	38216
Ġconference	38214
Ġdecide	38204
Ġrats	38184
Ġstopped	38179
Ġ46	38175
aging	38173
Ġnorth	38172
Ġsalt	38160
GA	38150
Ġwind	38143
rey	38134
Ĭ	38132
Ġstatistical	38132
Ġchief	38132
IG	38126
ħ	38125
nh	38123
rated	38117
Ġimprovement	38107
rop	38102
ond	38093
End	38088
Ġguide	38083
008	38074
OK	38061
Handler	38049
oles	38047
OC	38037
Ġassess	38036
Ġfuel	38029
Ġengine	38013
BR	38011
ĠMark	38011
ĠType	38007
yt	38005
media	38003
ien	37999
stream	37998
tar	37996
Ġclaimed	37981
Ġremained	37967
mp	37955
ĠDefendant	37943
book	37942
Ġopposite	37942
Ġban	37927
Ġrefer	37920
Ġles	37918
PT	37898
According	37880
Ġended	37859
Ġjoint	37851
ĠGa	37841
zy	37831
Ġdepartment	37831
sw	37817
Ġunknown	37814
Ġduration	37794
next	37774
Ġreflect	37774
ĠPlease	37769
RT	37766
bc	37753
Ġsuggesting	37748
Line	37734
msgstr	37726
150	37701
Ġfrequently	37689
iner	37688
¾	37681
Ġdiscovered	37679
Br	37674
ever	37672
Ġhence	37659
Ġpool	37645
ĠLord	37613
Ġpartial	37598
ĠÂ£	37589
ĠRussian	37576
aut	37565
${	37565
Create	37561
Ġreverse	37533
MB	37522
Ġargues	37518
ĠRule	37506
elling	37501
Ġstrain	37485
ched	37483
ĠFurther	37473
Ġlimits	37466
loc	37449
bed	37447
rick	37440
build	37438
ĠRepublican	37436
Ġ43	37435
ties	37434
Ġnecessarily	37434
Ġsides	37421
Ġbio	37413
ĠUse	37406
,$	37402
ered	37396
007	37390
car	37387
package	37378
ì	37369
inc	37361
gg	37350
Ġsemi	37347
Ġarms	37339
Ġannual	37338
ĠĊĠ	37319
ressed	37317
dist	37287
Page	37286
ĠANY	37284
Ġwaste	37283
Ġthreat	37273
Ġcourts	37263
dc	37254
Ġseconds	37243
ern	37231
dh	37227
Ġradiation	37223
Ġspring	37214
Ġ56	37209
Ġorigin	37199
wing	37196
Ġstability	37191
Ġmi	37190
iles	37182
Ġvariation	37181
ius	37162
ĠLo	37161
img	37135
Ġintent	37133
"})	37124
ĠRiver	37123
Ġsit	37120
SL	37119
TP	37116
ĠHence	37116
Ġassembly	37109
2018	37104
Ġacute	37094
Ġwidely	37087
ctive	37081
Ġaxis	37081
ĠMinister	37069
Ġantibody	37024
Ġthereby	37020
Click	37019
([	37009
ĠDE	36998
ĠJohnson	36983
Ġdefinitely	36978
Ġthreshold	36967
Ġprovision	36939
ĠTwitter	36936
ĠAir	36934
Ġice	36932
Ġdimension	36932
Ġmar	36928
Ġfail	36892
Ġlinked	36871
Ġdist	36865
ĠFrance	36861
Ġaspects	36856
00000	36855
³	36846
^+	36846
Ġoral	36834
oss	36815
Ġattacks	36811
pp	36798
Ġkeeping	36795
Ġnumerous	36788
Ġimplies	36788
dal	36768
Ġpopulations	36767
Ġcamera	36761
Ġstarts	36759
Ġindicating	36752
Ġgrant	36740
Any	36739
Ġmouth	36732
was	36729
Im	36726
Ġrelations	36712
pid	36696
prop	36689
Ġforth	36687
Ġmixture	36684
NAME	36680
ĠInt	36676
Ġidentification	36669
Ġparallel	36664
Ġabsolute	36655
Response	36649
ĠChristian	36635
Ĺ	36634
Ġaccepted	36610
ĠGerman	36609
Ġfundamental	36606
ĠJustice	36606
)}\	36604
ĠSecond	36604
ves	36592
rine	36570
Ġinterpretation	36551
Ġmortality	36546
Ġunable	36543
Ġenable	36532
Ġcoach	36527
Ġinstructions	36525
Ġentirely	36525
Ġviolation	36523
lia	36518
Ġpull	36515
iness	36513
ĠNO	36513
PD	36502
Ġbone	36487
Ġtruly	36481
ĠOnce	36479
Ġsouth	36478
icity	36471
Ġrecognized	36465
Ġmix	36458
ima	36457
Ġsupposed	36455
ress	36441
Out	36441
Ġcellular	36436
Ŀ	36433
Ġgonna	36431
tz	36428
Ġmission	36414
unt	36398
erm	36395
Ġpractices	36387
ĠOnly	36383
Ġlung	36377
Filter	36369
Ġaward	36368
Ġgirls	36365
²	36358
DF	36346
match	36334
Ġcontribute	36333
ATION	36322
Ġnotes	36318
Ġfraction	36315
din	36291
Status	36291
Ġdegrees	36287
search	36285
rac	36274
Ġpartner	36272
lp	36271
Ġends	36271
author	36268
Ġarrest	36256
Ġmassive	36254
Ġsupporting	36247
float	36240
eration	36232
Ġ51	36230
Ne	36227
fer	36223
ector	36220
illa	36211
ET	36168
DO	36167
request	36163
ott	36152
LO	36143
ishing	36136
Solve	36133
Ġresponsibility	36123
Ã³	36113
show	36108
ĠHospital	36097
ones	36090
Ġbecoming	36090
eter	36087
PH	36082
Ġsigns	36081
ĠGe	36081
Ġemployment	36076
Ġmiles	36070
real	36062
Ġship	36048
sur	36044
RF	36042
.$	36025
RNA	36023
ĠSenate	36020
Ġattached	36017
000000	36006
Ġappearance	36003
hy	35988
Ġseek	35982
Ġaim	35968
ancy	35967
**,	35963
FI	35960
Ġrare	35960
ĊĊĠĠ	35955
Ġminute	35954
ĠOver	35923
~~~	35922
system	35915
Ġtechnical	35895
Ġmanaged	35878
Ġresidents	35877
Point	35873
```	35859
Input	35859
Ġroute	35854
Ġdisk	35854
only	35850
Ġap	35840
Ġdependent	35837
BI	35830
conf	35824
Ġconf	35808
Ġvitro	35799
ĠGive	35798
AI	35791
Ġmolecules	35790
widehat	35787
ident	35787
Ġdynamic	35781
Ġfill	35778
Ġconcluded	35775
math	35773
mail	35765
Ġhole	35763
GC	35749
Default	35726
#:	35725
equiv	35715
word	35713
bd	35711
ĠIndian	35707
ĠOut	35704
Ġamounts	35679
Ġcommonly	35677
ove	35673
oth	35667
host	35657
option	35639
ways	35631
Ġwh	35631
Ġconsent	35629
rating	35619
ett	35615
Ġassigned	35612
Ġconsideration	35608
ĠPh	35595
AV	35576
san	35575
ste	35567
Your	35566
ĠRes	35539
Ġelectric	35530
Ġunderstood	35523
Ġarticles	35513
Ġdynamics	35512
]\	35498
ĠAPI	35491
Ġsought	35488
ĠLi	35482
Ġrequirement	35478
ĠPart	35470
Please	35448
>,	35429
Ġeffectively	35426
note	35421
ĠInstead	35421
Ġaccurate	35420
ours	35419
Ġyield	35407
output	35406
oral	35404
Ġexpert	35388
tered	35372
Ġste	35370
ches	35366
Ð¾	35363
ĠAD	35363
ĠPR	35344
ces	35341
tm	35339
query	35336
ĠGood	35332
ĠTheir	35325
Ġestimates	35315
Ġjurisdiction	35310
Ġsensitive	35299
Two	35296
ills	35279
Ð	35277
Ġbattle	35256
asing	35246
Ġfilled	35220
Ġtemplate	35213
Ġoxygen	35213
END	35201
lot	35185
ĠAfrica	35185
Web	35171
ĠIll	35168
nes	35143
PO	35139
ĠPlaintiff	35132
Ġdev	35129
iding	35125
uz	35123
Ġdecades	35113
Ġusual	35111
Ġfell	35108
ito	35104
assert	35102
ye	35089
++)	35089
ijms	35079
Ġmessages	35073
uv	35070
number	35069
Ġbinary	35055
Ġ52	35054
ĠThomas	35053
Ġestate	35050
Ġjustice	35035
Ġtrip	35021
Layout	35018
water	35013
Ġspending	35012
Ġaut	34966
enn	34964
fin	34957
Ġsupra	34957
Ġseeking	34957
css	34955
Ġcast	34955
ĠBill	34943
)+	34936
tp	34933
Ġsenior	34928
Ġadmitted	34924
rian	34919
Supp	34913
ãģ	34900
Ġatt	34877
Ġfavorite	34875
gal	34864
Ġwww	34864
inner	34855
ocks	34830
^,	34830
uses	34825
Ġtelevision	34818
mL	34798
acking	34790
Ġstrategies	34765
Ġbag	34746
arc	34734
MR	34734
Ġobjective	34726
ĠTa	34726
Ġconsumption	34717
ĠMS	34705
find	34695
Ġsqrt	34683
Ġdepth	34674
2008	34670
Ġinfo	34666
Man	34656
SF	34651
Ġbroken	34646
Ġassistance	34641
DD	34639
DM	34636
Ġgender	34625
Ġcharacterized	34620
Pa	34616
Yeah	34611
ares	34608
Ġtrouble	34608
Ã¼	34596
rum	34590
private	34583
==========	34581
º	34568
Ġsweet	34556
**(	34550
å	34535
ĠTimes	34519
Ġdoctor	34503
Ġsmallest	34500
Ġ72	34492
itch	34482
Ġsplit	34469
Ġcompetition	34462
ull	34460
Ġadvance	34447
ulate	34442
Ġpredicted	34435
Â¸	34423
160	34417
Ġemission	34413
oked	34404
pin	34400
fold	34395
ĠIndeed	34391
RR	34389
card	34382
try	34379
Ġtissues	34377
Ġant	34374
Äģ	34363
und	34352
Ġminor	34346
ĠEarth	34330
Ġorders	34324
Ġwitness	34317
*^	34308
subset	34277
iled	34269
Ġfan	34260
dx	34257
split	34250
Ġgap	34246
aling	34238
ĠCol	34238
Ġneurons	34231
vs	34229
Ġscientific	34221
Ġzone	34214
Ġprinciple	34214
HR	34206
DL	34192
sal	34191
Ġexpensive	34188
ient	34178
ela	34168
¼	34159
Ġmarriage	34158
pass	34135
ĠInformation	34134
Ġmeta	34133
;\	34128
Ġrecommended	34114
ume	34103
Ġcustomer	34097
Ġsupports	34085
2009	34076
flow	34061
Ġparticle	34041
;&	34022
});	34021
Ġĉ	34016
Trans	34013
ises	34010
Ġpages	34003
ude	34000
Ġpieces	33997
txt	33989
Label	33988
Ġspaces	33970
').	33968
Ġdownload	33965
ula	33960
append	33947
Ġmanuscript	33947
mn	33942
ĠKa	33940
Ġwatching	33916
¢	33896
ĠRobert	33896
MD	33882
Ġav	33882
Ġsyndrome	33876
ĠMedical	33864
sey	33863
center	33858
oms	33845
Ġcausing	33833
Comp	33827
RO	33825
Lo	33812
Ġurl	33809
Ġsuccessfully	33809
Ġinv	33808
Ġchannels	33792
RB	33784
///	33775
Ġsi	33767
Ġbaseline	33765
google	33745
ĠProject	33742
ff	33738
Ġcorner	33736
template	33732
Ġtargets	33731
der	33717
OM	33700
molecules	33686
une	33673
}}{\	33671
FE	33658
Ġcap	33652
Ġreducing	33649
Ġcrisis	33647
mic	33638
sz	33634
Ġ1999	33621
Ġtri	33619
Ġorgan	33619
Ġmargin	33619
ark	33614
room	33608
^-	33600
ean	33596
ature	33592
Ġouter	33582
root	33571
Ġimpossible	33567
Ġcomposite	33563
Ġlargely	33560
make	33556
ĠCentral	33535
ĠClinton	33532
Ġunion	33530
Ġinhibition	33525
CIT	33521
play	33502
Per	33500
tc	33499
Ġ150	33492
Ġ120	33489
Ġrepresentative	33488
Ġautomatically	33481
Ġpetition	33474
ods	33471
Ma	33446
Ġsitting	33435
Ġinstalled	33433
Ġinformed	33431
]$	33426
rous	33423
leg	33419
Start	33401
Ġauthorities	33398
Ġdiabetes	33388
Ñĥ	33379
Ġpromote	33379
ja	33368
Ġresearchers	33367
dp	33365
Query	33348
Ġstructural	33343
anc	33334
iff	33332
Next	33301
home	33300
Ġ54	33289
Mr	33270
Ġbrand	33250
Ġexamination	33244
Ġdisorder	33243
rist	33241
Ġmarried	33239
Ġorganic	33224
utes	33218
±	33211
uss	33210
ĠSoftware	33210
Thanks	33201
AND	33195
BE	33186
obj	33177
Where	33175
1000	33167
sky	33163
ups	33146
Â¶	33130
Ġearth	33124
vin	33112
Ġtag	33095
high	33093
Ġstrains	33088
location	33084
options	33080
ĠCH	33078
URL	33077
Although	33053
ĠReg	33048
ĠLemma	33048
Ġputting	33046
Ġvisible	33044
Ġweekend	33035
Builder	33012
Ġcompound	33009
Ġjoined	33004
Ġfaster	32991
ë	32990
ĠChicago	32982
lets	32977
Ġconcerning	32974
ĠUI	32962
}/	32953
Ġreplaced	32949
Ġdream	32947
Ġfinish	32945
Ġfacilities	32944
ading	32939
Another	32936
tk	32935
graph	32929
ĠFIG	32929
outs	32922
dings	32922
Ġdebate	32919
Ġsector	32904
imate	32898
Ġsolve	32897
rag	32896
ĠAfrican	32882
Ġherself	32881
GG	32878
Ġconnect	32872
ĠIts	32870
ald	32852
ials	32849
Ġev	32849
Ġturns	32848
lis	32820
Ġacting	32807
(*	32803
.-	32801
Ġwilling	32798
Ġcont	32798
^+^	32780
ami	32777
]{},	32776
Ġlayers	32775
rib	32771
Ġproportion	32771
Ġcm	32757
Ġmention	32745
Ġuniform	32738
Ġcitizens	32736
oes	32733
eman	32732
ĠEU	32730
OH	32713
Ġantibodies	32712
Ġdangerous	32699
Ġgrand	32697
})\	32696
Ġprison	32684
Ġassumed	32679
Ġcandidates	32674
HS	32667
ĠGreat	32664
Ġsugar	32656
ued	32655
ams	32649
ld	32646
Ġinvolves	32645
Ġrepair	32634
ĠmRNA	32626
ĠpH	32617
aves	32612
Ġmerely	32610
Ġconfig	32609
Ġmatters	32607
UR	32605
Ġtherapeutic	32595
Ġemergency	32592
dm	32547
Ġpara	32546
ame	32540
ĠIran	32528
ĠField	32527
Ġseat	32524
obe	32511
Ġobservation	32509
Ġcur	32507
Ġperspective	32482
Ġexperiences	32478
each	32474
Ġmenu	32470
Ġhundreds	32469
ipped	32462
Ġhundred	32447
Ġcontainer	32447
ĠSecurity	32442
sensors	32438
Ġna	32438
Ġ1990	32436
:(	32430
del	32426
×	32416
ĠAnother	32412
Ġpsych	32411
Ġpassing	32397
Ġamazing	32395
Ġlowest	32394
EE	32393
Ġexecutive	32386
Ġpairs	32383
Ġflag	32383
Ĵ	32370
Ġdetermining	32366
ubuntu	32362
ĠEnd	32352
Ġamino	32340
ĠStar	32316
bre	32292
Ġoffset	32292
Ġnative	32272
Ġ2020	32271
Bl	32268
=======	32261
Ġfamiliar	32258
Ġbias	32250
Ġaspect	32247
olo	32245
Ġclosely	32238
Ġmilk	32236
inder	32226
Ġlived	32224
Ġforget	32221
lv	32212
ios	32208
Di	32201
ĠÃł	32199
ĠTom	32176
Ġproved	32167
lated	32165
Ġdirectory	32162
Ġaid	32159
Are	32153
buf	32146
Ġpi	32139
¹	32132
method	32131
Ġmanage	32131
Sc	32119
Ġwalking	32119
ester	32118
TYPE	32113
Ġpolitics	32107
Ġposted	32105
Ġconversation	32102
Ġpos	32063
Ġliability	32060
Ġwrt	32044
ware	32040
Ġvivo	32040
uit	32031
125	32030
Ġ---	32029
Ds	32024
GT	32020
Res	32018
asts	32014
Ġargue	31991
Ġtrees	31990
Log	31983
ĠPCR	31980
align	31966
Cell	31966
ased	31964
inf	31963
hm	31946
after	31945
\]),	31945
description	31937
Ġmonitoring	31937
Ġtelling	31934
Ġwear	31930
Ġprimarily	31930
burg	31921
NE	31910
Ġsignificance	31897
Ġleg	31896
Ġbranch	31892
ĠTR	31888
Ġinitially	31870
Ms	31869
ĠIP	31864
ĠLife	31852
itor	31850
Ġloved	31849
Ġmed	31837
how	31833
ition	31829
gh	31828
Ġfont	31823
minimal	31811
pose	31808
tree	31807
OW	31805
close	31803
Ġwonder	31796
Ġcities	31794
Ġ99	31793
VE	31792
control	31788
inated	31782
child	31780
ida	31775
250	31765
Ġoperators	31765
ĠProgram	31753
Ġprincipal	31752
ogs	31743
nb	31742
ĠMath	31725
LC	31724
Ġrespond	31724
jpg	31710
cons	31708
Net	31705
Ġdollars	31693
Ġlots	31685
Ġinjuries	31682
mode	31679
called	31672
Ġeating	31670
Ġsecure	31669
Ġdepend	31655
Ġleague	31654
Ġcompact	31654
Ġdelivered	31642
Ġ[]	31641
Rs	31636
Ġimplemented	31636
documentclass	31633
Ġblocks	31628
GS	31624
Ġmaps	31623
Ġdrink	31619
Ġdisorders	31613
unk	31612
ote	31610
Ġvision	31598
Ġexp	31586
Ġgrown	31578
lg	31577
Other	31568
Ġbusinesses	31566
wa	31546
ĠView	31542
Ġassault	31540
Go	31533
Ġconsists	31528
Ġcontributions	31527
Ġinjection	31513
ital	31511
AGE	31509
lit	31500
mit	31495
Ġaccordance	31484
hes	31476
een	31476
ĠSi	31475
Ġsports	31472
Ġes	31459
ĠJones	31459
ĠUN	31458
icated	31456
lip	31445
Inter	31438
Ġbigger	31430
Ġenhanced	31429
Ġoptimal	31422
Ġcloser	31418
tw	31416
acc	31409
Ġder	31408
ĠBi	31396
ander	31375
Ġdifferential	31370
ĠÎ²	31358
ENT	31349
''	31349
Ġ*)	31347
cat	31346
Ġ1998	31335
Ġbodies	31323
Ġ53	31316
Ġsensor	31315
101	31311
Ġhomes	31311
Ġleadership	31309
Mode	31308
ĠRef	31305
Ġfeed	31296
kt	31288
lay	31287
Ġlaser	31285
Ġlay	31281
FR	31277
Ġprop	31271
bound	31269
Ġlabor	31246
ĠComp	31243
Ġaccounts	31236
Ġcaught	31233
mc	31229
layer	31227
Ġsurgical	31227
ained	31226
iated	31222
Ġorganizations	31222
Ġtransform	31216
ĠSocial	31213
Ġgenome	31210
ĠSE	31200
Ġlocations	31197
stein	31183
Ġsynthesis	31182
µ	31178
Part	31176
Buffer	31172
ogenic	31170
)/(	31165
Ġconsequences	31164
Ġopportunities	31149
pdf	31148
Before	31145
2006	31143
Ġsorry	31137
Ġfr	31137
Ġapparent	31132
ĠSu	31122
]^.	31120
Ġelectrical	31120
iate	31118
Ġiron	31117
ĠMI	31111
Ġminimal	31110
nav	31102
nic	31100
erc	31097
{"	31090
yan	31087
El	31087
oom	31084
Ġcorrectly	31081
most	31080
Ġpure	31074
Ġillegal	31071
store	31069
Ġmaintenance	31053
strong	31049
Ġfigures	31048
cf	31036
Ġrepeated	31029
ĠEm	31026
Ġdenote	31008
Ġarrived	31006
arian	31004
ĠLike	31002
service	31000
ĠCorp	30998
UL	30994
ĠHall	30985
Ġfacility	30982
Format	30980
gent	30969
ait	30956
Ġthermal	30954
Ġterminal	30951
HO	30950
ison	30940
Ġextend	30936
ank	30927
Ġclosest	30923
ĠÃĳ	30917
Ġpathways	30912
ĠHuman	30912
Ġprevalence	30909
Ġthoughts	30895
|^	30887
ont	30865
Ġaccident	30864
neq	30861
Ġrecommend	30847
Ġda	30844
rog	30833
ums	30832
small	30832
Ġwarm	30829
2007	30809
ATE	30803
sd	30800
cking	30794
More	30787
Ġremoval	30787
Check	30778
Ġinstant	30774
ĠAp	30772
Ġ58	30770
Ġinternet	30766
ĠAT	30763
ÂĢ	30762
Ġdisplayed	30746
Ġsurrounding	30742
Ġpp	30740
ball	30739
2019	30734
čĊĉĉĉ	30734
lies	30721
vol	30718
Ġmutations	30713
ĠObject	30711
band	30703
ĠName	30697
Ġabsolutely	30684
approx	30674
Ġfruit	30674
ĠBu	30647
ĠMin	30639
law	30630
Ġcreation	30626
Ġpractical	30624
Ġextract	30621
ĊĊĠĠĠĠ	30615
Ġdec	30608
Ġapparently	30598
tem	30591
nis	30591
Ġupdated	30584
Ġintegrated	30583
Ġdisc	30580
lab	30574
¿	30572
Ġbacteria	30570
ĠLong	30568
======	30567
ĠAg	30563
ĠBen	30554
PM	30552
iter	30550
cup	30543
Instance	30534
={	30530
ulated	30524
Ġstages	30520
{(	30518
ĠBay	30514
ĠFr	30511
Ġsin	30505
Ġhypothesis	30499
ĠON	30497
ĠDemocratic	30489
Ġfa	30479
EQ	30473
TV	30467
ogen	30466
mem	30465
rab	30457
aving	30453
rec	30447
normal	30441
}\\	30434
bot	30433
nl	30426
even	30426
\}$	30421
Ġpet	30419
Ġclients	30418
Ġspectra	30414
Ġhelping	30413
Ġdepression	30396
700	30389
ede	30376
Ġcommittee	30376
Ġevening	30370
Ġ1997	30366
Ġcoupling	30365
Ġscreening	30360
Ġemotional	30358
Ġconviction	30356
Ġimplied	30345
Ġfashion	30345
Ġmedian	30335
Ġincidence	30334
sel	30332
Ġregression	30329
Gen	30328
Ġsounds	30325
fo	30320
Ġadopted	30315
Ġbeam	30304
{-	30300
Ġ[[	30300
Ġsubmitted	30297
Ġ400	30291
sol	30290
Ġkitchen	30283
zi	30281
ĠOS	30277
urs	30266
Ġtight	30262
oids	30259
lar	30259
hal	30258
Style	30257
Ġpan	30249
Ġtopic	30246
ĠAppellant	30246
Ġdomestic	30237
OF	30230
wise	30223
Ġpointed	30210
tx	30207
gy	30207
args	30200
Ġmine	30194
Ġsmart	30189
ords	30174
TL	30172
,{\	30171
ĠDO	30164
Ġconstructed	30163
***	30159
Ġargued	30150
(\[	30144
Ġdescribes	30134
Factory	30129
ologic	30123
GR	30123
Ġcoffee	30121
Ġed	30120
ater	30110
ract	30105
Ġpop	30105
Ġdogs	30100
rt	30097
'$	30096
="#	30093
Ġconstruct	30093
Ġprovisions	30092
Ġpictures	30092
ĠBE	30080
dan	30079
Ġtrend	30074
Ġcomm	30071
Ã¶	30070
ĠWilliam	30064
Ġepisode	30062
uation	30053
HC	30051
aching	30046
Ġ96	30043
hed	30040
Ġimplement	30038
Ġclassical	30034
Component	30011
Ġcharacteristic	30007
Ġ\{	29997
oto	29992
}{-	29991
Ġcounts	29988
Ġsolar	29986
Ġplastic	29986
Ġapart	29981
vector	29974
Ġdraft	29973
Update	29965
Ġessentially	29960
ĠHome	29955
>>	29951
aking	29947
####	29945
Max	29938
Ġ"(	29937
rea	29925
Ġmeat	29925
ounding	29915
Ġmarked	29913
Ġremote	29907
bool	29905
aring	29905
Ġpark	29896
Ġest	29884
Ġsheet	29882
ign	29880
ching	29875
rom	29874
Ġtotally	29873
Ġencoding	29861
Ġexplanation	29847
Ġ59	29845
Ġmarkets	29841
ACE	29835
uri	29833
header	29832
Ġ57	29828
Ġdiscretion	29819
Ġcategories	29810
Ġspatial	29806
Ġexplore	29801
raw	29790
Ġtasks	29777
Ġtaxes	29776
press	29774
rim	29773
ivity	29773
Ġbright	29771
Ġguidelines	29756
ĠPolice	29756
TM	29754
Ġ1000	29737
setlength	29736
Ġlen	29715
ĠFl	29712
lines	29706
010	29706
Ġ85	29702
Ġspeaking	29694
cur	29693
Options	29691
Ġhy	29691
Resource	29688
105	29688
Ġmaintained	29685
erated	29679
ners	29677
Reg	29672
Ts	29671
ĠCup	29670
Ġdesire	29666
Ġba	29659
cer	29658
Ġ\>	29657
Ġfore	29650
Ġsoil	29648
ipe	29647
Ġapproval	29647
Ġchapter	29642
SV	29638
ential	29627
Ġrapid	29622
Ġdeclared	29620
Ġrecording	29616
Ġregime	29614
oking	29612
==	29604
Ġmu	29601
Ġultimately	29586
AK	29574
ĠChief	29570
amsmath	29568
xc	29566
rant	29565
Ġimmediate	29548
Ġph	29539
eur	29532
Ġconsole	29530
È±	29526
Ġ1996	29522
apped	29518
Ġoffering	29516
det	29488
Open	29488
ports	29485
she	29479
][@	29466
Form	29461
gel	29458
ĠServices	29458
ono	29457
Ac	29457
}+\	29446
Ġtells	29445
ĠMA	29444
lb	29433
2001	29433
Ġrad	29429
Ġguard	29428
Ġfeedback	29427
elled	29420
bes	29416
then	29403
spec	29386
tha	29385
Ġfee	29384
oni	29381
sil	29369
Ġsat	29368
Ġser	29364
Ġreporting	29357
256	29356
Rev	29351
Ġpreparation	29349
tes	29340
Ġtreatments	29330
Ġidentical	29328
Results	29321
Ġce	29315
Ġmal	29313
amssymb	29312
ests	29311
Ġraw	29310
2005	29309
Ġformal	29308
ike	29302
Length	29288
ĠIT	29277
Â¼	29274
ji	29270
Ġclassification	29268
ĠSP	29266
----	29253
Ġregister	29245
uting	29236
Ġrealize	29235
ually	29229
amsfonts	29221
Ġtransformation	29215
Ġnum	29212
Ġmodify	29200
Ġrecognition	29191
Ġregulations	29188
Ġneutral	29184
amed	29183
Control	29181
Ġdeliver	29169
axis	29165
Attribute	29165
Ġspoke	29159
Ġrespective	29149
}|	29148
Ġserving	29148
Ġcal	29143
mathrsfs	29142
Ġcurves	29141
Ġobviously	29140
amsbsy	29135
Ġrequested	29133
Ġprinciples	29133
upgreek	29131
Ġbars	29131
Ġfund	29118
Ġpin	29108
Ġlie	29104
oddsidemargin	29098
IB	29093
wasysym	29091
âĢĺ	29084
Because	29078
Ġbond	29078
Ġdiscovery	29070
Ġfinds	29059
Ġsituations	29055
Frame	29047
Ġtranscription	29038
qquad	29015
inate	29011
Ġinstruction	29008
Ġtaste	28998
update	28983
Ġexcess	28978
empty	28972
}^\	28971
Up	28964
xa	28949
Ġtumors	28944
Ġinit	28944
osa	28943
FT	28940
ĠControl	28936
Token	28933
Ġplain	28932
]]	28922
Ġrat	28917
009	28914
Ġbeat	28914
eno	28911
ĠIsland	28902
ped	28893
Ġcopyright	28893
Ġexamine	28892
Ġconfirm	28879
ech	28869
ĠSecretary	28864
Ġ"""	28847
ĠAdditionally	28836
Ġlies	28833
Mar	28832
mol	28817
ĠCT	28816
Ġshooting	28810
dim	28808
aka	28799
uted	28787
Ġcrucial	28785
site	28778
opt	28776
ences	28773
ĠAre	28770
ĠMicrosoft	28769
Ġ$(\	28765
Ġext	28761
Ġworst	28760
ĠCR	28756
Stream	28752
Block	28751
ĠÎ±	28736
CB	28729
osh	28723
Ġclimate	28721
rical	28713
step	28710
Ġcompliance	28706
Tex	28703
Ġbought	28702
Â	28700
ulating	28700
two	28694
gan	28679
Tab	28678
Ġtube	28678
Command	28677
Ġcognitive	28675
arity	28671
Ġpulled	28654
Ġassets	28652
wi	28651
ply	28650
%),	28650
met	28649
180	28649
elt	28631
Ġcamp	28627
00000000	28612
rip	28608
uel	28607
Ġbehaviour	28601
ĠApple	28600
ĠDemocrats	28596
Ġfiber	28595
377	28591
ĠPower	28591
ĠDonald	28591
Ġstem	28582
\^	28581
FL	28580
Ġsomewhat	28575
ight	28573
Ġtransaction	28567
Ġrequests	28565
Ġseed	28550
Ġowners	28544
Ġion	28539
ĠKe	28536
Ġalpha	28533
kins	28532
eral	28529
Ġworry	28527
ĠJournal	28526
Ġarrested	28521
Ġhelpful	28518
Ġalign	28518
Ġspectral	28515
buffer	28500
Ġcontents	28494
Ġenforcement	28492
bel	28490
Ġruling	28474
uous	28470
Supplementary	28466
Ġdrawn	28445
Ġphotos	28441
atin	28433
gging	28427
ĠMor	28427
~,	28421
Ġteaching	28417
ĠSociety	28415
GF	28410
Ġok	28405
Ġhurt	28399
ct	28396
Min	28396
HI	28392
Ġ66	28389
rest	28382
Ġpreferred	28376
Ġglucose	28376
ĠLu	28373
Ġpossession	28352
filter	28346
ĠIV	28345
IE	28331
ĠPeter	28323
Ġhidden	28322
ban	28319
UT	28308
Ġhate	28300
hers	28296
)),	28294
ĠDC	28294
Ġinfected	28292
<!--	28291
ema	28288
aled	28287
Ġcentre	28276
bottom	28268
aker	28267
Ġdeaths	28267
Ġwood	28265
}-\	28262
prod	28261
Ġtu	28253
Ġdriven	28248
bert	28240
ĠRead	28234
ĠAP	28224
iously	28222
NET	28221
ym	28218
urt	28218
Ab	28215
cp	28213
Ġvan	28211
ĠSer	28208
req	28203
anda	28187
Ġenzyme	28185
arch	28174
Ġfighting	28174
Ġlogic	28169
Ġhom	28165
fc	28158
Ġapplying	28156
Ġpicking	28143
Mo	28141
ocytes	28136
Ġnormally	28136
Ġintelligence	28126
aming	28122
Ġrotation	28120
Ġvoters	28117
External	28111
EST	28089
Ġfo	28089
vel	28085
ĠIraq	28085
oll	28084
Ġden	28083
)*(-	28081
Ġnoticed	28052
Ġweapons	28051
Ġgrid	28051
ĠSC	28050
ĠThose	28046
Find	28044
Ġcarrying	28010
Ġrealized	28006
<?	27991
Ġcounty	27990
xy	27965
Ġdivision	27965
vy	27963
RM	27962
Ġpermission	27955
Ġroles	27949
Ġassumption	27949
Ñģ	27943
Ġgrade	27941
Ġgen	27935
Build	27932
Ġcontroller	27928
Ġproliferation	27907
Row	27886
ĠLee	27886
Ġmechanical	27884
Ġreads	27876
Ġcultural	27870
SY	27863
Ġng	27863
Ġourselves	27848
ĠHill	27843
msg	27839
sets	27836
response	27833
owing	27832
ĠSO	27832
Ġfi	27830
town	27827
Ġti	27822
Ġregistered	27813
Ġ&\	27813
People	27808
Ġacids	27800
============	27795
Ġsubstantially	27793
cb	27792
Pi	27791
Ġattempts	27788
Ġinfections	27783
Es	27779
Ġspirit	27778
erd	27759
Ġlaunch	27747
Ġhappening	27737
sb	27723
None	27723
cus	27720
Ġnarrow	27717
Ġvertical	27714
Ġ],	27713
die	27704
ĠAL	27703
kl	27702
API	27700
ĠMi	27698
tf	27696
Ġboolean	27687
owed	27678
ĠEducation	27675
Ġaccused	27674
ĠValue	27673
Ġexc	27666
Op	27663
Ġmillions	27647
OUT	27644
mes	27642
ried	27641
Ġimagine	27638
Ġseparated	27632
tom	27630
wards	27625
=(	27612
STR	27603
mil	27597
Ġshut	27594
201	27585
Ġexperts	27584
CU	27570
pol	27566
Ġdiameter	27556
uno	27555
essed	27553
ental	27547
isc	27544
Ġpaying	27535
Ġ62	27534
Ġlock	27531
Ġdropped	27530
xx	27524
Ġconversion	27521
Ġpatent	27515
Ġweather	27514
vm	27509
EF	27503
Ġuniversity	27499
Ġmedicine	27499
UM	27494
Ġbug	27489
bp	27488
Ġcorrelated	27484
arb	27481
Ġfellow	27481
KE	27475
2004	27465
>&	27447
Ġsuperior	27445
inn	27441
ĠPo	27439
Right	27438
Ġwine	27433
element	27432
Ġopposition	27422
Ġplanned	27413
ĠKorea	27413
Ġmetric	27412
Ġgate	27412
Ġlegislation	27397
ĠSam	27396
wide	27395
Ġradius	27391
015	27390
Ġpermit	27390
ĠWilliams	27387
oro	27377
ava	27376
ulator	27374
Server	27364
Ġhyp	27360
dn	27353
Width	27351
Function	27344
Ġsister	27343
Ġpowers	27338
cho	27327
ĠAttorney	27323
auto	27319
Ġinstitutions	27316
Over	27313
Ġcrystal	27307
Ġ68	27305
Configuration	27304
arts	27303
Ġconsumer	27282
ICE	27277
ĠWill	27271
Ġrock	27267
DIR	27265
ears	27261
ĠGNU	27259
Ġ>=	27252
Ġwire	27249
Ġpurchased	27248
illed	27239
Ġsimulation	27237
Ġver	27236
Ġcu	27236
\#	27234
lation	27233
Ġknowing	27233
ĠMs	27232
Ġsizes	27230
double	27226
lor	27217
life	27216
255	27216
push	27215
ira	27211
Ġconstitutional	27210
Ġreactions	27208
Ġfeels	27194
meta	27192
Ġdocumentation	27189
Ġloan	27188
ĠMartin	27188
Ġposts	27182
ĠDevelopment	27182
$_	27179
102	27178
Ġsetup	27175
ĠME	27164
place	27157
env	27157
ĠDa	27154
alls	27139
wl	27125
Ġpromise	27123
ĠJo	27123
}^{(	27122
About	27108
Ġintroduce	27106
itz	27102
DT	27102
los	27099
Ġcars	27099
Ġreliable	27098
cpp	27078
Ġincreasingly	27070
fd	27069
ĠCheck	27067
Ġsharing	27060
123	27059
Ġthick	27058
®	27057
Ġviral	27050
Ġexcited	27044
Ġowned	27042
foo	27041
mathsf	27038
ALL	27038
Ġokay	27034
positive	27029
eing	27028
Ġtransferred	27023
ĠChris	27023
Ġneck	27020
Ġill	27017
Ġkinds	27015
Qu	27014
hw	27007
ĠPD	27002
his	26999
mis	26998
Ġreligion	26996
ĠLake	26992
Ġcomplicated	26986
Ġindustrial	26977
Ġsubstance	26973
;</	26956
Target	26949
ĠMer	26949
Ġanswers	26945
ento	26943
uns	26942
Dr	26942
.^[@	26942
ĠAmendment	26942
âĢ	26936
Ġvictims	26935
Ġentity	26933
Ġrapidly	26924
Ġob	26921
)}{	26916
Ġrecognize	26915
Ġoriginally	26907
Ġforming	26907
Ġ61	26901
iy	26895
)))	26893
Also	26891
ĠDivision	26888
eling	26887
cre	26887
Controller	26887
Thank	26886
\!	26866
Ġsymbol	26861
Ġbrowser	26854
Ġdecade	26853
Ġslowly	26846
Ġextensive	26843
RU	26837
Ġprobe	26825
Hey	26824
erg	26819
Ġcorporate	26817
Ġlib	26808
now	26802
ĠDirector	26798
np	26792
Ġbre	26789
Ġacquired	26776
Ġanyway	26773
Ġri	26763
break	26752
=-	26751
Ġtheorem	26746
Ġshop	26746
Ġharm	26745
war	26739
Ġconvert	26732
Ġintra	26724
Ġintegral	26715
ĠCu	26714
posed	26708
ĠMexico	26700
Ġinduction	26695
ÑĤ	26692
rations	26691
Ġ63	26685
Ġbeta	26680
ĠRoad	26678
bt	26670
Ġ1995	26658
Ġbattery	26655
NR	26652
Ġaddressed	26643
ĠHu	26641
ft	26640
Ġrisks	26637
dra	26635
Ġrestaurant	26630
}.$$	26628
Ġregulatory	26626
(_	26625
tic	26610
)}$	26608
"}),	26599
sql	26598
ĠWhere	26595
ken	26593
Ġboost	26592
ader	26590
Ġheader	26587
Ġmiss	26581
&&	26580
CN	26577
ĠKey	26576
byte	26574
Ġpayments	26574
Âģ	26571
Ġreviewed	26564
eting	26562
Ġwinning	26561
Ġstatistics	26550
Ġcolumns	26544
\,\	26543
Ġintegration	26537
Output	26536
Ġpresentation	26531
Ġfairly	26524
}"	26520
ĠmM	26513
American	26511
Ġinflammatory	26501
III	26498
Ġaudience	26490
aining	26486
Ġparticipate	26470
Many	26462
ĠURL	26460
cted	26459
EV	26457
iel	26453
je	26443
Ġgift	26442
Description	26407
Ġclusters	26404
emia	26403
Ġmomentum	26400
umb	26399
Vert	26390
ĠWho	26390
}]	26383
Reference	26379
Ġgoods	26374
Ġcompensation	26370
\'	26362
ĠmiR	26361
replace	26358
ati	26348
Ġhotel	26348
bers	26347
Ġfails	26340
ston	26331
ski	26331
east	26330
mt	26322
Ġwindows	26317
Ġtwenty	26288
pen	26284
Ġregardless	26278
project	26270
Fe	26268
130	26265
Ġ67	26263
Ġtemperatures	26262
ication	26257
ĠSD	26253
Ġyouth	26250
}\,	26247
Window	26245
apping	26240
Ġent	26240
Ġpursuant	26238
attr	26236
ĠChe	26233
ãģ®	26230
LF	26230
pd	26223
treated	26219
ĠEvery	26205
Ġchoices	26200
van	26187
Ġhydrogen	26183
RL	26182
Ġengaged	26179
Ġcomfortable	26169
RG	26166
Ġwarning	26164
Ġvehicles	26161
ented	26158
Project	26153
)|	26153
Ġsimulations	26135
Ġflux	26126
month	26125
Ġsurfaces	26125
Ġpublication	26122
ĠJan	26121
Gu	26111
Ġadverse	26109
Link	26095
ois	26078
aster	26070
Ġ1980	26068
connect	26066
ĠGL	26066
Ġyounger	26065
ĠUp	26064
example	26062
Ġkilling	26048
Ġedges	26048
Ġshock	26045
ĠMaybe	26041
west	26037
kr	26034
Ġ:)	26034
common	26032
lc	26031
Ġlaboratory	26018
Ġ"\	26012
Ġoperate	26007
AH	26005
Ġcoupled	26005
LD	26004
Ġsuffered	25990
git	25987
bal	25987
Ġcapture	25986
ĠMrs	25984
Ġscenario	25980
Ġcollect	25972
aded	25969
ĠOhio	25968
isa	25966
-*	25963
Ġseparation	25959
107	25956
]"	25955
ĉĉĉ	25952
ĠLos	25946
Ġwonderful	25937
Ġaside	25935
ĠGame	25935
Ġstores	25934
Â´	25931
Ġsubsequently	25921
ĠAC	25918
ioned	25914
BB	25913
Ġcalculate	25907
ĠAppeals	25907
defined	25904
Script	25903
Ġturning	25903
Ġund	25897
Ġdual	25896
menu	25882
Ġbanks	25880
formed	25875
uis	25872
Ġoverride	25867
sent	25863
ĠWil	25861
ades	25860
Ġrefused	25849
Ġdependence	25846
aid	25840
111	25838
sha	25834
Ġbuildings	25831
Ġbin	25826
}^{-	25825
pres	25821
Ġdiv	25818
á»	25817
Ġattempted	25816
Ġproducing	25814
Location	25810
erve	25802
ĠModel	25796
bus	25791
ĠVirginia	25791
Ġfamous	25789
Ġexpand	25788
Ġlymph	25783
Ġwriter	25781
Ġinhibitor	25780
Ġsmoking	25779
Ġelectrode	25779
aly	25776
omo	25774
Ġsuffering	25772
iology	25769
}[	25761
Ġimm	25756
GO	25754
uy	25749
ĠGold	25746
Ġdiffer	25743
Ġwalls	25742
Ġstrike	25742
values	25740
Ġproposal	25740
nos	25739
Ġnm	25737
Ġclock	25737
Ġflight	25736
ĠVersion	25735
Ġstood	25726
Ġcalculation	25723
Ġroll	25719
Ġtough	25713
Ġcorresponds	25713
Fi	25699
Ġapoptosis	25697
Ġreg	25692
Ġschedule	25689
Ġemployer	25689
Ġbear	25687
2003	25684
esis	25683
\}	25682
ĠJewish	25677
dg	25671
Ġsal	25666
eV	25665
cut	25665
Ġdischarge	25661
aven	25657
ĠCanadian	25657
rap	25655
offset	25648
!!	25647
Ġbelief	25646
nr	25644
Ġescape	25639
Ġodd	25638
ride	25633
Ġversions	25630
Ġeditor	25619
Ġcolors	25617
ories	25616
Ġcontributed	25612
ĠAR	25610
Ġacc	25608
parse	25602
imal	25598
OO	25596
ĠWal	25593
ired	25592
Ġboys	25592
born	25590
Ġrepresenting	25590
ĠMiddle	25590
ĠCarolina	25589
ĠReview	25587
astic	25586
Ġbeer	25580
Ġreader	25578
Ġplenty	25577
Ġstack	25575
linear	25570
wan	25569
Ġproceedings	25568
Ġbasically	25562
Ġfacing	25559
Ġgrounds	25555
Use	25541
,$$	25538
Ġvast	25531
Ġheter	25531
ailing	25521
gar	25516
arding	25512
ĠDu	25512
ĠĊĠĠĠĠĠĠĠĠĠĠĠ	25504
Ġ-\	25499
Ġreceptors	25495
)$$	25491
Ġvillage	25484
NP	25476
Ġexit	25468
rid	25467
Ġextreme	25455
Ġyellow	25449
Ġenhance	25449
Ġpen	25440
Ġprogression	25439
Ġmapping	25439
Ġarbitrary	25438
Ġchamber	25426
ĠRepublicans	25424
Ġminister	25419
tri	25416
ided	25412
Even	25409
wer	25407
uid	25404
ĠThree	25402
Ġattribute	25394
iler	25390
asp	25383
Ġteacher	25379
anti	25369
Ġinvolvement	25366
OB	25365
aks	25364
ĠAmong	25364
Ġwalked	25348
ĠRichard	25346
vent	25345
PG	25345
mb	25343
Ġstick	25335
Ġequally	25335
Ġinflammation	25334
).$$	25332
Ġcoefficient	25331
Ġcomfort	25323
rig	25321
.âĢĻ	25319
EB	25315
Ġmodes	25312
Ġdinner	25312
Ġverdict	25310
Ġthickness	25309
Ġisland	25301
Ġconsumers	25301
Ġopposed	25300
TF	25299
Ġcircle	25299
Ġil	25295
Ġthrows	25294
ĠGl	25288
ACT	25285
Ġperforming	25281
Ġstimulation	25280
Ġ1994	25273
Ġphot	25264
Ġregional	25256
Local	25238
display	25237
ĠJackson	25237
Ġobserve	25236
Ġapplies	25232
dict	25224
cle	25207
Ġmoves	25205
iu	25201
Ġagencies	25186
sys	25184
Search	25183
before	25182
Ġdiversity	25176
uan	25174
ĠAccordingly	25174
ĠPlan	25172
ĠDec	25172
Ġinsert	25169
Who	25165
Ġ-------	25162
TX	25158
Ġpur	25156
Ġadjacent	25153
Ġcontrary	25149
}}^{	25143
Ġwinter	25141
Ġpregnancy	25134
ĠCare	25132
Ġhum	25131
ĠNi	25120
Ġ===	25118
ĠGar	25116
Ġbacterial	25112
NG	25111
Call	25111
Ġperiods	25111
cept	25105
Ġsatisfied	25105
files	25100
pack	25098
Col	25097
resses	25094
ights	25090
Ġstronger	25087
Ġhydro	25084
LU	25083
ĠGiven	25071
Header	25070
Ġmissed	25061
ĠOp	25061
Ġsegment	25055
olic	25053
UP	25044
Ġinstrument	25041
Ġer	25034
ims	25028
Ġrank	25020
Ġdecline	25020
ĠRT	25017
ension	25016
Ġwherein	25015
Ġdimensions	25012
Ġmagnitude	25010
igned	25009
Ġalert	25007
FP	25005
Ġstatistically	24998
Ġmutant	24997
Ġcreates	24997
het	24985
Ġrows	24983
ĠBush	24976
103	24975
yer	24974
%;	24968
Ġsaved	24966
ision	24957
Ġshares	24955
Ġbegins	24952
Ġongoing	24950
Ġmoral	24949
Ġmoderate	24940
Ġprofiles	24938
ifies	24936
Ġthereof	24935
ĠMary	24932
imp	24928
actic	24927
Ġprepare	24920
Expand	24918
140	24914
Ġcoefficients	24910
Dir	24909
limits	24901
104	24901
Ġdecreasing	24898
own	24880
Ġexcluded	24879
Å	24878
Ġmarkers	24878
Ġstands	24875
Ġbringing	24875
front	24871
oker	24870
hing	24868
Ġ\-	24860
Change	24858
NN	24857
Ġnewly	24855
Ġshell	24849
Ġconnections	24849
Ġpermanent	24848
2002	24847
him	24842
Ġmom	24834
nf	24833
mission	24827
session	24819
SET	24818
ĠUser	24816
VI	24803
Ġsymmetry	24799
Url	24797
rows	24795
Ġfe	24786
Like	24782
Ġmigration	24779
Ġefficacy	24778
Mod	24776
Ġteachers	24773
Ġru	24773
Ġanxiety	24772
Ġvictory	24767
Ãħ	24763
nat	24761
Back	24755
Ġtemp	24755
«	24754
Ġconsequence	24747
mathscr	24740
âĢĥ	24736
Ġrequiring	24735
>.	24728
Ġlosing	24724
equ	24720
Ġcre	24719
Ġcards	24708
reference	24705
rics	24702
Ġmanufacturing	24702
Val	24700
Ġselling	24698
uts	24697
Ġcommission	24689
thread	24685
ially	24684
Ġcomplications	24671
Ġadequate	24671
ialize	24670
Ġtail	24664
Ġrecover	24664
Ġau	24661
pping	24659
Ġdiagnostic	24659
Ġextracted	24658
Ġtargeted	24652
ĠPE	24652
Second	24649
ete	24646
Ġsubset	24642
Ġlisten	24640
0002	24636
Ġmes	24636
ĠNext	24634
ĠAnn	24634
Ġintermediate	24632
"}](	24630
Ġhell	24621
ĠYet	24611
Ġlesions	24603
Ġplanet	24600
Ġpat	24600
Ġinjured	24599
Ġfoods	24598
WS	24595
onal	24594
His	24593
231	24589
ctx	24585
Ġdealing	24582
Ġuniverse	24570
}_\	24569
pot	24567
ĠSimilarly	24567
Ġpredict	24564
NT	24560
Ġdelete	24560
rain	24555
'\	24554
Ġsuspect	24552
),\	24549
<\	24543
Ġear	24543
../../	24540
Most	24534
Ġrender	24532
ais	24529
Top	24523
Ġtrained	24517
Ġkeys	24513
gate	24512
process	24503
áĢ	24502
Hi	24492
uh	24486
'_	24485
raction	24482
tron	24479
VA	24468
eller	24466
tim	24447
rying	24441
108	24439
Good	24436
lish	24431
ival	24431
Post	24426
Ġbu	24418
021	24417
ĠWater	24416
Ġvaluable	24415
Ġusage	24413
ĠScott	24411
lash	24408
anger	24407
Ġfarm	24405
namespace	24400
Ġmutation	24400
lying	24399
Ġafternoon	24398
matrix	24397
icks	24396
Ap	24394
pat	24393
Ġcoll	24393
Ġ69	24390
Ġcomputed	24380
Thread	24379
Â²	24372
Ġinstances	24369
Ġbrings	24367
lr	24357
device	24348
Ø	24346
Ġwearing	24346
Ġdiagram	24345
Ġshouldn	24344
Ġmoments	24338
BD	24322
ĠSk	24318
Ġter	24314
ĠArmy	24311
Ġ77	24307
Ġreserved	24303
Ġve	24300
internal	24293
Provider	24291
½	24289
ĠBoston	24280
pur	24277
Ġcalculations	24275
THE	24274
Ġaudio	24272
eto	24268
thing	24267
Ġactivated	24259
ĠFa	24255
Ġrational	24251
Ġtechnologies	24249
080	24246
iced	24238
ĠER	24234
Ġsick	24229
Ġrecall	24227
sic	24226
stone	24224
Ġreviews	24223
Ġapartment	24219
here	24217
such	24214
Ġfaces	24211
ping	24209
oj	24208
gged	24206
rav	24203
obs	24201
Ġassist	24195
OU	24187
Ġrely	24185
words	24180
Ġdecay	24172
mas	24168
weight	24166
icate	24159
Ġkernel	24148
chen	24138
ĠReport	24135
Ġbroke	24134
ules	24129
have	24118
arin	24116
ĠSec	24108
ĠChristmas	24104
İ	24103
Pl	24102
Application	24101
Ġdifferentiation	24100
idity	24096
ĠAnalysis	24096
Column	24094
Ġsatisfy	24090
Ġchicken	24089
Ġallegations	24087
fill	24084
Address	24084
BU	24078
Ġtip	24075
Ġalgebra	24072
eted	24065
Ġcardiac	24062
including	24058
Ġresolve	24056
Ġelected	24056
Ġunsigned	24055
Ġ1993	24055
ĠFROM	24052
ĠSte	24041
ĠWork	24039
when	24038
Ġprefer	24035
Ġdedicated	24034
isting	24033
ĠBlue	24033
Pe	24031
Ġchecked	24030
aze	24025
ough	24017
AE	24017
Ġclassified	24017
pert	24015
ĠIns	24011
ulations	24009
ometric	24008
amb	24007
Ġchose	24007
Ġ1992	24007
ĠNA	24005
ĠHol	24005
none	24004
>\	24004
Ġmono	24003
Ġseriously	23994
Ġsurprise	23991
Ġordinary	23991
Ġdust	23991
1999	23989
Ġrenal	23979
Ġrevenue	23973
Ġinvolve	23970
Ġvary	23965
uce	23962
Ġdistributions	23959
Ġbrown	23946
________________	23945
ĠBased	23938
Ġgalaxies	23937
Ġanywhere	23932
Ġaged	23929
Ġ<=	23926
Ġbreath	23922
ĠNetwork	23922
mac	23920
RD	23917
Ġ<-	23915
Ġhistorical	23912
Ġcolon	23912
ĠLast	23907
dz	23902
ĠTrue	23891
Ġcook	23890
Ġ78	23883
ift	23876
Container	23873
During	23872
Ġsemiconductor	23872
iro	23870
ĠDespite	23869
Ġcutting	23866
phone	23865
grade	23864
printf	23863
omer	23858
LT	23854
Ġpresents	23854
Ġmatches	23852
ĠMike	23848
ĠSU	23847
Ġos	23846
earing	23844
Ġ),	23842
ule	23826
Ġtheoretical	23825
Ġwarrant	23822
tmp	23817
atch	23815
Ġtruck	23811
aud	23806
URE	23804
112	23804
Ġlattice	23803
Ġperfectly	23802
ĠVer	23801
Tree	23797
acks	23796
izations	23787
Ġpartners	23777
rio	23776
nel	23763
PCR	23762
Fs	23761
wedge	23759
Ġdiagnosed	23756
Ġrain	23750
olds	23748
Ċĉĉĉĉĉĉĉ	23745
Ġillness	23741
Ġtoken	23738
Ġmetabolic	23738
ova	23737
aved	23735
Ġ98	23735
mor	23734
Ġprediction	23730
Ġ88	23727
illing	23722
master	23711
[*	23711
Def	23711
Ġlaunched	23710
bian	23706
Ġrepeat	23704
ols	23691
Work	23691
Ġtheme	23685
eline	23681
aya	23681
mut	23678
Ġincubated	23677
ĠNor	23673
016	23671
Ġdataset	23670
Ġbridge	23667
ĠFire	23664
Core	23662
ĠRight	23654
}},	23652
Ġfer	23648
utter	23642
anes	23641
Ġcarefully	23641
127	23638
Ġbits	23638
Ã§	23637
Ġtour	23636
product	23632
Ġdet	23624
ĠNon	23623
ĠTeam	23619
Ġ110	23617
Ġhal	23616
remove	23615
Ġstatutory	23613
Ġacademic	23613
Ġbytes	23609
white	23606
duced	23596
Ġride	23594
Ġyesterday	23589
Ġ250	23583
Ġgauge	23576
Num	23571
Ġexecution	23569
iva	23563
ĠCont	23561
Ġshoot	23557
:=	23555
OV	23553
BO	23553
&#	23553
||	23551
Ptr	23549
Ġfraud	23547
Ġstaining	23542
Ġjourney	23541
Ġinsulin	23540
hom	23532
ptic	23530
ĠCharles	23523
nov	23518
Ġ$|	23518
what	23512
sr	23510
Ġthousand	23508
ku	23506
eria	23502
quot	23501
Ġpump	23498
'),	23497
ĠAngeles	23496
117	23493
yg	23490
PRO	23488
Ġmonitor	23488
Ġinfrastructure	23488
Ġwelcome	23486
Ġbreaking	23485
hood	23484
115	23482
Ġhardware	23479
ĠYOU	23478
ĠSal	23477
Ġeducational	23468
ĠMake	23462
Ġcloud	23461
Ġrounded	23456
Ġurban	23455
Ġva	23449
ania	23446
mr	23442
unit	23441
Ġur	23438
osp	23435
ĠOh	23435
Ġsky	23434
ĠTH	23433
making	23426
atively	23422
/>	23420
Ġmetabolism	23419
214	23417
Ġdomains	23415
column	23410
ĠNE	23407
SW	23404
ifier	23403
Types	23403
Task	23403
Ġloaded	23396
ĠConstitution	23396
Ġcarrier	23395
Ġdrinking	23394
Ġwa	23393
Ġsufficiently	23381
Ġreferences	23381
--------	23380
Spec	23376
Ġcontends	23375
tex	23372
atives	23369
Ġroutine	23368
omic	23367
hen	23364
Introduction	23360
Ġintake	23357
itude	23352
Ġtranslation	23351
Ġcomplexity	23346
ĠOrder	23346
ĠError	23345
oned	23342
Ġpartially	23342
ologist	23338
emon	23338
Ġ97	23338
Ġneighborhood	23334
LR	23333
Ġimposed	23333
final	23319
ece	23319
Ġ84	23317
IVE	23315
NF	23313
Ġmic	23308
Ġconservative	23307
rent	23287
Ġsomewhere	23286
Ġdisclosed	23286
UC	23282
change	23277
ĠParis	23275
mediated	23274
Ġengage	23274
Range	23272
ĠThanks	23266
ĠRock	23266
ilt	23263
Ġdict	23262
kan	23261
ĠVan	23261
aro	23260
Ġyields	23260
Ġdanger	23252
rh	23250
ARD	23249
ĠWomen	23249
Ø§	23247
Level	23241
Ġcontrolling	23241
gre	23233
ĠReal	23230
BM	23228
AU	23226
ĠJack	23213
Ġreveal	23208
equal	23198
Offset	23198
PER	23196
ĠJava	23196
Ġstroke	23193
iet	23190
AX	23189
Ġinduce	23189
chy	23188
Ġnumerical	23188
Ġcomparable	23188
Ġspec	23187
ause	23184
enter	23182
Ġbelieves	23179
Ġmail	23170
Ġsight	23164
Ġlab	23164
===============	23162
ĠMal	23158
Ġattend	23157
oor	23154
ĠAss	23151
COM	23144
ĠDoes	23142
Ġblind	23139
Ġconstraints	23138
rons	23137
Ġvi	23137
Ġevil	23136
Ġbehalf	23136
ITY	23126
Ġcomprehensive	23125
full	23124
ĠBel	23123
Ġass	23116
hel	23111
310	23099
blue	23098
Ġwest	23098
}}$,	23094
Ġadmission	23093
they	23092
Ġtrigger	23092
Ġbutter	23091
Ġlens	23085
Cache	23072
lif	23071
TG	23069
Ġmarketing	23066
will	23065
ĠBefore	23064
ĠHTML	23056
oder	23051
ĠDetermine	23049
Access	23046
Ġserves	23045
Connection	23042
ĠCorporation	23040
Ġintroduction	23038
ubs	23036
stat	23034
Ext	23034
iser	23025
Ġhorizontal	23023
Ġnorm	23019
lied	23018
docs	23004
Ġdiscrimination	23000
Ġinclusion	22991
ĠImage	22986
nar	22982
ĠTim	22980
sort	22977
ĠBritain	22976
Ġ71	22976
world	22975
ĠSpecial	22965
Ġpassword	22962
Ġhandling	22962
050	22959
Ġdivide	22947
Ġtables	22939
Ġexplicitly	22938
Select	22937
Ġuniversal	22934
-----	22933
Ge	22927
Ġchallenging	22925
params	22923
Ġ74	22923
textbf	22922
}}}\	22914
Ġsampling	22911
Ġfly	22909
KS	22906
Finally	22901
*\	22900
ĠFind	22899
Ġgrew	22897
Current	22894
ĠGrand	22894
Ġcited	22892
foot	22887
tile	22886
eless	22884
Did	22883
Ġtab	22873
tool	22870
018	22867
Ġsimultaneously	22867
igh	22865
alling	22864
Ġcache	22864
Ġsnow	22859
Ġcommit	22855
uni	22848
awa	22842
Ġalive	22842
Ġtra	22841
Does	22834
Cr	22834
Te	22832
Ġ{}	22829
Ġclassic	22828
âĢĭ	22827
217	22825
ĉĉĉĉĉĉĉĉ	22822
John	22816
encies	22813
lad	22811
Ġkid	22806
Ġag	22797
addr	22791
anded	22776
.;	22774
Ġdenominator	22771
Ġvariations	22765
ĠAustralian	22765
Ġchest	22762
Ġintr	22759
hole	22752
Ġhealthcare	22752
Ġpor	22746
Ġadapt	22746
Ġgreatly	22745
Ġmild	22743
rod	22734
}}(\	22731
High	22714
SB	22708
Ġresponded	22702
Ġkn	22702
ĠAsia	22702
ĠAv	22701
Ġ76	22701
auth	22699
ĠBusiness	22693
anced	22689
Ġsteel	22688
Ġamplitude	22687
]{}]{}	22684
Make	22684
eed	22683
Ġprovider	22683
ĠMedia	22671
Ġcopies	22668
methyl	22667
Ġimproving	22665
ington	22663
ibly	22662
)_	22662
aws	22660
ĠTechnology	22656
Ġquantity	22654
EG	22647
early	22646
xs	22638
ben	22637
power	22636
ĠTop	22633
Ġingredients	22629
Tag	22627
Ġfewer	22627
lee	22624
Ġmarker	22621
ister	22620
years	22618
Ġproud	22617
ML	22616
PK	22615
Ġeast	22613
Ġsharp	22612
{{{\	22610
Ġpenalty	22603
iveness	22601
Ġcorrection	22599
%).	22591
mate	22589
ube	22586
ĠPage	22569
Ġmales	22566
106	22564
011	22563
Ġapproximation	22562
pan	22552
ente	22552
cache	22552
Ġpulse	22547
thm	22545
ships	22533
fire	22533
Ġcohort	22528
Ġsending	22526
Ġmovies	22525
Ġelevated	22525
usr	22519
Ġdrivers	22515
SN	22514
ĠSQL	22510
ĠBio	22510
lier	22505
iating	22496
Ġnamely	22496
Ph	22492
rah	22479
Ġomitted	22476
known	22471
Ġrooms	22471
Ġexplicit	22470
Ġnearby	22466
ĠClub	22466
nds	22465
\_[	22465
yst	22451
ception	22449
Ro	22448
Ġ------	22447
IX	22444
Ġcomparing	22444
address	22440
ĠJr	22440
temp	22438
Ġdifficulty	22436
Ġprofit	22434
Ġsignature	22430
uf	22424
wal	22422
rite	22420
900	22420
Ġpapers	22410
access	22409
Ġrejected	22409
Ġvariance	22408
Par	22400
cel	22399
wd	22398
apes	22396
edu	22393
Ġstrict	22391
aver	22389
ĠIllinois	22386
Ġpres	22383
349	22381
ook	22379
HD	22376
Mon	22373
Ġleaf	22373
Ġcommitment	22372
Ġra	22369
plex	22363
Ġprecisely	22353
Ġax	22347
inating	22345
ĠMed	22333
olar	22324
Ġta	22324
Ġriver	22323
wrap	22319
Ġinequality	22318
ĠCell	22314
ailed	22309
rep	22307
tain	22306
Ġreceiver	22305
ĠMu	22303
Ġlit	22299
Once	22295
Ġcodes	22295
Cor	22292
Ġhist	22287
ĠValley	22283
PN	22282
Ġinvestors	22278
yp	22275
ota	22275
osing	22275
Ġmachines	22269
MF	22262
ĠHy	22262
Ġhasn	22261
Ġneural	22260
CODE	22259
rÃ©	22256
ground	22249
Ġatoms	22249
Ãł	22247
there	22244
Ġscientists	22241
Ġmatching	22240
116	22237
Ð½	22236
Ġreward	22231
Ġbuying	22229
ĠJoe	22229
ĠVol	22228
rained	22217
Ġfemales	22216
ĠForce	22212
ĠItaly	22198
Ġnaturally	22194
+(	22193
017	22192
!âĢĿ	22192
Char	22180
background	22179
TY	22178
åħ	22177
Ġtea	22176
ucks	22175
pine	22174
ashed	22171
Ġdoctors	22169
Ð»	22164
ĠMichigan	22157
Ġinform	22154
elli	22151
ĠOK	22151
Ġeq	22150
ĠPi	22149
care	22146
Am	22139
Ġadministrative	22133
iant	22128
materials	22119
say	22118
rates	22115
aire	22114
Ġbusy	22112
Ġjump	22111
Ġ::	22110
erk	22107
Non	22105
ĠToday	22097
tech	22095
alo	22090
oul	22089
odes	22088
Ġsuffer	22081
Ġmeasuring	22080
ĊĠĠĠĠĊĠĠĠ	22080
Ġscored	22076
Ġmask	22073
Ġelections	22073
ylation	22072
bn	22067
Ġheads	22062
ĠLouis	22061
Ġcoordinates	22057
Ġcheese	22057
Ind	22054
ĠEnergy	22050
Ġargs	22049
Ġcor	22048
ĠKn	22046
Ġrestricted	22038
dit	22032
aus	22026
Ġperipheral	22026
ĠSM	22025
ĠAmazon	22023
Ġsurprised	22022
Ġcareful	22020
Ġopt	22019
Ġprivacy	22018
lings	22015
Ġmodification	22012
Ġreduces	22009
Ġadjusted	22006
ĠCatholic	22001
Ġenabled	21997
about	21995
Ġcrowd	21983
should	21978
send	21978
ĠAtt	21971
ĊĉĠĠĠ	21971
Ġparticipation	21970
Ġscheduled	21968
Ġtrace	21966
210	21954
Ġdiverse	21954
week	21952
eries	21951
////////////////	21949
Ġsad	21948
oper	21947
Ġnotion	21946
Car	21927
Ġabsorption	21927
UD	21923
Entry	21923
Ġindependently	21923
Ġfeelings	21923
rez	21918
Ġcomposed	21915
025	21910
angle	21906
ĠResults	21905
ila	21904
Ġproven	21904
oat	21892
gene	21891
usion	21883
Ġera	21880
Â¿	21877
mons	21873
ape	21868
Ġmistake	21867
Ġcheap	21860
game	21859
ĠBest	21857
ĠLocal	21856
SIZE	21852
Ġarmy	21849
echo	21847
ached	21847
Ġcovering	21847
Ġanymore	21847
Left	21846
plan	21844
Only	21839
ĠHan	21835
Ġcontinuing	21833
Ġkinase	21830
Ġtiming	21820
ĠBY	21820
ĠSyria	21818
hash	21817
Ġbulk	21816
Ġsettlement	21815
ĠKo	21814
}}_{\	21812
Ġpresidential	21812
Ġcable	21809
Ġgel	21808
Ġtherm	21794
Ġ73	21790
ĠYear	21782
omb	21781
fect	21780
ĠIC	21778
rx	21773
Ġloading	21770
Height	21769
Ġhash	21769
pet	21766
Ġ94	21765
Ġadds	21762
ĠCross	21761
handle	21744
'(	21743
iring	21737
asm	21731
Ġ**(	21731
Entity	21728
Ġprogramming	21728
types	21723
Ġtalked	21715
ĠSpace	21714
Ġcommunications	21705
Ġease	21703
ĠWood	21703
Ġcrimes	21702
Ġaffirm	21702
pus	21692
Ġaircraft	21692
had	21691
Ġclosing	21690
km	21682
rative	21674
Using	21670
Ġgenerating	21667
ĠDavis	21665
Ġherein	21664
â	21662
meth	21644
Ġopinions	21644
Ġreform	21642
Ġprecise	21641
overs	21640
Ġlipid	21633
Ġ$\{	21629
ples	21628
Ġyards	21626
oil	21623
}({\	21621
Ġlists	21621
FD	21614
Ġexecuted	21611
ĠGlobal	21606
ĠFed	21606
Debug	21601
nable	21595
Ġexhibit	21595
[[	21594
ĠSource	21592
Ġwealth	21582
Ġpriority	21579
Ġ&=	21576
Ġpartition	21573
ĠRu	21573
Ġpetitioner	21572
ologically	21571
Ġ101	21565
fp	21561
Ġlocally	21555
Phys	21551
Come	21550
():	21548
Look	21542
014	21540
Ġafraid	21538
member	21536
ĠCreate	21536
Under	21535
Ġlegs	21534
Ġinfinite	21534
Ġvectors	21533
Â®	21526
^{-\	21525
ĠNumber	21524
family	21513
rial	21511
VM	21507
ĠDate	21502
Title	21501
Ġpolymer	21501
LM	21499
Ġfailing	21498
248	21497
ĠChapter	21497
total	21495
alg	21495
hol	21493
debug	21492
Module	21490
Ġrefers	21489
Ġcrazy	21487
Ġwhenever	21486
Ġwaves	21479
Ġsuddenly	21476
nv	21473
lower	21468
Dec	21468
Ġradical	21466
Ġcuts	21463
Ġ79	21459
container	21458
135	21454
rov	21453
icing	21453
icle	21452
Ġconc	21450
just	21432
Ġgu	21432
Ġdeclare	21432
missions	21428
Ġaimed	21428
Ġhouses	21424
Theta	21414
ĠPrime	21410
Ã¢	21402
ĠYoung	21397
Ġinhibitors	21395
Ġdiscover	21395
orb	21394
etal	21394
Ġ1991	21393
ĠManagement	21390
ERROR	21389
Ġtele	21389
Ġroof	21388
click	21387
Ġtaught	21387
Ġacquisition	21384
Ġtemporary	21381
Ġfrequent	21378
Ġwheel	21376
dar	21375
Su	21375
ĠLand	21374
ĠĊĠĠ	21370
Ġmas	21368
pf	21366
Ġforum	21361
omas	21359
Ġdep	21350
iling	21346
alities	21344
Ġexpenses	21341
shape	21339
Ġsuppose	21334
Ġcultures	21334
Ġsol	21333
Ġbread	21330
ving	21327
domain	21326
ih	21324
Ġcompetitive	21322
aint	21319
Pos	21314
Okay	21311
ĠPut	21310
Ġweapon	21308
alc	21307
IST	21304
alled	21302
itary	21297
Ġscan	21295
adi	21292
Ġproduces	21292
Total	21290
bing	21285
Ġencourage	21285
ĠPolicy	21284
ĠProposition	21279
ĠAction	21278
Ġstrange	21277
Os	21275
encing	21267
Ġmit	21266
','	21265
Ġupdates	21265
ril	21264
168	21249
ĠCivil	21249
Ġteeth	21248
ĠMat	21245
than	21238
ather	21235
Write	21231
Ġwatched	21229
109	21227
Ã©s	21224
Ġfifth	21217
iii	21216
acked	21216
ĠSea	21207
Section	21205
ĠFund	21205
Ġattributes	21197
Ġplurality	21195
Ġproviders	21192
tbl	21183
Ġreasonably	21180
ĠRights	21180
Ġdominant	21176
rn	21172
Ġwestern	21172
038	21167
train	21166
Ġshoulder	21166
pper	21163
Ġfrequencies	21159
enc	21156
nal	21153
CON	21149
ĠText	21146
activity	21143
ht	21140
Ġprocessed	21140
Ġtrading	21138
done	21137
stop	21135
Ġvertex	21135
ells	21130
ĠApplication	21127
Ġnerve	21126
awn	21125
Ġorientation	21123
email	21119
Ġignore	21118
Ġsilver	21116
yd	21115
Dialog	21113
ĠTrust	21113
Equal	21112
ĠBan	21112
./	21111
Ġawareness	21109
Ġ89	21108
Ġhorse	21105
Ġfed	21105
ires	21102
Ġstreets	21099
Parameter	21093
Ġlosses	21093
Ġobj	21088
ced	21084
Ġtiny	21084
ĠMD	21084
days	21081
gc	21080
Ġcouncil	21075
Ġfunc	21074
Ġ91	21070
Ġ86	21062
Ġvalve	21059
Ġpoll	21058
points	21056
Ġlip	21053
Ġquiet	21052
ĠMen	21052
Ġlawyer	21046
hh	21045
RY	21045
Ġpersonnel	21039
ĠFox	21039
Ġwitnesses	21038
ä»	21037
olution	21028
Ġpot	21024
232	21023
Ġimprovements	21021
ĠÃ©	21015
ience	21014
Ġtranscript	21011
Ġ{{	21008
Ġplates	21006
nol	21002
ury	21000
Ġsomehow	20998
Ġ..	20995
Activity	20984
048	20984
iot	20981
Ġgeneric	20962
Ġvascular	20961
vision	20954
ĠBack	20954
negative	20951
Ġcolour	20951
gov	20949
Document	20947
'}	20941
Ġfluorescence	20941
Ð²	20937
copy	20937
Ġmarks	20933
ĠHE	20932
Ġexplains	20931
/.	20927
Ġbet	20924
ĠFour	20924
SK	20922
fb	20921
ĠThank	20921
)</	20913
126	20912
ĠWilson	20907
Ġdivisor	20901
BF	20896
Ġtalks	20896
Ġholes	20896
ifications	20893
Ġspe	20887
Ġ87	20887
Ġ82	20887
035	20883
Ġneuro	20883
ĠĠĊĠĠĠ	20883
Ġwet	20880
dent	20876
Ġ})	20876
Ġstruggle	20875
Ġorganized	20875
alin	20871
ogenesis	20870
Ġgoverning	20869
Ġmini	20868
Ġreturning	20867
mal	20865
VC	20864
Ġ81	20861
forming	20856
Impl	20854
oded	20851
Ġsoul	20851
spect	20845
ashing	20843
Ġvideos	20841
Ġmanufacturer	20834
chr	20832
aced	20824
enum	20819
-$	20806
iller	20805
Ġcorrespond	20805
Ġrespiratory	20798
020	20797
ili	20796
Ġweren	20796
Ġ($\	20796
AY	20791
Ġunlikely	20791
Ġroughly	20783
WE	20778
Ġ83	20778
Ġchair	20775
Ġhall	20771
second	20770
205	20770
Ġsyn	20768
kar	20764
AST	20764
rand	20762
roc	20757
Ġpermitted	20755
diff	20754
ju	20750
Î	20749
mos	20747
Ġarchitecture	20746
ĠCC	20745
stage	20739
Ġpassage	20739
Ġgang	20737
Ġdirections	20737
ĠDescription	20732
026	20731
sor	20724
145	20723
aria	20721
Ġbyte	20721
Ġ93	20719
urg	20717
gie	20715
ems	20715
anal	20715
FU	20715
Ġinc	20713
dw	20711
rank	20709
Ġcooking	20705
Ġmodules	20704
alloc	20703
Ġ}\	20703
Ġuncertainty	20698
Ġrecipe	20698
Ġ92	20693
Ġelsewhere	20688
ria	20682
Ag	20681
ĠIR	20675
Ġovercome	20674
pton	20667
{}	20666
live	20666
verse	20659
task	20659
Ġafford	20649
oming	20645
Ġrestriction	20641
ĠRepublic	20636
Ġparking	20632
Ġgeometry	20632
Ġplea	20630
Ġdeviation	20629
NAL	20617
Ġcert	20615
elo	20614
instance	20610
Ġfolder	20595
Ġflash	20594
Ġhybrid	20593
Ġsodium	20592
Ġcompute	20592
Ġ++	20590
$;	20586
Ġconsisting	20586
Ġ\"	20582
DATA	20579
ANT	20578
sid	20570
ĠMuslim	20564
Ġtelephone	20563
Ġcycles	20563
Ġsubmit	20562
Ġgarden	20558
rypt	20557
export	20556
rev	20555
Ġbounded	20554
ault	20551
Ġextraction	20551
ĠFrank	20551
pop	20549
fx	20546
Ġkeeps	20545
Ġinvasion	20545
Ġutility	20541
wp	20538
Ġpaths	20532
cn	20531
sg	20529
ĠMiller	20528
Ã¨	20522
Ġmarijuana	20521
inst	20518
Ġcontracts	20518
admin	20515
uate	20514
nia	20514
Ġdisability	20514
ressing	20512
Ġseasons	20512
alis	20505
Position	20503
hd	20501
ĠSur	20500
oplus	20498
Ġalgorithms	20497
ety	20496
ĠIsraeli	20495
Ġaffects	20492
Ġconclusions	20491
erable	20488
Long	20486
Ġtens	20486
cin	20480
\;	20475
Î³	20472
oration	20470
ĠPan	20470
tools	20466
IGN	20463
Ġ1970	20463
Ġgiant	20461
Ġconcrete	20461
MAX	20458
MENT	20455
Ġ---------	20454
ando	20446
una	20442
dor	20436
kn	20431
[$	20429
280	20429
Ġcleaning	20426
inates	20425
Ġnano	20424
Ġpeptide	20423
Ġtheories	20421
Ġmedication	20418
ĠCP	20417
Str	20411
Ġboat	20408
Ġconverted	20407
DNA	20406
Ġbroadcast	20403
iana	20401
027	20400
Ġmeal	20397
Ġconsiderable	20396
Ġvol	20395
who	20394
person	20391
dam	20391
825	20389
ĠTu	20385
ronic	20384
pal	20364
ĊĊĊĊĊ	20361
Ù	20358
imon	20355
[**	20355
Ġavailability	20355
iders	20353
security	20351
ĠIslam	20350
CV	20347
Ġdispute	20343
.]	20341
olt	20340
textrm	20339
1998	20339
aste	20338
dagger	20337
Ġrobust	20332
Ġdoctrine	20331
Port	20324
Ġpowder	20324
aches	20323
Step	20322
ĠCre	20321
syn	20320
inv	20316
hon	20315
aine	20314
Att	20313
Ġresolved	20313
Put	20306
Ġfault	20306
Ġviewed	20301
loss	20299
ĠMet	20295
ĠNY	20293
Ġlunch	20291
mond	20290
enta	20289
ÂĹ	20286
eff	20286
Ġmaintaining	20285
zone	20284
ĠJersey	20284
Ãª	20283
iological	20282
023	20277
Http	20276
\>	20275
ĠLight	20275
Ġrural	20270
ĠFood	20267
Ġpushed	20266
marks	20262
underline	20260
Ġpersonally	20257
ĠTotal	20256
Ġiso	20243
pit	20242
119	20238
Ġprevention	20237
ĠWin	20233
zero	20229
ĠCommunity	20226
Ġcompletion	20224
ĠDev	20224
Ġentries	20222
`,	20221
phe	20220
bid	20215
Listener	20215
Ġgay	20215
Ġstrings	20213
Unit	20210
Ġconvicted	20203
Reader	20201
ulates	20199
Ġadvantages	20195
Ġappreciate	20194
ĠAu	20193
Main	20190
Ġmirror	20179
Ġguarantee	20179
ĠSouthern	20178
Sa	20173
Ġ((-	20171
hold	20170
ĠOfficer	20167
istics	20166
Ġbarrier	20165
PORT	20163
ĠÐ²	20157
ï	20156
uing	20155
ĠPakistan	20155
Ġfired	20152
Device	20145
oning	20143
ĠStat	20141
uth	20139
Ġdiscussions	20135
Med	20134
Ġsequencing	20133
Ġpy	20131
lder	20127
iti	20125
token	20124
imm	20124
oped	20122
Ġonset	20121
SON	20119
Ġscattering	20117
Ġ-----------	20110
220	20109
face	20100
Ġphenomenon	20097
pad	20092
Ġteach	20087
Ġ-----	20085
fers	20082
Ġfiling	20082
Ġownership	20079
Ġvacuum	20077
green	20075
Ass	20073
fil	20072
Ġexclusive	20067
Ġ(âĢľ	20066
trial	20065
Ġregularly	20063
Template	20060
ĠLine	20058
Ġking	20054
ologists	20051
Ġcream	20049
170	20044
essions	20043
Ġcompeting	20042
ĠNov	20041
ĠCEO	20039
kh	20037
?'	20025
Ġoperated	20024
iso	20020
unn	20017
cmd	20013
Ġatmosphere	20013
Ġsong	20010
uity	20009
unts	20007
bx	20004
bur	20002
antly	20001
Ġsystematic	20000
onate	19998
amide	19998
ĠWITHOUT	19996
*]{},	19990
Ġcomprising	19987
fast	19985
ashes	19980
Ġquantitative	19980
Ġdress	19977
ĠDel	19977
ĠĠĠĊĠ	19976
Product	19966
Init	19960
Process	19959
Ġcenters	19958
Ġthinks	19953
0005	19949
Ġverify	19949
vt	19938
ĠCentre	19936
ood	19935
\.	19931
cence	19930
Ġjudicial	19928
Ġentering	19927
Ġrice	19926
Ġreact	19923
unsigned	19920
Ġfinger	19920
ĠÂ¶	19919
ved	19914
lement	19913
Ġpour	19911
VF	19910
DER	19903
ĠOld	19894
asted	19889
ĠAng	19887
astro	19879
Ġworker	19873
comment	19868
Ġsustained	19866
sters	19865
Ġgovernments	19859
Ra	19857
Ġsatisfies	19856
Ġaccumulation	19855
Ġfalling	19854
DH	19851
.(	19841
pool	19840
Ġcaptured	19840
rier	19839
ĠSw	19839
SQL	19836
ĠSpanish	19831
Ġtomorrow	19830
cia	19829
Tool	19828
Ġgre	19823
orate	19817
agg	19813
}'	19804
Ġ>>	19804
aters	19803
Ġreaching	19801
loop	19800
Ġnamespace	19800
ION	19797
Ġexpanded	19795
Ġdemands	19792
Ġinterventions	19790
ĠHenry	19787
Ġou	19786
Ġprofessor	19782
Ġremoving	19778
night	19777
Ġcrew	19776
Ġdismissed	19773
ometer	19770
desc	19770
Ġcolleagues	19770
Ġstorm	19762
wed	19761
Ġrecommendations	19759
Ġ----------	19759
rone	19744
hard	19740
ĠTi	19739
esh	19738
black	19728
PF	19727
Ġdegradation	19727
Ġqualified	19725
uer	19722
subseteq	19720
Ġnervous	19720
ĠÂ°	19719
ames	19717
Utils	19715
cas	19714
Ġportions	19711
Ġfalls	19703
Ġrose	19702
Ġhide	19702
**.	19701
Ġincorporated	19699
ĠStandard	19695
yy	19694
Ġbundle	19694
ĠServer	19684
Ġcoding	19682
hor	19676
anned	19676
Ġpsychological	19676
Collect	19672
ĠWhether	19669
ĠMag	19669
disc	19662
ĠDes	19660
being	19656
Ġworldwide	19654
ĠForm	19654
AMP	19648
pn	19647
ĠDaniel	19645
Ġmor	19644
support	19638
aked	19638
iq	19637
ĠFrancisco	19637
inary	19636
Ġkidney	19633
Ġdismiss	19631
Ġmasses	19630
Ġdestination	19629
mented	19627
^)	19626
Ġgradient	19626
ĠItalian	19620
direct	19615
Ġstations	19615
}}}$	19614
Ġcond	19609
hep	19604
Ġadministered	19604
_{(	19602
114	19599
Ġ1989	19598
Rect	19597
nx	19592
030	19591
Ġsizeof	19590
sig	19588
HT	19586
ĠShow	19585
Ġassays	19582
ĠDefendants	19581
121	19580
------------	19560
024	19559
Ġcraft	19558
inking	19557
Ġscales	19556
sv	19553
čĊĠĠĠĠ	19550
tn	19547
Ġsubt	19546
cross	19542
.),	19542
rays	19539
fit	19539
Ġseparately	19536
Ġancient	19536
screen	19532
Ġinterference	19531
Ġ--------	19531
ĠMass	19529
Ġeggs	19525
áĥ	19523
ĠApache	19523
}}$.	19517
Ġreaders	19517
}$$\	19516
kel	19515
Ġenum	19512
ĠSA	19511
iment	19507
Ġdecreases	19506
stack	19500
ĠNFL	19500
ĠLett	19499
fall	19498
Ġmac	19496
join	19495
Ġuns	19490
tb	19489
Ġ\;	19489
while	19483
Bs	19481
Ġphysics	19476
igs	19468
Ġintervals	19462
Ġvotes	19458
Ġbowl	19456
Ġmounted	19454
Ġfaced	19454
arks	19451
Ġfriendly	19451
Child	19444
Ġegg	19444
eled	19439
itting	19435
Ġspan	19434
PV	19433
ĠPS	19432
roid	19428
nut	19426
Ġstuck	19425
ĠLove	19424
Edit	19423
Vs	19421
ener	19420
,\,	19418
Ġcovers	19415
Order	19413
fu	19411
emp	19409
vc	19406
Ġtargeting	19406
ĠHam	19406
illy	19404
-------	19403
)^{\	19403
Ġaddresses	19402
aki	19399
Ġkit	19395
associated	19392
roll	19389
Ġstone	19387
Ðº	19386
Ġfolks	19385
cul	19381
Ġ1988	19381
bon	19376
Eq	19375
Ġinterior	19373
edy	19364
ĠLA	19358
../	19354
Ġprofessionals	19351
super	19349
ĠAsian	19347
ĠIF	19344
Ġoffensive	19342
ĠGeorgia	19342
rett	19341
012	19340
mag	19339
946	19339
Ġcreative	19332
orial	19321
Na	19320
ĠCL	19320
plus	19314
ĠConference	19314
Ġroots	19312
ĠEp	19312
Ġvariants	19309
binding	19306
Ġpromoter	19306
Ġtran	19305
192	19301
ensive	19299
ĠVal	19294
ĠMod	19294
Ð¿	19282
ĠSy	19282
bling	19281
SELECT	19278
Settings	19272
ĠMad	19271
Ġappointed	19270
Ġappeals	19268
Ġtoxic	19267
Ġrising	19267
Ġhonest	19264
Ġanalyze	19264
Ġflexible	19250
Ġconstitute	19250
Ġheavily	19248
hour	19247
gun	19246
miss	19245
ĠWall	19244
forms	19243
ĠStudies	19243
setminus	19239
ĠBre	19239
command	19236
Store	19236
RES	19236
Ġdrawing	19234
ound	19233
Ġpasses	19233
Ġexpressions	19232
edi	19229
ĠTaylor	19229
berry	19225
Ġprotective	19225
uls	19222
Ġlikelihood	19222
ĊĊĉĉĉ	19220
inals	19219
oney	19218
Ġgran	19217
Ġconsecutive	19216
ady	19215
Ġseverity	19214
Ġreflected	19214
Ġexpectations	19209
idine	19208
Ġhousehold	19206
utions	19203
utable	19202
ĠMain	19197
Ġphosph	19196
Ġinsufficient	19196
ately	19195
Ġneur	19188
Ġbeach	19182
INE	19180
Ġarg	19178
>"	19177
Ġ------------	19166
Ġcart	19163
Ġmess	19161
Ġalignment	19160
113	19155
Ġdeb	19150
rob	19148
DK	19145
Ġratios	19143
cv	19142
Ġlimitation	19142
*=	19141
Ġmovements	19136
Ġsolely	19134
sty	19131
ND	19131
omy	19129
enable	19128
Ġsoldiers	19127
Ġyeah	19124
Ġsimilarly	19124
wt	19123
Ġadvertising	19113
045	19112
YS	19111
Ġrelating	19109
Ġ-------------	19108
Ġconstantly	19107
ESS	19102
147	19102
ĠRoyal	19102
acing	19099
Mat	19097
ĠWh	19096
images	19095
Ġbike	19093
Ġbind	19090
Ñĭ	19089
bits	19089
Ġhospitals	19086
arth	19085
Ġseeds	19085
Ġbands	19082
Ġenzymes	19076
Ġind	19075
ager	19073
phase	19069
channel	19065
Ġbeauty	19064
insert	19059
Ġ01	19059
Ġfoundation	19057
Ġawarded	19057
Ġanswered	19052
ĠMO	19050
Ġadmit	19049
ĠPatients	19047
ometry	19045
FN	19045
ĠRel	19044
ĠCase	19044
global	19040
Ġrestrictions	19040
]}	19039
ĠEs	19039
Ġcoordinate	19037
ĠAndroid	19035
cam	19034
BT	19032
Ġpackages	19032
chain	19031
Ġengineering	19027
Ġoptim	19026
aga	19025
itable	19024
itive	19023
Ġfin	19023
sit	19022
ĠEX	19021
amer	19017
Ġpas	19016
Ġsees	19013
Ġsubjected	19011
through	19010
round	19006
WA	19002
Ġmanual	19000
Ġmeetings	18999
dk	18994
May	18994
ĠAcademy	18991
ĠSen	18989
ĠJa	18988
Mc	18987
Ġabsent	18985
ĠExt	18985
Sl	18983
"))	18983
Ġcomprises	18983
jective	18981
)^{-	18981
Ä	18979
Ġorth	18979
ĠNorthern	18979
lev	18978
Ġsupplied	18978
lli	18973
arrow	18968
window	18967
ĠHD	18966
ãĢģ	18965
Ġ104	18963
short	18962
175	18957
ige	18955
Ġprotest	18954
Ġbeneficial	18952
aris	18950
åı	18949
rg	18949
Ġhoping	18944
Ġvarying	18943
Ġprojection	18933
Ġvaccine	18932
hib	18931
Ns	18924
Ġvice	18923
129	18921
Ġproceed	18917
Ġinteract	18917
ĠFar	18917
ĠSH	18908
ĠJoseph	18904
Ġproceeding	18902
Ġ"$	18900
Grid	18898
Ġexecute	18898
ijerph	18896
tons	18895
Ġenjoyed	18892
ĠPennsylvania	18892
Ġnations	18891
sign	18887
eval	18887
Ġpixel	18887
ĠThough	18887
Sort	18885
Ġmill	18885
Ġimmunity	18883
Ġimplications	18882
ounds	18880
Ġphysician	18877
ĠCard	18877
155	18874
izable	18868
Ġaccessible	18867
---------	18863
Ġresidual	18863
Ġchart	18862
Ġtensor	18857
Vector	18856
Ġvalidation	18855
application	18851
ĠSl	18851
Ġchecks	18850
resh	18849
actions	18842
news	18840
TB	18838
ĠPlaintiffs	18838
Ġdb	18836
Ġlayout	18834
Ġ$-	18829
ocyte	18825
Ġcarcinoma	18825
Ġdistinguish	18824
Ġserial	18821
Ġpred	18821
orted	18818
Ġpilot	18818
Ġantigen	18816
install	18804
hn	18803
124	18802
Ġages	18801
Ġintention	18798
ĠKim	18784
Ġsmoke	18780
ĠWi	18772
}})	18770
Case	18769
ĠIslamic	18769
Ġtemporal	18765
Ġclothes	18761
+^	18760
erson	18752
Ġlaid	18743
Ġ102	18736
mean	18730
âĢħ	18729
ĠGal	18727
Ġcalcium	18725
ĠDI	18719
Ġslight	18718
reed	18717
118	18709
ĠMax	18709
cz	18704
mans	18703
ermal	18703
Ġabundance	18700
Ġbonds	18698
Ġsauce	18697
Ġdefines	18696
Ġalter	18693
Ġ$[	18692
ione	18690
Ġfeeding	18688
ĠMajor	18688
Ġconsult	18685
Ġ"/	18685
Ġdisp	18683
cells	18680
ĠFBI	18678
Ġheating	18677
utt	18673
FB	18673
Ġglad	18673
bio	18670
ika	18668
Ġfusion	18659
tings	18658
iction	18649
.[]{	18642
Ġcorporation	18642
Ġartery	18634
Ġpack	18627
iver	18626
Ġneu	18626
ĠBeach	18626
Ġvitamin	18623
iers	18620
Ġâī¥	18619
Ġassign	18614
gets	18613
Ġqui	18612
----------	18608
Ġni	18608
""	18607
Ġdestroyed	18606
Ġspecify	18604
Ġranging	18602
olves	18601
Ġflo	18597
connection	18595
itors	18591
ĠLinux	18590
Ġinstallation	18584
Ġimmigration	18579
Rec	18572
ven	18571
plot	18565
Ġassignment	18565
ician	18558
ĠIndex	18555
Ġtw	18554
Ġdesirable	18551
ĠMP	18550
-------------	18548
Ġautomatic	18546
ologies	18545
Ġdevelopers	18543
ĠFollowing	18543
wh	18542
mel	18534
Session	18533
OA	18530
ĠTake	18527
shire	18526
etc	18523
oir	18520
flu	18515
]{.	18515
standing	18514
gly	18514
ĠMil	18514
ogue	18513
\*\*	18513
ĠGre	18510
ĠDesign	18507
Si	18506
Ġkm	18505
ĠUV	18503
Ð·	18501
Ġerred	18499
FILE	18497
Free	18495
Ġpadding	18494
fun	18492
0004	18492
Ġarmed	18492
MG	18491
Ġshit	18491
gest	18489
Ġunusual	18488
Ġinsight	18486
$]{}	18485
Ġbul	18485
350	18483
Ġaltered	18483
eding	18481
ĠNevertheless	18476
chan	18474
Ġacceptable	18474
ĠSup	18473
Ġeffectiveness	18471
iners	18470
Ġgod	18468
Ġbreach	18467
ĠPL	18466
Ġeligible	18465
ounded	18460
Ġearned	18459
Ġelect	18457
ĠLtd	18457
ĠAdministration	18455
Ġpreliminary	18452
ĠRyan	18450
ĠMatt	18448
RED	18447
Three	18446
arter	18441
čĊĉĉĉĉ	18440
211	18436
Ġstruck	18434
Ġconsistently	18431
ĠCS	18430
HL	18429
Ġwake	18426
operative	18419
opes	18415
ĠâĢ¢	18414
ĠTHIS	18413
Ġbunch	18409
pon	18407
figure	18407
ork	18406
Ġsessions	18406
Ġoccurrence	18403
Da	18402
Interface	18401
ĠStr	18400
FO	18399
Menu	18397
Ġvisited	18393
Ġmatrices	18393
atching	18392
Ġvoting	18387
Ġinline	18386
},$$	18383
Ġunclear	18383
Ġbur	18381
è¯	18380
Ġguidance	18378
KEY	18373
bg	18372
ĠWT	18371
Ġhi	18367
Ġskill	18366
nex	18359
ĠPatent	18359
Ġfacilitate	18357
!)	18355
Ġatom	18352
ĠPython	18352
Ġnormalized	18349
sex	18346
Ġsmile	18343
ĠPay	18341
Ġperceived	18339
GET	18337
Ġadopt	18336
Ġpacket	18332
ĠRep	18330
Ġtracking	18329
\|_{	18328
240	18327
Ġending	18327
Ġmolecule	18326
Ġeverybody	18325
ĠPI	18322
ÑģÑĤ	18315
Widget	18315
Ġarrangement	18315
component	18314
ĠPlay	18308
Ġtank	18307
sensitive	18306
Gs	18304
Ġspiritual	18296
Ġlights	18288
Ġà¤	18285
Ġpepper	18282
Ġminim	18282
ĠNC	18280
Ġangular	18278
utils	18276
oting	18275
gas	18270
ĠRay	18269
136	18268
ante	18258
ache	18255
Ġshopping	18254
ĠPoint	18252
ĠColorado	18251
Ġ180	18251
Ġhadn	18250
sun	18249
ĠHas	18245
Ġhonor	18244
hou	18243
LES	18242
Ġliberal	18240
Ġidentifying	18235
Ġcomplexes	18232
ãģĦ	18230
Ġluck	18225
Ġrarely	18222
Ġ109	18220
Ġrandomly	18219
interface	18215
Ġtreating	18215
onia	18213
Ġruled	18213
Ġdem	18212
urb	18210
122	18208
PATH	18207
Ġbelong	18207
Ġattended	18206
Ġ105	18205
ille	18204
037	18203
"));	18200
multi	18196
aping	18196
Ġpromising	18196
save	18193
ody	18192
away	18187
Ġ\#	18185
Ġchildhood	18184
Ġprecision	18182
Ġshorter	18178
Ġpoliticians	18177
Ġdesigns	18177
Ġvital	18174
Ġsand	18167
1996	18166
Ġaging	18165
Ġinstitution	18161
ĠJews	18161
Ġultimate	18160
ĠUnfortunately	18160
ĠIreland	18158
Ġviolent	18157
Ġexport	18156
Ġartificial	18155
ĠSteve	18154
cot	18153
acity	18152
ĠArizona	18152
ĠGO	18151
dem	18150
--------------	18149
Ġrent	18148
Ġintegrity	18148
flags	18147
Ġsem	18147
Ġtransportation	18142
ĠMel	18142
lav	18133
Ġov	18132
Ġtips	18129
help	18128
rade	18122
Ġchemotherapy	18122
mpt	18121
hot	18117
bbed	18116
165	18116
Ġpointer	18116
Ġwashed	18111
Ġclause	18107
voc	18105
ĠMaster	18102
Ġdeeply	18100
Ġtape	18098
Ġoxide	18098
Ġ+/-	18098
Ġpregnant	18097
Ġlifetime	18096
Ġbirds	18096
Ġ--------------	18096
Ġ600	18095
unch	18094
nom	18094
Bo	18093
eva	18092
Ġsentencing	18090
ĠInd	18090
pending	18089
Ġsole	18085
Ġabstract	18085
ĠOct	18085
Ġcollective	18078
Ġsteady	18076
Ġ128	18076
Ġconcepts	18075
Ġharder	18062
ĠALL	18062
={\	18061
names	18060
ĠJSON	18059
Ġ['	18053
Ġdoc	18050
OE	18049
-----------	18046
sam	18045
ĠMedicine	18039
Ġoccup	18036
quality	18035
Ġeverywhere	18030
Po	18027
Ġsurvive	18024
CK	18021
Ġbid	18019
ugg	18014
Ġforever	18014
Ġresidues	18013
MV	18010
agen	18006
ĠFamily	18006
Ġlabels	18005
ĠAge	18005
sem	18004
iest	17998
Ġjson	17996
Ġamended	17996
TN	17992
mus	17991
LOG	17985
Ġallegedly	17984
shift	17983
132	17982
bas	17972
190	17966
Body	17963
ifiers	17961
ribution	17959
language	17959
Ġarch	17958
Ġ----	17957
Expression	17952
Ġphases	17951
ason	17950
Ġsil	17950
Ġdisabled	17950
ĠAB	17944
Ġquasi	17941
Ġmountain	17939
ĠLie	17937
Ġ=\	17936
Ġblow	17934
meric	17931
hspace	17931
ĊĊĠĠĠĠĠĠĠĠĠĠĠĠĠ	17927
amo	17926
Ġforest	17924
Ġfunny	17920
Ġ106	17919
ĠBC	17918
Cre	17916
Ġ1983	17913
Gr	17910
tery	17908
Have	17905
Ġcrash	17902
ult	17901
AQ	17901
Ġnewspaper	17901
Hz	17897
igo	17893
Ġcampus	17891
analysis	17890
0003	17889
Ġcomputing	17889
Hello	17888
1997	17888
iam	17887
itter	17882
Background	17881
Ġpaint	17879
Font	17870
}}}_	17869
Ġcurrency	17868
scope	17866
otype	17866
fields	17866
Ġfabric	17865
Ġhang	17855
ç»	17850
sample	17850
Ġmonthly	17847
Sch	17846
Ġspl	17846
MOESM	17844
ĠSeries	17842
ĠSeveral	17840
ĠRob	17839
Ġdoors	17837
Ġsymmetric	17835
čĊĠĠ	17833
ĠOs	17831
å¤	17830
Ġutilized	17830
Ġrepeatedly	17828
aran	17825
Ġchip	17820
029	17819
Ġmult	17817
rak	17813
Ġflavor	17811
ffer	17808
odo	17801
ĠAbout	17799
Ġwrites	17788
`.	17785
irs	17784
Ġearn	17783
Ġaccompanied	17782
[(	17781
Ġmixing	17780
Ġenemy	17778
ĠJe	17778
177	17771
ĠJu	17771
stant	17770
yard	17769
ĠCook	17769
Ġexhibited	17768
Ġbankruptcy	17768
ĊĊĠĠĠĠĠĠĠĠ	17768
fix	17764
Ġpatch	17758
ĠFA	17756
à	17754
144	17754
Ġviolated	17751
draw	17749
eli	17748
Ġarranged	17748
Ġreporter	17747
Ġlying	17746
ĠDan	17745
Run	17744
Ġjoy	17744
Ġsport	17739
cases	17737
tv	17736
ĠDist	17730
Ġpit	17727
tg	17726
eric	17723
Ġmitochondrial	17723
queue	17720
Ġpulmonary	17716
rule	17714
Ġvessel	17710
Ġenvironments	17709
Ġchecking	17709
inflammatory	17708
ĠCancer	17703
lessly	17699
Ġconv	17698
perp	17695
Ġresidence	17695
Ġmere	17693
Ġsurveillance	17688
anks	17683
AIN	17682
ĠHistory	17679
Ġoccurring	17670
SG	17669
138	17668
Ġmil	17668
450	17667
Ġune	17664
.*]{}	17661
ĠVe	17654
Ġreveals	17651
Ġ["	17651
ido	17649
tail	17645
Ġlanguages	17644
roy	17643
ĠSpain	17642
Â§	17639
lag	17638
tern	17636
Ġtopics	17632
Ġstudying	17632
ochemical	17628
Every	17620
Ġphilosophy	17620
Ġdisagree	17619
à¬	17618
ĠPol	17614
DU	17613
Ġvoted	17613
Ġreadily	17613
Ġscalar	17608
Ġdeclined	17605
Ġarc	17604
uda	17601
Ġprot	17598
Ġrecovered	17596
Mu	17595
gical	17592
Ġperception	17591
idence	17589
-,	17589
Multi	17587
Ġdesc	17586
ÎĶ	17584
Ġsupporters	17583
omat	17581
Ġrough	17580
Ġprote	17575
Ġbath	17574
ican	17568
cit	17563
.).	17561
Ġjet	17561
Ġ(@	17559
Ġreversed	17558
enh	17555
753	17554
Ġ1986	17550
Ġpanels	17548
ket	17542
ishes	17541
Ġderivatives	17540
aco	17539
Identifier	17539
Async	17539
rw	17538
ĠKingdom	17538
198	17537
rator	17532
|-	17531
clear	17529
Ġparse	17529
ĠAgain	17529
ART	17516
Ġlegislative	17516
oted	17514
Ġdoses	17513
Ġdefects	17513
Ġinterpreted	17508
Ġembedded	17508
users	17507
ect	17506
Layer	17506
Ġbottle	17502
Ġunlike	17498
Ġtroops	17498
Ġtransactions	17498
OG	17497
ĠPath	17493
aser	17490
rect	17487
idi	17485
Ġrear	17485
ĠBob	17484
.:	17482
Ġcorrelations	17481
1995	17472
({{\	17472
rew	17471
Ġstellar	17469
wall	17466
aba	17463
ĠOl	17463
Ġputs	17459
prec	17457
Ġje	17448
Ġtrail	17446
Ġsouthern	17444
Ġliked	17443
ĠEastern	17442
Ġcritic	17441
Integer	17440
mass	17434
KA	17434
Ġalt	17433
Ġknee	17431
Ġcholesterol	17428
Ġhol	17427
ĠCy	17425
*~*	17423
ĠMethods	17422
Collection	17420
039	17420
hem	17419
ĠÂĹ	17418
Ġ<!--	17418
INFO	17415
ĠWeek	17411
ĠLE	17407
ief	17406
border	17405
Ġfibers	17405
ĠStudy	17403
sson	17400
ĠDef	17399
ĠAN	17396
Ġduties	17394
okes	17393
Ġprinted	17393
ago	17386
Ġsystemic	17383
stra	17382
iac	17382
Ġjail	17382
HY	17381
Ġpseudo	17379
ĠDue	17377
Fl	17376
ĠJim	17375
Ġ('	17370
oco	17369
Ġprosecutor	17369
ĠMiss	17365
kind	17363
Ġprominent	17361
Ġarise	17361
rance	17358
ament	17358
ĠAlex	17358
Ġlabeled	17357
Ġrating	17354
Ġec	17354
Ġcooling	17349
random	17345
ĠBal	17344
Ġboot	17340
Ġauthorized	17338
Ġpropose	17337
GB	17333
iang	17328
oop	17323
iph	17323
JS	17323
ĠMap	17319
Ġmat	17318
Ġactor	17317
Ġvis	17314
Ġexpressing	17312
Ġ1987	17311
Ġtone	17308
Windows	17307
sq	17306
Ġinfluenced	17305
iol	17303
Exp	17303
Ġillustrated	17302
irm	17301
oves	17297
Ġrein	17297
ĠWARRANTIES	17297
Ġassociations	17296
Ġnorthern	17294
erv	17293
pling	17290
izz	17290
aden	17286
ĠChildren	17286
Ġgrass	17281
Ġcourses	17280
alty	17278
enberg	17277
Ġgained	17275
Ġang	17274
category	17273
Ġprinting	17271
resource	17270
Has	17267
TEST	17266
profile	17265
Ġexciting	17263
ĠPort	17263
asc	17261
odi	17258
colon	17255
rup	17254
Ġhabit	17253
čĊčĊĠĠĠ	17252
ĊĊĠĠĠĠĠĠĠĠĠ	17252
erred	17251
NER	17251
Ġraising	17249
Ġphenotype	17248
Ġpending	17243
Ġpipe	17241
zen	17236
Ġattitude	17234
onomy	17231
Ġdiscrete	17230
GI	17223
ppers	17214
Ġconnecting	17212
tol	17211
aux	17211
Ġloans	17211
ĠHR	17211
abe	17210
Ġsuicide	17209
Host	17206
plugin	17205
DV	17205
Ġvalidity	17204
Ġinspired	17202
fed	17200
Icon	17200
FX	17192
ĠRoman	17191
igation	17190
United	17187
haw	17185
MEM	17182
xf	17180
REG	17178
)->	17178
pub	17177
Ġcy	17177
Ġbat	17177
Ġsy	17172
Ġstupid	17166
ĠDM	17166
Ġgalaxy	17164
Ġdys	17164
sten	17157
ĠImages	17155
lium	17154
ĠBR	17154
ĠCall	17153
âĪ	17149
Ġhopes	17149
relation	17147
Ġregistration	17147
(){	17146
Ġsomebody	17145
oice	17143
Ġdefensive	17143
Ġrot	17142
Ġpitch	17141
Ġgross	17141
oser	17138
Ġprosecution	17138
Ñı	17137
Ġignored	17137
ĠSpring	17136
034	17135
eda	17133
raz	17132
040	17131
andy	17128
Ġdiffusion	17127
Ġcontacts	17126
ĠPacific	17126
033	17124
Ġhel	17120
Ġawesome	17120
_,	17114
Ġ(%)	17112
ograms	17111
aper	17110
Ġresonance	17109
because	17108
Ġguest	17108
ĠLog	17108
kk	17100
Ð´	17096
Ġisolation	17096
omed	17090
Ġdenotes	17085
ĠThird	17085
Ġì	17084
ocated	17082
Ho	17075
disp	17072
Ġcardiovascular	17068
ĠEC	17063
Ġpreventing	17061
Ġphosphorylation	17059
USE	17057
Ġcoli	17051
ĠWithout	17046
Down	17043
Ġequilibrium	17042
otes	17036
)*-	17036
Ġhtml	17036
ĠAgency	17036
Ġtransmitted	17032
holder	17030
Ġwound	17028
licenses	17027
{|	17024
Ġliterally	17022
Ġdish	17018
ĠZealand	17013
DG	17012
Ġsir	17011
delete	17008
ĠAnderson	17008
\[[@	17007
Ġinvariant	17007
à®	17006
Ġexcessive	17003
wait	17002
ĠAgreement	17001
Ġoste	16998
Ha	16996
Ġtension	16996
AME	16993
Ġprospective	16993
enny	16990
Ġdestroy	16990
forall	16988
Ġpounds	16988
Ġembodiment	16988
Ġeliminate	16988
Ġ"#	16988
Ġexpl	16982
Ġedit	16982
mask	16981
SHA	16976
301	16976
Ġfactory	16975
Ġaff	16974
Enum	16971
ILL	16970
ject	16969
former	16968
Ġextrem	16967
Ġnucle	16962
áº	16961
eness	16960
Ġswitching	16960
rees	16957
gency	16954
Ø±	16953
illi	16953
Ġgenuine	16953
Her	16950
Ġpublicly	16950
Cap	16948
nty	16944
Convert	16944
Ġgravity	16944
ĠHave	16944
ulin	16940
oster	16938
Ġovernight	16936
HTML	16935
Author	16932
060	16932
Ġga	16931
Har	16927
Ġham	16927
Show	16925
Ġdysfunction	16922
javascript	16921
Ġelectricity	16916
good	16915
ĠGi	16910
Each	16909
Ġregulated	16908
$:	16907
Ġworried	16907
ific	16906
worth	16904
Ġfoo	16904
Ġtonight	16902
Ġphysically	16902
Ġobesity	16902
Ġlaugh	16902
ĠTur	16901
ĠCe	16897
mates	16896
;">	16894
Ġamendment	16891
Ġcombine	16890
Ġdifficulties	16885
tax	16884
orse	16884
Null	16883
FG	16881
mont	16879
Ver	16879
Life	16877
ĠDid	16876
Ġ130	16875
Ġdestruction	16873
Ġdelayed	16873
Ġspecificity	16871
Ġattractive	16871
Ġboxes	16870
review	16869
Ġflour	16867
oot	16866
031	16865
\{\	16864
Ġcarb	16863
_>	16862
åĪ	16860
Ġdenial	16860
Ġorbit	16857
Ġassumptions	16857
bury	16856
Ġunexpected	16856
bra	16855
Param	16854
Ġlift	16852
ĠTra	16852
ega	16850
Ġepisodes	16850
204	16847
pped	16846
Load	16845
Ġblame	16844
erry	16842
Ġwr	16834
Ġevident	16834
Params	16833
Ġfounded	16828
Ġpoverty	16827
ĠGames	16827
ĠBase	16827
move	16824
Ġdiff	16824
anz	16818
Ġ108	16816
igen	16812
ĠConsequently	16812
ree	16811
GH	16810
Ġsqu	16808
Ġicon	16808
Ġsearching	16807
orship	16804
ĠRec	16804
Ġattributed	16803
LV	16801
ĠArab	16801
soc	16789
nell	16788
})$.	16784
DX	16784
Record	16782
Ġhardly	16779
organ	16778
Ġwireless	16778
032	16777
225	16776
toString	16771
_{-	16767
131	16767
energy	16766
Ġdisplays	16764
ĠBitcoin	16758
dest	16754
Ġinverse	16748
Ġhon	16748
Ġblocked	16745
Ġ125	16745
Ġabortion	16742
hip	16740
PB	16740
etics	16739
erge	16730
Ġweird	16730
Ġcoast	16730
edge	16728
isk	16727
ĠIowa	16726
Ġhits	16724
grid	16722
ĠWITH	16721
oose	16720
BER	16714
seq	16712
Ġflags	16712
ĠKi	16710
License	16707
ĠPerhaps	16706
ower	16701
READ	16701
Ġpace	16698
Ġcompatible	16698
Ġbeliefs	16695
Ġadjust	16694
pg	16692
iki	16690
ready	16689
posing	16683
take	16678
loading	16678
inos	16677
148	16675
Ġloud	16675
Ġep	16673
++;	16672
Ġoven	16671
Ġpermissions	16667
Ġmagic	16665
eks	16661
aton	16659
rase	16658
Ġtract	16658
Ġpartnership	16655
olk	16652
teen	16650
Ġquant	16646
Ġenables	16644
Ġdefend	16643
Ġvisits	16642
Ġarr	16640
'>	16639
Ġobtaining	16638
Ġ1985	16638
also	16637
Ġaffecting	16635
999	16632
ĠÑģ	16632
Abstract	16630
stan	16628
NY	16628
LB	16628
202	16627
ĠTown	16623
Ġgenerator	16622
ĠFin	16620
Ġci	16619
Ġretain	16617
backs	16615
oton	16614
inks	16613
Ġgotten	16613
Maybe	16611
DEBUG	16611
Ġms	16610
ONE	16606
izers	16604
Ġ{@	16604
036	16601
dates	16600
Ġtill	16598
urn	16597
eron	16595
VP	16594
amin	16593
Values	16592
Additional	16592
ĠVa	16591
season	16587
phy	16586
ĠHead	16585
area	16584
$^{-	16583
Ġdifferently	16583
modules	16580
Ġtort	16580
456	16574
ĠPres	16573
[-	16572
ĠSpecifically	16571
137	16569
Ġweights	16569
Ġtradition	16568
Ġ103	16565
Ġmaximal	16563
human	16562
Ġdescribing	16562
Ġbehaviors	16559
variant	16558
Ġdad	16556
kov	16553
UV	16552
134	16552
Writer	16551
NU	16551
PU	16550
Ġguns	16550
ista	16549
Ġreflects	16547
Ġfits	16544
Ġacknowledge	16543
pic	16542
python	16541
Items	16539
MAN	16536
regulation	16534
Ġcos	16534
Ġ***	16534
Ġreject	16533
ORS	16526
>();	16526
topic	16525
133	16523
Us	16522
Ġfunctionality	16522
Ġdemocracy	16522
Ġasks	16522
court	16521
GM	16519
omes	16518
mph	16518
Ġbearing	16514
Ġfilling	16512
Ġbatch	16512
Ġdesignated	16511
Ġdeals	16511
EY	16508
Ġcommands	16507
Ġcrack	16505
Ġcallback	16501
Ġequ	16496
Ġunderwent	16492
Ġintrinsic	16489
Ġclinic	16488
ĠMethod	16486
Ġxe	16485
ĠTax	16485
ĠMinistry	16485
ĠAdditional	16483
Ġpredictions	16480
Ġpolynomial	16479
'-	16478
Ġtrends	16478
Ġinvestigations	16478
Ġagenda	16478
uro	16475
Ġequality	16472
Ġselective	16471
Ġinterviews	16470
omers	16469
019	16469
Ã©e	16466
Ġkiss	16466
made	16465
ĠBell	16464
Ġsing	16463
Ġmorph	16460
Ġchlor	16456
cine	16454
enes	16452
party	16450
ĠJordan	16443
anna	16438
SCs	16437
ĠRather	16436
1994	16434
)}{\	16434
âĦ¢	16425
itated	16425
Today	16424
Ġshoes	16422
Ġtexture	16421
ĠAccess	16421
ĠKu	16416
Ġfitness	16413
impl	16412
Ġbreaks	16411
ections	16410
exec	16405
Ġprogressive	16405
Ġprogramme	16404
sym	16402
uli	16398
Operation	16398
Ġkick	16396
Ġsegments	16393
Ġhero	16393
ORE	16392
ĠFalse	16389
Ġpython	16386
ĠMC	16383
emic	16381
Ġpm	16381
OCK	16376
ĠArray	16375
Ġlistening	16373
olin	16370
orts	16367
BG	16366
ĠPet	16366
028	16365
cord	16362
Ġweekly	16361
Ġgear	16357
156	16355
Ġml	16353
ĠTer	16350
013	16346
isions	16345
ĠSim	16344
umin	16341
Ġcombat	16339
Ġdetector	16335
Ġfarmers	16333
âĢ¯	16325
racted	16324
Ġconspiracy	16324
Ġxmlns	16321
Ġinvalid	16319
ĠTitle	16315
ĠWord	16314
avel	16313
\|\	16313
ĠGaussian	16313
ylated	16311
Ġconsciousness	16309
bat	16308
Ġfocusing	16307
Ġhypertension	16302
.\[[@	16301
)_{	16301
Ġboundaries	16299
iable	16298
Ġinserted	16298
Ġsynthetic	16297
Ġjuice	16296
plane	16289
lands	16287
222	16287
ptive	16286
Ġvariant	16282
sche	16278
Ġnarr	16278
ĠES	16277
pk	16276
Ġkil	16276
Handle	16275
Ġintellectual	16271
Ġattempting	16268
translation	16267
ĠSciences	16265
arma	16263
risk	16262
ĠStill	16262
children	16261
ĠPrior	16260
Red	16258
Ġsta	16257
ĠLow	16256
?)	16255
Ġtrivial	16252
---------------	16250
expected	16248
ĠWa	16246
uma	16245
Ġangry	16245
Ġvertices	16244
Hash	16243
Ġinte	16242
Ġcoal	16230
Ġfavorable	16229
derived	16228
Ġpolar	16227
your	16224
Ġindices	16222
Ġbow	16221
Ġemb	16220
ĠSanta	16220
Ġcomputers	16219
1993	16214
209	16212
ĠCount	16211
Ġadapted	16207
Ġconfident	16206
Ġlin	16205
Ġ1984	16202
lux	16200
gic	16198
Ġrendered	16196
Ġregulate	16192
Ġintracellular	16192
Ġapps	16191
Ġphysicians	16188
ĠChar	16185
212	16184
HP	16183
Ġvaried	16180
Ġfitting	16175
atter	16174
ĠGC	16173
got	16169
Ġimpressive	16169
Ġconvenient	16168
ream	16163
Ġchocolate	16163
Ġfatty	16162
register	16159
race	16159
ĠLy	16157
release	16156
Ġcombinations	16153
Ġaims	16153
Ġdeeper	16151
Ġ\|	16150
iral	16149
bbing	16144
ĠGreek	16144
Ġedition	16143
Ġterrible	16142
ĠBrazil	16142
oun	16141
nil	16141
Ġreflection	16141
Ġast	16140
ĠPhil	16137
margin	16135
ĠSpirit	16134
ellar	16133
Var	16132
Ġburn	16132
Flags	16130
206	16130
ĠFord	16130
Ġsettled	16129
ĠĊĠĠĠĠĠ	16128
139	16120
tests	16119
ÙĨ	16118
report	16117
Ġfunded	16117
ogram	16116
-{\	16115
Ġfragment	16115
zu	16114
$).	16112
Ġnegligence	16110
Mi	16108
Ġ$.	16107
Ġdans	16106
Despite	16103
022	16103
Ġrestaurants	16103
âĢ²-	16098
Ġintense	16098
Ġdiscount	16095
ĠAsh	16095
Ġpeaks	16094
rust	16093
)}(	16093
Ġdates	16092
Ġdefect	16089
Ġsuspension	16088
lio	16085
Ġmatched	16085
,[	16084
()->	16084
Ġlimiting	16084
Ġ"<	16084
edit	16082
Ñ	16081
lov	16081
lla	16081
ello	16081
ĠAward	16081
password	16080
ĠSign	16079
Ġretirement	16076
Ġdisclosure	16076
iah	16075
ĠColumbia	16075
mand	16072
Callback	16072
Ġcollapse	16072
Ġquantities	16065
Ġepithelial	16065
345	16064
ACK	16060
Ġmagazine	16059
roph	16051
Return	16051
Li	16051
ĠAuto	16051
Ġrail	16049
Ġpeer	16045
Ġscoring	16043
Ġsucceed	16040
Ġtransparent	16038
Ġhook	16035
ĠSir	16035
ĠCPU	16033
512	16031
Ġconsensus	16028
Ġink	16025
Chapter	16020
ĠArch	16020
simeq	16019
ĠRet	16018
ĠÐ¿	16016
rage	16013
Ġbreakfast	16011
nutrients	16002
320	16001
ĠMid	15998
Bytes	15997
Ġchoosing	15997
oured	15995
Ġmortgage	15989
hest	15985
Ġvulnerable	15985
Ġfingers	15985
Ġlawsuit	15982
Ġscaling	15981
Ġsatisfying	15980
Global	15978
Ġmanually	15974
twitter	15968
works	15967
Ġpreferably	15967
Ġchains	15967
Ġdamaged	15965
ĠTour	15962
ĠPur	15962
Ġdollar	15958
ĠBook	15957
Ġretail	15951
abi	15950
ĠÐ	15949
ĠRA	15949
cil	15948
four	15946
terminal	15942
Ġstrictly	15942
Ġrepresentations	15939
rong	15938
Ġlikes	15938
idx	15935
FM	15930
430	15927
Ġphysiological	15927
Ġcycl	15927
Ġholiday	15925
Ġdy	15925
1990	15921
Ġcry	15921
ĠLittle	15921
215	15915
))/(	15914
bind	15913
Ġdeveloper	15913
ĠProfessor	15912
Ġsupplies	15910
ention	15906
Ġlateral	15905
Ġhem	15905
ĠCommonwealth	15903
olly	15902
Ġwondering	15902
Ga	15898
Ġ+\	15897
sheet	15896
region	15893
bibr	15891
avy	15890
à¥	15889
Ġquote	15887
$),	15882
Ġshots	15880
ĠPBS	15880
grad	15879
146	15879
olog	15877
due	15876
Ġisolates	15876
âĢĻ.	15871
Ġtolerance	15870
WORD	15869
ĠIM	15869
Ġextr	15868
Ġbounds	15868
rass	15867
049	15865
Ġtrauma	15865
pair	15864
Adapter	15864
hit	15859
hill	15853
ĠPlace	15853
azz	15851
Ġconstitution	15851
items	15848
0010	15847
bh	15844
Ġpushing	15842
~*	15841
Ġloc	15841
~\	15840
Ġaggressive	15837
polar	15836
Panel	15836
ĠLC	15836
uster	15835
people	15835
Ġtied	15832
arily	15831
Ġvisitors	15828
ĠFull	15827
esty	15826
Ġions	15826
Ġentities	15825
role	15824
regulated	15822
wiki	15821
BN	15821
.",	15819
Ġtech	15817
Ġassistant	15813
Ġreputation	15812
urry	15810
<<	15809
ĠParliament	15809
+)	15805
Ġobjection	15803
ĠMinnesota	15803
enz	15802
Ġbills	15800
ther	15797
Ġviruses	15797
udd	15796
âĤ¬	15794
println	15794
Ġpal	15793
ict	15791
Ġlogical	15791
QU	15789
Ġresist	15779
ĠBible	15779
Ġdeposition	15777
ridge	15774
esp	15773
atum	15773
ĠSm	15769
ĠLook	15765
VR	15764
ables	15761
386	15761
ĠSoviet	15761
resp	15760
ution	15759
NULL	15759
othe	15757
aha	15757
Star	15757
selected	15755
amps	15755
widget	15754
ĠProperty	15753
Â³	15751
Names	15750
Ġstretch	15750
Ġmacro	15738
ĠHTTP	15733
IDE	15731
ĠHarris	15731
drop	15728
Ġblank	15724
aning	15719
force	15717
640	15717
Auto	15714
Ġnucleus	15714
ãĤĴ	15712
Ġemerging	15712
bad	15711
Ġreferring	15711
Ġequipped	15710
ĠFair	15709
norm	15708
Ġjournal	15708
Helper	15706
shot	15699
Ġbench	15699
gn	15698
ĠTurkey	15697
doi	15695
,_	15695
Ġinquiry	15694
icker	15680
ĠFo	15676
ĠDA	15676
216	15675
Ġcertificate	15675
rium	15674
Ġcoat	15672
################	15668
ĠArticle	15668
ĠAssembly	15667
uty	15666
Ġcavity	15666
Enabled	15665
Ġpocket	15665
jection	15664
ĠGR	15662
may	15661
Rule	15661
Ġdeficiency	15661
188	15657
ĠNF	15654
carb	15652
æĺ¯	15651
Discussion	15651
inity	15650
Ġterritory	15650
eor	15649
MER	15648
Ġsensors	15648
Ġtoxicity	15647
iny	15646
otherapy	15644
iar	15642
)\,	15641
ĠAdam	15641
041	15637
Ġplatforms	15637
Ġdeny	15637
ĠCambridge	15637
gor	15634
Ġsingular	15631
Ġinvited	15629
craft	15626
vised	15624
Ġvessels	15623
Ġbirths	15623
888	15621
Ġenforce	15621
Ġpromised	15619
ĠPHP	15619
Json	15617
DN	15617
para	15616
}}^{\	15615
once	15615
rif	15611
Ġframes	15609
views	15608
Ġmock	15608
å®	15607
Float	15607
Ġextending	15605
Ġmuscles	15604
Ġtired	15602
Ġsaving	15602
Ġdefining	15602
ilization	15599
Ġpipeline	15598
Ġhealing	15596
ĠLewis	15596
BV	15594
Ġodds	15592
166	15591
Ġparticipated	15590
Ġmodeling	15589
Ġagreements	15588
Ġcontest	15587
GP	15586
720	15586
inch	15585
OWN	15585
070	15584
fish	15581
Ġhighlight	15581
Ġpreserve	15579
ĠUnless	15578
claim	15577
Ġdance	15576
bie	15574
reset	15573
,\\	15573
ĠRh	15573
ĠCoast	15573
kit	15572
230	15572
NV	15565
Ġobligation	15564
Ġinflation	15564
Ġbaseball	15563
ĠHamiltonian	15562
Ġstomach	15559
Empty	15557
ĠYeah	15556
Stack	15550
mad	15549
ior	15549
Ġinjected	15548
ĠLan	15546
uter	15544
Ġaccurately	15543
linux	15539
Ġestimation	15538
Ġfre	15535
Ġbehavioral	15534
squ	15533
Ġencounter	15531
Ġnobody	15525
itate	15524
enic	15520
Ġsuspected	15520
Ġ|\	15519
^{+	15518
ERR	15517
Ġ140	15515
ãģ«	15514
Ġestablishment	15512
ĠRound	15512
ĠIndiana	15512
047	15506
ĠAnt	15505
Ġregarded	15503
matic	15501
Ġnavigation	15500
FONT	15499
ancies	15497
dep	15495
ANG	15495
Ġcortex	15492
Ġwedding	15490
Ġlease	15490
ĠAfghanistan	15490
Ġphrase	15488
CONFIG	15487
~)	15481
keys	15481
555	15481
Ġdeemed	15481
Ġarrive	15479
Custom	15478
edly	15477
Ġplugin	15477
Ġsuspended	15473
Ġfac	15473
mM	15472
Ġultra	15472
fy	15471
ĠAndrew	15471
157	15462
ĠEr	15460
inite	15459
IES	15459
187	15459
uch	15456
ĠToronto	15455
degree	15454
ĠâĢĭ	15454
Ġtalent	15454
Ġresistant	15454
Ġoxidative	15452
Ġstayed	15451
Ġprof	15451
pb	15448
Option	15447
Ġreliability	15444
sis	15442
olding	15442
century	15442
ĠKorean	15439
}</	15437
ĠAnal	15437
Ġarising	15434
Ġpromoting	15433
sized	15427
AW	15424
Ġexpense	15424
509	15423
rene	15422
bigg	15421
omics	15420
layers	15420
Ġindication	15417
Ġcomparisons	15416
Ġelectrons	15415
Ġfu	15413
BIT	15412
Ġcalc	15412
rowing	15411
Ġ107	15410
cad	15409
Ġpossess	15408
Ġmicroscopy	15408
phenyl	15406
Ġgenomic	15406
Changed	15405
185	15405
via	15401
********	15401
Ġendothelial	15401
cou	15400
Ġelderly	15400
orable	15399
Ġ![	15399
Take	15398
ĠSoc	15397
chlor	15396
_+	15396
Ġresident	15396
Ġadjustment	15395
emat	15386
ĠLibrary	15385
Ġgut	15377
ceptor	15376
maker	15375
Ġenergies	15375
ĠCG	15374
PAR	15372
icular	15371
046	15370
Ġpersonality	15370
850	15369
wy	15366
Ġposterior	15365
ĠDaily	15365
General	15364
Ġdemonstrates	15363
Ġlifestyle	15356
Ġbranches	15356
Ġsim	15355
ulo	15349
ARY	15346
Î¼	15344
Ġ&=&	15344
_(	15342
Ġspots	15342
Ġexisted	15337
arp	15334
Ġdistances	15333
uj	15331
Ġthreats	15331
Ġparagraph	15331
Ġinputs	15329
Ġdefinitions	15326
ctor	15325
Ġsuppression	15322
TEXT	15321
Ġengagement	15320
ĠHouston	15319
pled	15315
Ġgray	15315
Ġinhibited	15311
Active	15306
eland	15305
Ġvariability	15305
Ġpointing	15300
outing	15298
Ġvisiting	15298
mot	15297
360	15295
Ġdocumented	15295
ĠSystems	15295
iton	15293
ĠSupport	15292
ĠBer	15289
Ġmeaningful	15286
ĠBon	15286
Ġ1981	15286
$_{	15284
rik	15282
riving	15279
Ba	15278
Ġtends	15274
zz	15272
ĠDifferent	15271
ĠDefense	15271
plain	15266
Ġranges	15266
ĠPen	15263
Ġhandler	15262
Ġcord	15261
exe	15260
Ġprompt	15260
utor	15259
Ġwarranty	15259
Ġ---------------	15259
Ste	15255
Ġlibraries	15255
emb	15254
ĠRegister	15252
tration	15251
ogra	15251
abilities	15250
Ġrescue	15249
Ġreply	15249
contin	15243
rend	15242
CHAR	15241
Ġminority	15240
Ġdefeat	15238
ĠmL	15236
airs	15233
raft	15230
custom	15229
umm	15228
Ġstrip	15228
Ġpunishment	15227
Ġclosure	15227
Full	15226
Ġ}}	15225
Ġsup	15221
Ġyeast	15220
Ġacqu	15218
Ġcomplaints	15215
Ġcapabilities	15215
Ġheaded	15213
RX	15212
Em	15212
Ġawait	15212
jan	15210
ients	15210
1992	15210
750	15209
ĠQueen	15207
elly	15203
ĠSaudi	15203
167	15202
Ġrevolution	15200
augh	15192
aces	15191
Act	15189
Ġuptake	15189
Ġfinance	15186
Root	15185
Ġelectr	15182
Ġ115	15180
very	15178
UE	15178
'],	15176
Ġthirty	15175
Ġalongside	15174
nam	15170
gon	15169
ONG	15167
Ġhor	15165
ĠMoore	15165
0000000000000000	15163
Ġum	15163
imum	15162
2020	15159
Ġ255	15157
Ġemerged	15155
umber	15148
Ġ''	15148
Selected	15147
Ġsurprising	15146
Ġmol	15146
Ġdenying	15145
ÙĪ	15143
tage	15143
Ġsuggestions	15142
Ġsatisfaction	15141
}:	15139
watch	15137
âĸ	15134
mir	15129
ĠSports	15122
ĠEgypt	15122
oses	15121
World	15119
Ġfake	15116
hall	15115
ulp	15114
ĠInterestingly	15114
iments	15113
ĠNode	15110
Ġpassion	15109
1991	15108
Ġhoney	15107
Ġpotent	15102
Ġ160	15101
208	15100
Ġtel	15100
ĠMulti	15100
Ġdental	15098
ounce	15097
enders	15097
Ġ1960	15094
condition	15092
Ġfaculty	15090
Ġplug	15089
duction	15087
Ġcontra	15087
)\\	15086
Ġparticipant	15086
shell	15085
*\<	15085
Ġpreparing	15079
omet	15078
iga	15076
cial	15075
ĠHz	15073
anted	15070
Ġinduces	15068
priv	15066
Ġdense	15066
come	15060
}{(	15059
neg	15057
,*	15055
$^{	15052
eqn	15050
Ġnose	15048
Ġhip	15048
Ġmad	15046
Ġwinner	15042
dro	15040
inte	15038
Ġtransformed	15038
MN	15036
Ġstat	15034
ĠRun	15033
207	15032
Ġheading	15029
bach	15028
Ġanalog	15027
inator	15026
lig	15024
Ġvirtually	15024
ulatory	15020
Ġbasketball	15020
Ġhosts	15015
ĠGene	15011
325	15009
;"	15008
Ġuna	15007
ractor	15004
Super	15001
ĠNations	15001
Ġnitrogen	14999
ECT	14997
Based	14995
Ġbases	14995
conv	14993
ĠAF	14993
Ġrid	14992
ĠPhoto	14992
Display	14990
original	14989
Properties	14989
*(-	14987
Ġtor	14979
625	14977
Ġwelfare	14977
Ġclaiming	14977
è¿	14976
ĠRO	14974
Ġconfusion	14972
irt	14971
Ġconstraint	14970
Ġrespons	14966
por	14964
\!\	14963
Ġasset	14963
ĠProte	14960
ectomy	14957
Ġreceives	14955
ĠOff	14954
ĠAnti	14954
Ġblocking	14953
article	14950
Ġ'\	14950
Ġrespondents	14949
143	14948
Ġeigen	14946
Ġcoronary	14945
btn	14944
Fr	14943
ARE	14941
dered	14940
154	14940
ĠPT	14940
Ġprobable	14939
Ġeff	14939
))/	14935
Ã	14930
Ġlocked	14930
asy	14929
Ġlongitudinal	14926
fg	14924
Ġfrozen	14924
Ġ800	14922
Ġslide	14921
orp	14920
Ġir	14920
vable	14919
inson	14918
Cal	14918
sided	14915
apa	14913
eous	14907
imi	14901
stable	14898
Ġbleeding	14898
aph	14889
Ġcommunicate	14889
Ġchances	14889
Ġaffirmed	14889
ighting	14887
Ġprotocols	14883
ived	14882
testing	14875
Ġoptimization	14875
acer	14869
handler	14867
ĠCustom	14865
ocation	14864
Ġconstants	14862
models	14861
hp	14861
Ġdecomposition	14861
Ġfiscal	14860
Photo	14857
did	14856
ĠÎĶ	14852
ĠSS	14850
ĠCommissioner	14850
erved	14848
Ġmath	14848
Ġ111	14848
Ġwavelength	14847
ĠCat	14847
ifdef	14846
ressive	14845
Ġsubgroup	14844
prov	14843
Ġcultured	14843
Ġspark	14842
Ġnonlinear	14842
osomes	14839
Ġorange	14837
ĠPy	14837
}}=	14835
Ġparams	14835
Ġshortly	14834
ĠWE	14833
settings	14829
ĠSilver	14829
Ġpleasure	14827
owner	14826
Ġanger	14826
complete	14825
Ġappreciated	14825
ĠVi	14824
667	14823
=>	14822
este	14820
Ġsudden	14820
acon	14819
Ġshaft	14819
Ġdetermines	14819
ĠOP	14819
osi	14817
avi	14817
Ġtimely	14817
ÃĲÂµ	14813
unc	14813
erto	14812
spin	14809
ilation	14808
Ġdonor	14808
Ġjustify	14806
Ġdistinction	14806
enger	14804
ĠSupp	14804
Ġattract	14801
uke	14799
Ġsolved	14797
Ġappointment	14794
Ġwage	14790
ĠÂ»	14787
ĠRadio	14786
Ġsilicon	14785
Definition	14780
record	14779
Graph	14778
Ġmembership	14777
ĠdÃ©	14777
Both	14776
Media	14775
ask	14773
176	14771
Ġcookies	14771
Ġtransit	14767
Ġefficiently	14767
ĠTHAT	14765
gathered	14764
195	14764
Ġmutants	14764
rely	14762
Ġlocalization	14760
Ġgovernor	14759
Ġexclusion	14758
Ġnp	14757
Ġthrown	14756
Ġcriticism	14756
Ġsecured	14755
ĠFre	14755
icket	14753
coming	14753
ä¸	14751
}})$	14748
Ġunf	14748
GFP	14743
Ġtags	14739
jar	14738
ĠHi	14738
lyn	14735
Ġthreatened	14730
hbar	14728
Mask	14727
Ġcustody	14720
Ġmemories	14719
213	14718
Ġfold	14718
ĠIFN	14716
Ġtracks	14711
Ġticket	14710
XF	14708
Ġstimulus	14708
bytes	14707
Sign	14704
Ġscr	14699
Ġsilent	14697
Ġstriking	14696
amel	14694
Ä±	14693
unting	14691
Ġreplication	14690
Ġesc	14689
Ġoptional	14688
atable	14687
Vis	14683
uler	14681
-.	14680
Ġanybody	14680
isan	14677
Ġvo	14676
(__	14673
course	14672
Ġcancers	14672
âĢĿ)	14667
218	14667
acting	14664
ĠMcC	14664
Ġ112	14664
Ġcircuits	14661
ĠInsurance	14661
Ġprejudice	14660
Ġinstruments	14659
044	14656
Xi	14654
Ġflying	14651
arms	14650
\)	14647
Ġhistoric	14643
Thus	14642
ĠMAP	14641
ĠTE	14638
Ġsec	14632
hist	14630
imated	14627
Ġ1982	14626
Ġliable	14625
Ġchallenged	14624
460	14622
orph	14620
Ġlitigation	14620
---|---|---	14618
Ġsuppress	14618
ĠOUT	14617
Ġtraits	14616
cred	14615
RNAs	14612
174	14610
VERSION	14605
ĠChristians	14605
Ġaf	14604
rence	14603
Ġconserved	14603
engine	14600
Ġxml	14600
Ġmature	14600
ĠStephen	14600
Ġtries	14599
phen	14598
Ġeveryday	14598
Parameters	14597
505	14596
338	14596
076	14596
inations	14595
ĠXML	14595
Ñĩ	14593
ERY	14590
Ġfactual	14590
Ġdecimal	14590
turn	14587
olation	14586
ocket	14585
rek	14584
Bu	14584
Pointer	14583
Ġ\*	14583
Ġ02	14583
Ġacted	14582
agn	14581
Ġinches	14577
lap	14571
ĠChild	14571
Ġwins	14570
wo	14569
Ġretro	14568
Round	14567
Ġcalm	14567
Ġbelongs	14567
Ġdried	14566
erer	14564
Ġvegetables	14564
attribute	14561
ÃĲÂµÃĲ	14560
Ġqueue	14559
ĠTNF	14558
standard	14555
ocker	14554
Ġstained	14554
dale	14553
eded	14551
Api	14549
Ġspray	14549
udge	14546
Ġcorn	14546
Ġmsg	14542
three	14541
ĠWisconsin	14541
ĠIgG	14541
idase	14539
ÃĦ	14538
ration	14538
Ġconvention	14537
Ġeu	14535
Ġsatellite	14534
ADD	14533
Ġresidential	14533
Ġmining	14530
alf	14528
-->	14527
onde	14526
221	14523
ĠIg	14522
Ġsubs	14521
armed	14520
Ġthr	14520
schema	14519
ãģ§	14516
ression	14512
ĠMarket	14511
Ġgraphs	14510
Ã±	14509
program	14506
Ġfilters	14506
ĠÎ¼g	14505
VD	14504
Ġexclusively	14504
shaped	14503
ĠFeb	14502
Ġseats	14501
Ġflows	14497
Ġgradually	14496
switch	14493
zip	14492
Ġbedroom	14490
Ġprevented	14488
Ġmood	14488
rar	14486
Ġperpet	14486
Ð¼	14485
ĠâĤ¬	14482
Ġ",	14480
News	14477
racy	14476
Ġsentenced	14475
Ġlady	14475
Âĳ	14473
Ġimpairment	14472
WR	14470
iates	14467
iri	14463
Bi	14463
Ġspr	14462
Ġflowers	14461
Ġann	14461
deg	14460
Â¤	14458
Ġwidespread	14456
ÂłÂł	14455
Ġgeneralized	14455
Ġestablishing	14455
ĠReturns	14455
ĠDocument	14455
Ġsimilarity	14454
Ġrespondent	14453
Ġconvergence	14453
1986	14451
best	14450
Ġconfused	14450
Ġtrick	14445
Ġmothers	14444
Ġactors	14444
isp	14443
Ġmaternal	14441
Ġresin	14438
erving	14435
Four	14434
Ġstating	14432
filename	14431
141	14431
Mark	14425
sat	14419
159	14419
Ġroads	14417
}$)	14411
omatic	14410
Ġminds	14408
Ġindependence	14408
onstr	14407
sci	14405
Ġknife	14404
Ġdescending	14402
Ġreplied	14401
Ġjoining	14397
ĠKelly	14396
Ġtall	14391
Ġbarely	14389
ionic	14387
Ġnotation	14386
Ġ).	14385
ĠAllen	14383
Ġ{"	14378
arded	14376
ĠHA	14375
found	14374
pgen	14371
Ġseeks	14371
Ġsymbols	14366
Ãº	14361
Ġpolarization	14361
Ġscenes	14360
Close	14359
Ġmotions	14359
Ġmethylation	14359
POST	14358
tip	14357
etti	14357
ĠTor	14357
ĠSometimes	14357
Ġtem	14356
Ġguests	14356
)+\	14355
Ġflex	14355
Space	14354
]=	14351
Plugin	14351
043	14351
ection	14348
Ġanterior	14348
348	14347
Ġexhaust	14347
NL	14346
Ġviewing	14344
NM	14343
Ġsalary	14342
MY	14341
ĠHon	14340
Share	14338
Ġocean	14338
fusion	14337
Ġpreference	14336
ĠKen	14335
Ġquestionnaire	14334
ilized	14333
Ġaccomplish	14331
ĠSn	14330
Ġamb	14328
Ġprocessor	14327
ĠSN	14326
Ġcomputation	14325
Ġpharmac	14323
Ġcompression	14323
444	14320
203	14319
Ġenhancement	14318
Ġcapability	14317
Ġcanonical	14317
ĠKansas	14314
speed	14313
506	14311
"};	14311
video	14310
aza	14310
Ġprescribed	14310
ĠHoly	14308
asa	14307
Ġincredible	14303
158	14297
Ġairport	14297
Ġantenna	14294
Ġemploy	14292
Ġrestore	14289
Ġirr	14289
Ġpropag	14287
|{\	14283
KI	14282
caps	14279
Ġrape	14276
Ġdating	14273
Ġunfair	14269
Ġmanaging	14267
Assert	14266
)]{}	14266
Ġattorneys	14265
ĠScale	14264
Day	14263
Ġgather	14262
Ġacceptance	14262
ĠFL	14262
164	14259
Ġbomb	14259
HF	14252
Ġbriefly	14251
ĠMR	14250
akers	14249
153	14247
ĠStart	14246
à¥į	14245
natal	14243
azole	14243
ĠHim	14241
vic	14237
Ġgrain	14237
elect	14235
BY	14233
ĠKr	14233
Ġatomic	14232
Ġuncon	14230
mitted	14228
curs	14228
Ġlegitimate	14228
olve	14226
mur	14226
Ġattachment	14225
Ġcocaine	14220
ĠMassachusetts	14218
player	14215
Sw	14214
:</	14214
Ġacknowledged	14214
504	14212
Ġviolations	14211
ĠShould	14209
clusive	14208
056	14208
ĠCam	14208
Ġdramatic	14207
quire	14205
Ġemissions	14205
Ġpeptides	14197
odd	14196
Ð¾Ð²	14194
osomal	14193
368	14193
ĠBrian	14189
Ġpartly	14187
Ġfantastic	14185
hur	14183
Ġsurely	14181
ieve	14179
require	14177
Ġcontention	14177
anth	14176
Ġoffices	14171
Ġexec	14171
Ġdietary	14167
ĠBlock	14165
ĠProv	14164
acher	14163
[:	14163
ĠException	14163
Ġundergo	14158
Ġprotecting	14158
gue	14156
Ġstere	14151
Ġparticipating	14150
Ġmoon	14149
Stop	14147
Ġrandomized	14147
;;	14146
blog	14145
Ġsavings	14144
{$	14142
loader	14142
Ġintersection	14142
Ġinvestigating	14141
umes	14139
cluded	14136
375	14136
square	14135
ĠNature	14135
Ġmerit	14134
Ġprovince	14132
unted	14130
Ġfelony	14129
),$$	14128
REF	14125
ĠDR	14125
atar	14124
Ġlandscape	14124
Ġsigning	14123
gra	14122
455	14120
Ġresp	14120
Ġunnecessary	14116
oria	14115
Ġwaters	14110
Ġracial	14110
ife	14108
ĠĊĠĠĠĠ	14108
rina	14106
Ġlos	14106
Ġoccasion	14099
itative	14098
lex	14097
Inst	14094
!!!	14091
Ġgolf	14091
Ġmediated	14090
Ġperiodic	14089
History	14088
Ġletting	14087
Obj	14085
305	14083
share	14081
ORY	14081
![](	14081
Ġrepresentatives	14077
Ġshadow	14071
Ġple	14071
{(\	14070
different	14063
Ġconservation	14058
414	14054
Ġproportional	14054
ĠUpdate	14053
Ġbird	14052
icking	14050
á	14049
pent	14048
-)	14048
Ġloves	14046
Ġmodifications	14045
Ġadvised	14044
ĠSon	14038
149	14037
Bundle	14033
âĢĻ,	14032
Ġoutstanding	14031
Ġ119	14026
ĠNatural	14020
ITE	14019
OUR	14018
ĠStation	14018
)-\	14016
Ġmembranes	14013
Ġremarkable	14011
VT	14010
Ġplots	14010
Ġlovely	14009
pkg	14005
ĠKevin	14003
ĠFC	14003
Ġartist	14000
ange	13999
hetic	13997
nings	13992
075	13992
ĠScotland	13990
Ġcoating	13987
Parent	13986
Ġdent	13986
ĠCNN	13986
inding	13985
Ġwarned	13985
fm	13984
560	13984
Ġsentences	13983
Ġpurified	13982
Ġtherein	13980
cmp	13979
Pol	13978
264	13977
Ġcircum	13975
Ġemotions	13973
Ġconfigured	13973
ĠCF	13971
344	13970
Ġelectrodes	13967
ĠCHECK	13965
Ġimpaired	13964
Ġasthma	13961
Ġinfant	13959
254	13958
Ġcooperation	13958
058	13957
abstract	13955
054	13955
Ġglyc	13954
ANS	13950
Ġlucky	13946
plet	13945
oons	13945
ĠAssert	13945
Ġnursing	13940
iotic	13938
Ġconstructor	13938
Ġactively	13938
ĠRos	13936
ĠIrish	13935
Ġsilence	13934
Ġdrove	13933
ĠFunction	13933
357	13932
ĠPlus	13931
})$,	13930
oman	13930
design	13930
347	13930
Ġsake	13930
BASE	13928
Ġcontroversial	13927
Ġreset	13924
ÑĮ	13921
åĲ	13920
,,	13920
alk	13919
cular	13918
162	13916
CY	13914
Ġexert	13914
stitutional	13912
ilo	13912
ISH	13911
wave	13908
andra	13905
ĠInclude	13902
VO	13900
Ġcopper	13898
prefix	13897
cover	13897
Ġaccomplished	13894
Ġoverlap	13893
ĠAvenue	13893
Ġshipping	13892
urd	13891
chers	13890
152	13890
Ġrelate	13890
ĠConsider	13890
ĠFather	13889
245	13888
Ġwing	13887
Bean	13886
poly	13884
Print	13884
pir	13882
cx	13879
Texture	13877
ĠFisher	13877
âĢ¦.	13872
Ġpixels	13871
tet	13869
181	13867
Ġ^{	13867
Example	13866
Ġencouraged	13865
ĠFort	13864
ĠUkraine	13863
asting	13861
mx	13859
Ġflu	13859
Ġintestinal	13858
Ġdiscloses	13858
ĠPO	13855
Ġshield	13853
Ġanal	13851
Ġcompl	13849
142	13848
Ġinitiated	13848
ĊĠĊ	13848
Ġinfants	13843
aman	13841
Ġrelies	13840
hab	13838
ITS	13837
Ġwider	13837
Ġdisaster	13836
Ġarrow	13834
emen	13830
Ġtrim	13830
Ġprivilege	13829
ÃĲÂµÃĳ	13824
driver	13823
ĠInf	13822
mapsto	13820
Ġfranchise	13819
ĠUnit	13818
ĠSort	13816
Ġradial	13815
>;	13814
Ġgal	13813
Ġfiring	13813
Ġol	13811
Ġcircles	13811
endo	13809
Ġsecretary	13809
à¤¾	13808
Ġpositively	13808
Ġgenerations	13807
annon	13806
erald	13799
rock	13798
borne	13798
ĠLO	13797
Ġfunctioning	13789
Ġexplored	13786
ĠGOP	13784
ASH	13783
iden	13782
Ġprospect	13782
displaystyle	13781
Ġfib	13778
Ġstops	13777
osity	13774
Ġdominated	13774
native	13770
five	13768
ĠJeff	13768
Ġgraft	13767
Ġdom	13767
ĠFuture	13767
oving	13766
JA	13764
odge	13763
Ġmeth	13763
184	13762
ead	13761
Ġimportantly	13760
metadata	13758
Common	13758
Ġrings	13756
library	13753
549	13752
Ġcrossing	13752
ĠPRO	13748
270	13747
pmatrix	13744
à¹	13741
expression	13740
Ġpermits	13738
ĠBMI	13738
ĠTen	13736
ĠAI	13734
Ã¡Âº	13732
apt	13731
ĠSix	13730
Ġtunnel	13729
Editor	13727
Ġbathroom	13727
LICENSE	13726
XML	13722
bles	13720
rell	13717
mov	13717
Ġattacked	13715
Ġcancel	13714
oved	13713
gz	13713
Ġbrothers	13713
peg	13710
199	13710
Ġreasoning	13710
Ġfirms	13709
ĠShort	13709
Ġio	13705
Ġcorruption	13702
NOT	13700
Ġcontinuously	13700
260	13698
051	13698
Ġbold	13698
ryl	13697
)~	13697
Ġcompete	13697
Ġarrival	13697
zer	13695
atched	13694
opathy	13693
MIN	13693
ĠPers	13693
icked	13692
burn	13692
Ġproxy	13690
Ġupcoming	13689
rix	13688
Ġfluor	13688
cloud	13687
Microsoft	13687
viruses	13686
uated	13686
Ġimpose	13683
Ï	13679
quin	13678
cro	13678
Ġdump	13678
Ġdownstream	13677
Ġconflicts	13676
ĠMaryland	13676
224	13674
ĠChem	13674
oscopy	13671
NH	13670
Util	13669
Ġquoted	13669
piece	13666
anging	13666
334	13666
Ġannouncement	13666
235	13665
Mac	13663
ctions	13662
ĠGrant	13662
Ġconvinced	13661
475	13659
Ġdig	13659
ĠTw	13658
Ġprofits	13657
lint	13655
Ġton	13655
ĠZe	13654
Arg	13653
ĊĉĠ	13651
_*	13650
Ġnom	13649
Ġcomputational	13648
Ġexpertise	13643
Stat	13642
ĠATP	13641
Queue	13639
Given	13639
808	13637
emed	13636
GN	13635
ĠRose	13634
pie	13631
Ġprog	13630
Ġcircular	13630
ĠMuseum	13630
Ġpursue	13629
ĠKong	13629
Ġretained	13619
ĠHO	13619
Ġdatasets	13617
orth	13614
erator	13613
171	13612
ĠNavy	13612
ĠGM	13612
Ġwebsites	13611
MAP	13610
Game	13609
Ġfluctuations	13609
Ġgains	13607
half	13606
Ġproposition	13605
ERN	13604
385	13604
ĠRC	13603
Conclusion	13602
Ġoh	13599
hang	13596
ibe	13594
Ġscanning	13594
Ġgraduate	13594
Ġbags	13594
ĠLabor	13594
ruction	13590
Ġrelied	13590
Ġfeatured	13589
FIG	13588
inline	13584
Ġethanol	13584
ĠEV	13584
utf	13583
ĠCore	13583
racting	13579
:-	13578
>::	13575
ĠSanders	13575
iration	13574
Ġediting	13574
Ġ1979	13574
Ġguaranteed	13569
ê	13568
stud	13568
ĠNothing	13568
Ġseal	13567
Ġmanifest	13567
Ġemphasis	13563
178	13561
Methods	13560
results	13559
Cont	13558
unders	13557
school	13556
AIL	13556
Ġcirc	13556
Ġradi	13554
}),	13553
scan	13553
ĠGer	13553
ĠMem	13552
VS	13551
1989	13548
ĠFu	13548
yon	13547
Ġcontemporary	13547
Ġcomply	13545
variable	13544
Video	13544
Ġperi	13544
Ġiter	13543
315	13542
ĠCM	13542
378	13541
ERT	13539
IND	13538
Ġgathered	13538
Release	13536
Ġ114	13536
Ġmutual	13534
ĠBBC	13533
Ġrecurrence	13532
Ġconsistency	13532
ĠOregon	13532
hop	13530
Ġindicator	13529
Ġstimuli	13526
bell	13525
Book	13524
ĠLat	13523
ayer	13522
329	13521
Ġchromosome	13521
Ġgrateful	13520
rophy	13519
iger	13519
hex	13519
Cu	13518
ĠCas	13518
Ġtobacco	13514
tub	13512
ĠWas	13511
mber	13509
metry	13507
Ġnan	13507
Ġinstitutional	13507
ohn	13504
EXT	13504
169	13502
transform	13500
Screen	13500
540	13500
ATT	13498
Ġpublish	13497
WT	13496
Ġaffinity	13494
ĠNick	13486
Ġwriters	13485
mental	13484
ĠClinical	13484
Ġexceed	13481
linked	13479
Ġstrategic	13479
ĠCur	13478
Evaluate	13476
ĠGE	13472
ĠFI	13472
ÐµÑĤ	13471
Ġmacrophages	13471
228	13469
Ġreaches	13468
Ġought	13467
Ġrs	13466
UA	13465
Ġtooth	13465
Ġele	13465
Db	13464
Ġ123	13460
ĠHaving	13459
ĠKIND	13458
otor	13457
'"	13456
Ġaccounting	13455
ortal	13453
igration	13452
Ġexpectation	13451
Ġdrives	13451
Ġconsisted	13451
Hy	13450
Ġmanifold	13450
Ġstudio	13449
Ġburning	13449
istance	13447
Ġclothing	13447
Ġtransient	13445
ĠConf	13444
Ġlacking	13443
Ġinhibit	13442
Ġsolvent	13440
Ġsyntax	13438
ĠLib	13438
would	13437
rome	13437
inic	13436
PRE	13436
389	13436
ĠOrgan	13433
Ġchat	13430
ÐµÑĢ	13429
iaz	13428
Ġdimensional	13427
0006	13426
Ġboss	13425
è®	13422
DIS	13419
Engine	13417
score	13413
ador	13412
0008	13412
Ġgenerates	13410
ĠNation	13410
Ġsanctions	13408
Ġstruggling	13407
Ġ127	13407
503	13405
cycle	13403
Parser	13402
Ġstaying	13402
shop	13395
===========	13395
idd	13394
ĠMember	13391
605	13388
ĠArea	13386
team	13384
Ġslot	13383
HW	13380
ĠLin	13379
Ġretired	13378
ĠDown	13378
isted	13376
Ġpad	13376
ĠExecutive	13376
ĠOb	13371
Ġsubstances	13370
Ġmedications	13368
esc	13366
West	13366
502	13366
onna	13365
Schema	13365
ighter	13363
}$-	13361
Ġcarries	13361
Ġcorrected	13359
ĠBA	13359
çĶ¨	13358
anine	13358
oxic	13355
iber	13355
ĠDefault	13352
mine	13351
requ	13349
Ġopens	13349
Ġcollaboration	13346
ĠMuslims	13346
ĠLatin	13346
Ġslope	13343
*}	13340
Win	13339
Off	13338
WH	13336
ĠProp	13334
\(	13333
Unc	13328
ancer	13327
Ġdecent	13327
CTION	13326
Ġreplacing	13325
lection	13324
Ġwash	13324
ĠTex	13321
Ġdest	13320
Ġtot	13319
ĠHarry	13319
quant	13318
Member	13318
)));	13317
Ġminimize	13316
ĠAug	13316
period	13315
Account	13314
Ġplacebo	13314
Will	13312
ĠUbuntu	13311
}}}(	13310
IZ	13310
Ġren	13307
161	13305
UID	13302
Ġcollision	13301
Ġdrama	13300
Ġfragments	13299
Ġentrance	13299
fat	13298
Ġdot	13297
Ġderive	13296
oS	13295
616	13293
oys	13288
rang	13287
makers	13287
PUT	13286
Ġpredictive	13285
aders	13284
UG	13283
Ġreporters	13283
scriptstyle	13280
closure	13280
anne	13280
containing	13279
Met	13277
Ġterrorist	13276
ĠReturn	13275
ĠLeft	13272
brief	13270
Ġethnic	13269
367	13266
)$-	13264
Ġentropy	13264
ĠÐº	13263
ĠScientific	13263
ĠDB	13261
ï¼	13258
bia	13257
Ġknock	13255
Ġexceptions	13255
Ġroutes	13254
Ġspinal	13253
toc	13251
jquery	13247
bank	13245
Ġcontributing	13244
Pop	13243
Ġscenarios	13243
Ġloose	13242
ĠBox	13239
354	13237
wick	13236
apply	13236
Ġservers	13236
Ġdebug	13236
Ġentertainment	13235
Ġinitiative	13234
pes	13229
Ġimpression	13226
Ġgro	13226
Ġcomplement	13226
exper	13225
364	13223
ĠChange	13223
Ġgastric	13222
sulf	13221
ffered	13221
Ġdreams	13221
ĠHillary	13218
LED	13214
1985	13212
ĠHollywood	13212
iat	13208
TAG	13208
Ġshifts	13208
Ġ1977	13207
Ser	13204
uming	13200
Ev	13199
Real	13196
Ġrect	13194
Ġschemes	13191
Ġ09	13191
Ġcontin	13189
vention	13188
Ġstraightforward	13188
ergic	13187
Ġinhibitory	13185
\}$.	13184
Ġtendency	13183
Ġcake	13181
Ġpossibilities	13178
Ġabnormal	13177
Seq	13176
Ġtransl	13175
Ġguilt	13175
ĠMiami	13171
1988	13170
Ġbroader	13169
price	13168
depth	13168
ĠHong	13168
eclipse	13167
alle	13166
Trace	13165
ÂłÂłÂłÂłÂłÂłÂłÂł	13164
Ġplacement	13164
Ġlicensed	13163
,(	13161
Ġadv	13161
Ġpoorly	13159
dog	13158
omycin	13157
ï¼ļ	13155
Ġ$${\	13155
structure	13153
Ġbull	13153
Symbol	13152
ĠTask	13150
Ġhired	13149
Ġintegr	13148
ĠPhiladelphia	13148
Ġallele	13146
Ġpresenting	13145
Ġbegun	13145
ĠColor	13144
kb	13142
motion	13139
yers	13138
ĠAlabama	13138
Ġfitted	13136
comm	13135
Ġdetecting	13135
ĠCommon	13135
Ġneighbors	13134
HG	13133
Ġprov	13127
icians	13126
Ġspokesman	13125
042	13123
Ġencountered	13123
Ġlawyers	13122
jet	13120
406	13120
Ġchairman	13119
teenth	13118
ĠCells	13118
ĠWay	13117
312	13116
ĠSimilar	13116
ĠOklahoma	13116
Ġships	13111
orous	13110
looking	13108
432	13108
Ġvac	13106
NB	13101
Ġnoting	13101
Import	13100
atal	13099
safe	13098
Ġordering	13095
Proxy	13093
Ġrh	13090
Ġincubation	13090
ĠAppro	13088
ensed	13087
station	13086
Ġequity	13085
mia	13084
asi	13084
420	13084
Ġwanting	13084
Ġinvasive	13084
Ġanalysed	13084
Ġpersistent	13082
scribe	13081
Ta	13080
iques	13079
Ġreconstruction	13079
Ġmem	13079
UB	13078
Ġdebtor	13078
gf	13077
Ġlesion	13076
Ġindividually	13076
ibilities	13073
Ġmanagers	13073
ĠEdward	13071
Ġsphere	13070
Ġaligned	13070
Ġfishing	13069
CUR	13066
Ġneuronal	13066
Appellant	13065
Ġdiagonal	13065
Ġoccupied	13064
heat	13062
factor	13058
^](#	13058
Ġ1978	13058
Platform	13057
Ġmeals	13057
same	13055
idated	13053
====	13053
ĠGA	13053
antic	13052
Det	13051
Ġsquad	13050
189	13046
151	13045
gif	13041
Runtime	13040
HV	13037
Ġstolen	13036
Ġassociate	13036
Xml	13029
hus	13027
Ġraises	13027
ĠPerson	13026
1984	13024
ishment	13023
179	13020
Ġchemicals	13018
Ġcitizen	13017
ĠTB	13017
Ġ116	13017
Ġundefined	13016
Ġbelt	13016
LIB	13015
Ġdelicious	13015
dst	13013
stitution	13010
Ð¹	13004
Ġgenotype	13003
ĠCE	13003
ĠBol	13003
ool	13001
ĠJavaScript	13001
callback	13000
skip	12998
Âĩ	12996
Ġaffairs	12995
Ġwithdraw	12994
Ġspecimens	12992
Ġhomogeneous	12992
339	12991
Ġlogin	12990
FW	12989
Directory	12989
ĠOverall	12989
ĠDiego	12989
EDIT	12986
minute	12985
ĠCOM	12985
âĶĢâĶĢâĶĢâĶĢ	12983
Ġinspection	12983
mk	12981
Ġsepar	12981
Ġcytokines	12981
480	12979
properties	12978
Ġ(<	12976
ĠMB	12975
Ġgrace	12974
Ġalien	12974
))$	12971
Ġtie	12971
gin	12970
281	12970
Ġsurrounded	12970
Ġpositioned	12969
cribed	12968
Ġdont	12968
ĠStudent	12964
341	12962
Ġmile	12961
obi	12960
Ġlocalized	12960
Ġformulation	12960
Ġaddressing	12957
ledge	12956
331	12956
Ġpromotion	12955
Ġburst	12951
ĠBureau	12951
Ġmethyl	12950
ĠTry	12950
Ġ×	12947
ancing	12946
;}	12946
Ġupset	12945
Ġhandled	12943
ĠSmall	12943
âĢ©	12942
mul	12939
HU	12938
Ġip	12938
ĠCapital	12938
Ġarises	12937
padding	12935
WD	12929
Â¡	12928
Ġnegotiations	12928
ĠEv	12928
idden	12927
Ġbirthday	12927
197	12926
Ġdisrupt	12922
Ġexclude	12920
ocal	12918
ĠÂ«	12918
ĠCredit	12918
springframework	12915
tee	12913
ensions	12913
:/	12913
umps	12912
stock	12912
Ġbeings	12912
ĠEric	12912
Matrix	12910
ĠLLC	12909
358	12907
Ġcyt	12906
FOR	12905
ÙĬ	12904
mma	12903
unes	12901
TON	12898
Ġfort	12898
Ġaden	12898
fore	12896
ĠSeattle	12896
>)	12894
/"	12893
VB	12892
Ġgrants	12890
Effect	12889
Fin	12888
Ġurine	12888
ĠFive	12885
Ġfil	12884
ĠTrade	12884
ĠKar	12882
Ġlets	12880
allow	12879
jc	12876
Ġnu	12876
Ġquit	12873
Ġcorporations	12870
&=&	12869
Ġtermination	12867
istration	12864
ĠCSS	12864
lications	12862
Ġverified	12862
Øª	12861
Ġcompile	12861
ĠBridge	12861
ulus	12860
eld	12859
states	12855
Ġstyles	12855
Ġmag	12853
vor	12851
DW	12850
Delete	12846
ÙĦ	12844
vie	12843
550	12841
Ġgar	12841
...)	12839
icles	12838
Ġorgans	12838
ulg	12834
Ġpray	12833
ĠManager	12832
ppat	12831
Ġtmp	12831
Ġcult	12831
=$	12830
1987	12830
ĠOil	12830
Ġhearts	12828
ĠLabour	12826
Ġconsiderations	12825
olytic	12824
Ġdispersion	12823
Java	12819
223	12818
cation	12815
909	12815
Ġhemat	12814
shared	12813
aneous	12813
Ġrolling	12812
ĠProcess	12811
track	12810
Ġhighlighted	12810
Ġclubs	12808
ĠForeign	12802
ivities	12801
ĠClark	12801
_;	12799
IONS	12799
anity	12797
Ġpup	12797
Trump	12795
VER	12793
Ġsheets	12793
Ġshapes	12791
Ġcarriers	12791
Ġinterpret	12788
Ġrestrict	12787
ĠInvention	12787
ĠFootball	12785
Ġprostate	12782
172	12778
Ġindictment	12778
parallel	12777
Wh	12776
arious	12773
409	12771
Ġ121	12770
opp	12768
Ġworship	12768
Ġoccasionally	12768
ĠTy	12767
359	12765
229	12765
ĠPrince	12765
Ġinsights	12764
}{{\	12762
oric	12762
Ġpig	12762
Ġsimulated	12761
Ġly	12758
Ġimplements	12757
Ġengaging	12756
xF	12754
pha	12753
Ġexpanding	12753
Ġsuggestion	12752
ãģĹ	12750
412	12748
Ġlobby	12747
Ġbarriers	12747
idate	12746
ushing	12745
atz	12745
Ġflexibility	12745
Ġprescription	12741
Ġkg	12741
Ġox	12739
market	12738
Ġphoton	12737
ĠSyrian	12736
Ġdrag	12734
052	12733
usted	12730
amas	12728
Ġapproached	12728
Ġdistricts	12723
Ġsys	12722
LINE	12721
iper	12720
osome	12719
483	12719
ĠBL	12719
Ġbreathing	12718
){\	12716
Ġremarks	12714
umped	12713
ruby	12713
Ġrealistic	12712
aug	12711
Ġrap	12710
ĠKit	12707
XC	12704
Ġmonitored	12704
Ċĉĉĉĉĉĉĉĉ	12704
Ġtournament	12703
Ġhar	12702
292	12701
ĠBul	12698
ĠPrice	12695
ĠÎ¼M	12694
abc	12693
Scroll	12693
æľ	12692
ãģŁ	12692
Ã£o	12691
comb	12691
Ġdishes	12691
ViewController	12689
Ġneedle	12689
Ġinconsistent	12689
Ġangles	12688
lik	12687
Ġincredibly	12687
uge	12686
Ġvolunteers	12686
247	12685
FLAGS	12682
330	12681
hc	12680
fac	12680
uating	12679
485	12679
Ġdevelopmental	12678
tion	12677
physical	12677
Enter	12676
Ġtitles	12675
Inf	12671
Ġimpacts	12671
Ġdeleted	12668
ĠCarl	12666
Ġvolumes	12665
ivers	12663
Ġinference	12663
iw	12661
eder	12661
Ġlas	12660
NUM	12659
Ġyours	12658
yi	12657
Ġdistant	12656
JSON	12655
507	12654
Ġsleeping	12652
proof	12651
LOC	12651
Ġpostoperative	12651
Ġmathematical	12651
ĠSha	12650
Factor	12648
_-	12647
wen	12645
ĠÐ¸	12644
Ġmagnet	12644
rex	12643
Ġsolving	12642
ĠCommand	12642
Ġ118	12641
Email	12640
Ġoc	12640
Draw	12639
===	12638
Ġconversations	12638
without	12636
cert	12635
Ġchi	12633
yb	12632
ĠÃħ	12632
Ġmodulation	12628
Ġdisposed	12628
Ġencoded	12626
iterator	12625
ild	12625
Network	12625
Ġmandatory	12625
Ġabandoned	12623
ĠOxford	12621
guard	12620
Ġdeclaration	12620
440	12619
åľ¨	12618
both	12618
Ġdying	12618
Ġgarlic	12616
Files	12615
291	12615
="../../../	12613
Ġsmell	12612
Ġslice	12612
Ke	12611
Ġfilename	12611
ĠDen	12607
ael	12605
Ġimply	12604
471	12603
(!	12602
Ġextracts	12602
Ġenv	12600
......	12599
Ġpurely	12598
Ġsuppressed	12597
Ġlemma	12597
Shape	12596
Ġmerge	12596
Ġ1975	12595
amy	12594
Ġtranslate	12592
Âµ	12591
orious	12591
Ġinstruct	12591
Ġbalanced	12591
ä¹	12590
cg	12588
bullet	12588
ĠVA	12588
Ġspoken	12584
ĠClick	12583
508	12582
ceive	12579
Ġexam	12579
proc	12577
Logger	12577
olver	12576
ardi	12576
Wait	12573
etz	12572
,âĢĻ	12572
ĠRich	12570
Ġ'/	12569
REE	12568
ĠDirect	12568
Ġsubstitute	12566
Ġarrays	12566
ques	12563
Ġhitting	12562
flag	12561
oven	12557
ajax	12556
ĠKy	12556
gp	12554
Ġpel	12551
elin	12550
ATED	12549
Ġproceeds	12549
ĠKan	12548
3000	12547
Ġsecretion	12546
Ġdisplacement	12544
ĠRad	12542
natural	12541
Ġju	12541
never	12540
Ġnutrition	12537
White	12536
Args	12535
Ġshed	12535
ĠEu	12535
vey	12533
RET	12533
Ġupgrade	12531
Ġligand	12531
Ġfocuses	12531
Ġaccordingly	12529
asters	12528
4000	12528
Ġcontroversy	12528
oidal	12527
191	12527
ĠAff	12527
rophic	12526
ĠAst	12526
Ġinnovation	12525
057	12523
Ġpromoted	12522
303	12519
163	12519
IK	12517
returns	12516
cycl	12516
ĠThrough	12516
Ġattach	12513
Ġpulling	12512
yz	12511
Ġtransitions	12511
Ġremedy	12511
cutaneous	12509
ĠContent	12509
Ġconsiderably	12507
Ġarguing	12506
hidden	12505
amount	12505
ĠTheory	12504
ongo	12503
Ġpleased	12502
oline	12501
655	12501
otypes	12500
nger	12500
ICT	12500
304	12500
Ġdozen	12500
ĠMissouri	12499
Ġmotivation	12498
HH	12497
itness	12494
Ġgentle	12494
vant	12493
âĢĥâĢĥ	12492
Ġclip	12492
Ġoperational	12491
ãģ¯	12490
Const	12490
Ġexplaining	12488
Ġexhibits	12488
Ġcalendar	12487
).\	12484
ĠVisual	12484
ĠSW	12484
Ġanalytical	12483
343	12482
Ġtranscripts	12480
Ġautomobile	12479
ĠDisney	12479
ĠPos	12478
293	12477
ĠOnline	12477
Ġstir	12476
196	12475
Ġmorphology	12475
protected	12474
308	12473
Ġethical	12473
=[	12471
ĠAA	12469
reb	12466
*:	12463
Ġintact	12461
ĠEst	12461
STE	12459
="/	12459
Ġmobility	12458
Ã©t	12457
342	12455
æķ°	12454
Ïĥ	12454
simple	12452
ĠChi	12452
TOR	12447
Ġterror	12447
Those	12446
scal	12445
lane	12445
ĠLive	12445
Descriptor	12444
uality	12440
rout	12440
parameter	12440
ooting	12440
Ġsixth	12440
Ġgastro	12438
training	12436
ĠSurvey	12436
ĠDar	12432
cles	12431
luc	12429
emin	12424
account	12422
bridge	12421
Ka	12421
366	12421
anto	12420
eze	12419
340	12419
>'	12418
907	12418
ĠEvent	12418
="../	12417
rose	12416
Ġoutdoor	12416
Ġpers	12414
network	12413
Users	12413
404	12413
Age	12412
Ġties	12411
vn	12408
396	12408
Ġconducting	12408
Ġ113	12406
Ġevaluating	12405
Ġfounder	12403
~-	12402
ultural	12402
859	12401
Ġreviewing	12399
(:	12398
isms	12397
405	12397
bold	12395
Password	12393
Ġalloc	12393
Channel	12392
186	12391
rost	12390
Ġnarrative	12389
umi	12388
Ġana	12388
orm	12387
ĠHotel	12385
Kind	12384
Func	12384
Ġfate	12384
Ġphones	12383
expr	12382
429	12382
OSS	12381
Ġenemies	12381
ĠRelated	12381
ĠCurrent	12381
Ġshame	12380
ĠAuthor	12380
Ġtrap	12379
307	12375
Ġreserve	12375
San	12374
spe	12373
Ġprefix	12373
Ġappend	12373
)",	12372
except	12371
Ġreportedly	12370
æł	12368
istent	12364
397	12364
"""	12364
pend	12363
Ġcannabis	12363
346	12362
Ġinvest	12362
TABLE	12361
Pool	12361
ĠBuild	12359
CAT	12358
??	12353
Ġconvenience	12352
Double	12349
Ġlegally	12349
ĠMessage	12349
Ġprayer	12347
Îµ	12346
David	12346
227	12346
Ġplacing	12345
Ġposting	12344
Ġinnocent	12344
ĠNBA	12343
Ġimplementing	12342
Ġaud	12341
ĠâĢĻ	12340
Ġofficially	12339
esse	12337
238	12337
ĠWithin	12337
ugs	12333
Edge	12332
equals	12331
around	12331
Ġblockchain	12331
pleted	12330
__(	12330
Ġ1976	12330
Storage	12325
356	12325
statement	12323
aron	12323
Msg	12323
spi	12322
365	12321
Ġhormone	12321
Ġupload	12319
ceptions	12318
Ġgamma	12318
Ġcurvature	12318
Aut	12312
Ġsustainable	12312
Ġwrap	12311
platform	12310
Ġballs	12310
ativity	12308
Ġvaries	12307
ĠYouTube	12307
Socket	12306
ĠRapids	12306
Bit	12305
gb	12304
ĠVo	12303
urious	12302
ASE	12302
Ġthrew	12300
ĠTri	12300
Home	12299
Ġasserted	12299
))?	12298
Ġcounting	12298
388	12297
Report	12293
Ġheaven	12291
Ġrecruitment	12290
ighs	12288
plicate	12286
Policy	12286
mouth	12283
icates	12283
^{*	12282
HM	12279
ĠMicro	12279
ĠAG	12276
Inv	12274
etta	12273
Ġnurse	12272
282	12268
Ġpri	12268
Consider	12266
Ġolive	12263
Ġconstitutes	12262
national	12260
illary	12260
*),	12259
Ġoverwhelming	12259
hav	12257
ĠHand	12253
Ġtraveling	12249
Ġobs	12249
Ġfever	12249
äº	12247
789	12247
fulness	12244
XY	12244
Ġmotiv	12244
ĠJon	12244
Ġscroll	12242
integer	12240
ĠMotion	12240
Ġmethodology	12239
Åį	12235
ĠSelect	12235
Ġ"-	12235
mf	12233
ingham	12233
Ġacquire	12233
gro	12232
visible	12231
issue	12226
clean	12224
amm	12224
ĠSelf	12224
tiny	12223
God	12223
&=	12223
Ġmetastasis	12223
ucker	12220
Ġlands	12220
isco	12219
Ġdenoted	12219
Copy	12218
059	12218
hyd	12215
Ġshifted	12215
ĠBP	12214
ABLE	12211
Ġlessons	12211
ructions	12210
Ġspeaker	12209
nob	12208
oken	12207
lette	12206
ĠMean	12206
ĠCOURT	12204
Ġvalidate	12203
Ġnuclei	12203
Ġasync	12203
ference	12202
Ġappellate	12201
Ġtears	12200
Ġextracellular	12199
_{{{\	12198
ĠRam	12197
Ġprobation	12194
oblast	12192
ĠRequest	12192
Ġbiology	12189
ĠRelease	12189
ĠDallas	12187
connected	12185
ĠPalestinian	12185
lections	12184
omen	12183
eros	12183
KL	12183
oping	12180
NK	12180
Ġpollution	12179
777	12178
dat	12177
zel	12176
650	12176
392	12176
limit	12175
Ġlesser	12175
Ġappearing	12175
lett	12174
ACH	12173
Ġmagn	12173
Ġ05	12173
Ġindirect	12172
classes	12171
Ġsusceptibility	12170
Ġpil	12170
icted	12169
Ġraces	12167
ĠProcedure	12167
loaded	12166
fixed	12166
Ġsubstrates	12166
ĠEP	12166
Ġwages	12165
UX	12164
rypto	12163
ãĢ	12161
mock	12161
Ġchampion	12161
acet	12160
447	12158
vation	12157
liv	12157
Ġhanging	12155
virtual	12153
idents	12153
Byte	12153
Ġimmigrants	12153
ĠFactor	12152
ĠSearch	12149
KK	12148
288	12144
..\	12144
Ġcups	12142
Ġconfigurations	12142
$^	12139
oda	12138
Ġobjectives	12138
Ġviable	12137
Ġorganisms	12135
lact	12134
ĠSY	12134
Ġstepped	12131
ĠWhe	12130
904	12129
Ġorig	12129
Ti	12128
)/((-	12128
ograph	12127
410	12127
Ġmerits	12127
citing	12124
ĠSpec	12124
ĠCt	12124
ĠGolden	12123
URI	12122
exists	12121
376	12120
Ġhat	12119
ĠUpon	12119
tailed	12116
Ġdiscussing	12115
Ġabilities	12114
Ġ117	12113
unct	12112
generated	12112
Ġparam	12112
Ġdramatically	12112
ĠFrancis	12112
+,	12110
Ġbelonging	12109
Ġasserts	12109
ĠMY	12109
Ġfallen	12107
ĠHamilton	12107
Ġinfluenza	12105
Ġinnovative	12104
exit	12103
306	12103
ĠAlexander	12103
ĠNet	12102
ordered	12100
0007	12100
WIN	12099
Ġty	12099
ĠUl	12098
ĠFinancial	12097
${\	12096
OME	12095
Ġsimpl	12095
369	12094
Ġinvestigators	12094
Ġcharging	12094
ĠRules	12092
ĠJean	12091
Ġhighlights	12090
Ġdevelopments	12090
380	12089
Au	12087
odot	12086
Ġrobbery	12085
ä¸Ń	12084
387	12083
ĠRome	12083
sect	12080
Ġneo	12080
localhost	12074
ĠÃ	12069
Ġsens	12069
ĠTennessee	12069
Ġlengths	12067
Ġwisdom	12064
Ġproducer	12064
Ġmaxim	12064
job	12063
Ġnecessity	12063
Ġcrop	12062
ĠSingapore	12062
``	12061
Ġtopological	12060
Ġblot	12059
controlled	12058
Ġbal	12058
363	12057
Ġadoption	12057
ÃĹÂ	12054
ĠChannel	12054
Ġriding	12053
Ġlear	12052
ĠWould	12050
DEF	12049
ĠCulture	12048
ĠCON	12048
feed	12046
ALS	12046
dash	12043
Ġreceipt	12041
Ġoperates	12041
Ġexcitation	12038
ĠMRI	12038
ieu	12037
Valid	12037
Ġsubstit	12037
Ġhumanity	12032
urch	12031
ĠForest	12031
ĠPURPOSE	12030
401	12028
Ġident	12027
Ġfluorescent	12026
Ġdrops	12024
Ġcredibility	12022
Ġassertion	12020
194	12019
Ġgrab	12019
coll	12017
typedef	12015
ĠBerlin	12015
Ġfreely	12014
icy	12012
Ġoxidation	12012
Ġprevents	12011
ĠMorgan	12011
252	12010
055	12010
Ġsafely	12010
leton	12007
evin	12007
Ġpacked	12007
Arch	12006
extern	12005
ifndef	12002
endants	12002
ĠOrganization	12002
Ġconvex	12000
Ġcasual	12000
alla	11999
Ġwheat	11999
299	11998
ĉĉĉĉ	11996
Ġincorrect	11995
ĠSummer	11994
ĠRF	11992
ĠFE	11991
Public	11990
415	11990
Ġstopping	11990
ĠWatch	11990
Ġprojected	11989
}.\	11987
cost	11987
cfg	11986
Ġaffordable	11986
Ġmesh	11985
Health	11984
orum	11982
Ġattending	11981
acs	11980
Ġtriggered	11980
Ġineffective	11979
Ġfucking	11979
valid	11978
Ġlighting	11978
Ġalterations	11978
ĠBas	11975
ĠHel	11974
ĠBUT	11974
"\	11973
rait	11972
pector	11972
Ġdonors	11972
Ø¯	11971
ĠEM	11971
Mil	11965
398	11965
distance	11963
ĠTech	11962
noun	11960
itic	11960
Ġadaptation	11958
Ġpromises	11956
ĠFR	11956
Ġcatalyst	11953
Ġunity	11952
ĠAut	11951
Ġconfirmation	11945
infected	11944
ignment	11943
ermination	11942
379	11942
ãģ¨	11941
arer	11940
Ġrib	11939
Ġpic	11938
ĠARE	11938
=-\	11937
Contact	11935
Ġmeets	11935
Ġcombining	11934
193	11932
mart	11929
908	11929
orge	11928
}>	11926
oxide	11926
Conf	11925
Ġnurses	11925
ĠINT	11924
ĠChampionship	11924
Ġcameras	11923
Ġsho	11921
5000	11920
Ġutilize	11920
Ġrobot	11917
rooms	11916
Ġresort	11916
Ġrelaxation	11915
lemma	11913
352	11913
ulsion	11912
Ġretention	11912
Ġcomplain	11911
Ġinherent	11910
UTF	11908
Ġathletes	11907
}&	11904
,.	11904
ĠVI	11904
ĠLanguage	11903
upper	11902
Ġdeficit	11901
iking	11899
1980	11897
ĠSil	11897
orf	11896
ĠGovernor	11896
far	11895
Ġdensities	11894
pler	11893
ĠProtection	11893
ĠStock	11891
duct	11890
Ġconditional	11890
treatment	11888
inters	11886
illo	11886
SED	11886
username	11884
abl	11884
Ġgolden	11884
Ġmetrics	11883
ĠComb	11882
Admin	11881
ĠPsych	11881
locked	11880
608	11880
384	11879
road	11877
scr	11876
eight	11875
Math	11873
Ġoccasions	11873
ĠMeanwhile	11873
xsl	11872
Ġut	11872
kal	11871
render	11870
576	11870
Ġ"%	11870
itches	11868
riv	11867
igg	11867
Ġinvestments	11867
liance	11866
cis	11866
Ġcure	11866
APP	11865
Ġhanded	11864
Ġartists	11864
ressions	11862
Black	11861
plo	11859
asse	11858
cing	11857
ĠFinal	11857
uber	11856
books	11856
omi	11854
boy	11854
groups	11853
DY	11853
Ġarbitration	11852
obl	11851
)>	11851
olysis	11847
kill	11847
236	11847
ĠAuthority	11847
ĠWHERE	11846
ppy	11845
Ġtriple	11845
Ġprotests	11845
Kit	11840
Ùħ	11838
present	11838
906	11838
-[	11837
ĠPot	11836
Prot	11834
Ġdialog	11834
clock	11833
435	11833
Ġanimation	11832
Ġdiss	11831
Ġinspiration	11830
Ġdemocratic	11830
urer	11829
Iterator	11826
Ġtestify	11826
066	11824
pay	11823
Summary	11823
Ġsubtle	11821
Ġinsured	11820
azi	11819
XX	11819
sectional	11818
KR	11816
éĢ	11815
mv	11815
yen	11814
MON	11814
tags	11813
odies	11813
mix	11813
Ġqual	11813
ĠED	11813
ĠWrite	11812
ĠSarah	11812
erals	11810
MX	11810
Ah	11810
Ġmistakes	11810
ĠJason	11809
Ġcompiler	11806
Ġfloating	11801
Ġsumm	11799
Ġdatabases	11797
265	11796
Ġ08	11795
pire	11792
Ġannounce	11792
ĠFred	11792
317	11786
Ġmotivated	11786
Ġinst	11786
275	11785
.<	11785
Ġbol	11784
ĠLicensed	11784
oud	11783
nals	11783
charge	11783
Ġensuring	11783
ĠAccount	11781
_**	11780
clusion	11775
Ġsocket	11774
ÂĴ	11773
Ġenormous	11773
Ġbaking	11773
Ġremand	11771
isers	11769
756	11767
ĠROS	11766
required	11765
ĠStudio	11764
ĠHaw	11764
182	11763
Ġactivists	11762
ĠLI	11762
283	11761
ĠExample	11761
Ġconvey	11760
ENCE	11759
383	11759
ceived	11757
457	11757
Ġearnings	11755
Ġyard	11754
Ġ]{}	11754
vee	11753
ĠInteger	11751
gram	11749
TIME	11749
Ġpremises	11745
Ġlake	11744
Ġamongst	11744
stand	11743
Ġlegislature	11740
Ġinitiation	11740
ardo	11737
operation	11736
ĠCons	11736
inance	11735
Ġtear	11734
oft	11733
ĠHoward	11732
Ġthrowing	11731
ults	11729
ucked	11728
309	11727
Ġprognosis	11726
Ġboards	11725
Argument	11724
ARK	11724
à´	11721
ĠMoon	11721
Ġdated	11719
ashi	11718
Render	11718
Ġdowntown	11718
.....	11717
Ġtherapies	11715
UPDATE	11714
Ġinsertion	11714
atri	11712
idy	11711
Ġshops	11709
wire	11707
since	11706
uto	11700
cca	11700
ensing	11699
Express	11697
Ġcere	11697
heart	11692
prom	11690
Ġindustries	11690
226	11689
Ġjudges	11686
ĠTony	11686
ĠAlb	11685
iano	11683
azing	11683
Ġrepository	11683
rotic	11682
ĠSR	11681
ĠWars	11680
abb	11678
nik	11676
ĠABC	11676
mouse	11675
metric	11674
Transaction	11674
Ġjustified	11674
374	11673
Ġchopped	11673
Try	11672
ĠWalker	11671
ague	11668
458	11668
Ġspeaks	11668
urance	11667
Ġads	11666
rolling	11665
aca	11663
Fa	11663
ĠSL	11663
648	11662
MSG	11660
Ġuniversities	11660
ĠStore	11660
aur	11659
anny	11658
CAC	11657
Ġhire	11657
Ġdeploy	11657
Ġ"",	11657
Ġpassenger	11655
Ġmanufacturers	11655
Ġbackup	11655
ĠStep	11654
Short	11653
ĠRom	11653
ushes	11652
Obv	11652
Ġreactive	11652
Direct	11650
particle	11647
237	11647
173	11645
Ġscar	11644
events	11643
\^[	11640
ĠSin	11640
Ġquad	11638
icide	11637
Ġmus	11636
Ġantibiotics	11636
Ġbrow	11634
icin	11633
Ġobligations	11632
OLD	11631
ĠcDNA	11627
ĠPARTICULAR	11627
factory	11626
Security	11623
Ġpackaging	11623
Ġemails	11623
Ã´	11621
Ġaveraged	11621
|$	11620
Ġempirical	11620
Ġrefuse	11619
them	11618
Sample	11614
Ġsupplement	11614
ĠMic	11614
Scope	11611
351	11609
ĠPu	11609
451	11608
Ġavoided	11608
Ġfought	11606
Ġbra	11605
707	11604
Ġfruits	11604
ĠÐ´	11603
1982	11601
Ġveteran	11601
Ġprofound	11601
Ġmainstream	11601
ĠVery	11601
ĠSquare	11598
ĠMont	11598
ssl	11597
ĠSky	11597
dfrac	11596
Ġdeserve	11595
Ġbasal	11595
Ġprosec	11594
ĠElizabeth	11593
iform	11590
|^{	11589
Ġlum	11585
ĠDutch	11585
Ġratings	11584
Ġholder	11583
Ġchips	11583
ocate	11582
Ġceiling	11582
Pay	11581
Ġdesk	11581
ÏĦ	11578
361	11578
ĠJane	11578
Ġduct	11576
Ġexperiencing	11575
Ġpreserved	11574
Ġdistribute	11573
special	11572
Ġupstream	11572
Ġmayor	11572
ĠSF	11571
Ġpub	11570
Play	11567
Ġmut	11566
Ġalternatives	11565
ãģª	11564
425	11563
sync	11561
carbon	11561
))\	11561
ãĥ³	11560
Metadata	11560
Ġdepart	11560
ĠStone	11559
Ġ350	11559
Gl	11557
hum	11556
ĠCOVID	11556
Ġgranting	11554
ench	11553
ĠFilm	11553
every	11552
Lin	11552
Register	11551
Save	11549
serial	11548
cong	11548
Ġadvances	11548
Ġcats	11546
Ġmel	11544
Ġapproximate	11544
rou	11543
delim	11543
cline	11543
asis	11543
Failed	11543
Ġsearched	11543
391	11542
Timeout	11540
Player	11540
Stud	11539
Subject	11538
Ġmechan	11538
Ġshirt	11537
Ġagricultural	11536
ACS	11534
183	11534
607	11532
Ġvoluntary	11532
Ġfet	11530
åį	11526
arson	11526
Ġhappiness	11525
ĠWales	11525
vg	11522
gm	11522
gence	11519
conn	11519
Che	11518
Ġadhesion	11516
supported	11514
offs	11513
ensor	11513
activated	11513
Job	11512
Ġcam	11510
1983	11509
Ġbare	11508
riz	11507
Ġ135	11506
Loader	11504
]-[@	11502
Ġresidue	11502
Ġolig	11500
ĠExpression	11498
formation	11497
Ġintensive	11497
Ġeastern	11497
ĠFITNESS	11497
ĠBesides	11497
ĠVector	11496
iple	11492
Ġdistress	11491
Ġ1950	11491
Ġrevised	11490
culated	11489
ymph	11485
................	11485
ĠML	11485
Ġarchitect	11484
oga	11483
agan	11483
ĠKeep	11483
Press	11482
053	11482
Sim	11481
Ġevolutionary	11481
ervation	11477
asive	11476
PAGE	11475
Information	11474
Ġselecting	11471
353	11470
ĠInv	11470
ĠTA	11469
ĠCollection	11466
Ġbuttons	11465
identifier	11464
Generic	11462
Ġsuspicion	11461
ĠRest	11461
Ġclinically	11460
opa	11458
Ġconcur	11457
plant	11456
holding	11455
cible	11453
cers	11451
Binding	11450
ĠExp	11450
Ġdivorce	11448
Ġtumour	11447
ĠLes	11444
counter	11443
science	11438
icode	11438
ENTS	11436
399	11436
Ġul	11436
Ġstationary	11436
ifi	11435
ĠSenator	11435
Ġviability	11433
ĠCruz	11433
Ġconsumed	11432
0020	11431
stit	11430
Art	11430
Ġfol	11430
Ġprimers	11428
Ġdesktop	11428
Ð°Ð½	11426
ĠNight	11425
Ġrival	11423
Ġ124	11422
Ġloads	11420
Ġillustrate	11420
unique	11419
602	11419
Ġredshift	11419
Ġ``	11419
ĠUP	11418
Ġsusceptible	11417
Ġranked	11417
SOURCE	11414
Ġrecipes	11414
acies	11413
285	11412
%%	11412
initial	11411
Ġrelevance	11411
Ġcounted	11409
234	11408
Ġdisclose	11408
Ġ1973	11407
flex	11405
Ġthereafter	11403
ĠPhilip	11403
quoting	11401
Ġpainful	11401
Ġpremium	11400
ĠImm	11399
Ġtre	11398
ĠVietnam	11398
ĠUSB	11397
ĠUtah	11396
umor	11395
Further	11395
^*$	11394
556	11394
333	11394
ANCE	11393
ĠSI	11393
606	11390
Ġelectro	11390
ĠDick	11389
LIST	11387
Ġgoogle	11387
ĠHor	11387
olf	11386
Ġgrey	11386
Ġfuck	11383
Ġdam	11382
does	11381
INST	11380
held	11379
ĠNotice	11379
ĠCaptain	11379
!(	11378
ĠEffect	11378
Ġembarrass	11375
âĪĹ	11373
Ġincomplete	11372
Ġallocation	11372
GU	11371
Ġord	11371
ipes	11369
wind	11368
six	11368
]))	11368
Ġskip	11367
ĠLeader	11365
678	11364
Ġarts	11364
Ġappellants	11364
anas	11361
ISA	11359
irts	11356
Ġpink	11354
Ġendogenous	11354
ĠPop	11350
Ġfigured	11349
ummy	11348
cellular	11348
ĠBlood	11347
Ġintroducing	11345
ĠResponse	11345
ĠTreatment	11344
Ġcenturies	11343
Ġpredetermined	11341
ĠOtherwise	11341
ĠCap	11340
Ã¥	11338
itÃ©	11338
476	11337
ĠJac	11337
Ġtickets	11332
fly	11331
ĠLater	11329
ĊĊĊĠĠĠ	11328
vet	11327
execute	11327
ĠLouisiana	11326
Ġaffidavit	11325
USER	11322
Invalid	11322
xsd	11321
Attributes	11321
ĠAssistant	11321
486	11319
oqu	11318
Ġconform	11317
editor	11315
Ġprolonged	11315
ĠPass	11314
æľī	11313
imo	11311
fileID	11310
Ġunt	11308
pattern	11307
Ġincidents	11307
controller	11305
Ġgraphics	11303
ĠDouble	11303
Ġcrossed	11301
Ġ$|\	11301
Ġamplification	11299
igious	11298
Ġmount	11298
Ġfurniture	11298
Warning	11296
ĠArts	11296
ported	11294
ATCH	11294
were	11292
Ġmyth	11292
ĠProduct	11290
998	11289
vere	11288
Ġfetal	11288
Del	11286
Ġcone	11286
Ġrem	11285
phosph	11284
MAKE	11284
ĠEmploy	11284
Ġconcurrent	11281
ĠRoy	11280
Ġtackle	11279
ĠâĢľ[	11278
nucle	11277
))**	11277
Ġaqu	11277
tables	11276
information	11276
Ġconjunction	11276
ĠSand	11275
302	11274
ĠFront	11274
Ġ1972	11270
Ġinfectious	11269
Ġgli	11269
kay	11268
647	11268
370	11268
(-\	11268
ĠPhysics	11268
iary	11267
city	11267
ä½	11266
Ġseemingly	11263
auer	11262
Ġcorrections	11260
Ġventricular	11258
Ġcertified	11255
dehyde	11251
219	11251
Elements	11249
Ġrelax	11247
Ġrecommendation	11245
Ġ[$	11243
Ġbuf	11242
generate	11238
å°	11237
666	11237
454	11237
]*	11236
372	11235
Ġevolved	11235
bro	11234
scar	11233
ondo	11233
isi	11233
ename	11231
DQ	11231
Related	11230
Ġ122	11230
decl	11229
Ġtransplant	11229
ĠMas	11226
ĠFarm	11226
Ġtransverse	11225
Memory	11222
Ġcursor	11222
Â£	11221
Ġdismissal	11221
Ġcommun	11220
453	11218
ĠAffairs	11216
plicit	11215
inct	11214
hbox	11214
QR	11214
arXiv	11213
amic	11213
Ġemployers	11213
Ġbrands	11213
Ġdx	11211
Ġcontamination	11208
ĠJosh	11208
ĠNetherlands	11207
otion	11206
---|---|---|---|	11206
rically	11205
oct	11205
Ġregret	11205
.""	11204
ĠiPhone	11202
ĠDer	11201
=\"	11199
xb	11198
ctrl	11198
Ġundergoing	11198
Ġrotating	11198
Ġdecor	11198
Ġcurious	11198
Folder	11197
Ġtwelve	11197
ULT	11196
Ġorthogonal	11195
Ġharvest	11195
ilton	11194
à²	11193
501	11193
Ġ.$$	11193
CHECK	11189
Ġbail	11189
Ġawards	11189
facebook	11186
Ġdemonstrating	11186
Feature	11184
)](#	11184
Ġprom	11184
claimed	11183
ĠMERCHANTABILITY	11183
chin	11182
olecular	11181
athy	11181
Simple	11178
Ġcorrupt	11178
Ġ126	11178
ĠJS	11175
phys	11174
icial	11173
241	11173
trace	11172
ĠNK	11171
Ð³	11170
Ġwise	11170
XP	11169
erie	11164
Ġsheep	11164
Ġprofession	11164
ĠAdv	11164
Ġdynamical	11163
ĠMount	11163
Ġfulfill	11162
blob	11161
481	11161
Ġtongue	11160
Ġfavour	11159
Pat	11156
390	11156
]$.	11155
Ġdesert	11155
inar	11153
604	11153
Ġordinance	11153
Ġdistribut	11152
ĠUnlike	11151
ĠSav	11151
Ġ,\	11151
Ġsettle	11150
Ġrecombinant	11150
VALUE	11149
704	11149
Ġcouples	11149
ĠDark	11149
Ã§Ã£o	11146
scri	11146
INS	11145
ĠNASA	11145
Ġfeasible	11144
Ġgall	11142
}}({\	11141
Ġvent	11140
ORT	11139
ags	11137
Ġpublications	11137
Ġachieving	11137
ä¸Ģ	11136
Package	11136
Ġâī¤	11136
ĠTokyo	11135
Ġbas	11134
:[	11133
Ġorbital	11132
resistant	11131
usions	11130
ĠVen	11130
Comment	11128
Following	11126
BOOL	11126
Ġdrain	11126
building	11125
ĠMountain	11125
INTER	11124
Ġtopology	11124
ulk	11123
394	11123
uu	11121
Ġpressed	11121
Ġblade	11121
quest	11120
ĠSOFTWARE	11119
Ġgi	11117
spaces	11116
into	11115
otted	11114
UST	11113
Ġë	11113
Ġsorts	11113
ĠJacob	11113
Ġenrolled	11112
Ġapt	11111
general	11109
Ġcylinder	11109
imer	11108
+{\	11108
eler	11107
ĠEL	11106
ĠAppendix	11105
Ġlesson	11104
Ġforecast	11104
Ġdialogue	11104
phones	11100
Ġhoped	11100
sens	11099
258	11099
independent	11098
.");	11098
ĠMayor	11098
ĠHS	11097
patient	11096
Ġexcuse	11096
achment	11094
}}}_{	11092
ruit	11092
IGHT	11090
Ġrigid	11089
ÃŃa	11086
Ġspontaneous	11086
ĠSenior	11085
Ġabdominal	11084
inth	11082
iab	11081
ikes	11080
ĠEc	11079
Ġswimming	11078
Ġoutputs	11075
zh	11074
cond	11073
ernate	11072
Ġcontacted	11072
cli	11069
Ġinappropriate	11069
Ġcmd	11067
gui	11066
ogan	11065
walk	11063
Doc	11063
Ġphenomena	11063
verted	11060
Ġactivate	11060
484	11059
Ġcollabor	11059
Ġsnap	11056
Lock	11055
Ġunemployment	11055
ĠResources	11055
Pass	11054
ĠRon	11054
atics	11053
iatric	11052
Ġ1974	11052
reason	11051
weet	11050
emphasis	11050
Ġlabour	11049
ĠSimon	11049
iÃ³n	11047
Ġhyd	11047
Uh	11046
Ġdeletion	11046
gage	11044
Ġmanufacture	11044
).](	11043
244	11042
groupId	11041
Therefore	11039
Ġinvent	11039
effect	11038
too	11037
Ġphen	11037
Ġconvictions	11037
ĠEngineering	11037
Ġcerebral	11035
ĠSat	11035
ĠDrug	11034
ÂĮ	11032
orus	11032
Ġmicroscope	11031
Ġexponential	11031
Ġdebut	11031
Ġvon	11029
Ġlips	11027
dents	11025
Ġhint	11025
ĠUSE	11025
Ġtheft	11024
ĠHart	11024
ToString	11023
ĠNeither	11022
stic	11019
Ġpromotes	11019
qq	11016
ĠTan	11015
ĠGP	11015
diction	11013
Meta	11013
449	11012
ĠÎ¼m	11012
Ġthreads	11012
Ġsends	11012
Ġtubes	11011
Ġcontributes	11011
Ġfatigue	11010
ĠMaterial	11010
Ġbabies	11005
ĠLPS	11005
Ġspecification	11004
Fragment	11003
Ġlam	11003
à¦	11002
\!\!	11002
FIX	11000
Ġneighbor	11000
})=	10999
955	10999
ĠMusic	10999
373	10998
Remove	10997
Ġhex	10997
itations	10996
Ġrental	10995
manager	10994
479	10992
609	10991
ĠJerusalem	10990
SYS	10989
Ġloops	10989
Ġ"âĻª	10988
^{(\	10984
489	10984
Ġnest	10982
Ġflesh	10982
radius	10979
jit	10979
Timer	10978
lessness	10976
Ġscared	10976
iful	10975
Quant	10975
ipper	10974
interest	10974
Ġlemon	10974
ĠVice	10973
ĠMM	10973
ochemistry	10971
446	10969
KP	10968
Ġextensions	10968
CLE	10967
Ġdefence	10967
Power	10966
Ġcas	10966
psych	10965
Ġmig	10963
Ġlocus	10963
ĠDisease	10963
Ġprim	10962
"],	10961
ifiable	10959
805	10959
Ġaqueous	10959
ĠBeing	10958
ĠFourier	10956
381	10955
Ġfibr	10955
sight	10954
STATUS	10952
Ġproposals	10952
Ġhes	10952
modal	10947
Ġinstability	10947
Ġmarginal	10946
lists	10942
324	10942
iae	10941
Lu	10941
Ġextraordinary	10941
bye	10938
bour	10937
artifactId	10937
Âı	10934
Ġtar	10933
Ġconcentrated	10932
INSERT	10931
\](	10930
ributed	10929
ĠPremier	10929
inx	10928
uration	10927
Tra	10927
eper	10924
months	10923
cout	10923
'))	10923
ĠWHO	10923
ĠIr	10922
Focus	10921
702	10921
Ġtent	10921
335	10920
ilities	10919
cov	10919
Ġbeneath	10918
Scale	10917
Ġinterrupt	10917
Ġstip	10916
Ġweighted	10915
Ġuniformly	10915
Ġpharmaceutical	10915
ĠIl	10915
etes	10913
Ġdistinguished	10913
}^*	10912
Ġinstructed	10911
icky	10909
472	10907
GD	10906
plementation	10902
complex	10902
Conclusions	10902
Ġtransfected	10902
Ġlegacy	10902
Ġdrinks	10902
éĩ	10900
Ġdistal	10897
Ġslip	10896
vd	10895
csv	10895
251	10895
ĠGraph	10895
Ġfacial	10894
ethyl	10893
318	10892
Cy	10891
ĠCB	10889
Ġanonymous	10888
ĠET	10887
ĠThompson	10886
Ġtrailer	10885
boot	10884
959	10884
Ġclustering	10882
441	10881
forward	10880
ationally	10880
Ġacadem	10880
ifer	10879
Ġnegatively	10879
ĠDetroit	10879
hydroxy	10878
Ġwrapped	10877
Ġjunction	10877
Ġdelta	10875
ĠRoss	10874
ĠNT	10873
ĠMg	10873
Ġcooked	10872
Ġ(âĪĴ	10869
Ġqueries	10868
Ġdirectors	10868
Ġsynthesized	10867
ĠCounsel	10867
reams	10866
Ġinfluences	10866
Ġrally	10864
tok	10863
Ġstocks	10863
scription	10861
1111	10861
aken	10860
ĠCIA	10858
elles	10857
Ġ129	10857
fty	10856
mentation	10855
rpc	10854
Ġtowns	10854
osed	10853
Dim	10852
Ġbacked	10852
Ġabroad	10851
Ġtranslated	10848
ĠOntario	10847
reading	10846
Ġsurveys	10846
driven	10845
|_{\	10842
STAT	10842
Ġdiscontin	10837
Ġautomated	10837
ados	10836
success	10835
anol	10835
Ġpose	10835
ĠKh	10835
Ġhopefully	10833
aped	10832
Ġwithdrawal	10831
Ġproducers	10831
Ġheated	10831
scape	10829
ĠâĨĴ	10829
Ġdeciding	10829
408	10828
dag	10825
803	10825
ĠRecently	10824
708	10823
lemental	10822
ĠIntegr	10822
ĠTarget	10820
bigl	10818
atted	10818
NING	10818
Ġexploration	10818
ĠPas	10818
903	10817
809	10817
ĠWild	10817
Should	10816
ĠSafety	10816
ĠSEC	10816
Len	10815
olved	10814
Ġdependency	10814
Ġcriterion	10814
ĠSweden	10814
ĠMcK	10814
cuse	10811
Ġsustain	10810
Chain	10809
311	10809
idation	10807
etch	10806
EMENT	10806
Ġwhilst	10806
Ġharmful	10806
Program	10805
Ġintim	10805
Abs	10804
Ġvalidated	10804
Ġstatutes	10804
Ġdrew	10804
Ġreleases	10803
473	10802
ĠHeart	10802
Ġsons	10801
Ġenterprise	10801
rison	10799
Ġfatal	10798
login	10797
Bottom	10795
Ġcomprised	10795
their	10794
addy	10794
Ġoccupation	10794
ĠAustin	10794
aren	10791
Ġsensory	10791
ĠLORD	10791
Ġremind	10789
Ġhep	10789
Ġcervical	10787
Loc	10786
ĠContin	10785
Static	10784
Ġrubber	10783
thal	10780
ĠMexican	10780
riage	10778
ROM	10778
Auth	10778
Ġutilizing	10778
ĠSaint	10777
Ġmyocardial	10776
ĠComm	10776
Ġpediatric	10775
Ġclo	10775
Ġbilateral	10775
hpp	10773
Ġethics	10770
know	10769
=\{	10769
ĠSteven	10769
382	10768
Ġplotted	10768
ymmetric	10767
shadow	10767
Light	10767
709	10766
ĠVideo	10766
Ġ04	10766
1981	10765
svg	10764
ĠSpe	10764
Sen	10763
Ġns	10760
ĠWright	10758
Ġeng	10757
Ġhouseholds	10756
Ġhub	10755
Ġabs	10752
tot	10751
Ġshower	10751
ĠCha	10751
Ġdiscipline	10750
Ġtoll	10749
Ġunstable	10747
Ġ256	10747
props	10746
Ġbitter	10745
čĊčĊĠĠĠĠĠĠĠ	10745
Flow	10743
323	10743
rected	10742
lined	10741
Ġheaders	10740
958	10739
Ġcollecting	10739
ĠAnthony	10739
Ġeliminated	10737
Ġdf	10736
Ġcytokine	10736
navbar	10735
459	10735
Ġrendering	10735
Ġphosphate	10734
supp	10732
GFR	10732
Ġ'<	10731
ĊĊĊĠĠĠĠĠĠ	10731
Ġrestored	10730
Ġfractions	10730
dose	10729
Ġshaped	10728
Ġrush	10728
ĠImmun	10726
osine	10725
Ġvacation	10725
dynamic	10724
ĠMother	10724
Ġterrorism	10723
233	10721
YY	10720
Ġcompromise	10720
ĠGuide	10720
Ġhabits	10719
Ġcharacterize	10719
Ġactiv	10719
ĠFil	10719
ĠBuilding	10719
working	10718
EU	10718
)'	10718
478	10716
Never	10715
Ġpsychiatric	10715
Ġmapped	10715
irmed	10714
Ġhill	10712
~(	10711
uru	10711
294	10711
Ġsan	10711
Ġspect	10710
smallcaps	10709
izard	10709
bow	10708
lene	10707
bis	10707
rites	10706
ĠDemocrat	10706
Ġrevision	10704
hesis	10701
ICK	10701
Ġelastic	10701
functions	10700
ĠBad	10700
Ġharsh	10699
Ġbeef	10699
amped	10697
ÃĹÂĶ	10696
Ġbrush	10696
created	10695
ĠMich	10695
ĠMonte	10694
alb	10693
Selection	10693
Ġopposing	10692
rupt	10691
rug	10689
gress	10689
Ġgravitational	10688
Required	10684
Ġtoss	10684
itives	10682
Ġcelebrate	10682
355	10678
ainer	10677
^.	10677
à¤°	10675
igan	10675
:'	10675
Ġquestioned	10674
love	10673
Ġgrows	10671
iative	10670
239	10670
Ġflav	10670
Ġears	10670
ĠFourth	10670
ÂłÂłÂłÂł	10667
enti	10667
Google	10665
Ġsubjective	10665
ĠExpress	10663
illion	10662
Details	10662
ĠInst	10662
ĠElect	10662
462	10660
Touch	10658
Ġdeposited	10658
Ġdemanding	10658
ĉĉĉĉĉ	10657
Ġregards	10656
Ġcomedy	10656
ĠHard	10656
Ġencouraging	10655
Ġtranscriptional	10653
Ġenabling	10653
rants	10652
mitt	10652
Ġeryth	10652
Ġaluminum	10652
Ġfn	10651
olate	10650
amino	10649
Ġchemistry	10649
****	10648
Ġexploring	10648
Lib	10646
oval	10644
Repository	10644
Ġrounds	10644
ĠSummary	10644
Ġ700	10644
CLA	10643
266	10643
Ġelite	10642
Notification	10641
Ġpaste	10641
Ġessence	10641
402	10640
Delegate	10638
249	10638
Ġsteam	10638
ptical	10637
Tim	10637
Ġabandon	10637
Ġreservoir	10636
Ġillustrates	10636
Card	10635
257	10634
Ġshr	10633
Ġdrunk	10633
annotation	10632
cpu	10630
Ġlane	10630
nick	10629
326	10629
throw	10628
Ġpride	10628
Ġrefugees	10627
ĠOlympics	10625
casting	10624
Ġremembered	10622
Ġoffenses	10621
Ġsubsection	10620
Ġkinetic	10619
Ġhepatic	10618
Identity	10617
Ġmusical	10616
Ġkin	10615
ingu	10614
ĠFDA	10612
ĠLady	10611
opath	10610
Ġexamining	10610
Â©	10609
Ġpole	10609
ĠFal	10609
474	10608
Ġcumulative	10606
Ġconscious	10606
asion	10605
ĠDS	10603
668	10602
Ġassessing	10601
argv	10598
Ġscandal	10598
Ġcoaches	10598
STRING	10595
Ġdining	10595
290	10594
})^	10592
Ġjournalists	10592
Ġapi	10592
phot	10591
Ġimproper	10591
porter	10589
ĠPK	10589
ĠMarx	10588
Ġwalks	10587
sections	10586
Ġcoronavirus	10585
character	10584
Ġmetals	10584
xl	10583
sequence	10581
328	10581
Ġexpecting	10579
Ġanticipated	10579
greg	10578
Ġhind	10577
ĠANOVA	10577
wr	10576
icating	10576
Ġbiopsy	10576
ĠFer	10574
Android	10573
Ġforcing	10573
anton	10572
í	10571
xtures	10571
mits	10571
314	10570
bigr	10569
ĠSize	10567
kowski	10565
ipp	10565
Mintage	10565
Ġye	10565
ĠINTO	10565
Ġâ	10564
Ġprimer	10564
Ġopponents	10563
Ġcaus	10562
Ġpassive	10561
ĠAtlanta	10561
Ġonc	10558
Ġfasc	10555
957	10554
ĠEmpire	10554
Ġedited	10552
Ġbro	10552
Ġallocated	10551
istence	10550
Ġmounting	10550
Ġimper	10550
706	10549
ĠStop	10549
243	10548
ĠUs	10545
Ġdamn	10543
ĠUt	10543
ĠMill	10543
ĠCrim	10543
Fill	10542
686	10542
National	10541
Ġwid	10540
formula	10538
Ġmechanics	10537
Ġchampionship	10536
ĠEPA	10535
Ġgit	10534
lua	10533
WO	10533
Ġoz	10532
ĠExchange	10532
}_{-	10530
Ġcaps	10530
Ð¾Ð´	10529
Ġpreceding	10529
awk	10528
genes	10527
later	10526
Ġactin	10526
ĠBra	10526
icator	10525
STATE	10525
Ġalarm	10525
iley	10524
fetch	10524
ĠAV	10524
ĠAddress	10523
Ġ03	10522
ĠBowl	10521
Court	10520
Ġslower	10520
ĠDeputy	10519
ĠFestival	10517
287	10515
Hu	10514
Jo	10513
603	10513
Ġflip	10513
ĠStaff	10513
Ġment	10512
Ġ%>	10512
Ġmer	10511
ĠHAVE	10511
Ġtex	10510
Ġ07	10510
hide	10509
endant	10508
]{}.	10506
Ġwhis	10506
Ġdeposit	10506
ĠBarack	10504
Ġbandwidth	10502
apture	10501
259	10501
upon	10500
336	10500
berries	10494
ĠBow	10494
Ġvoc	10493
558	10492
rough	10491
="../../../../	10491
/)	10491
umble	10490
Ġgeometric	10490
Ġ170	10487
Keys	10486
ĠCarter	10486
cluster	10485
Ġ360	10485
faces	10484
Ġcarcin	10484
Sk	10482
look	10480
Ġwashing	10479
Ġantibiotic	10479
ĠSupplementary	10479
SEC	10478
ANC	10477
Ġhosted	10476
xd	10475
327	10474
Ġqualify	10474
Ġdeparture	10472
ĠGreece	10470
Ġlys	10469
Ġallies	10468
Ġbypass	10467
Ġauthentication	10467
DIRECT	10466
ĠMoscow	10466
built	10464
Ġcontainers	10464
ĠRemove	10464
erring	10463
uba	10462
bul	10462
Ġtan	10461
Send	10460
orrow	10458
656	10458
ffic	10456
Great	10456
Ġreass	10456
8000	10455
Ġpancreatic	10455
Ġavoiding	10455
Ġadaptive	10455
minus	10454
ibr	10454
Ep	10454
Database	10454
Bio	10454
Best	10454
boolean	10453
Span	10452
scriptions	10451
nine	10450
857	10450
Ġtons	10450
Ġdiabetic	10448
rer	10446
Ġthroat	10446
Ġsimplicity	10446
ĠCONDITIONS	10446
middle	10443
Ġsed	10443
337	10442
Ġadventure	10441
ĠLaboratory	10441
Ġsummarized	10440
FORM	10436
ÐµÐ½	10435
citation	10435
akh	10435
Ġpassengers	10435
bled	10434
entity	10433
HB	10433
ĠManchester	10432
IH	10431
Ġregulating	10431
268	10430
416	10429
Ġthoroughly	10429
patch	10428
ĠDuke	10427
Ġborders	10424
Ġagrees	10422
ĠLev	10422
Cur	10421
Ġwhereby	10421
okin	10420
Ġfiltered	10419
Ġjoke	10417
Ġadequately	10415
Ġattitudes	10413
something	10412
stim	10411
Ġclearance	10411
Ġcaptain	10411
cies	10410
anta	10408
Ġoutlined	10408
deal	10407
DES	10407
yx	10405
ĠFac	10405
fox	10404
ĠLED	10402
ä¸į	10401
Proof	10400
Ġnights	10399
usc	10398
Ġrecipient	10395
Single	10394
KO	10394
Ġsurvived	10394
Ġveget	10393
Ġtransmit	10393
Ġgy	10392
321	10390
âĢĿ).	10388
frequency	10387
Ġwrit	10387
otics	10386
Ġcop	10384
resolved	10383
Ġ\+	10383
rection	10381
Ġhandful	10379
INGS	10377
airy	10375
\}$,	10375
Character	10375
Ġrejection	10375
Ġconfidential	10375
cott	10374
Normal	10374
ĠBet	10374
Internal	10373
ĠEight	10372
owned	10369
Ġcrude	10369
ĠDoctor	10369
Ġreproduce	10368
Ġenrichment	10368
........	10367
Ġperformances	10367
ĠCountry	10366
Ġmalignant	10365
XL	10364
Person	10363
Ġhorror	10363
Ġscrew	10361
large	10360
407	10359
Ġdeadly	10359
Ġschema	10358
ordinate	10357
luent	10357
Ġqualitative	10356
AVE	10355
Ġproving	10354
ĠBall	10354
Ent	10353
="-	10352
Ġcausal	10352
461	10351
442	10351
ÎºB	10350
>{	10349
Ġcontinuum	10349
Ġvirtue	10346
istically	10344
Wal	10344
Ġluminosity	10344
ĠEditor	10344
787	10343
Ġsensing	10343
ĠPatrick	10342
)},	10341
'+	10341
Ġeth	10341
ĠStatus	10341
inge	10339
eston	10337
typename	10335
ĠScript	10333
friendly	10332
]+	10332
Ġappellee	10332
{%	10331
setting	10331
LIN	10330
ĠPub	10330
adic	10328
Ġorganisation	10328
union	10327
GER	10327
iens	10326
ĠrÃ©	10326
Ġdear	10326
Ġinteracting	10325
ĠDVD	10324
Sorry	10323
574	10322
Ġpneumonia	10322
}_{{\	10321
icus	10321
ĠAk	10320
Ġdirty	10319
Support	10318
Follow	10318
ĠSteel	10318
logging	10317
ĠWarren	10317
ĠLuc	10317
olving	10315
Ġhighway	10315
ĠDem	10315
Ġpreferences	10314
WP	10310
:"){	10305
pri	10304
Ġvibr	10304
ĠAlaska	10304
Move	10303
cession	10302
collection	10300
ĠAh	10300
/$	10299
Ġcritics	10299
ĠJay	10299
vens	10298
Miss	10298
Ġmaintains	10298
Ġcampaigns	10298
Ġ131	10298
webkit	10297
separ	10297
ĠVar	10297
named	10295
Animation	10293
Ġsitu	10293
Ġdeployment	10293
Ġspecialized	10292
Ġforeach	10292
Ġdeck	10292
Ġquotes	10290
iste	10289
Ġbesides	10289
closed	10288
Ġclone	10288
Ġdw	10287
ĠAndre	10287
Ġirre	10286
ĠCooper	10286
vubuntor	10285
Ġproductivity	10285
ĠNu	10285
ĠLevel	10285
ĠBASIS	10285
Ġpropagation	10283
arance	10282
Ġconnectivity	10282
Ġcourage	10281
ceptive	10280
Ġnut	10280
ĠQuant	10280
goto	10279
Ġdemographic	10279
Ġgoverned	10277
ogg	10276
lect	10274
Unknown	10274
ĠMart	10274
ird	10273
develop	10273
functional	10272
Ġbeans	10272
Ġprobes	10271
Ġhorses	10269
ĠHay	10268
storage	10267
atus	10265
Ġcompiled	10265
policy	10264
pcbi	10264
South	10264
Ġcyber	10263
ĠEarly	10262
Ġproximity	10260
807	10256
316	10256
Ġtap	10256
Ġacceleration	10256
oci	10255
expl	10254
393	10254
~.	10253
Native	10253
297	10253
oen	10251
Av	10250
environment	10249
Ġlisting	10249
Tom	10248
focus	10247
Ġengines	10246
ĠTaiwan	10246
Ġcurrents	10245
Ġ240	10245
ĠRelations	10244
memory	10243
yman	10242
.__	10242
OFF	10240
ĠJud	10240
ĠFranklin	10239
Ġrolled	10236
ĠĠĠĠĠĠĠĠĠĠĠĊĠ	10236
omorphism	10235
Ġidentifier	10235
Ġelementary	10234
COMP	10232
Ġsink	10232
mong	10230
elf	10230
Ġpret	10230
Ġtower	10229
Ġtender	10229
ĠCloud	10229
Ġpotentials	10227
Ġharassment	10227
fort	10225
HTTP	10225
trivial	10222
xim	10221
Ġmeters	10221
Ġjunior	10221
imb	10219
lick	10217
Ġequals	10217
Ġbanking	10217
Ġenriched	10216
Ġdisable	10216
fre	10215
Ġsituated	10215
Ġutil	10214
Ð½Ð¾	10213
Ġstake	10212
Ġmountains	10212
systems	10211
1979	10211
Ġrod	10210
Ġperforms	10210
Ġ"_	10210
Ġsynt	10208
OPT	10206
)}}	10206
ĠKat	10206
Still	10205
hig	10204
Ġspite	10204
Ġrecruited	10204
Ġdevoted	10204
ĠAnimal	10204
ractions	10203
Login	10203
Ġburied	10202
Several	10201
download	10199
Ġanchor	10199
ogn	10198
ĠTem	10196
ĠGulf	10196
important	10195
incre	10194
452	10194
cyl	10193
ĠReference	10193
Ġcompanion	10192
external	10191
Ġindicators	10191
Ġdefeated	10191
ĠSite	10191
cop	10190
Ġcatheter	10190
Ġpronounced	10189
ĠLab	10187
Ġnovo	10185
Ġasc	10185
Ġ132	10185
submit	10184
arming	10184
Remote	10182
President	10182
Ġquarterback	10182
xt	10180
Ġgaming	10180
Ġblend	10180
Ġshoulders	10179
[...]
