.	51138867
Ċ	48065369
,	43817307
Ġthe	41290793
Ġof	23446689
Ġand	19926952
Ġto	19268615
-	15998627
Ġa	15511627
Ġin	14189654
_	10004013
Ġis	9734560
Ġ(	8486947
Ġthat	8319609
Ġfor	7487634
)	7474712
:	6954924
Ġwith	5753514
1	5616519
(	5577102
2	5457161
Ġ"	5228080
Ġon	4918942
/	4688711
Ġas	4493830
Ġbe	4386900
Ġwas	4359485
Ġit	4291692
ĠI	4176807
s	4033058
Ġby	3933196
Ġare	3894612
Ġ=	3873176
;	3758417
Ġ-	3564947
ĠThe	3414820
0	3395627
Ġthis	3395345
Ġfrom	3297904
Ġat	3285672
Ġyou	3262145
Ġ$	3262040
{	3256150
âĢĻ	3220374
Ġor	3192641
Ġnot	3157790
Ġ\	3145052
*	3129623
ĉ	3087956
Ġhave	2949798
\	2838720
Ġan	2822352
}	2798251
's	2794505
3	2762207
"	2710948
Ġ0	2587098
>	2523266
ĊĠĠĠ	2479989
Ġ*	2426780
Ġwe	2317035
Ġ	2217785
Ġcan	2124907
Ġwere	2087190
a	2017096
Ġ1	1986471
."	1985961
$	1979952
Ġwhich	1950787
="	1934259
4	1917408
t	1910890
Ġhas	1883575
Ġ+	1808750
Ġ{	1782015
x	1780138
Ġbut	1775631
i	1765819
ĊĠĠĠĠĠĠĠ	1724273
The	1712566
).	1705814
Ġhe	1704504
Ġwill	1704480
?	1691591
Ġall	1652314
ĊĠ	1627055
A	1622143
Ġif	1618562
5	1615901
I	1594193
Ġ2	1582982
n	1580351
d	1572232
Ġhis	1571302
B	1568701
Ġone	1565550
Ġthey	1506917
Âł	1433975
Ġtheir	1404602
Ġmore	1397627
**	1366963
S	1340116
C	1333934
_{	1292975
b	1292480
Ġhad	1275562
Ġ$\	1268273
p	1267710
Ġbeen	1263631
ĠA	1248969
c	1245162
),	1237268
<	1236582
]	1228037
Ġalso	1227872
Ġyour	1225755
);	1217412
Ġ<	1215421
m	1190022
Ġabout	1175719
ĠIn	1165367
Ġwhen	1163675
Ġwould	1159609
Ġout	1149220
'	1146571
in	1146208
Ġ3	1142209
=	1137608
f	1130791
Ġtime	1130664
Ġthere	1128417
't	1121211
Ġso	1116621
Ġother	1110785
^	1095757
Ġmy	1086144
ĠâĢľ	1078796
k	1076060
Ġwho	1073233
6	1068102
[	1061698
e	1049533
Ġthan	1040529
Ġdo	1035896
Ġ[	1032223
Ġno	1025596
Ġup	1024970
ĠĠ	1015155
ing	1000091
Ġ'	993252
Ġ}	988191
Ġits	982716
D	978577
y	977397
Ġinto	974205
8	971932
Ġ&	968603
g	966009
F	959612
Ġour	945881
Ġonly	939429
Ġtwo	934875
Ġher	928245
Ġsaid	925767
7	912379
ĊĠĠĠĠĠĠĠĠĠĠĠ	911208
h	908056
Ġwhat	906391
R	904210
Ġlike	901367
Ġany	897116
ĠS	896728
ĠC	890239
Ġsome	883135
Ġmay	882676
Ġnew	881262
P	872022
ĠIt	870517
r	870427
T	870275
ĠThis	869855
Ġ4	860672
%	855419
Ġsuch	847033
Ġfirst	844248
M	837608
Ġthese	828268
v	802469
Ġget	802291
Ġthem	800191
ed	795152
ref	792079
Ġ5	791815
Ġover	790113
E	785294
j	782818
o	781919
Ġuse	777673
+	775777
Ġthen	774006
Ġme	771874
N	769425
Ġjust	766795
H	763317
Ġafter	762661
type	757268
ĠB	756973
Ġbetween	756663
9	752724
10	750868
u	750265
L	749291
ĠT	744445
ĠP	735680
ĠWe	728129
Ġused	720026
Ġwhere	715550
Ġcould	715179
.,	712346
",	706721
ĠF	706426
Ġdata	702085
</	702002
ĠM	697792
ĊĠĠĠĠĠ	697253
{\	693420
G	693016
ĠD	688606
l	687677
Ġv	685567
Ġpeople	685053
Ġshe	670278
z	664676
Ġusing	663005
Ġbecause	654646
#	646156
In	643448
Ġ10	642188
ĠL	636242
Ġshould	626215
}\	625788
ĠR	624164
Ġp	622484
ĊĠĠĠĠĠĠĠĠĠĠĠĠĠĠĠ	622236
ĠH	619399
Ġ[@	614700
Ġwell	609889
Ċĉ	609712
!	609426
X	607697
Ġ.	604328
Ġhow	604286
Ġi	601426
Ġmost	598755
){	596984
Ġeach	590837
Ġcase	587150
ĠN	583930
Ġhim	583109
12	578293
Ġ|	577777
Ġ6	576762
K	576305
ĊĊ	575512
ĠG	571531
w	571202
Ġclass	567418
Ġunder	563129
Ġmake	554217
Ġwork	545621
00	544395
ĠU	543913
Ġthrough	543530
~	541043
Ġ@	539880
Ġsame	537655
Ġway	536355
ĠHe	534802
V	531666
->	529738
Ġm	529094
Ġ7	526346
Ġsee	524901
Ġeven	524655
is	523896
Ġ8	522526
Ġthose	522113
Ġnow	521132
Ġyears	519950
Ġvery	519927
frac	517894
Ġboth	516622
Ġknow	515845
er	512747
Ġset	511267
11	507745
Ġbeing	505758
Ġ_	504302
ĠK	503547
Ġdid	502336
Ġneed	500385
q	500314
()	499812
or	499756
Ġmany	499001
Ġbefore	494967
Ġnumber	492739
?"	492617
}$	492514
ĠE	491220
Ġreturn	490267
Ġdifferent	489871
âĢī	488792
Ġright	487966
](#	487421
Ġback	485932
W	482991
on	482884
right	481732
id	481251
ĠĠĠ	475294
">	475079
Ġdon	474855
::	473812
Ġhere	472991
com	471207
ĊĊĠĠĠ	464685
left	463386
Ġus	463047
Ġmade	458597
âĢĿ	458436
Ġvalue	458093
fig	454789
Ġ\[[@	452581
Ġwhile	451612
ĠâĢĵ	450311
--	449918
://	449717
Ġd	447419
Ġsystem	447233
al	445687
01	444488
Ġfound	444247
to	443999
Ġhigh	443545
Ġ**	442948
es	442557
J	441146
re	440866
ĠJ	438958
the	436997
Ġmuch	436031
Ġstudy	432159
":	430790
Ġc	430115
.âĢĿ	430054
Ġfunction	430004
Ġgood	429717
O	428840
Ġthree	428051
Ġstate	427693
Ġwant	425566
en	425486
ĠIf	425245
Ġn	424317
Ġpatients	423185
Ġpublic	422195
_{\	420910
Ġt	420400
Ġ//	419249
ers	418627
Ġwithout	418590
Ġduring	417445
ĠFor	416141
ĠV	415742
ĠLet	414732
Ġx	413734
and	413558
Ġcells	413438
as	412181
Ġs	410928
Y	410786
end	410622
Ġname	410016
We	409463
Ġcourt	409042
Ġ9	408394
Ġdoes	407996
What	407935
th	406558
,"	406006
Ġ:	404445
Ġthink	403198
Ġend	402750
$,	402304
Ġorder	401477
Ġf	400755
15	399891
',	398879
20	395900
Ġyear	395840
an	394653
16	394348
Ġpart	392454
Ġnon	389567
Ġgroup	387082
Ġb	386189
13	386104
(\	382155
Ġagainst	381693
U	380835
000	380487
Ġlong	379822
It	378876
$.	377728
}{	377595
ĠW	377084
("	376143
Ġdown	375686
|	372655
Ġmust	371655
Ġstill	371603
Ġtake	371360
ly	369721
Ġgo	367538
14	365942
Ġlast	365863
Ġtype	365547
Ġg	364515
int	364502
//	361357
if	361353
get	361148
ĠBut	361033
Ġinformation	359928
Ġ12	359271
ic	357306
...	356113
Ġe	356021
Ġsecond	354073
Ġday	352663
Ġ,	352546
Let	352001
Ġde	351543
Z	350674
18	348585
mathcal	347513
Ġresults	346831
();	343593
],	342754
ĠĠĠĠ	342005
Ġal	341657
32	340431
Ġfollowing	339998
ar	339809
^{	339518
This	339295
able	337837
ĠAs	337358
ĠO	337065
Ġoff	334380
Ġgoing	333853
Ġl	333153
Ġfind	332663
Ċĉĉ	330749
)$	330296
âĢľ	328276
ĠAnd	328046
Ġwithin	327890
Ġam	327038
ĠYou	325623
].	324598
Ġlife	323475
Ġaround	323401
&	323291
Ġh	322929
'm	322190
Ġr	321587
Ġsince	318982
Ġpoint	318971
17	318797
le	318031
alpha	317695
Ġun	317402
Ġ*/	315698
Ġmodel	315633
at	315175
Ġcontrol	314680
Ġanother	314148
CR	313143
os	312899
,âĢĿ	312764
Ġk	311564
Ġ20	311054
us	310376
âĢĵ	309191
č	308693
Ġ</	307649
it	306897
19	305626
Q	305582
Ġown	305292
Ġexample	304594
Ġ#	303742
Ġincluding	302558
]\].	302293
Ġself	302270
ĊĊĠ	300751
25	300269
Ġet	299637
Ġline	299567
Ġtoo	299545
Ġevery	299060
Ġshow	298996
Ġgiven	298122
You	297696
ĊĠĠ	296084
el	296025
Ġhelp	295437
Ġreally	294674
Ġmight	294501
Ġcell	293936
Ġsay	293392
Ġresult	292992
Ġworld	292380
ĠHowever	292202
ĊĠĠĠĠ	291452
Ġprocess	291288
Ġtest	291204
\]	291087
ĠThey	289755
Ġ{#	289583
Ġpresent	286850
30	286565
Ġ$$\	285849
Ġbased	285525
Ġ15	285283
Ġform	285158
Ġfile	284063
Ġsupport	283293
ĠQ	282568
're	282458
Ġper	281668
am	280109
ate	279860
Ġ\[	278805
Ġbest	277492
Ġanalysis	277455
,\	276971
))	276530
Ġnext	275065
ĠâĢĶ	274884
Ġy	272427
name	272268
Ġevidence	272067
Ġsomething	271923
ĠNo	271832
Ġmethod	270001
Ġsmall	269998
Ġwhether	269894
ia	269793
Ġleft	268981
Ġchange	268931
Ġ18	268871
ation	268291
}(	267717
}}	267244
Ġhome	266605
st	262563
Ġplace	261945
ĠWhat	261057
ĠThere	260985
Ġfact	260726
et	260479
Ġpower	260307
Ġw	260017
ĠNew	259907
Ġimportant	259669
âĢĶ	258972
Ġfew	258366
Ġbetter	257635
Ġre	257540
24	257178
)\	257071
Ġabove	256689
Ġless	256509
Ġlarge	255794
text	255591
ĠX	255226
Ġlevel	254217
Ġint	254151
mu	253203
Ġtrue	252733
Ġnever	252417
Ġ11	251936
Ġ{\	251218
Ġwater	250839
label	250671
mathbb	250547
Ġtreatment	248963
Ġleast	248758
Ġlittle	247884
Ġpossible	247698
of	247224
Ġthings	245945
Ġj	245316
div	244884
Ġlow	244836
Ġdue	244513
Ġproblem	244482
Ġcome	243083
Ġlaw	242746
ie	241567
22	240527
Ġlook	239857
data	239604
50	239469
Ġgreat	238512
ĠĠĠĠĠ	238020
Ġfield	237037
Ġhaving	236296
Ġdays	236139
To	235821
Ġshown	235636
ch	235549
!"	235371
Ġgive	235187
Ġ14	234813
ist	234336
Ġeffect	234320
begin	233801
Ġgot	233367
Ġcommon	233362
('	232845
Ġ16	232839
Ġtrial	232568
Ġ/	230957
23	230723
Ġfurther	230382
Ġ30	229766
ol	229155
Ġ--	228753
Ġsize	228215
Ġhealth	228006
Ġgame	227950
If	227192
Ġcode	227160
ĠTo	227036
Ġexpression	226789
Ġlet	226702
@	226203
Ġprovide	226198
ĠShe	225938
Ġalways	225785
Ġcurrent	225429
Ġagain	224889
Ġfour	224504
Ġgovernment	224467
Ġeither	223741
ine	223663
Ġknown	223133
Ġcalled	222616
21	221853
ĊĠĠĠĠĠĠĠĠĠ	221837
05	221570
ĠThese	221339
ĠState	221328
As	221201
Ġfree	220968
Ġuntil	220446
64	220296
Ġavailable	220209
ĠUnited	220100
Ġfamily	219985
Ġ)	219714
Ġsingle	218404
Category	218339
Ġman	217962
):	217373
aligned	217148
Ġhuman	217069
\[	216902
ĊĊĠĠĠĠĠĠĠ	216734
ĠCourt	216688
Ġmeans	216661
Ġlocal	216248
Ġ==	216033
Ġelse	215794
Ġo	215537
Ġu	215339
"}	214770
Ġvalues	214689
Ġreal	214638
Ġaction	214421
set	214053
Ġcases	213855
Ġable	213716
Ġchildren	213590
ĊĠĠĠĠĠĠĠĠĠĠĠĠĠĠĠĠĠĠĠ	213566
Ġlight	212974
Ġmean	212920
Ġside	212766
il	212727
ĠSo	212690
Ġseveral	212394
rm	211704
40	211695
Ġtimes	210472
ad	210458
Ġhigher	210458
usepackage	210432
ĠThat	210321
Ġpost	210255
pone	210039
lambda	209711
Ġarea	209489
Type	209345
ĠĠĠĠĠĠ	209279
}$$	209113
Ġstudies	209073
Ġteam	208670
li	208482
Ġtop	208325
Ġbody	208320
've	208313
Ġcare	208053
http	207745
Ġput	207744
Ġ100	207680
this	207477
Ġsignificant	207005
ant	206905
Ġfull	206492
Ġrate	205991
Ġwhy	205697
ĠY	205674
ĠAll	205661
Ġerror	205581
up	205520
Name	203950
Ġenergy	203863
Ġstart	203364
Ġ13	203271
import	203141
ve	203026
span	202887
Ġtotal	202679
27	202298
un	202156
man	201946
For	201928
Ġrun	201413
ĠStates	201264
Ġz	200569
ies	200212
80	200008
Ġsimilar	199927
Ġalready	199298
Ġdidn	199221
im	199064
ÃĲ	199063
}_	199027
And	198969
org	198472
28	198256
ĠSt	197720
},	197615
Ġassociated	197392
ĠWhen	197366
Ġlot	197288
];	197190
Ġlevels	196900
Ġopen	196896
Ġperson	196389
Ġgeneral	195749
ĠZ	195734
Ġspace	195617
Fig	195599
pi	195580
Ġresponse	195559
Ġhand	195356
><	195115
_\	193908
Ġsub	193580
Ġfinal	193389
Ġquestion	192963
Ġrequired	192548
Ġdone	192411
Ġwomen	192284
'll	191842
mathbf	191786
Ġaway	191591
Ġsays	191238
Ġcall	190994
um	190629
Ġissue	190575
Ġ${\	190505
Ġkey	190164
Ġlist	190104
ĠĠĠĠĠĠĠ	189445
Ġoften	189093
Ġspecific	188632
table	188262
35	188218
Ġterms	188084
Ġactivity	187838
26	187668
ell	187322
string	187312
Ġfar	187277
Ġ=>	187277
out	186768
Ġlater	186161
ac	186135
Ġsure	186059
Ġgroups	185975
Ġhowever	185840
Ġamong	185807
ab	185782
Ġreported	185378
Ġthing	185294
Ġ`	184776
em	184518
ID	184098
}_{	183969
ĠOn	183674
beta	182978
Ġ17	182937
Ġenough	182730
Ġcourse	182702
He	182695
Ġage	182518
Ġconst	182232
Ġtold	182099
Ġthough	181655
Ġcompared	180871
ro	180801
Ċĉĉĉ	180636
sec	180367
100	179769
Ġalong	179688
Ġhead	179680
Ġprovided	179187
sigma	179030
Ġ%	179026
Ġmaking	178758
Ġread	178540
Ġposition	178439
33	178338
Ġ24	178278
est	178261
Ġinclude	178205
return	177873
29	177790
Ġworking	177419
ur	177370
Ġvoid	177261
Ġupon	177122
Ġconditions	176801
Ġrisk	176343
Ġold	176292
ian	176271
Ġrole	176205
ity	176068
Ġpotential	175630
></	175605
sum	175542
Ġlower	175180
But	175171
]).	174713
^{\	174380
ated	174342
Ġweek	174335
Ġincrease	174307
Ġrange	174256
Ġdevelopment	174163
Ġeffects	174154
one	174080
ating	173908
Ġseen	173874
Ġplay	173860
Ġchanges	173271
Ġdoesn	172914
ul	172909
Ġsection	172628
Ġprogram	172423
34	172234
Ġresearch	172210
---	171728
Ġ([@	171688
Ġ([	171632
ent	171516
Ġtogether	171453
ĠâĢĺ	171201
Ġ25	171043
op	171020
Ġprotein	170572
Ġmoney	170562
Ġproperty	170557
Ġkeep	170450
Ġmain	170316
60	170008
Ġincreased	169933
Ġbecome	169873
pt	169761
for	169489
Ġimage	169212
Ġfactors	169094
ism	169040
html	168643
Ġaddition	168616
ot	168576
www	168464
Ġservice	168417
Ġsource	168395
Ġcannot	168356
Ġobserved	168280
td	168239
Ġbusiness	168098
Ġparticular	167803
}^{	167654
Ġ50	167387
Ġlove	167378
Ġschool	167253
"}).	167168
ĠUniversity	166767
Ġaccording	166166
Ġmonths	166107
ĠĠĠĠĠĠĠĠ	165849
Ġuser	165843
ra	165712
Ġdisease	165620
Ġthird	165594
36	165117
bar	164989
Ġearly	164949
Ġdoing	164919
Ġcreate	164441
Ġtry	164431
Ġview	164001
Ġcountry	163784
Ġstructure	162872
Ġdefendant	162637
No	162389
Ġid	162353
45	162147
pm	162135
Ġdescribed	162117
`	162099
mathrm	161857
ir	161622
Ġprivate	161589
Ġmultiple	161480
sqrt	161345
Ġthought	161134
Ġactually	160956
Ġpositive	160881
Ġpoints	160376
Ġversion	160368
Ġcompany	160350
Ġpre	160306
Ġadd	160176
ĠSee	159979
Ġobject	159816
Ġacross	158962
ĠAt	158348
ized	158200
Ġothers	158048
Ġreport	158041
There	157693
31	157490
Ġpast	157362
Ġcontent	157146
Ġperiod	157096
Ġsurface	157058
Ġrather	156958
Ġonce	156739
gamma	156681
Is	156603
[@	156322
value	156230
Ġstring	156198
02	155839
String	155805
Ġbase	155784
Ġhard	155712
class	155627
Ġlikely	155509
Ġ>	155284
ĠAn	155233
om	155171
Ġfive	155166
Ġshows	154791
Ġmillion	154654
Ġperformed	154566
io	154477
Ġshowed	154453
Ġbelow	154369
Ġamount	154345
ĠAmerican	154228
delta	154001
Ġmatter	153877
Ġfeel	153813
04	153801
ap	153350
Ġcame	153332
Ġbig	153224
ations	153134
Ġsystems	153122
Ġstandard	152865
\_	152781
Ġclear	152516
key	152305
bib	152264
Ġfalse	152199
Ġcause	152093
Ġobtained	151768
.)	151763
Ġsite	151545
");	151503
Ġtook	151432
Ġmakes	151407
}^	151397
Ġfood	151330
Ġmen	151209
Ġterm	151118
Ġ(*	151111
Ġshort	150967
code	150954
")	150916
)(	150796
Ġfactor	150623
Ġsocial	150497
38	150371
ĠGod	150211
ors	150036
Data	149935
Ġvarious	149932
Ġapplication	149930
Ġever	149869
Ġcancer	149619
Ġexperience	149413
Ġinterest	149321
'd	148759
ak	148708
001	148698
Ġseason	148666
Ġwhole	148525
Ġtaken	148499
Ġaccess	148457
37	148361
Ġconsidered	148115
Ġadded	148052
Ġfuture	148048
Ġq	147964
Ġrelated	147887
ĠOne	147371
^{-	147369
Ġyet	146987
Ġdefined	146136
48	145927
Figure	145604
Id	145064
Ġbelieve	144863
)/	144705
39	144369
ĠUS	144295
Ġbit	144180
Ġapproach	144010
99	143890
ll	143824
ĠThen	143596
partial	143409
Ġsolution	143376
rho	143353
ig	143343
Ġcommunity	143154
ne	142889
Ġ$(	142806
Ġproject	142630
Ġstates	142542
%)	142382
Ġwent	142375
Ġminutes	142370
ization	142363
ĠĠĠĠĠĠĠĠĠ	142337
ment	141811
Â°	141519
Ġdecision	141454
ag	141180
95	141113
ĠAfter	141106
Ġblood	140748
phi	140687
Ġtext	140470
ĠĊ	140285
all	140168
Ġkind	140165
ER	139973
ings	139881
Ġdevice	139870
Ġ19	139740
Ġmajor	139707
Ġtrying	139631
Ġincluded	139551
Ġreason	139526
So	138991
Ġindividual	138933
Ġregion	138742
44	138520
Ġmembers	138306
Ġtoday	138002
Ġmaterial	137989
theta	137988
Ġrespectively	137953
}{\	137791
ins	137771
ÂĤ	137520
Ġclose	137441
03	137332
Ġchild	137290
],[@	137188
Ġreceived	137137
he	136997
Ġ},	136991
Ġwon	136919
Ġadditional	136725
Ġpercent	136596
time	136473
Ġevent	136468
omega	136408
Ġcity	136337
age	136292
On	136199
Ġsignificantly	136171
Ġanything	136165
Ġpatient	136017
ip	135896
Ġnight	135396
Ġcertain	134902
Ġnull	134856
Ġgrowth	134838
Ġclaim	134693
Ġface	134604
08	134472
ED	134354
Ġneeds	134277
ion	134233
Ġasked	134181
75	134115
09	133998
res	133795
Ġdeath	133651
Ġgetting	133407
Ġhalf	133240
Ġnormal	133226
Ġsimple	133126
Ġhistory	133010
Ġ\\	132890
Ġproduct	132538
tau	132486
]{}	132246
Ġanti	132010
leq	131956
Ġlooking	131896
Table	131853
Ġroom	131561
size	131369
Ġdifference	131356
$-	131326
Ġhref	131156
Ġmethods	131068
include	131022
Ġseries	130972
Ġreview	130968
Ġparty	130875
Ã©	130821
based	130750
Ġperformance	130733
âĢ¦	130562
Ġtarget	130556
ĠMr	130516
Ġproblems	130372
Ġvia	130333
90	129873
times	129830
eq	129828
Ġthus	129770
add	129679
Ġissues	129494
Ġinvolved	129491
Ġ21	129371
infty	129302
Ġnetwork	129291
Ġalmost	129212
Ġpay	129195
Ġprevious	129017
ive	128838
Ġnothing	128811
Ġhours	128752
Ġservices	128645
year	128611
Ġtherefore	128587
line	128579
ons	128569
test	128475
Ġneeded	128349
Ġexpected	128340
Ġcheck	128332
hat	128114
Ġrecord	127833
Ġmass	127680
Ġheld	127480
log	127338
Ġconsider	127210
Ġcar	127141
Ġpopulation	126893
Ġinstead	126846
Ġpaper	126712
How	126617
Ġ...	126598
Ġcost	126370
Ġunderstand	126307
https	126252
ard	126247
70	126116
ĠRe	126109
ĠIs	125952
ib	125833
-\	125701
When	125699
Ġrecent	125608
ge	125457
Ġair	125336
Ġtell	125238
ut	125217
Ġlines	125175
65	125142
Ġseems	125127
Ġgene	124764
Ġloss	124508
Ġcomplex	124486
Ġjob	124477
new	124465
/*	124410
Ġcondition	124270
Â±	124191
Ġidea	124179
})	124006
Ġweight	123977
Ġstep	123859
Ġpolice	123756
ĠÂ§	123695
Ġmotion	123578
de	123425
self	123309
nu	123285
Ġdesign	123280
Ġcomes	123203
ĠĠĠĠĠĠĠĠĠĠ	123193
List	123192
Ġstudents	123155
')	123150
Ġtable	123109
Ġ(-	122947
Ġfilm	122843
ES	122807
ans	122760
Ġproduction	122719
ens	122698
Ġ40	122689
Ġhouse	122659
Ġmove	122585
Ġlead	122580
Ġquality	122533
Ġmarket	122365
*,	122344
ĠSh	122330
Ġsomeone	122066
ter	122061
Ġblack	122023
Ġvar	121990
Ġprior	121920
Ġmodels	121842
by	121798
ness	121795
ates	121743
var	121682
Ãĥ	121602
Ġplan	121570
Ġtaking	121467
Ġstarted	121452
Ġpage	121334
Ġch	121309
ĠYork	121034
Ġmedia	120952
Ġprovides	120851
tr	120831
se	120700
oc	120692
Ġdistribution	120689
Ġstrong	120635
Ġpolicy	120630
Ġitself	120534
Ġ22	120492
ay	120446
ĠThus	120367
ĠCh	120355
Ġnecessary	120306
^\	120260
Ġco	120151
ah	120073
Ġsignal	120024
als	120001
ĠBy	119762
ast	119748
ĠMy	119537
That	119517
ous	119502
min	119294
Ġaverage	119248
Ġlive	118977
Ġ/*	118867
ĠAl	118850
69	118452
Ġstory	118436
Ġshall	118395
Ġrights	118313
42	118224
Ġprobably	118091
Ġ||	117984
Ġspecial	117979
ĠTrump	117883
ĠNational	117869
define	117838
see	117804
07	117770
Ġoriginal	117719
}}\	117715
55	117649
Ġclinical	117225
Ġheart	116904
Delta	116895
ĠĠĠĠĠĠĠĠĠĠĠ	116762
06	116706
param	116468
ĠCo	116411
Ġallow	116323
Ġfunctions	116285
43	116282
Ġsimply	116195
Ġproducts	116180
Ġbook	116006
Ġturn	115914
ĠOF	115893
Ġphase	115788
Get	115695
file	115670
Ġespecially	115550
Value	115540
Ġtemperature	115437
old	115411
Ġwords	115322
Ġsequence	115155
px	115094
));	115065
ish	115001
Ġcolor	114973
Ġsample	114900
Ġaccount	114881
Ġproperties	114750
Ġinput	114697
All	114536
Ġmind	114479
Ġpath	114436
Ãĳ	114053
ĠWith	114028
Ġlength	114005
Ġ!=	113962
Ġsix	113856
Ġworks	113829
ary	113716
Ġaddress	113660
co	113552
Ġcomplete	113527
Ġyoung	113429
ĠCity	113373
Ġdetermined	113269
Ġpresence	113267
Ġmedical	113134
Ġstatic	112667
Ġevents	112608
Ġgenes	112404
Ġ23	112279
__	112187
]\]	112015
](	112007
ĠInc	112007
Ġpolitical	111954
ING	111905
Ġoutside	111871
čĊĠĠĠ	111832
Ġpressure	111780
Ġsense	111655
Ġarray	111624
be	111534
47	111514
Ġdate	111324
Ġeffective	111147
Ġtypes	111081
Ġsubject	111050
Ġoutput	111000
ĊĠĠĠĠĠĠĠĠĠĠĠĠĠĠĠĠĠĠĠĠĠĠĠ	110998
Ġprimary	110953
od	110899
Ġlanguage	110766
Ġelement	110563
Ġfollow	110505
])	110473
not	110383
Ġeverything	110361
Ġ&&	110339
49	110329
eta	110117
ĠTHE	110105
ry	110032
With	109881
led	109857
Ġrest	109743
Ġbad	109697
ĠMay	109678
Ġla	109663
Ġphysical	109662
Ġfeatures	109634
ĠÂ±	109625
Ġlonger	109598
ally	109443
ce	109408
AC	109347
Ġnear	109273
+\	109208
Ġinside	109197
Ġdetermine	109108
Ġpresented	108872
Ġeasy	108810
AS	108773
($	108672
View	108580
Ġjudgment	108551
Ġquite	108506
Ġidentified	108455
Ġcreated	108442
=\	108402
app	108391
Ġstop	108271
ley	108263
Ġinitial	108204
ĊĠĠĠĠĠĠ	108203
public	108193
ator	108177
Ġ28	108176
Ġrunning	108131
per	108099
bf	108067
Ġbreak	108056
Ġsamples	108033
IN	107860
Ġbasis	107819
te	107791
ĠString	107769
Âĥ	107572
Ġwhite	107460
Ġformer	107412
Ġparameters	107381
Ġwanted	107253
xi	107137
$\	107125
}$,	107069
My	107065
array	107003
Ġstatus	106989
Ġfollows	106971
Ġred	106905
ists	106838
AP	106821
Ġstatement	106810
";	106720
Ġfront	106614
Ġmember	106610
ial	106484
no	106469
)}	106461
46	106435
Ġareas	106228
Ġpersonal	106040
66	106029
Ġst	106015
Ġrespect	105904
Ġcross	105834
Ġisn	105699
Ġelements	105447
77	105418
ĠLicense	105275
Ġweeks	105175
list	105076
ical	105072
Ġdirectly	105064
94	105063
Object	105033
ase	104798
Ġground	104632
96	104538
Ġquestions	104490
Ġago	104481
67	104274
Ġrelationship	104227
ob	104195
88	104069
Ġmemory	103907
ance	103836
{{\	103765
Ġrequest	103759
let	103696
og	103685
Ġforce	103672
Ġsearch	103613
Ġnatural	103562
Ġgames	103503
ize	103367
Ġtheory	103365
(-	103335
IC	103289
red	103266
ou	103155
ling	103147
41	103088
53	103058
ri	103007
Ġtraining	102974
Ġcontext	102896
Ġindex	102830
AL	102747
}(\	102615
âĢĲ	102576
sp	102425
Ġ(\[	102349
\\	102295
les	102277
rangle	102157
Ġcontinue	101977
ps	101918
ĠDNA	101732
ite	101705
cal	101677
Ġ$$	101574
tilde	101561
98	101561
Ġbuilding	101536
ĠCD	101529
Ġbehind	101496
}$.	101384
Ġdef	101078
Ġgreater	101024
Ġapplied	100852
Ġdifficult	100798
width	100662
Ġacid	100645
Ġlimited	100591
Ġvideo	100516
Ġmice	100425
Ġmonth	100335
Ġinter	100298
Ġrequire	100296
Ġrelease	100209
Ġdistrict	100177
Ġpreviously	100166
Ġ26	100115
ĠSuppose	100089
Ġdeal	100005
Ġwrong	99934
Ġtitle	99933
Ġincludes	99899
are	99896
Ġreduced	99878
Ġsaw	99875
ĠJohn	99809
Ġnews	99799
cdot	99787
AT	99708
ĠTherefore	99701
".	99637
over	99619
ĠDr	99493
Ġability	99430
Ġen	99409
ĠOur	99340
iv	99120
68	99088
Ġtax	99043
ov	99040
Ġdrug	98978
85	98911
void	98908
Ġmessage	98905
ÃĤ	98880
Ġstyle	98839
Ġ60	98820
Ġclaims	98739
Ġknowledge	98705
Ġdeveloped	98688
Ġarticle	98546
Ġflow	98290
56	98252
Ġlayer	98247
Ġcontact	97985
ST	97963
ph	97957
().	97956
ier	97949
97	97893
ĠĠĠĠĠĠĠĠĠĠĠĠ	97889
\])	97825
cl	97485
Ġinvention	97477
Ġdis	97460
Ġmap	97400
Ġcut	97360
from	97306
ide	97304
Ġsoftware	97260
ang	97251
ore	97234
path	97112
Ġgas	97041
Ġoil	97036
Ġindependent	97005
Ġwrite	97004
57	96980
Ġhttp	96962
with	96960
ms	96858
Ġsuper	96755
av	96750
Ġbuild	96672
sub	96666
Ġnumbers	96626
Ġplayers	96602
const	96598
Ġwritten	96579
![	96430
Ġdouble	96370
Ġword	96353
Ġreference	96352
Ġ2012	96329
:**	96316
Ġfollowed	96263
Ġcoming	96190
Ġparticularly	96082
AN	96081
ĠPresident	96074
its	96070
ĠCounty	95991
ex	95968
Ġdirect	95783
54	95774
ĠSince	95752
ke	95555
field	95533
Ġ27	95481
ner	95473
Ġleave	95469
Ġimpact	95400
Ġactive	95399
ĠAct	95387
Ġobtain	95363
Ġsp	95358
Ġsecurity	95340
IS	95300
ĠWhile	95276
ik	95054
Ġnegative	94955
Ġunit	94854
Ġpain	94846
Ġdefault	94840
au	94689
ill	94461
Ġ[*	94429
Ġentire	94375
At	94245
ics	94208
ĠHis	94184
Ġnature	94091
Ġspecies	93981
Ġusually	93973
Ġrule	93688
Ġrates	93645
Ġdifferences	93628
Ġpro	93454
Ġliving	93446
OR	93439
Ġoffice	93417
ma	93309
Ġalthough	93284
ĠHere	93259
Ġanswer	93223
Ġ2013	93207
Ġwhose	93188
Ġnote	93105
Ġact	93073
con	93058
Ġpractice	92977
ĠWorld	92959
Ġtried	92932
Ġargument	92797
Ġbrain	92796
Ġhold	92785
Ġetc	92752
AR	92713
sh	92634
Ġonline	92619
AD	92609
my	92441
Ġ2016	92441
Ġcorresponding	92280
js	92279
Ġgenerally	92216
52	92202
CT	92184
Ġlost	92183
Ġblock	92142
IP	92111
..	92106
Ġrecently	92070
ĠSouth	92063
ise	91985
psi	91971
Ġnational	91876
Ġbar	91761
Ġ2014	91714
Ġthemselves	91675
net	91636
item	91599
čĊ	91599
Ġplaintiff	91564
Ġhope	91563
Suppose	91485
Ġanyone	91444
Ġapp	91423
Ġtakes	91337
Ġlate	91283
Ġproposed	91269
Ġcountries	91242
Ġagreement	91121
..."	91053
max	90955
Ġ?	90951
Ġglobal	90906
Ġcl	90753
Ġshare	90709
ĠâĪĴ	90682
Ġsaying	90678
Ġdensity	90523
function	90417
Ġ/>	90413
Ġwar	90394
Ġland	90218
Ġtreated	90195
EN	90032
Ġforward	89969
ĠII	89963
ach	89962
yl	89931
ĠMarch	89891
Ġhimself	89702
Ġsh	89636
ĠHouse	89554
ĠHow	89492
user	89478
Ġsituation	89399
51	89298
86	89272
less	89183
Ġpurpose	89183
Ġfederal	89171
Ġenvironment	89107
Ġcenter	88896
File	88887
Ġ29	88798
Ġbecame	88699
Set	88687
Key	88661
ĠChina	88646
Ġ2015	88593
Ġrelative	88554
ĠAmerica	88548
epsilon	88538
Ġpretty	88519
59	88333
Ġways	88313
One	88209
like	88015
ts	88004
Ġfailed	87960
ĠĠĠĠĠĠĠĠĠĠĠĠĠ	87932
78	87924
Ġpublished	87796
Ġtalk	87750
By	87705
}}$	87672
Ġoffer	87595
ĠDepartment	87586
ments	87509
state	87426
Ġmoment	87421
CC	87367
Ġ);	87351
Ġlegal	87313
003	87308
58	87282
pe	87273
varepsilon	87226
ions	87219
Ġhighly	87169
Omega	87155
ub	87134
Ġwoman	87016
ĠNorth	86949
Ġprice	86945
Ġfindings	86934
Ġcontract	86926
str	86870
ĠDe	86867
Gamma	86857
Ġallowed	86822
Ġderivative	86739
IT	86675
Ġselected	86631
ĠSome	86619
Ġcharge	86613
Ġlimit	86557
ĠĊĠĠĠĠĠĠĠĠĠĠĠĠĠĠĠ	86510
Ġnode	86465
Ġdegree	86447
base	86393
Ġoperation	86355
off	86326
Ġcomponent	86256
mm	86222
ĠNot	86218
ĠFirst	86113
ĠSystem	86106
nd	86065
Ġstage	86040
Ġlarger	85998
Ġdesigned	85987
Ġmeasured	85985
pl	85917
Ġgave	85913
that	85908
Ġart	85898
Ġbring	85872
ĠIN	85869
ative	85852
Ġjury	85789
Ġconstant	85744
.'	85707
Ġinstance	85687
br	85683
Ġdetails	85613
ile	85609
Ġpass	85554
Ġindividuals	85423
Ġle	85368
$$	85344
ĠGeneral	85329
An	85310
ai	85298
Ġimages	85150
Ġeveryone	85128
Ġcurrently	85051
ks	85043
Ġdirection	85030
Ġcaused	85027
ĊĠĠĠĠĠĠĠĠ	85015
Ġfocus	85007
ty	84933
Ġalone	84897
App	84819
Ġsent	84808
Ġmin	84742
Ġfriends	84728
Ġbackground	84718
Ġlocation	84693
ure	84663
Ġproteins	84630
Ġbehavior	84595
Ġcharacter	84525
Ġ;	84517
)=	84504
Ġwasn	84504
index	84496
Ġ2011	84496
ĠJune	84451
ĠNow	84417
Ġgives	84392
63	84265
Ġcomponents	84222
ow	84184
Ġ[**	84183
ĠAlthough	84172
Ġeyes	84118
Ġask	84102
ful	84095
document	84092
ĠFig	84092
Ġ2010	83997
ically	83946
Ġmet	83888
Ġmatrix	83881
Ċĉĉĉĉ	83876
Error	83875
She	83803
Re	83784
Ġchoice	83734
Ġscale	83694
Ġrequires	83692
ass	83643
Ġ:=	83546
ĠLe	83523
Ġattention	83421
###	83396
Ġfixed	83386
CH	83188
Ġcompanies	83167
Ġbegan	83018
Ġknew	83010
ĊĊĊ	82979
AM	82970
we	82956
Ġleading	82729
"><	82720
Ġwin	82671
Ġoptions	82657
Ġ2017	82609
Ġdisplay	82589
Ġmother	82553
St	82546
Ġ///	82460
Ġfailure	82416
(),	82359
0000	82182
)$.	82167
Ġfinancial	82127
Ġmanagement	82122
Ġfrequency	82099
Ġusers	82060
76	82026
ok	82013
Ġ->	81981
Ġunique	81810
Ġeducation	81782
ĠOR	81724
ue	81720
Ġratio	81525
Ġtechnology	81515
Ġsc	81514
84	81468
čĊĠ	81408
ud	81385
Ġcontains	81381
izing	81338
sc	81324
Ġfiles	81202
Ġcount	81183
Ġson	81156
Ġmicro	81119
Ġdivided	81090
Ch	81060
ind	81056
Ġcompletely	81008
Ġprime	80982
Ġincreasing	80968
72	80893
ĊĠĠĠĠĠĠĠĠĠĠĠĠĠ	80858
Ġcosts	80784
Ġconnection	80778
Text	80748
ets	80714
Ġled	80595
Ġseem	80506
Ġse	80479
Ġparts	80443
Ġlack	80426
Ġoption	80403
Now	80381
Ġapply	80345
term	80323
Ġorg	80311
Ġindustry	80290
Ġparties	80283
iz	80259
Ġsuggest	80251
Ġexpect	80226
ĠJanuary	80217
Ġserver	80192
ĠApril	80080
');	80069
Ġappropriate	79933
Test	79907
Ġearlier	79886
Ġheat	79801
ane	79739
());	79672
cm	79660
ĠĠĠĠĠĠĠĠĠĠĠĠĠĠ	79658
Ġfine	79650
Ġexpressed	79577
ĠJuly	79491
Ġoverall	79478
Ġ\<	79472
Ġdistance	79393
Ġsupported	79274
Ġlink	79234
Ġgenerated	79231
varphi	79210
ability	79171
land	79164
Ġestablished	79104
Ġstated	79095
Ġ31	79090
Ġallows	79041
Ġdevices	78962
Ġequal	78887
Ġuseful	78767
Ġeasily	78732
ĠCir	78639
Ġstay	78633
From	78607
They	78602
so	78595
Ġ<<	78567
89	78492
her	78468
}_{\	78449
SE	78441
MS	78424
Ġsites	78416
fn	78410
val	78407
čĊĠĠĠĠĠĠĠ	78391
Ġcontaining	78360
Ġreasons	78315
ars	78309
back	78246
74	78176
Ġfinding	78094
Ġsign	78077
OS	78036
Ġsoon	77915
Ġhighest	77773
Ġmeasure	77768
Ġcritical	77741
='	77722
Ġlocated	77721
Ġcopy	77597
Ġ32	77587
me	77514
Ġproduced	77507
Ġhost	77494
Ġstress	77460
Ġactivities	77429
Ġeconomic	77383
Ġexcept	77302
ij	77297
Ġfiled	77202
Ġnotice	77138
._	77122
Ġreduce	77077
Ġrelevant	77064
Ġfire	77042
LE	77019
Ġclearly	76913
Ġactual	76845
93	76802
sim	76793
){#	76777
ain	76756
Ġauthors	76751
Ġgoal	76739
87	76707
Ġfelt	76693
Ġmode	76686
Ġcentral	76623
ron	76596
Ġstore	76590
}^{\	76574
Ġopinion	76539
Ġvariable	76536
Ġappeal	76532
ON	76530
62	76510
title	76495
ys	76475
\].	76459
form	76339
Ġhit	76303
ĠWest	76289
ĠAND	76279
Ġpattern	76157
Ġex	76150
Ġ($	76035
Ġwriting	76027
92	75998
ep	75989
"/>	75967
art	75931
top	75918
Ġvs	75910
Ġwebsite	75800
chi	75767
Ġpresident	75760
az	75747
Ġweb	75745
Ġboard	75696
Size	75695
Ġinjury	75667
Ġchanged	75651
Ġbrought	75624
ants	75572
Ġparameter	75517
PS	75516
overline	75489
Ġshowing	75464
200	75432
âĢĥ	75360
Ġsmaller	75351
002	75350
Ġreceive	75327
pp	75318
Ġgoes	75251
ĠId	75220
Ġuses	75212
Ġexperiments	75170
Ġ!	75162
ĠĠĠĠĠĠĠĠĠĠĠĠĠĠĠ	75153
*.	75108
Ġ2008	75089
Ġlearning	75053
Ġcorrect	75053
Ġwidth	74974
ess	74971
Ġappears	74954
Ġrules	74923
Path	74906
dev	74905
)*	74887
operatorname	74861
Ġitems	74819
83	74784
langle	74778
Ġfast	74766
Ġ__	74747
Ġ35	74724
use	74715
Ġvector	74705
link	74701
['	74682
Ġlooks	74661
Ġbeyond	74650
91	74632
Ġheard	74631
Ġremains	74595
static	74583
Ġculture	74583
ina	74572
|\	74548
ium	74503
61	74497
':	74468
Ġbuilt	74424
ĠFrom	74325
}=	74305
Ġunderstanding	74257
ff	74249
Ġhearing	74208
Ġmeet	74128
Ġbox	74058
Ġtumor	73902
Ġlooked	73899
CD	73837
box	73836
Ġturned	73814
79	73795
Ġworked	73729
qu	73691
Of	73661
Ġtowards	73659
\'	73628
Ġdi	73616
73	73612
ĠOr	73486
Ġmajority	73455
Ġones	73289
ĠApp	73263
Ġplease	73245
ox	73238
Ġbinding	73229
Ġspeed	73212
Ġregarding	73202
Ġvariables	73195
Ġinternal	73176
aw	73169
True	73168
Ġproduce	73162
Info	73156
Ġdecided	73134
ĠHealth	73100
After	73052
Ġappear	73042
)).	73034
Item	73023
State	73019
Ġexists	72999
81	72968
Ġtherapy	72871
Ġstaff	72868
Ġchar	72863
ii	72858
Ġbenefits	72821
ax	72780
Ġfully	72771
ĠDistrict	72674
Ġconcentration	72635
way	72620
day	72619
ĠIS	72611
Ġimprove	72595
Ġdoor	72587
Ġtissue	72586
ĠAugust	72532
Ġcomputer	72522
Ġparents	72494
};	72463
)-	72463
Ġreports	72451
Ġmilitary	72419
read	72401
cc	72391
Ġresulting	72363
ĠBe	72351
Ġ2009	72348
82	72317
Exception	72311
Ġ^	72276
Ġtrans	72268
)^	72203
Ġcampaign	72140
Ġprevent	72069
Ġexactly	72064
Ġmatch	72007
Ġcouple	72005
our	71954
Ġindicated	71897
Context	71817
Ġinfection	71792
Ġfather	71772
ĠOctober	71763
Ġsetting	71707
Ġmedium	71698
free	71692
Ġwrote	71676
Ġcom	71618
ĠCon	71603
Ġandroid	71572
Ġinteresting	71566
Ġmorning	71552
ler	71504
ĊĊĠĠĠĠĠĠĠĠĠĠĠ	71487
Ġhands	71474
big	71469
ines	71379
Ġlearn	71358
Ġsuccess	71287
amp	71282
struct	71250
Ġmaterials	71225
def	71183
Ġreading	71179
Ġfl	71163
Ġvehicle	71139
ities	71109
Ġcommand	71097
Ġplayed	71096
IL	71089
Ġfeature	71080
ĠSeptember	71067
map	71016
)$,	70991
lib	70987
ised	70886
nbsp	70868
Ġfun	70846
Ġavoid	70812
ĠDecember	70788
Ġmeeting	70704
Ġgets	70693
vec	70684
Ġskin	70640
Ġseparate	70541
Ġreasonable	70533
Ġdefine	70506
Ġproof	70385
ĠPhys	70360
Ġreaction	70309
Ġ2018	70294
Ġplayer	70259
Ġconstruction	70255
Ġfields	70223
Ġheight	70152
Ġfriend	70109
Ġapplications	70107
":"	70103
Ġstarting	70103
ĠPro	70065
Ġzero	70058
Ġexist	70051
ong	69919
Ġmaximum	69877
Ġthroughout	69873
Ġparticipants	69810
Ġvolume	69715
Ġtask	69713
Ġnoted	69711
ators	69701
Ġdamage	69689
Ġprocesses	69673
ĠData	69670
ton	69635
Ġregions	69627
Ġdomain	69616
Ġformation	69590
Ġlinear	69555
ver	69547
Ġtransfer	69539
Ġconnected	69538
color	69534
NA	69507
Ġclosed	69460
Ġsafety	69441
Ġpoor	69400
Ġlives	69391
Ġitem	69384
Ġdrive	69357
ana	69354
ice	69328
Ġnor	69319
Ġbecomes	69317
Ġformed	69310
ĠBecause	69290
Ġcontrast	69286
ology	69233
Ġfit	69232
Ġsources	69209
Ġdes	69171
Ġadministration	69154
SS	69140
input	69133
true	69101
son	69035
view	69006
Ġerr	68938
Ġrevealed	68925
ĠMore	68879
Ġinternational	68870
Ġscore	68863
Ġinteraction	68859
Ġhospital	68749
err	68742
Ã¡	68730
ĠSection	68676
Ġfall	68664
]:	68649
}}_	68633
Sh	68619
Ġvisit	68585
Ġcollection	68509
ec	68506
Ġotherwise	68504
Ġbasic	68484
Ġtests	68467
Ġroot	68453
ĠNovember	68447
ix	68409
Not	68363
RE	68354
ash	68346
java	68339
ck	68276
IR	68238
Ġimmediately	68237
info	68188
Ġequation	68154
ĠMoreover	68070
New	68057
II	68053
Ġwindow	68041
Ġextra	68023
*~	67997
length	67988
ĠCenter	67968
Ġrandom	67931
which	67902
ds	67889
image	67876
Ġreduction	67823
Ġactions	67820
Ġ80	67818
Ġcolumn	67813
Ġreleased	67809
AG	67757
ĠUSA	67757
Sec	67706
ĠWashington	67684
Ġopportunity	67616
Ġsex	67608
Ġtoward	67590
ick	67565
Ġpaid	67512
ade	67510
Ġinfluence	67505
Ġmechanism	67481
Ġgiving	67478
^{(	67458
ĠOf	67390
node	67310
Ġwide	67247
Ġ90	67207
rightarrow	67101
Ġconsistent	67087
Ġcombination	67085
Ġidentify	67054
ĠÃĲ	67036
Ġfigure	67021
Ġtesting	67001
Ġdocument	66972
Ġdeep	66924
Ġdefense	66920
71	66890
php	66851
Ġrelatively	66815
group	66812
ĠDo	66750
\,	66723
mathfrak	66721
Ġ/**	66700
Ġensure	66698
Ġsometimes	66690
geq	66667
Ġresources	66588
ĠĠĠĠĠĠĠĠĠĠĠĠĠĠĠĠ	66561
Ġresistance	66556
Ġforms	66555
CA	66547
False	66498
Ġcover	66466
Ġphone	66459
Ġstd	66408
Ġsolid	66378
Ġroad	66329
Ġquickly	66301
Ġfunctional	66293
Ġclient	66292
related	66199
*-	66166
Ġmiddle	66109
Ct	66081
Ġthinking	66077
Ġwall	66046
';	66042
Ġ200	66029
Ġstand	66010
error	65986
ĠPM	65982
Ġchance	65968
Node	65946
Ġ(**	65909
Ġmyself	65885
Ġprocedure	65842
Ġhappen	65811
Ġplant	65735
Ġplaying	65711
Here	65689
Ġtown	65689
ĠTable	65650
Ġnearly	65636
Ġchoose	65582
Ġremove	65568
ire	65567
ĠSchool	65556
ĠIL	65518
Ġportion	65506
Ġproviding	65479
uk	65468
Ġmovement	65468
Ġmoved	65444
Ġdetected	65424
Ġten	65416
Ġhappened	65396
Ġagree	65393
Ġconducted	65372
Ġcounsel	65350
Ġdatabase	65348
Ġbottom	65341
Ġmoving	65249
Ġexisting	65220
Ġregular	65215
Ġcore	65210
Ġobjects	65190
af	65180
ĠObama	65075
Ġready	65047
Ġchannel	65023
Ġreach	64972
Ġtool	64901
arg	64884
Ġdaily	64877
ĠTh	64873
Ġsteps	64866
ĊĊĠĠĠĠĠ	64856
500	64831
Ġcalculated	64808
ĠEx	64800
Ġfacts	64780
quad	64766
.\	64749
Ġbuy	64680
Ġfinally	64676
ats	64672
Class	64668
Ġlog	64645
Ġanimals	64604
^*	64585
.[	64516
\],	64513
ber	64491
Ġindicate	64483
Ġyourself	64422
Ġattack	64408
Ġdemonstrated	64294
Ġnearest	64258
PA	64246
ĠSe	64216
Ġremain	64163
Int	64127
ters	63924
Ġunits	63919
%,	63908
Ġsafe	63902
Ġrepresent	63892
case	63890
ĠAlso	63884
Ġdefinition	63864
())	63842
Ġpar	63812
Ġsort	63805
Ġhot	63805
Ġcomments	63802
Ġprove	63761
ene	63744
AB	63711
Ġperfect	63694
Ġupper	63672
ĠPublic	63657
ĠNULL	63645
Ġsound	63643
pro	63636
######	63634
Ġremember	63578
ee	63569
ĠCalifornia	63518
TR	63513
ns	63503
Ġtrade	63503
Ġcapacity	63437
py	63418
row	63415
ĠSan	63384
ible	63354
Ġcarried	63324
Ġsufficient	63316
Ġremoved	63315
Ġplaced	63254
Ġseven	63182
Ġsend	63179
Ġres	63168
Ġprocessing	63158
ale	63096
but	63074
[^	63009
Ġvariety	62955
US	62954
Ġ37	62906
Ġblue	62902
Ġsets	62825
Ġhear	62813
Ġshape	62781
Ġwife	62747
ting	62721
Ġ45	62705
IM	62656
mer	62649
els	62621
Ġscreen	62598
Ġ(\	62597
ĠFebruary	62594
Ġoperator	62593
Ġdistributed	62569
Ġbenefit	62565
script	62555
Time	62501
[]	62482
Ġpackage	62412
Ġselection	62381
Ġmg	62363
Ġ2007	62349
Ġ]	62276
Ġsuggested	62171
go	62162
ĠSp	62160
Ġcomment	62147
Ed	62145
Ġrow	62128
ĠEven	62127
ĠGet	62107
Ġmachine	62098
ĠCal	62074
Ġonto	62030
Ġstar	61920
ĠFigure	61903
Ġemail	61899
","	61867
Ġnamed	61861
body	61853
Ġrace	61850
fe	61843
,-	61840
]\],	61833
LL	61832
Ġcon	61819
Ġprograms	61791
Index	61762
Ġcomparison	61689
ĠĠĠĠĠĠĠĠĠĠĠĠĠĠĠĠĠ	61677
EL	61659
Ġworkers	61637
Color	61610
Ġqu	61606
Ġhealthy	61527
Ġworth	61497
Ġincreases	61470
db	61428
Ġmagnetic	61410
ĠEuropean	61365
Ġframe	61321
ren	61309
Ġexposure	61288
Ġserious	61248
ino	61237
ĠID	61185
Ġpassed	61142
Ġmaybe	61142
)**	61133
ml	61121
Ġletters	61115
ĠWhite	61092
start	61090
content	61085
Ġplaces	61060
Ġbegin	61047
Ġresponsible	61008
Ġmeasures	60990
Ġ\,	60983
ĠIndia	60980
Ġdiscussed	60970
Ġdark	60963
Ġreplacement	60949
SD	60941
att	60917
Ġsave	60854
config	60849
Ġapproximately	60808
Ġ95	60791
ung	60760
Ġprint	60737
Ġpicked	60736
Ġborder	60715
Ġletter	60706
Ġcharacteristics	60694
##	60675
Ġincome	60673
Ġmanner	60659
Ġgreen	60650
ata	60617
ĠBoard	60587
ĠAr	60553
Ġsymptoms	60549
Ġ70	60531
dot	60520
core	60514
Ġinsurance	60511
Ġdevelop	60505
Ġupdate	60490
url	60469
ĠRed	60441
Ġload	60363
Ġpick	60350
Ġdrugs	60285
Ġstructures	60256
ole	60234
Ġcircuit	60200
Ġtalking	60159
ĠResearch	60157
Ġbeginning	60098
ĠUK	60076
Ġessential	60052
Ġpair	60007
ger	60006
NS	60006
ĠMar	59994
Ġcontinued	59979
"},	59945
ĠWar	59933
Ġret	59857
Ġmodern	59826
Ġpanel	59812
ta	59755
bm	59753
Ġmale	59741
Ġ~	59739
Ġtestimony	59692
Ġ36	59678
}}(	59662
Ġque	59649
Ġsl	59626
Ġtransition	59622
ied	59586
Ġeffort	59586
Ġassume	59586
Ġactivation	59552
Ġreturned	59519
)/(-	59509
Ġhappy	59425
Ġedge	59387
Ġbl	59364
ĠFurthermore	59343
ich	59309
čĊč	59307
Oh	59298
Ġdetection	59291
count	59264
ĠUn	59243
Ġeight	59215
ĠCl	59211
004	59209
Ġsum	59201
Ġstock	59201
Ġstuff	59176
Ġ});	59145
Ġtree	59125
Ġnice	59113
Ġinvestigation	59097
ret	59079
ost	58936
Ġproper	58828
Ġkids	58793
Ġpopular	58771
ning	58736
version	58643
Ġ48	58619
Î±	58610
Ġdescription	58601
\<	58482
ÂŃ	58432
Ġ((	58391
SP	58377
Ġtruth	58340
ĠEnglish	58327
Ġexercise	58307
Map	58305
ence	58280
},\	58253
Ġwalk	58228
source	58155
ng	58102
Ġinterface	58100
ification	58084
Ġhair	58065
ort	58063
bl	58061
Ġmusic	58053
Ġspent	58048
ĠTO	58042
Ġspecifically	58029
/(-	58019
ĠAd	58018
Ġdenied	58007
Ġchallenge	57992
Ġplans	57979
Ġsurgery	57945
Ġperform	57921
ray	57915
Ġround	57895
Ex	57886
Ġfamilies	57872
Ġstrategy	57824
ĠPat	57819
Ġsolutions	57769
Ġalternative	57734
Ġserve	57729
ĊĠĠĠĠĠĠĠĠĠĠĠĠĠĠĠĠĠĠĠĠĠĠĠĠĠĠĠ	57723
iss	57696
Ġtested	57670
Ġ2000	57603
Ġwait	57602
Ġdead	57579
Ġofficials	57572
Ġcareer	57531
ĠInternational	57509
Ġcouldn	57496
Ġsummary	57485
Ġwants	57442
Ġmeaning	57433
Ġmentioned	57428
ldots	57342
Ġstrength	57326
Ġelection	57312
Ġ2006	57300
Ġpress	57292
Ġimport	57215
ĠST	57214
Ġad	57151
Ġtr	57120
Ġspin	57116
ĠList	57108
Ġaffect	57055
Ġprepared	57029
gl	57007
Â¾	56986
Ġconduct	56972
Code	56902
Ġofficial	56885
Ġleads	56868
Ġnames	56865
Ġdespite	56862
*)	56834
Event	56799
Ġstudent	56784
Ġunless	56773
Ġagent	56740
Ġfemale	56718
Ġcycle	56680
Ġstudied	56647
Ġmodule	56604
Ġimproved	56573
Ġmid	56521
Ġnuclear	56511
ss	56499
Ġtypically	56478
Ġcombined	56463
ym	56447
Ġexplain	56418
Ġmetal	56416
Ġeye	56397
Ġab	56381
({\	56361
]^	56343
Ġselect	56322
ert	56306
Ġjudge	56287
ru	56276
ĠYour	56271
Ġbillion	56267
Ġexperimental	56243
ĠAm	56234
Ġclean	56233
Phi	56224
init	56216
Ġshot	56204
Ġgrowing	56204
Ġcontrols	56167
Ġball	56159
Ġplus	56156
Ġbound	56139
Yes	56119
Ġentry	56111
Ġcommunication	56103
Ġ-->	56100
Ġsuccessful	56088
Ġminimum	56084
Ġvote	56064
Ġsurvival	56036
ET	56011
ink	56009
Al	55999
point	55963
Calculate	55912
ĠBl	55906
Ġconfirmed	55872
005	55846
((	55842
Ġattempt	55838
object	55836
Ġkilled	55791
Ġhour	55738
Array	55704
Do	55695
pr	55682
Cl	55656
api	55653
Ġth	55649
AA	55645
Ġforeign	55623
ĠDavid	55616
ĠCongress	55585
Ġmolecular	55561
Well	55545
Ġguy	55545
**)	55541
SC	55540
cap	55523
Ġcircumstances	55519
Image	55499
Ġinduced	55498
Ġsociety	55497
ĊĊĉ	55489
Ġpiece	55488
Ġcontain	55479
Ġperhaps	55445
Ġhttps	55445
ians	55422
Ġagreed	55387
dd	55377
Ġ33	55345
Ġraised	55324
ath	55313
Ġoperations	55296
ct	55267
Ġanalyzed	55250
github	55230
Ġprofessional	55218
Ġparent	55191
Ġreached	55186
Ġlinks	55181
ĠTV	55176
Ġwhereas	55150
ĠAM	55148
Ġcalls	55144
Ġaffected	55134
Ġbed	55120
Ġdied	55100
Ġassociation	55061
Ġtools	55053
ĠCode	55053
Ġfeet	55032
otimes	55006
Ġemployees	55002
Ġofficer	54988
Ġclasses	54987
Ġliquid	54983
Ġnil	54981
Ġhandle	54980
Ġwatch	54930
"></	54921
ĠMost	54862
ĠCan	54857
PL	54835
ĠMan	54825
Ġcauses	54800
Ġsentence	54757
âĢ¢	54724
OM	54701
Ġwouldn	54690
Request	54687
ĠNews	54612
Ġprobability	54609
Ġprotect	54591
ev	54557
ĠHigh	54556
prime	54527
Ġkept	54523
ose	54517
ĠNote	54503
ef	54467
.](	54440
Ġ34	54423
^[@	54411
ha	54409
']	54403
Ġefforts	54383
Ġsrc	54380
Ġmental	54377
oy	54372
Ġjava	54372
Ġcollected	54362
Ġsleep	54335
ĠPaul	54285
Ġtraditional	54274
Ġoccurred	54247
Ġhuge	54237
*(	54235
ae	54198
Ġ(!	54192
boldsymbol	54178
Ġcredit	54152
Ġintroduced	54082
ĠĠĠĠĠĠĠĠĠĠĠĠĠĠĠĠĠĠ	54075
Ġrelation	54061
head	54042
Service	54023
Ġdiscussion	54006
Add	54004
Ġsuggests	53990
Why	53974
ĠPark	53963
MA	53955
Ġ("	53946
Ġnone	53893
Ġestimated	53884
using	53877
Ġcertainly	53856
Ġexplained	53801
Ġoccur	53795
Ġstorage	53787
Ġtechniques	53779
ĠLondon	53747
Model	53732
ome	53730
Ġcorrelation	53697
Ġdiagnosis	53682
ures	53670
Ġgun	53651
Ġstatute	53613
Lambda	53601
Ġremaining	53570
ari	53553
Ġmovie	53551
Ġprotection	53529
Ġsexual	53495
Ġgone	53474
Ġbill	53471
Ġappellant	53451
oh	53437
IF	53379
ui	53378
na	53319
Sigma	53304
Ġforces	53280
Ġwave	53266
ĠDon	53262
Ġcriminal	53259
Ġalgorithm	53258
Big	53248
Ġchain	53239
do	53170
ĠIsrael	53154
ĠGroup	53150
Ġbuffer	53128
Ġrequirements	53115
bs	53114
create	53091
Ġ2005	53080
Ġbiggest	53057
Ġband	53026
Ġvoice	53001
Ġvalid	52968
Ġcapital	52890
While	52875
Our	52859
*]{}	52835
ĠĠĠĠĠĠĠĠĠĠĠĠĠĠĠĠĠĠĠ	52812
EC	52787
Ġabsence	52779
Ġrecords	52774
/**	52757
Ġauthor	52756
ek	52714
Ġgeneration	52650
model	52546
Ġpicture	52530
ord	52515
Ġolder	52515
Ġorganization	52495
Ġresponses	52459
ality	52452
col	52449
ĠEl	52449
Ġmissing	52447
GL	52446
Ġserved	52421
ĠSch	52413
Ġwhom	52398
Ġlaws	52369
ĠEach	52337
Ġadding	52327
ĠEast	52313
pre	52307
PR	52302
tt	52279
bin	52276
Ġoffers	52270
Ġoptical	52259
Ġ""	52216
da	52203
reg	52199
Ġquantum	52182
)?	52156
Ġtrack	52155
PC	52147
Ġderived	52147
uc	52143
oid	52130
ational	52126
çļĦ	52113
Ġcreating	52110
bb	52038
ĠTexas	52028
Ġscience	52019
Ġsubjects	52018
čĊĉ	52016
Ġpurposes	51998
Ġ42	51996
Field	51963
rs	51960
Ġwild	51957
src	51921
CL	51920
ĠHer	51915
port	51904
Î²	51892
ering	51872
Ġeconomy	51868
ann	51866
Ġmon	51854
Ġexternal	51825
Ġassert	51791
Ġanimal	51790
DE	51788
Ġideas	51731
Ġintended	51702
Ġschools	51685
Date	51629
where	51597
ified	51533
Ġproperly	51517
ack	51508
Count	51469
Ġrepresents	51462
induced	51433
User	51423
Ġresolution	51420
Ġextent	51382
ĠBritish	51298
Ġdecreased	51290
Ġstation	51289
âĪĴ	51283
Ġdirector	51270
mbox	51214
Ġsummer	51212
level	51115
specific	51100
result	51097
Ġbi	51090
Ġ38	51084
Ġauthority	51041
ĠSupreme	51026
nonumber	50985
Ġmechanisms	50985
gen	50968
Ġport	50959
Ġprotected	50948
ĠRNA	50916
Ġvirus	50903
Ġachieve	50900
ĠEurope	50889
Ġlargest	50886
Ġattorney	50848
Ġmulti	50844
Ġfeeling	50842
Ġnet	50829
IA	50794
ious	50745
Ġinterests	50734
(&	50682
Ġteams	50670
Ġenter	50658
ensuremath	50639
Ġtechnique	50631
Ġmembrane	50626
TH	50615
Ġofficers	50601
mod	50550
Ġcrime	50521
However	50505
ĠGoogle	50505
_.	50502
Ġcontained	50502
Ġslightly	50439
OP	50431
Ġpoly	50405
Ġcounter	50391
Ġloop	50321
ĠLa	50314
Ġfear	50302
UN	50272
Ġarm	50264
ara	50231
0001	50221
Ġnovel	50200
Ġsales	50171
action	50135
Ġfight	50122
Ġdriver	50084
Ġshared	50081
Ġconcept	50036
Ġguys	50030
Ġcard	50025
Ġbool	50018
Ġdie	50002
Ġcharged	50000
Ġopening	49948
func	49941
Ġel	49931
Ġcharacters	49927
Ġlatest	49880
ĠJust	49877
Ġerrors	49873
fs	49869
Ġpl	49840
Ġprojects	49832
ents	49825
Ġrise	49812
ĠChinese	49806
Ġfloor	49757
Ġoffered	49747
ological	49731
ĠBlack	49729
Ġconventional	49704
.[@	49692
Ġsevere	49689
Ġholding	49687
ĠCommission	49686
Message	49673
Ġcoverage	49646
**]{},	49644
Ġannounced	49624
Ġbank	49615
ĠStreet	49584
ĠCanada	49582
ĠFoundation	49555
Ġexchange	49526
ĠTwo	49508
ĠĠĠĠĠĠĠĠĠĠĠĠĠĠĠĠĠĠĠĠ	49504
Ġtrust	49498
âĢĿ.	49479
Ġdescribe	49465
Ġentered	49443
Ġem	49415
Ġgain	49399
}-	49386
Ġagents	49354
Ġinteractions	49353
hen	49335
ĠFriday	49255
ica	49241
Ġsupply	49213
len	49206
Ġformat	49203
ake	49175
Ġblog	49144
ģ	49110
Ġdecrease	49103
ĠGreen	49059
Ġagency	48993
block	48984
style	48969
Ġgirl	48961
Ġanalyses	48960
EM	48955
See	48939
Ġdose	48936
Ġfilter	48935
Ġdog	48935
Ġprofile	48906
ĠCalculate	48904
Ġconcentrations	48888
ĠMe	48846
({	48840
Ġwish	48839
DS	48823
ĠCouncil	48797
ĠPeople	48795
well	48794
Ġoutcome	48789
eg	48772
Ġviews	48769
material	48761
ĠMc	48727
").	48720
ĠJames	48706
der	48701
summary	48700
âĢĬ	48689
vert	48686
Â½	48684
ust	48680
page	48675
Ġreceptor	48667
CS	48662
ĠLaw	48656
ĠRev	48638
Ġgenetic	48629
default	48613
nt	48598
čĊĠĠĠĠĠĠĠĠĠĠĠ	48595
ĠSuch	48552
pos	48546
Ġexistence	48542
Ġswitch	48538
OL	48509
Ġpossibility	48508
Ġcold	48500
atory	48493
Ġval	48486
Ġplants	48477
open	48465
.*	48465
Ġ"[	48449
Ġoperating	48446
aj	48429
Ġmotor	48429
CO	48414
Ġ+=	48403
Ġdriving	48394
Ġcompleted	48394
Ġgl	48358
Ġref	48349
Ġreturns	48335
cell	48320
che	48311
Ġpatterns	48299
Ġstars	48290
First	48288
Ġmax	48285
inter	48273
date	48252
rom	48250
Ġinteger	48246
Ġsignals	48236
Ġaren	48234
ft	48227
Ġbeautiful	48220
Ġwhatever	48205
ĠFOR	48160
Ġ2004	48157
ĠSub	48156
Ġidentity	48153
atic	48141
Ġheavy	48139
fl	48091
ĠBank	48085
Ġfat	48074
check	48040
circ	48037
BC	48018
Ġdiseases	48009
Ġinterested	47988
Ġcatch	47986
Ġalleged	47985
Ġgenerate	47975
Or	47892
FF	47892
Ġstable	47881
Ġfinite	47878
Ġ${	47872
Ġbutton	47863
ured	47800
util	47783
Ġequivalent	47783
Ġquery	47782
Ġappeared	47780
Ġ};	47774
Ġequipment	47752
Ġindicates	47751
char	47724
Ġha	47716
Ġimportance	47698
ĠService	47697
Ġstr	47685
property	47678
ĠMonday	47667
SA	47647
ress	47631
Ġspectrum	47628
Ġradio	47619
ano	47605
Ī	47600
arm	47598
Ġcontrolled	47529
Ġmobile	47525
Ġdoubt	47509
kappa	47502
ited	47479
}}}	47466
Pro	47462
Ġholds	47451
Ġfresh	47440
Ġcent	47437
widetilde	47436
nabla	47414
Ġdemand	47410
Ġconclusion	47398
:"	47395
Ġsequences	47393
ĠBoth	47361
Ġruns	47358
ĠWestern	47303
Ġconfiguration	47249
Ġstruct	47233
Ġhappens	47225
Ġadvantage	47191
Ġparticles	47175
Ġ2019	47153
gr	47064
Ġthrow	47064
System	47062
main	47057
Ġsecondary	47048
Ġdefendants	47044
Ġreality	47037
Ġmouse	47033
Ġfaith	46970
]{	46966
ides	46960
Manager	46953
eth	46950
]),	46937
ric	46904
la	46867
Ġmaintain	46865
ï¼Į	46861
Ġstraight	46854
Un	46848
}}_{	46824
Ġreferred	46818
Ġmeasurements	46802
Ġdigital	46784
ĠĠĠĠĠĠĠĠĠĠĠĠĠĠĠĠĠĠĠĠĠ	46783
Ġprogress	46779
lin	46746
ug	46729
Ġsoft	46628
post	46615
Ġring	46611
ĠAccording	46609
order	46607
Ġsession	46605
Ġcontinuous	46585
ĠInstitute	46570
ĠPost	46543
ith	46531
Ġseemed	46514
Ġdeveloping	46467
ĠBar	46464
Ġtravel	46454
Ġdrop	46430
IV	46408
Ġcommercial	46397
Ġstatements	46378
ĠCar	46365
Ġaccept	46338
Ġexpress	46337
}}{	46319
Ġnoise	46318
itt	46294
Ġlibrary	46282
hes	46280
false	46271
Ġ500	46257
ĠCH	46227
Ġexperiment	46190
Ġnation	46185
ĠTr	46176
2015	46142
Ġspeak	46142
has	46132
ĠYes	46086
height	46068
istic	46058
ze	46053
Ġchronic	46035
ĠSmith	46032
Ġbalance	46003
Ġremainder	45994
Ġrepresentation	45985
ĠNOT	45980
Ġleaders	45975
run	45953
....	45948
ĠSet	45944
ging	45943
Ġchemical	45918
Ġenvironmental	45909
fully	45906
Ġjobs	45906
ĠCompany	45889
Ġcollege	45885
Ġapproved	45872
eb	45869
Ġplatform	45862
ÃĹ	45853
Ġshift	45841
bo	45829
ĠFacebook	45739
Ġcarry	45731
Ġlatter	45721
Ġissued	45681
Ġliver	45670
ered	45631
Ġhyper	45616
Ġborn	45599
Ġextremely	45584
bit	45577
Ġclub	45557
ini	45552
Ġspeech	45551
PP	45508
Ġeat	45506
Ġknows	45477
Ġempty	45455
.$$	45443
ĠMichael	45443
Ġauto	45425
ĠSunday	45416
Ġestimate	45403
Ġscript	45379
Ġexamples	45375
Ġleader	45364
Ġabuse	45362
Ġcovered	45358
Ġcharges	45349
Ġslow	45348
Ġtransmission	45342
ĠInt	45326
Ġprob	45298
ĠGu	45293
Ġserum	45290
Ġexception	45290
ĠBig	45270
Ġahead	45250
Ġregulation	45234
Ġliterature	45224
ots	45220
ĠJapan	45202
CE	45187
ĠMac	45187
ages	45113
Ġsubstantial	45106
Ġaware	45106
CF	45098
Ġsigned	45089
Ġopened	45079
Ġhusband	45075
Ġfix	45075
act	45048
apache	45034
Ġimplementation	45027
dt	45024
ĠWhy	45021
Ġ()	45021
ĠEn	45020
BS	45017
Ġscene	44992
Ġfair	44981
Ġguess	44980
Ġfluid	44971
Ġcustomers	44939
Ġgrow	44925
ely	44908
Ġchurch	44888
ĊĊĠĠĠĠĠĠ	44868
Group	44843
Ġoccurs	44841
Some	44839
ĠTheorem	44771
Ġgraph	44767
Ġplasma	44755
Ġfootball	44755
Ġrecorded	44718
Ġdelivery	44696
Ġcompounds	44691
you	44677
num	44657
Ġdecisions	44656
Ġsw	44646
OT	44644
que	44617
rd	44609
Ġdiscuss	44608
write	44604
rel	44604
ĳ	44570
Con	44565
any	44554
Ġextension	44553
Ġreceiving	44529
Ġevaluated	44524
ged	44510
Ġnetworks	44502
dir	44489
Ġvisual	44477
Ġinner	44464
ory	44459
})$	44452
Button	44450
Ġallowing	44450
Ġcalling	44448
Ġexact	44439
Ġextended	44437
ca	44432
Ġleaves	44419
ĠAmericans	44414
Ġviolence	44385
dis	44331
Ġ75	44331
Ġhaven	44330
Ġpercentage	44316
ĠFrench	44316
Ġdigit	44293
ĠUnion	44290
.</	44288
first	44285
Ġoutcomes	44275
Ġestablish	44265
CP	44261
Ġconcerns	44223
Ġalcohol	44214
Ġassessment	44189
message	44176
Ġsubsequent	44173
endif	44172
Ġleaving	44163
Ġthousands	44158
ĠCommittee	44150
Ġ2003	44131
ĠKing	44117
Ġtestified	44102
Ġhelped	44100
Ġmm	44098
][	44095
ĠAD	44074
Ġmostly	44072
Ġmis	44052
Ġunderlying	44037
Ġowner	44034
und	44028
Ġimmune	44017
ĠLeague	44010
Ġbirth	44002
Ġarguments	44000
ĠFinally	43993
ĠCO	43959
Ġsale	43958
\{	43946
ĠTest	43946
Ġefficiency	43936
Ġinstall	43926
Ġim	43917
ĠDuring	43913
ĠTuesday	43901
oo	43900
vers	43864
Ġmuscle	43839
ĠUnder	43802
ites	43768
Ġrepresented	43765
Ġthank	43738
ĠUsing	43732
Ġcriteria	43722
Ġdel	43709
Ġcentury	43698
Ġraise	43670
ify	43666
)=\	43659
Ġro	43633
ĠĊĠ	43615
range	43607
Ġspread	43597
Ġgreatest	43589
mp	43583
Ġexamined	43577
ases	43569
++	43534
Ġsquare	43528
zeta	43525
2013	43521
lim	43498
null	43496
ld	43492
mon	43479
ime	43469
Ġspecified	43462
Ġlearned	43461
Property	43423
Ġeventually	43408
ĠDay	43405
Be	43399
Ġbooks	43396
)"	43389
ĠOther	43387
down	43384
Ġbreast	43366
Ġadult	43365
Ġ39	43357
Ġpowerful	43352
Source	43343
Ġra	43340
yn	43336
Ġne	43329
Ġevolution	43307
ama	43299
Ġcandidate	43288
Ġcurve	43269
Ġtransport	43264
RO	43235
Ġdepends	43208
2014	43199
Ġlimitations	43191
2016	43178
Ġcool	43166
ĠMany	43152
Ġpositions	43133
Ġinterview	43129
eng	43120
Ġlicense	43115
Ġpeak	43091
ht	43085
Ġscheme	43035
}+	43019
ĠCA	43019
Ġplane	43015
ĠGermany	42997
Ġ64	42993
ĠJudge	42986
Ġvoltage	42981
font	42979
101	42968
di	42944
Cs	42942
Ġstream	42929
ĠâĢ¦	42927
Ġinvestigated	42926
ĠPress	42923
kg	42921
)*(	42914
Ġyes	42902
Config	42892
par	42886
ram	42878
Ġenjoy	42875
ids	42874
ĠAdd	42841
ham	42840
Ġachieved	42831
ĠĠĠĠĠĠĠĠĠĠĠĠĠĠĠĠĠĠĠĠĠĠ	42797
ĠScience	42789
Ġtypical	42771
?âĢĿ	42764
ode	42761
ĠIII	42755
Ġpathway	42734
Ġcustom	42727
Ġgoals	42713
Ġpurchase	42708
Ġ${{\	42686
Ġmixed	42685
ĠNone	42661
Ġchanging	42653
Ġpolicies	42635
ĠEq	42635
ĠCollege	42631
Ġglass	42616
Ġweak	42614
Ċĉĉĉĉĉ	42598
Ġcivil	42588
Ġ00	42585
Ġ44	42581
Client	42574
ĠCol	42572
ular	42545
Sub	42533
Ġprocedures	42533
Ġstandards	42526
dependent	42515
board	42512
supplementary	42498
Ġrecovery	42480
These	42459
Ġflat	42458
Ġfish	42456
Ġapplicable	42443
ĠAssociation	42442
Ġgranted	42430
Ġcomplaint	42430
inc	42413
Ġspend	42411
ros	42407
Ġfilms	42396
[\	42393
dots	42362
dimensional	42362
Ġ2001	42352
PD	42349
Ġsold	42347
izer	42344
ail	42333
exp	42332
Ġdiet	42332
men	42313
ĠArt	42312
ĠAT	42312
Ġcarbon	42299
local	42295
icon	42290
ĠGovernment	42290
ring	42284
Then	42265
xml	42202
Ġacts	42190
Ġisolated	42188
long	42168
MP	42146
Ġdesired	42085
ney	42064
Ġformula	42058
Ġevaluation	42041
Ġseeing	42034
print	42020
lang	41995
DA	41988
,'	41976
Ġeasier	41964
Ġbus	41958
ank	41927
Ġsubstrate	41922
BL	41892
json	41889
Ġlabel	41883
Ġsections	41857
Ġindeed	41845
Ġsurvey	41844
Ġstrongly	41829
Ġrelief	41821
Ġtraffic	41817
°	41808
Ġdetailed	41798
Ġfunds	41782
Ġinvestment	41760
ĺ	41757
Ġquick	41749
Ġbaby	41748
Ġbroad	41730
Ġobvious	41716
Ġchosen	41699
Ġfourth	41682
ĠCom	41679
Ġkill	41664
Ġ55	41664
button	41656
Don	41650
Ġentitled	41637
Ġ{{\	41634
Ġmaster	41630
OD	41604
2012	41604
Ġsell	41547
Ġfreedom	41547
Ġcategory	41539
Ġstored	41537
ĠMon	41454
md	41440
Ġcommitted	41437
Ġjoin	41428
}.	41423
}=\	41397
Ġdaughter	41397
Ġcluster	41397
Ġmeant	41378
Ġduty	41368
Ġconclude	41359
Ġconsidering	41339
gg	41336
Ġ65	41318
ĠWhich	41312
ă	41304
Ġdirected	41298
ĠEngland	41276
current	41271
Ġassay	41270
Ġspot	41269
osis	41218
ĠCT	41213
Ġpayment	41211
ptr	41206
cs	41203
Ġclick	41202
Ġthanks	41200
ĠFlorida	41180
Ġprices	41163
Ġwind	41146
ened	41132
Ġforced	41103
Ġdocuments	41098
Element	41089
Ġreligious	41082
ĠParty	41069
ark	41061
Ġdistinct	41023
2017	41013
Ġdebt	40995
Ġlisted	40994
300	40984
ĠChrist	40975
Ġcup	40958
ĠCa	40950
Ġvictim	40936
isation	40928
context	40923
Ġdraw	40901
pc	40884
ably	40884
iting	40872
ĠAS	40855
ĠThursday	40848
Ġdetermination	40839
Ġapparatus	40838
ĠCopyright	40827
Ġstories	40822
Ġequations	40816
Ġskills	40808
Ġconflict	40801
Ġfocused	40796
ops	40794
Ġcur	40788
ĠPl	40783
Ġdepending	40755
Ġplate	40746
df	40736
Ġ300	40730
Ġwaiting	40712
cd	40711
Ġlose	40699
Ġvirtual	40674
Ġplays	40670
_{{\	40658
Ģ	40652
}}^	40642
ĠWednesday	40635
Ġpush	40633
Ġresulted	40628
BA	40626
Ġ2002	40611
Ġfans	40595
Ġdry	40595
End	40564
Ġmeasurement	40560
Ġuint	40535
Ġconcern	40520
Ġobservations	40519
Ġpossibly	40514
scale	40491
Ġversus	40487
RS	40483
Ġmodified	40468
Ġpe	40462
Ġsmooth	40452
status	40447
Ġbelieved	40444
cdots	40421
ĠRussia	40414
"}.	40404
TT	40383
ĠHIV	40381
ĠCI	40379
Ġregard	40378
ĠWell	40369
Ġprotocol	40346
Content	40325
RT	40317
Ġtreat	40313
ĠTime	40301
Ġexcellent	40299
Ġassuming	40289
ÃŃ	40278
'.	40252
event	40246
Ġneither	40223
Result	40222
Ġnodes	40209
Since	40196
Ġfees	40183
Ġangle	40181
Ġfoot	40171
Ġincident	40168
FA	40145
Ġfloat	40144
Ġoffense	40134
ual	40126
Ġtwice	40095
ble	40091
Ġpr	40083
ives	40079
Ġemployed	40062
Ġapproaches	40046
Ġcommunities	40042
Ġinf	40037
Ġtend	40034
DB	40028
Ġdamages	40008
Box	40001
^âĪĴ	39998
inf	39984
Ġtouch	39952
Ġcompare	39949
Ġdetail	39937
ĠFree	39903
section	39894
Ġstreet	39888
ĠSc	39882
Ġplanning	39881
Ġrel	39874
\*	39860
Ðµ	39859
Ġmanager	39845
Ġ41	39844
&\	39813
ĠWeb	39805
Ġresource	39799
Ġinvestigate	39796
sl	39792
PT	39788
Ġstanding	39765
format	39748
Ġsalt	39746
ont	39722
Ġdelay	39718
ĠRes	39717
Ġscores	39698
ĠWindows	39691
ky	39687
ka	39674
Ġconfidence	39661
DR	39654
ls	39651
Ġaccuracy	39643
Ġtrain	39631
Ġ120	39629
Ġfunding	39617
parent	39614
128	39611
Ġsuit	39600
Ġhelps	39578
ĠFile	39570
Ġconcerned	39569
]--[@	39562
ight	39554
/\	39548
Ġhousing	39537
Ġefficient	39530
Ġbrief	39530
Ġtrials	39521
else	39518
Ġintervention	39487
Ġsensitivity	39478
hip	39475
layout	39461
CG	39454
Ġ_{	39440
ĠSuper	39409
ĠEnd	39406
Ġmainly	39400
Ġguilty	39388
Ġbudget	39362
Ġboundary	39360
Ġasking	39353
Ġelectronic	39342
Number	39341
Ġadults	39328
Ġrelationships	39318
ĠCircuit	39283
target	39276
ening	39251
ĠSaturday	39250
ĠJapanese	39239
Ġinvolving	39236
Ġexperienced	39228
ĠQu	39217
android	39214
Ref	39212
%.	39212
amb	39198
Just	39196
$$\	39196
cos	39185
ãĢĤ	39176
Ġfuel	39176
Ġfinished	39171
Ġevaluate	39169
ł	39165
Ġexposed	39148
ľ	39140
eps	39122
ĠMark	39112
client	39110
Ġexpansion	39108
Ġcontribution	39103
cast	39085
Which	39085
Ġsignaling	39081
Ġextends	39073
den	39070
Ð¸	39056
sm	39050
Ġadvice	39040
Ġsit	39034
Ġworse	39031
Override	39028
Base	39017
ĠSolve	39004
Ps	38994
RA	38984
ĠJesus	38966
ĠChurch	38964
Ġframework	38960
ĊĠĠĠĠĠĠĠĠĠĠĠĠĠĠĠĠĠ	38956
2000	38945
Ġemployee	38944
"),	38933
can	38918
Ġcontinues	38917
ĠÃĹ	38903
ford	38899
Ġcapable	38893
2010	38867
Method	38860
**]{}	38849
**(-	38846
rem	38844
2011	38835
work	38827
Ġcomposition	38826
ays	38825
Ġsettings	38809
ĠFederal	38800
Click	38799
Ġideal	38794
Ġdepartment	38775
Ġassessed	38770
Ġintensity	38766
ĠAustralia	38763
ĠInternet	38735
007	38713
)^{	38705
Ġelectron	38695
UR	38685
lt	38666
Ad	38646
201	38645
EX	38625
ĠOffice	38625
Bar	38621
.**	38614
ĠGeorge	38606
hed	38588
Ġordered	38575
Ġadvanced	38570
Ġdemonstrate	38567
Ġbiological	38565
Ġguide	38555
Ġgrant	38548
Ġplaintiffs	38546
cy	38525
Ġrelates	38513
Note	38505
006	38471
ville	38469
ven	38459
ising	38435
Ġpeace	38426
Ġmurder	38423
Ġpersons	38399
inal	38383
position	38374
ock	38373
Ġgold	38371
Ġfirm	38351
trans	38349
Ġcash	38344
Ġbrother	38331
Ġscope	38329
Ġstrain	38315
entry	38314
Ġchallenges	38312
Ġpotentially	38306
Ġ49	38306
Ġsuitable	38294
Ġ47	38288
Ġimaging	38281
mail	38272
Ġ46	38266
module	38258
Ġhumans	38256
ĠNe	38255
Ġrep	38254
Ġvelocity	38252
ĠPlease	38236
Ġjoint	38211
ances	38206
Ġinterval	38205
ĠPh	38198
Ġconference	38194
Ġrats	38188
Ġdecide	38183
Ġstopped	38179
Ġfill	38178
ign	38164
Ġstatistical	38135
wood	38134
Ġimprovement	38108
000000	38100
uring	38099
Ġcast	38096
Version	38087
ily	38082
uint	38080
âĢĿ,	38042
Simplify	38020
Ġassess	38015
ĠSun	38013
ĠOpen	38007
ĠDefendant	38004
ĠĠĠĠĠĠĠĠĠĠĠĠĠĠĠĠĠĠĠĠĠĠĠ	37993
Ġengine	37991
ves	37988
Ġclaimed	37981
Ġremained	37971
Ġthin	37954
Ġ43	37952
Th	37949
ĠNO	37921
ĠPC	37887
ored	37868
book	37865
Ġspring	37863
Ġended	37861
ĠType	37849
Ġsides	37820
Ġburden	37820
Ġunknown	37813
Ġpartial	37807
Ġduration	37797
Ġchief	37791
ĠUse	37786
other	37775
Ġreflect	37767
Ġsuggesting	37748
put	37747
Ġran	37737
ĊĠĠĠĠĠĠĠĠĠĠĠĠĠĠĠĠĠĠĠĠĠĠĠĠĠĠĠĠĠĠĠ	37736
ĠRussian	37735
ĠLord	37726
Ġsun	37721
Ġorigin	37714
Ġfrequently	37689
Ġfavor	37686
air	37684
Ġdiscovered	37679
Ġhence	37657
120	37641
ĠÂ£	37641
ĠAb	37641
Ġdoctor	37627
ĠRepublican	37596
Â»	37586
ĠFurther	37557
Ġreverse	37534
Ġargues	37517
ĠRule	37516
)}\	37486
Ġlimits	37465
Ġnine	37460
~~~	37442
Ġnecessarily	37433
Ġreplace	37406
Ġ150	37397
ĠGo	37386
Ġarms	37364
SM	37349
According	37348
Ġannual	37338
Se	37327
ĠANY	37300
Line	37291
mg	37272
Ġcourts	37268
2018	37267
gt	37265
aut	37256
©	37252
Ġseconds	37242
Ġ56	37233
Ġradiation	37223
Ġaxis	37217
Ġvariation	37215
Ġassembly	37206
^+^	37202
Ġstability	37191
ME	37190
ext	37185
Ġintent	37175
light	37174
)]	37144
ĠMinister	37125
select	37121
Ġthread	37119
Ġboy	37119
ĠHence	37117
*/	37109
bi	37103
build	37101
Ġwidely	37087
ography	37038
Ġfail	37035
Ġacute	37034
Ġantibody	37022
Ġthereby	37017
ĠAir	37015
Ġdefinitely	36979
ĠTwitter	36970
Ġthreshold	36967
Ġoral	36955
med	36951
/(	36942
Ġice	36922
Ġseek	36887
Ġlinked	36884
Ġcr	36872
Ġrich	36866
Ġaspects	36855
ĠJohnson	36852
img	36839
Ġattacks	36807
ĠSecond	36801
Ġkeeping	36795
Ġimplies	36787
Ġnumerous	36784
References	36771
Ġpopulations	36771
ĠFrance	36770
čĊĠĠĠĠĠ	36753
ĠPD	36752
Ġindicating	36751
ĠGerman	36747
Can	36734
Ġrelations	36732
Read	36727
Ġpull	36726
Ġstarts	36724
itis	36718
Page	36715
Ġforth	36711
Ġmixture	36679
ĠJustice	36673
ĠBr	36667
ĠOnce	36663
ĠIT	36661
Ġelectric	36658
Ġidentification	36657
Ġfundamental	36645
ater	36643
iter	36620
Ġopposite	36619
Ġrare	36616
Ġaccepted	36612
ĠChristian	36595
Action	36582
Ġlung	36562
ĠOnly	36562
NO	36557
ĠĊĠĠĠ	36555
Ġinterpretation	36552
ba	36551
Ġmortality	36546
Ġunable	36544
{{	36533
Ġinstructions	36529
Ġentirely	36525
Ġviolation	36523
Ġmission	36513
âĢ²	36504
Ġcoach	36501
Response	36488
([	36483
Ġtruly	36481
Ġabsolute	36475
Ġrecognized	36466
Psi	36465
aries	36457
Ġsupposed	36457
Â·	36450
MT	36433
Ġcellular	36432
Ġbone	36425
Ġgonna	36422
ya	36421
\/	36421
berg	36416
ame	36406
ously	36399
msgid	36397
Ġpractices	36389
$(	36384
author	36379
active	36378
Ġaward	36370
Ġgirls	36364
Ġfraction	36355
"})	36354
Ġcontribute	36335
Ġnotes	36334
:\	36323
Ĳ	36318
Ġparallel	36289
Ġdegrees	36288
Ġrec	36281
ĠBay	36272
Ġends	36268
Ġpartner	36260
Ġmassive	36249
ĠBrown	36249
Ġsupporting	36247
ĠAny	36229
į	36216
msgstr	36206
ĵ	36199
xe	36182
ĠSenate	36178
next	36167
Ġaim	36150
png	36140
Ġtrip	36137
sin	36131
Ġresponsibility	36123
¡	36114
})\	36093
OK	36092
request	36087
Ġsigns	36085
Ġcol	36085
$)	36083
Ġbecoming	36082
Ġmiles	36081
Ġemployment	36075
Ġattached	36018
Ġappearance	36002
Ġcamera	35996
low	35990
Ġtechnical	35970
OC	35956
ĠGood	35935
Solve	35922
Ġdisk	35906
ulation	35904
IG	35895
Ġhole	35884
Ġmanaged	35882
Ġresidents	35879
Ġroute	35876
ĠIndian	35869
MR	35866
ĠAP	35859
ĠGive	35857
Input	35850
Ġdependent	35840
Ġsecret	35829
400	35797
Ġvitro	35797
''	35795
Ġminute	35794
SH	35792
Ġmolecules	35791
Ġmark	35791
widehat	35787
Ħ	35778
Ġenable	35777
Ġconcluded	35775
Ġdynamic	35765
call	35756
Ġdu	35752
ĠUN	35747
\]).	35735
ĊĠĠĠĠĠĠĠĠĠĠĠĠ	35720
Ġconsent	35711
¤	35700
load	35697
ster	35677
Ġcommonly	35677
Ġamounts	35677
HE	35649
Ġplot	35636
Ġecho	35617
Ġassigned	35613
option	35612
Ġconsideration	35607
ĠHar	35601
media	35574
Out	35562
Ġphoto	35555
ute	35539
Ġest	35538
Ġunderstood	35524
Ġarticles	35520
Ġdynamics	35512
ĠTheir	35510
ett	35490
Ġsought	35488
Ġrequirement	35479
assert	35472
ĠInstead	35463
oma	35456
>(	35439
rad	35436
own	35429
Ġeffectively	35426
Ġaccurate	35410
Ġyield	35409
Ġexpert	35395
Point	35394
output	35387
ively	35382
Ġbag	35355
Ġgap	35334
Ġestimates	35320
Ġjurisdiction	35311
Ġpool	35298
Ġsensitive	35296
Ġspaces	35235
Ġtemplate	35233
Ġ52	35222
Ġfilled	35220
ĠAfrica	35209
Ġund	35191
ĠPlaintiff	35186
}}{\	35179
Ġsplit	35173
house	35160
UT	35150
ada	35134
CM	35130
Ġdecades	35113
ita	35095
Ġusual	35090
Ġmessages	35082
ijms	35079
ĠThomas	35062
part	35059
Ġbinary	35057
Ġ51	35054
Ġestate	35050
FS	35045
ĠAPI	35038
Ġoxygen	35030
Ġjustice	35027
Ġspending	35013
Your	35004
Ġles	35002
ENT	34999
was	34980
#:	34961
Ġseeking	34960
ils	34938
ĠTimes	34934
Ġwww	34926
oe	34923
Ġsenior	34908
ĠBill	34895
Ġfavorite	34869
web	34806
Please	34806
Ġcm	34800
arn	34798
Ġdec	34797
Ġneuro	34784
lo	34780
Ġstrategies	34765
ĠNS	34736
ĠEarth	34730
Ġprovision	34729
non	34727
Ġobjective	34725
ato	34724
Ġconsumption	34717
Ļ	34712
++)	34693
Ġsqrt	34688
obj	34674
ĠClass	34671
Ġdepth	34670
Ġ72	34668
star	34663
Ġbroken	34649
Ġassistance	34637
Ġcharacterized	34621
onic	34617
mL	34590
Ġgender	34589
)[	34563
Ġearth	34556
Ġnorth	34545
Ġsn	34536
ĠInter	34536
CI	34532
Yeah	34530
ĊĠĠĠĠĠĠĠĠĠĠ	34521
Ġes	34504
Ġsmallest	34503
ĠAR	34485
Com	34464
Ġcompetition	34463
cent	34459
float	34448
Ġminor	34446
Ġadvance	34438
Ġpredicted	34436
subset	34422
Ġemission	34413
2008	34410
ĠIndeed	34410
GA	34408
private	34397
Ġtissues	34379
Â¸	34366
Äģ	34363
ķ	34354
>>	34353
hand	34346
Ġorders	34331
¸	34328
ĠOver	34316
fold	34295
Ġbr	34289
Log	34288
Ġar	34283
Ġfan	34251
Start	34236
used	34232
Ġneurons	34231
ĠRobert	34228
Ġ[]	34214
Ġprinciple	34213
Ł	34208
Ġscientific	34203
Ġimp	34203
gh	34196
Two	34183
Ġpages	34180
Ġcap	34179
ĠTom	34177
Ġexpensive	34167
Ġmarriage	34157
std	34153
ki	34140
Ġzone	34140
]{},	34135
ĠFIG	34122
Ġrecommended	34114
ĠMedical	34103
').	34096
Ġsupports	34084
tab	34053
Ġfell	34052
END	34049
ĠPer	34037
ern	34033
Ġcustomer	34032
De	34024
Ġ54	34022
Ġcorner	34019
MC	34015
Ġparticle	34014
;&	33998
Ġpieces	33997
ani	33994
Ġche	33993
Ġtag	33989
Filter	33983
last	33969
ĠĠĠĠĠĠĠĠĠĠĠĠĠĠĠĠĠĠĠĠĠĠĠĠ	33953
Ġmanuscript	33947
Ġconfig	33933
ĠHall	33927
2009	33920
Any	33919
Ġwatching	33917
ĠInformation	33901
more	33876
Status	33866
ĠDis	33840
erm	33838
Ġcausing	33832
Ġcompound	33828
Ġmouth	33821
Ġthreat	33811
¶	33810
Ġsuccessfully	33809
Ġarrest	33809
Ġtelevision	33807
Ġmargin	33797
Ġfund	33794
show	33793
ĠFe	33793
Ġchannels	33792
Ġ1999	33771
ĠRef	33768
Ġinfo	33749
ending	33743
split	33739
Ġbaseline	33738
Ġtargets	33728
ella	33679
Ġsupra	33650
Ġreducing	33648
Ġcrisis	33641
ĠPar	33640
ĠHospital	33633
Tr	33630
Ġpure	33627
ĠSam	33614
PH	33606
RI	33600
Ġap	33583
Ġlargely	33560
ĠĠĠĠĠĠĠĠĠĠĠĠĠĠĠĠĠĠĠĠĠĠĠĠĠĠĠĠĠĠĠĠĠĠĠĠĠĠĠĠĠĠĠĠĠĠĠĠĠĠĠĠĠĠĠĠĠĠĠĠĠĠĠĠ	33560
"]	33550
Ġunion	33549
Ġimpossible	33547
ĠpH	33542
ien	33532
Ġinhibition	33525
BP	33523
ĠTrans	33520
ĠPA	33519
¥	33512
Ġcomposite	33505
Ġaut	33499
oon	33487
Ġautomatically	33481
Ġpetition	33473
find	33454
Ġsitting	33438
Ġinstalled	33434
Ġinformed	33433
ĠMath	33430
Ġdiabetes	33386
Ġpromote	33384
Ġauthorities	33383
ĠMS	33373
car	33370
Ġresearchers	33366
frame	33363
ery	33359
ĠAL	33339
Handler	33329
ĠGen	33326
css	33315
cher	33311
Ġsat	33305
SL	33300
Ġstructural	33299
search	33254
ĠSoftware	33253
gs	33243
Ġexamination	33242
ga	33240
Ġmarried	33239
ined	33238
Į	33237
Ġorganic	33229
ĠField	33226
Ġsector	33221
match	33217
ĠCentral	33209
Ġcompact	33187
///	33184
och	33179
Ġdisorder	33171
Ġ[[	33167
Ġwaste	33162
Ġrepresentative	33151
ĠSE	33150
SU	33138
du	33131
ĠIP	33125
oth	33113
root	33102
UL	33102
lic	33092
Ġstrains	33090
ave	33085
urs	33084
Next	33080
Ġship	33060
Ġquarter	33057
Ġweekend	33055
Ġproportion	33052
Ġseat	33051
Ġputting	33046
Ġvisible	33044
cf	33015
query	33008
PE	33006
Ġjoined	33005
Ġfeed	33005
```	32995
Ġfaster	32991
Ġdetect	32988
Ġconcerning	32986
ĠLemma	32985
ĠIran	32965
Ġreplaced	32951
Ġfacilities	32943
Ġobservation	32941
lock	32940
Ġfinish	32939
server	32935
number	32933
Mr	32933
ĠIts	32933
ĠAfrican	32933
mat	32931
Ġsolve	32931
MD	32925
Ġdebate	32919
Ġoffset	32912
Thanks	32906
INT	32899
ĠChicago	32895
Ã¤	32890
ĠGreat	32886
Ġlib	32882
Ġconnect	32875
Ġherself	32874
FT	32849
ĠPCR	32845
Ġrefer	32832
TA	32830
pping	32829
va	32826
FL	32824
Where	32814
ĠMal	32811
Ġacting	32809
Last	32800
Ġsea	32799
Ġwilling	32798
Ġcitizens	32797
Ġ101	32793
Ġlayers	32780
)/(	32779
------	32772
ius	32770
Although	32769
acy	32760
Ġmention	32754
ace	32733
ĠAnother	32730
¦	32729
Ġsugar	32727
Ġhomes	32723
¢	32720
Ġsouth	32720
arc	32717
Ġantibodies	32711
Ġassumed	32707
Ġdangerous	32699
options	32689
ĠClinton	32689
Ġturns	32685
Ġprison	32682
Ġcandidates	32675
NAME	32654
xt	32653
Ġinvolves	32643
ĠmRNA	32636
stream	32620
Another	32617
Web	32616
Ġmerely	32610
Ġmatters	32609
Ġadmitted	32608
**,	32604
Sp	32597
Ġemergency	32589
IO	32588
150	32583
cr	32579
Ġurl	32578
ĠLong	32571
Ġdepend	32562
ush	32553
Label	32549
ĠSecurity	32538
ĊĊĠĠ	32533
uss	32522
Ġ1990	32514
Ġcontainer	32509
Ġdifferential	32495
ries	32483
Ġexperiences	32478
ĠRiver	32475
Ġperspective	32471
Ġhundreds	32465
Ġhundred	32453
anc	32440
==========	32432
ado	32423
ining	32422
Ġ2020	32420
ĠHuman	32416
Ġ*)	32409
Ġpassing	32397
Ġamazing	32396
Ġlowest	32394
Ġexplore	32386
Ġpairs	32384
Ġexecutive	32384
Ġdetermining	32366
ĠEd	32345
equiv	32334
ran	32332
Create	32318
£	32284
Ġlived	32281
Ã³	32280
Ġaspect	32261
Ġclosely	32243
Ġbias	32237
Default	32225
ĠÃł	32199
]);	32198
Ġproved	32192
mid	32179
Ġextract	32179
ĉĉ	32177
Ġdirectory	32175
ubuntu	32173
Ġaid	32168
Ġwrt	32159
Ġouter	32158
Ġmenu	32156
Ġiron	32149
Ġposted	32134
rop	32133
Ġnative	32131
Ġwitness	32120
Ġwalking	32120
Ġpolitics	32109
}/	32107
Ġconversation	32092
Ń	32069
Ġliability	32060
Ġsweet	32037
Ġ---	32015
ifying	32001
Ġtrees	32000
Ġmilk	32000
Ġargue	31998
Ġant	31978
Ġprincipal	31969
ient	31960
.-	31941
Ġmonitoring	31937
Ġtelling	31934
rac	31931
Ġprimarily	31930
>,	31925
ĠInd	31920
ĠPR	31918
Ġdimension	31913
Ġsm	31910
Ġbrand	31907
ĠON	31905
Ġsignificance	31896
Ġblocks	31890
Ġbranch	31881
args	31874
Ġinitially	31870
Ġtrend	31867
Ġloved	31856
»	31851
Ð°	31849
Ġvivo	31793
Ġcities	31793
Ġoperators	31789
ĠIV	31789
mb	31779
ĠSal	31777
´	31768
Ġrespond	31752
008	31738
¬	31734
Ġ53	31724
Ġlots	31714
description	31712
00000	31704
Ġdollars	31698
AND	31695
ices	31687
Ġinjuries	31682
Ġsecure	31678
Ġfont	31673
Ġeating	31672
Ġvision	31670
ull	31666
method	31664
Ġed	31657
ison	31652
Ġdelivered	31643
abs	31640
Ġimplemented	31636
Ġmaps	31633
yt	31627
Ġdisorders	31614
Ġwear	31607
ple	31599
160	31598
ĠEU	31595
documentclass	31593
Res	31587
met	31564
Ġbusinesses	31564
GE	31558
Ġind	31556
Ġ\{	31552
Ġcontributions	31531
Ġconsists	31529
Ġ99	31529
Ġinjection	31516
pa	31514
SI	31492
minimal	31491
ny	31488
Ġsensor	31484
Ġaccordance	31484
ĠPe	31478
BR	31440
ĠLife	31438
ĠJones	31438
Ġgrown	31434
Ġbigger	31431
Ġenhanced	31429
Ġ1998	31427
Ġoptimal	31426
Ġwarm	31423
Ġcloser	31419
Ġleadership	31416
ces	31399
ĠÎ²	31387
side	31375
ĠDec	31359
home	31350
Ġcat	31350
Me	31330
Ġbodies	31323
Ġlabor	31291
Ġrapid	31280
ips	31278
FC	31278
¾	31276
CIT	31269
Ġlaser	31269
called	31256
ams	31253
ĠProject	31245
ios	31243
rate	31242
Ġterminal	31233
Ġcaught	31233
["	31229
Ġaccounts	31229
iation	31227
Stream	31224
Ġorganizations	31221
Ġtransform	31210
Ġgenome	31207
Ġapparent	31206
Ġleague	31201
Ġlocations	31199
Ķ	31194
jpg	31193
Ġextend	31190
²	31189
rap	31189
ores	31186
ĠGL	31177
real	31174
Ġte	31170
Ġconsequences	31163
Ġhom	31155
Ġillegal	31152
sup	31149
Ġopportunities	31148
Ġsorry	31146
Ġminimal	31135
DC	31132
Ġelectrical	31131
Ġdisc	31128
Layout	31109
ĠOut	31104
ola	31102
Ġcorrectly	31081
Ġdownload	31065
ĠBen	31061
Ġbattle	31050
Ġfigures	31049
Ġmaintenance	31044
iff	31043
Ġrepeated	31033
Ġmix	31032
####	31030
Ġlo	31026
1000	31021
Ġgrand	31020
§	31014
Č	31013
Ġarrived	31010
Ġdenote	31006
Ġpp	30994
Ġfacility	30982
Mode	30972
ĠĠĠĠĠĠĠĠĠĠĠĠĠĠĠĠĠĠĠĠĠĠĠĠĠ	30972
Ġthermal	30965
rit	30960
Ġsu	30938
Ġclosest	30926
Ġthoughts	30921
ĠÃĳ	30919
Ġpathways	30913
control	30911
Ġprevalence	30909
Ġden	30900
Ġrecommend	30875
ĠSD	30874
Ġaccident	30869
IB	30868
template	30867
only	30853
Ġinternet	30851
Ġsyndrome	30843
2006	30838
Ġph	30835
ĠTR	30824
kin	30818
Before	30809
strong	30788
Ġremoval	30788
PI	30787
Le	30785
^-	30782
ĠObject	30770
ļ	30765
Buffer	30763
Ġtrouble	30755
Ľ	30750
ones	30750
Ġpointed	30746
Ġdisplayed	30746
Ġdiv	30745
ues	30742
Format	30742
Ġsurrounding	30741
ott	30740
Ġmutations	30714
ĠName	30698
orn	30692
Ġabsolutely	30686
\]),	30672
Net	30672
oss	30671
Ġpractical	30666
ĠMa	30663
]^.	30659
Ġpark	30659
Ġorgan	30658
ĠDemocratic	30649
Ġinstruction	30647
Ġupdated	30640
win	30633
Ġcreation	30628
rt	30626
ATION	30617
Ġapparently	30598
ique	30592
Ġintegrated	30584
za	30582
Ġbacteria	30567
Ġac	30554
***	30550
ination	30541
msg	30535
ĠCup	30532
Ġclients	30530
Ġstages	30527
ographic	30525
More	30504
ĠPre	30499
iles	30491
oz	30477
2007	30466
append	30462
sw	30457
Ġ1997	30453
Ġhelping	30416
ŀ	30408
2019	30403
Ġdepression	30395
ĠView	30395
align	30393
Ġ400	30383
Ġspectra	30380
Ġmedian	30372
Ġevening	30369
Ġemotional	30366
Ġcoupling	30365
Ġscreening	30359
Ġconviction	30356
Ŀ	30355
Ġsounds	30345
Ġimplied	30345
});	30339
prop	30337
Ġ1000	30336
iness	30330
Ġregression	30329
Ġforget	30324
Ġadopted	30316
Are	30310
ĥ	30309
MM	30306
OH	30302
Ġsubmitted	30297
Ĺ	30290
Ġsports	30284
Ġkitchen	30283
ĠAppellant	30282
sensors	30278
Ġ58	30275
txt	30272
Ġcommittee	30263
à¸	30254
gu	30235
Ġtopic	30221
Ġ96	30199
Ġbeam	30177
Ġconstructed	30163
Ġ110	30162
ĠPolice	30158
Ġargued	30150
Ġsynthesis	30149
pdf	30144
Ġdescribes	30135
rich	30129
ı	30127
Ġpictures	30121
Co	30119
Ġclassical	30118
Ġdogs	30105
ias	30104
Ġmine	30101
Ġprovisions	30089
čĊĉĉ	30088
Ġamino	30086
Ġsolar	30076
ges	30071
Query	30066
ral	30065
Ġser	30059
Ġ"(	30058
250	30056
ĠWill	30054
Ġimplement	30046
Ġepisode	30046
ĠRT	30002
Ġrepair	30000
ĠAre	29993
Ġcharacteristic	29989
Ġcounts	29987
otic	29985
ĠSP	29978
mit	29977
Ġconstruct	29977
ĠRead	29974
ERS	29973
google	29964
Ġapart	29963
Ġessentially	29960
aker	29959
Ġplastic	29959
Ġsheet	29951
aged	29944
Ġ57	29942
uses	29927
Ġmarked	29920
Ġmeat	29917
Factory	29911
era	29905
space	29890
}{-	29879
}^\	29877
Ġ\>	29877
Ġtasks	29875
Ġtotally	29874
ĠGr	29868
word	29867
Rev	29862
sk	29861
Ġexplanation	29848
-(	29840
Ġmarkets	29838
Ġremote	29835
cer	29820
125	29819
Ġdiscretion	29819
Ġcategories	29815
center	29814
Ġspatial	29807
ĠMA	29807
tag	29796
URL	29795
Command	29794
ĠIll	29784
ĠOS	29777
Ġtaxes	29775
¨	29772
Ġfeedback	29767
ln	29765
Ġguidelines	29757
ĠĠĠĠĠĠĠĠĠĠĠĠĠĠĠĠĠĠĠĠĠĠĠĠĠĠ	29757
ched	29744
ĠDC	29735
ura	29734
ident	29730
setlength	29727
package	29713
Ġhypothesis	29708
ĠPart	29702
Ġspeaking	29696
Ġmaintained	29685
rest	29674
OW	29668
ense	29660
Ġdesire	29660
ux	29655
AV	29647
Ġapproval	29647
Ġchapter	29642
Ġ1996	29633
Ġdeclared	29626
Ġregime	29616
Ġfashion	29615
Ġdrink	29614
Ġrecording	29613
Ġsoil	29611
110	29599
Ġultimately	29587
Ġrat	29587
Ġwonder	29586
Ġ"""	29583
Ġ85	29578
}\,	29577
unk	29568
ĠServices	29545
ĠCorp	29543
ises	29542
Ġimmediate	29535
={	29533
ĠGl	29527
È±	29526
Ġoffering	29515
Ġlen	29514
amsmath	29496
ĠIm	29496
ree	29484
Ġ59	29477
header	29466
Ġtells	29443
bool	29412
dy	29380
Ġreporting	29358
Ġraw	29358
}|	29350
cur	29348
Ġpreparation	29348
ards	29340
Ġidentical	29338
Ġtreatments	29333
ĠHome	29328
Ġtherapeutic	29318
Ġconsole	29317
010	29314
Options	29309
service	29295
Ġregister	29284
mark	29281
amssymb	29274
Ġfamiliar	29270
Ġclassification	29265
ĠStar	29262
*^	29255
Resource	29253
Ġrealize	29230
ĠDevelopment	29226
][@	29219
Ĩ	29217
Ġtransformation	29216
amsfonts	29207
ML	29207
Ġmodify	29200
Ġregulations	29197
hi	29196
Ġrecognition	29191
Ġbond	29190
Ġcoffee	29182
Open	29181
Ġsin	29176
Ġexamine	29172
Ġencoding	29157
Ġserving	29148
Ġrespective	29145
Ġcurves	29142
Ġobviously	29141
Results	29140
Ġphotos	29140
mathrsfs	29136
Ġrequested	29134
amsbsy	29132
Ġprinciples	29132
upgreek	29131
ĠProgram	29130
2005	29108
Style	29101
ette	29100
Ġspoke	29100
oddsidemargin	29097
ico	29095
aa	29094
ĠCheck	29092
wasysym	29091
Ġbeat	29090
Ġsurgical	29089
ĠDi	29088
Ġincidence	29085
Ġ$(\	29075
Ġdiscovery	29070
Ġfinds	29065
Ġbars	29059
ĠMet	29059
Block	29057
Ġsituations	29057
Ġver	29056
Length	29052
ĊĠĠĠĠĠĠĠĠĠĠĠĠĠĠ	29045
Ġtranscription	29037
ĠControl	29034
Component	29032
ĠMicrosoft	29032
qquad	29013
Man	28994
Ġtumors	28993
ho	28974
vector	28962
(*	28959
Ġtaste	28956
^,	28947
Ġdev	28942
Up	28937
ris	28920
dx	28920
ĠLike	28920
ĠIsland	28920
ĠSecretary	28911
Because	28896
Ġworst	28891
Ġnum	28886
Ġposts	28883
Ã¼	28879
ency	28875
Cell	28871
SO	28857
ĠAdditionally	28854
sa	28850
Call	28850
Ġlies	28841
Ġrotation	28835
Im	28834
ĠSocial	28829
Check	28826
ĠFl	28824
Ġshooting	28810
ĠApple	28808
:(	28797
Ġcrucial	28787
ĠAss	28778
Ġinstant	28764
¿	28762
ª	28757
ĠÎ±	28752
EST	28741
raw	28738
Ġcamp	28732
Ġconfirm	28724
Ġclimate	28709
Ġcompliance	28706
Ġag	28706
ĠSH	28705
Ġbought	28702
ĠDemocrats	28702
Ġhelpful	28700
Ġcomp	28699
ared	28680
Find	28676
Ġcognitive	28674
Ġassets	28657
Ġpulled	28654
Ġloan	28643
2001	28616
Ġent	28615
Ġok	28610
Ġbehaviour	28601
neq	28588
eter	28582
Ġsomewhat	28575
arch	28573
Ġrequests	28571
Ġtransaction	28570
ĠReg	28566
Update	28558
Ġmiss	28549
isc	28547
Ġowners	28547
comp	28546
Ġworry	28531
Ġarrested	28522
doc	28521
mode	28515
)+	28512
¼	28511
Ġcontents	28511
ĠPeter	28501
Ġenforcement	28492
lem	28488
Ġhurt	28483
FE	28481
Ġruling	28475
256	28473
TD	28464
ero	28460
Supplementary	28460
Ġdrawn	28460
after	28449
TS	28447
Ĥ	28443
buf	28435
ĠSociety	28433
Ġ66	28432
^+	28426
Token	28424
cre	28421
Ġteaching	28420
Ġreg	28407
opt	28403
ĩ	28402
âĢĺ	28396
Ġpreferred	28376
Ġglucose	28375
alt	28373
Ġfruit	28367
Ġ],	28364
±	28354
Ġpossession	28351
Ġhate	28321
Ġhidden	28308
Ġinfected	28306
Ġtube	28283
TC	28278
Ġwood	28278
ĠPower	28273
**(	28272
Ġdeaths	28266
Ġdriven	28251
small	28234
ĠTH	28232
ĠDirector	28218
Ġlogic	28210
child	28180
Ġenzyme	28180
Ġfighting	28174
Ġapplying	28156
ĠThose	28156
Ġpicking	28145
vent	28138
Ġnormally	28136
ĠIraq	28131
ĠJan	28130
LA	28128
Ġintelligence	28124
%),	28122
Ġvoters	28118
bottom	28116
cont	28108
ĠJournal	28107
ĠDE	28101
ural	28100
Ġflag	28097
Ġcentre	28095
ote	28091
Ġleg	28086
push	28085
ĠRoad	28085
oring	28066
Ġpowers	28060
unt	28059
ult	28058
Control	28056
Ġop	28056
}^{(	28055
Ġnoticed	28055
]$	28054
Ġweapons	28052
buffer	28025
Controller	28021
Ĭ	28019
)))	28015
Ġcarrying	28010
Ġill	28007
Ñĥ	28006
Ġrealized	28006
arr	28002
\|	27998
Ġcounty	27987
Ġlaunch	27986
Ġneck	27976
Ġdivision	27964
Ġpermission	27954
Ġgrade	27953
Ġroles	27951
Ġassumption	27950
update	27949
Ġmechanical	27933
Ġvertical	27932
Ġcontroller	27927
Ġspectral	27926
ĠER	27923
Form	27922
Ġgrid	27921
oper	27919
Ġharm	27913
Ġproliferation	27907
conf	27906
Ġ&\	27899
how	27894
ĠCL	27893
Ġfiber	27887
Ġreads	27875
}+\	27861
Max	27861
============	27858
ĠLee	27852
Ġourselves	27847
Ġmanage	27846
Ġcultural	27843
wise	27834
ÂĢ	27826
ĠAnt	27821
filter	27820
None	27817
Ġregistered	27814
ĭ	27811
Ġvan	27810
molecules	27808
Row	27801
Ġacids	27800
Ġ62	27798
ĠModel	27797
Ġsubstantially	27794
è	27792
response	27789
Ġattempts	27789
ĠDonald	27789
Ġinfections	27784
high	27774
ĠEducation	27771
]]	27765
izes	27764
itch	27747
Ġhappening	27737
Tab	27716
ĠValue	27708
akes	27705
ond	27703
aps	27701
Â¶	27700
mar	27698
vis	27695
\"	27686
amine	27685
ider	27679
Ġaccused	27677
host	27673
ĠBo	27671
Ġseed	27670
Ġpet	27665
ula	27658
Ġmillions	27646
Ġexcited	27642
ony	27641
ĠWho	27641
oph	27639
Ġimagine	27637
Ġseparated	27633
here	27618
Ġexperts	27581
Ġconversion	27577
2004	27567
Ġdiameter	27555
ĠSl	27549
/>	27547
Ġpatent	27539
Ġpaying	27535
bound	27533
Ġdropped	27530
Ġpermit	27529
ĠWilliam	27522
Ġuniversity	27500
Ġformal	27497
DM	27495
dr	27491
HS	27486
Ġcorrelated	27484
Ġmedicine	27480
GC	27477
ades	27474
ĠPa	27462
ands	27458
Inter	27458
Ġweather	27458
People	27448
Â¼	27439
ĠMs	27431
Ġpan	27428
ãĤ	27422
Ġopposition	27422
Ġconsumer	27420
Ġbright	27415
Ġmetric	27414
Ġplanned	27413
rec	27406
Ġprop	27404
ĸ	27402
ĠAttorney	27400
Ġgate	27399
Ġlegislation	27397
ew	27396
Ġradius	27393
Ġ63	27386
Ġcopyright	27368
break	27366
ĠHill	27364
ĠWilliams	27362
hr	27356
aff	27351
Ġsk	27351
Width	27346
ĠKorea	27342
enc	27340
pper	27339
Ġboolean	27337
Ġsister	27332
³	27328
Ġinstitutions	27318
Ġshut	27291
Configuration	27287
ao	27277
Ġ>=	27272
ç	27268
TO	27253
Ġpurchased	27252
element	27248
ĠNa	27246
some	27244
Ġsizes	27238
Ġknowing	27233
Right	27224
Ġsmart	27223
=======	27222
Ġsimulation	27218
Ġconstitutional	27213
ĠCor	27211
Ġreactions	27210
Ġfee	27206
Ġdocumentation	27202
Ġcars	27199
Ġfeels	27198
oms	27195
Ġcrystal	27191
ua	27162
GR	27148
DD	27144
Ġdream	27138
ĠIR	27133
cor	27106
Ġintroduce	27102
ĠMartin	27090
Ġreliable	27089
acc	27077
Ġalpha	27074
Ġ68	27073
Ġincreasingly	27070
Ġsharing	27063
Ġpromise	27058
(\[	27052
Ġviral	27045
Ġowned	27043
Ġokay	27042
mathsf	27036
Ġuniform	27031
ĠmM	27025
Ġtransferred	27023
Ġkinds	27016
Ġreligion	27009
Ġdomestic	27009
ently	26987
Ġcomplicated	26986
Ġentity	26980
close	26978
ĠWhere	26973
Min	26967
Ġsubstance	26962
Ġdraft	26962
Ġconvert	26956
fa	26953
Ġanswers	26949
ĠGNU	26945
Ġlie	26939
=(	26933
En	26932
Ġvictims	26931
Ġrapidly	26924
Ġrecognize	26913
Ġoriginally	26909
ĠDivision	26909
Ġforming	26907
RNA	26892
Ġsymbol	26887
now	26883
ups	26880
)*(-	26868
Ġsetup	26867
Ġwine	26866
Ġrock	26852
¯	26851
ĊĊĊĊ	26851
Ġslowly	26846
approx	26841
ibility	26835
Ġbrowser	26830
Ġcorporate	26807
files	26803
Ġneutral	26793
Ġextensive	26785
Ġion	26782
Ġacquired	26778
255	26777
Also	26775
Ġanyway	26773
ĠMexico	26765
ĠKey	26762
Ġsa	26759
Ġclock	26752
Ġ1995	26749
Ġtheorem	26740
ivity	26731
Ġintegral	26721
ĊĊĠĠĠĠĠĠĠĠĠĠĠĠĠĠĠ	26715
common	26700
Ġinduction	26695
)}{	26693
dim	26683
'$	26682
Ġrestaurant	26674
ĠĠĠĠĠĠĠĠĠĠĠĠĠĠĠĠĠĠĠĠĠĠĠĠĠĠĠ	26669
Builder	26656
(_	26654
Ġdual	26654
ĠmiR	26651
ward	26649
Ġbattery	26643
Ġaddressed	26643
"}),	26642
Ġrisks	26640
Pl	26639
Thank	26632
ĠĠĠĠĠĠĠĠĠĠĠĠĠĠĠĠĠĠĠĠĠĠĠĠĠĠĠĠĠ	26632
NT	26626
Ġregulatory	26626
step	26609
Ġsegment	26600
Ġexcess	26591
Ġlay	26587
Ġpayments	26575
Ġreviewed	26566
Ġheader	26565
Ġshell	26564
Ġwinning	26561
ĠDel	26560
Âģ	26559
Ġstatistics	26550
Ġcolumns	26550
Ġintegration	26535
Output	26534
Ġpresentation	26533
une	26527
ĠRep	26526
Ġfairly	26524
Ġshop	26523
Hey	26508
ker	26502
Ġinflammatory	26501
aging	26489
Ġaudience	26488
}},	26487
Ġ67	26484
Ġwire	26482
uit	26474
offset	26472
Ġparticipate	26470
~,	26462
ĠGe	26461
rol	26458
600	26452
ĠRE	26445
ħ	26443
Frame	26441
Ġdist	26429
Ġbug	26428
TYPE	26413
BE	26413
Ġclusters	26410
Ġmomentum	26400
Ġgoods	26377
Ġcompensation	26372
Ġbeta	26363
!!	26360
Ġprobe	26359
Ġhotel	26359
ĠMin	26355
mann	26354
Ġfails	26353
Ġindustrial	26351
==	26348
ule	26346
Ġshock	26342
Other	26326
Ġer	26326
Ġexpand	26322
Ġgr	26292
Ġwindows	26284
Ġregardless	26279
American	26275
ĠCR	26273
Ġtemperatures	26263
Ġstem	26258
Ġ"\	26248
Ġbrown	26246
des	26241
Ġpursuant	26238
ãģ®	26230
Window	26222
ĠChe	26210
Ġwarning	26201
Ġchoices	26200
Ġhydrogen	26196
uck	26195
Ġengaged	26182
Ġtwenty	26175
Ġ1980	26171
Ar	26168
Ġvehicles	26167
Ġthick	26167
Ġcomfortable	26166
ĠSC	26153
Ġcapture	26142
PO	26137
Ġsimulations	26136
Ġ:)	26133
ĠMaybe	26129
Ġflux	26128
Ġsurfaces	26125
Ġpublication	26122
·	26119
Ġadverse	26109
Ġder	26093
Server	26082
yr	26079
III	26072
ĠOhio	26069
ĠAg	26069
Ġyounger	26064
po	26063
cat	26057
ear	26055
Ġedges	26054
ĠLake	26053
Ġkilling	26051
)}$	26047
ends	26042
Ġng	26022
Ġlaboratory	26018
Ġcoupled	26017
Ã¶	26014
Ġhell	26010
double	26009
ĠMrs	26008
Ġoperate	26006
Ġsuffered	25990
&&	25967
Ġcons	25966
Ġscenario	25965
Ġ61	25964
AF	25960
Ġseparation	25959
project	25956
Ġwonderful	25956
ĠChief	25953
Ġstores	25944
Ġaside	25935
illa	25931
Ġfellow	25929
Ġsubsequently	25921
Address	25919
Ġbanks	25918
ĠAppeals	25918
Ġescape	25917
Post	25913
Ġcalculate	25911
ĠReview	25909
UM	25908
month	25906
Ġturning	25903
system	25902
ĠĠĠĠĠĠĠĠĠĠĠĠĠĠĠĠĠĠĠĠĠĠĠĠĠĠĠĠ	25902
empty	25898
ball	25896
ition	25887
Ph	25883
ĠVirginia	25869
Ġoverride	25867
Ġdeliver	25858
ĠVersion	25858
NET	25854
Ġrefused	25851
Ġphot	25847
ĠLos	25847
ender	25846
Ġdependence	25845
}_\	25841
cup	25839
ira	25836
Ġbuildings	25835
Ġnm	25830
Ġalign	25828
Ġodd	25823
umb	25822
Ġattempted	25816
Ġproducing	25814
ĠThree	25812
$_	25809
Ġwriter	25799
ĠMary	25797
Ġcolors	25792
Ġfamous	25789
ĠCanadian	25785
foo	25784
Ġinhibitor	25784
Ġsmoking	25778
rc	25773
Ġsuffering	25773
ĠScott	25755
ĠMo	25749
Ġwalls	25745
Many	25742
Ġproposal	25742
Ġflight	25737
ĠDes	25733
Ġcalculation	25729
Ġstood	25726
ATE	25725
Ġdecade	25720
Ġcorresponds	25713
Â´	25710
ĠJewish	25705
Ġapoptosis	25697
Ġemployer	25689
Ġschedule	25686
Ġdischarge	25670
Ġ-\	25659
Ġstack	25658
iers	25653
Ġboys	25653
ĠGame	25652
Ġbelief	25643
HR	25641
>&	25640
GT	25638
Ġstrike	25635
Ġeditor	25635
Ġversions	25634
values	25632
VE	25632
flow	25627
Ġcontributed	25614
ĠRichard	25595
Ġrepresenting	25590
About	25580
Ġplenty	25577
positive	25571
Ġspirit	25571
Ġroll	25569
Ġproceedings	25569
Ġbeer	25568
Ġbasically	25562
Ġfacing	25559
ĠMI	25557
]\	25546
NC	25543
Ġsur	25536
si	25534
009	25534
pass	25527
Ġexit	25524
cp	25521
Even	25515
PM	25511
under	25506
ĠAmong	25498
Ġreceptors	25496
ĠRepublicans	25491
Ġtough	25485
make	25481
iel	25481
Ġvillage	25475
Ġ250	25472
ains	25464
Ġextreme	25455
Ġprogression	25444
play	25442
Ġmapping	25439
Ġarbitrary	25438
%;	25437
ogenic	25433
ware	25424
ced	25419
Ġminister	25416
dl	25406
Ġteacher	25381
Ġattribute	25379
ires	25374
čĊĠĠĠĠĠĠĠĠĠĠĠĠĠĠĠ	25368
Ġinvolvement	25367
EE	25364
aring	25357
Ġyellow	25354
Ġmodes	25353
Ġstick	25352
Sc	25349
Ġwalked	25348
Ġgrounds	25344
Ġprepare	25343
Ġ1994	25343
La	25340
Ġequally	25335
Ġinflammation	25334
Ġcoefficient	25327
2003	25323
Who	25319
Ġverdict	25310
Ġthickness	25308
Ġconsumers	25304
Ġisland	25302
Ġopposed	25300
Ġthrows	25296
Ġcircle	25290
ĠCarolina	25284
ĠBush	25284
Ġperforming	25281
Ġtri	25280
Ġstimulation	25280
iated	25272
Ġregional	25269
cb	25265
Ġassault	25256
Ġwh	25247
Ġmoves	25245
ĠAN	25241
aster	25236
Description	25235
Ġobserve	25234
ĠBE	25234
Ġapplies	25232
ida	25228
Ġwinter	25228
Ġpop	25223
Ġplain	25206
Ġelectrode	25204
ĠAccordingly	25200
asm	25196
asing	25191
Ġagencies	25185
Ġfly	25184
Ġdiversity	25177
Ġchamber	25176
;</	25158
Ġdinner	25157
Ġcontrary	25149
Ġpregnancy	25133
{"	25128
Ġbacterial	25116
Ġmod	25115
Ġperiods	25111
lets	25105
Ġsatisfied	25105
ĠSw	25105
105	25103
ĠOh	25103
ĠSte	25099
Ġkeys	25086
BD	25084
Ġstronger	25084
Ġadjacent	25080
before	25078
Ġmoral	25072
Ġmissed	25062
Ġrank	25054
)|	25044
env	25043
Ġrows	25043
ĠGiven	25042
Ġcreates	25030
Ġass	25024
Ġdecline	25022
ister	25020
hel	25019
Ġwherein	25014
Ġdimensions	25014
Ġcal	25009
ĠNetwork	25009
Ġmagnitude	25008
214	25007
Ġmutant	25003
Ġsaved	25002
Ġstatistically	24998
Header	24997
Ġnarrow	24978
ĠĠĠĠĠĠĠĠĠĠĠĠĠĠĠĠĠĠĠĠĠĠĠĠĠĠĠĠĠĠĠĠĠĠĠĠĠĠĠĠĠĠĠĠĠĠĠĠĠĠĠĠĠĠĠĠĠĠĠĠĠĠĠĠĠĠĠĠĠĠĠĠĠĠĠĠĠĠĠĠĠĠĠĠĠĠĠĠĠĠĠĠĠĠĠĠ	24962
Ġshares	24961
ĠUser	24958
lu	24956
Ġbegins	24956
Ġpermanent	24953
attr	24951
.âĢĻ	24949
MI	24944
Ġprofiles	24944
mem	24943
Ġongoing	24941
Ġthereof	24935
Ġmoderate	24934
Ġ===	24930
.$	24926
ĠYet	24924
ĠAmendment	24917
Ġcoefficients	24914
Ġmarkers	24900
Ġdecreasing	24900
iding	24890
015	24888
ĠWater	24882
Ġexcluded	24879
Ġbringing	24876
Ġstands	24875
Expand	24873
band	24868
two	24862
Ġnewly	24855
Ġconnections	24854
Go	24852
Ġreform	24848
Ġtip	24842
Use	24840
cpp	24834
Ġlock	24833
ĠTim	24825
Ġsymmetry	24799
ĠCall	24792
Good	24790
Ġmat	24787
Ġmigration	24779
Ġefficacy	24778
Ġteachers	24772
Ġanxiety	24771
Ġvictory	24767
Ġrepeat	24760
Ãħ	24759
Ġfraud	24747
Ġconsequence	24745
Ġ$|	24745
Ġguard	24743
mathscr	24740
Ġsubset	24739
Ġrequiring	24735
rot	24734
Ġreader	24728
Ġlosing	24726
Ġ\-	24721
ĠPort	24717
Ġcards	24701
Ġmanufacturing	24700
Ġselling	24698
oke	24696
Qu	24676
replace	24675
ĠVol	24674
Ġcomplications	24673
HT	24668
Ġadequate	24662
Ġextracted	24659
Ġrecover	24658
ĠNext	24657
Ġlisten	24655
Ġtargeted	24653
Ġsick	24650
}}^{	24648
Location	24648
"}](	24642
Ġext	24640
weight	24639
Ġintermediate	24633
ora	24632
example	24627
Supp	24619
inn	24613
Ġdust	24613
Ġsemi	24608
Ġplanet	24607
Ġlesions	24603
Ġfoods	24603
Ġinjured	24599
Ġdelete	24583
sf	24582
Ġdealing	24579
Ġuniverse	24577
law	24572
ĠSimilarly	24572
Ġpredict	24560
Ġsuspect	24551
Instance	24547
Per	24537
ĊĊĠĠĠĠĠĠĠĠĠĠĠĠĠĠĠĠĠĠĠĠĠĠĠĠĠĠĠĠĠĠĠĠ	24532
ALL	24530
ĠAnalysis	24525
Function	24524
ĠMat	24523
ey	24522
Ne	24522
Ġtrained	24517
ND	24516
1999	24508
MB	24507
Ġrender	24495
His	24494
Local	24493
CON	24487
zz	24472
ches	24470
Ġdiagnostic	24467
room	24457
ape	24448
Ġ),	24428
{(	24427
Ġ{}	24423
Ġmutation	24422
Ġ77	24413
ctx	24406
Ġusage	24406
2002	24400
ĠRec	24395
ĠNon	24392
uff	24390
Ġcomputed	24384
Ġban	24380
Ġinstances	24369
Ġbrings	24368
Ġexp	24367
ĠBoston	24350
Ġwearing	24349
Ġshouldn	24345
180	24342
Ġmoments	24340
ĠArmy	24337
Ġdiagram	24330
Ĵ	24326
erg	24308
Ġreserved	24308
Ġconf	24303
ĠText	24287
Link	24284
Â²	24283
Ġfaces	24279
ĠBlue	24278
Change	24277
Ġcalculations	24276
ĠCont	24266
TE	24261
MO	24261
Ġactivated	24259
Ġsuperior	24255
Ġtruck	24254
Ġrational	24253
External	24251
address	24250
Ġtechnologies	24247
ĠEvery	24241
UI	24230
ĠMer	24228
Ġrecall	24227
ĠFROM	24225
Ġapartment	24221
112	24220
Ġyouth	24217
Ġreviews	24215
ĠAnn	24215
Ġrely	24201
Ġkernel	24199
ĠDespite	24199
Target	24193
="#	24185
Most	24184
103	24181
Ġsight	24180
{-	24173
internal	24171
ĠCare	24152
Ġ<=	24140
Top	24136
Vert	24134
elle	24126
ways	24117
020	24116
Ġtight	24115
xy	24109
when	24107
Ġdifferentiation	24099
ĠOrder	24098
Ġcardiac	24095
Like	24094
800	24092
Ġ::	24091
ãĥ	24088
Ġallegations	24087
Ġ1993	24084
Ġev	24083
Ġcook	24077
zo	24076
itation	24076
Ġunsigned	24076
Ġalgebra	24072
process	24068
Ġ69	24060
Ġelected	24056
including	24054
;\	24054
Ġchicken	24053
HA	24049
Ġcloud	24048
ĠBased	24037
ĠMike	24036
Ġdedicated	24035
limits	24033
Ġchecked	24032
Ġ1992	24029
Ġclassified	24017
Ġsatisfy	24010
Column	24004
Ġchose	24004
nav	23995
Ġseriously	23995
Ġordinary	23991
Ġrenal	23989
Ġsurprise	23987
Ġprefer	23987
ĠFind	23973
Ġrevenue	23970
Ġvary	23968
ĠTrue	23964
Ġdistributions	23959
Ġinvolve	23956
Ġbits	23954
Ġ<-	23953
oles	23951
.^[@	23940
Ġgalaxies	23937
fer	23935
Ġaged	23931
Fe	23930
Ġhistorical	23927
Tex	23922
Ġanywhere	23921
Ġsnow	23913
IE	23909
namespace	23884
ĠGrand	23879
Ġ&=	23877
Ġcorrection	23871
Ġcutting	23866
ĠFed	23864
ĠChristmas	23864
Ġpresents	23855
Ġmatches	23853
ena	23839
device	23839
ĠWall	23839
ĠRight	23838
what	23831
Ġtheoretical	23827
Ġvaluable	23803
Ġperfectly	23802
Ġpartners	23787
Ġsi	23784
Ġbreath	23784
rb	23780
GG	23780
Attribute	23780
ired	23779
ART	23777
ĠMake	23766
Ġlattice	23760
wide	23759
Ġdiagnosed	23757
µ	23755
ci	23751
Ġtab	23749
Ġillness	23741
PRO	23739
Ġmetabolic	23739
Ġvol	23730
Ġtoken	23730
Ġprediction	23730
ĠTeam	23730
ĠFire	23716
Ġlaunched	23710
}\\	23702
Ġtheme	23695
Ġil	23684
ope	23683
axis	23682
rey	23681
rie	23680
Ġincubated	23677
,$	23675
Ġdataset	23670
Ġdiffer	23667
Ġsol	23663
Ġ}}	23657
math	23656
full	23655
nm	23653
Project	23652
Ġbytes	23648
Ġcarefully	23641
vel	23638
asp	23636
Ġacademic	23629
Ġchest	23626
menu	23621
Ġtranslation	23617
Ġstatutory	23613
ĠImage	23613
Ġ84	23613
®	23609
ĠSec	23606
ĠDoes	23599
Ġbridge	23598
Ġ78	23593
Val	23591
ĠYOU	23587
ĠThanks	23579
]"	23578
Ġexecution	23576
Ġgauge	23573
}-\	23564
Ġafternoon	23554
oll	23544
Ġinc	23543
Ġstaining	23542
Ġtour	23537
Dr	23532
click	23523
ĠParis	23522
Ġride	23520
ĠClub	23513
Ġmeta	23510
Ġthousand	23509
ump	23508
Ġrev	23506
izations	23502
Core	23502
Ġgift	23500
ĠCharles	23499
ĠAngeles	23496
ued	23495
Ġinfrastructure	23489
Ġbreaking	23485
Ġwelcome	23482
Ġ74	23473
Ġeducational	23469
Ġyesterday	23468
THE	23464
Ġrounded	23458
ĠĠĠĠĠĠĠĠĠĠĠĠĠĠĠĠĠĠĠĠĠĠĠĠĠĠĠĠĠĠ	23457
Ġhardware	23448
ĠSpecial	23446
tered	23437
itz	23437
Ġmonitor	23435
ih	23425
ĠError	23423
Ġmetabolism	23418
Ġinsulin	23418
Ġdomains	23417
ĠReal	23416
During	23403
Ġloaded	23399
Ġdrinking	23394
Ġ180	23392
Ġreferences	23385
Ġsufficiently	23381
Ġ88	23379
yp	23377
ĠMD	23376
Ġurban	23374
Ġcontends	23374
ĠBefore	23364
ished	23362
ĠNov	23360
Bl	23359
Ġ98	23357
Ġroutine	23356
Ġintake	23355
Ġcarrier	23352
Ġcomplexity	23346
Ġpartially	23342
Ġimposed	23336
Ġneighborhood	23334
pped	23309
102	23308
ĊĠĠĠĠĠĠĠĠĠĠĠĠĠĠĠĠ	23304
ja	23287
Ġdisclosed	23287
ko	23284
Ġ97	23279
Ġconservative	23273
Ġsomewhere	23272
Ġengage	23268
||	23267
product	23261
Ġatt	23261
Ġyields	23259
ala	23258
Mar	23255
ĠComp	23251
Ġtables	23243
Ġcontrolling	23241
123	23230
ĠOld	23227
ĠWomen	23208
Level	23205
Ġnumerical	23203
ĠBur	23201
Ġcomparable	23187
ned	23184
Ġreveal	23184
Ġinduce	23184
Ġbelieves	23181
mediated	23175
Ġresolve	23175
Ġstroke	23173
rou	23170
GS	23164
then	23158
Ġjourney	23151
Ġdanger	23150
Ġlab	23148
tmp	23146
Cor	23142
Ġconstraints	23139
}[	23123
Ġcomprehensive	23121
Ġcommit	23120
Ġbehalf	23112
ĠLog	23103
Ġadmission	23093
Ġwest	23090
ĠBritain	23090
pol	23074
Pi	23074
Ġnorm	23072
Ġmarketing	23068
Ġlens	23059
Col	23047
Ġserves	23047
mo	23046
Ġintroduction	23042
ĠCorporation	23041
}({\	23037
Ġtrigger	23036
such	23033
Connection	23031
Ġcollect	23030
ads	23026
meta	23020
00000000	23019
Ġcache	23013
ĠURL	23012
ables	23006
Url	23005
'),	23003
Ġdiscrimination	23000
Ġdem	22997
Ã©s	22996
ĠÃ	22996
Ġuniversal	22995
Ġinclusion	22990
FR	22987
ĠVal	22986
Ġune	22978
uri	22968
Ġpassword	22968
Ġhandling	22961
ĠLand	22954
Ġdivide	22948
Range	22946
Ġexplicitly	22938
Ġchallenging	22925
ĠBusiness	22924
Task	22920
textbf	22918
Ġsampling	22911
Ġevil	22911
Char	22908
orm	22897
Ġgrew	22897
Ġcited	22893
ĠAustralian	22877
Ġsimultaneously	22867
Ġsteel	22866
)$$	22854
ĠBel	22851
params	22844
130	22843
Ġalive	22840
QU	22838
ĠConstitution	22826
should	22824
Ġenhance	22814
Ġmales	22811
ĠSk	22809
Finally	22801
ĊČ	22801
FP	22797
Ġneural	22797
ĠTop	22797
DIR	22796
Ġinstrument	22796
ially	22795
Ġclassic	22779
Ġdenominator	22767
ĠCell	22767
ĠToday	22766
Ġvariations	22765
ĠLi	22764
ĠUp	22757
Ġhealthcare	22753
Ġgreatly	22745
ĠTechnology	22739
just	22732
ased	22728
Ġ--------------------------------	22728
ogen	22720
GF	22720
store	22712
Ġresponded	22702
Ġprovider	22693
Ġfarm	22692
Ġamplitude	22685
]{}]{}	22684
quot	22683
ours	22677
leg	22671
Ġeast	22670
Ġcopies	22668
Ġimproving	22664
Ð¾	22663
Gen	22662
ĠJack	22660
}]	22654
Ġquantity	22654
Reference	22653
ANT	22652
prod	22632
377	22631
Ġingredients	22631
det	22629
Ġfewer	22626
%).	22623
ĠHR	22607
ishing	22604
014	22604
Ġpenalty	22603
Select	22590
Ġmarker	22589
AK	22587
ĠMor	22586
years	22582
ĠMiddle	22580
water	22576
itor	22576
known	22570
ĠPage	22563
ĠOK	22563
Ġapproximation	22562
Ġtail	22561
ĠFox	22552
Ġob	22551
card	22549
Ġsky	22540
Ġ76	22538
Ġpulse	22534
Ġpot	22534
Ġcohort	22530
ĠHTML	22526
Ġsending	22525
Ġmovies	22525
Ġelevated	22525
ĠJr	22525
Ġdrivers	22518
ĠPut	22516
they	22514
ĠDetermine	22513
API	22510
angle	22508
addr	22503
dist	22501
Ġcodes	22498
Ġnamely	22496
ility	22491
Pre	22478
ided	22476
Ġomitted	22476
byte	22475
Ġrooms	22474
)),	22472
Ġ**(	22472
Ġnearby	22465
Ġvast	22464
outs	22457
Ġcoll	22449
rim	22444
Ġcomparing	22444
Current	22440
Ġdifficulty	22440
Ġsharp	22437
Ġsignature	22436
),\	22430
Ġpapers	22426
ĠJoe	22426
ĠIllinois	22416
El	22412
Ġrejected	22410
Trans	22407
Ġvariance	22407
ĠBest	22401
ĠJava	22399
ĠJackson	22395
Does	22384
ĠNY	22375
Ġcommitment	22373
ĠĠĠĠĠĠĠĠĠĠĠĠĠĠĠĠĠĠĠĠĠĠĠĠĠĠĠĠĠĠĠ	22371
Ġleaf	22366
PCR	22360
Ġprecisely	22353
ĠBi	22350
ĠLocal	22349
Ġfifth	22337
ĠMedia	22334
Ġobj	22333
column	22331
Ġbo	22329
inate	22328
Ġinequality	22318
ĠIF	22306
arian	22302
Ġexplicit	22302
Ptr	22301
Ab	22299
ĠCivil	22299
display	22296
parse	22291
Ġ71	22287
ĠWork	22282
ĠFund	22282
111	22281
Ġinvestors	22278
ĠValley	22278
Red	22272
Ġmachines	22272
jo	22266
ĠItaly	22265
Ġhasn	22262
Ġbear	22260
ital	22257
ÑĢ	22252
Ġatoms	22250
Ġscientists	22242
Ġmatching	22240
Ġbuying	22229
Ġfemales	22219
Ġsemiconductor	22211
Ġmask	22205
,$$	22202
|^	22197
ĠForce	22197
Ġnaturally	22194
ĠEnergy	22191
${	22189
ĠYear	22187
ĠNA	22182
Ġbusy	22179
mic	22178
Ġdoctors	22177
Ġaudio	22171
ĠMichigan	22170
ĊĠĠĠĠĠĠĠĠĠĠĠĠĠĠĠĠĠĠĠĠĠĠĠĠĠĠĠĠĠĠĠĠĠĠĠĠĠĠĠĠĠĠĠĠĠĠĠĠĠĠĠĠĠĠĠĠĠĠĠĠĠĠĠĠ	22170
mt	22168
ming	22165
ĠGold	22164
ĠAsia	22163
DI	22157
«	22155
background	22155
!âĢĿ	22147
Ġ73	22134
Ġbroke	22133
Ġadministrative	22130
fi	22126
LS	22114
Ġ$\{	22109
Ġ++	22105
Ġjump	22104
ĠKe	22103
Ġdecay	22102
Once	22092
Ġscored	22077
Ġelections	22076
Ġmeasuring	22074
Ġge	22074
iet	22069
Ġ130	22066
Ġhyp	22064
Ġargs	22063
Ġrestricted	22062
Ġcoordinates	22059
blue	22052
ĠResults	22051
ĠCP	22043
104	22040
Ġcareful	22038
ĠBY	22038
Ġenabled	22037
ĠMed	22032
ential	22031
mi	22029
Ġperipheral	22026
ĠME	22026
½	22025
Ġsurprised	22024
site	22016
Ġprivacy	22014
inner	22011
Ġstrict	22011
Ġreduces	22011
Ġmodification	22010
ĠCatholic	22010
Ġriver	22009
Ġadjusted	22006
ĠBack	22002
Ġca	21998
ĠAmazon	21981
Reg	21980
VER	21979
Ġproven	21978
NP	21974
Ġscheduled	21971
Ġparticipation	21970
final	21967
imal	21965
Offset	21959
ately	21958
Ġdiverse	21956
Ġnotion	21946
week	21941
Ġ94	21940
018	21936
about	21935
life	21934
Ġcomposed	21934
Ċĉĉĉĉĉĉ	21933
Ġbulk	21932
ĠMass	21932
will	21931
Ġcont	21929
Ġabsorption	21927
Ġfeelings	21924
ĠÃ©	21923
Ġindependently	21923
}^{-	21916
king	21912
docs	21910
ĠPol	21903
ille	21890
Ġlip	21888
ji	21886
Spec	21879
Ġtrace	21878
}})	21867
there	21865
ese	21863
Ġmistake	21863
Ġera	21863
ĠWood	21853
ales	21847
Ġcovering	21847
Ġanymore	21847
email	21844
Ġarmy	21838
Ġcontinuing	21833
Ġpin	21829
ĠDescription	21828
BI	21825
Ġkinase	21823
ĠLast	21823
Over	21819
Ġpresidential	21819
Ġtiming	21817
Ind	21816
sys	21815
Ġcable	21815
Ġsettlement	21814
Thread	21808
ĠKim	21795
master	21791
Ġwarrant	21790
ĠRob	21787
Ġheads	21774
Come	21772
Ġloading	21772
ĠCEO	21768
Ġadds	21767
BB	21763
Ġcommission	21763
Height	21762
Ġlipid	21758
Ġlists	21755
materials	21753
Position	21738
LD	21738
stein	21737
usr	21731
Ġprogramming	21724
Ġcrimes	21724
Application	21718
Part	21715
Ġtalked	21715
Ġcommunications	21709
Ġkid	21708
\}$	21695
fire	21694
ĠDavis	21694
Ġaircraft	21691
Ġclosing	21690
ĠPS	21687
Left	21686
ĠCreate	21673
John	21672
Ġgenerating	21668
Ġherein	21665
Provider	21658
stone	21650
ask	21648
Entry	21648
Ġopinions	21644
ĠChapter	21640
ĠDate	21638
ĠSource	21637
ĠMax	21631
Ġyards	21626
Ġreceiver	21626
ĠManagement	21623
Ġexecuted	21612
Build	21598
Ġexhibit	21596
Ġprecise	21595
Ġsal	21593
aining	21590
note	21589
ĠRo	21588
aking	21584
Ġpriority	21581
ĠNumber	21581
Ġwealth	21580
ĠPrime	21576
iol	21573
Ġpetitioner	21573
ĠFrank	21573
white	21568
.;	21568
Ġquiet	21565
ĠSyria	21563
Ġvectors	21560
elling	21558
Ġlocally	21555
Ġwaves	21554
foot	21553
>\	21553
Ġafraid	21537
Ġlegs	21535
rib	21530
Ġradical	21526
','	21525
erv	21522
fd	21517
ĠCr	21514
ĠYoung	21508
Ġmom	21503
Ġgarden	21500
Ġfailing	21499
Ġpolymer	21495
Ġrefers	21493
Ġdeclare	21491
Ġchair	21489
Ġwhenever	21485
oxy	21482
Ġ{{	21482
Ġattend	21481
ĠChris	21479
Ġsuddenly	21476
ĠVer	21476
Ġos	21466
Ġcuts	21461
Ġmail	21449
Ġcrazy	21445
ĠSO	21443
Ġfrequent	21442
remove	21435
Ġhouses	21434
017	21431
Ġaimed	21428
Ġmo	21419
pack	21411
Ġfr	21411
ĠIC	21411
UP	21409
,{\	21405
Ġ1991	21403
Ġinhibitors	21394
Ã¢	21393
Ġtaught	21387
Ġtemporary	21381
dp	21376
born	21372
GB	21371
iled	21366
ERROR	21364
rr	21363
ĠIns	21363
ĠApplication	21351
ĠAction	21349
Ġmes	21348
Ġexpenses	21343
ni	21341
117	21337
Ġcultures	21335
cache	21333
Ġfunc	21331
ĠSpace	21325
Entity	21324
ove	21320
Using	21317
ĠPlan	21316
Ġweapon	21310
Car	21307
Ġfed	21307
Module	21304
Ġsuppose	21304
Ġdominant	21298
Ġproduces	21292
Ġboost	21290
ĠĠĠĠĠĠĠĠĠĠĠĠĠĠĠĠĠĠĠĠĠĠĠĠĠĠĠĠĠĠĠĠĠĠĠĠĠĠĠĠĠĠĠĠĠĠĠĠĠĠĠĠĠĠĠĠĠĠĠĠĠĠĠĠĠĠĠĠĠĠĠĠĠĠĠĠĠĠĠĠĠĠĠĠĠĠĠĠĠĠĠĠĠĠĠĠĠĠĠĠĠĠĠĠĠĠĠĠĠĠĠĠĠĠĠĠĠĠĠĠĠĠĠĠĠĠĠĠ	21286
áĢ	21284
Ġencourage	21284
ĠProposition	21283
Ġ79	21282
types	21280
unit	21278
Ġstrange	21276
Ġupdates	21272
debug	21251
ĠCross	21245
have	21241
Ġteeth	21234
Ġwatched	21230
Ġwestern	21228
Okay	21209
Ġ}\	21207
icks	21202
Ġattributes	21202
ough	21197
Ġproviders	21195
Ġplurality	21195
ĠRights	21195
º	21192
Search	21181
Ġreasonably	21180
PER	21177
Ġ83	21170
ĠThank	21167
Ġshoulder	21164
Ġorientation	21164
NE	21161
Ġfrequencies	21159
Ġ>>	21158
Ġignore	21157
Ġstreets	21147
Ġvertex	21146
ĠPolicy	21145
Ġmult	21144
Ġda	21141
Ġprocessed	21140
ĠDan	21138
Ġtrading	21137
Ġ125	21134
Ġking	21132
Ġnerve	21125
Ġ\"	21124
Port	21119
Ġinteract	21119
119	21118
Sch	21116
Rec	21116
ect	21115
Ġawareness	21110
():	21097
Ġlosses	21092
Ġtiny	21076
Ġ87	21074
<!--	21070
vs	21068
ĠEm	21067
world	21051
Dis	21044
Section	21043
Ġsilver	21042
ually	21037
Op	21037
Collect	21037
Ġwitnesses	21037
Ġassist	21037
Ġins	21034
Parameter	21033
ding	21029
Ġvalve	21023
Ġimprovements	21020
illing	21011
Ġplates	21003
Ġsomehow	20998
ĠUV	20998
107	20994
ĠMod	20973
}.$$	20965
Ġgeneric	20963
Ġ82	20963
Ġmarks	20959
ĠReport	20958
Ġvascular	20956
ĠGlobal	20951
127	20947
Ġcolour	20947
Ġtalks	20937
ĠPr	20936
ences	20935
Ġtank	20934
Ġlawyer	20933
Ġexplains	20931
zy	20926
ĊĠĠĠĠĠĠĠĠĠĠĠĠĠĠĠĠĠĠĠĠĠ	20925
Ġfluorescence	20923
Ġ93	20913
Ġholes	20909
fr	20905
Ġtea	20905
Ġdivisor	20903
Ġ89	20894
FD	20892
ws	20889
Ġ($\	20888
handle	20882
Ġsem	20882
days	20878
Ġinform	20876
Ġorganized	20875
Ġvideos	20874
Ġstruggle	20873
231	20872
Ġsuffer	20869
Ġgoverning	20869
lam	20867
Ġreturning	20867
location	20866
DL	20859
Script	20851
Ġintra	20850
Ġfore	20847
Â¿	20843
Ġmanufacturer	20835
Dir	20834
ĠRock	20832
ima	20825
Ġpersonnel	20813
access	20811
uch	20809
'_	20801
Ġweren	20798
Ġrespiratory	20798
ĠWilson	20798
ĠFood	20796
Ġunlikely	20791
Ġcrowd	20787
Ġroughly	20783
Ġ})	20779
ĊĠĠĠĠĊĠĠĠ	20771
217	20765
Ġchart	20764
Ġbind	20761
Â®	20755
Ġpermitted	20755
ict	20749
016	20742
Ġarchitecture	20742
BU	20739
Ġdirections	20736
232	20733
who	20728
Ġpassage	20728
ÑĤ	20726
ī	20724
Ġ115	20718
}"	20715
Ġmodules	20713
tree	20709
Ġcooking	20706
Ġrecipe	20705
family	20704
Ġchecks	20704
Did	20700
ĠFr	20699
Ġuncertainty	20698
Ġhum	20695
rated	20691
Ġ92	20687
Ġelsewhere	20686
ĠSer	20684
Ġdb	20683
Theta	20680
á»	20671
ĠShow	20651
ĠRepublic	20651
Ġafford	20649
ior	20648
Ġcovers	20646
Ġscan	20645
Ġsubmit	20642
Ġmeal	20641
ĠEX	20641
Ġrestriction	20639
Ġgeometry	20637
Ġparking	20631
Ġsand	20630
Ġ86	20630
Ġdeviation	20629
Ġovercome	20624
Ġprofit	20621
Ġwet	20618
Ġ"/	20618
----------------------------------------------------------------	20616
Ġbounded	20616
?'	20604
Ġsoul	20597
ĠIsraeli	20595
Ġsodium	20593
linear	20591
Ġconsisting	20586
Ġcompute	20586
Ġfolder	20584
IST	20583
Def	20581
ĠMuslim	20574
Ġcycles	20570
Ġpoll	20568
ĠSm	20563
ĠGal	20563
Ġplea	20554
Ġextraction	20552
Ġkeeps	20544
Ġbutter	20543
140	20542
Ġutility	20541
Ġpaths	20534
ĠMiller	20528
Ġ1970	20526
place	20520
1998	20519
Ġboat	20519
Ġear	20516
Ġcontracts	20516
Ġdisability	20514
Ġmarijuana	20513
Ġseasons	20512
stat	20511
OU	20506
yes	20504
Ġalgorithms	20497
Ġ..	20497
icity	20492
Title	20491
Ġaffects	20491
Ġconclusions	20488
Write	20487
thm	20486
Ġdiff	20478
Î³	20468
BO	20465
Ġcolon	20465
COM	20464
Ġgiant	20460
Ġmild	20454
power	20452
Tree	20439
).$$	20439
enn	20437
copy	20434
Ġ119	20433
Ġcleaning	20428
Ġpeptide	20422
Ġtheories	20421
vo	20414
rows	20414
Ġmedication	20413
send	20411
dict	20408
ICE	20407
Ġconverted	20407
ĠPL	20406
ĠCommunity	20406
ĠSu	20400
Ġconsiderable	20395
ste	20392
Ġpo	20386
Put	20385
ained	20384
Ġflash	20384
Ġreaders	20383
Ġbyte	20381
Ġgay	20365
SR	20358
Ġavailability	20356
Ġonset	20354
Ġ91	20352
Ġ$[	20349
Ġdispute	20341
Ġlunch	20340
textrm	20338
Ġrobust	20332
108	20331
har	20328
making	20327
bt	20325
Ca	20322
Ġshoot	20321
Ġpowder	20321
Ġsong	20315
Ġresolved	20313
Ġviewed	20302
care	20300
layer	20293
Ġfault	20293
dc	20289
loc	20288
Ġmaintaining	20285
ĠUI	20282
ĠSQL	20281
Ġbowl	20278
Ġpushed	20267
ĠPakistan	20265
Ġpersonally	20257
ĠHam	20255
Ġ111	20251
ĠLine	20247
ĠPres	20242
Fs	20237
Ġpy	20237
Ġprevention	20237
comment	20234
don	20232
export	20231
vi	20226
Ġcompletion	20224
Ġentries	20222
ĠMain	20216
Ġstrings	20212
Ġ((-	20207
ĠWh	20204
Ġconvicted	20203
Ġadvantages	20194
hash	20190
Ġappreciate	20190
Ġcream	20189
eller	20188
Document	20188
ĠOfficer	20188
Ġrural	20182
MAX	20181
Ġguarantee	20173
Types	20172
Ġfired	20167
Ġnan	20159
Ġdress	20156
Ġbarrier	20156
ifier	20149
UD	20149
aves	20140
ying	20134
Step	20134
Ġownership	20134
Ġdiscussions	20134
ĠWT	20126
Comp	20125
Ġsequencing	20125
ĠTe	20123
ĠVan	20122
Ġscattering	20117
km	20115
Ġhousehold	20113
rent	20107
iner	20103
<\	20102
ĠDO	20101
Ġphenomenon	20098
================================	20090
ares	20085
Ġteach	20084
Ġbread	20084
Ġfiling	20083
Ġ\|	20079
rain	20074
PG	20070
Ġ(âĢľ	20067
Ġregularly	20063
Ġtape	20061
ĠPH	20057
ĠSupp	20056
inated	20044
Ġcompeting	20042
ĠSouthern	20040
'\	20038
Ġav	20032
ë	20025
Ġoperated	20025
ude	20020
Ġatmosphere	20013
change	20000
ĠForm	20000
Ġrice	19998
ĠWITHOUT	19997
Ġlymph	19996
Ġgel	19993
eless	19989
Ġcomprising	19987
stack	19984
Unit	19975
Ġarg	19973
vm	19972
Total	19970
wa	19969
ĠItalian	19969
Ġquantitative	19967
Ġcenters	19965
Ġboot	19965
Ġcouncil	19961
Ġthinks	19956
ras	19938
aka	19935
Ac	19934
Ġtra	19934
ulate	19933
Ġpour	19931
cut	19929
Ġentering	19927
ows	19926
May	19926
uf	19920
Ms	19919
ĠHenry	19919
black	19916
Ġsystematic	19911
ĠCentre	19906
total	19903
^{-\	19903
bed	19902
fc	19900
Ġverify	19900
unsigned	19899
Impl	19889
Ġegg	19884
Back	19878
Ġnamespace	19878
+^	19876
Ġworker	19876
ĠSpanish	19876
normal	19871
Ġsustained	19869
Ġgovernments	19865
container	19864
SIZE	19864
Am	19864
WE	19861
Ġsatisfies	19856
Ġsport	19855
Ġaccumulation	19855
Ġfalling	19854
Long	19852
CB	19847
ĠMiss	19845
Ġcaptured	19841
}}$.	19839
Ġtelephone	19837
Ġmed	19837
}}}\	19834
Ġvacuum	19826
ĠWhether	19818
matrix	19809
Template	19808
Ġreaching	19801
round	19798
Ġexpanded	19797
burg	19796
Ġdemands	19792
Listener	19791
Ġinterventions	19790
ved	19789
Ġremoving	19780
olic	19778
Ġcolleagues	19777
¹	19774
Ġdismissed	19773
Ġcrew	19773
Ġhorizontal	19771
Ġmar	19767
ĠStandard	19766
Ġacc	19761
Ġrecommendations	19760
Ġcry	19752
Ġtomorrow	19736
Ġdegradation	19727
han	19726
Ġqualified	19725
Ġnervous	19722
ĠÂ°	19719
Ġinvasion	19715
ocks	19711
Ġportions	19711
Te	19707
ĠServer	19705
erson	19704
Ġfalls	19703
Ġprofessor	19702
Ġincorporated	19699
Ġproud	19698
Non	19695
Ġpump	19693
Ġexclusive	19693
Ġbundle	19685
Ġ81	19684
Ġcoding	19682
isa	19681
Ġhide	19681
Ġpsychological	19676
zero	19673
Ġ140	19673
}}}}	19661
ĠFrancisco	19654
Ġworldwide	19652
ĠNFL	19652
Ġdismiss	19650
his	19646
Ġpackages	19643
Ġ1989	19642
ye	19637
ĠJersey	19636
Ġmasses	19630
Ġkidney	19629
Ġdestination	19625
Ġpack	19624
Ġgradient	19623
aks	19619
domain	19618
Ġstations	19617
Ġcompetitive	19615
olog	19614
treated	19612
Ġadministered	19604
Ġpos	19603
ĠGa	19600
Ġsizeof	19599
Ġequ	19597
Ġfaced	19593
rum	19591
ĠTrust	19588
Ġ\;	19585
Ġassays	19583
ĠDefendants	19583
Ġhonor	19576
ĠSim	19576
subseteq	19571
Ġ113	19568
echo	19559
Ġscales	19558
âĢĭ	19555
Ġstone	19547
ĠMen	19545
vin	19542
wing	19536
Ġseparately	19536
Ġancient	19536
ĠApache	19534
Ġinterference	19531
ound	19528
Ġeggs	19528
dom	19526
images	19524
Ġfolks	19521
Ġwheel	19519
Ġconcrete	19508
Ġdecreases	19506
Container	19505
task	19494
gy	19493
Ġ112	19480
"))	19479
Ġphysics	19479
Ġstuck	19478
defined	19477
ili	19476
GET	19472
Ġroof	19468
Ġ1988	19466
Ġrose	19460
ĠStudies	19460
Ġvotes	19459
Ġintervals	19459
ool	19457
Ġmounted	19455
Ġpres	19452
antly	19451
Ġfriendly	19451
stop	19447
oids	19441
su	19440
ĠSen	19432
tx	19418
ĠAsian	19414
ody	19411
Ġ114	19408
_{(	19406
Ġtargeting	19406
Ġcheap	19404
itting	19400
OG	19400
Gu	19400
ĊĠĠĠĠĠĠĠĠĠĠĠĠĠĠĠĠĠĠĠĠĠĠĠĠĠĠĠĠĠĠĠĠĠĠĠ	19399
Ġaddresses	19398
ava	19393
associated	19392
Ġcomfort	19391
Access	19384
ĠCON	19384
Cal	19381
Ġpilot	19379
ĠGeorgia	19376
ĊĊĠĠĠĠ	19376
Ġimmun	19361
Ġprofessionals	19354
Ġforum	19354
}}}$	19353
ĠCase	19344
green	19340
ĠLouis	19336
ĠConference	19334
Ġcreative	19332
Ġinterior	19331
ĠBob	19331
ĠHa	19330
bp	19329
Ġ(%)	19327
ĠDaniel	19326
Ġunt	19324
.]	19320
Ġroots	19320
*]{},	19315
Ġkit	19314
Ġprotest	19313
Pr	19311
ĠDM	19310
Ġvariants	19309
Ġpromoter	19308
ĠPet	19304
KEY	19300
106	19297
bc	19296
Ġmal	19292
ift	19288
ĠAbout	19286
ĠPT	19281
hy	19280
Store	19280
Order	19280
Ġappointed	19271
Ġtoxic	19270
Ġappeals	19268
Ġrising	19267
Ġhonest	19264
>.	19261
Ġanalyze	19261
Ġ----------------------------------------------------------------	19255
front	19250
uh	19249
Ġheavily	19248
insert	19243
Ġflexible	19241
setminus	19238
Ġconstitute	19237
rep	19236
Ġhash	19234
Ġpasses	19232
Ġexpressions	19232
Ġdrawing	19229
ĠSM	19227
Ġprotective	19225
ĠRoyal	19223
Debug	19222
Ġlikelihood	19222
Ġreflected	19216
Ġseverity	19214
Ġexpectations	19210
ĠTotal	19207
arrow	19204
points	19203
)_	19198
Ġcorrespond	19198
ĠMO	19197
Ġinsufficient	19196
graph	19194
Ġconsecutive	19194
ctions	19193
Ġbeach	19183
orb	19182
Ġabstract	19179
connect	19175
Ġtensor	19171
ration	19161
Ġalignment	19161
ĠHE	19151
Work	19150
Ġratios	19146
Ġbet	19143
Ġlimitation	19141
Ġmovements	19138
Ġinfinite	19138
ĠPatients	19136
Ġyeah	19135
Ġsolely	19134
Ġsoldiers	19133
most	19132
Settings	19132
LO	19130
Ġsimilarly	19124
VA	19119
Ġserial	19118
Ġvaccine	19116
Ġadvertising	19113
Ġrelating	19110
Ġconstantly	19107
Only	19106
inv	19105
ĠLight	19103
ĠFA	19094
Ġbands	19093
rid	19087
Ġseeds	19087
Ġinit	19087
xc	19086
game	19086
Ġhospitals	19086
Ġadmit	19082
Ġenzymes	19077
ĠALL	19077
command	19072
second	19068
Ġchip	19064
Ġbeauty	19057
Ġawarded	19057
ĠSi	19057
Ġfoundation	19056
lying	19053
Ġ$-	19053
Ġsees	19052
Ġoffensive	19052
Ġanswered	19052
Ġrestrictions	19042
Ġglad	19033
Ġengineering	19028
Ġbin	19027
Ġblow	19025
ums	19024
cmd	19024
ĠJoseph	19019
ĠLett	19015
Ġ('	19014
Ġsubjected	19011
ĠAcademy	19009
Ġjudicial	19007
Ġbike	19007
ĠSN	19007
Ġabsent	19006
Ġmeetings	19003
Ġ104	19002
raz	19001
ĠAge	18998
Ġalert	18995
Ġinsert	18994
Ġmanual	18991
Ġcomprises	18983
Ġsupplied	18978
ĠÐ	18977
she	18975
ĠAndroid	18971
KE	18967
ãĢģ	18965
Ġtemporal	18965
ĠTaylor	18963
Ġ160	18961
global	18957
Ġintention	18954
Tag	18953
Ġvarying	18948
etic	18944
248	18944
Ġhoping	18944
Ġprojection	18943
Phys	18940
ĠNorthern	18940
ami	18934
je	18933
atch	18933
hour	18930
168	18929
window	18921
Ġproceed	18918
loop	18916
Ġrem	18912
ĠTake	18912
Mon	18911
token	18907
Str	18907
Ġalter	18907
Cache	18906
GO	18901
Ġproceeding	18901
Ġvice	18897
ijerph	18896
Ġenjoyed	18892
Ġnations	18891
desc	18890
alk	18890
ĠPath	18889
Ġelectro	18886
Ġgu	18884
Ġimmunity	18883
Ġimplications	18881
ĊĊĉĉ	18877
Ġforest	18876
Ġphysician	18874
Ġcheese	18873
Ġaccessible	18865
Ġpixel	18861
Ġlayout	18861
Ġcoordinate	18861
ving	18860
oral	18859
Ġvalidation	18856
Ġexecute	18856
Run	18855
Ġmut	18855
ĠPlaintiffs	18854
Ext	18848
Ġ['	18844
ĠTax	18840
Ġcarcinoma	18824
Ġantigen	18819
binding	18816
ĠLow	18814
ĠIslamic	18814
}}$,	18808
SELECT	18803
Ġacquisition	18803
Ġages	18801
Main	18797
Ġpartition	18795
application	18792
Under	18790
ĠFollowing	18784
BT	18783
Edit	18773
ĠWal	18772
tw	18764
ONE	18763
ometric	18759
ĠFBI	18752
Ġ"$	18744
uous	18743
Ġlaid	18740
Ġrain	18739
Ġlights	18737
ĠPennsylvania	18737
Ġclothes	18727
âĢħ	18726
Ġcalcium	18725
ION	18716
Ġpatch	18715
OUT	18712
Ġbonds	18702
Ġabundance	18699
ĠHel	18697
Ġmess	18696
Ġdefines	18696
Ġfeeding	18688
ACK	18687
support	18677
012	18677
Ġheating	18677
Ġbeneficial	18676
tra	18668
Sort	18668
ĠCount	18649
ĠBeach	18649
Ġ102	18646
ĠMicro	18643
Ġcorporation	18640
Ġkm	18639
ĠMatt	18639
inger	18638
Ġartery	18634
ĠLinux	18634
Ġfusion	18628
Ġaff	18626
æ	18623
Ġâī¥	18619
ĠMel	18618
BM	18614
Ġ117	18609
Ġdestroyed	18606
Ġdestroy	18604
Case	18603
ĠâĢ¢	18602
Ġranging	18602
ĠIndex	18601
Ġspecify	18600
Ġinstallation	18584
Ð»	18581
Ġvitamin	18575
aud	18572
\>	18572
Dec	18571
rig	18567
Ġassignment	18567
idd	18566
connection	18557
Ġexport	18552
Ġimmigration	18549
Ġdevelopers	18543
ĠRyan	18538
equal	18537
Ġdesirable	18537
}}(\	18526
ĠFour	18523
eration	18518
xx	18516
OB	18516
]{.	18514
Ġpm	18511
ĠTHIS	18509
Ġpadding	18500
Ġerred	18499
iously	18498
Ġspan	18497
Ġarmed	18492
git	18490
ethyl	18490
0002	18489
Ġunusual	18485
Ġaltered	18484
ĠNevertheless	18481
ĠAdministration	18478
Ġacceptable	18475
ature	18471
Ġeffectiveness	18471
join	18470
Ġbreach	18467
Ġeligible	18465
dagger	18464
Ġearned	18459
310	18457
Ġluck	18457
Ġpreliminary	18452
Look	18451
Ġautomatic	18449
Ġstruck	18442
sy	18441
ori	18434
Ġconsistently	18431
uv	18429
iro	18417
underline	18413
bre	18411
ĠPatent	18411
}}_{\	18407
Ġsessions	18406
ĠMaster	18405
Ġtract	18404
Ġoccurrence	18402
Ġwound	18401
Ġbunch	18399
osh	18395
Device	18394
ĠNor	18394
Ġvisited	18393
Ġmatrices	18393
ĠLtd	18391
Ġvoting	18387
Ġunclear	18383
Ġguidance	18378
Ġrid	18374
ingly	18372
Ġhorse	18372
Interface	18371
115	18371
.),	18371
eness	18360
Ġho	18359
Ġfacilitate	18354
Ġnormalized	18349
ĊĉĠĠĠ	18348
ager	18345
ITY	18343
Ġinline	18340
Ġperceived	18339
ĠColorado	18338
mean	18335
Ġsmile	18332
Ġending	18332
Ġtracking	18329
Ġpacket	18327
wrap	18324
Ġmolecule	18323
Ġwake	18321
Ġearn	18319
Vector	18317
Ġarrangement	18315
Ġeverybody	18313
ESS	18311
ometer	18310
Ġà¤	18309
ĠPython	18305
Ġangular	18298
Ġ\#	18298
sch	18297
help	18297
ĠPoint	18295
LC	18291
ĠSteve	18291
Ġliberal	18290
iction	18283
Ġviolent	18283
sd	18281
Ġspiritual	18272
Ġatom	18268
Ġve	18264
Ġshit	18263
itive	18262
Ġcart	18257
Ġskill	18256
ĠJim	18255
atter	18254
ito	18253
Ġshopping	18252
Ġhadn	18252
Ġsad	18251
Ġ600	18251
ills	18250
Ġalt	18236
Ġidentifying	18235
Ġcomplexes	18232
'}	18231
gov	18226
Ġrarely	18222
Ġease	18221
Ġruled	18220
Ġrandomly	18219
-*	18216
Ġtreating	18215
Î	18214
odes	18213
ĠUnfortunately	18209
Ġattended	18208
ĠFamily	18208
uro	18206
rin	18205
ĠĊĠĠĠĠĠĠĠ	18199
enum	18198
116	18196
Ġpromising	18195
ĠIreland	18195
Ġprecision	18190
person	18189
Ġvital	18187
Ġchildhood	18184
cells	18182
ĠOct	18179
Ġpoliticians	18177
Ġdesigns	18177
Ġshorter	18176
ĠJews	18173
Ġaging	18165
Num	18164
ait	18163
Ġinstitution	18157
Ġ109	18151
Ġintegrity	18148
Ġtransportation	18142
Ġtips	18141
interface	18137
channel	18134
kl	18133
activity	18132
ĠTown	18132
ĠDef	18131
Ġultimate	18124
Ġchemotherapy	18122
STR	18121
019	18119
ĠSA	18118
Ġpointer	18117
Ġ105	18117
1996	18114
Ġwashed	18111
Ġinvalid	18111
Ġsole	18110
ĠArizona	18106
Ġoxide	18101
Ġdeeply	18100
Ġpregnant	18097
Ġclause	18096
ologic	18095
Ġbirds	18086
Cont	18084
Ġlifetime	18084
Ġ+/-	18082
IX	18080
Ġcollective	18077
Ġsteady	18076
Ġjoy	18074
Ġconcepts	18074
Ġ=\	18074
Ġcor	18072
Dialog	18069
ĠJSON	18066
Ġsentencing	18065
Ġharder	18061
HD	18059
ĠMedicine	18046
iling	18042
req	18037
Ġbid	18037
Ġì	18036
even	18032
ĠSeveral	18031
osa	18029
Ġeverywhere	18028
\_[	18026
Ġ<!--	18026
Ġsurvive	18023
draw	18020
ifications	18018
ĠDR	18014
Ġresidues	18013
Ġforever	18013
Utils	18008
Ġlabels	18007
ĠSol	18004
DNA	18003
ĠAccess	18002
ÃĹÂ	17999
Ġjson	17998
SET	17997
Ġamended	17997
Ġ118	17997
Ġallegedly	17984
methyl	17975
Ġhybrid	17974
Ġphases	17973
Ġ["	17973
Activity	17969
Ã¨	17964
anger	17964
cit	17962
Ġdisabled	17958
ĠIntroduction	17958
ĠĠĠĠĠĠĠĠĠĠĠĠĠĠĠĠĠĠĠĠĠĠĠĠĠĠĠĠĠĠĠĠ	17950
Ġ128	17949
čĊĉĉĉ	17945
auto	17939
roll	17937
Ġ1983	17933
ologist	17925
Ġpaint	17921
Ġdoctrine	17909
ĠCOM	17907
good	17906
1997	17906
unch	17902
Ġnewspaper	17902
FB	17892
away	17890
Ġcampus	17890
Ġcomputing	17889
none	17885
ĠRem	17883
vol	17881
Three	17877
ĠSeries	17876
install	17874
ĠHistory	17872
Ġfabric	17871
reference	17870
Ġfunny	17870
Ġcurrency	17866
flags	17861
analysis	17861
ĠMad	17857
atin	17856
Ġ106	17855
ĠRun	17854
usion	17853
\}	17852
Ġmonthly	17848
Show	17846
rav	17845
MOESM	17844
wedge	17842
Ġdoors	17841
erc	17839
Ġ116	17838
Ġsymmetric	17837
TV	17835
Ġcrash	17833
war	17830
Ġutilized	17830
Ġbio	17830
Ġrepeatedly	17829
Ġcert	17828
ĠMap	17828
Gl	17826
ĠCancer	17826
ÂĹ	17825
nn	17824
hspace	17818
Ġadopt	17812
Body	17810
Ġwrites	17807
Ġpol	17802
Ġflavor	17801
ĠMP	17796
Make	17788
FI	17787
Ġaccompanied	17782
Ġmixing	17780
\^	17775
aws	17774
Ġenemy	17774
orted	17771
Ġpat	17768
Ġexhibited	17768
Ġbankruptcy	17768
iii	17756
Ġreporter	17752
Ġviolated	17751
Ġlying	17749
Ġarranged	17749
ten	17748
sn	17734
Ġopt	17734
ener	17733
Ġuns	17729
Ġsmoke	17724
aling	17716
Ġpulmonary	17716
Ġscalar	17714
Ġvessel	17712
Ġenvironments	17711
Ġchecking	17711
Ġmere	17710
pon	17705
sey	17704
REG	17704
imes	17703
ĠLA	17699
adi	17695
Ġjet	17695
Ġdysfunction	17695
Ġresidence	17692
ĠDem	17692
ĠCur	17690
Ġ(@	17689
ĠSpain	17685
aur	17679
hem	17677
/.	17677
CN	17674
Ġoccurring	17670
Ġmitochondrial	17669
ulated	17668
FILE	17666
Ġsurveillance	17664
Ġlanguages	17662
bd	17656
ault	17653
ĠHo	17652
ali	17651
ĠStudy	17651
Ġreveals	17650
uation	17649
à¤	17647
Fl	17643
aming	17637
Ġma	17635
Ġtopics	17633
Ġstudying	17633
Ġtens	17631
:=	17625
Ġphilosophy	17623
pool	17618
Ġdisagree	17617
Ġvoted	17613
Ġreadily	17613
Ġtranscript	17612
ĠCS	17607
Ġjail	17606
Ġdeclined	17605
Ãª	17604
igned	17603
iser	17599
ĠAc	17597
Ġrecovered	17596
Ġperception	17592
Ġdad	17592
member	17589
Have	17589
ĠÑģ	17588
Ġadjust	17588
Ġlit	17587
ĠGar	17586
ÎĶ	17584
Ġ1986	17584
Ġsupporters	17582
ork	17580
ĠEastern	17573
fields	17569
ache	17569
component	17567
Http	17565
Ġpanels	17559
Ġreversed	17558
135	17552
ĠDep	17548
del	17546
ĠAgain	17543
Ġkick	17540
Ġderivatives	17540
ĠDue	17534
ĠCons	17531
Expression	17527
Menu	17520
ĠIslam	17519
Ġlegislative	17517
lex	17514
Ġdefects	17514
Ġdoses	17513
kt	17512
language	17510
ologically	17509
Ġembedded	17509
Ġinterpreted	17508
queue	17506
Ġmock	17504
security	17501
Ġtransactions	17495
ĠMethods	17495
Ġcorrelations	17494
Ġdiscover	17485
auth	17483
Ġblind	17480
omer	17478
sql	17474
aver	17472
ails	17466
ĠDid	17463
Ġputs	17455
Ġtroops	17450
Ġliked	17447
ĠÂĹ	17446
Ass	17444
Ġstellar	17444
Ġbottle	17444
osing	17437
Ġgod	17432
Ġunlike	17431
Ġmirror	17429
bon	17427
Ġfibers	17427
ĠChildren	17424
Ġreact	17403
ĠThough	17402
Ġwireless	17400
Ġcholesterol	17400
Ġprinted	17393
Ġduties	17391
cept	17384
Ġsystemic	17384
Ġprominent	17377
'>	17376
wh	17372
Ġprosecutor	17369
Ġpolar	17367
Ġ1987	17363
Ġlabeled	17358
Ġtele	17355
Ġrating	17354
Ġpen	17353
Ġarise	17352
1995	17351
Ġcooling	17349
pan	17346
Hello	17346
Ġexciting	17344
Ġaffirm	17343
ĠRad	17341
Ġauthorized	17338
Ġpropose	17334
Ġparse	17330
Ġgen	17329
Ġactor	17323
ĠGR	17323
awa	17319
lines	17316
Ãł	17312
negative	17312
Ġexpressing	17312
ancy	17311
javascript	17305
Ġinfluenced	17305
ever	17303
Ġillustrated	17302
ĠWARRANTIES	17297
Ġassociations	17296
Ġsouthern	17295
Ġmountain	17294
ĠPRO	17294
clear	17293
session	17292
Ġtone	17287
ĠWil	17285
olar	17283
Ġcourses	17282
pen	17281
ike	17278
eral	17278
tbl	17275
Ġgained	17275
Ġprinting	17271
ume	17267
dep	17267
Tool	17263
ĠExt	17257
DP	17254
ĠLo	17245
pose	17243
Ġpending	17243
"));	17239
mission	17237
Ġraising	17234
ĠBell	17234
Ġattitude	17231
Ġdiscrete	17230
=-	17229
ĠFar	17228
Ġloans	17227
ĠImages	17224
Ġrear	17221
Windows	17220
ĠStart	17215
Ġconnecting	17212
Ġknee	17207
Ġinspired	17207
Ġtension	17205
Ġvalidity	17204
ova	17199
cases	17197
Ġsuicide	17185
Ġstupid	17181
Ġnorthern	17179
Rep	17177
Ġgut	17166
Ġgalaxy	17165
Ġicon	17164
Ġpara	17163
ĠThird	17163
ĠPacific	17162
(){	17161
Ġpitch	17158
rab	17152
Ġcoast	17151
Ġhopes	17150
ĠFair	17150
Ġburn	17148
aria	17147
Hi	17147
124	17144
Ġregistration	17142
CK	17140
scope	17139
category	17139
Ġprosecution	17138
109	17137
Ġsomebody	17136
Ġpred	17136
Ġphenotype	17135
Ġignored	17135
Each	17132
HC	17131
Ġinvariant	17129
~*	17126
Ġcontacts	17122
profile	17118
Ġguest	17109
Ġresonance	17108
Ġir	17108
IVE	17107
349	17104
013	17101
ken	17099
ĠKingdom	17098
Ġisolation	17094
ester	17092
ĠWithout	17090
Font	17087
.*]{}	17084
Ġdenotes	17084
plugin	17082
ĠHD	17080
ook	17079
because	17075
asc	17075
eric	17074
border	17073
iver	17064
Integer	17062
Ġpreventing	17061
Ġcardiovascular	17057
ĠAgency	17047
ĠAtt	17046
ĠDist	17044
RR	17043
Host	17039
Ġhtml	17036
mask	17035
Ð½	17034
Ġtransmitted	17033
*~*	17029
oor	17026
licenses	17023
Ġliterally	17022
Ġequilibrium	17020
ĠAgreement	17018
Ġ"#	17016
mac	17015
ĠLie	17007
Ġexcessive	17002
ĠPal	17001
iment	16996
Ġdiffusion	16993
Ġevident	16992
diff	16991
United	16990
Ġprospective	16990
ĠHave	16989
Ġpounds	16988
Ġfa	16988
Ġembodiment	16988
Ġeliminate	16985
Ġfactory	16978
ĠÂ¶	16977
!)	16976
Ġdish	16976
ĠFL	16971
ĠPan	16968
ĠED	16968
INE	16967
ĠLove	16965
ocal	16963
Has	16961
Ġswitching	16960
amm	16958
wo	16954
aux	16954
011	16954
Ġpublicly	16950
Ġgravity	16946
save	16944
ĠGames	16943
Ġedit	16942
Ġdefensive	16932
Reader	16924
Ġphosphorylation	16918
Ġelectricity	16916
ĠAcc	16914
Pa	16912
PV	16911
igh	16909
being	16908
Ġregulated	16908
Ġworried	16907
Ġtonight	16904
Ġphysically	16902
Ġobesity	16902
Ġfe	16901
ĠAnderson	16900
Ġep	16897
Process	16896
oplus	16895
ĠBitcoin	16893
Ġamendment	16891
short	16889
amin	16888
Ġdifficulties	16885
Ġdefect	16885
ĠĠĠĠĠĠĠĠĠĠĠĠĠĠĠĠĠĠĠĠĠĠĠĠĠĠĠĠĠĠĠĠĠĠĠ	16877
hal	16876
Ġcombine	16876
Ġdestruction	16874
Ġdelayed	16873
Ġboxes	16873
Ġspecificity	16871
SW	16866
Ġattractive	16866
omb	16862
Ġdenial	16860
Ġip	16857
Ġassumptions	16856
perp	16851
erman	16850
Ġstorm	16850
Ġepisodes	16850
Ġcoli	16842
Ġovernight	16841
.(	16839
Ġast	16836
HL	16835
ĠZealand	16834
126	16831
Ġfounded	16829
ARD	16827
Ġpoverty	16827
ended	16813
ĠConsequently	16813
equ	16812
Ġsearching	16807
Ġattributed	16803
iate	16802
ĠĠĠĠĠĠĠĠĠĠĠĠĠĠĠĠĠĠĠĠĠĠĠĠĠĠĠĠĠĠĠĠĠĠ	16798
super	16796
Ġtill	16782
Ġhardly	16779
ĠPerhaps	16779
pin	16778
Ġdisplays	16770
ĠAng	16765
hers	16762
spec	16761
\[[@	16761
pect	16758
ĠBase	16758
ĠTra	16756
Ġpace	16754
Ag	16749
Ġbatch	16749
_{-	16747
Ġblocked	16745
Ġabortion	16744
\,\	16739
very	16737
ifies	16736
High	16736
Ġhits	16736
Ġcycl	16735
Ġacknowledge	16731
oot	16728
ĠGO	16726
ĠWITH	16725
Ġgenuine	16718
Ġflags	16715
Convert	16713
`,	16712
ĠDu	16711
JS	16710
114	16709
xs	16701
Ġframes	16701
Mark	16700
Ġcompatible	16697
Ġbeliefs	16696
Ġ1985	16695
ĠRet	16689
van	16683
Ġoven	16675
igen	16672
Ġpermissions	16668
Ġdefend	16668
face	16666
Ġ103	16663
ĠÐ²	16662
čĊĠĠĠĠ	16661
Ġml	16659
_,	16657
Ġpartnership	16657
ĠHead	16657
Ġenables	16646
Ġvisits	16643
Ġobtaining	16638
Ġlift	16638
Session	16636
Ġretain	16635
Ġaffecting	16635
late	16633
sign	16632
human	16632
shape	16631
ĠAdditional	16630
bind	16628
sex	16627
Ġmagnet	16626
Ġgenerator	16621
Ġfinger	16617
Ġ108	16617
Ġpepper	16616
Ġ{@	16613
ĠBook	16610
[[	16609
Ġgotten	16609
ĠMah	16606
Ġmagic	16601
ĠSir	16598
Ġguns	16596
fill	16591
Values	16590
ĠDesign	16590
ĠBal	16588
022	16586
×	16584
ĠSpecifically	16584
Ġdifferently	16583
Ġcoal	16583
^)	16578
Ġmaximal	16574
delete	16572
Ġtradition	16570
Ġpur	16569
Ġweights	16568
Ġawesome	16567
Ġhydro	16563
Ġdescribing	16563
Ġbehaviors	16562
Free	16551
ĠRel	16550
Ġfits	16548
ĠTitle	16546
EG	16545
Ġreflects	16545
elt	16542
Ġ01	16538
ashed	16532
Maybe	16529
Ġcontest	16529
ĠMinistry	16526
bot	16525
Ġasks	16525
Ġfunctionality	16522
resource	16521
Items	16520
Ġbearing	16514
Ġfilling	16512
ĠIowa	16512
Ġdesignated	16511
ĠPlay	16511
Ġdemocracy	16510
Ġdeals	16510
ĊĠĠĠĠĠĠĠĠĠĠĠĠĠĠĠĠĠĠĠĠĠĠĠĠĠĠĠĠĠĠĠĠ	16509
iot	16508
Ġcommands	16508
Ġink	16501
Ġcallback	16501
Ġclinic	16500
lor	16499
Ġunderwent	16493
1994	16484
dat	16483
ĠFord	16483
Ġtrends	16482
**.	16480
Ġpredictions	16480
Ġinv	16480
also	16476
Ġinvestigations	16476
Ã©e	16472
Ġequality	16472
Ġselective	16471
Ġinterviews	16470
Ġbas	16469
192	16468
Additional	16467
ĠRather	16465
Ø	16463
NN	16462
iant	16460
Record	16460
ression	16443
orts	16439
cul	16439
Bs	16434
Ġmill	16433
ĠArray	16432
Ġcord	16430
Product	16429
Ġblame	16426
Ġshoes	16424
\.	16423
urt	16418
Ġtexture	16417
Ġbreaks	16410
Ġretail	16405
Ġprogressive	16401
023	16400
Ġfitness	16399
ĠAward	16395
Ġprogramme	16394
Ġcre	16394
energy	16393
Ġsegments	16393
Ġrad	16391
ĠFalse	16390
$^{-	16386
rog	16381
figure	16381
itude	16380
Ġlistening	16373
ocation	16371
Ġweird	16370
Ġgear	16370
++;	16369
----	16368
omas	16365
Ġweekly	16362
Ġms	16357
AE	16354
WS	16349
instance	16344
ĠOff	16343
Ġfarmers	16336
ologists	16335
Ġvariant	16335
ĠdÃ©	16335
Ġdetector	16335
Collection	16331
random	16329
âĢ¯	16325
Ġconspiracy	16323
ĠSon	16321
translation	16320
700	16318
Ġxmlns	16318
ĠJordan	16318
ĠArticle	16317
Ġcombat	16314
Ġconsciousness	16309
Ġfocusing	16307
Ġhypertension	16302
Ġsynthetic	16298
Ġinserted	16297
Ġboundaries	16296
Ġpython	16292
icate	16286
cle	16284
Ġtherm	16278
ners	16276
Ġpipe	16276
ames	16271
Ġintellectual	16271
ĠStill	16269
Ġattempting	16268
ĠSciences	16266
------------	16264
CV	16260
}'	16256
ĠCook	16253
Ġangry	16248
Ġinsight	16247
Ġvertices	16244
ded	16243
ĠArab	16237
Ġ1984	16237
ĠNick	16235
rant	16234
Ġfavorable	16229
Ġcomputers	16226
Ġindices	16222
Ġ![	16221
Grid	16220
ĠPo	16210
Ġ135	16210
Ġadapted	16207
Ġconfident	16206
Ġapps	16206
Ñĭ	16200
ĠAC	16198
Ġrendered	16196
while	16195
Ġphysicians	16191
Ġregulate	16190
Ġvaried	16187
ĠGreek	16187
derived	16183
113	16178
Ġfitting	16175
WR	16172
Ġmath	16171
Operation	16169
Ġconvenient	16166
modules	16162
Ġfatty	16162
aine	16158
ĠGrant	16157
ĠRay	16155
ples	16154
Ġcombinations	16154
Ġaims	16152
Ġpolynomial	16151
Ġintracellular	16151
Ġdeeper	16151
Ġreflection	16149
Ġedition	16147
Ġ$.	16143
Ġinverse	16139
İ	16132
Ġcos	16132
Ġsettled	16129
ĠCPU	16129
ĠAlex	16127
Ġfragment	16123
ĠSanta	16121
Ġfunded	16118
Ġ132	16113
Ġstretch	16111
news	16110
Ġnegligence	16110
Ġdates	16108
âĢ²-	16107
etc	16105
Ġrestaurants	16105
Ġlateral	16104
eds	16103
forall	16102
Ġterrible	16102
Ġintense	16098
register	16097
Ġrail	16095
*(-	16093
Params	16092
Ġpeaks	16092
Ġdoc	16089
Ġsuspension	16088
ĠColumbia	16086
Ġmatched	16085
Ġlimiting	16084
VC	16083
plot	16081
omy	16079
Ġretirement	16076
Ġdisclosure	16075
Ġmood	16074
Ġcollapse	16069
Handle	16066
Ġquantities	16064
Ġepithelial	16064
Ġ"<	16064
Ġsatisfying	16061
Ġmagazine	16056
ando	16055
exec	16049
Ġdans	16048
Parent	16047
Ġtransparent	16041
ĠRound	16037
ĠPBS	16035
.:	16033
Ġslight	16029
ival	16025
party	16022
Ġscoring	16022
Child	16021
Ġsauce	16021
()->	16017
Ġjuice	16017
$]{}	16014
inder	16011
GP	16010
Ġbreakfast	16010
keys	16009
move	16007
ional	16006
1990	16006
ĠKar	16005
Ġpeer	16003
Ġconsensus	16003
Ġfingers	16001
Ġpotent	15998
ĠSur	15997
Ġchoosing	15996
iders	15994
UE	15991
Ġbat	15989
ĠBC	15989
Ġmortgage	15987
Ñı	15986
Ġvulnerable	15985
simeq	15984
ĠProfessor	15984
Ġscaling	15982
Ġlawsuit	15981
kind	15978
Ġchains	15978
AGE	15977
ogenesis	15976
Ġmanually	15975
UC	15974
abel	15973
Ġpreferably	15967
Ġdamaged	15966
ĠPE	15960
Ġdollar	15959
1993	15958
Ge	15957
astic	15955
.).	15949
Second	15946
Us	15945
Ġlikes	15943
Ġstrictly	15942
Ġ+\	15942
Ġrepresentations	15940
Ġtied	15937
plan	15933
Ġrent	15932
Ġphysiological	15927
Ġholiday	15927
è¯	15924
ati	15917
Par	15917
ĠCommonwealth	15912
Ġdeveloper	15911
Ġsupplies	15909
Ġbelong	15907
Her	15906
Ġshots	15905
čĊĠĠ	15905
Ġce	15904
Ġwondering	15902
bers	15899
ĠProperty	15898
ĠPen	15898
ĠPlace	15897
é	15895
your	15894
ĠBrazil	15890
bibr	15889
atives	15887
zen	15882
rer	15881
Ġisolates	15876
pers	15875
Ġtolerance	15870
Ġbounds	15866
âĢĻ.	15857
}$$\	15856
hood	15846
ĠCap	15845
terminal	15842
Ġpushing	15842
NR	15838
ĠPI	15838
Ġhal	15837
ĠRoman	15837
Ġaggressive	15834
Ġdeposition	15832
Ġions	15831
had	15830
Ġvisitors	15828
password	15826
Ġentities	15825
Ġmsg	15820
thread	15819
ĠĠĠĠĠĠĠĠĠĠĠĠĠĠĠĠĠĠĠĠĠĠĠĠĠĠĠĠĠĠĠĠĠ	15818
Ġdat	15817
uel	15816
Ġquote	15815
ĠNF	15815
ĠAdam	15813
;">	15812
Param	15811
Ġqui	15810
Ġobjection	15809
Ġlogical	15809
ĠMajor	15809
ached	15806
ĠTurkey	15803
220	15802
Ġtemp	15802
atal	15801
Ġbills	15801
Ġviruses	15797
items	15796
mut	15791
-$	15789
CODE	15788
iring	15783
ĠCC	15779
ĠSR	15776
Ġresidual	15771
Ġsir	15770
Ġgrass	15770
Despite	15768
stra	15764
hl	15761
,\,	15759
Ġassistant	15756
Mc	15755
Ġmac	15754
Panel	15753
ĠBible	15753
ship	15752
\!	15750
Ġstat	15750
ĊĠĠĠĠĠĠĠĠĠĠĠĠĠĠĠĠĠĠĠĠ	15746
made	15745
admin	15739
ĠĠĠĠĠĠĠĠĠĠĠĠĠĠĠĠĠĠĠĠĠĠĠĠĠĠĠĠĠĠĠĠĠĠĠĠĠĠĠ	15739
NULL	15734
Ġtall	15726
ĠWE	15726
Ġbaseball	15724
seq	15720
Ġnucleus	15714
Ġemerging	15713
ãĤĴ	15712
Ġreferring	15711
ped	15710
Ġequipped	15710
users	15705
VM	15700
oul	15697
ories	15696
ĠGaussian	15696
ĠAssembly	15695
Ġinquiry	15694
chain	15691
widget	15689
Ġna	15689
ĠSW	15689
Ð´	15685
_>	15681
Ser	15679
145	15676
utils	15675
Â³	15671
Today	15670
names	15669
Ġmembership	15667
Ġcavity	15666
ĠUnless	15663
TEST	15662
Ġpocket	15662
Ġdeficiency	15662
ĠMAP	15662
Ġ***	15662
regulated	15658
phase	15656
Ġsensors	15656
ĠParliament	15656
æĺ¯	15651
Ġterritory	15651
}}}_	15647
Br	15647
Ġtoxicity	15647
aked	15641
ĠHarris	15639
Ġplatforms	15638
iveness	15637
ĠYeah	15637
ĠCam	15637
ĠAndrew	15635
grid	15633
TER	15631
Ġinvited	15630
upp	15627
una	15626
NF	15622
Ġvessels	15622
Ġbirths	15622
Ġpromised	15619
Json	15617
EV	15613
Ġtrick	15610
Ġtired	15610
ĠCoast	15609
iva	15607
Ġsaving	15607
Ġextending	15606
Ġmuscles	15603
Ġdeny	15602
Ġdefining	15602
ĠMinnesota	15602
Ġhealing	15599
Ġodds	15596
Ġpipeline	15594
Ġparticipated	15590
Ġjournal	15589
Ġmodeling	15588
Ġagreements	15588
129	15586
Ġkn	15579
Ġpig	15576
Return	15574
selected	15573
gn	15566
ĠSand	15566
Ġadapt	15565
Ġobligation	15563
Ġdance	15562
ĠHamiltonian	15562
ĠFisher	15561
omic	15559
Ġstomach	15559
ĠRa	15554
ĠIndiana	15553
ĠDaily	15553
doi	15551
Ġ|\	15551
Ġinjected	15548
SQL	15547
[**	15545
Ġaccurately	15543
ĠWin	15542
Ġtre	15538
Ġestimation	15538
ĠIM	15535
Ġbehavioral	15534
Ġencounter	15531
account	15529
Chapter	15527
each	15523
Ġsuspected	15521
LP	15518
Ġpreserve	15516
Ġfil	15516
Ġinflation	15515
ãģ«	15514
Ġnobody	15514
ãģĦ	15513
VD	15513
ĠSign	15513
Ġestablishment	15512
ĠAfghanistan	15507
Ġmeaningful	15506
Ġregarded	15503
OF	15500
Mod	15500
Ġcertificate	15499
aki	15497
Ġcortex	15495
Ġtort	15494
Ġbird	15494
Ġwedding	15492
Ġimpressive	15491
""	15490
Ġtalent	15486
Ġphrase	15485
Ġlease	15485
DF	15483
Ġplugin	15481
Ġdeemed	15481
FO	15479
colon	15478
Ġsuspended	15473
Ġarrive	15473
Ġorth	15467
Ġfer	15467
Ð	15464
python	15462
ights	15459
ĠPass	15456
ĠKorean	15456
ĠFather	15456
Ġresistant	15455
ĠToronto	15454
ila	15452
ĠPHP	15452
ĠLittle	15452
Ġstayed	15451
Ġoxidative	15451
Ġresident	15446
Ġreliability	15445
Ġ''	15443
Ġpsych	15441
ĠQueen	15440
Ġpromoting	15436
Ã§	15434
ĠmL	15434
Ġarising	15431
Ġarc	15431
century	15428
240	15423
Ġexpense	15422
ĠSupport	15418
280	15416
Ġindication	15416
Ġcomparisons	15416
Di	15415
Ġelectrons	15415
roph	15410
Ġpossess	15410
Ġassign	15409
Ġmicroscopy	15408
ĠLibrary	15406
Ġelderly	15400
Ġendothelial	15399
sample	15398
Ġadjustment	15397
raction	15393
)</	15392
Ġ-------	15390
ower	15387
eline	15385
EXT	15379
Ġartificial	15378
Ġenergies	15375
Ġpersonality	15371
ĠHouston	15370
RL	15369
mes	15366
views	15365
Init	15365
Round	15363
Ġdemonstrates	15362
ials	15356
Ġbranches	15355
idx	15354
bigg	15353
aled	15349
Ġmanifest	15347
Ġlifestyle	15347
ez	15346
Ġspots	15345
Î¼	15343
ĠSystems	15341
ĠRegister	15341
Ġexisted	15337
GM	15336
175	15334
Ġinputs	15334
Ġdistances	15333
ract	15331
Ġthreats	15329
Ġ107	15328
Ġdefinitions	15327
FIG	15324
Ġsuppression	15323
ĠSpirit	15323
rect	15321
Ġdefeat	15321
zone	15320
Ġengagement	15320
Ġposterior	15319
VF	15311
Ġinhibited	15311
ĠDefense	15308
Ġhall	15306
Ġvariability	15305
Rule	15301
Ġpointing	15300
Ġnose	15300
Ġvisiting	15298
Ġ1981	15296
Ġdocumented	15295
Ġgenomic	15291
Ġ&=&	15288
Ġawait	15286
)_{	15285
Option	15283
ĠIFN	15280
Ġreply	15279
ĠBL	15279
Ġtends	15274
people	15273
fast	15272
Ġranges	15272
Ġtrauma	15271
ĠRest	15270
otes	15269
Ġbull	15266
edu	15265
ĠMR	15262
Ġwarranty	15259
2020	15257
Ġlibraries	15254
ĠCambridge	15249
ĠSaudi	15247
Ġhandler	15246
Ġminority	15241
cons	15239
disc	15238
Ġparagraph	15231
ĠSU	15231
supp	15230
Ġbroadcast	15230
ĠMoore	15230
aching	15228
Ste	15227
Ġpunishment	15227
Ġclosure	15227
ria	15224
Discussion	15223
132	15223
Ġyeast	15222
Ġcomplaints	15218
165	15217
136	15217
ĠCu	15216
Ġcapabilities	15215
Ġheaded	15214
Ġec	15213
<?	15211
blog	15209
Ġdistinguish	15208
ĠEgypt	15206
Ġchocolate	15204
Ġ×	15203
Ġmem	15202
},$$	15201
ĠLewis	15201
Ġ1960	15200
Ġrevolution	15199
ĠEric	15199
?)	15198
Ġhang	15191
Ġuptake	15189
Ġhighlight	15186
Root	15185
)}(	15185
ĠEst	15179
Ġfinance	15176
Ġthirty	15175
Ġalongside	15174
ĠFort	15174
aving	15167
ĠChristians	15166
CONFIG	15163
hard	15156
AY	15156
Ġemerged	15155
Ġopens	15152
Ġbra	15152
License	15149
anda	15148
Ġsurprising	15146
Ġsuggestions	15145
Ġdenying	15145
Ġcrack	15144
Ġwing	15141
Ġsatisfaction	15141
itions	15138
Ġ255	15135
1992	15132
ĠLatin	15132
phone	15130
Ġli	15130
Ġupset	15125
posed	15124
118	15123
Ġtim	15122
ĠInterestingly	15121
Ġnitrogen	15117
ela	15116
Ġdental	15115
ĠNE	15114
Ġpassion	15113
Ġstrip	15107
watch	15106
Ġparticipant	15102
Ġresist	15101
uz	15099
'],	15098
Ġbasketball	15097
753	15096
release	15095
Abstract	15095
plus	15090
otype	15087
ĊĠĠĠĠĠĠĠĠĠĠĠĠĠĠĠĠĠĠĠĠĠĠĠĠĠĠĠĠĠĠĠĠĠĠĠĠĠĠĠ	15083
Ġfaculty	15081
Ġpreparing	15079
ĠShould	15075
Rect	15074
Active	15073
ĠHz	15073
ĠNode	15072
TP	15071
Ġinduces	15069
Ø§	15064
Ġxe	15062
General	15061
`.	15060
Ġfold	15060
gers	15058
ulin	15055
ACE	15054
Ġdense	15054
uer	15053
ĠNations	15050
custom	15049
Ġoccasion	15049
ĠBra	15046
Load	15044
hot	15042
ĠMart	15041
Ġtransformed	15038
Ġwinner	15035
Ġheading	15029
Ġvirtually	15024
[$	15020
147	15020
Ġhosts	15019
Ġanger	15019
Ġbases	15017
stage	15014
lement	15013
Identifier	15012
wd	15011
EP	15009
|-	15008
allow	15003
ĠSpring	14999
Ġorbit	14994
itable	14993
hep	14993
grade	14988
1991	14986
enable	14976
Ġclaiming	14976
mM	14975
Ġtrail	14975
POST	14974
degree	14973
Ġwelfare	14973
946	14969
Ġconstraint	14969
aid	14968
Based	14965
Ġasset	14959
Introduction	14958
ĠLook	14958
à®	14956
Ġreceives	14956
Ġblocking	14953
Ġrespondents	14949
nutrients	14945
Ġcoronary	14945
bal	14942
ĠBa	14942
Ġprobable	14938
ocytes	14937
Ġticket	14936
formed	14934
Properties	14934
LR	14934
actions	14932
Ġlocked	14931
btn	14928
Ġconfusion	14925
Ġ).	14925
Full	14923
Ġfake	14921
ĠGC	14915
rell	14912
pat	14910
ĠSea	14905
ĉĉĉ	14901
Ġnp	14900
ĠĠĠĠĠĠĠĠĠĠĠĠĠĠĠĠĠĠĠĠĠĠĠĠĠĠĠĠĠĠĠĠĠĠĠĠĠ	14900
bert	14896
Ġgovernor	14895
Pos	14893
ÃĲÂµÃĲ	14892
ision	14891
Ġpor	14891
ais	14890
Ġcommunicate	14890
Ġaffirmed	14889
Ġchances	14887
Ġprotocols	14883
urn	14882
unc	14879
Ġ133	14879
ĠSS	14878
edge	14875
Ġoptimization	14875
Ġagenda	14870
Ġconstants	14867
idine	14866
Ġreset	14866
ĠIgG	14865
ĠCommissioner	14865
ĠBR	14865
Take	14864
Ġdecomposition	14861
0005	14857
Ġhat	14857
Mo	14856
ĊĠĠĠĠĠĠĠĠĠĠĠĠĠĠĠĠĠĠĠĠĠĠĠĠĠ	14854
ĠHas	14853
ĠÎĶ	14852
ĠRam	14848
ĠSilver	14847
Ġwavelength	14844
Custom	14843
Ġsubgroup	14843
Ġcultured	14843
ĠMcC	14843
Ġdep	14842
plain	14837
illi	14836
Ġspec	14836
Ġeq	14835
Ġshortly	14834
Ġparams	14834
kins	14833
Ġinterpret	14832
ston	14831
atively	14830
Ġflour	14826
Ġappreciated	14826
Ġpleasure	14825
Ġfrozen	14824
ante	14822
sort	14820
Ġshaft	14818
Ġdetermines	14818
Ġtimely	14817
Ġcircular	14815
144	14813
Ġgross	14811
aste	14808
World	14808
Ġsudden	14808
Ġorange	14807
Ġjustify	14806
Ġdistinction	14806
Ġdonor	14802
Ġsolved	14798
Ġgrain	14797
Ðº	14796
<<	14796
Ġappointment	14795
Ġtracks	14793
Ġsilicon	14792
ĠCNN	14791
URE	14788
)\,	14788
Display	14787
MENT	14786
``	14782
EF	14781
margin	14777
mal	14776
Ġbleeding	14776
ĠTHAT	14775
Ġcookies	14773
Ġefficiently	14767
Ġmutants	14765
ĠMarket	14763
Ġ134	14763
Ġsecured	14761
Ġthrown	14757
Ġlocalization	14757
Ġexclusion	14757
gathered	14755
204	14755
./	14755
Ġcriticism	14755
cript	14751
ĠĠĠĠĠĠĠĠĠĠĠĠĠĠĠĠĠĠĠĠĠĠĠĠĠĠĠĠĠĠĠĠĠĠĠĠ	14751
825	14742
Ġtags	14742
134	14739
Both	14736
Ġreputation	14736
Down	14734
Ġnavigation	14733
ĠTer	14731
Ġthreatened	14730
Ġbomb	14729
ĠChild	14729
Ġreward	14728
rist	14723
Ġmemories	14719
Ġcustody	14719
ĠOUT	14715
fb	14714
Mac	14713
Ġstimulus	14708
eman	14706
Ġradi	14704
ĠSports	14701
Ġsilent	14699
ĠRos	14695
Ġ{"	14694
Ġstriking	14694
Ä±	14693
Ġoptional	14693
CU	14692
Ġreplication	14690
BF	14689
fo	14688
Ġsuppress	14688
ĠFeb	14685
MAP	14683
lect	14681
Ġanybody	14676
Ġcancers	14671
ĠSn	14669
ĠInsurance	14668
ĠSort	14667
ĠBer	14667
Ġcircuits	14661
Ġinstruments	14660
Ġprejudice	14659
Definition	14655
ĠStephen	14655
ground	14653
ports	14651
Ġflying	14651
illed	14648
Ġhistoric	14646
ulf	14645
Ġwins	14645
TL	14644
Ġ1982	14643
ĠMont	14641
pid	14635
race	14633
yg	14630
tools	14630
Ġliable	14625
Ġhero	14625
ĠHoly	14625
Ġchallenged	14624
Thus	14623
Ġtraits	14618
Ġnonlinear	14617
ĠStat	14615
olds	14614
Ġmature	14606
models	14604
Ġtries	14604
ience	14603
Ġconserved	14603
temp	14602
anes	14600
Ġeveryday	14599
utions	14597
ĠWisconsin	14595
Ñĩ	14592
Ġfactual	14590
ĠEM	14588
Ġrescue	14587
Ġdecimal	14586
settings	14583
oun	14583
Ġacted	14582
Ġcomm	14580
$).	14577
fall	14576
Ġinches	14575
ĠException	14574
Ġcalm	14571
Ġgray	14569
Ġbelongs	14568
Ġdried	14567
1986	14566
Ġvegetables	14565
Ġstained	14554
Parameters	14551
screen	14547
Ġ800	14546
wp	14545
Ġresidential	14538
bad	14537
TM	14536
ÃĦ	14535
Ġsatellite	14534
Ġlitigation	14534
ĠMid	14534
Ġqueue	14531
Ġmining	14531
ading	14529
rag	14524
ĠFR	14524
Ð²	14522
.\[[@	14518
170	14516
fit	14515
elli	14515
čĊčĊĠĠĠ	14513
ĠReturns	14512
inflammatory	14511
ket	14510
ĠÎ¼g	14510
Ġgraphs	14510
Ġfilters	14510
ĠProcess	14508
,_	14505
Ġexclusively	14504
ĠSometimes	14504
Ġseats	14503
155	14502
ted	14499
)^{\	14499
Ġgradually	14496
Ġflows	14494
Ġtech	14493
ĠâĤ¬	14490
Ġbedroom	14490
Ġprevented	14488
forms	14485
lands	14483
hbar	14482
attribute	14477
pres	14475
Ġsentenced	14475
Ġimpairment	14472
four	14471
Ġwage	14470
court	14468
zi	14466
Ġflowers	14466
Background	14463
ĠKelly	14463
Ġ<?	14462
NOT	14459
Enabled	14458
Ġwidespread	14456
WH	14455
Ġrespondent	14455
Ġgeneralized	14455
Ġestablishing	14455
Ġsimilarity	14454
Ġur	14453
Ġconvergence	14453
cha	14451
Ġconfused	14450
Ġactors	14448
Ġmothers	14444
ĠKen	14444
elf	14442
Ġartist	14437
abl	14436
Ġresin	14436
Cons	14433
âĢ	14432
Ġstating	14432
bury	14429
Ġnotation	14429
Ġxml	14428
Ġ^{	14425
nl	14424
ĠRA	14424
ĠSoviet	14422
Ġroads	14420
jar	14418
ĠXML	14417
Ġste	14413
ĠES	14410
yst	14409
icular	14408
Ġindependence	14407
Ġdescending	14405
Ġcompression	14405
Ġpas	14404
Ġreplied	14401
Ġminds	14401
Ġintersection	14399
ild	14398
Ġjoining	14397
zip	14393
ech	14392
standard	14390
Ġbarely	14390
ĠHol	14380
Callback	14378
'(	14377
ERR	14376
ims	14375
rl	14373
nie	14373
ti	14372
norm	14372
Ġseeks	14371
ĠKansas	14370
Ġscenes	14369
Ġatomic	14369
Pe	14368
uth	14367
through	14366
Ġsymbols	14366
Ġrestore	14365
ĠAv	14363
Ġpolarization	14361
hor	14359
Bytes	14359
Ġmotions	14359
Ġmethylation	14359
ching	14357
Ġguests	14356
Ġsquad	14354
Ġhook	14353
Ġlady	14352
ilt	14346
Ġviewing	14344
Ġsalary	14343
Ġ'\	14342
hw	14341
inst	14340
Ġbold	14338
anks	14335
Ġquestionnaire	14334
Async	14333
122	14333
Ġpreference	14333
rees	14332
ifdef	14332
Ġarch	14329
Ġtrivial	14328
Ġemploy	14327
Ġprocessor	14325
ĠAG	14325
Ġcomputation	14323
edit	14322
Every	14321
Ġenhancement	14318
Ġcapability	14317
Ġ136	14317
Ġfiscal	14313
Ġprescribed	14310
Ġincredible	14302
ipe	14301
rule	14300
ĠĠĠĠĠĠĠĠĠĠĠĠĠĠĠĠĠĠĠĠĠĠĠĠĠĠĠĠĠĠĠĠĠĠĠĠĠĠĠĠĠ	14299
Ġje	14297
Ġairport	14297
ĠMethod	14296
ĠCore	14296
Day	14295
ĠPy	14280
"};	14277
ĠWild	14274
Ġdating	14271
ĠRadio	14270
nb	14269
Ġmanaging	14267
Ġattorneys	14266
aint	14265
Ġacceptance	14262
Ġpal	14261
Names	14259
ĠDown	14259
205	14258
ĠMassachusetts	14254
Ġtw	14253
craft	14252
Ġunf	14252
Ġbriefly	14251
izz	14250
filename	14247
à¥į	14245
Ġpub	14244
pg	14243
umin	14241
ĠUpdate	14239
Ġanterior	14237
Widget	14233
ĠNature	14233
&#	14227
Ġattachment	14225
Ġlegitimate	14223
Ġstyles	14222
sur	14218
-------------	14218
Ġcocaine	14218
Ġoste	14217
Ġacknowledged	14214
Ġviolations	14211
ĠScale	14208
Graph	14207
Ġflu	14207
Ġemissions	14205
$_{	14199
Ġpeptides	14196
Ġdramatic	14190
DO	14189
TX	14187
Ġpartly	14187
Ġsurely	14181
izable	14179
berry	14179
Ġcontention	14178
)}}	14176
Ġcharacterization	14174
Ġoffices	14173
urb	14168
Ġdietary	14167
iqu	14165
.",	14165
lower	14161
Ġoh	14160
Ġdys	14159
Ġprotecting	14158
Ġmel	14154
ĠMag	14154
ĠClinical	14154
)^{-	14150
Ġparticipating	14150
Ġrandomized	14147
133	14146
Will	14144
Ġsavings	14144
ĠLC	14142
ĠAug	14142
{}	14141
Ġinvestigating	14141
Ġhex	14141
Ġcomplement	14137
ibr	14133
DATA	14133
toString	14131
Ġprovince	14130
Ġmaternal	14130
Ġfelony	14128
ĠKevin	14128
Adapter	14127
Ġknife	14125
linux	14122
Ġsigning	14122
Ġlandscape	14122
ĠGOP	14120
Ġunnecessary	14116
ĠĠĠĠĠĠĠĠĠĠĠĠĠĠĠĠĠĠĠĠĠĠĠĠĠĠĠĠĠĠĠĠĠĠĠĠĠĠ	14113
Ġdig	14111
Ġracial	14110
)*-	14106
Ġmethyl	14106
Ġseal	14101
uan	14100
Ġperiodic	14100
Ġsing	14097
SF	14096
Ġadvised	14093
025	14092
Ġmediated	14090
Ġletting	14087
âĢĻ,	14083
ĠPrior	14080
Ġrepresentatives	14079
Sign	14074
Ġtor	14073
Ġquasi	14073
Changed	14072
ĠDB	14071
iy	14070
Icon	14069
Ġpad	14062
VI	14060
Ġproportional	14060
Ġconservation	14059
ĠStation	14059
dem	14058
Ġbow	14056
Ġrough	14054
cam	14053
Ġloves	14053
pgen	14052
ĠABC	14050
Ġshadow	14049
Ġmodifications	14047
Ġdet	14045
121	14040
ona	14034
ĠScotland	14031
ido	14028
Var	14028
čĊčĊ	14025
ady	14024
ERT	14016
Super	14015
ser	14014
Ġmembranes	14013
Ġremarkable	14012
ental	14011
verse	14010
apt	14010
Ġplots	14010
Ġlovely	14009
ĠOp	14006
ĠHy	14006
ĠKong	14002
zer	14000
Flags	14000
Public	13998
oses	13997
ipping	13996
!!!	13995
Ġuna	13994
Ġhem	13994
Ġcoating	13988
Ġwarned	13985
Ġsentences	13985
Ġpurified	13984
Ġrs	13981
ĠNatural	13980
ĠIrish	13978
Ġ------------------------------------------------	13978
Ġemotions	13975
opy	13974
ogram	13974
Ġconfigured	13974
ĠCommon	13974
Ġtherein	13973
schema	13972
ĠFunction	13971
ĠCHECK	13971
ÃĲÂµ	13969
ĠTen	13969
Ġelectrodes	13968
Ġimpaired	13964
Ġrect	13963
Ġcooperation	13958
Ġsec	13955
ĠJeff	13955
ĠConsider	13954
ĠAssert	13951
transform	13950
ĠPlus	13948
Ġdim	13947
Ġlucky	13941
Ġnursing	13940
erate	13939
Ġactively	13938
Ġconstructor	13937
hu	13934
ãģ	13933
Ġdrove	13933
ql	13932
138	13932
Ġoutstanding	13929
ĠUkraine	13928
Ġsake	13927
Ġcontroversial	13927
shaped	13926
iest	13925
Ġmit	13925
Ġcop	13925
ASS	13924
156	13922
Ġdebut	13922
ÑĮ	13921
iana	13921
450	13915
found	13910
Ġfo	13910
&=	13908
Equal	13907
ĠTE	13905
ĠInclude	13904
onia	13903
Ġarrow	13903
ORT	13902
Global	13899
Ġaccomplished	13895
Ġoverlap	13892
ĠAut	13892
ĠUnit	13887
Ġrings	13886
fix	13883
IND	13883
Ġshipping	13883
Ġrelate	13881
Ġradial	13880
Ġhip	13880
137	13877
Ġpixels	13877
aya	13874
ĠBrian	13874
_+	13870
Helper	13870
Common	13866
Ġencouraged	13866
emia	13863
Ġdiscloses	13857
ĠWatch	13853
Ġintestinal	13850
priv	13849
Ġinitiated	13849
wn	13845
0004	13845
Ġinfants	13845
Ġwider	13844
Ġrelies	13840
Ġboss	13840
Ġprof	13839
aph	13838
Ġrobot	13837
Example	13836
Ġdisaster	13834
Ġmacro	13833
Ð¾Ð²	13831
Ġslide	13830
Ġinst	13829
Editor	13828
Ġprivilege	13827
Ġtub	13825
Writer	13818
210	13818
Ġfranchise	13818
Ġmoon	13817
Ġlaugh	13817
ĠOb	13816
XF	13811
mc	13810
Cr	13810
Ġsecretary	13809
Ġcircles	13809
Ġpositively	13808
à¤¾	13807
Ġgenerations	13807
mapsto	13805
lessly	13803
Ġintrinsic	13797
Ġfunctioning	13789
dec	13788
ader	13787
Ġcopper	13787
UV	13786
Ġexplored	13786
Ġstops	13785
ping	13782
lan	13775
displaystyle	13775
Ġdominated	13775
ĠRen	13771
fish	13769
ĠFull	13767
Ġsilence	13761
amide	13760
Ġimportantly	13760
ĠWeek	13757
Space	13756
Ns	13754
Ġcrossing	13752
ĠAB	13750
--------------	13743
wiki	13742
Photo	13740
Ġpermits	13739
Ġ137	13737
Ġdot	13735
println	13734
ARE	13733
pmatrix	13730
ĠGM	13730
Ġbathroom	13727
Ġlands	13722
ĠWas	13721
ĠDar	13720
Ġattacked	13715
Author	13713
Ġpharmac	13712
ĠMaryland	13712
Ġbrothers	13711
Ġreasoning	13710
Ġfirms	13708
ĠBMI	13708
ĊĠĠĠĠĠĠĠĠĠĠĠĠĠĠĠĠĠĠ	13707
Ġcorruption	13703
Ġrape	13702
Ġcontinuously	13700
LICENSE	13699
sen	13698
ules	13697
Ġarrival	13697
Ġlos	13696
Ġinfant	13695
Ġfantastic	13695
Ġupcoming	13690
Ġgains	13690
Ġcompete	13687
Ġattract	13685
ĠLu	13685
ĠEC	13684
READ	13683
area	13679
Ġconflicts	13676
ĠATP	13676
History	13675
Ġproxy	13674
hol	13673
ĠRose	13673
Ġquoted	13671
----------	13668
Ġdownstream	13668
Ġannouncement	13667
ĠSearch	13667
*=	13665
Ġprofits	13665
ĠBBC	13663
Ġconvinced	13662
))/(	13660
Ġimpose	13660
ĠSix	13659
Ġ",	13659
Ġax	13656
abstract	13655
Ġcomputational	13650
~)	13644
ĠNothing	13644
eting	13642
Ġexpertise	13642
ĠLy	13641
Å	13640
metadata	13639
ĠNavy	13638
1989	13635
oli	13634
Ġpursue	13633
Ġcas	13631
ĠChar	13631
ĠAvenue	13630
ĠMuseum	13629
Ġblank	13628
ĠAllen	13628
Ġ138	13625
chan	13624
aches	13624
0003	13619
Ġretained	13619
night	13617
Ġdatasets	13617
Ġped	13611
Ġwebsites	13610
Ġfluctuations	13610
Ġbro	13610
Ġproposition	13606
ctor	13604
ĠSL	13603
Ġreject	13601
Ġfeatured	13600
bus	13598
Ġbags	13596
ĠHaving	13596
Close	13595
Ġgrateful	13595
Ġscanning	13594
ĠSanders	13594
ĠHTTP	13594
wall	13593
ĠOregon	13593
Ġgraduate	13592
Ġ1979	13592
xf	13591
Ġrelied	13590
1988	13589
Ġcanonical	13589
mov	13586
half	13585
ĠCF	13579
Ġediting	13574
Ġguaranteed	13571
Ġmad	13568
inity	13566
Ġcraft	13566
1985	13564
Ġemphasis	13563
Ġdrives	13556
Ġcontemporary	13547
Ġcomply	13545
Given	13544
ptic	13541
ĠCard	13541
iler	13539
Ġgathered	13538
quality	13537
five	13535
^{*	13535
Ġtie	13532
Ġrecurrence	13532
Ġmutual	13532
Ġconsistency	13532
Ġindicator	13528
Ġdrag	13528
Ġcytokines	13527
results	13526
Ġstimuli	13526
lev	13524
ĠHong	13524
Ġchromosome	13522
ols	13520
OCK	13519
Ġmor	13519
Ġcorn	13517
obs	13515
INFO	13515
Ġinstitutional	13509
ĠClick	13505
prefix	13499
ĠTor	13496
Ġaffinity	13494
XX	13489
Ġpublish	13489
bra	13486
Ġwriters	13486
Ġsyntax	13486
Ġbath	13486
Ġexceed	13484
ologies	13481
ema	13481
Sim	13481
Ġdimensional	13479
Ġstrategic	13478
Ġfiring	13472
Ġmacrophages	13471
anna	13470
Ġreaches	13468
Ġum	13467
Ġought	13467
Methods	13466
West	13461
({{\	13461
Ġmanifold	13461
Ġinhibit	13458
}}=	13455
Ġaccounting	13455
Ġexpectation	13452
Ġconsisted	13451
Ġburning	13450
Ġclothing	13449
Ġlacking	13443
Ġsolvent	13441
ĠExp	13439
Ġ09	13439
pace	13436
ĠNet	13433
190	13431
ÐµÑĢ	13429
Ġunexpected	13429
wave	13427
Ġmount	13427
ĠHarry	13427
Eq	13425
mol	13424
expected	13421
ĠWay	13419
ĠArea	13416
Ġgenerates	13411
Ġstudio	13410
Ġsanctions	13409
ĠTNF	13409
three	13408
Ġstruggling	13407
ĠNC	13407
Ġstaying	13402
Sl	13401
Ø±	13391
Ġdecent	13391
oto	13390
ĠRelated	13390
ĠPhil	13388
would	13387
ĠLabor	13385
ĠSat	13381
Ġretired	13379
Ġmedications	13373
Ġsubstances	13371
Enter	13370
Ġtobacco	13365
Ġhoney	13365
Ġsil	13362
ĠMuslims	13360
Import	13359
Ġcorrected	13359
Ġcarries	13359
ĠHillary	13359
nel	13358
ĠDefault	13358
ipp	13357
Ġnucle	13353
ĠBox	13353
fp	13352
Ġwash	13352
ĠĠĠĠĠĠĠĠĠĠĠĠĠĠĠĠĠĠĠĠĠĠĠĠĠĠĠĠĠĠĠĠĠĠĠĠĠĠĠĠ	13352
:</	13350
Ġ127	13348
Ġcollaboration	13345
eqn	13344
valid	13343
ATED	13343
Ġgang	13342
ĠSelect	13342
vt	13341
lig	13339
1984	13339
ĠKIND	13337
Ġâ	13336
Ġservers	13336
Star	13330
Microsoft	13326
ĠLeft	13326
square	13325
Ġreplacing	13325
hs	13320
enter	13318
IES	13317
ĠReturn	13317
Ġterrorist	13316
Ġau	13315
Ġminimize	13313
Ġslot	13311
kit	13309
ĠØ	13309
Ġolig	13308
Ġfragments	13302
Ġcollision	13301
ĠScientific	13300
Â»Â	13299
Ġentrance	13299
Ġderive	13298
Ben	13296
))/	13292
Ġdrama	13291
raft	13287
Ġpredictive	13285
Ġreporters	13283
Ġmini	13280
ction	13277
containing	13276
Ġbench	13276
ĠHollywood	13275
Ġethnic	13269
video	13266
Ġ1977	13266
Ġspinal	13265
ĠMB	13265
ĠColor	13265
pd	13264
LY	13264
ĠÐº	13264
gi	13263
Ġentropy	13263
Ġloose	13262
Ġlongitudinal	13262
Network	13260
TG	13259
Ġroutes	13259
Ġslope	13256
Ġexceptions	13255
ĠÎ	13254
VERSION	13253
Ġcake	13253
HTML	13250
="/	13249
Ġham	13248
157	13244
Ġcontributing	13244
Ġscenarios	13243
oting	13242
ĠUbuntu	13240
Ġentertainment	13236
Ġinitiative	13233
ĠTry	13232
ĠSy	13232
Ġimpression	13230
Ġtooth	13227
Ġdreams	13226
ĠBio	13225
eling	13223
Ġenc	13222
Ġgastric	13220
Ġ170	13219
risk	13218
cost	13218
children	13218
utf	13217
mass	13216
Ġshifts	13209
MAN	13208
ĠTask	13208
izers	13196
Ġelect	13193
ĠMiami	13193
Ġschemes	13192
ILL	13187
Ġstraightforward	13187
Ġinhibitory	13185
Ġtendency	13183
Ġing	13183
PK	13182
Ġabnormal	13181
ĠAlabama	13181
rend	13180
rug	13178
Ġpossibilities	13178
ì	13175
osp	13175
Ġbroader	13169
999	13168
Ġplacement	13168
Ġparam	13168
)}{\	13166
Ġhired	13166
Ġlicensed	13163
Ġchlor	13163
Share	13161
Empty	13160
Ġpoorly	13159
rew	13157
ï¼ļ	13155
Ġ$${\	13155
Files	13154
ĠEdward	13154
Ġguilt	13153
ĠSimilar	13147
Ġpresenting	13145
Ġbegun	13145
}}^{\	13144
Ġallele	13141
Ġneighbors	13136
Ġfitted	13136
Gr	13135
Ġdetecting	13135
via	13133
ĠJean	13132
ĠCells	13131
ĊĊĊĊĊ	13128
ific	13125
350	13125
Ġmerit	13125
Ġlawyers	13124
Ġspokesman	13123
Ġencountered	13123
Ġsys	13120
Ġ1978	13112
Ġplacebo	13111
mas	13108
Ġships	13108
ITE	13107
Ġpersistent	13102
Ġnoting	13101
ĠCommand	13101
ĠLuc	13100
ĠPhiladelphia	13098
Ġordering	13095
Ġincubation	13090
ĠGene	13087
ĠFive	13086
Ġwanting	13085
Ġequity	13085
Ġanalysed	13085
Des	13082
Ġreconstruction	13082
Ġlesion	13082
Ġcro	13082
ello	13079
Ġdebtor	13078
Ġinvest	13077
ota	13076
Ġindividually	13076
Ġmanagers	13075
itors	13074
ika	13074
WA	13074
Ġneuronal	13074
Ġtro	13072
Ġaligned	13070
ĠFin	13070
Ġsphere	13069
ĠJavaScript	13069
Ġfishing	13068
ĠOverall	13068
cond	13065
Pol	13065
Ġoccupied	13064
Ċĉĉĉĉĉĉĉ	13064
report	13059
Ġmeals	13059
ĠBro	13056
146	13052
ĠTB	13050
article	13049
cing	13047
ĠSa	13044
Ġethanol	13043
iller	13039
Account	13039
por	13036
Ġstolen	13035
Ã¡Âº	13033
Ġconform	13031
ĠWord	13029
Ġraises	13028
Ġassociate	13028
Appellant	13023
139	13023
organ	13020
ĠStudent	13020
Ġ123	13020
Platform	13019
Ġchemicals	13019
Ġundefined	13017
Ġdelicious	13015
Ġbelt	13015
}}}(	13013
Ġgolf	13012
acher	13011
030	13011
ĠDiego	13009
ĠBow	13009
Ġdont	13006
ĠAuthor	13004
ĠSmall	13002
wt	13000
ĠCSS	12999
ĠExecutive	12998
anti	12997
ĠÂł	12995
Ġaffairs	12995
cloud	12993
Ġspecimens	12992
ICK	12991
Ġinspection	12988
worth	12986
Ġ(<	12985
202	12984
shift	12981
nes	12979
ication	12978
Ġtriple	12977
PF	12975
Ġlogin	12972
Ġsurrounded	12970
Ġpositioned	12969
ĠAk	12966
Ġloud	12964
ĠHim	12963
Ġlocalized	12960
ĠSeattle	12960
ĠÂ«	12959
Ġcitizen	12959
čĊĠĠĠĠĠĠĠĠĠĠĠĠĠĠĠĠĠĠĠ	12959
Ġformulation	12958
Ġaddressing	12957
Rest	12956
Ġpromotion	12955
SY	12954
Ġmile	12953
ĠAli	12952
amed	12950
198	12950
Ġhandled	12950
ABLE	12949
Ġalien	12949
callback	12947
ees	12940
Media	12940
ube	12939
bytes	12937
Express	12937
Ġarises	12937
Video	12935
ĠMom	12935
speed	12931
Ġsqu	12931
antic	12929
Obj	12928
Ġnegotiations	12928
ĠOklahoma	12928
Ġ-------------	12928
Ġwaters	12927
Ġbirthday	12927
oad	12926
ĠEqu	12926
ĠOil	12922
nam	12921
God	12920
apply	12919
force	12918
minute	12916
imb	12914
Ġbeings	12914
ĠFootball	12914
properties	12913
ĠARE	12913
ĠChange	12912
springframework	12909
Ġgrace	12909
Ġmeth	12906
154	12905
Real	12904
Ġquit	12893
ĠBureau	12893
DT	12891
Ġgrants	12889
Ġfin	12888
encing	12886
Ġurine	12886
Engine	12882
ĠFC	12880
Ġplug	12879
omet	12878
Ġexclude	12878
Ġlets	12873
ander	12872
),$$	12871
Ġcorporations	12871
ĠNR	12871
ĠLLC	12871
1987	12868
Ġtermination	12867
roid	12863
ĠForeign	12863
Ġverified	12862
ĠEvent	12862
ĠAp	12861
dk	12857
region	12856
CHAR	12852
omes	12851
ÙĦ	12844
Ġorgans	12841
ĠManager	12841
230	12831
ĠConf	12829
fx	12828
Ġdispersion	12828
Ġhearts	12827
ĠLabour	12827
Ġconsiderations	12826
apped	12820
Ġalloc	12819
Ġgra	12815
Ġrolling	12812
Ġhighlighted	12810
ĠEp	12810
Ġclubs	12808
apping	12805
âĢ©	12803
Delete	12801
Ġchairman	12801
Ġcarriers	12801
ĠSyrian	12796
Ġlim	12793
het	12792
Ġsheets	12791
ĠInvention	12791
âĸ	12789
share	12787
gan	12786
ĠPhoto	12786
agen	12782
Ġprostate	12782
Ġindictment	12778
oud	12777
EQ	12774
elled	12772
depth	12772
Stop	12772
onal	12771
Ġexc	12771
Ġoccasionally	12768
ĠTw	12767
ĠInv	12767
Ġinsights	12763
agn	12762
Ġsimulated	12762
Ġimplements	12757
shared	12754
Ġexpanding	12754
Ġengaging	12754
lers	12749
Ġsuggestion	12749
Ġbarriers	12749
vc	12748
Directory	12748
Ġshapes	12748
Ġphoton	12748
ĠArm	12748
Ġflexibility	12745
Ġkg	12742
ppat	12741
ere	12738
Ġprescription	12738
ĠCurrent	12738
Dem	12737
ĠJon	12731
Ġapproached	12728
rev	12727
hex	12727
Ġdistricts	12723
render	12722
ĠÎ¼M	12720
Ġbreathing	12719
ĠSelf	12717
Ġremarks	12715
Layer	12714
np	12711
--------------------	12711
ĠRoss	12708
pop	12707
Ġrealistic	12707
Ġmonitored	12704
Ġtournament	12703
Ġtitles	12702
asts	12701
*\	12701
}{{\	12700
Ġsed	12697
network	12696
Ġinconsistent	12696
Ġangles	12693
Ġvolumes	12691
Ġdishes	12690
ĠJacob	12690
$^{	12688
ĠForest	12688
Factor	12687
Ġincredibly	12687
Ġvolunteers	12686
Hash	12681
inct	12680
iterator	12679
Ġdevelopmental	12678
Â§	12675
Â¤	12674
>;	12674
Ġdeleted	12674
Ġ-----------	12674
Che	12671
Ġquant	12671
Ġimpacts	12671
USE	12665
Ġinference	12662
]}	12656
iah	12655
Ġdistant	12655
JSON	12654
Ġlin	12654
Ġsleeping	12653
Ġ1975	12652
Ġpostoperative	12651
Ġmathematical	12651
ĠAsh	12651
Ġyours	12650
Ġ'/	12649
ĠPrince	12648
ĠCV	12648
Ġarrays	12647
Ġmodulation	12646
à¬	12645
Ġasthma	12645
ulating	12643
uted	12642
Ġsolving	12642
âĦ¢	12641
amer	12641
Ġconversations	12639
Ġupload	12638
both	12637
ĠÃħ	12636
ĠOxford	12636
forming	12630
Kind	12630
ĠJo	12630
Ġencoded	12629
Ġdisposed	12629
works	12627
Ġ05	12626
ibly	12625
Ġmandatory	12625
sem	12624
Ġabandoned	12624
ĠOnline	12624
ĠMarc	12624
ĠML	12622
WT	12621
Ġdeclaration	12621
åľ¨	12618
ishes	12618
IGHT	12618
Ġdying	12618
ĠVisual	12617
Ġneedle	12615
AH	12612
ĠContent	12612
Ġslice	12610
GFP	12609
254	12609
Ġimply	12609
ĠÂ»	12608
library	12607
PORT	12607
without	12606
Ġsmell	12606
brief	12601
ACH	12601
&=&	12598
Ġpurely	12598
Ġextracts	12598
.....	12597
Ġsuppressed	12597
================================================================	12596
Ġbalanced	12594
Ġtranslate	12592
Ġfilename	12592
bn	12588
Ġ\*	12588
job	12587
switch	12586
Wait	12585
Ġspoken	12585
ĠPrice	12584
burn	12581
}$-	12580
Ġdialog	12577
ĠThrough	12575
AMP	12573
ĠFuture	12572
ĠAff	12572
RNAs	12569
rat	12566
ĠUs	12566
Ġhitting	12562
SV	12559
ĠBon	12558
ressed	12556
Ġsubstitute	12555
ĠAnal	12553
Ġrib	12552
Ġproceeds	12548
Ġsecretion	12546
than	12543
rack	12542
NG	12541
*\<	12541
Ġmotivation	12538
Ġfocuses	12531
Ġupgrade	12530
Ġnutrition	12530
Ġligand	12530
ĠImmun	12530
PATH	12529
Ġaccordingly	12529
âĢ¦.	12528
Ġcontroversy	12527
ĠTheory	12527
Ã	12526
AX	12526
Ġsixth	12526
Ġinnovation	12525
Ġappend	12524
Ġpleased	12523
)/((-	12522
Ġpromoted	12522
ĠMissouri	12520
returns	12517
Ġremedy	12512
Ġpulling	12512
Ġconcur	12512
price	12511
nc	12510
Ġtransitions	12510
yard	12509
ĠDen	12509
udd	12508
Ġconsiderably	12507
Ġarguing	12506
yz	12504
illy	12504
Null	12504
Ġmerge	12503
oni	12502
Ġcyt	12500
Ġoperational	12496
PAR	12495
Ġdozen	12494
Ġanalytical	12492
ãģ¯	12490
Ġri	12489
Ġexplaining	12489
Ġexhibits	12488
ĠHotel	12488
engine	12485
Ġmag	12484
DEBUG	12483
itter	12480
Ġtranscripts	12479
oney	12478
Ġintact	12476
}})$	12475
ury	12475
Ġmorphology	12475
024	12474
Email	12473
Ġethical	12473
âĢĿ)	12470
ĠâĢĭ	12469
ĠTri	12466
Ġgarlic	12460
ĠBoy	12459
Ġtmp	12458
Ġmobility	12458
Act	12455
Evaluate	12453
arily	12452
(!	12452
yan	12451
record	12449
Ġč	12438
Ġcure	12436
FONT	12432
Ġ,\	12426
done	12420
Ġterror	12418
}:	12417
Ġties	12416
="../	12415
iac	12414
Ġ350	12414
actor	12411
iso	12410
ĠNBA	12410
inline	12407
Ġconducting	12407
Ġevaluating	12405
ĠWithin	12405
Ġfounder	12404
206	12402
ĠĠĠĠĠĠĠĠĠĠĠĠĠĠĠĠĠĠĠĠĠĠĠĠĠĠĠĠĠĠĠĠĠĠĠĠĠĠĠĠĠĠ	12402
Ġreviewing	12399
ĠMount	12399
ĠROS	12398
uts	12397
uate	12396
icy	12396
166	12394
ĊĉĠ	12390
Users	12389
Ġnarrative	12389
Ġprefix	12387
Ġfate	12387
Ġspl	12386
Ġreserve	12386
Ġphones	12386
ĠBuild	12386
LOG	12383
Ġton	12383
ĠJe	12383
Ġenemies	12381
ĠMessage	12381
yer	12379
gal	12375
Trump	12375
,âĢĻ	12375
Ġsim	12370
Ġreportedly	12370
(:	12368
Ġinnocent	12368
Ġflex	12366
Ġcannabis	12362
Ġ1976	12362
ĠâĢĻ	12360
ĠSem	12360
coll	12359
Art	12359
sect	12357
Lock	12357
Ret	12354
ĠCle	12352
Ġconvenience	12351
Ġlegally	12350
arks	12347
Channel	12347
Ġposting	12347
Ġprayer	12346
Ġplacing	12345
ĠDirect	12344
Ġimplementing	12342
Ġ02	12342
ĠInf	12341
Ãº	12339
Ġofficially	12339
Ġprote	12338
sky	12337
143	12336
Those	12334
$;	12332
ĠCt	12332
Si	12330
ĠSky	12330
alloc	12327
\|_{	12327
aga	12326
hab	12325
Ġhomogeneous	12322
wait	12320
Ġnurse	12319
ĠMur	12319
Ġcurvature	12318
Stack	12316
Ġhormone	12315
Ġsustainable	12313
ested	12312
Ġballs	12312
protected	12308
ĠRapids	12308
Ġvaries	12306
Ġoutdoor	12304
AST	12300
Ġthrew	12299
Ġasserted	12299
Tra	12298
Pool	12298
Ġcounting	12298
ĠFactor	12297
187	12296
Ġ------	12291
Ġrecruitment	12290
Ð¼	12288
irt	12281
ason	12281
ĠGovernor	12281
ĠFinal	12281
ried	12278
-----	12278
driver	12275
.[]{	12268
Ġocean	12268
ĠBUT	12266
Age	12263
ution	12261
Ġconstitutes	12261
illary	12259
ĠMotion	12259
ĠMil	12257
utes	12254
ĠRF	12254
fin	12253
Storage	12252
Ġfever	12252
Ġscroll	12251
Ġtraveling	12250
Ġcam	12250
para	12249
âĤ¬	12247
Ġrh	12243
ĠDallas	12243
anch	12241
Ġolive	12241
may	12239
Ġmethodology	12238
ĠEs	12236
Åį	12235
Ġacquire	12232
ĠMY	12232
integer	12228
plane	12223
ĊĠĠĠĠĠĠĠĠĠĠĠĠĠĠĠĠĠĠĠĠĠĠ	12221
platform	12220
TF	12220
ĠGolden	12220
Ġdenoted	12219
ĠMill	12219
177	12218
>::	12216
ald	12214
Ġshifted	12213
CTION	12212
Ġlessons	12212
ĠPalestinian	12212
900	12211
ĠTarget	12211
Ġ[$	12210
Ġcoat	12207
inos	12206
aze	12205
Edge	12204
Ġnuclei	12203
Ġappellate	12201
ĠSF	12201
otherapy	12200
ather	12199
Ġtears	12199
Ġ"%	12199
Ġextracellular	12195
Ġvalidate	12194
Ġprobation	12194
bor	12193
Ġmetastasis	12193
ĠKit	12192
Ġenv	12191
ĠFinancial	12190
ĠCOURT	12189
148	12187
Ġbiology	12187
iving	12186
Ġ121	12186
vy	12182
ood	12181
Ġpollution	12180
bullet	12178
Ġcups	12177
ĠAlexander	12176
Ġappearing	12175
Ġmi	12174
Ġlesser	12174
Ġsusceptibility	12170
185	12169
Ġraces	12169
Ġwages	12168
Ġsubstrates	12166
Ġcod	12166
ĠRequest	12165
Ġindirect	12163
News	12162
Ġhanging	12155
Ġimmigrants	12154
parameter	12152
Ġrot	12152
Ġann	12152
ĠSil	12152
_;	12151
Ġ"-	12151
ĠUpon	12150
ĠWould	12149
Invalid	12148
ĠBall	12147
aces	12145
Ġconfigurations	12143
Ġspeaker	12141
Ġrally	12138
Ġobjectives	12138
Ġviable	12137
Ġgamma	12137
Ġorganisms	12134
Policy	12133
ross	12131
Ġstepped	12131
~\	12130
cho	12129
Ġmerits	12127
ĠEr	12124
LED	12123
ĠRules	12121
Ġclip	12120
Ġdiscussing	12117
Ġabilities	12114
Ġdramatically	12112
^{+	12111
Ġbelonging	12109
Ġasserts	12109
ĠMother	12107
ĠHamilton	12107
ĠBre	12107
Ġpseud	12105
ĠMC	12103
ĠSingapore	12102
ension	12101
ĠHand	12101
Ġfallen	12100
ĠDocument	12099
hidden	12096
Ġinvestigators	12096
Ġdevelopments	12094
Ġdrops	12093
Ġcharging	12092
Ġwrap	12091
pad	12090
original	12090
Ġhighlights	12090
ifer	12089
gate	12089
)\\	12088
ĠTennessee	12086
Four	12085
Ġrobbery	12085
equals	12083
akers	12083
Term	12082
ÃĲÂµÃĳ	12079
lation	12079
167	12073
Ġsy	12073
ĠUSE	12073
ĠChannel	12071
Ġ---------	12071
ĠTony	12070
Ġproducer	12069
pred	12067
Ġtrim	12067
twitter	12066
Ġinnovative	12066
Ġlengths	12065
]=	12063
Ġnecessity	12063
Ġ--------------	12063
208	12062
riv	12060
Ġtopological	12060
ĠCas	12058
Release	12057
Ġadoption	12057
ĠRome	12056
Ġblot	12054
Ġ----------	12054
Ġriding	12053
isk	12050
Ġsingular	12050
Ġpink	12050
impl	12048
hips	12047
131	12047
delim	12046
ĠHan	12044
SON	12043
Ġdip	12043
Ġoperates	12041
ĠMean	12040
Ġexcitation	12039
195	12033
Ġhumanity	12032
ĠOrganization	12032
cross	12031
backs	12031
225	12030
conv	12029
BIT	12028
375	12027
Ġfluorescent	12026
Ġcredibility	12022
ĠRon	12022
ĠCG	12021
Ġassertion	12020
ĠMRI	12018
Ġfreely	12014
Ġgrab	12013
Ġoxidation	12012
Ġprevents	12011
ĠEditor	12011
188	12010
Ġsafely	12010
Win	12009
tri	12008
Ġpacked	12007
oi	12005
FOR	12005
Ġconvex	12004
ĠNight	12004
ski	12003
ĠCapital	12001
gif	12000
1980	12000
Ġwisdom	12000
lie	11997
hom	11996
Ġio	11995
Ġincorrect	11995
Ġmesh	11994
ĠClark	11994
Ġmil	11990
_(	11989
Ġprojected	11989
Ġaffordable	11988
reed	11986
Matrix	11986
caps	11985
Ġwheat	11984
ĠBad	11984
Ñģ	11982
Ġstopping	11982
Att	11981
Ġinvasive	11981
Ġattending	11981
Ġtriggered	11980
sized	11979
Ġunfair	11979
Ġfucking	11979
Ġalterations	11979
)$-	11978
Ġmodest	11978
Ġlighting	11978
ĠDam	11978
inch	11977
Ġdonors	11975
ĠVis	11972
cles	11969
typedef	11966
Ġunity	11964
Ġë	11963
atching	11962
Ġpa	11960
ĠLanguage	11960
Ġadaptation	11959
ĠBridge	11959
extern	11958
---------------	11958
Ġpromises	11958
ĠYouTube	11954
Ġcatalyst	11953
Ġasync	11948
Ġapt	11948
Mask	11946
Ġconfirmation	11945
Api	11944
uy	11941
ĠKh	11941
>();	11937
ĠProtection	11937
Ġmeets	11934
Ġcombining	11933
}$)	11928
aven	11928
Ġbother	11927
ĠExpression	11927
ĠChampionship	11926
Ġnurses	11925
â	11924
Ġshame	11923
Ġcameras	11923
exists	11921
ubs	11919
Ġwa	11919
Ġutilize	11918
ĠCM	11917
Float	11916
Math	11915
Ġresort	11915
Ġrelaxation	11915
ĠĠĊ	11914
Ġinherent	11913
ĠRoy	11912
ĠSarah	11911
Ġathletes	11909
ĠFarm	11909
ĠJason	11907
David	11905
Card	11905
ashing	11904
ĠMeanwhile	11904
Âĩ	11899
ĠPURPOSE	11898
icated	11897
Ġdeficit	11897
Ġdensities	11893
Ġconditional	11893
esh	11891
Ġmetrics	11891
Ġhist	11884
ĠSK	11883
ĠWHERE	11879
tests	11878
deg	11878
Pointer	11876
Ġoccasions	11873
ĠAuto	11871
Ġretention	11866
Ġinvestments	11866
ĠDisc	11866
Ġhanded	11865
Ġartists	11865
Ġ08	11865
ĠOs	11864
Ġ------------	11864
username	11859
Rel	11859
spin	11858
Ġanalog	11857
ĠExpress	11856
ĠBerlin	11856
Ġarbitration	11852
ulator	11850
ĠAuthority	11849
infected	11847
Ġtet	11845
Ġprotests	11845
Ġfoo	11843
Ke	11839
360	11834
Ùħ	11832
distance	11832
\#	11831
Ġanimation	11831
å¤	11830
Ġtestify	11825
ĠCat	11825
Copy	11824
UTF	11823
lab	11822
Ġgolden	11822
Exp	11821
Ġinsured	11820
224	11817
MIN	11814
ĠÐ¿	11812
Ġmistakes	11811
Ġjudges	11810
Ġgather	11810
Ġdeb	11807
Ġfloating	11805
Ġdiagonal	11805
coming	11804
Ġcompiler	11802
ocyte	11801
Selected	11801
Ġdatabases	11800
prom	11798
stand	11795
arts	11795
linked	11793
'))	11793
ĠLicensed	11790
ĠHoward	11790
![](	11789
ĠExample	11789
Ġsocket	11788
Ġmotivated	11786
mult	11785
Rem	11784
clusion	11783
Ġensuring	11783
ÙĪ	11782
Ġdated	11781
Ġexhaust	11775
itted	11773
Ġenormous	11773
Ġremand	11771
ĠStore	11771
pot	11770
Wh	11770
Ġbaking	11770
Ġ175	11770
164	11769
osed	11768
Ġfuck	11768
Queue	11766
Ah	11766
Ġactivists	11764
ĠStudio	11763
direct	11760
Ġyard	11757
rypt	11754
Ġearnings	11754
imp	11752
agon	11749
Ġeff	11749
Ġintr	11748
Ġpremises	11745
Ġamongst	11744
Ġ139	11744
Ġlegislature	11742
Ġcrop	11742
Ġinitiation	11740
sv	11739
Ġsav	11739
Ġmol	11739
~-	11738
Ġbare	11736
ĠTreatment	11736
mn	11735
Ġboards	11734
Ġlat	11732
UG	11731
ĊĠĠĠĠĠĠĠĠĠĠĠĠĠĠĠĠĠĠĠĠĠĠĠĠĠĠĠĠĠ	11731
Ġthrowing	11730
Ġprognosis	11726
Ġdowntown	11726
})$.	11723
expression	11723
ĠDark	11723
gram	11722
à´	11721
ĠSummer	11721
ĠVery	11720
required	11717
Ġheter	11717
Ġtherapies	11714
ĠNi	11712
ORY	11711
Ġinsertion	11710
Ġads	11710
Ġshops	11709
Try	11706
Double	11705
ĠSenator	11704
imer	11702
Med	11702
ĠNK	11700
ĠEv	11700
ea	11696
Ġultra	11696
sym	11693
176	11693
Ġhire	11693
Ġ]{}	11693
Ġindustries	11690
Sw	11687
Ġchat	11687
Ġfib	11685
_-	11684
Ġrepository	11683
Ġ240	11683
mel	11679
Ġjustified	11674
Contact	11673
Ġchopped	11673
ĠSEC	11672
kn	11671
Unc	11670
Ġspeaks	11669
aser	11668
Ġdistribute	11668
Ġ"",	11667
Ġshed	11666
Ġconvention	11664
Report	11663
OLD	11661
shell	11660
hold	11660
Ġuniversities	11660
Ġbasal	11659
\)	11658
Ġredirect	11657
Ġpassenger	11655
Ġmanufacturers	11655
ĠWalker	11654
Ġcond	11652
Ġ04	11652
Book	11650
Ġreactive	11650
oured	11647
handler	11647
gin	11646
ANK	11646
anal	11645
ĠMorgan	11645
operative	11644
sel	11642
ĠĠĠĠĠĠĠĠĠĠĠĠĠĠĠĠĠĠĠĠĠĠĠĠĠĠĠĠĠĠĠĠĠĠĠĠĠĠĠĠĠĠĠ	11640
ÙĬ	11639
[:	11639
))?	11638
ĠcDNA	11637
Ġantibiotics	11636
Member	11634
Ġcats	11634
Ġobligations	11633
bits	11632
Ġretro	11629
ĊĊĠĠĠĠĠĠĠĠĠĠĠĠĠĠĠĠĠĠĠ	11628
Ġemails	11627
Ġbackup	11627
ĠPARTICULAR	11627
264	11625
Ġaveraged	11623
Ġempirical	11621
Assert	11619
RES	11618
209	11618
,[	11617
ifndef	11616
ACT	11614
Ġsupplement	11613
ĠTrade	11612
ĠTurn	11611
Ġavoided	11608
Subject	11606
Ġfought	11606
Ġfruits	11604
Ġveteran	11602
Ġpackaging	11597
clock	11594
ĠBlock	11593
xsl	11592
1983	11592
Ġmainstream	11589
Ġdistress	11588
Ġarts	11587
ĠCOVID	11587
Ġdeserve	11586
Ġratings	11585
dfrac	11584
Ġholder	11583
ĠMus	11583
ãģ§	11582
Ġchips	11581
ĠElizabeth	11581
virtual	11576
azz	11575
Ġpreserved	11575
Ġexperiencing	11575
ograph	11574
Ġgenotype	11574
since	11573
Ġdesk	11570
Equ	11568
Ġcancel	11567
Ġalternatives	11565
ield	11564
Ġmayor	11564
Ġgerm	11564
ĠKeep	11563
Ġ1950	11563
Job	11561
Ġblockchain	11561
ĠSquare	11561
Ġiter	11558
odot	11557
Ġgranting	11554
Ġadvances	11549
lee	11547
ĠWales	11546
Black	11543
Ġsearched	11543
Ġapproximate	11542
ĠMoon	11541
184	11540
actic	11539
Ġrefuse	11537
Ġcatal	11537
Parser	11533
1982	11533
Ġaccomplish	11533
formation	11532
Ġvoluntary	11532
sg	11531
oidal	11531
ĠAF	11528
printf	11526
Ġhappiness	11525
------------------------------------------------	11523
ĠâĢľ[	11523
Ġpole	11523
[(	11521
ĠDisney	11520
Print	11517
ĠInteger	11517
Ġadhesion	11516
ĠBesides	11515
Ġupstream	11512
require	11506
Summary	11506
isions	11503
ools	11501
try	11500
Ġeastern	11500
ogra	11499
]-[@	11499
ĠFITNESS	11499
eff	11497
Ġintensive	11497
Ġresidue	11496
ĠLE	11496
ĠLater	11495
ĠMember	11494
ĠCredit	11494
174	11493
Ġhabit	11493
aved	11491
Ġ$|\	11491
orph	11490
Ġrevised	11490
ĠCollection	11489
ione	11486
Ġaden	11486
ĠUSB	11486
Ġevolutionary	11481
ĠBlood	11481
)+\	11479
Ġps	11478
Ã´	11477
Sm	11477
ĠRow	11477
ĠBu	11476
Ġbuttons	11475
Ġcompile	11473
ĠCruz	11473
Ġshirt	11471
Ġselecting	11471
ĠVector	11471
Ġpaste	11468
ĠPur	11467
uma	11466
$:	11466
Ġut	11464
å	11463
identifier	11463
Ġtumour	11462
Ġclinically	11460
ĠUtah	11458
mond	11457
Ġaud	11454
153	11449
Ġdivorce	11448
_*	11445
ĠDutch	11445
Ġpseudo	11444
Player	11443
ĠNat	11441
stock	11439
ĠHA	11439
Ġ1973	11439
Health	11438
ĠAI	11437
Ġ124	11437
}}}_{	11436
Ġstationary	11436
ĠNotice	11436
Ġenforce	11435
Ġviability	11433
Ġinfluenza	11432
Ġconsumed	11432
Ġdeck	11431
Ġprimers	11430
ĠHal	11429
osome	11425
159	11424
Ġloads	11423
ĠCaptain	11422
tp	11421
Ġillustrate	11420
Ġexponential	11419
alling	11418
Aut	11418
Ġranked	11418
ĠResponse	11418
Ġsusceptible	11417
Ġrecipes	11417
Ġ``	11417
inson	11413
aus	11413
-------	11411
VR	11410
Ġutil	11410
Ġcounted	11409
ĠVietnam	11409
Ġrelevance	11407
ector	11403
Ġthereafter	11403
Ġpremium	11401
Ġsom	11400
Ġpainful	11400
did	11399
028	11398
Ġdisclose	11398
ĠLive	11398
utter	11395
Cap	11392
Ġagricultural	11391
Ġmusical	11390
quoting	11387
amic	11385
flag	11379
ÑģÑĤ	11378
gar	11373
Ġallocation	11372
PRE	11368
ĊĠĠĠĠĠĠĠĠĠĠĠĠĠĠĠĠĠĠĠĠĠĠĠĠ	11365
Ġappellants	11364
ĠTal	11362
vee	11361
ÙĨ	11359
Ġsucceed	11359
ĠZe	11359
Ġfigured	11358
ĠĊĊ	11358
ulations	11349
Ġintroducing	11347
Ġtap	11346
=\"	11345
ĠJul	11345
Binding	11344
ĠGET	11344
Ġfetal	11343
Ġcenturies	11343
program	11341
Ġpredetermined	11341
ĠOtherwise	11341
{$	11337
Ġsyn	11337
Ġskip	11337
tf	11336
ä»	11334
ĊĠĠĠĠĠĠĠĠĊĠĠĠĠĠĠĠ	11334
Ġtickets	11331
ĠFrancis	11331
ĠHad	11330
oked	11328
Ant	11326
Ġaffidavit	11322
press	11318
ĠMcG	11318
oint	11317
Ġbeef	11315
ĠLouisiana	11315
Ġprolonged	11314
Ġprim	11314
æľī	11313
çĶ¨	11312
Ġgraphics	11312
cycl	11311
Register	11311
Further	11307
040	11307
Ġincidents	11307
ressive	11306
were	11305
Ġcalendar	11303
ĠPK	11302
Ġcrossed	11301
Ġamplification	11299
irk	11298
Ġfurniture	11298
Ġtransit	11295
ĠSab	11295
Ġdx	11291
Met	11290
ĠPhysics	11289
ĠJane	11286
ĠArts	11286
^](#	11284
Ġtransient	11284
Ġ1972	11284
ĠGP	11283
Ġoper	11281
ĠFilm	11279
Ġfur	11278
ĠCamp	11278
Ġtackle	11276
Ġconjunction	11276
ĠNASA	11272
Ġbur	11271
207	11269
Ġinfectious	11269
ĠStr	11269
ViewController	11268
fileID	11267
come	11266
LINE	11266
controller	11265
sun	11263
Ġwrit	11263
Ġseemingly	11263
Save	11261
Ġcorrections	11260
cker	11259
Ġventricular	11258
Security	11257
Ġcertified	11255
Ġlake	11252
jection	11244
Ġrecommendation	11244
iable	11243
ĠDA	11241
Ġrelax	11240
Ġcarb	11240
rick	11239
reset	11238
).\	11238
Ġevolved	11235
Ġprospect	11234
LV	11233
ĠMess	11233
itated	11228
Texture	11226
Ġ360	11226
Ġdismissal	11221
asis	11220
Em	11217
Ġcone	11217
ĠBP	11215
ĠAffairs	11215
ĠNetherlands	11214
Ġemployers	11213
Ġbrands	11211
Short	11209
arXiv	11208
Ġcontamination	11208
Ġregret	11207
Ġfort	11200
Ġrotating	11199
Ġundergoing	11198
à²	11193
512	11193
Ġcurious	11193
Ġ.$$	11193
027	11192
SB	11191
tes	11190
026	11190
Ġawards	11190
Util	11189
Ġdynamical	11189
Del	11188
ĠET	11188
Ġdemonstrating	11186
ĠUnlike	11186
hole	11185
Sample	11185
Ġmarginal	11183
ĠMERCHANTABILITY	11183
comm	11178
ĠEll	11177
ĠDrug	11177
Ġtwelve	11174
Ġorbital	11174
Ġ--------	11173
ĠÐ¸	11170
Ġgrey	11168
Ġ201	11168
ĠSenior	11167
ĠRecently	11167
ĠBM	11166
opathy	11165
oking	11162
iph	11161
Ġsubtle	11160
ags	11159
Ang	11155
162	11153
ĠPay	11153
ĠDouble	11153
rier	11152
Ġtransverse	11152
Ġdrain	11152
)->	11150
Ġtongue	11150
Ġcouples	11150
ĠMayor	11150
execute	11149
Ġsettle	11149
rous	11146
pattern	11145
Ġfeasible	11144
INS	11143
ĠDev	11143
asy	11141
Ġdir	11141
iques	11139
Ġpublications	11138
Ġachieving	11137
ä¸Ģ	11136
Ġâī¤	11136
Ġhorses	11136
Ġ126	11135
aden	11133
Ġtear	11129
Ġdebug	11129
react	11126
Ġtopology	11125
)-\	11123
Ġpressed	11122
abe	11121
ĠJay	11119
ĠTokyo	11118
ĠAppendix	11117
Ġlips	11115
ety	11114
Ġsorts	11114
ĠSOFTWARE	11113
ĠResources	11113
Ġhill	11112
Ġenrolled	11112
Ġdent	11111
ige	11110
Ġcylinder	11110
Ġburst	11110
203	11107
___	11104
Ġwise	11104
flu	11103
Ġlesson	11103
Ġdialogue	11103
Â£	11102
Ġhoped	11101
cess	11098
===========	11096
Ġexcuse	11095
Ġrigid	11091
Ġpit	11090
ĠHay	11088
ĠWHO	11087
Ġspontaneous	11086
Ġabdominal	11085
ĠEngineering	11085
ĠBeing	11083
cert	11082
ĠLPS	11080
Home	11079
Ġasc	11079
Ġ1974	11078
Ġswimming	11077
ĠAddress	11077
Ġprot	11075
Ġoutputs	11075
osc	11074
Ġcontacted	11074
ĠMountain	11074
lat	11071
à¦	11067
Ġtubes	11065
Ġblade	11064
ĠSurvey	11064
)](#	11062
general	11060
ensive	11060
Ġactivate	11059
Game	11057
Ġlemma	11057
Ġemb	11057
ÃŃa	11055
Ġunemployment	11055
Ġphenomena	11055
ther	11054
Comment	11053
Ġvon	11053
Obv	11047
Enum	11046
Ġdeletion	11046
ogs	11045
../	11044
Ġmanufacture	11044
Ġgall	11044
ament	11041
Ġdisplacement	11040
Ġ122	11039
Ġ"âĻª	11038
Ġconvictions	11037
bx	11036
rence	11034
drop	11034
'-	11034
ĠNeither	11034
Ġmicroscope	11031
ĠMaterial	11031
chen	11030
Therefore	11029
ÂĮ	11028
abb	11026
Information	11025
ĠMusic	11025
Ver	11024
Effect	11024
Ġtheft	11024
Ġsends	11021
Ġtrap	11019
Ġpromotes	11019
ayer	11016
Ġcerebral	11016
245	11015
ĠNH	11015
Loc	11013
ĠBas	11013
ĠÎ¼m	11012
Ġthreads	11012
Ġcontributes	11012
ĠLat	11012
rying	11010
owski	11008
Ġscared	11008
Ġtons	11007
Ġbabies	11006
Ġspecification	11004
ĠAssistant	11004
MY	11002
tim	11000
Ġundergo	10999
Ġneighbor	10999
scan	10998
Ġrig	10998
Ġrental	10996
tor	10994
UX	10994
etal	10993
$),	10993
Light	10992
ĠDisease	10992
Ġloops	10990
\{\	10989
ĠBackground	10982
plic	10978
Ġpose	10978
ĠSafety	10978
Bean	10976
uns	10975
Ġble	10975
Ġlemon	10973
icle	10972
Ġextensions	10972
Ġcmd	10972
ĠPers	10969
into	10968
Ġspark	10968
Ġsheep	10968
clean	10967
Ġoccupation	10966
ĠJerusalem	10962
ĠHor	10962
))$	10961
ipped	10960
ĠFourier	10960
hydro	10958
variant	10956
Ġaqueous	10956
ĠSummary	10955
uter	10954
Ġadventure	10954
ĠShort	10954
Lib	10953
Ġproposals	10951
Ġrack	10950
Ġinstability	10947
ĠMonte	10946
ĠHart	10943
ĠĠĠĠĠĠĠĠĠĠĠĠĠĠĠĠĠĠĠĠĠĠĠĠĠĠĠĠĠĠĠĠĠĠĠĠĠĠĠĠĠĠĠĠ	10942
Ġextraordinary	10941
ĠWright	10941
cted	10938
Remove	10938
usions	10936
standing	10935
download	10935
Ġconcentrated	10932
olution	10930
Ġsustain	10930
Ġ(âĪĴ	10930
sha	10929
acon	10926
arp	10925
ĠDetroit	10924
Rad	10923
Memory	10923
ĠCIA	10923
Ġprov	10922
ĠHeart	10920
Ġbeneath	10917
ĠEV	10917
ĠHot	10916
ĠCB	10916
roy	10915
Ġweighted	10915
Ġuniformly	10915
Ġdistal	10915
Ġdemocratic	10914
comb	10913
Ġdistinguished	10913
Package	10912
Ġinstructed	10911
cong	10910
yy	10908
ĠInput	10908
Should	10907
ĠMas	10907
Ġdirectors	10906
ifiers	10905
Ġdrinks	10905
Ġwithdraw	10903
ĠOntario	10903
editor	10902
Ġtransfected	10902
-->	10901
=$	10900
Ġheated	10900
vey	10897
opes	10897
ĠLab	10897
awn	10896
Ġbuf	10896
Ġ03	10896
NM	10895
Ġlegacy	10895
Ġnut	10894
Flow	10893
Ġfacial	10893
__(	10892
\](	10892
ĠMT	10891
Â¡	10890
Ġtrailer	10890
months	10889
anth	10889
Ġendogenous	10887
Ġanonymous	10887
ailing	10886
ĠOl	10886
ĠRaj	10885
Following	10884
Ġelastic	10883
Ġclustering	10882
player	10880
Ġineffective	10880
Ġnegatively	10879
ĠDet	10879
Ġwrapped	10877
Ġjunction	10877
Arg	10876
Tom	10875
White	10874
ĠSaint	10874
forward	10872
Ġcooked	10872
037	10870
Ġter	10870
Ġqueries	10868
Ġsynthesized	10867
Ġstocks	10867
artifactId	10865
abc	10865
Auto	10865
Ġinfluences	10865
Ġcaution	10865
imm	10864
ĠWH	10864
pal	10863
Har	10863
resistant	10861
ĠEnt	10861
events	10860
emphasis	10859
ĠBuilding	10857
ĠKal	10854
Mat	10853
Ġbacked	10853
ĠThompson	10853
Ġdesert	10851
Ġtranslated	10850
Ġabroad	10849
Ġsurveys	10848
Ġsons	10847
ĠGuide	10846
fun	10843
VP	10843
ĠĠĠĠĠĠĠĠĠĠĠĠĠĠĠĠĠĠĠĠĠĠĠĠĠĠĠĠĠĠĠĠĠĠĠĠĠĠĠĠĠĠĠĠĠ	10842
ulates	10841
role	10841
mouse	10841
design	10838
Ġdefence	10838
Ġautomated	10838
ĠSweden	10838
ĠFound	10837
ĠâĨĴ	10836
Ġneg	10836
opl	10833
Ġhopefully	10833
Ġproducers	10832
uls	10831
))\	10831
Ġwithdrawal	10831
Ġdeciding	10829
ĠInterest	10828
radius	10826
pu	10826
xsd	10825
athe	10824
disp	10820
ĠSum	10819
uid	10818
dh	10818
Ġoptim	10818
Ġexploration	10818
ago	10817
Ġhepatic	10817
lm	10816
cz	10816
ĠAustin	10815
Ġcriterion	10814
bigl	10812
Ġtick	10812
Ġfatal	10812
Ġdependency	10812
alle	10806
Ġwhilst	10806
Ġharmful	10806
Ġreleases	10805
Ġdf	10805
ĠAnthony	10805
Ġvalidated	10804
Ġstatutes	10804
ĠAA	10804
their	10801
okes	10799
{{{\	10798
[*	10796
Pass	10796
152	10795
Ġcomprised	10795
Ġsensory	10794
owner	10793
Ġcervical	10793
ĠSimon	10793
Ġdrew	10792
uing	10791
ounds	10790
Ġremind	10789
Ġenterprise	10789
Bundle	10788
ORE	10785
rh	10782
ĠrÃ©	10782
Ġrubber	10782
ĠLED	10782
Ġwashing	10781
condition	10778
Ġutilizing	10778
ĠDor	10777
Ġmyocardial	10776
-,	10774
SK	10771
Scale	10770
Auth	10770
Ġtoll	10769
Ġethics	10769
Ġplotted	10768
pled	10766
hpp	10764
Ġfn	10761
mock	10759
Ġ'<	10759
xF	10756
Ġrevision	10755
Ġou	10754
Ġhouseholds	10754
Ġaf	10754
Ġ07	10751
dm	10749
Ġdiscipline	10749
Ġconv	10748
Ġantenna	10748
ĠVice	10746
Ġshower	10745
Ġphosphate	10743
andra	10742
Ġunstable	10742
Ġheaders	10742
Ġ129	10742
305	10741
Ġcollecting	10739
atus	10738
??	10738
*),	10738
Ġeliminated	10738
loss	10736
best	10736
Ġrendering	10735
ĊĊĠĠĠĠĠĠĠĠĠ	10733
Ġrestored	10732
Ġhub	10732
Ġshaped	10731
subject	10730
iance	10730
Ġfractions	10730
iological	10729
Ġsitu	10729
SN	10728
Ġvacation	10725
ĠSar	10725
props	10724
Bi	10724
Ġterrorism	10724
ĠLORD	10723
Ġ256	10722
Na	10719
Ġrecombinant	10719
Ġhabits	10719
Ġcompromise	10719
Ġ700	10719
Ċĉĉĉĉĉĉĉĉ	10719
Ġinterrupt	10717
Ġcharacterize	10717
212	10716
Ġsink	10716
Ġpsychiatric	10716
ĠDemocrat	10716
Ġmapped	10715
Ġconsist	10715
ometry	10714
hbox	10714
aco	10712
driven	10711
Program	10710
cn	10706
;"	10706
atur	10702
Proxy	10699
234	10699
smallcaps	10697
Ġears	10696
wx	10694
ashi	10693
Ġopposing	10693
ĠIr	10693
nan	10692
ĠAnti	10692
ĠFourth	10691
leton	10688
Ġprom	10688
Ġgravitational	10687
ede	10684
Simple	10684
wind	10683
Life	10683
){\	10683
Ġcelebrate	10682
ĠConst	10681
Ġprimer	10680
Ġquestioned	10674
$^	10671
Ġgrows	10671
Ġbrush	10670
ĠNation	10670
Ġvis	10669
Ġlocus	10668
158	10667
ĠFDA	10666
XML	10664
Ġsubjective	10664
groupId	10662
Ġhi	10662
ĠMM	10662
======================	10661
wards	10660
)~	10660
Ġcou	10660
Ġdeposited	10658
Ġdemanding	10658
Ġcomedy	10658
ĠCulture	10657
Ġregards	10656
Ġencouraging	10656
wan	10655
aro	10654
Ġtranscriptional	10654
Ġaluminum	10654
Ġenabling	10653
ĠSept	10653
149	10651
Ġexploring	10651
Ġrounds	10650
Ġchemistry	10650
ĠStone	10647
Ġgit	10646
ĠVideo	10644
Ġessence	10642
ĠEarly	10642
Sam	10640
ĠMexican	10637
ĠKan	10637
Ġillustrates	10636
---------	10635
Ġactin	10635
ĠOlympics	10635
uto	10632
Ġfavour	10632
293	10631
annotation	10629
Ġoffenses	10629
Ġrefugees	10627
ĠGuard	10627
verted	10626
ĠEPA	10626
Ġpride	10624
IGN	10622
Ġremembered	10622
Ġelite	10621
Ġsubsection	10620
Ġprobes	10619
Ġdesktop	10616
ĠEN	10616
Ġkinetic	10614
Ġpi	10611
ADD	10610
Ġexamining	10610
Ġunders	10606
Descriptor	10605
Ġconscious	10605
ĠTech	10603
Ġassessing	10601
independent	10600
Ġcoaches	10598
ĠFlu	10598
Ġdining	10596
ĠWrite	10596
Ġhind	10595
Ġwalks	10593
Ġjournalists	10593
Ġimproper	10590
Ġmetals	10589
ĠCounsel	10588
Selection	10587
Db	10585
ĠCould	10585
Ġmas	10584
ange	10581
ĠEND	10581
kes	10580
Ġexpecting	10579
Ġanticipated	10579
Ġsteam	10578
Ġdamn	10578
iology	10577
Ġbiopsy	10573
ĠEmpire	10572
iber	10571
abil	10571
Ġwars	10569
í	10568
rock	10567
ĊĉĊ	10566
Ġopponents	10563
Ġns	10563
ĠINTO	10562
ĠAtlanta	10560
ĠĊĠĠĠĠĠĠĠĠĠĠĠ	10560
pert	10558
Ġpassive	10558
ĠGraph	10558
ÐµÑĤ	10557
Ġhy	10557
ĠDeputy	10555
Bo	10554
Ġedited	10553
ĠCN	10552
Ġallocated	10551
Ġmounting	10550
ĠChen	10550
Ġhol	10549
Ġfetch	10549
ĠBarack	10547
season	10546
tc	10545
exe	10545
ĠPO	10543
olo	10542
Args	10542
Ġwx	10542
iny	10540
Ġpod	10538
GH	10536
Ġmechanics	10536
Ġchampionship	10536
acet	10535
Ġspray	10535
Li	10534
0010	10534
Ġdecor	10534
169	10533
Ġpreceding	10529
boot	10527
APP	10527
197	10527
Mintage	10526
ĠManchester	10525
testing	10524
.""	10520
Ġslower	10520
Ġoz	10519
ĠTour	10517
ĠBowl	10517
ylation	10515
Doc	10508
Ġfac	10508
Ġmountains	10506
ĠGreece	10503
Ġbandwidth	10502
ĠSTAT	10500
ĠMoscow	10500
ĠExchange	10500
Ġlane	10497
ĠSY	10497
Ġnod	10496
idi	10495
ĠHard	10495
Ġgeometric	10493
ĠIl	10493
ĠCast	10492
Hz	10491
Ġforcing	10491
emic	10490
Func	10490
Ġcausal	10489
Ġalarm	10489
ĠLaboratory	10488
umps	10486
ĠSupplementary	10485
ĠRemove	10485
Ġdisposition	10482
Ġcontainers	10480
ĠMars	10478
033	10476
Ġhosted	10476
Ġantibiotic	10476
ĠBO	10476
Ġgoogle	10475
---|---|---|---|---|---|---	10474
Ġqualify	10474
encies	10471
acks	10469
Msg	10469
åħ	10468
manager	10468
Ġallies	10468
Ġbypass	10467
Ġauthentication	10467
ĠLevel	10467
Screen	10466
Ġpic	10465
Ġdeparture	10465
erated	10461
bat	10461
Ġdeposit	10459
Ġtowns	10458
Ġpancreatic	10455
Ġavoiding	10455
Ġadaptive	10453
ivers	10451
Ġdiabetic	10448
Ġthroat	10447
199	10446
Ġsimplicity	10446
*^*	10445
ĠHon	10445
ĠCONDITIONS	10445
303	10443
ĠMult	10441
Ġsummarized	10440
Ġswim	10439
parallel	10437
Ġpassengers	10435
Ġ\+	10432
Ġregulating	10431
Ġborders	10431
Ġthoroughly	10429
bigr	10426
Ġsymptom	10426
ĠLady	10426
ĠMi	10425
formula	10423
Ġagrees	10423
ĠDoctor	10422
Ġwhereby	10421
agan	10420
Ġfiltered	10419
Ġworship	10418
Ġrum	10416
Ġadequately	10415
ird	10414
Ġattitudes	10414
ĠPatrick	10414
320	10412
čĊčĊĠĠĠĠĠĠĠ	10412
Ġclearance	10411
ĠDuke	10411
ĊĠĠĠĠĠĠĠĠĠĠĠĠĠĠĠĠĠĠĠĠĠĠĠĠĠĠĠĠĠĠĠĠĠĠĠĠĠĠĠĠĠĠĠ	10411
ĠCarter	10410
Ð¿	10409
Ġcaptain	10409
Ġoutlined	10408
ÂĴ	10405
padding	10405
ä¸į	10401
ĠAud	10400
oved	10399
ĠCountry	10399
Ġrecipient	10397
Ġnights	10396
Details	10394
Ġsurvived	10394
)));	10391
Ġang	10388
}^*	10387
Ġautom	10385
yle	10384
ĠStatus	10384
ĠFre	10384
Ġdirty	10381
Proof	10379
ishment	10377
ĠServ	10377
Ġrejection	10376
exception	10373
ois	10371
Ġhandful	10370
Ġperformances	10369
Ġenrichment	10368
ĠSize	10368
ĠTy	10366
Ġmalignant	10364
Ġreproduce	10363
limit	10362
Øª	10359
present	10359
Ġdeadly	10359
Ġcant	10358
"],	10357
erry	10356
offs	10354
ANCE	10354
386	10354
Ġproving	10354
oro	10353
RC	10349
Ġcontinuum	10349
entity	10348
counter	10348
Ġqualitative	10347
Ġhorror	10347
boolean	10346
bank	10346
Ġquest	10346
ĠAst	10345
Ġluminosity	10344
Ġsensing	10343
142	10342
="-	10341
270	10340
Ġjoke	10340
Ã©t	10338
Ġamb	10334
=>	10332
Ġappellee	10332
oned	10331
login	10328
Ġinteracting	10325
closed	10324
Ġhighway	10316
neg	10315
Ġpreferences	10314
Ġdear	10313
EDIT	10310
Ġvirtue	10310
ĠGA	10310
Ġcritics	10308
ĠJun	10308
ĠCE	10307
rank	10306
MEM	10306
hd	10305
typename	10304
Internal	10304
Ġschema	10304
MODE	10302
:"){	10302
Ġquotes	10302
Conclusion	10301
Ġfre	10301
Ġmaintains	10298
Ġcursor	10298
Ġcampaigns	10298
Ġforeach	10296
Ġrod	10294
1981	10293
Ġdeployment	10293
Ġspecialized	10292
iden	10288
fect	10288
Ġbesides	10288
Ġ?>	10288
contact	10287
Acc	10287
ĠFred	10287
Ġproductivity	10285
ĠBASIS	10284
Ġpropagation	10283
Off	10282
Ġconnectivity	10282
Ġcourage	10281
ĠTaiwan	10281
Ġclone	10280
ĠSeason	10280
resp	10278
Ġdemographic	10278
Ġgoverned	10277
simple	10276
Plugin	10276
Ġnie	10273
ĠContract	10273
--------------------------------------------------------------------------------	10272
Ġgro	10272
Ġcompiled	10271
).](	10269
ĠRelease	10268
itations	10265
Unknown	10264
sets	10261
ĠDVD	10261
Ġproximity	10260
216	10259
Ġ06	10259
Ġacceleration	10256
Normal	10255
pcbi	10252
IDE	10250
ĠWarren	10250
ĠAnimal	10250
Ġlisting	10249
iÃ³n	10248
Ġengines	10248
pn	10246
QL	10246
ĠÅ	10244
Ġcurrents	10244
Ġslip	10242
Ġreass	10241
Ġcumulative	10240
ĠSite	10240
ĠHAVE	10239
idity	10237
Ġrolled	10236
Ġelementary	10236
222	10235
Ġmorph	10232
aning	10231
Ġautomobile	10231
Ġidentifier	10230
Great	10228
Âı	10227
Ġharassment	10227
Ġpotentials	10226
STATE	10224
regulation	10223
rans	10223
Ġtower	10222
Ġmeters	10222
ĠAz	10222
Valid	10221
ACC	10221
amount	10220
Ġequals	10220
Ġbanking	10219
omics	10217
Related	10216
Ġenriched	10216
Ġtender	10215
Ġsituated	10215
Ġquarterback	10215
tech	10214
--------	10213
Ġvent	10212
Ġoct	10212
ĠDigital	10211
Ġperforms	10210
ĠDa	10210
quin	10208
ĠMich	10207
Ġ"_	10207
Ġrecruited	10204
Ġdevoted	10204
196	10203
aim	10202
Ġspite	10202
Ġburied	10202
Sorry	10201
Ġstake	10201
frequency	10200
Ġbeans	10199
Ġdisable	10198
HH	10197
ĠStatistical	10197
cv	10196
xff	10195
ington	10195
Google	10194
Person	10193
Ġdefeated	10193
ĠRod	10193
oding	10192
important	10192
Paul	10192
Ġamid	10192
Ġindicators	10191
Ġpronounced	10189
Ġcatheter	10189
ĠJose	10189
auer	10188
Ġflip	10188
141	10187
ties	10186
Inv	10186
Ġalkyl	10186
ĠFranklin	10186
ĠDun	10186
Ġsens	10185
something	10182
ception	10182
ĠGas	10182
Ġshoulders	10181
Ġrub	10181
large	10180
Ġgaming	10180
aton	10179
Ġblend	10176
Scroll	10174
HO	10174
Ġgym	10174
boy	10173
asting	10173
Ġpediatric	10173
proof	10170
ĠiPhone	10170
Ġextensively	10170
ĠGulf	10170
rand	10169
ä¸	10167
Xml	10167
Ġshelter	10167
Ġdelta	10167
Ġ[$\	10166
ĠIron	10166
ĠStory	10165
Ġlam	10163
Ġ220	10161
ÎºB	10160
ÛĮ	10159
Ġcoronavirus	10158
igs	10157
Ġsaline	10157
Mock	10156
ĠCloud	10156
Ġthemes	10153
ype	10152
ĠDeath	10152
INGS	10151
HP	10151
Ġdeployed	10151
ĠBody	10151
special	10149
sr	10148
arding	10148
ĠmiRNA	10148
Ġirrelevant	10146
Ġabnormalities	10146
Ġtunnel	10145
Ġceremony	10145
ĠNative	10145
Ġtouched	10144
Ġracing	10144
Ġcalibration	10144
Ġstrikes	10143
Ġministry	10143
Ġfra	10143
Ġcytokine	10143
ĠSav	10143
ĠNT	10142
ĠGov	10139
Ġascending	10138
ĠGre	10137
ĠĠĠĠĠĠĠĠĠĠĠĠĠĠĠĠĠĠĠĠĠĠĠĠĠĠĠĠĠĠĠĠĠĠĠĠĠĠĠĠĠĠĠĠĠĠĠ	10137
Cast	10136
ears	10133
Dep	10133
Ġchem	10133
Ġbrilliant	10133
ĠRh	10132
inary	10130
Best	10128
Ġresponding	10128
}{(	10126
Ġabused	10126
Ġkiss	10125
247	10124
memory	10123
Seq	10123
ocket	10121
citing	10121
aught	10121
ĠAtlantic	10121
ocon	10120
345	10119
Ġdepicted	10117
Ġarrangements	10116
(__	10115
Ġoverview	10114
Ġanchor	10113
success	10112
istically	10112
Ġparental	10112
unique	10110
ĠÃĹÂ	10110
Ġresection	10110
Ġconsequently	10110
304	10107
+(	10107
Standard	10106
ĠPremier	10105
ĠBan	10105
Ġfatigue	10104
exit	10103
Still	10102
Send	10101
Ġnovo	10099
external	10098
Ġscreens	10098
Ġfixing	10098
Ġbullet	10098
ĠEconomic	10098
Ġexercises	10096
364	10094
Ġzones	10093
Ġaccepting	10088
Ġfears	10087
Ġranks	10086
components	10085
Conf	10084
ĠEL	10083
Ġtransmit	10080
Ġemotion	10079
ĠIranian	10079
ells	10078
Ġfeaturing	10078
ĠANOVA	10078
Native	10076
Ġsulf	10076
Ġhunting	10075
classes	10074
ĊĠĠĠĠĠĠĠĠĠĠĠĠĠĠĠĠĠĠĠĠĠĠĠĠĠĠ	10074
Ġinterfaces	10071
228	10070
Ġrestrict	10070
Ġabundant	10069
Meanwhile	10067
Ġaccommodate	10067
sing	10066
308	10066
Ġwishes	10066
Ġ164	10065
bling	10064
middle	10063
>>>	10061
Ġgaps	10061
ĠJS	10061
Ġmineral	10059
Ġinadequate	10059
áĥ	10058
bro	10057
Miss	10057
ĠAdams	10057
bu	10054
ĠFT	10054
Ġdemanded	10053
Ġportable	10052
ANG	10050
1979	10050
Ġtrips	10049
National	10048
Ġtit	10048
Ġnotable	10048
ĠEffect	10048
ĠLas	10047
goto	10044
between	10044
ben	10044
lier	10042
Ġheaven	10040
Ġprompt	10039
0006	10038
Ġnotification	10036
ToString	10035
=====================	10035
Ġforgotten	10035
Ġsophisticated	10032
Ġdeputy	10031
jquery	10030
211	10030
Ġcompositions	10029
Ã¥	10028
panel	10028
221	10026
178	10025
icking	10024
Ġjournalist	10024
emb	10022
Ġrabbit	10021
Pal	10020
ĠOk	10020
ĠFestival	10017
tv	10015
third	10015
Ġlabour	10015
ĠGall	10015
ife	10014
404	10014
ignment	10013
Ġprintf	10013
ĠEvidence	10013
509	10012
mers	10011
arity	10011
ĠArch	10010
Ġsearches	10008
384	10007
ĠProcedure	10007
:[	10006
ĠFifth	10006
pair	10005
WD	10005
à¤°	10003
BASE	10003
Ġpharmaceutical	10003
ĠGra	10002
amps	10001
Ġcentered	9996
Several	9995
Po	9995
Ġspreading	9995
ĠDim	9995
Pop	9994
Ġloving	9994
GD	9992
agent	9991
lik	9989
Gs	9989
dig	9985
UB	9985
Ġproductive	9985
Sum	9983
ĠPhot	9983
})=	9981
cpu	9980
194	9979
Ġdr	9979
Ġbones	9978
ĠBeijing	9978
Ġpension	9977
ĠDead	9976
Ġcirculation	9975
factor	9974
cas	9974
ä¸Ń	9973
grad	9972
Ġvoices	9971
Ġbubble	9971
312	9970
!\	9970
Ġprohibited	9969
Ġarrows	9969
ĠVA	9969
Stat	9967
Ã£o	9966
Court	9965
Ġinvoke	9963
Ġaccompanying	9962
ĠActive	9962
ario	9958
bold	9957
Library	9957
Ġcalculating	9957
Byte	9956
ĠRobinson	9956
ĠÂ	9953
ĠChem	9953
181	9952
ĠCooper	9952
Ġclicking	9949
ĠWARRANTY	9949
ĠâĪ	9947
}_{-	9946
ATA	9943
hydroxy	9941
ĠArabia	9941
ount	9940
Ġciting	9940
Ġassembled	9940
ĠFall	9940
ĠArthur	9940
rian	9938
imate	9937
Ġneglect	9936
Ġgently	9935
Ġye	9932
looking	9931
ĠTGF	9931
Move	9929
Ġdiscount	9929
storage	9928
Ġadmits	9928
Sur	9927
ä¸º	9926
oted	9926
mate	9925
Ġclarify	9923
}>	9922
vision	9922
Database	9922
Ġcoin	9920
English	9919
Ġpathogenesis	9919
ĠTur	9919
260	9917
ĠYES	9917
ĠProduct	9917
})$,	9913
Ġ##	9913
171	9911
NY	9910
Ġgathering	9909
ĠWang	9909
ĠTem	9909
Ġcrude	9908
Ġincomplete	9907
Ġ192	9907
aman	9904
Ġpredominantly	9904
Ġimplicit	9904
ĠReact	9904
Ġoutbreak	9902
^*$	9901
PIN	9901
Ġtemple	9901
pling	9898
Ġteaspoon	9897
Ġwaited	9896
Ġ131	9895
Ġsongs	9894
}_{{\	9893
Ġenum	9893
tk	9892
Ġrestart	9892
Ġnucleotide	9892
Ġlanding	9892
Ñ	9889
235	9888
Ġcattle	9887
Ġrevenues	9886
Ġquantified	9886
ĠCox	9886
Support	9885
Ġguided	9885
Ġirregular	9884
10000	9883
pic	9882
gel	9881
Ġstructured	9880
Ġsoccer	9880
Ġdough	9880
Ġflesh	9878
oa	9877
Ġphotographs	9877
Draw	9876
vest	9875
Ġquark	9874
Single	9873
ĠWars	9872
Nav	9871
Ġfol	9871
ĠLegend	9871
Ġimproves	9869
Ġsteep	9868
ochemical	9865
ĠĠĠĠĠĠĠĠĠĠĠĠĠĠĠĠĠĠĠĠĠĠĠĠĠĠĠĠĠĠĠĠĠĠĠĠĠĠĠĠĠĠĠĠĠĠ	9865
*:	9861
ĠDave	9861
ĠReference	9860
.");	9856
Ġwooden	9856
Ġconsiders	9856
ĠNMR	9856
Download	9855
Ġju	9855
pet	9854
Ev	9854
Ġple	9854
opp	9853
Ġanalyzing	9853
="@	9852
Ġmaxim	9852
Ġinjunction	9852
)",	9850
Ġpressing	9849
Ġskilled	9848
ĠEuro	9848
Ġpriest	9846
AI	9845
Ġgifts	9845
213	9844
ĠLD	9843
hh	9842
Ġmanufactured	9842
variable	9841
ĠCommerce	9841
walk	9840
Ġstimulated	9840
Ġseverely	9840
Hand	9839
Green	9838
Ġinch	9838
ĠAccount	9837
ĠSimple	9836
Ġtypename	9835
school	9833
Metadata	9832
Ġurged	9832
income	9830
ĠKentucky	9830
Ġpolls	9829
ĠRO	9829
029	9827
ayers	9825
ĠEXPECT	9825
ĠMobile	9822
ĠAdv	9822
ban	9821
ĠDelhi	9819
Ġoutlet	9818
Ġinteractive	9818
Ġdressed	9818
iano	9816
Ġdarkness	9816
189	9815
ĠUP	9815
ĠAV	9814
åı	9813
chn	9813
nic	9812
fact	9812
ARY	9812
Ġorthogonal	9812
ĠTM	9810
Ġjavax	9808
rx	9807
193	9807
Ġhorizon	9807
RD	9806
Ùİ	9805
Ġantioxidant	9805
Ġreproductive	9804
Ġbadly	9803
Ġranged	9802
ĠMot	9802
Ġprisoners	9801
ĠTag	9801
ãģĮ	9800
="{	9800
Ġplasmid	9800
ention	9799
Ġterminated	9799
ATH	9797
pler	9796
ĠProp	9792
erve	9789
Ġspecialist	9788
Ġarterial	9788
Ġswitched	9786
fixed	9785
Follow	9785
Ġsectors	9785
TRUE	9784
Ġreception	9784
Ġcortical	9784
ĠMatthew	9784
structure	9783
Ġcontend	9783
Ġbugs	9783
tern	9782
Ġdashed	9782
Ġdictionary	9779
Ġcotton	9778
================	9776
Ġanalytic	9775
BY	9774
ĠDifferent	9773
Ġ144	9773
South	9772
Ġsoluble	9770
score	9769
amped	9769
Ġpaired	9769
Ġdielectric	9769
Ġacres	9769
ĠPrint	9769
Ġvarieties	9768
Ġ1971	9768
wed	9767
Ġwaiver	9767
Ġgrasp	9765
ĠTraining	9765
Ġsealed	9764
ject	9763
oes	9758
>)	9758
Ġ145	9758
Ġinability	9756
ĠVI	9756
035	9755
Ġintelligent	9754
Ġimprisonment	9754
Ġbuilder	9754
umber	9753
Ġproton	9753
ĠMut	9752
urch	9751
Ġ[âĢ¦]	9751
ĠTan	9749
ĠPi	9748
Ġprep	9747
ĠRs	9747
Ġ---------------	9747
Ġcontractor	9744
ĠTurkish	9744
Ġconstituted	9743
ĠCut	9742
ĠHT	9741
bur	9740
nal	9739
arer	9738
365	9736
theme	9734
Place	9733
ĠKennedy	9733
Ġinappropriate	9732
Ġmanipulation	9731
Ġcoil	9731
ĠCarl	9731
}$]{}	9730
Iterator	9730
ancing	9727
179	9727
ĠOP	9727
ardo	9726
igan	9724
Ġpray	9724
ĠEverything	9723
iri	9722
ĠItem	9722
Ġexpressly	9721
Power	9719
ĠHarvard	9719
Attributes	9718
Ġunw	9718
Ġfiltering	9717
Ġembryos	9715
Having	9712
ĠMedicare	9711
ANS	9710
=============	9710
Ġrecurrent	9708
306	9707
Es	9705
Ġtransistor	9704
Ġsoup	9704
crete	9700
Ġincorporate	9699
ĊĠĠĠĠĠĠĠĠĠĠĠĠĠĠĠĠĠĠĠĠĠĠĠĠĠĠĠĠ	9699
operation	9698
Ġtransplantation	9695
ĠChi	9694
Tim	9693
Ġaforementioned	9691
ael	9690
Ġuncertain	9690
405	9689
Ġequivalence	9689
Ġcow	9689
ĠACC	9689
;;	9688
Len	9685
Ġlogo	9684
created	9683
Ġsupplemented	9682
Ġdesigner	9682
Ġswing	9681
Ġsubstituted	9680
Ġgarage	9679
Ġpie	9678
same	9677
Ġoverexpression	9672
nil	9671
Ø¯	9670
Transform	9669
Ġmetadata	9669
Ġdozens	9669
ĠLearning	9669
policy	9668
generated	9668
Mal	9668
Ġseized	9668
tax	9667
Variable	9666
LI	9666
038	9665
ĠLin	9660
license	9659
Notes	9659
333	9659
Ġphosph	9657
Ġapple	9656
COMP	9654
Ġruntime	9653
Ġ%}	9653
Os	9652
-----------	9652
ĠCreek	9652
Ġexceptional	9651
Ġbilateral	9650
ĠPetitioner	9650
ĠCondition	9650
Vs	9648
ĠCos	9647
\*\*	9643
Could	9642
ĠSEM	9640
Îµ	9639
enders	9639
tags	9638
ĠGFP	9638
ĠBeck	9638
ĠHS	9637
Ġreversal	9636
Ġ1968	9636
Ġscrew	9635
Match	9634
Dev	9634
Âª	9633
(-\	9632
ĠBol	9632
Ġoptimized	9631
Statement	9629
Ġsupervision	9629
Ġcompelling	9629
Ġleak	9627
Ġcleared	9627
ĠGraham	9625
ĠEle	9624
Ġmic	9623
Det	9622
Ġpainting	9622
Ġox	9620
Ġbeside	9620
Ġultrasound	9619
Ġmold	9619
Ġconstitution	9619
Ġlifted	9616
Ġputative	9614
ĠIRS	9614
163	9613
sters	9609
ĠTree	9607
Ġpresumably	9606
Ġcookie	9605
Ġwings	9604
Ġensures	9603
ĠRepresentative	9603
cop	9602
ĠDenver	9600
Ġbears	9597
friendly	9596
fil	9595
Ġtimeout	9595
Ġimplicated	9595
Ġbeating	9595
opic	9593
Ġthumb	9592
Ġproves	9592
groups	9591
angular	9591
Ok	9591
ĠRich	9587
Ġlean	9586
Ġcoalition	9586
ĠFollow	9586
ĠGordon	9584
ĠĠĠĠĠĠĠĠĠĠĠĠĠĠĠĠĠĠĠĠĠĠĠĠĠĠĠĠĠĠĠĠĠĠĠĠĠĠĠĠĠĠĠĠĠĠĠĠĠĠĠĠĠĠĠĠĠĠĠĠĠĠĠĠĠĠĠĠĠĠĠĠĠĠĠĠĠĠĠĠĠĠĠĠĠĠĠĠĠĠĠĠĠĠĠĠĠĠĠĠĠĠĠĠĠĠĠĠĠĠĠĠĠĠĠĠĠĠĠĠĠĠĠĠĠĠĠĠĠĠĠĠĠĠĠĠĠĠĠĠĠĠĠĠĠĠĠĠĠĠĠĠĠĠĠĠĠĠĠĠĠĠĠĠĠĠĠĠĠĠĠĠĠĠĠĠĠĠĠĠĠĠĠĠĠĠĠĠĠĠĠĠĠĠĠĠĠĠĠĠĠĠĠĠĠĠĠĠĠĠĠĠĠĠĠĠĠĠĠĠĠĠĠĠĠĠĠĠĠĠĠĠĠĠĠĠĠĠĠĠĠĠĠĠĠĠĠĠĠĠĠĠĠĠĠĠ	9583
enabled	9582
sig	9581
Living	9579
opol	9577
Ġrush	9577
Ġplanes	9575
Ġdissolved	9575
ĠProtein	9575
country	9574
Ġenvelope	9574
ĠNelson	9572
Ġinspiration	9570
]$.	9569
Ġclaimant	9568
Ġ450	9567
Ġassumes	9565
Ġspectroscopy	9564
Ġsignatures	9564
Ġretrieve	9564
Ġessay	9564
pec	9563
Ġpathological	9563
Ġdest	9563
Socket	9562
Ġenjoying	9561
Ġbite	9561
ĠEP	9559
prov	9558
Ġvaccination	9558
Ġminus	9558
Ġceiling	9558
ĠSydney	9558
Figures	9556
151	9556
ĠRemember	9556
viruses	9555
piece	9554
050	9551
syn	9549
San	9548
Ġdealt	9548
Ġunfortunately	9547
ĠSET	9544
Ġvec	9543
Ġbis	9543
ĠCost	9543
sensitive	9541
ãģ¨	9540
Ġbiochemical	9540
Ġ(_	9540
dimen	9539
oom	9538
ride	9535
oped	9535
ĠMem	9535
ĠBat	9535
ĠInternal	9533
look	9532
ailed	9532
aba	9532
Ġthreatening	9531
Ġgraft	9531
jet	9530
ista	9530
Pat	9529
ĠLink	9529
natural	9528
dark	9528
ĠTX	9528
Ġdocumentary	9527
utor	9526
Ġhierarchy	9526
Ġnullptr	9525
Ġmandate	9525
Ġaggregate	9524
track	9523
Ġbreakdown	9523
Ġcyber	9522
iki	9521
Ġports	9521
Ġwarnings	9520
Ġdischarged	9519
Ġagriculture	9519
lay	9518
ĠâĢĿ	9516
ĠDiv	9516
Ġcolored	9515
ques	9514
=""	9513
Ġanalogous	9512
Ġadolescents	9512
ĠRomney	9511
mand	9510
omin	9509
submit	9507
161	9504
Ġmicrobial	9504
ĠStock	9504
visible	9503
186	9501
ĠEng	9501
Ġvein	9500
single	9499
Rob	9498
Ġalternate	9495
Rearrange	9494
#.	9493
Ġjunior	9493
Ġcru	9492
Ġbot	9491
lon	9487
spring	9486
Ġnanoparticles	9486
ĠjQuery	9486
tar	9485
Ġcoherent	9483
ĠSNPs	9482
Ġknock	9481
ĠBaltimore	9480
Ġharsh	9478
Ġdesc	9478
Ġrefusal	9477
ĠResource	9477
Scope	9475
pkg	9474
Christ	9474
ĠTele	9474
ĠStewart	9473
Ġleather	9472
anted	9468
Ġsuspicion	9468
ribution	9464
iotic	9464
Bit	9464
Ġstadium	9463
Ġintend	9463
ju	9462
Ġsalad	9462
Ġconfigure	9462
:#	9461
ĠLeg	9461
lesssim	9460
oder	9459
eld	9459
batch	9458
Center	9457
Ġ"^	9457
Ġuntreated	9456
ĠTex	9455
decl	9454
plate	9453
ATT	9452
cod	9449
asi	9449
aping	9447
Ġviolate	9446
March	9445
rome	9444
Ġctx	9444
ãĥ³	9443
Ġbre	9443
dependency	9441
ĠEnvironmental	9441
Ġgenus	9440
Ġattracted	9439
resources	9438
contains	9438
Ġunreasonable	9436
Ġmarrow	9434
LT	9433
FLAGS	9433
Ġfibrosis	9433
ĠCharlie	9433
heat	9429
Boolean	9427
Ġbladder	9427
complete	9426
ĠRussell	9424
ĠLincoln	9424
Ġgrip	9423
Ġblast	9423
Ġendpoint	9422
ĠBoolean	9420
enger	9419
Ġmetabolites	9419
ppers	9418
ĠStadium	9415
brain	9414
Sk	9413
Ġdependencies	9413
ĠReserve	9413
ĠPER	9413
Ġdisadvantage	9412
DateTime	9411
Ġopponent	9411
Ġdelivering	9410
Ġurinary	9409
ĠArg	9409
Ġisomorphism	9405
Ġpremature	9403
ĠWL	9402
Ġlogging	9401
parser	9399
Ġiteration	9398
Ġthorough	9397
Ġhockey	9397
alls	9396
ĠNHL	9396
vd	9394
rex	9394
sz	9390
health	9390
ku	9389
Ġsits	9389
Ġpeaceful	9389
Ġhemat	9389
USER	9387
ĠLegislature	9386
ĠCriminal	9386
atomic	9385
Ġconsult	9385
Ġbp	9385
owned	9384
framework	9382
Ġoverflow	9382
illo	9379
Multi	9379
Yet	9377
Ġnevertheless	9376
Ġimm	9376
could	9375
Kit	9375
Help	9375
team	9374
andy	9374
ASH	9373
ĠVictoria	9371
ĠMississippi	9371
Events	9369
("%	9369
Ill	9368
Ġrelatives	9368
ĠNik	9367
ç»	9366
obe	9366
Ap	9366
Ġchromatography	9364
sb	9363
Ġfocal	9361
Ġdy	9360
}}({\	9359
isters	9358
longrightarrow	9357
=[	9356
Ġtwist	9356
ĠPack	9355
Ġkeyboard	9354
ï	9353
NH	9353
Ġhon	9352
ĠDIS	9352
Ġcrops	9351
Password	9348
ĠiOS	9348
Ġcomplementary	9348
Struct	9346
Runtime	9346
Ġsubsets	9345
ĠDean	9345
Ġmisconduct	9343
ĠÐ´	9342
===============	9340
Ġadjusting	9339
Ġfool	9338
ĠChairman	9338
Ġalleges	9337
ĠSteven	9337
Prop	9336
.<	9336
Ġsubmission	9336
Ġregulator	9336
Private	9335
324	9335
Ġovarian	9334
ilation	9333
Ġbanned	9331
Ġrehabilitation	9330
Ġchurches	9330
ĠBruce	9330
Ġconstrued	9329
Î´	9328
0008	9328
Ġdelays	9328
ĠCurrently	9328
tool	9327
Ġdisappeared	9327
ĠCent	9326
Xi	9325
Ġduct	9325
Ġcoordination	9324
ĠAlaska	9324
though	9323
Ġster	9323
ĠBit	9321
ĠGer	9320
Ġconductive	9317
ĠPerson	9317
1977	9316
ĠBasic	9316
Ġelectromagnetic	9313
parameters	9310
Ġslices	9310
Ġformally	9308
ajax	9307
Ġutilization	9306
EA	9305
Ġmer	9304
]^,	9303
IZ	9303
reported	9302
1978	9302
Ġprognostic	9300
Ġmuseum	9298
172	9297
Ġhr	9295
webkit	9294
Ġuh	9294
Ġconvince	9294
Low	9292
Ġunlawful	9292
Ġshield	9292
288	9291
ĠAntonio	9291
ulsion	9290
Ġinterfere	9290
Ġdepartments	9289
Ġoldest	9286
Ġoverwhelming	9285
Word	9283
Ġaddiction	9283
Ġfailures	9282
ĠEveryone	9282
issue	9281
sil	9280
question	9280
ĠHi	9280
ĠDick	9280
Ġdt	9278
Ġdiss	9277
Ġnat	9276
ĠDS	9276
Ġpopularity	9275
scroll	9273
Sal	9272
Parse	9272
ĠJonathan	9272
ems	9271
Delegate	9271
Ġflood	9268
ĠRES	9268
localhost	9265
functions	9264
Coll	9264
controlled	9263
Ġfavourite	9261
vartheta	9260
Ġreflecting	9259
ĠStop	9259
Ġretrospective	9257
know	9254
Ġachievement	9252
ytic	9250
Ġbonus	9250
Ġvenue	9249
Ġsimpler	9249
ĠmiRNAs	9249
Ġcombustion	9249
ready	9248
omen	9248
Ġcompetent	9247
Ġattach	9246
urg	9245
Ġconsultation	9245
Ġroyal	9242
Ġcirculating	9242
bg	9240
Ġmetastatic	9240
tl	9238
Ġsurprisingly	9238
Ġracist	9238
Ġunchanged	9236
Ġphotons	9236
Ġkiller	9236
182	9235
Ġnowhere	9235
ĠShare	9235
ĠModern	9235
ĠComputer	9231
bes	9230
bel	9230
ĠTemple	9228
commit	9227
Ġtrajectory	9227
runtime	9226
nut	9225
Michael	9225
Ġdefinite	9224
Ġforegoing	9223
ĠGary	9222
STATUS	9221
Ġproximal	9221
shadow	9219
kk	9219
Ġmist	9219
Ġcomb	9218
eclipse	9217
Ġ({\	9217
idate	9214
Ġoriented	9214
ĠMann	9214
must	9213
Pattern	9213
Ġdye	9213
rod	9211
Ġusername	9211
Ġmalaria	9211
Ġcorrespondence	9211
Ġreb	9210
Ġjumped	9208
'])	9207
stit	9206
rial	9206
compare	9206
Fields	9206
ĠsiRNA	9206
Ġassessments	9206
252	9205
Ġ\~	9205
ounce	9204
229	9204
ensis	9203
Ġburned	9202
ĠMu	9200
ĠMotor	9199
ĠGun	9199
ÐµÐ½	9198
interest	9198
ĠCustom	9198
erator	9197
Ġtrains	9197
stick	9195
prototype	9195
ĠRecent	9193
ĠEvans	9193
Ġ404	9193
Ġcompanion	9192
Consider	9191
Ġke	9191
Ġds	9191
Ġdil	9190
Ġowns	9186
Ġfantasy	9186
Ġclarity	9184
ĠScottish	9184
ĠCleveland	9183
ĠSingle	9181
oster	9180
ĠTro	9180
Ġcredits	9176
294	9175
Ġdeadline	9175
Symbol	9174
ĠOlympic	9174
Ġluxury	9172
238	9170
Ġcheaper	9170
Ġaggregation	9169
Rs	9168
Ġfestival	9167
initial	9166
Ġrein	9166
Ġdict	9166
ĠassertEquals	9164
toggle	9163
Ġstreams	9163
BACK	9162
ĠBlog	9162
Fi	9161
Ġexam	9161
actin	9160
uda	9159
Ġbu	9159
skip	9157
pages	9157
[]{	9157
atable	9156
ruby	9154
Though	9152
Ġannually	9152
ĠFix	9152
ulatory	9151
**:	9151
Ġstir	9150
Ġchampion	9149
Ġorganisation	9148
Ġgrams	9148
ĠĠĠĠĠĠĠĠĠĠĠĠĠĠĠĠĠĠĠĠĠĠĠĠĠĠĠĠĠĠĠĠĠĠĠĠĠĠĠĠĠĠĠĠĠĠĠĠ	9148
writer	9146
services	9146
aper	9146
President	9146
inking	9144
city	9144
Ġscripts	9143
Ġinventory	9143
Ġquestioning	9142
Ġmus	9141
Ġfinishing	9141
ĠPP	9141
Ġ157	9140
Ġheterogeneity	9139
ãĤĭ	9137
alg	9137
Ġsubstitution	9137
OUR	9136
Ġsac	9136
Ġridiculous	9136
Ġbuff	9136
augh	9135
Ġtent	9135
urer	9134
Ġincoming	9134
SSL	9130
ĠAirport	9130
Ġsorted	9129
acs	9128
Ġstochastic	9128
Ġpsychology	9128
Ġsplitting	9126
ference	9124
ĠAlan	9124
Ġ!==	9124
IAL	9123
Ġunrelated	9123
Ġlaptop	9123
Î¿	9122
generation	9122
Ġflower	9122
ĠAle	9122
Resources	9121
Ġinfer	9121
iat	9120
Ġappearances	9120
leqslant	9118
gent	9118
Plan	9118
checked	9117
Year	9117
Ġdeploy	9117
Area	9115
Ġlogs	9115
Ġdisruption	9114
anny	9113
ĠNP	9113
Ġliberty	9112
Ġtrapped	9111
Ġpathogen	9111
Ġsender	9110
Ġcomic	9110
Ġfifty	9108
Ġstoring	9107
ENCE	9106
ĠLes	9106
Ġexpects	9104
Ġsmiled	9103
Ġconfined	9102
ĠPhase	9102
ĠMagn	9102
TABLE	9101
around	9100
Ġspeeds	9100
ĠPot	9100
Ġzinc	9099
atically	9098
CHECK	9098
307	9098
Ġgirlfriend	9098
3000	9095
Ġpurchasing	9095
ĠFront	9095
Ġnested	9093
Ġeigenvalues	9092
story	9091
sectional	9089
once	9089
attributes	9089
Ġadmin	9087
ĠRegional	9087
]+	9083
Ġcave	9083
BN	9081
Ġaccessed	9081
ĠÂ§Â§	9080
mk	9077
ĠStep	9074
Mem	9073
Ġspeakers	9073
Ġfracture	9073
ONG	9072
Ġ|=	9072
ĠKam	9072
ĠACT	9070
osition	9069
Ġ_{\	9069
Domain	9068
Ġpathogens	9068
Ġclouds	9065
Ġ$,	9064
Ġpackets	9062
Ġcomprise	9062
ĠMand	9059
journal	9058
ivo	9058
Ġapproaching	9058
Ġswe	9057
Ġ210	9056
different	9055
Ġrefund	9055
ĠProof	9055
tail	9054
\}$.	9054
Ġ1969	9054
|_{	9053
Ġislands	9053
åĪ	9051
ogg	9051
fat	9051
oning	9049
erred	9049
earing	9049
cause	9048
FN	9048
>"	9048
Watch	9046
igo	9044
bmatrix	9044
mitted	9042
feed	9042
plant	9041
Ġunions	9041
Perhaps	9040
1976	9040
275	9039
ĠQuality	9038
ionic	9036
market	9035
agram	9035
Ġresponsibilities	9034
Ġpressures	9033
ĠLiving	9032
Ġventure	9030
ĠCohen	9030
Ġrecipients	9029
ĠLabel	9028
ĠBetween	9028
Ġhint	9027
Ġcute	9027
Ġbreed	9026
Ġprocedural	9025
Ġinferior	9025
primary	9024
UST	9023
750	9023
Ġlinking	9022
Ġintegrate	9022
Play	9021
ĠÙ	9020
Ġeconomics	9020
Ġ-----	9020
Ġroller	9019
rob	9018
ĠLane	9016
ĠUC	9015
think	9014
)}_{	9014
period	9013
Ġcoaching	9013
Ġimpressed	9012
Ġpathology	9011
ĠFreedom	9011
uated	9010
itÃ©	9007
Ġcolony	9006
Ġdirt	9005
ĠBet	9005
;}	9004
å®ļ	9003
čĊĠĠĠĠĠĠĠĠĠ	9002
Shape	9001
Ġlobby	9001
Visible	9000
ĠRu	9000
Ġprecursor	8998
Ġcollateral	8998
ĠÐ¿ÑĢ	8997
ĠTechnologies	8996
dn	8995
apple	8995
Ġloc	8995
æī	8994
scriptscriptstyle	8994
^{{\	8994
Div	8993
Ġparliament	8993
[-	8991
phy	8989
Ġsuits	8989
ĠSwitzerland	8989
kb	8988
Inst	8988
HI	8988
maker	8987
fore	8986
Ġhereby	8986
Instead	8984
244	8984
sid	8982
microsoft	8980
inations	8980
Direct	8980
Ġdies	8979
Ġlacks	8978
Ġappropriately	8978
iaz	8977
density	8977
/"	8976
downarrow	8974
Ġsexually	8974
ĠWolf	8974
àº	8971
Ġundertaken	8969
Ġspine	8968
})^	8967
hide	8967
ĠBrexit	8967
Price	8966
holder	8965
Ġrated	8964
301	8963
Ġlawmakers	8963
ĠDatabase	8961
327	8960
Ġtrafficking	8960
ĠNav	8959
oxic	8957
Ġsimultaneous	8956
Ġnutritional	8956
configuration	8955
Ġscar	8955
Ġmonetary	8953
Ġdisplaying	8950
irl	8949
Ġreminded	8949
../../	8948
Ġ$_	8948
Ġsupp	8947
ĠRick	8944
ĠNever	8943
University	8940
Ġenters	8938
cluster	8937
June	8937
|{\	8936
Ġeng	8936
North	8935
ĠSoc	8934
ption	8933
Ġengineer	8931
Ġreceipt	8930
genes	8929
Ġdisappointed	8929
arth	8927
Initial	8927
Among	8925
sol	8924
bridge	8924
Ġassured	8924
Ġgrains	8923
Ġcharity	8922
ĠNewton	8922
ĠCass	8920
timeout	8919
Ġaccounted	8919
olin	8918
Ġordinance	8918
Ġinn	8917
Ġinterviewed	8916
ĠCAN	8915
Ġpertinent	8914
dump	8912
]{}.	8912
Err	8911
ĠMembers	8911
effect	8910
Ġcoated	8910
ĠAngel	8910
wick	8909
Ġsnap	8909
ĠWorks	8909
ĠFore	8909
Ġdump	8908
}),	8907
Ġpap	8907
ipl	8905
Ġwondered	8905
ĠSure	8905
Ġtaxpayer	8904
Ġtur	8902
Ġtrusted	8899
Ġexec	8898
Ġchunk	8897
Ġcabinet	8895
information	8892
Ġnuts	8890
Ġcalc	8890
ressing	8889
Ġloci	8889
issues	8888
abilities	8888
ĠVM	8887
Ġproblematic	8886
Ġfinancing	8885
Ġemploying	8885
Ġannotation	8885
Ġspherical	8883
olt	8882
loaded	8882
Ġerroneous	8882
ĠHREF	8882
Ġ1967	8882
Ġsquares	8881
Ġasymptotic	8881
xd	8880
ĠHttp	8879
ĠPeace	8878
resolution	8876
Ġstays	8876
Ġcostly	8876
gmail	8875
Gal	8874
Ġinsisted	8874
Ġexplosion	8873
Dim	8872
Ġmoisture	8872
Ġstrongest	8871
Ġ$^{	8870
Ġlas	8869
Ġamplified	8869
RP	8867
Ġworn	8862
ĠFer	8862
pub	8861
anged	8861
Ġsecurities	8861
Ġrival	8861
osomes	8860
cluding	8860
Ġfluor	8860
Ġlaughed	8859
Ġguards	8859
clusive	8858
basic	8858
Ġram	8858
heart	8856
Ġlag	8856
Ġintegers	8855
Ġelevation	8855
ĠOFF	8854
except	8853
olly	8852
Ġreq	8852
idad	8851
Sun	8851
Ñİ	8850
jk	8850
Ġcommerce	8850
ĠPope	8850
ãģª	8847
words	8847
ocy	8847
Ġprofound	8847
ĠMos	8847
xa	8846
Ġviewers	8846
Ġarthritis	8844
Ġexon	8840
Ġ165	8840
}.\	8839
ĠConvention	8839
proxy	8838
265	8838
Ġballot	8838
Ġmetallic	8836
Ġwheels	8835
Ġstandardized	8835
cfg	8834
ĠYang	8832
Ġuncertainties	8831
Ġstreaming	8831
Ġmyth	8830
Ġsuite	8828
Ma	8827
Î½	8825
223	8824
Ġconnector	8824
UK	8823
Ġpanic	8823
ĠProv	8823
ĊĊĊĠĠĠĠĠĠĠĠĠĠĠĠĠĠĠĠĠĠĠĠĠĠĠĠĠĠĠĠĠĠĠĠ	8823
ĠCampbell	8822
Ġsword	8820
173	8819
Ġbitcoin	8819
Ġsacrifice	8818
ISH	8816
Ġelimination	8816
chers	8815
ĠHER	8814
inks	8813
oving	8812
Extension	8812
Ġslides	8812
Ġcomplained	8812
Ga	8811
ĠBus	8811
Ġroster	8810
rons	8809
activated	8808
social	8807
aire	8806
uster	8805
James	8805
Ġfirearm	8805
processing	8804
ocyt	8803
Ã±	8802
INSERT	8802
ĠLoad	8801
ĠMIT	8800
pb	8797
ĠSNP	8796
Ġvapor	8795
Ġoverhead	8795
Ġsuited	8794
Ġseventh	8793
Ġ".	8792
VO	8791
Ġappealed	8791
Ġadvocate	8791
ords	8790
eno	8788
Ġserv	8788
Ġhiding	8788
Ġanniversary	8786
Ġty	8784
ĠĠĠĠĠĠĠĠĠĠĠĠĠĠĠĠĠĠĠĠĠĠĠĠĠĠĠĠĠĠĠĠĠĠĠĠĠĠĠĠĠĠĠĠĠĠĠĠĠ	8784
Ġbrains	8783
vubuntor	8778
cancers	8775
Such	8774
Furthermore	8773
Ġalgebraic	8773
ĠGrid	8773
Ġpractically	8772
ouch	8771
ITION	8771
Ġfence	8771
hire	8770
train	8769
ĠWard	8768
ĠMaterials	8767
ĠWinter	8765
Ġspell	8764
Ġinject	8764
Ġvaccines	8761
idence	8760
anced	8760
Ġthyroid	8760
Ä«	8759
326	8758
ceptor	8757
asia	8757
Ġweakness	8757
Ġdemonstration	8757
Ġonion	8755
Ġlungs	8755
dz	8754
Ġsweat	8754
ĠThink	8753
uge	8750
fulness	8750
kh	8749
Ġhonestly	8749
Av	8748
April	8748
258	8748
Ġpositioning	8746
ĠSide	8746
conn	8745
Ġpicks	8744
ĠTRUE	8744
Ġbail	8740
ĠBattle	8740
extension	8737
AIN	8736
Ġlicenses	8735
fmt	8734
collect	8733
Ġattendance	8733
)>	8730
(@	8730
ĠMMP	8728
Nothing	8727
605	8726
Ġtransgenic	8726
ĠND	8726
Profile	8725
Ġlabeling	8725
Ġstressed	8722
Ġwore	8720
scape	8718
emptyset	8717
Ġtokens	8717
ĠPrevious	8717
ĠProm	8716
heim	8715
bas	8715
ĠMORE	8715
yd	8714
Transaction	8714
Ġcollections	8712
argument	8711
Ġclimb	8711
pay	8710
ĠVillage	8710
ĠEstate	8708
ĠDouglas	8708
Ġisolate	8705
ARS	8704
Ġlimb	8704
ĠIntelligence	8703
ĠContact	8703
available	8702
aded	8701
odd	8700
Ġ155	8700
Ġdrift	8698
Ġconcludes	8698
Unfortunately	8697
Ġparser	8697
ĠEmail	8697
Ñħ	8696
ĠMg	8695
Ġgenerators	8693
Defendant	8691
ĠAppeal	8691
^.	8689
trace	8687
Folder	8685
Ġromantic	8685
Ġglasses	8685
ĠAlternatively	8685
ĠIndependent	8683
DH	8681
......	8681
Ġneurological	8680
Ġslave	8679
~.	8678
Ġ"'	8678
Rate	8677
ĠEver	8677
Ïĥ	8676
Would	8676
Ġnom	8676
Ġcomplain	8676
Ġapi	8676
notes	8674
Ġembrace	8674
olk	8673
dst	8673
215	8673
profit	8672
Ġattacking	8671
ĠResult	8670
oline	8669
Ġfasc	8667
ĠPortland	8667
ĠLV	8666
eval	8665
Ġprecedent	8665
Ġworthy	8664
Ġprojections	8664
Ġlongest	8663
Ġprinter	8662
mathop	8660
Ġbump	8660
nodes	8659
navbar	8659
PN	8659
309	8659
Ġlamp	8659
olves	8658
Ġpale	8657
Ġbtn	8655
ĠLawrence	8655
errors	8654
Ha	8653
Ġscr	8651
éĢ	8650
Ġhorrible	8650
ĠNan	8650
svg	8648
odies	8648
Ġtemporarily	8648
Ġspect	8648
Ġconceptual	8648
ĠLICENSE	8648
Ġsurvivors	8647
Ġcrown	8647
Ġcasual	8647
ĠFM	8647
pective	8646
Ġcompartment	8645
Ġgotta	8644
Ġfollowers	8644
Ġrelay	8643
Ġscandal	8641
Ġinhibits	8641
Ġclassroom	8641
Ġcrypt	8640
ĠDad	8640
âĢ³	8639
Ġseizure	8639
Keep	8638
328	8637
ĠHem	8637
ĠLO	8636
protocol	8635
Ġpenalties	8635
stats	8634
:/	8634
Ġholy	8634
Ġgrabbed	8634
Ġdropping	8633
ĠEli	8633
.'"	8631
Ġtf	8631
Ġeigen	8631
Ġdepletion	8631
Ġdefective	8631
ĠWa	8631
Ġheadquarters	8630
Ġprecious	8629
ĠĠĠĠĠĠĠĠĠĠĠĠĠĠĠĠĠĠĠĠĠĠĠĠĠĠĠĠĠĠĠĠĠĠĠĠĠĠĠĠĠĠĠĠĠĠĠĠĠĠĠĠĠĠĠĠ	8629
Framework	8628
ĠMaria	8627
Ġpolymerase	8624
Ġlocate	8624
Ġdiscontin	8622
ĠTa	8622
Ġeducated	8621
Ġdivine	8621
Logger	8620
Å¡	8619
Ġbreeding	8618
plex	8617
yo	8616
Ġmarine	8616
ĠWR	8616
nh	8615
Ġtremendous	8613
TB	8612
'];	8612
Ġdiagrams	8612
Ġadherence	8612
Flag	8611
ĠFederation	8611
Ġresting	8610
sided	8609
rict	8609
orter	8609
ĠMorris	8609
iga	8608
Ġwires	8607
Ġinvite	8607
Protocol	8606
ĠSuperior	8606
,*	8605
ĠCe	8605
uzz	8604
Ġstrengths	8602
Ġeth	8602
Ġconsume	8602
Ġ[],	8602
Ġexempt	8601
olving	8600
ests	8599
FM	8599
Ġaxial	8599
Ġnormalization	8598
Ġconvincing	8598
ĠGreg	8597
ĠAlliance	8597
Ġsubunit	8596
Ġstruggled	8595
prev	8594
Ġprotesters	8594
ĠNeuro	8594
Ġvir	8592
Ġsampled	8591
Sat	8590
accept	8589
ĠPhilip	8587
Ùĩ	8584
Ġmitochondria	8584
Ġcollagen	8584
mented	8583
\(	8582
VALUE	8582
Ġtexts	8582
Anal	8580
Keys	8579
arians	8578
ĠVegas	8578
ĠPlayer	8578
Copyright	8577
Ġmorbidity	8576
ĠCOL	8576
iments	8575
Ġscratch	8575
connected	8574
)},	8574
ĠGram	8572
ename	8570
Ġfreeze	8569
ĠMach	8569
Ġcorners	8565
ĠFast	8565
ĠĠĠĠĠĠĠĠĠĠĠĠĠĠĠĠĠĠĠĠĠĠĠĠĠĠĠĠĠĠĠĠĠĠĠĠĠĠĠĠĠĠĠĠĠĠĠĠĠĠĠĠĠĠĠĠĠĠĠĠĠĠĠĠĠĠĠĠĠĠĠĠĠĠĠĠĠĠĠĠĠĠĠĠĠĠĠĠĠĠĠĠĠĠĠĠĠĠĠĠĠĠĠĠĠĠĠĠĠĠĠĠĠĠĠĠĠĠĠĠĠĠĠĠĠĠĠĠĠĠĠĠĠĠĠĠĠĠĠĠĠĠĠĠĠĠĠĠĠĠĠĠĠĠĠĠĠĠĠĠĠĠĠĠĠĠĠĠĠĠĠĠĠĠĠĠĠĠĠĠĠĠĠĠĠĠĠĠĠĠĠĠ	8565
Ġemerge	8564
Ġterrorists	8563
Ġdps	8563
323	8562
ortion	8560
Ġretinal	8560
Ġhepatitis	8560
Ð°Ð½	8559
overs	8557
Ġflowing	8557
Ġstere	8556
Ġpolynomials	8556
Java	8555
227	8555
qq	8554
las	8554
()).	8554
ellow	8552
Ġpotatoes	8551
ĠMultiple	8550
Ġrefusing	8549
ĠSep	8549
ĠMuch	8549
cin	8548
Arch	8548
183	8548
Ġimported	8548
IK	8547
Ġpricing	8546
Ġbatteries	8546
wire	8545
%%	8544
HW	8543
Ġranking	8542
ĠEve	8542
ĠNic	8541
ĠFermi	8541
rine	8540
ĠCome	8539
Ġsucceeded	8538
Ġcorrupt	8538
čĊĉĉĉĉ	8538
Ġbiomarkers	8536
aciÃ³n	8535
-.	8535
Ġadm	8535
å®	8534
expr	8534
aneous	8534
ply	8533
?:	8533
_**	8532
orous	8529
Abs	8529
ĠPutin	8529
NI	8527
"`	8527
Ġhiring	8526
micro	8525
boldmath	8525
lg	8524
inet	8524
Failed	8523
Ġ230	8522
Ġprobabilities	8521
kov	8520
ĠPrimary	8520
ĠSB	8519
Hel	8518
Ġpayload	8518
ĠHell	8518
Ġfiction	8516
Â	8515
Ġmultip	8515
Ġcomparative	8515
optional	8514
mag	8514
pref	8513
/?	8513
Tests	8512
ĠPoland	8512
Cu	8510
Ġregulators	8509
ĠĠĠĊĠ	8509
Ġdots	8508
Ġinfusion	8507
Ġinfrared	8507
Ġseq	8506
Ġsucc	8505
MON	8503
))**	8501
ĠClient	8501
Ġlap	8499
ĠThor	8498
ĠNos	8497
Ġdiver	8494
Ġprotects	8493
Progress	8492
DIS	8492
Ġherb	8492
ĠGarden	8492
ĠCAR	8492
,,	8491
á	8490
Ġcalories	8489
Ġbarrel	8489
Ġveterans	8488
ensions	8487
ĠDer	8487
BV	8485
Ġaccumulated	8485
Ġrotate	8484
Ġbay	8484
~~	8483
CAP	8483
Ġchi	8483
ĠIslands	8483
protein	8481
Ġpunch	8481
ĠCro	8479
getElementById	8478
Ġoverseas	8478
ĠGT	8478
Very	8475
Repository	8475
Ġtrait	8474
Ġtransparency	8473
ĠStaff	8472
;<	8471
dest	8470
Ġcho	8468
Ġwells	8466
Ġcamps	8466
ĠStatement	8466
Ġhunt	8465
ĠZn	8465
Ġredshift	8464
Ġmand	8464
operator	8463
KK	8463
Ġbitter	8463
Ġ000	8463
Ġvolunteer	8461
rf	8460
Ġfriction	8459
Ġreliance	8458
Ġmotif	8458
Ġ../	8458
Ġcatalytic	8457
Ġtransplant	8456
ĠFinance	8456
airs	8455
045	8455
ĠCommunications	8454
cale	8453
Cur	8453
many	8452
/)	8451
Ġtrash	8450
treatment	8449
Ġobserver	8449
Ġconstrained	8448
six	8447
irect	8447
Ġdiffers	8447
[...]
