.	51202776
Ċ	48078972
,	43879976
Ġthe	41306153
Ġof	23448983
Ġand	19929272
Ġto	19291541
-	16053317
Ġa	15607971
Ġin	14233350
_	10035628
Ġis	9740170
Ġ(	8522923
Ġthat	8319609
)	7561671
Ġfor	7495751
:	7013266
Ġwith	5761286
1	5716952
(	5658780
2	5533825
Ġ"	5274228
Ġon	4926907
s	4801044
/	4718314
Ġas	4511135
Ġbe	4399842
Ġwas	4363858
Ġit	4300745
ĠI	4252169
Ġby	3937718
Ġare	3894612
Ġ=	3877905
;	3816402
Ġ-	3571658
0	3447434
ĠThe	3427637
Ġthis	3395345
{	3316156
Ġfrom	3297904
Ġat	3292674
Ġ$	3273954
Ġyou	3264243
âĢĻ	3222625
Ġor	3198863
*	3177392
Ġnot	3174352
Ġ\	3155040
ĉ	3090117
Ġhave	2949798
\	2916172
}	2856566
Ġan	2844486
3	2842870
's	2794505
"	2789560
Ġ0	2589243
>	2564766
ĊĠĠĠ	2482136
Ġ*	2436702
Ġ	2325363
Ġwe	2323323
a	2287095
Ġcan	2143269
t	2099133
Ġwere	2087190
4	2045095
$	2035433
."	2002409
i	1994929
Ġ1	1988919
="	1951405
Ġwhich	1950787
x	1904372
Ġhas	1886242
Ġ+	1810821
5	1801782
A	1800716
Ġ{	1794614
d	1787717
Ġbut	1775631
n	1758809
).	1742309
Ġhe	1741969
B	1740486
ĊĠĠĠĠĠĠĠ	1729976
?	1714019
The	1712566
Ġwill	1709274
I	1685307
Ġall	1665582
ing	1663494
ĊĠ	1652802
Ġif	1622423
Ġ2	1590195
C	1585740
S	1583398
Ġhis	1571302
Ġone	1565550
b	1541179
c	1524753
Ġthey	1506917
in	1447525
Âł	1441695
p	1432723
Ġtheir	1408370
ĠA	1399141
Ġmore	1397627
**	1390739
m	1386305
f	1350426
Ġ3	1326132
ed	1312772
_{	1306506
]	1284784
Ġhad	1279911
<	1278295
Ġ$\	1270732
Ġbeen	1263631
),	1259675
);	1244251
y	1235797
Ġyour	1228796
Ġ<	1228272
Ġalso	1227872
k	1226228
6	1207858
'	1201134
ĠIn	1196617
ĠS	1193713
=	1189838
e	1189200
Ġabout	1175719
Ġout	1175241
Ġwhen	1163675
Ġwould	1159609
ĠC	1158467
g	1152947
D	1140854
F	1140231
Ġso	1138392
Ġthere	1133929
^	1132009
Ġtime	1130664
[	1129674
't	1121211
Ġother	1110785
Ġ4	1110324
Ġmy	1092107
8	1088068
P	1082018
ĠâĢľ	1078796
Ġwho	1073233
o	1070973
h	1063263
R	1059726
M	1053650
7	1050275
Ġ[	1045752
Ġdo	1043211
Ġthan	1040529
T	1036265
Ġup	1034664
Ġno	1033364
ĠĠ	1026636
ĠB	1026256
Ġ'	1022860
Ġ5	1019873
r	1013181
Ġ}	996575
Ġits	982716
ĠD	981841
Ġ&	975140
Ġinto	974205
v	967702
ĠP	967577
ĠM	951428
ĠT	946676
Ġour	945881
Ġonly	939429
Ġher	937750
Ġtwo	934875
Ġsaid	925767
H	924308
ĊĠĠĠĠĠĠĠĠĠĠĠ	914967
Ġwhat	906391
Ġlike	901367
E	900968
Ġany	899138
%	894902
ĠF	894656
L	890880
j	886198
Ġnew	884059
N	883845
Ġsome	883135
Ġmay	882676
9	874457
u	873977
ĠIt	870517
ĠThis	869855
ĠL	862559
l	855601
G	847637
Ġfirst	847159
Ġsuch	847033
ĠH	835744
ĠR	833331
Ġthese	828268
+	819495
er	818140
Ġover	811347
z	803849
ref	802602
Ġget	802291
Ġthem	800191
10	793752
Ġp	786513
Ġuse	777673
Ġme	777517
Ġthen	774006
Ġjust	773326
Ġafter	766178
type	763032
Ġbetween	756663
Ġv	752995
ĠWe	747504
</	730763
",	730545
{\	725321
Ġ6	721670
ĠG	721506
al	720770
Ġused	720026
Ġwhere	715550
Ġcould	715179
.,	712346
w	708307
ĠN	704283
Ġdata	704234
ĊĠĠĠĠĠ	699472
on	694618
Ġpeople	685053
K	684978
#	684867
00	676800
V	675748
Ġshe	672905
In	667085
X	664262
Ġusing	663005
Ġbecause	654646
or	649997
}\	648711
es	648068
!	643695
Ġ10	642188
Ġm	640564
is	638109
ĠK	631295
Ġshould	626215
ĠE	626022
ĊĠĠĠĠĠĠĠĠĠĠĠĠĠĠĠ	624310
ers	618200
id	618150
Ċĉ	618072
Ġwell	615766
Ġ[@	614700
an	611876
Ġi	608562
W	608179
ĠU	605979
){	605819
Ġ.	604328
Ġhow	604286
12	600999
Ġmost	598755
en	594421
ĊĊ	590896
Ġeach	590837
Ġcase	587150
Ġ7	586519
Ġhim	583109
Ġclass	581415
Ġ|	579965
~	577998
Ġunder	577970
ĠHe	569254
Ġd	561498
q	561098
ic	559792
ly	557134
Ġmake	554217
Ġwork	553671
Ġ8	550921
as	547497
re	546966
Ġthrough	543530
Ġc	543412
11	543326
Ġt	542291
Ġ@	539880
Ġsame	537655
Ġway	536355
->	535979
J	534352
Ġs	528454
Ġeven	527031
Ġf	525484
Ġsee	524901
Ġthose	522113
ĠW	521394
Ġnow	521132
Ġyears	519950
Ġvery	519927
()	519505
frac	517894
Ġboth	516622
Ġknow	515845
}$	515089
ĠJ	514193
Ġset	513485
com	513277
Ġ_	511909
Y	510439
O	510187
">	506519
Ġbeing	505758
Ġdid	505207
Ġneed	504181
ĠV	503654
01	501890
Ġmany	499001
Ġbefore	497891
Ġn	497343
](#	496652
?"	496651
Ġdifferent	495644
Ġb	495025
right	494019
Ġnumber	492739
Ġback	492031
Ġright	491575
Ġreturn	490267
ĠĠĠ	489429
âĢī	488792
::	483296
Ġhere	482458
--	478468
Ġdon	476879
end	476360
to	470679
th	469735
left	468920
and	467901
âĢĿ	467266
U	466743
Ġus	465300
ĊĊĠĠĠ	464685
Ġl	463839
the	459229
Ġmade	458597
Ġvalue	458093
at	457839
fig	457599
it	455652
ar	452614
Ġ\[[@	452581
Ġwhile	451612
ĠâĢĵ	450311
://	449717
Ġhigh	448989
Ġfound	447734
Ġsystem	447233
Ġ**	445808
able	438343
le	437432
":	436455
Ġmuch	436031
Ġend	433728
Ġgood	433008
.âĢĿ	432815
Ġg	432700
Ġstudy	432159
15	431588
Ġstate	431249
Ġfunction	430004
Ġx	429900
Ġ9	428832
Ġthree	428051
_{\	426840
Ġwant	425566
ation	425387
ĠIf	425245
el	424461
us	424284
Ġpatients	423185
13	422464
Ġpublic	422195
Ġ//	419249
ĠFor	419191
20	419179
Ġwithout	418590
ĠLet	418215
Ġun	417465
Ġduring	417445
16	417219
We	416217
os	414827
if	414466
',	413751
Ġcells	413438
Ġcourt	412596
|	411776
,"	411422
Ġh	411323
Ġdoes	411187
Ġ:	411143
Ġname	410016
int	408642
What	407935
Ġthink	405589
$,	404436
Ġorder	403670
000	401834
get	401287
Ġe	401287
(\	401239
Ġyear	399533
Z	399031
Ġpart	398520
Ġde	398282
ate	397577
14	395696
Ġal	395117
19	394857
ĠO	393016
Ġr	392380
Ġnon	392294
Ġdown	391025
Q	390175
$.	387639
("	387505
Ġgroup	387082
}{	384814
Ġlong	384464
Ġagainst	381693
It	381486
18	379439
am	376849
Ġgo	376676
Ġmust	375301
...	375129
Ġtake	373721
//	373121
Ġlast	371995
Ġstill	371603
ia	366920
32	365939
Ġtype	365547
et	364349
ĠBut	363038
Ġinformation	359928
st	359603
Ġ12	359271
Ġday	358452
Ġam	356220
Let	354296
Ġsecond	354073
],	353687
&	353014
ĠĠĠĠ	352912
Ġ,	352546
ĠAs	348895
17	347967
mathcal	347513
Ġresults	346831
CR	344368
();	343593
ine	343168
Ġoff	342482
)$	340881
Ċĉĉ	340818
Ġfollowing	339998
^{	339518
This	339295
Ġk	338669
].	337254
Ġfind	337171
Ġgoing	333853
ĠAnd	333374
}}	330672
âĢľ	330448
ie	328961
Ġwithin	327890
il	326768
Ġre	325627
ĠYou	325623
Ġsince	324869
Ġw	324682
25	324313
Ġlife	323475
Ġaround	323401
'm	322190
Ġpoint	321575
30	321003
č	319834
Ġ*/	319531
Ġ20	318751
alpha	317695
ant	315647
Ġmodel	315633
Ġcontrol	314680
Ġanother	314148
Ġ#	313196
ad	313131
,âĢĿ	312764
Ġper	312057
\]	311090
ol	310050
âĢĵ	309191
ist	308318
Ġ</	307649
Ġshow	306848
ĠQ	306294
Ġet	305514
Ġown	305292
))	304971
Ġexample	304594
ated	303549
Ġtest	303180
Ġline	302651
Ġincluding	302558
]\].	302293
Ġself	302270
ĊĠĠ	301968
Ġcell	301537
ĊĊĠ	300751
You	299702
Ġtoo	299545
Ġform	299370
Ġevery	299060
Ġgiven	298122
Ġhelp	297705
ch	295962
Ġreally	294674
Ġmight	294501
Ġworld	294381
Ġsay	293392
ies	293019
Ġresult	292992
name	292747
ĠHowever	292202
ĊĠĠĠĠ	291452
Ġprocess	291288
Ġy	290801
24	290096
ĠThey	289755
Ġ{#	289583
ĠX	288901
,\	288569
Ġfile	288195
Ġ$$\	288168
Ġpresent	286850
Ġbased	285525
Ġ15	285283
im	283621
Ġj	283435
Ġsupport	283293
're	282458
Ġ\[	281898
est	279291
ot	277966
ĠNo	277694
Ġbest	277492
Ġanalysis	277455
um	277350
ating	277042
Ġmethod	276397
22	276023
Ġ18	275658
Ġnext	275065
ĠâĢĶ	274884
ent	274118
}(	273188
un	272206
Ġevidence	272067
Ġsomething	271923
ĠNew	271908
Ġleft	270969
Ġhome	270897
Ġsmall	269998
Ġwhether	269894
Ġchange	268931
ian	268849
Ġint	267399
)\	266895
text	266813
âĢĶ	266571
Ġo	264956
23	264858
man	264208
Ġfact	264186
ur	264166
ĠWhat	263330
of	263256
Ġplace	261945
ĠThere	260985
ity	260950
21	260486
Ġpower	260307
Ġimportant	259669
Ġfew	258366
Ġbetter	257635
em	257571
mu	256932
Ġabove	256689
ro	256612
Ġless	256509
Ġlarge	255794
Ġwater	255266
50	255084
Ġ11	254656
ra	254420
ors	254324
Ġlevel	254217
Ġtrue	252733
Ġnever	252417
Ġ{\	251218
label	250671
mathbb	250547
64	250215
up	249305
Ġtreatment	248963
Ġleast	248758
ations	247898
Ġlittle	247884
div	247773
Ġpossible	247698
Ġlow	247245
Ġcome	246058
Ġthings	245945
ĠSt	245031
ac	244929
Ġsub	244888
Ġdue	244513
Ġproblem	244482
('	244033
ĠĠĠĠĠ	243979
Ġlaw	242746
!"	241266
Ġgreat	240764
To	240687
Ġlook	239857
data	239604
op	239572
05	239505
80	237930
Ġeffect	237427
@	237370
Ġfield	237037
set	236987
Ġ14	236942
Ġhaving	236296
ve	236195
Ġdays	236139
Ġ16	235725
Ġshown	235636
ism	235624
ĠY	235188
Ġgive	235187
):	235122
ĠShe	235119
Ġfurther	234061
Ġ/	233948
27	233921
40	233875
begin	233801
Ġgot	233367
Ġcommon	233362
"}	232970
Ġtrial	232568
om	232519
ĠZ	231711
Ġpost	231565
ive	231424
ĠTo	230220
Ġ19	230153
Ġ30	229766
Ġcode	229630
Name	229627
Ġ--	228753
ir	228689
Ġsize	228215
Ġhealth	228006
Ġgame	227950
\[	227247
If	227192
ab	227070
ment	227039
Ġexpression	226789
Ġlet	226702
Ġu	226521
ul	226238
Ġprovide	226198
As	226059
Ġalways	225785
28	225571
Ġcurrent	225429
Type	225333
ings	225262
Ġagain	224889
ĊĠĠĠĠĠĠĠĠĠ	224801
Ġ)	224550
Ġfour	224504
Ġgovernment	224467
Ġman	224392
Ġeither	223741
Ġknown	223133
Ġcalled	222616
ĠThese	221339
ĠState	221328
ell	221069
Ġfree	220968
out	220870
ĠCourt	220540
ak	220535
Ġuntil	220446
Ġavailable	220209
ap	220112
ĠUnited	220100
Ġreal	220041
Ġfamily	219985
Ġlocal	219041
Ġside	218607
Ġsingle	218404
Category	218339
li	217986
Ġelse	217948
aligned	217148
Ġhuman	217069
ion	217041
ĊĊĠĠĠĠĠĠĠ	216734
Ġmeans	216661
}$$	216618
Ġaction	216574
26	216434
ĊĠĠĠĠĠĠĠĠĠĠĠĠĠĠĠĠĠĠĠ	216424
one	216407
Ġ==	216033
rm	216020
Ġz	215635
ĠĠĠĠĠĠ	214950
Ġvalues	214689
ig	214451
Ġcases	213855
Ġable	213716
Ġhand	213694
Ġchildren	213590
35	213303
Ġtimes	213084
Ġlight	212974
Ġmean	212920
ĠAll	212720
ĠSo	212690
Ġseveral	212394
pone	212236
Ġteam	211856
ized	210773
ip	210736
Ġhigher	210458
usepackage	210432
ĠThat	210321
Ġcare	210221
Ġ100	210022
lambda	209711
Ġarea	209489
33	209261
ag	209241
Ġstudies	209073
pi	209034
ins	208797
Ġtop	208325
Ġbody	208320
've	208313
Ġstart	207868
ID	207843
http	207745
Ġput	207744
this	207477
},	207261
Ġrun	207070
Ġsignificant	207005
org	206610
Ġfull	206492
span	206047
Ġrate	205991
29	205710
Ġwhy	205697
Ġerror	205581
Ġ13	205426
Ġtotal	204891
ER	204502
Ġpre	204434
For	204422
Ġenergy	203863
ates	203718
];	203354
import	203141
oc	201425
And	201318
ĠStates	201264
pt	201225
34	200785
><	200659
ical	200607
Ġsimilar	199927
60	199664
Ġopen	199512
100	199510
Ġalready	199298
Ġfinal	199244
Ġdidn	199221
ÃĲ	199063
}_	199027
Ġgeneral	198842
Ġperson	198567
Ġconst	197430
Ġassociated	197392
ĠWhen	197366
Ġlot	197288
36	197115
Ġlevels	196900
ge	196311
Ġspace	195617
Fig	195599
Ġresponse	195559
ĠĠĠĠĠĠĠ	194885
Ġkey	194036
_\	193908
Ġlist	193793
string	193405
Ġ%	193398
Ġst	193289
He	193150
Ġcall	193144
Ġquestion	192963
Ġrequired	192548
Ġdone	192411
he	192349
Ġwomen	192284
'll	191842
mathbf	191786
Ġspecific	191749
Ġaway	191591
Ġsays	191238
45	191183
table	190659
Ġissue	190575
ally	190548
Ġ${\	190505
io	189919
Ġoften	189093
Ġ`	188273
Ġterms	188084
Ġactivity	187838
38	187558
Ġread	187445
Ġfar	187277
Ġ=>	187277
ial	187187
Ġ50	187094
ast	186636
Ċĉĉĉ	186632
Ġlater	186161
Ġsure	186059
Ġgroups	185975
Ġhowever	185840
ĠOn	185808
Ġamong	185807
Ġage	185464
for	185388
Ġreported	185378
Ġthing	185294
ans	185232
Ġ17	184989
ization	184902
ide	184757
^{\	184681
ut	184319
}_{	183969
all	183954
bar	183726
sec	183472
Ġhead	183344
beta	182978
Ġenough	182730
Ġcourse	182702
Ġtold	182099
31	181949
se	181837
37	181748
Ġthough	181655
Ġposition	181339
`	181148
ter	181078
Ġcompared	180871
Ġprogram	180639
Ġplay	180620
Ġalong	179688
Ġprovided	179187
ĠRe	179049
sigma	179030
ous	178943
Ġmaking	178758
}^{	178602
ard	178305
Ġ24	178278
Ġinclude	178205
return	177873
Ġsp	177645
></	177600
But	177533
Ġworking	177419
ator	177399
od	177290
Ġvoid	177261
Ġupon	177122
ĠSh	177030
Ġch	176915
res	176860
Ġconditions	176801
95	176470
Ġweek	176348
Ġrisk	176343
Ġ([	176308
Ġold	176292
Ġrole	176205
---	176196
Ġpotential	175630
ne	175597
sum	175542
Ġresearch	175337
Ġlower	175180
99	175159
Ġsection	175069
]).	174713
Ġincrease	174307
Ġrange	174256
age	174223
Ġdevelopment	174163
Ġeffects	174154
als	174070
Ġseen	173874
ay	173824
Ġ25	173481
Ġchanges	173271
48	173148
Ġdoesn	172914
ah	172841
ness	172727
class	172654
pm	172117
Ġbusiness	171833
Ġ([@	171688
Ġtogether	171453
ĠĠĠĠĠĠĠĠ	171422
ib	171409
ĠâĢĺ	171201
Ġsource	171017
ĠAn	170807
td	170733
Ġprotein	170572
Ġmoney	170562
Ġproperty	170557
Ġkeep	170450
Ġtry	170342
Ġmain	170316
ES	170263
Ġincreased	169933
Ġbecome	169873
Ġschool	169724
Ã©	169540
ary	169258
Ġimage	169212
Ġfactors	169094
ens	168936
html	168643
Ġaddition	168616
39	168485
www	168464
Ġservice	168417
Ġcannot	168356
Ġobserved	168280
75	168248
Ġparticular	167803
Ġcountry	167606
Ġlove	167378
"}).	167168
ons	167101
ĠUniversity	166767
Ġadd	166409
Ġaccording	166166
Ġmonths	166107
ish	165945
Ġuser	165843
Ġshort	165622
Ġdisease	165620
Ġthird	165594
Ġid	165318
de	165211
Ġearly	164949
Ġdoing	164919
Ġcreate	164441
Ġhard	164041
ĠAt	164012
Ġview	164001
08	163825
Is	163806
90	163701
ry	163479
02	163429
ob	162995
Ġobject	162975
Ġstructure	162872
44	162654
Ġdefendant	162637
ance	162434
No	162389
Ġcontent	162309
04	162277
ĠSee	162244
ics	162227
key	162150
Ġdescribed	162117
ED	161992
mathrm	161857
[@	161740
Ġperiod	161734
Ġprivate	161589
Ġmultiple	161480
")	161461
sqrt	161345
ĠCh	161161
Ġthought	161134
Ġactually	160956
Ġpositive	160881
String	160388
Ġpoints	160376
Ġversion	160368
Ġcompany	160350
Ġpast	159884
value	159792
70	159627
Data	159184
ang	159005
Ġacross	158962
Ġothers	158048
Ġreport	158041
Ġmen	158040
There	157693
Ġamount	157569
55	157231
Ġsurface	157058
Ġrather	156958
Ġonce	156739
}^	156737
^{-	156695
gamma	156681
ll	156574
ative	156440
Ġdis	156257
Ġstring	156198
Ġterm	156135
");	155873
Ġbase	155784
code	155707
Ġlikely	155509
AL	155385
Ġ>	155284
Ġfive	155166
Ġshows	154791
Ġmillion	154654
Ġperformed	154566
Ġshowed	154453
per	154418
Ġbelow	154369
ĠAmerican	154228
Ġsocial	154167
delta	154001
Ġmatter	153877
Ġfeel	153813
65	153801
Ġfactor	153692
ĠUS	153641
Ġbit	153385
Ġcame	153332
red	153325
Ġbig	153224
Ġsystems	153122
Ġseason	153078
Id	152994
Ġstandard	152865
\_	152781
old	152720
Ġclear	152516
ĠGod	152469
Ġco	152451
ite	152352
bib	152264
AT	152256
Ġfalse	152199
Ġcause	152093
09	151937
Ġobtained	151768
.)	151763
Ġsite	151545
Ġtook	151432
Ġmakes	151407
Ġfood	151330
Ġ(*	151111
Ġtext	151036
ase	151024
)(	150796
ST	150729
Ġvarious	149932
Ġapplication	149930
Ġever	149869
Ġcancer	149619
Ġsh	149453
Ġexperience	149413
cl	149381
Ġinterest	149321
ions	149101
'd	148759
ph	148721
001	148698
Ġwhole	148525
Ġtaken	148499
Ġaccess	148457
Ġproject	148235
Ġconsidered	148115
Ġadded	148052
Ġfuture	148048
IN	148007
Ġq	147964
Ġrelated	147887
ĠĠĠĠĠĠĠĠĠ	147874
ĠOne	147371
Ġyet	146987
Ġcar	146816
)/	146682
av	146333
og	146212
Ġdefined	146136
ex	145831
rho	145624
})	145610
Figure	145604
]{}	145513
tr	145228
ce	145205
69	145118
Â°	144945
ure	144888
Ġbelieve	144863
iv	144758
88	144213
add	144034
Ġapproach	144010
03	143914
ĠThen	143596
partial	143409
Ġsolution	143376
ov	143273
les	143202
Ġcommunity	143154
ĠAfter	143139
Ġblood	142935
ĠAl	142925
Ġreason	142840
Ġ$(	142806
Ġstates	142542
%)	142382
Ġwent	142375
Ġminutes	142370
Ġkind	142245
ill	142205
pl	141756
Ġdecision	141454
So	141305
Ġindividual	141305
Ġmaterial	141046
phi	140687
sp	140663
07	140641
ĠĊ	140285
Ġpercent	140121
line	140055
Ġdevice	139870
Ġmajor	139707
Ġtrying	139631
Ġincluded	139551
ou	139436
time	139432
be	139273
Ġair	139185
Ġinter	138942
On	138820
Ġregion	138742
min	138458
Ġmembers	138306
are	138167
Ġtoday	138002
Ġcheck	137993
theta	137988
Ġrespectively	137953
ub	137952
Ġface	137869
sh	137822
}{\	137791
View	137779
42	137536
ÂĤ	137520
Ġclose	137441
Ġclaim	137366
Ġchild	137290
],[@	137188
ize	137185
Ġreceived	137137
96	137058
CT	137014
Ġ},	136991
log	136930
Ġwon	136919
AS	136835
ING	136818
Ġnormal	136745
Ġadditional	136725
94	136677
77	136665
Ġevent	136468
omega	136408
Ġcity	136337
ically	136244
Ġsignificantly	136171
ri	136166
Ġanything	136165
ps	136095
ore	136032
Ġpatient	136017
67	135993
Ġmass	135924
Ġsimple	135745
Ġnight	135396
yl	135329
06	135264
68	135162
47	134957
Ġcertain	134902
not	134874
Ġnull	134856
Ġgrowth	134838
IT	134633
Ġcl	134567
49	134528
List	134319
Ġneeds	134277
Ġanti	134267
Ġasked	134181
-\	134175
ling	133887
ĠIs	133810
Ġdeath	133651
Ġreview	133619
ists	133558
Ãĥ	133550
co	133545
size	133521
âĢ¦	133428
Ġgetting	133407
Ġhalf	133240
')	133169
ier	133085
Ġhistory	133010
ms	132986
Ġ\\	132890
66	132843
hat	132704
test	132672
Ġproduct	132538
tau	132486
eq	132449
by	132021
leq	131956
Ġlooking	131896
Table	131853
Ġcost	131721
ile	131594
Ġroom	131561
Ġdifference	131356
85	131343
$-	131326
AR	131237
Ġpay	131219
Ġhref	131156
43	131071
Ġmethods	131068
include	131022
Ġseries	130972
Ġparty	130875
*,	130872
its	130851
based	130750
Ġperformance	130733
}}\	130608
Ġtarget	130556
Ġpaper	130551
te	130545
ĠMr	130516
/*	130389
Ġproblems	130372
Ġvia	130333
ley	130330
46	130300
Ġrecord	130183
Ġunderstand	130173
AC	130065
times	129830
Ġthus	129770
ĠĠĠĠĠĠĠĠĠĠ	129519
Ġissues	129494
Ġinvolved	129491
Ġ...	129475
Ġ21	129371
infty	129302
Ġnetwork	129291
Ġalmost	129212
ars	129110
Ġprevious	129017
IC	128863
Ġnothing	128811
Ġhours	128752
ments	128734
98	128728
Ġservices	128645
year	128611
Ġtherefore	128587
^\	128362
Ġneeded	128349
Ġexpected	128340
ner	128109
57	127800
var	127763
ty	127567
ass	127530
Ġheld	127480
new	127238
Ġconsider	127210
Ġpopulation	126893
Ġinstead	126846
Ġweight	126750
Ġrest	126713
How	126617
Ġcomplex	126546
ĠCo	126520
ĠÂ§	126367
Ġcondition	126298
https	126252
Ġsuper	126087
97	126053
led	125938
Ġdesign	125925
When	125699
self	125632
Ġrecent	125608
AD	125522
Ġmarket	125433
ĠMy	125286
Ġtell	125238
ik	125217
EN	125181
Ġlines	125175
Ġseems	125127
Ġspecial	124793
Ġgene	124764
Ġloss	124508
__	124491
Ġjob	124477
ĠBy	124401
ants	124245
Â±	124191
Ġidea	124179
Ġstep	123859
au	123814
ets	123775
Ġpolice	123756
OR	123660
Ġstory	123610
Ġmotion	123578
Ġbook	123573
AP	123518
let	123467
nu	123285
Ġcomes	123203
Ġstudents	123155
Ġtable	123109
ise	123036
Ġ(-	122947
qu	122877
ke	122867
Ġfilm	122843
Ġproduction	122719
Ġ40	122689
Ġhouse	122659
Ġmove	122585
Ġlead	122580
Ġquality	122533
])	122473
Ġsomeone	122066
Ġblack	122023
Ġmind	122010
Ġvar	121990
Ġ/*	121980
Ġprior	121920
Ġmodels	121842
Value	121824
Ġplan	121570
Ġtaking	121467
Ġstarted	121452
ud	121449
Ġpage	121334
ĠYork	121034
app	121019
Ġmedia	120952
Ġprovides	120851
Ġdistribution	120689
Ġstrong	120635
Ġpolicy	120630
Ġitself	120534
art	120500
Ġ22	120492
AN	120455
IS	120407
ĠThus	120367
Ġnecessary	120306
see	120153
file	120067
ach	120028
Ġsignal	120024
list	119918
con	119913
41	119820
That	119517
Ġ28	119388
ĠĠĠĠĠĠĠĠĠĠĠ	119367
Ġaverage	119248
Ġheart	119242
Ġpath	119081
All	119028
Ġlive	118977
56	118971
Ġen	118846
ities	118838
Ġturn	118795
](	118748
Ġallow	118570
Ġcolor	118475
Ġshall	118395
Ġrights	118313
CC	118264
less	118098
Ġprobably	118091
over	118023
Ġ||	117984
Re	117945
ĠTrump	117883
ĠNational	117869
Get	117848
define	117838
mm	117754
]\]	117724
Ġoriginal	117719
ow	117613
ys	117580
Ġbl	117397
Ġclinical	117225
Ġaccount	116949
Delta	116895
ĠTHE	116876
Ġworks	116730
Ġrespect	116596
St	116593
Ġred	116509
param	116468
Ġfunctions	116285
ts	116228
Ġsimply	116195
Ġproducts	116180
Ãĳ	116159
cal	116005
ĠOF	115893
Ġphase	115788
Ġyoung	115550
Ġespecially	115550
Ġtemperature	115437
Ġwords	115322
)}	115211
IP	115167
Ġsequence	115155
px	115094
));	115065
Ġsample	114900
ĠMay	114811
Ġproperties	114750
Ġinput	114697
Ġpro	114695
53	114501
(-	114433
eta	114249
no	114200
ĠWith	114028
\\	114008
Ġlength	114005
ĊĠĠĠĠĠĠ	113996
Ġ!=	113962
Ġsix	113856
ice	113840
SE	113680
Ġaddress	113660
ue	113584
ane	113566
Ġcomplete	113527
ĠCity	113373
Ġex	113307
Ġdetermined	113269
Ġpresence	113267
Ġelement	113239
=\	113226
Ġla	113158
Ġmedical	113134
Ġdef	112986
With	112867
aw	112843
Ġbad	112827
Ġse	112783
54	112761
Ġfollow	112731
78	112686
Ġstatic	112667
ash	112631
Ġevents	112608
ĠAct	112508
Ġgenes	112404
Ġ23	112279
sub	112209
Ġtax	112200
ĠInc	112007
+\	111973
Ġpolitical	111954
our	111902
Ġoutside	111871
čĊĠĠĠ	111832
Ġpressure	111780
$\	111739
Ġle	111704
Ġsense	111655
Ġarray	111624
ium	111600
Ġfront	111505
ind	111502
{{\	111370
Ġdate	111324
Ġfl	111226
Ġeffective	111147
LE	111090
Ġtypes	111081
Ch	111055
Ġsubject	111050
Ġoutput	111000
ĊĠĠĠĠĠĠĠĠĠĠĠĠĠĠĠĠĠĠĠĠĠĠĠ	110998
Ġprimary	110953
ĠString	110783
Ġlanguage	110766
My	110735
}$,	110543
Ġeverything	110361
Ġ&&	110339
Ġbreak	110263
her	110192
Ġpersonal	109694
Ġphysical	109662
Ġfeatures	109634
ĠÂ±	109625
87	109599
Ġlonger	109598
ful	109404
Ġnear	109273
Ġinside	109197
sc	109138
Ġdetermine	109108
Ġpresented	108872
Ġeasy	108810
";	108753
ox	108743
($	108672
Ġjudgment	108551
Ġquite	108506
Ġidentified	108455
Ġcreated	108442
Ġcross	108418
86	108351
Ġ$$	108312
Ġstop	108271
Ġinitial	108204
ĠLe	108204
public	108193
Ġrunning	108131
CH	108114
bf	108067
Ġsamples	108033
ain	107864
Ġbasis	107819
ax	107701
Âĥ	107572
Ġwhite	107460
ong	107437
Ġformer	107412
Ġparameters	107381
Ġwanted	107253
xi	107137
ma	107117
Object	107037
array	107003
Ġstatus	106989
Ġfollows	106971
Ġground	106958
ck	106919
Ġstatement	106810
ĠĠĠĠĠĠĠĠĠĠĠĠ	106644
Ġmember	106610
pe	106260
Ġareas	106228
52	106101
ick	106080
}(\	106042
Ġisn	105699
Ġsc	105661
ron	105561
Ġindex	105494
Ġelements	105447
str	105298
ĠLicense	105275
ks	105249
Ġwrong	105215
Ġweeks	105175
Ġdirectly	105064
âĢĲ	104783
AM	104715
58	104713
ĠCD	104635
izing	104627
Ġquestions	104490
Ġago	104481
Ġrelationship	104227
Ġwar	103951
field	103912
Ġmemory	103907
nd	103852
const	103802
Ġrequest	103759
Ġforce	103672
Ġsearch	103613
Ġnatural	103562
ver	103508
Ġgames	103503
az	103442
we	103374
Ġtheory	103365
Ġcut	103283
File	103175
Ġtraining	102974
Ġcontext	102896
br	102861
Ġdeal	102807
ĠJohn	102759
Ġacid	102628
59	102426
Ġ(\[	102349
Ġmicro	102345
Ġknowledge	102305
rangle	102157
At	102094
Ġnews	102048
Ġcontinue	101977
way	101918
ĠDr	101746
ĠDNA	101732
Ġdirect	101700
Ġflow	101633
tilde	101561
Ġbuilding	101536
Ġbehind	101496
}$.	101384
pp	101276
ting	101226
Ġgreater	101024
ology	100978
Ġapp	100928
void	100893
89	100860
Ġapplied	100852
Ġres	100818
Ġdifficult	100798
\])	100688
width	100662
51	100645
Ġlimited	100591
from	100561
Ġvideo	100516
OS	100502
back	100469
..	100460
Ġmice	100425
ĠDe	100404
ok	100361
Ġmonth	100335
ters	100330
Ġrequire	100296
Ġmet	100230
Ġrelease	100209
Ġdistrict	100177
Ġpreviously	100166
App	100115
Ġ26	100115
ĠSuppose	100089
Ġmap	99984
Ġtitle	99933
Ġincludes	99899
Ġreduced	99878
Ġsaw	99875
ton	99803
cdot	99787
ĠTherefore	99701
".	99637
ĠIN	99603
![	99505
Ġability	99430
Ġnational	99406
ON	99355
ĠOur	99340
max	99338
ade	99245
ators	99165
path	99152
Ġbuild	99145
ats	99090
Ġdrug	98978
Ġmessage	98905
76	98901
ÃĤ	98880
Ġstyle	98839
Ġ60	98820
Ġclaims	98739
Ġdeveloped	98688
Ġarticle	98546
iz	98500
:**	98457
land	98357
Key	98332
Ġlayer	98247
Ġcontact	97985
().	97956
Ġbar	97929
Ġpain	97738
Ġimpact	97719
Ġinvention	97477
0000	97377
ose	97264
Ġsoftware	97260
Ġsl	97247
Ġgas	97041
Ġoil	97036
Ġindependent	97005
Ġwrite	97004
Ġhttp	96962
with	96960
Ġcon	96857
Ġqu	96761
ised	96709
ost	96696
Ġblock	96650
ĠPro	96647
Ġnumbers	96626
Ġplayers	96602
Ġwritten	96579
Ġdouble	96370
Ġword	96353
Ġreference	96352
Ġ2012	96329
ĠHis	96276
Ġfollowed	96263
Ġcoming	96190
ess	96170
Ġparticularly	96082
ĠPresident	96074
Ġhold	95993
ĠCounty	95991
use	95813
ĠSouth	95796
ĠSince	95752
ai	95750
Ġ27	95481
Ġleave	95469
ĠCon	95433
Ġactive	95399
Ġobtain	95363
Ġsecurity	95340
ĠWhile	95276
ff	95209
so	95183
Ġart	95159
Ġforward	94958
Ġnegative	94955
ĠEx	94889
Ġunit	94854
By	94852
Ġdefault	94840
js	94768
Ġtrans	94713
Ġ?	94684
my	94681
ability	94624
ĠNot	94590
Ġcorresponding	94496
item	94455
Ġ[*	94429
Ġshare	94397
ality	94380
son	94375
Ġentire	94375
val	94362
Ġland	94350
ire	94223
me	94220
ale	94183
Ġlate	94143
Ġnature	94091
net	94059
čĊ	94013
Set	93991
Ġspecies	93981
Ġusually	93973
Ġrule	93688
Ġrates	93645
Ġdifferences	93628
Ġcharacter	93626
Ġpass	93588
Ġliving	93446
$$	93426
Ġoffice	93417
fe	93379
Ġalthough	93284
state	93283
ĠHere	93259
Ġanswer	93223
Ġ2013	93207
Ġwhose	93188
ix	93178
Ġth	93174
ence	93105
Ġnote	93105
Ġact	93073
63	93054
Ġdi	93049
Ġglobal	93026
off	93000
Ġpractice	92977
ĠWorld	92959
ome	92947
Ġtried	92932
An	92830
Ġargument	92797
Ġbrain	92796
Ġetc	92752
MS	92662
Ġonline	92619
Ġenvironment	92617
ĠTh	92613
ĠĠĠĠĠĠĠĠĠĠĠĠĠ	92582
Ġ2016	92441
}}$	92411
view	92397
form	92293
Ġgenerally	92216
Ġlost	92183
Ġrecently	92070
ible	91998
psi	91971
ep	91795
ger	91744
Ġ2014	91714
ath	91703
Ġthemselves	91675
Ġplaintiff	91564
Ġhope	91563
user	91560
Suppose	91485
Ġanyone	91444
Ġpl	91437
IM	91412
84	91372
Ġmin	91343
Ġtakes	91337
like	91309
Ġproposed	91269
Ġcountries	91242
Ġagreement	91121
..."	91053
CA	90888
ĠâĪĴ	90682
Ġsaying	90678
ec	90664
Ġmoment	90622
Ġdensity	90523
function	90417
Ġ/>	90413
92	90288
ĠBe	90281
Ġtreated	90195
CD	89987
ĠII	89963
ĠMarch	89891
ĠFirst	89874
)=	89789
Ġhimself	89702
ĠHouse	89554
Ġlegal	89522
ĠHow	89492
ĠNorth	89482
Ġsituation	89399
ĠSe	89385
pro	89307
Ġpurpose	89183
Ġfederal	89171
bl	89161
ee	89160
cc	89045
Ġmon	88909
Ġcenter	88896
ification	88837
72	88831
"><	88813
Ġ29	88798
Ġbecame	88699
ĠChina	88646
LL	88645
Ġ2015	88593
.'	88590
ber	88564
Ġrelative	88554
ĠAmerica	88548
epsilon	88538
Ġpretty	88519
74	88505
row	88480
ational	88444
ina	88420
ord	88414
PS	88339
Ġways	88313
Ġdirection	88304
One	88209
Ġfailed	87960
af	87911
Ġpublished	87796
IR	87795
Ġtalk	87750
Cl	87708
EL	87659
Ġoffer	87595
ĠDepartment	87586
ĠUn	87396
Ġ);	87351
Ġsent	87347
003	87308
93	87262
varepsilon	87226
Ġhighly	87169
ĊĠĠĠĠĠĠĠĠ	87160
\].	87159
ole	87156
Omega	87155
AG	87088
Ġwoman	87016
box	86987
Ġprice	86945
61	86934
Ġfindings	86934
Ġcontract	86926
RE	86878
Gamma	86857
ug	86832
Ġallowed	86822
Text	86781
ines	86770
Ġderivative	86739
Ġselected	86631
ĠSome	86619
Ġcharge	86613
Ġlimit	86557
ĠĊĠĠĠĠĠĠĠĠĠĠĠĠĠĠĠ	86510
Ġnode	86465
Ġdegree	86447
base	86393
Ġoperation	86355
Ġcomponent	86256
ĠSystem	86106
91	86084
Ċĉĉĉĉ	86073
Ġpar	86072
ĠOR	86057
att	86044
Ġstage	86040
Ġlarger	85998
Ġdesigned	85987
Ġmeasured	85985
Ġgave	85913
that	85908
Ġbring	85872
Ġjury	85789
###	85765
els	85758
Ġconstant	85744
ĠOr	85726
Ġinstance	85687
Ġdetails	85613
)$.	85514
Ġindividuals	85423
Ġhost	85402
ich	85401
ru	85396
oid	85393
62	85387
}=	85344
ĠGeneral	85329
Ġimages	85150
83	85148
ĊĊĊ	85146
Ġeveryone	85128
Item	85104
Ġcurrently	85051
Ġcaused	85027
Ġfocus	85007
Ġfire	84938
Ġalone	84897
Ġcorrect	84849
Ġfriends	84728
Ġbackground	84718
Ġlocation	84693
ren	84654
Ġproteins	84630
Ġbehavior	84595
ij	84563
act	84531
Ġ;	84517
Ġwasn	84504
index	84496
Ġ2011	84496
ĠJune	84451
cm	84442
ĠNow	84417
Ġgives	84392
ĠApp	84381
uc	84377
Ġcomponents	84222
uk	84189
Ġ[**	84183
ĠAlthough	84172
IL	84158
Ġeyes	84118
Ġask	84102
document	84092
ĠFig	84092
ĊĠĠĠĠĠĠĠĠĠĠĠĠĠ	84083
ort	84054
term	84006
Ġ2010	83997
Ġfiles	83977
Ġmatrix	83881
Error	83875
ust	83852
Ġcount	83848
Ġexpect	83812
She	83803
ĠSch	83792
big	83747
Ġchoice	83734
Test	83731
Ġscale	83694
Ġrequires	83692
Ġ:=	83546
Ġattention	83421
ĠCl	83411
Ġfixed	83386
ĠĠĠĠĠĠĠĠĠĠĠĠĠĠ	83301
read	83242
Ġcompanies	83167
ĠAd	83020
Ġbegan	83018
Ġknew	83010
NA	82856
73	82799
Ġleading	82729
Ġwin	82671
Ġoptions	82657
Ġled	82647
Ġ2017	82609
Ġlink	82602
Ġdisplay	82589
Ġmother	82553
ĠMar	82542
Ġseem	82515
Ġ///	82460
Ġfailure	82416
(),	82359
SS	82244
def	82228
Ġad	82177
ric	82173
Ġfinancial	82127
Ġmanagement	82122
Ġfrequency	82099
Ġusers	82060
Ġ->	81981
ual	81958
79	81939
Ġunique	81810
Ġeducation	81782
ĠAr	81575
Ġratio	81525
Ġtechnology	81515
Path	81506
}_{\	81487
čĊĠ	81408
Ġcontains	81381
ler	81164
Ġson	81156
Ġdivided	81090
Ġcompletely	81008
Ġprime	80982
Ġincreasing	80968
Ġgoal	80902
ert	80854
Ġpattern	80854
81	80836
Ġcosts	80784
Ġconnection	80778
Ġ!	80446
Ġparts	80443
Ġlack	80426
Ġoption	80403
Now	80381
Ġapply	80345
Ġorg	80311
Ġindustry	80290
Ġparties	80283
lib	80281
Ġcentral	80259
Ġsuggest	80251
ĠJanuary	80217
Ġserver	80192
dev	80153
err	80109
ĠApril	80080
');	80069
iss	80044
map	80024
|\	79950
Ġappropriate	79933
Of	79925
Ġchar	79912
Ġearlier	79886
82	79883
Al	79805
Ġheat	79801
Ġstress	79747
ĠWest	79694
sim	79684
());	79672
Ġfine	79650
Ġexpressed	79577
¡	79568
ĠJuly	79491
Ġoverall	79478
Ġ\<	79472
SD	79421
rightarrow	79398
Ġdistance	79393
Ġspeed	79376
mer	79323
^*	79321
Ġcommand	79319
Ġsupported	79274
Ġgenerated	79231
ink	79226
varphi	79210
Ġestablished	79104
Ġstated	79095
Ġ31	79090
Ġallows	79041
Ġdevices	78962
State	78933
Ġequal	78887
Ġ($	78816
Ġuseful	78767
Ġeasily	78732
Ġboard	78717
ĠCir	78639
Ġstay	78633
From	78607
They	78602
ied	78571
Ġ<<	78567
Ġsites	78416
fn	78410
čĊĠĠĠĠĠĠĠ	78391
Ġcontaining	78360
AB	78325
Ġweb	78323
Ġreasons	78315
ns	78280
Class	78259
struct	78257
200	78255
"/>	78213
Ġfinding	78094
Ġsign	78077
ock	78060
ct	78041
ym	78027
Ġlearn	78017
ots	78010
OT	77958
Ġsoon	77915
71	77850
Ġhighest	77773
Ġmeasure	77768
chi	77752
};	77746
Ġcritical	77741
='	77722
Ġlocated	77721
yn	77685
['	77665
Ġcopy	77597
Ġ32	77587
Ġparameter	77523
Ġproduced	77507
Ġ__	77465
ely	77458
Ġactivities	77429
Ġeconomic	77383
Ġtumor	77359
Ġexcept	77302
Ġstaff	77231
ĠĠĠĠĠĠĠĠĠĠĠĠĠĠĠ	77211
Ġfiled	77202
col	77180
Ġnotice	77138
._	77122
Ġreduce	77077
Ġrelevant	77064
ene	77055
ures	77050
Ġones	76964
OP	76952
Ġclearly	76913
Ġsuccess	76878
Ġactual	76845
ĠHealth	76836
){#	76777
Ġauthors	76751
II	76726
Ġfelt	76693
Ġmode	76686
Ġstore	76590
}^{\	76574
ii	76569
Ġopinion	76539
Ġvariable	76536
Ġappeal	76532
title	76495
Ġhit	76303
ĠAND	76279
Ġbox	76163
)$,	76160
Ġpoly	76058
ĠCal	76048
Ġwriting	76027
Ġcom	76023
Context	75996
*-	75960
True	75952
ning	75928
top	75918
Ġvs	75910
ĠĠĠĠĠĠĠĠĠĠĠĠĠĠĠĠĠĠĠĠĠĠĠĠĠĠĠĠĠĠĠĠĠĠĠĠĠĠĠĠĠĠĠĠĠĠĠĠĠĠĠĠĠĠĠĠĠĠĠĠĠĠĠĠ	75909
ana	75861
TR	75846
Ġwebsite	75800
Ġpresident	75760
Size	75695
\'	75689
Ġinjury	75667
Ġchanged	75651
Ġbrought	75624
ds	75554
Sh	75545
overline	75489
Ġshowing	75464
âĢĥ	75360
Ġsmaller	75351
002	75350
eg	75347
Ġreceive	75327
Pro	75302
Ġrandom	75291
Ġgoes	75251
Ġdoor	75220
ĠId	75220
Ġuses	75212
Ġexperiments	75170
ĠIS	75147
*.	75108
Ġ2008	75089
ta	75070
Ġlearning	75053
Ġcampaign	74998
Ġwidth	74974
Ġcontrast	74967
Ġappears	74954
Ġrules	74923
US	74910
)*	74887
operatorname	74861
oy	74847
Ġitems	74819
langle	74778
Ġfast	74766
Exception	74763
ious	74742
Ġ35	74724
Ġvector	74705
link	74701
Ġlooks	74661
Ġbeyond	74650
day	74632
Ġheard	74631
Ġremains	74595
Ġcomputer	74584
static	74583
Ġculture	74583
':	74468
Ġbuilt	74424
Ex	74390
ĠDo	74384
ĠFrom	74325
Ġunderstanding	74257
PA	74229
ĠSp	74222
Ġmatch	74208
Ġhearing	74208
Ġmeet	74128
Ã¡	74126
Ġfun	74056
Ħ	74003
ret	73906
Ġlooked	73899
Ġturned	73814
PL	73813
ake	73736
Ġworked	73729
Ġheight	73729
amp	73670
Ġtowards	73659
ĠĠĠĠĠĠĠĠĠĠĠĠĠĠĠĠ	73658
Ġmajority	73455
Ġexist	73320
Ġplease	73245
Ġbinding	73229
Ġregarding	73202
Ġvariables	73195
Ġlog	73180
Ġinternal	73176
nt	73165
Ġproduce	73162
Info	73156
Ġfall	73148
ged	73143
Ġdecided	73134
Ġskin	73057
After	73052
Ġappear	73042
)).	73034
Ġexists	72999
ET	72980
*~	72908
Ġtherapy	72871
Ġbenefits	72821
Ġdrive	72774
port	72771
Ġfully	72771
Ġinf	72718
ino	72687
ĠDistrict	72674
Ġconcentration	72635
UN	72622
CL	72620
":"	72597
Ġimprove	72595
Ġtissue	72586
ĠPhys	72555
ified	72542
ĠAugust	72532
Ġparents	72494
Ġdes	72474
)-	72463
Ġreports	72451
Ġtask	72425
Ġmilitary	72419
Ġresulting	72363
ering	72353
Ġ2009	72348
ĠPl	72320
Ġ^	72276
ith	72273
Ġfriend	72266
)^	72203
IF	72094
Ġprevent	72069
Ġexactly	72064
OL	72011
Ġcouple	72005
Ġindicated	71897
java	71894
arg	71849
Ġinfection	71792
Ġfather	71772
ĠOctober	71763
ung	71755
ng	71728
Ġlinear	71722
Ġsetting	71707
Ġmedium	71698
free	71692
Ġwrote	71676
SP	71630
Ġandroid	71572
Ġinteresting	71566
Ġtr	71552
Ġmorning	71552
ĊĊĠĠĠĠĠĠĠĠĠĠĠ	71487
Ġhands	71474
fl	71453
Not	71349
ides	71268
ack	71239
Ġmaterials	71225
Ġstand	71193
Ġreading	71179
Ġvehicle	71139
New	71107
Ġplayed	71096
Ġfeature	71080
ĠSeptember	71067
Ġgl	71060
Ġscore	70946
Ġerr	70944
ann	70937
nbsp	70868
Ġavoid	70812
ĠDecember	70788
}}_	70757
Ġret	70742
reg	70708
Ġmeeting	70704
Ġgets	70693
ĠRed	70688
vec	70684
Ġcolumn	70644
ays	70640
Ġsex	70638
Int	70544
Ġseparate	70541
Ġreasonable	70533
Ġdefine	70506
ss	70460
Ġproof	70385
\,	70333
Ġreaction	70309
Ġ2018	70294
Ġplayer	70259
Ġconstruction	70255
Ġdeep	70250
Ġstar	70239
Ġextra	70228
Ġfields	70223
Ġapplications	70107
Ġstarting	70103
Ġzero	70058
ĠPat	69992
oh	69922
Sec	69897
Ġmaximum	69877
Ġthroughout	69873
pr	69837
Ġparticipants	69810
ress	69735
Ġvolume	69715
Ġel	69712
Ġnoted	69711
Ġdamage	69689
Ġprocesses	69673
ĠData	69670
Ġem	69641
Ġregions	69627
Ġdomain	69616
Ġformation	69590
Ct	69580
ively	69574
Ġtransfer	69539
Ġconnected	69538
color	69534
rom	69468
Ġclosed	69460
case	69454
Ġsafety	69441
Ġpoor	69400
Ġlives	69391
Ġitem	69384
ml	69369
start	69341
but	69323
Ġnor	69319
Ġbecomes	69317
Ġformed	69310
ĠÃĲ	69293
ĠBecause	69290
ents	69269
SA	69255
Ġfit	69232
Ġsources	69209
Ġsound	69188
Ġadministration	69154
Ġab	69143
input	69133
ĵ	69119
true	69101
Ġdocument	69096
ģ	69089
bs	69041
Ġroad	68969
Ġsafe	68964
Ġrevealed	68925
ĠMore	68879
PR	68875
Ġinternational	68870
Ġinteraction	68859
ory	68819
Ġstd	68783
Ġhospital	68749
ĠSection	68676
ari	68664
]:	68649
Ġvisit	68585
Ġcollection	68509
Ġotherwise	68504
Ġbasic	68484
Ġtests	68467
cap	68454
Ġroot	68453
ĠNovember	68447
ives	68433
Ġimmediately	68237
info	68188
Ġregular	68175
Un	68169
Ġequation	68154
Ġcounsel	68105
ĠMoreover	68070
Ġwindow	68041
length	67988
ĠCenter	67968
.[	67947
which	67902
image	67876
ĠIL	67874
Ġtown	67857
Ġreduction	67823
Ġactions	67820
Ġ80	67818
Ġreleased	67809
gr	67808
Ġbi	67799
ĠUSA	67757
Ġ(\	67698
ĠWashington	67684
pos	67657
Ġopportunity	67616
Ġtoward	67590
.\	67517
Ġpaid	67512
Ġinfluence	67505
ĠID	67490
EM	67488
Ġmechanism	67481
Ġgiving	67478
^{(	67458
Ġtool	67434
tt	67423
ĠOf	67390
Ġremember	67348
node	67310
Ġattack	67264
Ġwide	67247
body	67243
Ġ90	67207
ha	67100
Ġconsistent	67087
ging	67086
Ġcombination	67085
Ġidentify	67054
na	67053
itt	67024
Ġfigure	67021
Ġtesting	67001
rs	66996
Ġcomment	66980
Ġdefense	66920
ek	66916
php	66851
ĠCom	66847
Ġrelatively	66815
group	66812
Ġsum	66760
mathfrak	66721
Ġra	66708
Ġ/**	66700
Ġensure	66698
Ġsometimes	66690
geq	66667
amb	66660
vert	66623
ĠAm	66603
ĠĠĠĠĠĠĠĠĠĠĠĠĠĠĠĠĠ	66594
Ġresources	66588
Ġresistance	66556
Ġforms	66555
False	66498
ĠST	66475
Ġcover	66466
Ġphone	66459
)**	66450
DE	66404
Ġsolid	66378
Ġquickly	66301
ological	66299
Ġfunctional	66293
Ġclient	66292
dd	66272
PC	66220
related	66199
Ġmiddle	66109
Ġthinking	66077
Ġwall	66046
';	66042
Ġ200	66029
ev	66012
error	65986
ĠPM	65982
Ġchance	65968
ĠPublic	65967
eth	65956
Node	65946
go	65938
Ġ(**	65909
Ġmyself	65885
Ġmis	65857
version	65852
Ġprocedure	65842
Ġhappen	65811
MA	65762
ray	65745
ians	65735
Ġplant	65735
Ġplaying	65711
istic	65696
Here	65689
[]	65651
ĠTable	65650
hen	65640
Ġnearly	65636
Ġchoose	65582
Ġremove	65568
ĠSchool	65556
Ġbegin	65539
Ġportion	65506
Ġproviding	65479
OM	65475
Ġmovement	65468
vers	65447
Ġmoved	65444
Ġdetected	65424
Ġten	65416
Ġhappened	65396
ids	65395
Ġagree	65393
ight	65377
Ġconducted	65372
Ġdatabase	65348
Ġbottom	65341
atic	65330
Ġmoving	65249
ail	65240
Ġexisting	65220
Ġcore	65210
Ġobjects	65190
[^	65099
ĠObama	65075
Ġready	65047
oo	65043
ites	65030
Ġchannel	65023
Ġreach	64972
Ġstr	64964
ĠList	64943
Map	64906
db	64893
Ġdaily	64877
Ġsteps	64866
ĊĊĠĠĠĠĠ	64856
500	64831
Ġcalculated	64808
Ġfacts	64780
quad	64766
((	64759
ĠEl	64743
script	64707
Ġbuy	64680
action	64678
Ġfinally	64676
Ġanimals	64604
Index	64591
ont	64514
\],	64513
ĠMan	64492
Ġindicate	64483
SC	64472
che	64467
mod	64432
Ġyourself	64422
ured	64401
Ġpe	64393
NS	64298
Ġdemonstrated	64294
ank	64282
ening	64270
Ġnearest	64258
Ġemail	64235
Ġload	64177
Ġworth	64173
atory	64164
Ġremain	64163
using	64107
ķ	63973
Ġserious	63923
Ġunits	63919
%,	63908
Ġrepresent	63892
ĠAlso	63884
Ġdefinition	63864
Ī	63845
Ð¸	63842
())	63842
do	63813
Ġsort	63805
Ġhot	63805
"},	63802
Ġcomments	63802
},\	63776
Ġque	63776
Ġprove	63761
ances	63733
ft	63727
Ġperfect	63694
Ġupper	63672
und	63662
da	63651
ĠNULL	63645
######	63634
ĠCalifornia	63518
Ġtrade	63503
Ġcapacity	63437
py	63418
Ġsw	63413
ata	63391
ĠSan	63384
čĊč	63374
own	63371
ages	63369
Ġcarried	63324
Ġsufficient	63316
Ġremoved	63315
Ġplaced	63254
Ġro	63227
Ġborder	63201
Ġseven	63182
Ġsend	63179
rem	63178
Ġprocessing	63158
ened	63157
Ġmid	63114
ĳ	63043
Ġsu	63009
Ġstuff	62967
Ġvariety	62955
Ġ37	62906
Ġblue	62902
Ġperform	62893
ode	62865
Ġsets	62825
Ġhear	62813
Ġprint	62782
Ġshape	62781
Ġwife	62747
ring	62705
Ġ45	62705
Ġins	62692
GL	62622
ster	62599
Ġscreen	62598
ĠFebruary	62594
Ġoperator	62593
Ġdistributed	62569
Ġbenefit	62565
Time	62501
Ġtransition	62481
Ġsm	62475
init	62455
IV	62448
Ġauthor	62437
Ġpackage	62412
Ġselection	62381
Ġmg	62363
Ġ2007	62349
Ġball	62322
Ġne	62301
Ġ]	62276
}}(	62233
ef	62203
Ġsuggested	62171
Ed	62145
Ġrow	62128
ĠEven	62127
ĠGet	62107
Ġmachine	62098
Ġcur	62067
Ġonto	62030
ices	61922
ĠFigure	61903
Ġtruth	61898
","	61867
Ġnamed	61861
Ġrace	61850
,-	61840
]\],	61833
ign	61828
Ġprograms	61791
ĠMe	61784
point	61733
Ġcomparison	61689
ĠBl	61679
Array	61661
Ġconduct	61649
Code	61642
Ġworkers	61637
ular	61629
Color	61610
count	61608
ined	61580
gen	61555
Ġeight	61535
Ġhealthy	61527
bit	61510
/(-	61508
Ġincreases	61470
TH	61455
Ġmagnetic	61410
ĠEuropean	61365
Ġframe	61321
arm	61301
CS	61295
Ġexposure	61288
erm	61258
Ĳ	61256
med	61215
Ġmeaning	61197
Ġpassed	61142
Ġmaybe	61142
Ġletters	61115
ĠWhite	61092
content	61085
ited	61068
Event	61060
Ġplaces	61060
Ġresponsible	61008
RO	61005
æ	60993
Ġmeasures	60990
Ġ\,	60983
ĠIndia	60980
Ġdiscussed	60970
ĠGen	60967
Ġdark	60963
Ġreplacement	60949
ĠCan	60936
Ġprob	60913
ĺ	60904
ae	60883
OD	60865
ably	60859
Ġsave	60854
config	60849
Ġmusic	60833
Ġapproximately	60808
Ġ95	60791
Ġpicked	60736
Ġhair	60713
Ġletter	60706
Ġcharacteristics	60694
##	60675
Ġincome	60673
Î±	60660
Ġmanner	60659
Ġgreen	60650
ĊĠĠĠĠĠĠĠĠĠĠĠĠĠĠĠĠĠĠĠĠĠĠĠĠĠĠĠ	60643
^[@	60595
Ġpr	60589
ĠBoard	60587
Ġtrust	60579
Ġsymptoms	60549
Ġ70	60531
dot	60520
core	60514
Ġinsurance	60511
Ġdevelop	60505
Ġupdate	60490
url	60469
hip	60428
source	60399
par	60390
Ġpick	60350
Ġdrugs	60285
ĠGu	60268
Ġspin	60263
Ġstructures	60256
Ġround	60245
Ġselect	60207
Ġcircuit	60200
rel	60191
Ġtalking	60159
ĠResearch	60157
Ġaffect	60154
ht	60143
ĠPaul	60105
Ġbeginning	60098
ĠUK	60076
ĠMon	60076
Ġessential	60052
Ġpair	60007
acy	59991
Ġcontinued	59979
Com	59964
ĠWar	59933
°	59882
uring	59882
BS	59865
Ġshot	59836
Ġmodern	59826
Ġpanel	59812
Ġpress	59772
bm	59753
Ġmale	59741
Ġ~	59739
sl	59732
Ġimport	59732
Ġtestimony	59692
Ġ36	59678
gl	59671
Ġdead	59668
Ġha	59664
inal	59638
Ġeffort	59586
Ġassume	59586
ĠBar	59559
Ġactivation	59552
ered	59551
ĠMc	59537
Ġreturned	59519
ara	59510
)/(-	59509
Ġhappy	59425
BC	59424
Ġimp	59424
mon	59395
Ġedge	59387
į	59355
OC	59349
ĠFurthermore	59343
*)	59332
Oh	59298
Ġdetection	59291
Ġcr	59279
ĠAM	59222
004	59209
Ġstock	59201
ime	59192
Ġforeign	59190
Ġ});	59145
Ġbillion	59136
Con	59129
Ġtree	59125
Ġbound	59116
Ġnice	59113
Ġinvestigation	59097
osis	59069
Ġblog	59053
Request	59037
ĠHigh	59005
create	58977
api	58968
Yes	58940
ica	58912
ases	58862
que	58845
ify	58833
Ġproper	58828
Ġkids	58793
Ġpopular	58771
Ġwild	58727
ĠDavid	58653
Ġ48	58619
Ġdescription	58601
\<	58482
ÂŃ	58432
Ġche	58413
Ġ((	58391
AA	58381
MP	58356
ĠEnglish	58327
Ġexercise	58307
hes	58289
Image	58284
pre	58252
Ġwalk	58228
ark	58197
inter	58126
cy	58125
Ġinterface	58100
air	58050
Ġspent	58048
ĠTO	58042
Ġspecifically	58029
object	58025
Ġdenied	58007
Ġchallenge	57992
Ġplans	57979
Ġsurgery	57945
Do	57915
Ġcounter	57898
Ġcontain	57898
bb	57895
Ġparent	57893
ves	57882
Ġfamilies	57872
ĠTr	57856
ĠCongress	57850
part	57844
Ġstrategy	57824
Ġliquid	57818
Ġsolutions	57769
board	57755
Ġalternative	57734
Ġserve	57729
Ġtested	57670
Ġ2000	57603
Ġwait	57602
Model	57581
Ġofficials	57572
Ġcareer	57531
ĠInternational	57509
Ġcouldn	57496
Ġsummary	57485
vel	57458
Ġwants	57442
Ġmentioned	57428
']	57422
âĢ¢	57393
Ġrel	57355
ldots	57342
UR	57338
Ġstrength	57326
Ġref	57323
Ġelection	57312
Ġ2006	57300
Ġwatch	57265
Ķ	57245
fully	57225
Add	57216
cent	57195
ending	57134
bin	57087
ĠEn	57072
open	57037
Ġprepared	57029
ĠHer	56990
Â¾	56986
·	56981
Ġnil	56981
User	56973
Ġ(!	56953
Ġoccur	56914
Ġofficial	56885
Ġleads	56868
Ġnames	56865
Ġdespite	56862
head	56823
aut	56799
Ġstudent	56784
Ġunless	56773
Ġagent	56740
ched	56736
Ġfemale	56718
ores	56703
Ġcycle	56680
Ġstudied	56647
TT	56643
ham	56607
Ġnone	56606
Ġmodule	56604
çļĦ	56592
Ġimproved	56573
ĠIsrael	56538
Ġnuclear	56511
der	56483
Ġtypically	56478
Ġcombined	56463
rit	56458
down	56440
aj	56422
Ġexplain	56418
Ġmetal	56416
Ġeye	56397
({\	56361
ace	56354
]^	56343
*(	56309
cell	56299
Ġjudge	56287
ĠYour	56271
ĠDon	56245
Ġexperimental	56243
Ġclean	56233
ĠĠĠĠĠĠĠĠĠĠĠĠĠĠĠĠĠĠ	56233
Phi	56224
Ġgrowing	56204
Ġcontrols	56167
Ġplus	56156
ining	56133
Ġentry	56111
Ġcommunication	56103
Ġ-->	56100
Ġsuccessful	56088
Ļ	56086
Ġminimum	56084
Th	56070
Ġvote	56064
Ġ("	56063
Ġsurvival	56036
Ġbank	56026
ull	55975
Calculate	55912
any	55901
Ġconfirmed	55872
Or	55868
005	55846
Ġattempt	55838
CP	55826
ľ	55821
side	55819
Ġgun	55807
Ġkilled	55791
Ġhour	55738
Ġcard	55579
Ġmolecular	55561
Well	55545
Ġguy	55545
**)	55541
Ġcircumstances	55519
Ġinduced	55498
Ġsociety	55497
ĊĊĉ	55489
Ġpiece	55488
Ġperhaps	55445
Ġhttps	55445
ĠRes	55425
EC	55411
Ġagreed	55387
oss	55371
Ġ33	55345
ush	55328
Ġraised	55324
Ġwave	55299
Ġoperations	55296
ĠSub	55286
Ġtrack	55282
Ġanalyzed	55250
github	55230
Ġprofessional	55218
bo	55212
ls	55192
Ġreached	55186
Ġlinks	55181
ĠTV	55176
Ġwhereas	55150
Ġcalls	55144
Field	55140
ute	55136
Ġaffected	55134
ave	55128
Ġbed	55120
Ġdied	55100
Ġassociation	55061
ery	55060
Ġtools	55053
ĠCode	55053
ŀ	55052
Ġfeet	55032
Ġvalid	55023
otimes	55006
Ġemployees	55002
Ġofficer	54988
Ġclasses	54987
Ġhandle	54980
"></	54921
++	54881
ĠMost	54862
ĠĠĠĠĠĠĠĠĠĠĠĠĠĠĠĠĠĠĠ	54850
Ġval	54819
Ġcauses	54800
fs	54768
FF	54767
Ġsentence	54757
Ġwouldn	54690
hed	54671
ĠNews	54612
Ġprobability	54609
iting	54595
Ġprotect	54591
Ġassert	54575
ĠAD	54551
prime	54527
Ġkept	54523
ĠNote	54503
ĠRNA	54446
.](	54440
Ġ34	54423
ear	54419
ient	54407
ĠCar	54406
Ġefforts	54383
Ġsrc	54380
Ġmental	54377
Ġjava	54372
Ġcollected	54362
Group	54349
Ġsleep	54335
uss	54333
DA	54310
circ	54300
Ġtraditional	54274
Ġoccurred	54247
Ġhuge	54237
Ġbr	54227
©	54210
boldsymbol	54178
Ġcredit	54152
ĠEurope	54125
0001	54088
Ġintroduced	54082
Ġrelation	54061
Count	54053
Service	54023
Ġdiscussion	54006
izer	54000
CE	53998
Ġsuggests	53990
block	53988
Why	53974
ĠPark	53963
arn	53913
level	53902
eng	53896
lin	53892
Ġestimated	53884
è	53867
pping	53857
Ġcertainly	53856
Ġmulti	53829
Ġexplained	53801
Ġstorage	53787
Ġtechniques	53779
exp	53777
ency	53774
Ġstation	53758
ĠLondon	53747
Ġinstall	53699
Ġcorrelation	53697
Ġdiagnosis	53682
Ġimmun	53646
Ġstatute	53613
âĪĴ	53610
Lambda	53601
Ġremaining	53570
Ġmovie	53551
Ġprotection	53529
Ġsexual	53495
Ġgone	53474
Ġbill	53471
ils	53456
Ġappellant	53451
page	53434
ui	53378
DS	53361
ĠSc	53326
ble	53324
Sigma	53304
Ġforces	53280
ĠNe	53268
Ġcriminal	53259
Ġalgorithm	53258
Big	53248
Ġchain	53239
ater	53170
ĠRev	53151
Ġnovel	53150
ĠGroup	53150
Ġbuffer	53128
Ġrequirements	53115
Ġarm	53099
Ġ2005	53080
Ġbiggest	53057
Ġband	53026
Ġvoice	53001
UT	52989
dir	52937
Ġfear	52924
Message	52912
Ġcapital	52890
While	52875
la	52873
ven	52859
Our	52859
*]{}	52835
Ġabsence	52779
Ġrecords	52774
/**	52757
Ġformat	52693
PT	52678
Ġgeneration	52650
£	52606
ĠPost	52553
model	52546
ced	52538
Ġpicture	52530
Ġolder	52515
Ġorganization	52495
Ġar	52468
Ġresponses	52459
CF	52449
Ġmissing	52447
Ġserved	52421
ĠLa	52400
Ġwhom	52398
Ġlaws	52369
´	52365
rop	52349
len	52349
ĠEach	52337
Ġadding	52327
ĠEast	52313
Ġoffers	52270
iation	52265
Ġoptical	52259
post	52239
Ł	52217
Ġ""	52216
Ġsoft	52190
Ġquantum	52182
Ġfloor	52174
¸	52170
)?	52156
Ġderived	52147
Ġcreating	52110
ĠTexas	52028
ography	52020
Ġscience	52019
Ġsubjects	52018
čĊĉ	52016
ĠĠĠĠĠĠĠĠĠĠĠĠĠĠĠĠĠĠĠĠ	51999
Ġpurposes	51998
Ġ42	51996
ĠJust	51973
Ġ()	51946
ĠCommission	51938
src	51921
Be	51904
Î²	51892
Ġeconomy	51868
$(	51850
Ġant	51838
Ġexternal	51825
well	51818
Ġim	51799
Ġanimal	51790
ĠBlack	51781
Ġsk	51748
Ġideas	51731
Ġintended	51702
}-	51689
Ġschools	51685
ĠTrans	51648
Date	51629
à¸	51624
num	51608
print	51604
where	51597
RA	51539
Ġprogress	51532
Ġdrop	51521
Ġproperly	51517
Ġrepresents	51462
induced	51433
Ġresolution	51420
HE	51393
Ġextent	51382
First	51359
default	51346
ĠBritish	51298
Ġexperiment	51291
Ġdecreased	51290
ains	51272
Ġdirector	51270
Ġradio	51234
mbox	51214
Ġsummer	51212
ĠCH	51170
ĠCO	51157
{{	51124
specific	51100
Ġmotor	51098
result	51097
Ġ38	51084
Ġauthority	51041
ĠSupreme	51026
men	51006
nonumber	50985
Ġmechanisms	50985
ĠInter	50983
Ġport	50959
ĠInt	50959
Ġprotected	50948
Ġund	50937
rest	50934
Ġvirus	50903
Ġachieve	50900
Ġlargest	50886
Ġattorney	50848
Ġfeeling	50842
Ġnet	50829
CO	50799
bi	50795
IA	50794
ards	50772
Ġinterests	50734
(&	50682
Ġteams	50670
Ġenter	50658
ensuremath	50639
Ġtechnique	50631
Ġmembrane	50626
ford	50614
Ġstruct	50610
Ġofficers	50601
Ġhyper	50573
ano	50561
Ġcrime	50521
However	50505
ĠGoogle	50505
_.	50502
Ġcontained	50502
ld	50481
Ġrec	50464
Ġslightly	50439
orn	50408
check	50390
»	50327
Ġloop	50321
Ģ	50317
char	50310
Ġmax	50274
ç	50269
ros	50256
rd	50178
Ġsales	50171
gg	50131
[\	50123
Ġfight	50122
Ġdriver	50084
Ġshared	50081
ãĥ	50069
run	50042
Ġconcept	50036
Ġguys	50030
Ġbool	50018
Ġdie	50002
Ġcharged	50000
PP	49974
ries	49950
Ġopening	49948
ĠChrist	49948
func	49941
Ġcharacters	49927
ues	49924
}}}	49893
Ġdoubt	49889
ote	49882
Ġlatest	49880
position	49877
Ġerrors	49873
Ġfoot	49872
Ġprojects	49832
Ġrise	49812
ĠChinese	49806
Ġoffered	49747
lim	49727
ĠNOT	49719
ł	49717
Ġconventional	49704
....	49697
.[@	49692
Ġsevere	49689
Ġrev	49689
Ġholding	49687
Ġspread	49656
Ġfresh	49655
Ġcoverage	49646
**]{},	49644
Ġannounced	49624
ces	49614
ĠStreet	49584
ĠCanada	49582
Ġscript	49576
ural	49571
trans	49558
ĠFoundation	49555
berg	49534
Ġslow	49532
inc	49531
Ġexchange	49526
ĠTwo	49508
âĢĿ.	49479
ĠSet	49478
Ġcent	49475
Ġdescribe	49465
Ġentered	49443
Ġgain	49399
Ġcustom	49386
Property	49372
EX	49369
Ġsun	49361
Ġagents	49354
Ġinteractions	49353
ĠCol	49315
Ġring	49310
put	49292
¬	49274
ĠFriday	49255
ze	49240
uff	49238
ame	49221
Ġaccept	49216
Ġsupply	49213
}}{	49192
active	49192
ared	49180
order	49176
Ĥ	49149
mp	49105
Ġdecrease	49103
ĠGreen	49059
System	49049
ĠCa	49025
Cs	49010
Ġagency	48993
style	48969
ney	48968
Ġgirl	48961
Ġanalyses	48960
See	48939
Ġdose	48936
Ġfilter	48935
Ġdog	48935
Ġprofile	48906
ĠCalculate	48904
Ġconcentrations	48888
({	48840
Ġwish	48839
ĠĠĠĠĠĠĠĠĠĠĠĠĠĠĠĠĠĠĠĠĠ	48832
Ġdel	48803
ĠCouncil	48797
ĠPeople	48795
uck	48790
Ġoutcome	48789
ising	48777
Ġviews	48769
material	48761
").	48720
Ġnation	48715
Ġconf	48711
ĠJames	48706
summary	48700
âĢĬ	48689
Â½	48684
IG	48679
Ġreceptor	48667
ĠLaw	48656
ka	48651
Ġgenetic	48629
ī	48618
can	48617
ă	48604
work	48597
ran	48595
Ġexception	48595
čĊĠĠĠĠĠĠĠĠĠĠĠ	48595
dis	48571
ĠSuch	48552
Ġcommercial	48546
Ġexistence	48542
Ġswitch	48538
Ġexpress	48518
INT	48513
Ġpossibility	48508
eb	48500
Ġcold	48500
Ġplants	48477
.*	48465
Ġ"[	48449
Ġoperating	48446
ĠQu	48442
Ġind	48425
Ġ+=	48403
Ġdriving	48394
Ġcompleted	48394
Ref	48380
Ġdraw	48345
Ġreturns	48335
ently	48325
De	48317
¶	48303
Ġpatterns	48299
Ġstars	48290
.$$	48254
date	48252
Ġinteger	48246
Ġsignals	48236
Ġaren	48234
Ġbeautiful	48220
Ġwhatever	48205
ini	48184
ĠFOR	48160
Ġ2004	48157
ville	48156
Ġidentity	48153
Ġguess	48144
Ġheavy	48139
ĠCA	48105
ĠBank	48085
Ġfat	48074
lic	48072
Ġdiseases	48009
Ġinterested	47988
Ġcatch	47986
Ġalleged	47985
Ġgenerate	47975
ama	47944
rac	47926
ĥ	47912
Ġstable	47881
Ġfinite	47878
Ġ${	47872
ÃĹ	47871
Ġbutton	47863
ider	47791
util	47783
Ġequivalent	47783
Ġquery	47782
Ġappeared	47780
Ġ};	47774
Ġfair	47762
Ġequipment	47752
Ġindicates	47751
izes	47735
Ġimportance	47698
ĠService	47697
low	47694
property	47678
other	47675
ĠMonday	47667
ky	47659
Ġgraph	47654
you	47646
Ġspectrum	47628
cd	47576
Ġcol	47544
Ġcontrolled	47529
Ġmobile	47525
ĠReg	47514
kappa	47502
otic	47490
Ġcarbon	47484
Ġholds	47451
Se	47448
widetilde	47436
Ġcomp	47415
nabla	47414
Ġdemand	47410
Ġrep	47403
Ġconclusion	47398
:"	47395
Ġsequences	47393
dt	47372
Sub	47361
ĠBoth	47361
Ġruns	47358
Ġkill	47354
ÃŃ	47340
ĠWestern	47303
alt	47284
Ġfootball	47277
Ġconfiguration	47249
Ġhappens	47225
ended	47220
ination	47217
Ġgrow	47195
Ġadvantage	47191
Ð°	47190
rad	47187
Ġparticles	47175
ĩ	47153
Ġ2019	47153
ĊĠĠĠĠĠĠĠĠĠĠĠĠĠĠĠĠĠĠĠĠĠĠĠĠĠĠĠĠĠĠĠĠ	47133
Ġbreast	47109
Ġthrow	47064
main	47057
Ġsecondary	47048
Ġdefendants	47044
Ġdev	47042
Ġreality	47037
Ġmouse	47033
ca	47021
})$	47017
Ġfaith	46970
]{	46966
Ġtransport	46959
Manager	46953
]),	46937
.</	46922
gu	46904
write	46898
Ġac	46870
Ġmaintain	46865
ï¼Į	46861
Ġstraight	46854
ulation	46828
}}_{	46824
Ġreferred	46818
Ġmeasurements	46802
Ġdigital	46784
oma	46760
ender	46753
Ġthank	46656
ĭ	46632
ĠAccording	46609
Ġsession	46605
Ġcontinuous	46585
ĠInstitute	46570
][	46543
Ġseemed	46514
FA	46500
CM	46485
Ġdeveloping	46467
Ġtravel	46454
101	46426
ĠPart	46417
ott	46407
ams	46406
book	46387
Ġstatements	46378
Ġnoise	46318
ĠDay	46309
Ġsn	46304
di	46283
Ġlibrary	46282
false	46271
¤	46260
Ġ500	46257
Log	46256
Ġalcohol	46240
FT	46234
akes	46224
ops	46222
Ġtend	46222
ract	46207
ĠKing	46144
2015	46142
Ġspeak	46142
has	46132
ĠYes	46086
mat	46068
height	46068
Ľ	46061
Ġchronic	46035
ĠSmith	46032
ı	46030
ĠArt	46029
Ġpeak	46009
Ġbalance	46003
Ġremainder	45994
Ġrepresentation	45985
Į	45984
ĠAS	45983
Ġleaders	45975
lo	45973
ĠAb	45968
Ġchemical	45918
pc	45909
Ġenvironmental	45909
Ġjobs	45906
ĠCompany	45889
Ġcollege	45885
ously	45882
Ġapproved	45872
Ġplatform	45862
met	45861
Ġshift	45841
}+	45818
³	45817
inf	45814
Box	45796
ition	45790
oph	45788
Ġbus	45786
IB	45779
Ġaut	45779
range	45770
ult	45767
ĠFacebook	45739
Ġdist	45734
Ġcarry	45731
Ġlatter	45721
BA	45716
ral	45715
Ġissued	45681
Ġliver	45670
cos	45657
RT	45599
Ġborn	45599
Ġsquare	45587
Ġextremely	45584
RS	45583
Ġclub	45557
Ġspeech	45551
Ġsold	45526
Can	45516
Ġeat	45506
Ġknows	45477
kg	45470
Ġempty	45455
ĠMichael	45443
Ġauto	45425
ĠSunday	45416
ĠDis	45414
Ġestimate	45403
Ġexamples	45375
ĠBo	45368
Ġleader	45364
ĠSuper	45364
ew	45362
Ġabuse	45362
cer	45360
Ġcovered	45358
ram	45356
Ġcharges	45349
Ġtransmission	45342
Ġinterview	45322
CG	45318
ĠPress	45307
Ġserum	45290
Ġcool	45286
ho	45275
ĠBig	45270
Ġahead	45250
Ġregulation	45234
Ġliterature	45224
ple	45223
ĠJapan	45202
ĠMac	45187
ª	45163
Ġsubstantial	45106
Ġaware	45106
Config	45097
Ġsigned	45089
Ġopened	45079
Ġhusband	45075
Ġfix	45075
SH	45068
ibility	45038
apache	45034
Ġimplementation	45027
itation	45024
ĠWhy	45021
¨	44993
Ġscene	44992
Ġfluid	44971
aff	44970
Ðµ	44946
Ġcustomers	44939
Ġchurch	44888
Ġformula	44877
ĊĊĠĠĠĠĠĠ	44868
kin	44852
Ġoccurs	44841
Some	44839
Ġwh	44780
ĠTheorem	44771
Don	44768
ptr	44755
Ġplasma	44755
Ġrecorded	44718
Element	44700
Ġdelivery	44696
Ġcompounds	44691
DR	44673
section	44659
Ġdecisions	44656
¯	44654
ned	44651
ĠAT	44641
MT	44620
Ġdiscuss	44608
light	44581
¥	44566
local	44566
ily	44561
Ġextension	44553
target	44539
Ġbroad	44539
Ġreceiving	44529
Ġevaluated	44524
$$\	44521
Ĩ	44516
oe	44510
Ġassay	44504
Ġnetworks	44502
PD	44495
Ġvisual	44477
acc	44464
Ġinner	44464
Ń	44456
Button	44450
Ġallowing	44450
Ġcalling	44448
Ġexact	44439
Ġplate	44437
Ġextended	44437
Ġleaves	44419
Ġap	44416
ĠAmericans	44414
Ġviolence	44385
cre	44372
ands	44358
Ġsuit	44337
Ġ75	44331
Ġhaven	44330
Ġpercentage	44316
ĠFrench	44316
ĠCor	44294
Ġdigit	44293
ĠUnion	44290
first	44285
Ġoutcomes	44275
Ġestablish	44265
Ġconcerns	44223
md	44209
ifying	44193
Ġassessment	44189
ĠBr	44178
message	44176
Ġsubsequent	44173
endif	44172
ĸ	44166
rol	44164
Ġleaving	44163
Ġgr	44161
Ġthousands	44158
ĠCommittee	44150
Ġ2003	44131
cs	44130
§	44118
iles	44115
ENT	44107
Ġtestified	44102
Ġhelped	44100
Ġmm	44098
ctions	44094
Ġmostly	44072
Ġunderlying	44037
Ġowner	44034
Ġimmune	44017
ĠPer	44016
ĠLeague	44010
Ġbirth	44002
Ġarguments	44000
ĠFinally	43993
Ġsale	43958
\{	43946
ĠTest	43946
Ġefficiency	43936
ĠDuring	43913
ern	43909
Ġdistinct	43909
ĠTuesday	43901
Ġmuscle	43839
ĠUnder	43802
Ġexp	43799
Ġrepresented	43765
ĠPh	43752
ĠUsing	43732
Ġcriteria	43722
Ġcentury	43698
ĠEd	43678
Ġraise	43670
Ġdebt	43670
current	43667
\*	43665
)=\	43659
ĠAP	43616
ĠĊĠ	43615
oll	43589
Ġgreatest	43589
uses	43582
ĠCT	43578
Ġexamined	43577
Ġsmooth	43551
Ĺ	43539
zeta	43525
2013	43521
isation	43505
ext	43504
null	43496
Ġspecified	43462
Ġlearned	43461
ĠAL	43417
Ġeventually	43408
Ġbooks	43396
cor	43390
)"	43389
ĠOther	43387
SM	43384
ĠSun	43370
Ġadult	43365
Ġ39	43357
Ġpowerful	43352
ĠClass	43345
Source	43343
onic	43312
ĠRE	43309
Ġevolution	43307
é	43301
Ġcandidate	43288
Dis	43286
Ġdetail	43281
ny	43280
Ġcurve	43269
¦	43243
Ġdry	43231
Ġmod	43221
Ġdepends	43208
2014	43199
Ġlimitations	43191
cher	43186
2016	43178
Ġincident	43166
urs	43165
ĠMany	43152
Ġest	43149
Ġpositions	43133
RI	43126
ense	43119
Ġlicense	43115
ĠFe	43104
sk	43100
Ġscheme	43035
df	43029
Ġplane	43015
ĠGermany	42997
Ġ64	42993
ĠJudge	42986
Ġvoltage	42981
font	42979
Sp	42934
Ġstream	42929
ĠâĢ¦	42927
Ġinvestigated	42926
)*(	42914
Ġyes	42902
ump	42877
Ġenjoy	42875
sm	42874
'.	42869
Ġes	42867
leg	42863
ļ	42855
ĠWeb	42851
ĠAdd	42841
Ġachieved	42831
isc	42802
ĠĠĠĠĠĠĠĠĠĠĠĠĠĠĠĠĠĠĠĠĠĠ	42797
ĠScience	42789
ored	42778
abs	42774
Ġtypical	42771
?âĢĿ	42764
ãĢĤ	42762
ĠIII	42755
ished	42746
000000	42742
Ġpathway	42734
ĊĠĠĠĠĠĠĠĠĠĠĠĠ	42723
ches	42715
Ġgoals	42713
Ġpurchase	42708
ĠAss	42695
Ġ${{\	42686
Ġmixed	42685
gt	42684
ĠNone	42661
Ġchanging	42653
Ġpolicies	42635
ĠEq	42635
ĠCollege	42631
ility	42621
Ġglass	42616
Ġweak	42614
Ċĉĉĉĉĉ	42598
Ġcivil	42588
Ġ00	42585
Ġ44	42581
Client	42574
&\	42568
ips	42566
Ġprocedures	42533
Ġstandards	42526
dependent	42515
supplementary	42498
Ġrecovery	42480
ga	42471
These	42459
Ġflat	42458
Ġfish	42456
Ġapplicable	42443
ĠAssociation	42442
Le	42440
Ġgranted	42430
Ġcomplaint	42430
Ġspend	42411
Ġfilms	42396
Ġdec	42383
dots	42362
dimensional	42362
Ġ2001	42352
Ġdiet	42332
aged	42322
mit	42303
**]{}	42295
icon	42290
ĠGovernment	42290
Then	42265
Ġtrain	42225
xml	42202
Ġacts	42190
Ġisolated	42188
long	42168
AND	42137
Ġfavor	42117
anc	42103
DB	42095
Ġdesired	42085
Ġsecret	42070
Ġdelay	42069
Number	42043
Ġevaluation	42041
Ġseeing	42034
den	42030
FC	42019
parent	42010
Ġdu	42008
lang	41995
PH	41990
Just	41983
²	41979
,'	41976
du	41964
Ġeasier	41964
Ġsubstrate	41922
BL	41892
json	41889
Ġlabel	41883
Ġmanager	41866
Ġsections	41857
Ġindeed	41845
Ġsurvey	41844
Ġstrongly	41829
Ġrelief	41821
Ġtraffic	41817
Ġdetailed	41798
Ġfunds	41782
ĠMark	41775
Ġinvestment	41760
Ġquick	41749
Ġbaby	41748
ĠPre	41743
Ġfuel	41729
LA	41725
Ġobvious	41716
Ġchosen	41699
Ġsem	41688
eps	41687
Ġfourth	41682
Ad	41665
Ġ55	41664
button	41656
aries	41652
car	41651
Ġbrief	41649
Ġentitled	41637
Ġ{{\	41634
enn	41630
Ġmaster	41630
FS	41607
ĠChurch	41606
2012	41604
ãĤ	41574
ĠPar	41564
Ġtri	41562
aps	41559
Ġsell	41547
Ġfreedom	41547
Ġcategory	41539
Ġstored	41537
mark	41516
¼	41498
Ps	41457
Ġcommitted	41437
Ġjoin	41428
}.	41423
comp	41414
Ġpres	41413
}=\	41397
Ġdaughter	41397
Ġcluster	41397
Ġmeant	41378
cast	41372
Ġduty	41368
Ġconclude	41359
Ġconsidering	41339
Ġ65	41318
ĠWhich	41312
Ġdirected	41298
ĠEngland	41276
Ġspot	41269
ett	41260
ĠGo	41260
Ġpayment	41211
ales	41208
Ġclick	41202
Ġthanks	41200
''	41191
vis	41181
ĠFlorida	41180
Ġcont	41176
ĠHar	41168
Ġprices	41163
Ġwind	41146
yt	41127
Ġelectron	41124
Ġav	41116
ident	41108
Ġforced	41103
Ġdocuments	41098
ises	41089
Ġreligious	41082
ĠParty	41069
2017	41013
Ġlisted	40994
iff	40993
ris	40985
300	40984
ĠĠĠĠĠĠĠĠĠĠĠĠĠĠĠĠĠĠĠĠĠĠĠ	40974
ĠÃ	40967
Ġcup	40958
Ġvictim	40936
>(	40926
context	40923
Ŀ	40852
ĠThursday	40848
load	40843
Ġdetermination	40839
Ġapparatus	40838
ĠCopyright	40827
Ġstories	40822
Ġequations	40816
wood	40813
Ġskills	40808
Ġconflict	40801
Ġfocused	40796
ĠIm	40768
Ġdepending	40755
Ġ300	40730
ĠTe	40723
Ġwaiting	40712
oth	40707
Ġlose	40699
Ġvirtual	40674
Ġplays	40670
_{{\	40658
Res	40657
}}^	40642
ĠWednesday	40635
Ġpush	40633
Ġorigin	40629
Ġresulted	40628
ison	40623
elling	40613
Ġ2002	40611
Ġfans	40595
ĠChe	40577
Ġecho	40567
etic	40564
End	40564
Ġmeasurement	40560
Ġuint	40535
ĠPC	40522
Ġconcern	40520
Ġobservations	40519
Ġpossibly	40514
------	40507
scale	40491
Ġversus	40487
Ġcap	40474
Ġmodified	40468
status	40447
Ġbelieved	40444
Ġcast	40438
cdots	40421
¹	40416
ĠRussia	40414
"}.	40404
sw	40398
Part	40386
ĠHIV	40381
ĠCI	40379
Ġregard	40378
ĠWell	40369
Ġprotocol	40346
ÑĢ	40334
ĠOpen	40330
Content	40325
Ġtreat	40313
Ġer	40302
ĠTime	40301
Ġexcellent	40299
Ġassuming	40289
Â·	40277
erg	40267
âĢ²	40262
Ġboy	40256
event	40246
Ġneither	40223
Result	40222
Ġnodes	40209
ĠIT	40197
Since	40196
Ġfees	40183
Ġangle	40181
ĠNS	40173
Ġfloat	40144
Ġoffense	40134
Ġtwice	40095
ĠLord	40078
Ġhom	40068
select	40066
Ġemployed	40062
/(	40054
Ġthread	40052
UM	40051
Ġapproaches	40046
Ġcommunities	40042
rap	40009
Ġdamages	40008
^âĪĴ	39998
Ar	39968
Ġtouch	39952
Ġcompare	39949
ato	39936
AV	39918
ĠFree	39903
rate	39898
Ġstreet	39888
Ġplanning	39881
Ġaward	39856
Ġ41	39844
Ġseek	39835
lock	39833
¿	39832
Ġresource	39799
Ġinvestigate	39796
ming	39772
Ġstanding	39765
ĠPe	39765
format	39748
Ġsalt	39746
Ġreplace	39729
Ġrich	39717
Ĭ	39705
Ġscores	39698
ĠWindows	39691
Ġconfidence	39661
Ġneuro	39655
ĠAny	39650
std	39649
Ġaccuracy	39643
Me	39642
Ġ120	39629
Ġfunding	39617
128	39611
ges	39592
Ġdisc	39590
Ġhelps	39578
CI	39570
ĠFile	39570
Ġconcerned	39569
Ġsur	39568
]--[@	39562
Ġbo	39559
ħ	39549
/\	39548
ĠRef	39541
Ġhousing	39537
used	39534
PI	39534
Ġefficient	39530
Ġtrials	39521
else	39518
Ġintervention	39487
Ġgrand	39481
Ġsensitivity	39478
layout	39461
Ġdetect	39455
Ġ_{	39440
ĠEnd	39406
Ġmainly	39400
Im	39399
Ġguilty	39388
ĠBur	39374
Ġbudget	39362
Ġboundary	39360
Ġasking	39353
Ġelectronic	39342
Ġadults	39328
Ġrelationships	39318
ĠCircuit	39283
Read	39279
ĠSaturday	39250
ĠJapanese	39239
Ġinvolving	39236
Ġexperienced	39228
was	39220
android	39214
%.	39212
Ġph	39208
ĠPR	39205
^+^	39183
Ġfinished	39171
Ġevaluate	39169
Ġexposed	39148
ki	39140
rec	39126
Pre	39126
Ã¤	39123
ĠBrown	39120
¾	39113
client	39110
Ġexpansion	39108
Ġcontribution	39103
SU	39100
ĠDE	39091
Which	39085
Ġsignaling	39081
Ġextends	39073
º	39057
itis	39047
Ġadvice	39040
Ġsit	39034
Ġworse	39031
Override	39028
ATION	39027
Base	39017
Ġcat	39005
ĠSolve	39004
Ġed	38988
rt	38976
sin	38968
ĠJesus	38966
Ġframework	38960
ĊĠĠĠĠĠĠĠĠĠĠĠĠĠĠĠĠĠ	38956
2000	38945
Ġemployee	38944
"),	38933
Ġcontinues	38917
ĠÃĹ	38903
Ġcapable	38893
ĠOut	38879
2010	38867
Method	38860
**(-	38846
ette	38844
2011	38835
ĠPD	38832
Ġmark	38829
Ġcomposition	38826
ita	38823
Ġsettings	38809
och	38807
ĠFederal	38800
Click	38799
Ġideal	38794
čĊĠĠĠĠĠ	38779
Ġdepartment	38775
Ġassessed	38770
ya	38766
Ġintensity	38766
ĠAustralia	38763
Ġplot	38750
ien	38739
ĠInternet	38735
unt	38733
007	38713
)^{	38705
ature	38678
ĠFl	38675
:\	38673
ends	38667
lt	38666
call	38664
iter	38662
ĠGl	38659
201	38645
ĠOffice	38625
Bar	38621
.**	38614
ĠGeorge	38606
END	38575
Ġordered	38575
Ġadvanced	38570
Ġdemonstrate	38567
Ġbiological	38565
ba	38556
Ġguide	38555
Ġgrant	38548
Ġplaintiffs	38546
Ġconnect	38535
OK	38518
Ġrelates	38513
Note	38505
Ġmar	38504
query	38502
PE	38478
Co	38472
006	38471
vent	38433
Ġpeace	38426
arch	38423
Ġmurder	38423
word	38422
Ġles	38401
Ġpersons	38399
ĠMS	38399
mb	38398
Ġquarter	38395
à¤	38377
Ġgold	38371
Ġfirm	38351
Ġcash	38344
MD	38342
Ġbrother	38331
Ġscope	38329
Ġstrain	38315
entry	38314
Ġchallenges	38312
Ġpotentially	38306
Ġ49	38306
ĠGood	38301
Ġsuitable	38294
Ġ47	38288
Ġimaging	38281
mail	38272
Ġ46	38266
module	38258
Ġhumans	38256
Ġvelocity	38252
ua	38250
Tr	38246
oz	38239
Ġnorth	38237
ĠPlease	38236
gh	38235
Ġjoint	38211
Ġinterval	38205
Ġconsent	38197
Ġconference	38194
Ġrats	38188
Ġdecide	38183
Ġstopped	38179
Ġfill	38178
Ġiron	38167
FL	38149
ond	38135
Ġstatistical	38135
Ġimprovement	38108
Version	38087
Last	38083
uint	38080
ĠĠĠĠĠĠĠĠĠĠĠĠĠĠĠĠĠĠĠĠĠĠĠĠ	38066
cont	38065
âĢĿ,	38042
Simplify	38020
Ġassess	38015
Ġev	38013
ĠDefendant	38004
Ġengine	37991
Ġclaimed	37981
ĠAR	37972
Ġremained	37971
ada	37962
Ġdownload	37958
Ġthin	37954
Ġ43	37952
ĠNO	37921
lu	37903
uit	37900
xt	37898
Out	37896
Ġspring	37863
Ġended	37861
ĠType	37849
ERS	37824
Ġsides	37820
Ġburden	37820
Ġunknown	37813
Ġpartial	37807
Ġduration	37797
aking	37792
Ġchief	37791
ĠUse	37786
itor	37771
Ġreflect	37767
rain	37750
Ġsuggesting	37748
cul	37743
ĊĠĠĠĠĠĠĠĠĠĠ	37741
ĠCont	37740
Ġran	37737
ĊĠĠĠĠĠĠĠĠĠĠĠĠĠĠĠĠĠĠĠĠĠĠĠĠĠĠĠĠĠĠĠ	37736
ĠRussian	37735
Ġfrequently	37689
Ġpool	37683
Ġdiscovered	37679
------------------------------------------------	37662
Ġhence	37657
120	37641
ĠÂ£	37641
¢	37634
Ġdoctor	37627
Ġinv	37614
ĠRepublican	37596
web	37590
Ġbag	37588
Â»	37586
ĠFurther	37557
more	37555
ĉĉ	37543
ella	37540
Ġreverse	37534
Ġargues	37517
ĠRule	37516
)}\	37486
Ġlimits	37465
Ġnine	37460
hel	37450
EE	37449
ressed	37447
~~~	37442
Ġnecessarily	37433
µ	37401
ict	37399
Ġ150	37397
)[	37394
Ġarms	37364
ì	37356
According	37348
Ġannual	37338
ĠANY	37300
Line	37291
Create	37284
itch	37282
Ġthreat	37275
mg	37272
ico	37272
hand	37270
Ġcourts	37268
2018	37267
ĠOver	37249
Ġseconds	37242
Ġ56	37233
Ġradiation	37223
Ġaxis	37217
Ġvariation	37215
Ġassembly	37206
Ġte	37205
Ġstability	37191
ME	37190
Ġintent	37175
ope	37171
ado	37166
GA	37149
ulate	37145
)]	37144
ĠMinister	37125
±	37119
ĠHence	37117
*/	37109
"]	37105
ision	37103
build	37101
Ġwidely	37087
Ġpetition	37038
Ġfail	37035
Ġacute	37034
TC	37026
Ġantibody	37022
Ġthereby	37017
ĠAir	37015
Ġcal	37008
Ġdefinitely	36979
Ġbrand	36974
ĠTwitter	36970
Ġthreshold	36967
Ġoral	36955
OW	36944
Ġprovision	36942
Ġice	36922
ĠTH	36904
Ġlinked	36884
ware	36880
Ġdimension	36878
Ġaspects	36855
Ġsol	36852
ĠJohnson	36852
img	36839
Ġattacks	36807
ĠSecond	36801
Ġkeeping	36795
Ġimplies	36787
Ġnumerous	36784
ued	36773
References	36771
Ġpopulations	36771
ĠFrance	36770
Ġindicating	36751
ĠGerman	36747
iness	36737
Ġrelations	36732
Ġpull	36726
Ġstarts	36724
Page	36715
ĠGe	36715
Ġforth	36711
Ġmixture	36679
ĠJustice	36673
ĠOnce	36663
Ġelectric	36658
Ġidentification	36657
--------------------------------	36653
Ġfundamental	36645
Ġent	36630
Ġwaste	36622
Ġopposite	36619
Ġrare	36616
Ġpo	36612
Ġaccepted	36612
ĠChristian	36595
Action	36582
Ġlung	36562
ĠOnly	36562
NO	36557
ĠĊĠĠĠ	36555
Ġinterpretation	36552
Ġmortality	36546
Ġunable	36544
Ġinstructions	36529
Ġentirely	36525
Ġviolation	36523
Ġmission	36513
Ġcoach	36501
mar	36492
Ġacc	36491
Response	36488
ux	36485
([	36483
Ġtruly	36481
En	36475
Ġabsolute	36475
Ġrecognized	36466
Psi	36465
ishing	36463
Ġsupposed	36457
Ġsouth	36447
Ġmix	36446
Ġcellular	36432
Ġbone	36425
Ġgonna	36422
\/	36421
ĠSal	36411
Ġorgan	36406
msgid	36397
Start	36392
Ġpractices	36389
author	36379
Ġgirls	36364
Ġfraction	36355
"})	36354
Ġcontribute	36335
Ġnotes	36334
Ġnarrow	36307
Ġarrest	36300
Ġparallel	36289
Ġdegrees	36288
MC	36273
ĠBay	36272
Ġends	36268
Ġpartner	36260
Status	36250
Ġmassive	36249
Ġsupporting	36247
urn	36238
Any	36235
last	36234
arc	36230
ours	36223
ĠPA	36219
Filter	36207
msgstr	36206
Ġmouth	36192
find	36189
xe	36182
ĠTom	36181
ĠSenate	36178
next	36167
des	36155
ones	36150
Ġaim	36150
ographic	36149
unk	36143
png	36140
Ġtrip	36137
Ġresponsibility	36123
Ġlib	36120
})\	36093
request	36087
Ġsigns	36085
$)	36083
Ġbecoming	36082
Ġmiles	36081
Ġemployment	36075
NT	36066
EST	36055
ĠObject	36023
Ġattached	36018
Ġtag	36008
Ġappearance	36002
Ġcamera	35996
Ġtechnical	35970
Ġ[[	35925
Solve	35922
ĠIll	35912
Ġdisk	35906
aster	35891
Ġcompound	35888
Ġhole	35884
ATE	35883
Ġmanaged	35882
Ġresidents	35879
Ġroute	35876
ĠIndian	35869
MR	35866
ĠGive	35857
Input	35850
Ġser	35841
Ġdependent	35840
Ġoffset	35831
host	35828
Ne	35828
400	35797
Ġvitro	35797
append	35794
Ġminute	35794
Ġmolecules	35791
widehat	35787
Ġenable	35777
Ġconcluded	35775
Ġdynamic	35765
Ġcomm	35764
ĠUN	35747
\]).	35735
va	35729
ĠMin	35697
aging	35678
Ġcommonly	35677
Ġamounts	35677
Ġcons	35634
Ġassigned	35613
option	35612
match	35609
Ġconsideration	35607
Label	35606
BP	35605
Ġatt	35605
Ã³	35588
Ġlo	35587
media	35574
space	35566
Ġphoto	35555
TO	35538
*^	35530
ulated	35524
Ġunderstood	35524
Default	35523
Ġarticles	35520
Handler	35514
frame	35512
Ġdynamics	35512
ĠTheir	35510
Ġsought	35488
Ġrequirement	35479
assert	35472
ĠInstead	35463
iled	35461
ancy	35450
search	35445
ĠMal	35444
Ġeffectively	35426
ude	35421
Ġaccurate	35410
Ġyield	35409
RNA	35403
Ġexpert	35395
Point	35394
output	35387
pped	35362
Ġship	35343
Ġop	35342
Ġgap	35334
Ġestimates	35320
Ġjurisdiction	35311
\|	35307
Ġrespond	35305
eter	35302
Ġsensitive	35296
play	35287
era	35264
Ġnum	35244
Ġspaces	35235
Ġtemplate	35233
gs	35229
Ġ52	35222
Ġfilled	35220
ased	35219
ĠAfrica	35209
ique	35208
Ð	35207
Ġfeed	35197
server	35187
ĠPlaintiff	35186
**,	35180
}}{\	35179
Ġsplit	35173
house	35160
yp	35148
cr	35130
Ġdecades	35113
Ġusual	35090
Ġmessages	35082
ijms	35079
ĠThomas	35062
Ġbinary	35057
Ġ51	35054
Ġestate	35050
ĠAPI	35038
TA	35036
Ġoxygen	35030
Ġjustice	35027
Ġspending	35013
Ġill	35009
Your	35004
ĠPCR	34988
Ġmult	34964
#:	34961
Ġseeking	34960
ĠTimes	34934
Ġwww	34926
ola	34925
Ġadmitted	34924
Ġsenior	34908
ãģ	34900
ĠBill	34895
Ġfont	34879
Ġfavorite	34869
ĠRiver	34867
Supp	34845
illa	34830
stream	34807
Please	34806
Ġcm	34800
raw	34785
ocks	34778
oke	34766
Ġstrategies	34765
ius	34762
Ġsecure	34748
==	34734
Ġsweet	34733
ĠEarth	34730
ails	34729
non	34727
Ġobjective	34725
Web	34724
Ġconsumption	34717
++)	34693
Ġsqrt	34688
obj	34674
Ġdepth	34670
Ġ72	34668
star	34663
ĠWill	34657
==========	34655
Ġbroken	34649
Ġassistance	34637
ree	34631
prop	34630
Ġcharacterized	34621
Ġphot	34592
mL	34590
Ġgender	34589
Ġearth	34556
å	34535
Ġtransform	34535
Yeah	34530
Man	34508
Ġsmallest	34503
Ġge	34502
ogen	34495
Ġcompetition	34463
float	34448
Ġminor	34446
Ġadvance	34438
amine	34437
Ġpredicted	34436
subset	34422
^-	34417
Ġemission	34413
2008	34410
ĠIndeed	34410
private	34397
Ġtissues	34379
["	34370
Â¸	34366
Äģ	34363
water	34362
Sc	34359
>>	34353
Ġdiv	34350
asing	34348
Ġorders	34331
conf	34320
ĠProject	34317
Ġwitness	34307
place	34304
fold	34295
ura	34281
Ġpop	34278
Layout	34265
Ġfan	34251
Ġneurons	34231
}/	34230
ĠRobert	34228
ony	34215
Ġ[]	34214
Ġprinciple	34213
ĠSH	34211
Ġscientific	34203
ĠInd	34202
BI	34195
Two	34183
Ġpages	34180
ait	34172
Ġexpensive	34167
Ġmarriage	34157
Ġzone	34140
]{},	34135
dy	34125
ĠFIG	34122
real	34115
Ġrecommended	34114
Call	34106
Ġnan	34104
ĠMedical	34103
ired	34101
').	34096
opt	34095
Ġsupports	34084
ios	34054
tab	34053
Ġfell	34052
ills	34044
Ġcustomer	34032
ĠSte	34032
Ġ54	34022
Ġcorner	34019
Ġparticle	34014
oms	34009
ove	34001
;&	33998
Ġpieces	33997
ani	33994
arr	33987
Ġmanuscript	33947
Ġconfig	33933
ĠHall	33927
2009	33920
ving	33918
Ġwatching	33917
ĠInformation	33901
DC	33864
eration	33857
arian	33854
Ð¾	33849
Ġcausing	33832
OU	33817
lem	33813
Ġsuccessfully	33809
Ġtelevision	33807
Ġmargin	33797
Ġfund	33794
ĠBen	33794
show	33793
ĠIV	33793
Ġchannels	33792
Ġ1999	33771
Ġinfo	33749
split	33739
Ĵ	33738
Ġbaseline	33738
FR	33729
Ġtargets	33728
dom	33713
ĠMa	33704
only	33674
Ġver	33672
Ġag	33671
Ġsupra	33650
Ġreducing	33648
Ġcrisis	33641
aring	33640
ĠGr	33637
ĠHospital	33633
rot	33632
fa	33628
Ġpure	33627
ĠSam	33614
Pl	33597
ĠEU	33597
ena	33586
GE	33578
eric	33564
Ġlargely	33560
Ġbattle	33553
Ġunion	33549
Ġimpossible	33547
ĠpH	33542
Ġinhibition	33525
^+	33521
Ġcomposite	33505
Ġfore	33498
×	33492
oon	33487
Ġautomatically	33481
Query	33467
ĠSD	33460
ained	33459
under	33452
Ġsal	33448
Ġsitting	33438
Ġob	33438
Ġinstalled	33434
Ġinformed	33433
yr	33431
ĠMath	33430
Ġdiabetes	33386
Ġpromote	33384
Ġauthorities	33383
Ñĥ	33379
ALL	33375
Ġpsych	33369
win	33367
Ġresearchers	33366
VE	33353
ital	33331
css	33315
Ġsat	33305
SL	33300
Ġstructural	33299
flow	33270
ĠSoftware	33253
Ġexamination	33242
ese	33240
rib	33239
Ġmarried	33239
ĠGL	33233
Check	33230
Ġorganic	33229
ĠField	33226
Ġsector	33221
ĠCentral	33209
Ġforget	33206
iding	33200
Ġcompact	33187
///	33184
Ġdisorder	33171
Ġrepresentative	33151
ĠSE	33150
ĠTR	33137
Â¶	33126
ĠIP	33125
ound	33111
root	33102
UL	33102
vin	33091
Ġstrains	33090
Next	33080
oper	33078
OH	33061
Ġweekend	33055
Ġproportion	33052
Ġseat	33051
Ġputting	33046
Ġvisible	33044
cf	33015
google	33013
Ã¶	33005
Ġjoined	33005
```	32995
Ġguard	32992
Ġfaster	32991
Ġconcerning	32986
ĠLemma	32985
ë	32983
dr	32976
ĠIran	32965
here	32964
hi	32962
Ġreplaced	32951
Ġfacilities	32943
Ġobservation	32941
Ġfinish	32939
room	32938
number	32933
Mr	32933
ĠIts	32933
ĠAfrican	32933
Ġsolve	32931
ways	32925
ĠView	32923
Ġdebate	32919
Ġdream	32910
Thanks	32906
ĠLog	32906
inated	32901
onal	32895
ĠChicago	32895
ĠGreat	32886
Ġherself	32874
Ġdet	32849
GR	32838
La	32836
}|	32835
Ġrefer	32832
pper	32830
Col	32818
Where	32814
Ġacting	32809
Ġsea	32799
Ġwilling	32798
Ġcitizens	32797
Ġ101	32793
Ġrock	32785
Ġlayers	32780
)/(	32779
Are	32773
Although	32769
Ġuniform	32760
Ġmention	32754
ĠAnother	32730
za	32729
Ġsugar	32727
Ġext	32724
Ġhomes	32723
----------------------------------------------------------------	32718
Ġantibodies	32711
Ġassumed	32707
Ġdangerous	32699
Ġstack	32695
options	32689
ĠClinton	32689
Ġturns	32685
Ġprison	32682
Ġcandidates	32675
NAME	32654
aker	32646
Ġlie	32643
Ġinvolves	32643
Ġhyp	32640
ĠmRNA	32636
ĠAN	32630
Another	32617
Ġmerely	32610
Ġmatters	32609
Rev	32608
Ġemergency	32589
ĠMor	32589
IO	32588
150	32583
Ġurl	32578
ĠLong	32571
Ġdepend	32562
GF	32549
ĠSecurity	32538
ĊĊĠĠ	32533
ora	32529
ĠCR	32526
Ġ1990	32514
Ġcontainer	32509
Ġdifferential	32495
Ġexperiences	32478
Ġperspective	32471
Ġleg	32467
Ġhundreds	32465
Ġhundred	32453
ĠAre	32450
Ġshut	32439
Ġ2020	32420
Ġflag	32417
ĠHuman	32416
Ġ*)	32409
Ġpassing	32397
Ġamazing	32396
Ġlowest	32394
Ġexplore	32386
Ġpairs	32384
Ġexecutive	32384
Ġdetermining	32366
Ġrepair	32357
AGE	32335
equiv	32334
rim	32319
ided	32318
ific	32301
ĠSl	32297
ĠMA	32284
Ġlived	32281
lets	32271
Bl	32271
Ġaspect	32261
Ġclosely	32243
Ġbias	32237
Ã¼	32231
ĠÃł	32199
]);	32198
Ġproved	32192
mid	32179
Ġextract	32179
Ġdirectory	32175
ubuntu	32173
Ġaid	32168
cur	32160
Ġwrt	32159
Ġouter	32158
Ġmenu	32156
ey	32149
TD	32148
Ġposted	32134
Ġnative	32131
Ġregister	32128
Ġwalking	32120
ula	32109
Ġpolitics	32109
ool	32096
Ġformal	32095
aa	32093
Ġconversation	32092
Ġinc	32083
Ġliability	32060
ually	32045
ĠSocial	32034
Ġ---	32015
Ġtrees	32000
Ġmilk	32000
Ġargue	31998
Ġfamiliar	31994
Ġinstant	31976
ĠStar	31976
Ġprincipal	31969
icity	31944
.-	31941
atch	31939
Ġmonitoring	31937
Ġtelling	31934
Ġprimarily	31930
>,	31925
ĠON	31905
CON	31901
Ġsignificance	31896
ĠMer	31896
Ġblocks	31890
Ġbranch	31881
args	31874
Ġinitially	31870
Ġtrend	31867
Ġloved	31856
ĠProgram	31831
ln	31810
child	31810
URL	31809
Ġvivo	31793
Ġcities	31793
Ġoperators	31789
ration	31783
Ġmiss	31764
Ġwonder	31757
008	31738
Ġphotos	31733
Ġreg	31728
Ġ53	31724
Ġass	31717
Ġlots	31714
description	31712
00000	31704
Ġcamp	31702
Ġdollars	31698
ding	31693
ĠPr	31685
Ġinjuries	31682
Ġeating	31672
Ġvision	31670
method	31664
Ġder	31661
ups	31651
Ġdelivered	31643
Ġimplemented	31636
Ġmaps	31633
110	31627
Ġdisorders	31614
Ġdrink	31612
Ġwear	31607
160	31598
ĠRep	31595
documentclass	31593
Ġbusinesses	31564
Ġ\{	31552
ĠControl	31532
Ġcontributions	31531
Ġconsists	31529
Ġ99	31529
Ġinjection	31516
pa	31514
Ġthick	31512
ci	31511
after	31503
Ind	31497
Ġassault	31497
SI	31492
minimal	31491
Ġsensor	31484
Ġaccordance	31484
ĠDi	31465
oles	31440
BR	31440
ĠLife	31438
ĠJones	31438
Ġgrown	31434
Ġbigger	31431
Ġenhanced	31429
Ġ1998	31427
Ġoptimal	31426
Ġwarm	31423
Ġcloser	31419
Ġleadership	31416
ĠÎ²	31387
bers	31381
Reg	31377
/>	31368
ĠDec	31359
ÑĤ	31352
home	31350
mem	31334
Ġbodies	31323
Cell	31300
IST	31297
Ġlabor	31291
Other	31289
Ġrapid	31280
CIT	31269
Ġlaser	31269
called	31256
ĠĠĠĠĠĠĠĠĠĠĠĠĠĠĠĠĠĠĠĠĠĠĠĠĠĠĠ	31243
Ġterminal	31233
Ġcaught	31233
Ġaccounts	31229
Stream	31224
Ġorganizations	31221
det	31209
Ġgenome	31207
Ġapparent	31206
ivity	31205
Ġleague	31201
Ġlocations	31199
rab	31194
jpg	31193
Ġextend	31190
Ġconsequences	31163
ares	31160
Ġillegal	31152
sup	31149
Ġopportunities	31148
Ġsorry	31146
Ġminimal	31135
Ġelectrical	31131
ĠDes	31122
Max	31109
buf	31097
Ġcorrectly	31081
ĠJan	31066
math	31055
Ġfigures	31049
Ġmaintenance	31044
bed	31042
ames	31033
Ġrepeated	31033
Ġhum	31031
####	31030
LS	31025
1000	31021
Č	31013
)+	31011
Ġarrived	31010
Ġdenote	31006
Ġpp	30994
PRO	30984
Ġfacility	30982
Mode	30972
ĠĠĠĠĠĠĠĠĠĠĠĠĠĠĠĠĠĠĠĠĠĠĠĠĠ	30972
ences	30968
ball	30968
Ġthermal	30965
]$	30957
ĠVal	30940
**(	30937
Ġclosest	30926
Ġthoughts	30921
ĠÃĳ	30919
Ġpathways	30913
control	30911
Ġprevalence	30909
Ġden	30900
doc	30897
ĠER	30886
Ġseed	30883
Ġrecommend	30875
Ġaccident	30869
template	30867
Ġinternet	30851
Ġsyndrome	30843
2006	30838
Before	30809
ko	30792
olic	30789
strong	30788
Ġremoval	30788
®	30776
ough	30766
Buffer	30763
Ġtrouble	30755
Ġmal	30752
Ġpointed	30746
Ġdisplayed	30746
Trans	30742
Format	30742
Ġsurrounding	30741
how	30728
Ġmutations	30714
Ġfruit	30707
ÂĢ	30701
ĠName	30698
ĠCL	30697
Ġabsolutely	30686
\]),	30672
Net	30672
Ġpractical	30666
]^.	30659
Ġpark	30659
ĠDemocratic	30649
Ġinstruction	30647
rou	30644
Ġupdated	30640
Ġcreation	30628
Ġsmart	30623
ws	30604
Ġapparently	30598
Ġpol	30588
Ġintegrated	30584
pack	30583
Ġbacteria	30567
***	30550
msg	30535
Ġvan	30535
ĠCup	30532
Ġclients	30530
NE	30529
Ġstages	30527
Ġprop	30519
More	30504
ying	30493
ero	30470
2007	30466
inner	30464
Ġ1997	30453
ĠÐ	30435
Ġhelping	30416
2019	30403
mo	30395
Ġdepression	30395
stein	30394
align	30393
Ġ400	30383
Ġspectra	30380
Ġmedian	30372
Ġevening	30369
Ġemotional	30366
Ġcoupling	30365
ires	30363
Ġscreening	30359
Ġconviction	30356
Ġpet	30351
Ġsounds	30345
Ġimplied	30345
});	30339
Ġ1000	30336
Ġregression	30329
bound	30323
Ġadopted	30316
MM	30306
Ġsubmitted	30297
small	30295
(\[	30290
Inter	30284
Ġsports	30284
Ġkitchen	30283
ĠAppellant	30282
sensors	30278
Ġ58	30275
txt	30272
Ġtight	30265
Ġcommittee	30263
zz	30259
ĠWilliams	30256
tra	30251
iel	30239
ÃĹÂ	30225
Rec	30223
Ġrecall	30222
Ġtopic	30221
umb	30206
Ġ96	30199
Per	30194
si	30186
Ġneck	30179
Ġbeam	30177
ward	30166
Ġconstructed	30163
Ġ110	30162
ala	30160
ĠPolice	30158
ctor	30155
Ġargued	30150
Ġsynthesis	30149
pdf	30144
Ġdescribes	30135
une	30130
rich	30129
ift	30127
Ġpictures	30121
Ġclassical	30118
Ġdogs	30105
ias	30104
Ġmine	30101
="#	30095
Ġprovisions	30089
čĊĉĉ	30088
Ġamino	30086
Ġmanage	30083
Ġsolar	30076
dim	30075
oring	30073
Ġ"(	30058
250	30056
ask	30049
Ġimplement	30046
Ġepisode	30046
ially	30040
Form	30024
ker	30018
ĠRT	30002
HS	29995
high	29991
Ġcharacteristic	29989
Ġcounts	29987
ĠSP	29978
Ġconstruct	29977
ĠRead	29974
wise	29968
Ġlay	29964
Ġapart	29963
Ġessentially	29960
Ġplastic	29959
UD	29955
Ġsheet	29951
Ġ57	29942
Min	29926
Ġmarked	29920
Ġcopyright	29920
Ġmeat	29917
ĠCall	29914
Factory	29911
rie	29908
}{-	29879
}^\	29877
Ġ\>	29877
Ġtasks	29875
Ġtotally	29874
atin	29867
Ġbright	29849
Ġexplanation	29848
ESS	29844
-(	29840
Ġmarkets	29838
Ġremote	29835
125	29819
Ġdiscretion	29819
UI	29816
Ġpan	29815
Ġcategories	29815
center	29814
Ġspatial	29807
tag	29796
Command	29794
ĠOS	29777
Ġtaxes	29775
Ġfeedback	29767
\"	29757
Ġguidelines	29757
ĠĠĠĠĠĠĠĠĠĠĠĠĠĠĠĠĠĠĠĠĠĠĠĠĠĠ	29757
ĠDC	29735
ĠDel	29731
setlength	29727
package	29713
Ġban	29710
Ġhypothesis	29708
ĠKe	29704
Ġspeaking	29696
Ġmaintained	29685
Builder	29670
Ġdesire	29660
ship	29654
Ġapproval	29647
Ġchapter	29642
Ġ1996	29633
ĠAnn	29631
ACE	29630
Ġinform	29628
Ġdeclared	29626
Ġregime	29616
Ġfashion	29615
Ġrecording	29613
Ġsoil	29611
Ġultimately	29587
Ġrat	29587
Ġ"""	29583
Ġ85	29578
}\,	29577
Ġsa	29569
ĠPRO	29558
ĠServices	29545
ĠCorp	29543
Ġimmediate	29535
={	29533
eds	29527
È±	29526
DM	29516
Ġoffering	29515
Ġlen	29514
ĠChief	29498
amsmath	29496
ao	29481
Ġ59	29477
SR	29472
header	29466
Ġtells	29443
Ġune	29434
bool	29412
oxy	29406
ĠBE	29406
ĠCare	29400
}},	29396
Link	29387
Ġarg	29385
Ġfellow	29379
Ġdep	29378
${	29362
Ġreporting	29358
Ġraw	29358
Ġpreparation	29348
Ġidentical	29338
enc	29337
Ġtreatments	29333
ĠHome	29328
Ġtherapeutic	29318
Ġconsole	29317
010	29314
Options	29309
QU	29303
icks	29296
service	29295
ĠSk	29289
ĠVer	29287
=======	29285
Ġdraft	29282
amssymb	29274
Ġpat	29268
MB	29267
Ġclassification	29265
ook	29258
Resource	29253
Ġrealize	29230
ĠDevelopment	29226
][@	29219
Ġtransformation	29216
pass	29214
ĠIR	29210
amsfonts	29207
ML	29207
Ġcollect	29206
Ġneutral	29201
Ġmodify	29200
Ġregulations	29197
Ġrecognition	29191
Ġbond	29190
eless	29183
Ġcor	29183
Ġcoffee	29182
Open	29181
Ġsin	29176
Ġexamine	29172
aching	29161
Ġencoding	29157
TE	29155
00000000	29152
mann	29150
Ġserving	29148
Ġmat	29148
Ġrespective	29145
Ġcurves	29142
Ġobviously	29141
Results	29140
mathrsfs	29136
Ġrequested	29134
amsbsy	29132
Ġprinciples	29132
upgreek	29131
2005	29108
Style	29101
Ġspoke	29100
oddsidemargin	29097
ĠCheck	29092
wasysym	29091
Ġbeat	29090
Ġsurgical	29089
Ġincidence	29085
Ġ$(\	29075
Ġdiscovery	29070
fer	29069
Ġfinds	29065
Ġbars	29059
ĠMet	29059
Block	29057
Ġsituations	29057
Length	29052
ĊĠĠĠĠĠĠĠĠĠĠĠĠĠĠ	29045
close	29041
Ġtranscription	29037
Component	29032
ĠMicrosoft	29032
graph	29029
band	29019
ĊĊĊĊ	29018
qquad	29013
Ġtumors	28993
iated	28987
{"	28985
Ġexcess	28981
most	28968
Ġdeliver	28966
vector	28962
(*	28959
Ġtaste	28956
ĠAc	28952
ior	28951
^,	28947
Up	28937
ĠDO	28923
dx	28920
ĠLike	28920
ĠIsland	28920
ĠSecretary	28911
erv	28909
Attribute	28905
Ġpred	28898
Because	28896
Ġplain	28893
Ġworst	28891
Ġposts	28883
Ġion	28870
SO	28857
ĠAdditionally	28854
sa	28850
Ġlies	28841
cb	28839
Ġrotation	28835
iner	28830
Ġshooting	28810
ĠApple	28808
DL	28803
ĠText	28801
ĠMed	28801
:(	28797
Ġcrucial	28787
po	28783
ential	28780
ĠSur	28778
ĠPol	28773
Ġsegment	28761
ĠSw	28759
ĠÎ±	28752
Ġyouth	28746
xy	28741
empty	28725
Ġconfirm	28724
Ġclimate	28709
Ġcompliance	28706
ĠAg	28706
system	28704
Ġbought	28702
ĠDemocrats	28702
Ġhelpful	28700
Ġstem	28688
Find	28676
Â	28674
Ġcognitive	28674
Frame	28663
Ġassets	28657
Ġpulled	28654
Ġloan	28643
Ġexc	28629
dist	28620
2001	28616
Ġdem	28611
Ġok	28610
Ġbehaviour	28601
Def	28596
neq	28588
Ġsomewhat	28575
Ġrequests	28571
iet	28570
Ġtransaction	28570
Update	28558
Post	28549
Ġowners	28547
ĠTim	28546
Ġworry	28531
Ġarrested	28522
Ġalign	28521
mode	28515
Ġmed	28511
Ġcontents	28511
ule	28507
Mod	28507
>&	28505
ĠPeter	28501
Ġenforcement	28492
Ġmask	28483
Ġhurt	28483
FE	28481
Ġruling	28475
256	28473
Ġroll	28469
UP	28462
Supplementary	28460
Ġdrawn	28460
imal	28449
TS	28447
ading	28439
iveness	28438
ĠSociety	28433
Ġ66	28432
wing	28425
Token	28424
Instance	28423
Ġteaching	28420
rent	28419
âĢĺ	28396
ĠComp	28394
Ġpreferred	28376
Ġglucose	28375
Ġ],	28364
Ġpossession	28351
card	28350
Ġhate	28321
Gu	28314
Ġhidden	28308
Ġinfected	28306
Ġmess	28292
Ġtube	28283
Ġwood	28278
GG	28277
ĠPower	28273
pat	28268
MO	28267
Ġdeaths	28266
âĢ	28252
Ġdriven	28251
inder	28238
ĠDirector	28218
elled	28214
ĠFund	28214
Ġlogic	28210
Ġhydro	28208
tered	28198
Ġtra	28197
Ġenzyme	28180
ees	28174
Ġfighting	28174
inate	28164
ĠSer	28162
Ġapplying	28156
ĠThose	28156
ĠĠĠĠĠĠĠĠĠĠĠĠĠĠĠĠĠĠĠĠĠĠĠĠĠĠĠĠĠĠĠĠĠĠĠĠĠĠĠĠĠĠĠĠĠĠĠĠĠĠĠĠĠĠĠĠĠĠĠĠĠĠĠĠĠĠĠĠĠĠĠĠĠĠĠĠĠĠĠĠĠĠĠĠĠĠĠĠĠĠĠĠĠĠĠĠ	28151
ocytes	28148
Ġpicking	28145
Ġnormally	28136
ĠIraq	28131
Ġpal	28128
Ġintelligence	28124
%),	28122
Ġvoters	28118
bottom	28116
EG	28111
OUT	28108
ĠJournal	28107
Ġnm	28099
Ġcentre	28095
pon	28090
push	28085
ĠRoad	28085
atal	28068
rid	28062
Ġpowers	28060
Control	28056
}^{(	28055
Ġnoticed	28055
Ġweapons	28052
ĠGold	28039
cp	28038
asm	28030
buffer	28025
ister	28024
Controller	28021
)))	28015
Ġcarrying	28010
Ġrealized	28006
igh	27999
Ġcounty	27987
Ġlaunch	27986
ira	27972
attr	27971
Ġdivision	27964
rc	27958
Ġpermission	27954
Ġgrade	27953
Ġroles	27951
Ġassumption	27950
update	27949
olog	27946
har	27941
Ġmechanical	27933
Ġvertical	27932
Ġcontroller	27927
Ġspectral	27926
Ġgrid	27921
Ġharm	27913
Ġca	27913
Ġproliferation	27907
Ġ&\	27899
ĠUp	27889
Ġfiber	27887
Ġspirit	27884
Ġreads	27875
loc	27868
}+\	27861
============	27858
ape	27856
ĠLee	27852
Ġourselves	27847
Ġcultural	27843
astic	27831
ĠAnt	27821
filter	27820
None	27817
Ġregistered	27814
molecules	27808
Row	27801
Ġacids	27800
Ġ62	27798
ĠModel	27797
Ġsubstantially	27794
response	27789
Ġattempts	27789
ĠDonald	27789
Ġinfections	27784
ĠEducation	27771
]]	27765
Tex	27737
Ġhappening	27737
illed	27716
Tab	27716
Ġtip	27710
ĠValue	27708
outs	27705
GT	27702
Go	27695
Ab	27687
Ġrent	27680
Ġaccused	27677
Build	27676
ights	27670
Ġmillions	27646
Ġexcited	27642
ĠWho	27641
pol	27640
Ġimagine	27637
Ġseparated	27633
process	27628
)|	27614
riv	27612
Ġexperts	27581
fr	27578
Ġconversion	27577
2004	27567
NC	27557
Ġdiameter	27555
ogenic	27550
cept	27541
Ġpatent	27539
Ġpaying	27535
]\	27532
Ġdropped	27530
Ġpermit	27529
orm	27525
olar	27523
ĠWilliam	27522
ect	27502
Ġuniversity	27500
ĠIns	27488
Ġcorrelated	27484
Ġmedicine	27480
GC	27477
Ġgre	27476
ades	27474
ĠPa	27462
Ġweather	27458
People	27448
Â¼	27439
Vert	27438
ĠMs	27431
Ġkn	27430
Ġopposition	27422
Ġconsumer	27420
Ġmetric	27414
Ġplanned	27413
ND	27411
anger	27402
ĠAttorney	27400
Who	27399
Ġgate	27399
Ġlegislation	27397
ĠSim	27395
Ġradius	27393
Ġ63	27386
pose	27382
iol	27376
MI	27367
break	27366
ida	27364
ĠHill	27364
hr	27356
Ġsuperior	27355
Ġstick	27350
Width	27346
ĠKorea	27342
ords	27339
hy	27339
Ġboolean	27337
Ġsister	27332
aining	27329
rey	27322
Ġinstitutions	27318
wide	27315
inn	27308
Ġlock	27306
Configuration	27287
Ġ>=	27272
ĠAtt	27259
asp	27253
Ġpurchased	27252
element	27248
utes	27246
ĠNa	27246
some	27244
Ġsizes	27238
Ġknowing	27233
Ġhall	27225
Right	27224
Ġsimulation	27218
apped	27217
Ġspl	27215
uel	27214
Ġconstitutional	27213
Ġreactions	27210
Ġfee	27206
Ġdocumentation	27202
Ġcars	27199
Ġfeels	27198
Ġcrystal	27191
AK	27187
iate	27183
Dec	27151
DD	27144
ival	27111
Ġintroduce	27102
ĠMartin	27090
Ġreliable	27089
ĠVol	27085
Ġrad	27075
Ġalpha	27074
Ġ68	27073
Ġincreasingly	27070
Ġsharing	27063
Ġpromise	27058
Ġviral	27045
Ġowned	27043
Ġokay	27042
Ġcoll	27040
uth	27037
mathsf	27036
ĠFr	27028
ĠmM	27025
Ġtransferred	27023
alk	27021
Ġkinds	27016
Ġreligion	27009
Ġdomestic	27009
Ġcomplicated	26986
Ġentity	26980
ĠWhere	26973
Ġsubstance	26962
Ġconvert	26956
«	26954
Ass	26949
Ġanswers	26949
ĠGNU	26945
ved	26940
aling	26934
=(	26933
Ġvictims	26931
Ġrapidly	26924
zy	26913
Ġrecognize	26913
Ġoriginally	26909
ĠDivision	26909
Ġforming	26907
Qu	26906
½	26892
Ġsymbol	26887
now	26883
)*(-	26868
Ġsetup	26867
Ġwine	26866
}}^{	26862
Ġslowly	26846
approx	26841
Ġpin	26841
Ġ--------------------------------	26838
ĠFind	26837
Ñģ	26834
Ġbrowser	26830
Ġcorporate	26807
files	26803
Ġbio	26799
{-	26788
Ġmes	26787
Ġextensive	26785
Ġacquired	26778
255	26777
Also	26775
Ġanyway	26773
ĠPort	26772
ĠMexico	26765
ĠKey	26762
Ġclock	26752
Ġ1995	26749
igned	26748
Function	26748
Over	26746
ION	26742
Ġpump	26741
Ġtheorem	26740
Ġdust	26740
ĠEvery	26737
law	26735
Ġintegral	26721
ĊĊĠĠĠĠĠĠĠĠĠĠĠĠĠĠĠ	26715
ĠCON	26713
common	26700
Ġinduction	26695
)}{	26693
'$	26682
ĠGrand	26681
Ġrestaurant	26674
ories	26657
ser	26656
(_	26654
Ġdual	26654
ĠmiR	26651
note	26644
elle	26643
Ġbattery	26643
Ġaddressed	26643
"}),	26642
Ġrisks	26640
ĠĠĠĠĠĠĠĠĠĠĠĠĠĠĠĠĠĠĠĠĠĠĠĠĠĠĠĠĠĠĠĠĠĠĠĠĠĠĠĠĠĠĠĠĠĠĠĠĠĠĠĠĠĠĠĠĠĠĠĠĠĠĠĠĠĠĠĠĠĠĠĠĠĠĠĠĠĠĠĠĠĠĠĠĠĠĠĠĠĠĠĠĠĠĠĠĠĠĠĠĠĠĠĠĠĠĠĠĠĠĠĠĠĠĠĠĠĠĠĠĠĠĠĠĠĠĠĠ	26640
axis	26632
Thank	26632
ĠĠĠĠĠĠĠĠĠĠĠĠĠĠĠĠĠĠĠĠĠĠĠĠĠĠĠĠĠ	26632
king	26631
ethyl	26627
Ġregulatory	26626
Thread	26621
orb	26616
Te	26612
step	26609
Ġboost	26593
ologic	26591
burg	26587
connect	26584
ĠNE	26583
Ġpayments	26575
Ġpassword	26567
Ġreviewed	26566
Ġheader	26565
Ġshell	26564
Ġwinning	26561
Âģ	26559
Ġstatistics	26550
Ġcolumns	26550
Ġintegration	26535
Output	26534
Ġpresentation	26533
ĊĊĠĠĠĠĠĠĠĠĠĠĠĠĠĠĠĠĠĠĠĠĠĠĠĠĠĠĠĠĠĠĠĠ	26532
Ġfairly	26524
Ġshop	26523
oot	26513
Hey	26508
Ġinflammatory	26501
Ġfault	26497
lam	26496
Ġaudience	26488
Ġ67	26484
Ġwire	26482
offset	26472
Ġparticipate	26470
ĠSupp	26463
~,	26462
Ġmac	26462
600	26452
Ġgift	26439
Ġbug	26428
Ġdr	26427
roll	26414
TYPE	26413
BE	26413
Ġclusters	26410
Ġmomentum	26400
Ġgoods	26377
Ġcompensation	26372
ICE	26363
Ġbeta	26363
!!	26360
Ġprobe	26359
Ġhotel	26359
illing	26354
Ġfails	26353
Ġindustrial	26351
Ġshock	26342
Ġexpand	26322
ĠCr	26318
itting	26313
uh	26306
urt	26302
Ġwindows	26284
Ġregardless	26279
amed	26277
American	26275
Ġtw	26269
Ġtemperatures	26263
ĠBel	26260
ĠSec	26254
ĠURL	26249
Ġ"\	26248
Ġbrown	26246
gers	26242
Ġpursuant	26238
Ġreact	26231
ãģ®	26230
Window	26222
nav	26217
||	26215
ĊČ	26214
inger	26212
Ġwarning	26201
Ġchoices	26200
Ġhydrogen	26196
Ġengaged	26182
Target	26175
Ġtwenty	26175
Ġ1980	26171
Ġvehicles	26167
Ġcomfortable	26166
Ġcook	26158
Ġtour	26154
Ġfe	26154
ĠSC	26153
yes	26148
Ġcapture	26142
PO	26137
Ġsimulations	26136
Ġ:)	26133
ĠMaybe	26129
plic	26128
Ġflux	26128
Ġsurfaces	26125
Ġpublication	26122
aud	26118
Ġadverse	26109
ĠConstitution	26101
Server	26082
III	26072
ĠOhio	26069
Ġyounger	26064
ĠDoes	26064
cat	26057
Ġedges	26054
ĠLake	26053
Ġkilling	26051
pace	26048
)}$	26047
HA	26039
itz	26035
su	26026
Ġng	26022
Ġlaboratory	26018
Ġcoupled	26017
Ġhell	26010
double	26009
ĠMrs	26008
Ġoperate	26006
Ġsuffered	25990
ĠRel	25970
oor	25969
&&	25967
Ġscenario	25965
Ġ61	25964
AF	25960
Ġseparation	25959
project	25956
Ġwonderful	25956
uf	25951
Ġstores	25944
Ġaside	25935
ifier	25934
Ġsubsequently	25921
Ġ----------------	25921
Address	25919
Ġbanks	25918
ĠAppeals	25918
Ġescape	25917
Ġcalculate	25911
ĠReview	25909
ulating	25908
month	25906
Ġturning	25903
ĠĠĠĠĠĠĠĠĠĠĠĠĠĠĠĠĠĠĠĠĠĠĠĠĠĠĠĠ	25902
Ġvol	25891
Ph	25883
ĠVirginia	25869
Ġoverride	25867
Ġ}}	25861
odes	25858
ĠVersion	25858
ume	25856
NET	25854
Ġrefused	25851
Project	25848
ĠLos	25847
Ġdependence	25845
Ġheter	25843
}_\	25841
cup	25839
Ġbuildings	25835
Ġodd	25823
ork	25822
á»	25817
Ġattempted	25816
Ġproducing	25814
ĠThree	25812
$_	25809
Ġwriter	25799
ĠMary	25797
Ġcolors	25792
GS	25791
Ġfamous	25789
ĠCanadian	25785
foo	25784
Ġinhibitor	25784
aint	25778
Ġsmoking	25778
Ġvast	25774
Ġsuffering	25773
ĠScott	25755
Ġnorm	25754
ĠMo	25749
Ġwalls	25745
Many	25742
Ġproposal	25742
Ġflight	25737
Reference	25736
rial	25730
Ġcalculation	25729
ules	25728
Ġstood	25726
ĠLand	25721
Ġdecade	25720
Ġcorresponds	25713
Ġda	25711
Â´	25710
ĠJewish	25705
Ġapoptosis	25697
Ġemployer	25689
Ġschedule	25686
Cor	25685
Ġlab	25679
BO	25673
Ġdischarge	25670
uch	25662
Ġ-\	25659
sey	25654
rum	25653
iers	25653
Ġboys	25653
ĠGame	25652
Ġbelief	25643
HR	25641
Ġstrike	25635
Ġeditor	25635
Ġversions	25634
values	25632
ads	25615
Ġcontributed	25614
ĠRichard	25595
FP	25592
Ġrepresenting	25590
osing	25589
API	25586
uation	25583
Ġuns	25581
About	25580
Ġplenty	25577
Ġste	25574
ANT	25572
positive	25571
Ġintra	25570
Ġproceedings	25569
Ġbeer	25568
Ġbasically	25562
Ġfacing	25559
ĠMI	25557
erate	25550
009	25534
ĠDem	25525
Ġexit	25524
imate	25518
Even	25515
PM	25511
icle	25501
ĠAmong	25498
Ġreceptors	25496
ĠRepublicans	25491
imes	25486
Ġtough	25485
make	25481
ih	25479
ocation	25478
Ġvillage	25475
Ġ250	25472
lines	25468
Back	25457
mic	25456
Ġextreme	25455
ĠJack	25446
Ġprogression	25444
Ġenhance	25442
Ġmapping	25439
Ġarbitrary	25438
%;	25437
PCR	25436
Ġminister	25416
dl	25406
Ġbra	25397
Ġteacher	25381
Ġattribute	25379
čĊĠĠĠĠĠĠĠĠĠĠĠĠĠĠĠ	25368
Ġinvolvement	25367
Ġyellow	25354
Ġmodes	25353
Ġwalked	25348
Ġgrounds	25344
Ġprepare	25343
Ġ1994	25343
Ġequally	25335
Ġinflammation	25334
Ġcoefficient	25327
Gen	25325
2003	25323
ction	25319
ĠLast	25316
Ġverdict	25310
Ġthickness	25308
Ġlymph	25308
Ġconsumers	25304
Ġisland	25302
Ġopposed	25300
Ġthrows	25296
ĠCard	25294
het	25293
Ġcircle	25290
ĠCarolina	25284
ĠBush	25284
Ġperforming	25281
Ġstimulation	25280
oun	25272
Ġregional	25269
Ġgen	25269
ental	25262
ader	25259
ĠFA	25259
El	25257
Ġmoves	25245
Ġequ	25239
Description	25235
Ġobserve	25234
Ġapplies	25232
osh	25230
Ġwinter	25228
wh	25224
rav	25221
Ġelectrode	25204
ĠAccordingly	25200
Ġagencies	25185
Ġfly	25184
usion	25178
Ġdiversity	25177
Ġlit	25176
Ġchamber	25176
alloc	25170
;</	25158
Ġdinner	25157
Ġcontrary	25149
Ġbet	25140
Ġpregnancy	25133
vm	25128
Ġbacterial	25116
Ġperiods	25111
fect	25106
Ġsatisfied	25105
105	25103
ĠOh	25103
ĠJackson	25103
COM	25095
ĠHE	25095
Red	25089
Ġkeys	25086
BD	25084
Ġstronger	25084
Ġlens	25084
Ġadjacent	25080
before	25078
angle	25078
ĠEX	25075
Ġmoral	25072
Ġbear	25068
Ġmissed	25062
Ġrank	25054
env	25043
Ġrows	25043
ĠGiven	25042
Sl	25039
Ġinstrument	25039
),\	25035
Ġcreates	25030
Ġdecline	25022
Ġwherein	25014
Ġdimensions	25014
ĠTop	25014
Ġpy	25010
ĠNetwork	25009
Ġmagnitude	25008
214	25007
Ġtail	25006
Ġmutant	25003
Ġsaved	25002
Ġstatistically	24998
Header	24997
Ġinsert	24987
Ġalert	24986
ĠAng	24974
round	24971
ima	24961
Ġshares	24961
ĠRo	24960
ĠUser	24958
Ġbegins	24956
Ġpermanent	24953
.âĢĻ	24949
Ġprofiles	24944
Ġongoing	24941
ilt	24940
Ġthereof	24935
Ġmoderate	24934
ĠPlan	24933
Ġ===	24930
ifies	24927
.$	24926
Ġopt	24926
Ġpur	24924
ĠYet	24924
kins	24921
arks	24919
ĠAmendment	24917
Ġcoefficients	24914
================================	24913
Ġmarkers	24900
Ġdecreasing	24900
ille	24891
ension	24889
015	24888
ĠWater	24882
Ġexcluded	24879
inst	24876
Ġbringing	24876
Ġstands	24875
Ġcomfort	24875
ailed	24874
Expand	24873
Ste	24872
two	24862
fil	24861
ication	24855
Ġnewly	24855
Ġconnections	24854
AY	24852
hal	24849
Ġreform	24848
Use	24840
Å	24839
ayer	24838
ĠForm	24837
cpp	24834
ji	24833
ĠSm	24820
Ġsymmetry	24799
Mon	24792
Good	24790
Ġmigration	24779
Ġefficacy	24778
rant	24774
cle	24774
Ġteachers	24772
Ġanxiety	24771
Ġvictory	24767
Ġrepeat	24760
Ãħ	24759
Ġfraud	24747
Ġconsequence	24745
Ġ$|	24745
born	24742
mathscr	24740
Ġsubset	24739
dep	24737
Ġrequiring	24735
ows	24728
Ġreader	24728
Ġlosing	24726
Ġ\-	24721
Ġcards	24701
Ġmanufacturing	24700
Ġselling	24698
Ġcommission	24692
replace	24675
Ġcomplications	24673
Did	24671
HT	24668
Ġadequate	24662
Ġextracted	24659
Ġrecover	24658
ĠNext	24657
Ġlisten	24655
Ġtargeted	24653
jo	24651
Ġsick	24650
Location	24648
ded	24643
"}](	24642
por	24640
weight	24639
Ġattend	24635
Ġintermediate	24633
example	24627
Ġsemi	24608
Ġplanet	24607
VER	24605
Ġlesions	24603
Ġfoods	24603
Ġinjured	24599
elt	24583
Ġdelete	24583
sf	24582
Ġdealing	24579
Ġunf	24578
BB	24577
Ġuniverse	24577
ĠSimilarly	24572
lor	24568
aving	24560
Ġpredict	24560
Ġsuspect	24551
ĠWh	24538
display	24536
ten	24533
posed	24526
ĠAnalysis	24525
ĠMat	24523
Ġtrained	24517
erman	24516
agn	24510
1999	24508
áĢ	24502
Ġrender	24495
His	24494
Local	24493
Ø	24483
omy	24482
uous	24478
ĠAv	24471
Ġdiagnostic	24467
pan	24456
ĠBi	24445
ood	24440
Second	24430
Ġ),	24428
{(	24427
cut	24426
Ġ{}	24423
Ġmutation	24422
Ġ77	24413
ctx	24406
Ġusage	24406
2002	24400
ĠRec	24395
ĠNon	24392
Ġcomputed	24384
Ġinstances	24369
Ġbrings	24368
ĠĠĠĠĠĠĠĠĠĠĠĠĠĠĠĠĠĠĠĠĠĠĠĠĠĠĠĠĠĠĠ	24363
ĠBoston	24350
Ġwearing	24349
Ġcart	24348
Ġshouldn	24345
180	24342
Ġmoments	24340
ĠArmy	24337
rag	24336
normal	24331
Ġdiagram	24330
Ġprotest	24325
Script	24320
ni	24309
thread	24308
Ġreserved	24308
Â²	24283
Ġfaces	24279
ĠBlue	24278
Change	24277
Ġcalculations	24276
ience	24263
Ġassist	24261
Ġactivated	24259
Ġtruck	24254
Ġrational	24253
External	24251
address	24250
Ġfr	24249
Ġtechnologies	24247
ĠFROM	24225
Ġapartment	24221
112	24220
osa	24216
Ġreviews	24215
ground	24212
İ	24205
Car	24203
Ġve	24202
Ġrely	24201
Ġkernel	24199
ĠDespite	24199
Most	24184
Ġpit	24184
103	24181
Ġsight	24180
umin	24176
front	24173
internal	24171
Ġdecay	24171
access	24168
mt	24161
ĠME	24159
Ġ<=	24140
Top	24136
}.$$	24130
Ġlip	24125
idd	24118
020	24116
when	24107
Ġdifferentiation	24099
ĠOrder	24098
Ġcardiac	24095
Like	24094
800	24092
Ġ::	24091
iling	24087
Ġallegations	24087
oral	24085
Ġ1993	24084
zo	24076
Ġunsigned	24076
Ġaff	24074
Ġalgebra	24072
ĠReport	24066
Ġ69	24060
ately	24057
Ġelected	24056
including	24054
;\	24054
Ġchicken	24053
Ġcloud	24048
ault	24043
anda	24039
ĠBased	24037
iver	24036
ĠMike	24036
Ġdedicated	24035
limits	24033
Ġchecked	24032
Ġ1992	24029
Ġclassified	24017
rist	24016
ested	24016
Spec	24010
Ġsatisfy	24010
Comp	24008
Column	24004
BU	24004
Ġchose	24004
ARD	23999
Ġseriously	23995
Ġordinary	23991
Ġrenal	23989
Ġsurprise	23987
Ġprefer	23987
Ġcolon	23982
ĠMod	23982
foot	23972
Ġrevenue	23970
Ġvary	23968
Ġfed	23964
ĠTrue	23964
Ġtract	23961
Ġdistributions	23959
Ġinvolve	23956
Ġbits	23954
Ġ<-	23953
Ċĉĉĉĉĉĉ	23946
ĠÃ©	23942
.^[@	23940
ĠRob	23940
Ġgalaxies	23937
Ġaged	23931
orted	23930
Fe	23930
Ġhistorical	23927
Ġanywhere	23921
FD	23920
Ġsnow	23913
IE	23909
ried	23904
ili	23891
namespace	23884
ipp	23883
anes	23881
Ġ&=	23877
Ġvis	23875
Application	23873
Ġcorrection	23871
Ġax	23869
Ġcutting	23866
ĠFed	23864
ĠChristmas	23864
Ð½	23858
Ġpresents	23855
Ġmatches	23853
device	23839
ĠWall	23839
ĠRight	23838
what	23831
Ġhist	23828
Ġtheoretical	23827
Ġwarrant	23821
Ġvaluable	23803
Ġperfectly	23802
Ġpartners	23787
Ġsi	23784
Ġbreath	23784
rb	23780
ART	23777
ĠMake	23766
Ġlattice	23760
Ġdiagnosed	23757
Ġtab	23749
Ġillness	23741
Ġmetabolic	23739
Ġtoken	23730
Ġprediction	23730
ĠTeam	23730
Ġmom	23729
raz	23724
LD	23722
ĠFire	23716
Ġlaunched	23710
}\\	23702
Ġtheme	23695
Ġil	23684
Ġincubated	23677
,$	23675
Ġdataset	23670
Ġdiffer	23667
ĠRem	23660
Ġdress	23658
full	23655
nm	23653
Ġbytes	23648
Ġcarefully	23641
itter	23635
rypt	23629
Ġacademic	23629
Ġchest	23626
ĠRock	23625
menu	23621
Ġtranslation	23617
Ġstatutory	23613
ĠImage	23613
Ġ84	23613
ste	23611
Ġrem	23601
Ġmail	23600
Ġbridge	23598
ĠFrank	23598
install	23596
Ġ78	23593
Val	23591
ĠYOU	23587
Ġcream	23581
ĠThanks	23579
bt	23578
]"	23578
Ġexecution	23576
Ġgauge	23573
Ġspec	23571
Ġshoot	23570
}-\	23564
Ġur	23564
dec	23559
pers	23557
Ġafternoon	23554
ĠHol	23554
Ġce	23547
BM	23546
OB	23545
Ext	23545
Ġstaining	23542
Dr	23532
Ġà¤	23530
formed	23528
Ġmill	23528
click	23523
Ġbind	23523
ĠParis	23522
Ġride	23520
ĠClub	23513
Ġpour	23510
Ġmeta	23510
Ġthousand	23509
ury	23502
izations	23502
Core	23502
ĠCharles	23499
ĠAngeles	23496
PG	23494
oids	23489
Ġinfrastructure	23489
Ġbreaking	23485
Ġwelcome	23482
Ġ74	23473
lement	23469
Ġeducational	23469
Ġyesterday	23468
THE	23464
Ġrounded	23458
ĠĠĠĠĠĠĠĠĠĠĠĠĠĠĠĠĠĠĠĠĠĠĠĠĠĠĠĠĠĠ	23457
race	23455
ĠEm	23454
eline	23449
ause	23448
Ġhardware	23448
Ġma	23446
ĠSpecial	23446
face	23442
ometric	23437
Ġmonitor	23435
elf	23430
Ġast	23427
ĠError	23423
ken	23421
Ġmetabolism	23418
Ġinsulin	23418
Ġdomains	23417
remove	23416
ĠReal	23416
During	23403
Ġloaded	23399
ĠTra	23399
Ġli	23394
Ġdrinking	23394
rated	23392
Ġ180	23392
Ġpen	23389
).$$	23386
Ġreferences	23385
Ġsufficiently	23381
Ġ88	23379
ĠMD	23376
Ġurban	23374
Ġcontends	23374
location	23364
ĠBefore	23364
ĠNov	23360
Ġ98	23357
Ġroutine	23356
Ġmild	23356
Ġintake	23355
Ġcarrier	23352
Ġcomplexity	23346
Ġpartially	23342
aming	23338
Ġimposed	23336
Ġneighborhood	23334
ache	23315
102	23308
ĊĠĠĠĠĠĠĠĠĠĠĠĠĠĠĠĠ	23304
ike	23302
Ġmit	23296
ja	23287
Ġdisclosed	23287
Ġ97	23279
Ġconservative	23273
Ġsomewhere	23272
Ġengage	23268
product	23261
Ġyields	23259
Mar	23255
ingly	23249
Ġtables	23243
Ġcontrolling	23241
iser	23231
123	23230
ITY	23229
ĠOld	23227
Num	23226
Ġgra	23214
ĠWomen	23208
Level	23205
Access	23205
Ġnumerical	23203
kt	23199
ĠNor	23198
oom	23189
Ġcomparable	23187
Ġreveal	23184
Ġinduce	23184
Ġbelieves	23181
mediated	23175
Ġresolve	23175
Ġstroke	23173
Ġdict	23172
ody	23167
bling	23159
then	23158
Ġjourney	23151
Ġdanger	23150
tmp	23146
Ġconstraints	23139
}[	23123
Ġcomprehensive	23121
Ġcommit	23120
antly	23117
ather	23112
Ġbehalf	23112
omb	23098
Ġadmission	23093
Ġwest	23090
ĠBritain	23090
Ġtens	23088
vi	23086
Pi	23074
urb	23068
Ġmarketing	23068
Ġbutter	23065
Tree	23061
Ġserves	23047
Ġintroduction	23042
ĠCorporation	23041
}({\	23037
Ġtrigger	23036
such	23033
Connection	23031
ports	23030
meta	23020
ĠCase	23019
iously	23015
Ġcache	23013
Ġhonest	23011
ables	23006
Url	23005
aur	23004
'),	23003
Ġdiscrimination	23000
Ã©s	22996
Ġuniversal	22995
rows	22992
itions	22992
Ġinclusion	22990
Ġblind	22984
uri	22968
Ġhandling	22961
rog	22958
Ġdivide	22948
Range	22946
Ġsand	22944
HC	22940
Ġexplicitly	22938
Ġgel	22925
Ġchallenging	22925
ĠBusiness	22924
Task	22920
textbf	22918
Ġsampling	22911
Ġevil	22911
Ġtherm	22909
Char	22908
Ġgrew	22897
Ġcited	22893
Ġbu	22890
Ġimm	22886
URE	22879
Pr	22879
ĠAustralian	22877
Ġsimultaneously	22867
Ġsteel	22866
ever	22859
)$$	22854
ĠSN	22851
grade	22848
Ġbread	22848
Ġwheel	22846
params	22844
130	22843
Ġalive	22840
should	22824
ras	22824
Ġprofit	22816
Ġmales	22811
Finally	22801
ĠSen	22799
Ġneural	22797
DIR	22796
Ġclassic	22779
sur	22774
Ġdenominator	22767
ĠCell	22767
ĠToday	22766
Ġvariations	22765
ĠLi	22764
Ġhealthcare	22753
Ġgreatly	22745
war	22743
ĠTechnology	22739
just	22732
change	22723
Ġbas	22716
store	22712
Ġresponded	22702
âĢĭ	22701
DP	22698
Ġprovider	22693
Ġfarm	22692
mission	22689
Ġamplitude	22685
]{}]{}	22684
quot	22683
Ġelectro	22682
ander	22681
auth	22675
Ġeast	22670
ĠExt	22669
Ġcopies	22668
anced	22667
ibly	22666
Ġimproving	22664
van	22655
}]	22654
Ġquantity	22654
ĠMiss	22653
Ġafford	22637
prod	22632
377	22631
Ġingredients	22631
Ġfewer	22626
%).	22623
Ġproud	22614
Med	22612
ĠLouis	22611
ĠHR	22607
014	22604
Ġpenalty	22603
lev	22592
omer	22591
Select	22590
Ġmarker	22589
years	22582
ĠMiddle	22580
iment	22573
known	22570
vy	22563
ĠPage	22563
ĠOK	22563
Ġapproximation	22562
eller	22558
ĠFox	22552
Ġcorrespond	22546
lex	22542
Ġsky	22540
Ġ76	22538
Ġpulse	22534
Ġpot	22534
eral	22533
Ġcohort	22530
ĠPen	22528
ĠHTML	22526
Ġsending	22525
Ġmovies	22525
Ġelevated	22525
ĠJr	22525
Ġdrivers	22518
ĠPut	22516
they	22514
Ġtele	22514
ĠDetermine	22513
stat	22510
ston	22503
addr	22503
Ġcodes	22498
Ġnamely	22496
LC	22483
Ġomitted	22476
byte	22475
Ġrooms	22474
)),	22472
Ġ**(	22472
itive	22469
Ġnearby	22465
ĠSQL	22464
aves	22462
Ġcomparing	22444
Current	22440
Ġdifficulty	22440
Ġsharp	22437
Ġsignature	22436
Ġblow	22431
asc	22427
Ġpapers	22426
ĠJoe	22426
ĠIllinois	22416
opl	22410
Ġrejected	22410
Ġvariance	22407
ĠGa	22402
ĠBest	22401
pert	22399
ĠJava	22399
Does	22384
ulations	22380
OG	22379
pect	22375
ĠNY	22375
lect	22373
Ġcommitment	22373
------------	22371
Ġleaf	22366
ional	22354
Ġprecisely	22353
ression	22350
ĠLocal	22349
ĠHam	22346
Ġfifth	22337
ĠMedia	22334
ild	22333
Ġobj	22333
column	22331
IVE	22325
Ġinequality	22318
ĠIF	22306
Ġcre	22304
Ġexplicit	22302
Ptr	22301
ĠCivil	22299
parse	22291
Ġter	22289
Ġ71	22287
ĠWork	22282
111	22281
Ġinvestors	22278
ĠValley	22278
amin	22273
Ġmachines	22272
VM	22269
ĠItaly	22265
Ġhasn	22262
Ġatoms	22250
Ãł	22247
Ġscientists	22242
Ġreward	22240
Ġmatching	22240
<\	22233
Ġbuying	22229
Ġfemales	22219
Ġpos	22213
Ġsemiconductor	22211
,$$	22202
|^	22197
ĠForce	22197
Str	22194
Ġnaturally	22194
ĠMag	22192
ĠEnergy	22191
ĠÏ	22188
ĠYear	22187
ĠCons	22186
ĠAlex	22186
roph	22184
aver	22182
ĠNA	22182
Ġbusy	22179
åħ	22177
Ġdoctors	22177
Ġaudio	22171
ĠMichigan	22170
ĊĠĠĠĠĠĠĠĠĠĠĠĠĠĠĠĠĠĠĠĠĠĠĠĠĠĠĠĠĠĠĠĠĠĠĠĠĠĠĠĠĠĠĠĠĠĠĠĠĠĠĠĠĠĠĠĠĠĠĠĠĠĠĠĠ	22170
Ġbur	22169
WS	22165
ĠAsia	22163
icated	22159
atives	22159
DI	22157
background	22155
!âĢĿ	22147
mal	22135
ype	22134
Ġ73	22134
Ġbroke	22133
Ġadministrative	22130
aka	22129
fi	22126
lying	22125
\^	22114
Ġ$\{	22109
Ġ++	22105
Ġjump	22104
iant	22092
Once	22092
Ġminim	22089
ori	22085
arrow	22085
ipping	22084
ube	22081
Ġscored	22077
Ġelections	22076
Ġhal	22075
Ġmeasuring	22074
Ġinit	22073
west	22070
ĠPT	22069
Br	22068
Ġ130	22066
Ġargs	22063
Ġrestricted	22062
ĠDM	22061
Ġcoordinates	22059
aks	22057
hor	22056
erson	22053
blue	22052
ĠResults	22051
Ġcert	22048
ĠCP	22043
104	22040
Ġcareful	22038
ĠBY	22038
Ġenabled	22037
mi	22029
Ġperipheral	22026
Ġsurprised	22024
site	22016
Ġprivacy	22014
Ġri	22012
Ġstrict	22011
Ġreduces	22011
Ġmodification	22010
ĠCatholic	22010
Ġriver	22009
Ġadjusted	22006
ĠBack	22002
ason	21999
Fl	21998
ĠAmazon	21981
Ġproven	21978
FO	21976
NP	21974
Ġscheduled	21971
Ġparticipation	21970
final	21967
Offset	21959
Ġdiverse	21956
Non	21953
Ġfer	21952
Ġnotion	21946
ĠTrust	21945
week	21941
Ġ94	21940
hood	21937
018	21936
about	21935
life	21934
Ġcomposed	21934
Ġbulk	21932
ĠMass	21932
will	21931
ipped	21930
Ġfil	21929
Ġabsorption	21927
Ġfeelings	21924
Ġindependently	21923
rep	21919
}^{-	21916
docs	21910
ament	21906
ĠWal	21898
uted	21894
WE	21893
Cal	21892
Ġtrace	21878
matrix	21870
}})	21867
there	21865
Ġmistake	21863
Ġera	21863
ĠWood	21853
Ġfin	21849
amm	21848
Ġcovering	21847
Ġanymore	21847
email	21844
ĠRet	21841
Ġarmy	21838
Ġrain	21836
Ġunt	21833
Ġcontinuing	21833
MENT	21832
ĠDescription	21828
Ġkinase	21823
ests	21819
Ġpresidential	21819
Ġtiming	21817
sys	21815
Ġcable	21815
Ġsettlement	21814
ester	21808
erve	21808
Ġsad	21800
ĠKim	21795
master	21791
Ġcheap	21789
Ġheads	21774
Come	21772
Ġloading	21772
ĠCEO	21768
Ġadds	21767
Height	21762
ologist	21758
Ġlipid	21758
Ġhy	21757
Ġlists	21755
materials	21753
Ġsqu	21751
Position	21738
usr	21731
ĠDev	21731
Ġprogramming	21724
Ġcrimes	21724
ĠPet	21716
ĠAp	21716
Ġtalked	21715
Ġcommunications	21709
encies	21708
Ġkid	21708
raction	21705
Ġease	21704
ĠRest	21700
\}$	21695
fire	21694
ĠDavis	21694
Ġaircraft	21691
Ġclosing	21690
ĠPS	21687
Left	21686
Ã§	21681
ĠCreate	21673
John	21672
Ġgenerating	21668
Ġherein	21665
Des	21664
Provider	21658
Only	21658
stone	21650
Entry	21648
Ġopinions	21644
Ge	21640
ĠChapter	21640
ĠDate	21638
Ġgu	21637
ĠSource	21637
ples	21631
ĠMax	21631
Ġyards	21626
Ġreceiver	21626
â	21623
ĠManagement	21623
Ġexecuted	21612
Look	21598
Ġexhibit	21596
Ġprecise	21595
Ġpriority	21581
ĠNumber	21581
Ġwealth	21580
verse	21578
ĠPrime	21576
vol	21574
Ġpetitioner	21573
Ġpartition	21573
white	21568
.;	21568
Ġquiet	21565
ĠSyria	21563
Ġvectors	21560
Ġlocally	21555
Ġwaves	21554
>\	21553
disc	21540
ĠSi	21538
Ġafraid	21537
Ġlegs	21535
irm	21533
unch	21532
Ġradical	21526
','	21525
fd	21517
ĠLight	21514
ĠYoung	21508
Ġserial	21504
Ġgarden	21500
Ġfailing	21499
SET	21498
abl	21496
Ġpolymer	21495
Ġrefers	21493
Ġdeclare	21491
Ġchair	21489
Ġwhenever	21485
Ġ{{	21482
ĠChris	21479
tw	21478
Ġsuddenly	21476
xx	21475
Ġbin	21473
Ġos	21466
Ġcuts	21461
Ġcrazy	21445
KE	21444
ĠSO	21443
Ġfrequent	21442
ached	21435
Ġhouses	21434
017	21431
Ġaimed	21428
Ġmo	21419
ĠIC	21411
ĠFour	21410
,{\	21405
Ġ1991	21403
Ġinhibitors	21394
Ã¢	21393
Ġtaught	21387
Ġtemporary	21381
dp	21376
GB	21371
Ġsuppress	21371
req	21367
ERROR	21364
rr	21363
grad	21363
Ġforum	21360
Ġmut	21357
Ġhook	21353
Ġprim	21352
ĠApplication	21351
ĠAction	21349
atively	21346
Phys	21346
Ġexpenses	21343
Ġbath	21342
117	21337
Ġsubt	21336
Ġcultures	21335
cache	21333
ĠFar	21333
Ġfunc	21331
ĠSpace	21325
Entity	21324
rip	21319
Using	21317
ologically	21316
Ġho	21313
Ġweapon	21310
inv	21308
Module	21304
Ġsuppose	21304
Debug	21299
Ġdominant	21298
Ġproduces	21292
Ġencourage	21284
ĠProposition	21283
Ġ79	21282
types	21280
Ġtranscript	21279
unit	21278
Ġstrange	21276
Ġupdates	21272
VA	21268
ocal	21265
Att	21264
ĠPo	21260
debug	21251
ĠÎ	21249
ĠCross	21245
cing	21244
have	21241
ĠSM	21240
Ġteeth	21234
Ġwatched	21230
Ġwestern	21228
CTION	21224
ĠDef	21217
Okay	21209
Ġ}\	21207
ĠCur	21204
Ġattributes	21202
Ġproviders	21195
Ġplurality	21195
ĠRights	21195
ĠMel	21192
ĠKn	21190
Search	21181
Ġreasonably	21180
PER	21177
Ġalt	21174
Ġ83	21170
ĠThank	21167
Ġshoulder	21164
Ġorientation	21164
Ġfrequencies	21159
Ġ>>	21158
Ġignore	21157
Ġbroadcast	21156
she	21148
Ġstreets	21147
Ġvertex	21146
ĠPolicy	21145
Ġprocessed	21140
ĠDan	21138
Ġtrading	21137
Ġ125	21134
Ġking	21132
Ġcrack	21131
Ġnerve	21125
ĠCount	21125
Ġ\"	21124
ums	21120
Port	21119
Ġinteract	21119
ä»	21118
Equal	21118
119	21118
Sch	21116
Ġawareness	21110
pres	21109
Ġdiscover	21107
bra	21097
():	21097
Ġlosses	21092
anti	21082
iro	21080
Ġtiny	21076
Ġ87	21074
<!--	21070
vs	21068
ami	21067
ĠMad	21058
aser	21052
ĠRoman	21052
world	21051
Section	21043
Ġsilver	21042
Ġsyn	21039
Op	21037
Collect	21037
Ġwitnesses	21037
Parameter	21033
Ġvalve	21023
Under	21020
Ġimprovements	21020
fill	21007
Ġplates	21003
apping	21000
Ġsomehow	20998
ĠUV	20998
107	20994
osp	20981
ener	20973
bre	20969
Ġgeneric	20963
Ġ82	20963
Ġmarks	20959
Ġvascular	20956
ĠGlobal	20951
Tag	20948
127	20947
Ġcolour	20947
iller	20946
ipe	20939
Ġtalks	20937
Ġtank	20934
Ġlawyer	20933
Ð»	20932
Ġexplains	20931
ĊĠĠĠĠĠĠĠĠĠĠĠĠĠĠĠĠĠĠĠĠĠ	20925
Ġbre	20924
Ġfluorescence	20923
Ġ93	20913
Ġholes	20909
itude	20905
Ġtea	20905
Ġdivisor	20903
Ġlayout	20899
ĠLow	20898
Ġ89	20894
Ġ($\	20888
Ġantigen	20887
handle	20882
days	20878
Ġorganized	20875
----------	20874
Ġvideos	20874
Ġstruggle	20873
231	20872
Ġsuffer	20869
Ġgoverning	20869
Ġreturning	20867
ject	20863
cript	20863
ĠÃĹÂ	20858
mean	20852
ception	20846
Â¿	20843
Ðº	20835
Ġmanufacturer	20835
Dir	20834
TV	20821
Ġpersonnel	20813
ĠTw	20807
'_	20801
Ġadapt	20801
IX	20799
Ġweren	20798
Ġrespiratory	20798
ĠWilson	20798
ĠFood	20796
Ġunlikely	20791
Ġcrowd	20787
Ġroughly	20783
Process	20779
Ġ})	20779
Ġgang	20771
ĊĠĠĠĠĊĠĠĠ	20771
217	20765
Ġchart	20764
Â®	20755
Ġpermitted	20755
./	20745
ĠMap	20743
016	20742
Ġarchitecture	20742
iction	20736
Ġdirections	20736
Î	20733
232	20733
TER	20732
who	20728
Ġpassage	20728
ACK	20723
Ġ115	20718
}"	20715
ĠLie	20714
Ġmodules	20713
tree	20709
Ġcooking	20706
Ġrecipe	20705
family	20704
Ġchecks	20704
ĠSU	20702
Ġuncertainty	20698
ĠSign	20697
Ġearn	20690
Ġ92	20687
Ġelsewhere	20686
Ġdb	20683
Theta	20680
ĠHel	20674
ĠShow	20651
ĠRepublic	20651
Ġcovers	20646
Ġscan	20645
Ġsubmit	20642
Ġmeal	20641
Ġrestriction	20639
Ġgeometry	20637
sd	20634
Ġparking	20631
Ġ86	20630
Ġdeviation	20629
Case	20628
Ġovercome	20624
Ġsil	20622
ther	20618
Ġwet	20618
Ġ"/	20618
Ġbounded	20616
aws	20612
ners	20610
ometry	20609
?'	20604
WH	20599
Ġsoul	20597
ĠIsraeli	20595
Ġsodium	20593
linear	20591
Ġconsisting	20586
Ġcompute	20586
Ġfolder	20584
Activity	20582
ĠHD	20582
ĠMuslim	20574
mut	20572
Ġcycles	20570
ifications	20569
Ġpoll	20568
ĠGal	20563
iler	20561
ĠPal	20559
Ġplea	20554
inking	20552
Ġextraction	20552
Ġkeeps	20544
140	20542
Ġutility	20541
Ø§	20537
aled	20536
Ġpaths	20534
Ã¨	20532
ĠMiller	20528
Ġ1970	20526
1998	20519
Ġboat	20519
Ġear	20516
Ġcontracts	20516
Ġdisability	20514
Ġmarijuana	20513
Ġemb	20513
Ġseasons	20512
gn	20504
activity	20503
IGN	20498
Ġalgorithms	20497
Ġ..	20497
icate	20495
Title	20491
Ġaffects	20491
Ġconclusions	20488
Write	20487
thm	20486
oked	20481
uro	20480
Ġdiff	20478
Î³	20468
CK	20462
session	20460
Ġgiant	20460
ĠGar	20456
power	20452
oplus	20440
UC	20437
copy	20434
Ġ119	20433
iqu	20429
akers	20428
Ġcleaning	20428
Ġpeptide	20422
Ġtheories	20421
Ġsing	20420
rect	20418
ager	20418
vo	20414
Ġmedication	20413
send	20411
dict	20408
Ġconverted	20407
ĠCS	20407
ĠPL	20406
ĠCommunity	20406
aven	20404
ĠLu	20401
super	20400
ĠSu	20400
-----	20398
Ġconsiderable	20395
Put	20385
Ġflash	20384
Ġreaders	20383
actic	20381
Ġbyte	20381
ĠÑģ	20379
../	20377
ĠIslam	20366
Ġgay	20365
-----------	20362
ĠCook	20361
CU	20357
Ġavailability	20356
Ù	20355
Ġonset	20354
Ġ91	20352
Ġ$[	20349
Ġdispute	20341
Ġlunch	20340
textrm	20338
ĠBre	20337
Ġrobust	20332
Ġinvalid	20332
108	20331
ials	20330
making	20327
Ġradi	20327
DNA	20325
Ca	20322
Ġpowder	20321
Ġrub	20316
Ġsong	20315
ali	20313
Ġresolved	20313
atter	20311
Ġviewed	20302
care	20300
fin	20299
layer	20293
dc	20289
Ġmaintaining	20285
ĠBon	20284
ĠUI	20282
Ġbowl	20278
ĠDR	20270
Ġpushed	20267
ĠPakistan	20265
rin	20261
Ġpersonally	20257
Ġsim	20251
Ġ111	20251
ĠGR	20250
ĠLine	20247
ĠPres	20242
Fs	20237
Ġprevention	20237
comment	20234
don	20232
================	20232
export	20231
igation	20230
Ġcompletion	20224
Ġentries	20222
ĠMain	20216
uls	20214
Par	20214
Ġstrings	20212
Ġ((-	20207
Ġfa	20204
enter	20203
Ġconvicted	20203
ĠWil	20196
Ġadvantages	20194
Gl	20191
hash	20190
Ġappreciate	20190
Document	20188
ĠOfficer	20188
Ġrural	20182
MAX	20181
Ġpaint	20178
Ġguarantee	20173
Types	20172
Ġevident	20172
Ġfired	20167
ĠÐ²	20159
Ġbarrier	20156
Ġep	20145
Ġdysfunction	20145
Step	20134
Ġownership	20134
Ġdiscussions	20134
igen	20129
Init	20128
ĠWT	20126
hers	20125
Ġsequencing	20125
istics	20124
ĠVan	20122
Ġscattering	20117
km	20115
Ġhousehold	20113
Load	20106
Ġphenomenon	20098
iny	20090
Ġteach	20084
Ġfiling	20083
ield	20082
ĠArm	20082
Ġ\|	20079
draw	20074
Ġ(âĢľ	20067
Ġregularly	20063
Ġtape	20061
OCK	20060
Ċĉĉĉĉĉĉĉĉ	20059
ĠPH	20057
Ġcompeting	20042
ĠSouthern	20040
negative	20039
'\	20038
inary	20034
Ġì	20033
ĠStat	20033
Ġoperated	20025
Ġarch	20024
Ġatmosphere	20013
Ð²	20010
uting	20010
FI	19999
Ġrice	19998
ĠWITHOUT	19997
Ġcomprising	19987
stack	19984
sql	19980
Unit	19975
omet	19973
Total	19970
wa	19969
ĠItalian	19969
Ġquantitative	19967
Ġcenters	19965
Ġboot	19965
Ġcouncil	19961
ĠRay	19958
Ġthinks	19956
del	19948
Ac	19934
Ġfre	19931
Ġentering	19927
May	19926
augh	19924
ĠÂ¶	19922
Ms	19919
ĠHenry	19919
ez	19917
black	19916
Ġsystematic	19911
omas	19908
ĠCentre	19906
total	19903
^{-\	19903
nn	19902
fc	19900
Ġverify	19900
unsigned	19899
ĠLA	19892
Impl	19889
Ġegg	19884
Ġnamespace	19878
+^	19876
Ġworker	19876
ĠSpanish	19876
Ġsustained	19869
Ġgovernments	19865
rian	19864
container	19864
SIZE	19864
Am	19864
Ġsatisfies	19856
INE	19855
Ġsport	19855
Ġaccumulation	19855
Ġfalling	19854
Long	19852
olution	19851
CB	19847
Ġcaptured	19841
}}$.	19839
Ġtelephone	19837
Ġann	19837
Make	19836
}}}\	19834
wedge	19826
Ġvacuum	19826
unc	19822
Ġhack	19819
ĠWhether	19818
ptic	19812
Ġattract	19812
bert	19809
Template	19808
aved	19806
Ġreaching	19801
Ġexpanded	19797
Ġdemands	19792
Listener	19791
Ġinterventions	19790
security	19789
sen	19784
Ġremoving	19780
Ġcolleagues	19777
Http	19776
-------------	19774
Ġdismissed	19773
Ġcrew	19773
Ġhorizontal	19771
ĠStandard	19766
Ġstorm	19762
ĠTor	19762
Ġrecommendations	19760
ution	19757
Ġcry	19752
Ġtomorrow	19736
Ġdegradation	19727
han	19726
Ġqualified	19725
Ġnervous	19722
ĠÂ°	19719
Ġinvasion	19715
Ġportions	19711
ĠServer	19705
Ġfalls	19703
<?	19702
Ġprofessor	19702
Ġincorporated	19699
Ġdest	19699
Ñĭ	19697
Ġexclusive	19693
bon	19685
Ġbundle	19685
Ġ81	19684
Ġcoding	19682
isa	19681
Ġhide	19681
equ	19678
ashing	19676
Ġpsychological	19676
ĠED	19675
zero	19673
Ġ140	19673
ĠDep	19667
}}}}	19661
Ġaffirm	19661
ĠFrancisco	19654
Ġworldwide	19652
ĠNFL	19652
Ġdismiss	19650
his	19646
being	19646
Ġpackages	19643
ĠPE	19643
Ġ1989	19642
cess	19638
Ġmem	19638
ye	19637
ĠJersey	19636
Ġcycl	19635
Ġmasses	19630
Ġkidney	19629
Ġdestination	19625
Ġpack	19624
Ġgradient	19623
ĠEp	19623
domain	19618
Ġstations	19617
Ġcompetitive	19615
ORT	19613
treated	19612
instance	19607
Ġadministered	19604
ĠDid	19604
Ġsizeof	19599
Ġfaced	19593
Ġdat	19593
bro	19587
Ġ\;	19585
Ġassays	19583
ĠDefendants	19583
orth	19582
ERR	19578
ĠRad	19578
Ġhonor	19576
subseteq	19571
Ġ113	19568
works	19559
echo	19559
Ġscales	19558
Rep	19557
opic	19553
Ġstone	19547
ĠMen	19545
aine	19539
Ġseparately	19536
Ġancient	19536
ĠApache	19534
Ġinterference	19531
Ġeggs	19528
images	19524
áĥ	19523
Ġfolks	19521
olds	19518
actions	19513
Ġconcrete	19508
Tool	19506
Ġdecreases	19506
Container	19505
acing	19500
task	19494
gy	19493
Ġ112	19480
"))	19479
Ġphysics	19479
Ġstuck	19478
defined	19477
ĠFL	19476
GET	19472
Ġroof	19468
ĠPan	19466
Ġ1988	19466
Ġcraft	19463
Ġrose	19460
ĠStudies	19460
Ġvotes	19459
Ġintervals	19459
iced	19455
Ġmounted	19455
Ġfriendly	19451
stop	19447
printf	19435
Ġdeb	19423
Ġir	19422
Ġgod	19419
tx	19418
ĠAsian	19414
dat	19409
Ġ114	19408
_{(	19406
Ġtargeting	19406
ĠIM	19405
raft	19399
ĊĠĠĠĠĠĠĠĠĠĠĠĠĠĠĠĠĠĠĠĠĠĠĠĠĠĠĠĠĠĠĠĠĠĠĠ	19399
Ġaddresses	19398
ARY	19397
ava	19393
associated	19392
Ġgut	19388
oney	19382
Mark	19382
Ġpilot	19379
awa	19377
ĠGeorgia	19376
ĊĊĠĠĠĠ	19376
_,	19375
while	19372
Ġprote	19370
Ġoptim	19366
iva	19364
Ð°Ð	19359
ief	19359
Ġprofessionals	19354
}}}$	19353
Ġbow	19351
iders	19345
=-	19343
Ġautom	19342
green	19340
ĠConference	19334
Ġcreative	19332
Ġinterior	19331
ĠBob	19331
ĠHa	19330
bp	19329
aches	19329
Ġ(%)	19327
ĠDaniel	19326
ĠEqu	19324
ĠRam	19323
aste	19321
.]	19320
Ġroots	19320
*]{},	19315
Ġkit	19314
Ġvariants	19309
Ġburn	19309
Ġpromoter	19308
KEY	19300
ĠPay	19298
106	19297
bc	19296
Child	19291
ĠAbout	19286
Store	19280
Order	19280
nc	19275
Ġappointed	19271
High	19270
Ġtoxic	19270
ention	19269
Ġappeals	19268
Ġrising	19267
>.	19261
Ġanalyze	19261
ĠAnal	19255
Ġ----------------------------------------------------------------	19255
Product	19249
Ġheavily	19248
late	19244
insert	19243
Ġflexible	19241
setminus	19238
Ġconstitute	19237
Ġhash	19234
Ġpasses	19232
Ġexpressions	19232
GP	19230
Ġdrawing	19229
Ġprotective	19225
ĠRoyal	19223
Ġlikelihood	19222
Ġreflected	19216
Ġseverity	19214
wo	19211
Ġexpectations	19210
ĠTotal	19207
points	19203
Ġrib	19199
)_	19198
ĠMO	19197
Ġinsufficient	19196
ĠMcC	19196
Ġconsecutive	19194
izz	19189
Ġpara	19183
Ġbeach	19183
anch	19179
Ġabstract	19179
Ġbat	19177
Ġtensor	19171
Ġna	19169
Ġalignment	19161
oto	19156
Ġpor	19155
Work	19150
duct	19146
Ġratios	19146
Ġlimitation	19141
ĠBra	19141
Ġmovements	19138
Ġinfinite	19138
ialize	19136
ĠPatients	19136
Ġyeah	19135
Ġsolely	19134
Ġsoldiers	19133
Settings	19132
LO	19130
Ġdim	19126
Ġsimilarly	19124
Ġphosph	19124
spec	19122
ĠDist	19119
Ġvaccine	19116
Ġadvertising	19113
Ġsy	19110
Ġrelating	19110
Ġconstantly	19107
wards	19099
Ġfinger	19099
\*\*	19096
plus	19094
Ġbands	19093
uate	19090
rend	19087
Ġseeds	19087
xc	19086
game	19086
Ġhospitals	19086
Ġadmit	19082
Ġenzymes	19077
ĠALL	19077
command	19072
second	19068
Ġchip	19064
Ġbeauty	19057
Ġawarded	19057
Ġfoundation	19056
ĠBal	19054
Ġ$-	19053
gar	19052
Ġsees	19052
Ġoffensive	19052
Ġanswered	19052
Ġrestrictions	19042
ologists	19040
Ġglad	19033
ĠAndrew	19033
Ġengineering	19028
cmd	19024
abel	19022
ĠJoseph	19019
ĠLett	19015
Ġ('	19014
Ġsubjected	19011
ĠAcademy	19009
Ġjudicial	19007
Ġbike	19007
--------------	19006
Ġabsent	19006
Ġmeetings	19003
Ġ104	19002
ĠAge	18998
Ġmanual	18991
AMP	18989
Ġcomprises	18983
ĠMajor	18979
Ġsupplied	18978
Ġbro	18974
ĠAndroid	18971
ãĢģ	18965
Ġtemporal	18965
ĠTaylor	18963
Ä	18961
Ġ160	18961
rics	18958
global	18957
Ġintention	18954
åı	18949
Ġvarying	18948
ĠBook	18947
248	18944
Ġhoping	18944
Ġprojection	18943
ĠNorthern	18940
AE	18937
je	18933
hour	18930
168	18929
Ġcere	18929
oad	18922
ĠPlay	18922
window	18921
ĠAcc	18920
Ġproceed	18918
loop	18916
ĠTake	18912
pin	18908
token	18907
Ġalter	18907
Cache	18906
anal	18905
ĠRa	18905
GO	18901
Ġproceeding	18901
Ġvice	18897
ijerph	18896
Ġenjoyed	18892
Ġnations	18891
Ġfragment	18891
desc	18890
ĠPath	18889
Ġfold	18886
Ġimmunity	18883
omic	18881
Ġimplications	18881
bind	18880
ĊĊĉĉ	18877
Ġforest	18876
very	18875
`,	18875
Ġphysician	18874
Ġcheese	18873
----	18870
Ġaccessible	18865
Ġresidual	18863
Ġpixel	18861
Ġcoordinate	18861
Ġvalidation	18856
Ġexecute	18856
Run	18855
ĠPlaintiffs	18854
asts	18850
Ġ['	18844
ĠCam	18841
ĠTax	18840
lers	18838
Ġelect	18832
ensive	18831
ashed	18825
Ġcarcinoma	18824
ocyte	18822
Aut	18820
Ġdistinguish	18820
binding	18816
ĠGO	18815
ĠDesign	18815
ĠIslamic	18814
}}$,	18808
empt	18804
SELECT	18803
Ġacquisition	18803
ocket	18802
Ġages	18801
Main	18797
application	18792
ĠFollowing	18784
BT	18783
""	18777
Edit	18773
ĠEst	18768
uy	18767
ONE	18763
thing	18755
orph	18755
Ġslight	18755
wall	18752
ĠFBI	18752
Ġdump	18744
Ġ"$	18744
Ġlaid	18740
Ġlights	18737
ĠPennsylvania	18737
ĠOff	18729
Ġclothes	18727
âĢħ	18726
Ġcalcium	18725
Ġpatch	18715
Grid	18709
Ġbonds	18702
ĠSand	18700
LY	18699
Ġabundance	18699
lower	18697
Ġdefines	18696
ĠArab	18694
ead	18692
Ġsauce	18691
Ġfeeding	18688
LP	18686
NR	18681
support	18677
012	18677
Ġheating	18677
Ġbeneficial	18676
Sort	18668
bot	18661
ĠBeach	18649
Ġ102	18646
phone	18645
ĠMicro	18643
Ġcorporation	18640
Ġkm	18639
ĠMatt	18639
Ġtim	18638
plan	18637
Ġartery	18634
ĠLinux	18634
Ġbull	18629
Ġfusion	18628
Ġmsg	18623
chain	18619
Ġâī¥	18619
Ġassign	18614
Ġ117	18609
Ġdestroyed	18606
Mat	18604
Ġdestroy	18604
ĠâĢ¢	18602
Ġranging	18602
ĠIndex	18601
Ġspecify	18600
ĠAut	18597
orts	18595
Ġinstallation	18584
Ġang	18581
eman	18578
Mc	18577
Ġvitamin	18575
\>	18572
SV	18571
rig	18567
Ġassignment	18567
Ġâ	18566
connection	18557
Ġexport	18552
Ġimmigration	18549
ĠBro	18545
fore	18543
Ġdevelopers	18543
Ġpossess	18542
ĠRyan	18538
equal	18537
Ġdesirable	18537
ells	18528
}}(\	18526
ĠHy	18524
oul	18517
Ġ![	18515
]{.	18514
Ġpm	18511
ĠTHIS	18509
Ġpadding	18500
Ġerred	18499
Ġspan	18497
Ġhar	18493
Ġgrass	18492
Ġarmed	18492
git	18490
0002	18489
ologies	18488
Ġinsight	18488
Ġunusual	18485
Ġaltered	18484
ĠNevertheless	18481
Ġdys	18479
widget	18478
ĠAdministration	18478
Ġacceptable	18475
Ġeffectiveness	18471
join	18470
UE	18468
Ġbreach	18467
ĠSa	18466
Ġeligible	18465
dagger	18464
Ġearned	18459
310	18457
Ġluck	18457
Ġpreliminary	18452
Ġautomatic	18449
ando	18443
Ġstruck	18442
sy	18441
oses	18440
Ġconsistently	18431
uv	18429
ĠPass	18424
underline	18413
ĠPatent	18411
}}_{\	18407
Ġsessions	18406
ĠMaster	18405
Ġoccurrence	18402
Ġwound	18401
Ġbunch	18399
aked	18398
operative	18394
Device	18394
Ġvisited	18393
Ġmatrices	18393
comm	18392
ĠLtd	18391
Ġvoting	18387
Det	18386
Ġunclear	18383
è¯	18380
ĠFort	18379
Ġguidance	18378
Ġtre	18377
Ġconsult	18377
Ñı	18376
Ġrid	18374
Ġhorse	18372
Interface	18371
115	18371
.),	18371
eness	18360
Ġfacilitate	18354
ota	18351
Ġnormalized	18349
ĊĉĠĠĠ	18348
hot	18341
Ġinline	18340
resh	18339
Ġperceived	18339
ĠColorado	18338
Ġfac	18333
Ġsmile	18332
Ġending	18332
Ġtracking	18329
Ġpacket	18327
wrap	18324
ERT	18324
Ġmolecule	18323
yz	18322
Ġwake	18321
oking	18319
ANG	18318
Vector	18317
Ġarrangement	18315
Ġeverybody	18313
ometer	18310
rer	18306
iring	18306
ĠPython	18305
Ġangular	18298
Ġ\#	18298
sch	18297
help	18297
ĠPoint	18295
ĠSteve	18291
Sim	18290
Ġliberal	18290
ald	18286
Ġviolent	18283
ela	18280
``	18279
sem	18275
Ġtort	18275
Ġspiritual	18272
Ver	18271
ĠArch	18270
Ġatom	18268
Ġshit	18263
izable	18258
Ġskill	18256
ĠJim	18255
ito	18253
Ġshopping	18252
Ġhadn	18252
NF	18251
Ġ600	18251
oder	18249
Ġidentifying	18235
SQL	18232
Ġcomplexes	18232
'}	18231
ãģĦ	18230
gov	18226
Ġrarely	18222
Ġruled	18220
Ġrandomly	18219
asy	18218
Us	18218
-*	18216
Ġtreating	18215
ĠUnfortunately	18209
Ġattended	18208
ĠFamily	18208
plot	18206
Ġbelong	18205
ĠĊĠĠĠĠĠĠĠ	18199
enum	18198
116	18196
Ġpromising	18195
ĠIreland	18195
ogenesis	18191
Ġprecision	18190
person	18189
Ġstri	18189
Ġvital	18187
isk	18186
isting	18184
Ġchildhood	18184
cells	18182
ĠOct	18179
Ġpoliticians	18177
Ġdesigns	18177
Ġshorter	18176
ĠJews	18173
utions	18171
ribution	18166
Ġaging	18165
Ġinstitution	18157
Ġ109	18151
Ġintegrity	18148
zer	18147
rying	18147
Ġtransportation	18142
Ġtips	18141
acity	18140
interface	18137
channel	18134
kl	18133
ĠTown	18132
agen	18127
Ġdesc	18125
Ġultimate	18124
VC	18122
Ġchemotherapy	18122
STR	18121
Ġtall	18120
019	18119
Ġdeposition	18118
ĠSA	18118
Ġpointer	18117
Ġ105	18117
OF	18115
1996	18114
pton	18113
ĠØ	18112
Ġwashed	18111
Ġsole	18110
ĠArizona	18106
pop	18104
ĠDen	18102
Ġoxide	18101
Ġdeeply	18100
Ġpregnant	18097
Ġclause	18096
standing	18093
mond	18087
Ġbirds	18086
Cont	18084
Ġlifetime	18084
Ġ+/-	18082
Ġcollective	18077
Ġsteady	18076
Ġjoy	18074
Ġconcepts	18074
Ġ=\	18074
Dialog	18069
aced	18067
ĠJSON	18066
Ġsentencing	18065
Ġharder	18061
HD	18059
Ġquant	18058
ĠBL	18056
EXT	18053
ĠMedicine	18046
pid	18043
Ġbid	18037
through	18035
even	18032
ĠSeveral	18031
Ġeverywhere	18028
\_[	18026
Ġ<!--	18026
anks	18025
Ġsurvive	18023
Ġstrip	18023
ĠTri	18014
Ġresidues	18013
Ġforever	18013
itors	18010
Utils	18008
Ġlabels	18007
ĠSol	18004
ĠAccess	18002
Ġjson	17998
Ġamended	17997
Ġ118	17997
Ġallegedly	17984
Ġstat	17981
methyl	17975
Ġhybrid	17974
Ġphases	17973
Ġ["	17973
Ġwa	17963
cit	17962
Ġdisabled	17958
ĠIntroduction	17958
ĠĠĠĠĠĠĠĠĠĠĠĠĠĠĠĠĠĠĠĠĠĠĠĠĠĠĠĠĠĠĠĠ	17950
Ġ128	17949
čĊĉĉĉ	17945
auto	17939
Ġ1983	17933
ç»	17931
Ġpig	17920
ĠEll	17915
uz	17911
Ġdoctrine	17909
ĠCOM	17907
good	17906
1997	17906
Ġnewspaper	17902
ĠMR	17902
ria	17898
reed	17898
FB	17892
ifiers	17891
away	17890
Ġcampus	17890
Ġcomputing	17889
Ġanalog	17887
Met	17886
none	17885
Act	17885
mes	17882
Three	17877
ĠSeries	17876
zone	17875
Ġorth	17873
ĠHistory	17872
Ġfabric	17871
reference	17870
Ġfunny	17870
words	17869
roy	17869
Ġcurrency	17866
flags	17861
analysis	17861
SY	17855
Ġ106	17855
ĠRun	17854
\}	17852
Ġmonthly	17848
Show	17846
MOESM	17844
Ġdoors	17841
erc	17839
stra	17838
Ġ116	17838
Ġsymmetric	17837
upp	17836
ĠJo	17835
Ġcrash	17833
Ġacqu	17832
å¤	17830
Ġutilized	17830
Ġrepeatedly	17829
ĠCancer	17826
ÂĹ	17825
hspace	17818
Ġadopt	17812
Body	17810
Ġec	17810
Ġwrites	17807
Ġflavor	17801
ĠDam	17797
berry	17796
ĠMP	17796
Pol	17794
Ġaccompanied	17782
Ġmixing	17780
Ġenemy	17774
Ġoccup	17772
Ġexhibited	17768
Ġbankruptcy	17768
Ġlif	17758
iii	17756
yg	17754
Ġreporter	17752
Ġviolated	17751
ĠOl	17751
Ġlying	17749
Ġarranged	17749
otype	17738
ulator	17736
aki	17735
sn	17734
Ġsmoke	17724
Ġpulmonary	17716
Ġscalar	17714
Ġvessel	17712
Ġenvironments	17711
Ġchecking	17711
Ġmere	17710
inflammatory	17708
Ġexpl	17707
REG	17704
ĠMil	17703
Ġhabit	17699
adi	17695
Ġjet	17695
ĠEv	17694
Ġresidence	17692
Ġarc	17692
TL	17691
Ġrein	17691
à	17689
sect	17689
Ġ(@	17689
ĠSpain	17685
ount	17683
hem	17677
/.	17677
aded	17676
CN	17674
Ġoccurring	17670
gal	17669
Ġmitochondrial	17669
FILE	17666
Ġsurveillance	17664
Ġlanguages	17662
bd	17656
ĠHo	17652
ĠStudy	17651
Ġreveals	17650
esis	17649
Rect	17644
Ġhang	17641
Ġsed	17637
Ġtopics	17633
Ġstudying	17633
iana	17631
ĠLook	17630
ĠSn	17626
:=	17625
ĠConf	17624
Ġphilosophy	17623
à¬	17618
pool	17618
aneous	17617
Ġdisagree	17617
ference	17615
Ġvoted	17613
Ġreadily	17613
Ġjail	17606
Ġdeclined	17605
Ãª	17604
itary	17602
fast	17602
Ġfib	17597
Ġ×	17596
Ġrecovered	17596
ĠFunction	17596
Ġperception	17592
Ġdad	17592
member	17589
Have	17589
cles	17588
Ġadjust	17588
ÎĶ	17584
Ġ1986	17584
Ġsupporters	17582
arter	17577
enable	17573
blog	17573
ĠEastern	17573
ĠMid	17572
Ġorbit	17571
fields	17569
component	17567
hetic	17563
Ġpanels	17559
yan	17558
Ġreversed	17558
rett	17557
Ġprov	17555
ĠWeek	17554
press	17552
135	17552
-------	17549
cons	17546
ĠSpring	17546
ĠAgain	17543
Ġkick	17540
Ġderivatives	17540
ĠDue	17534
nl	17529
Expression	17527
Menu	17520
Ġlegislative	17517
Ġdefects	17514
Ġdoses	17513
language	17510
Ġembedded	17509
sv	17508
Ġinterpreted	17508
queue	17506
Ġmock	17504
tk	17501
Rel	17501
requ	17499
Ġtransactions	17495
ĠMethods	17495
LED	17494
Ġcorrelations	17494
ila	17491
Ġchem	17486
ĠAB	17484
PRE	17477
irt	17474
rous	17465
Ġputs	17455
ech	17450
Ġtroops	17450
Ġliked	17447
ĠÂĹ	17446
Ġstellar	17444
Ġbottle	17444
ĠCu	17440
ĠCM	17440
dem	17438
Ġtrail	17437
Ġunlike	17431
Ġmirror	17429
Ġresist	17427
Ġfibers	17427
Ġtub	17425
ĠChildren	17424
ĠJud	17419
Ġple	17416
hol	17411
ĠThough	17402
Ġwireless	17400
Ġcholesterol	17400
Ġprinted	17393
Ġduties	17391
Ġsystemic	17384
inks	17382
ĉĉĉ	17382
Ġprominent	17377
'>	17376
Ġprosecutor	17369
Ġpolar	17367
Ġ1987	17363
Ġlabeled	17358
ubs	17355
Ġrating	17354
Ġarise	17352
1995	17351
Ġdrag	17350
Ġcooling	17349
Hello	17346
Ġrect	17344
Ġexciting	17344
Ġrot	17339
Ġauthorized	17338
ange	17336
Ġpropose	17334
Ġparse	17330
Ġactor	17323
idence	17315
Ġexpressing	17312
Ġplug	17308
javascript	17305
Ġinfluenced	17305
Ġillustrated	17302
&#	17297
ĠWARRANTIES	17297
Ġassociations	17296
Ġsouthern	17295
Ġmountain	17294
clear	17293
azz	17293
Ġtone	17287
Ġcourses	17282
pen	17281
lation	17279
tbl	17275
Ġgained	17275
Ġprinting	17271
ulf	17256
ĠBer	17246
ĠLo	17245
Ġpending	17243
Ġdig	17240
"));	17239
Ġraising	17234
ĠBell	17234
Ġpret	17232
Ġattitude	17231
NG	17230
Ġdiscrete	17230
Ġloans	17227
ĠHand	17227
ĠImages	17224
Ġrear	17221
Ġintr	17221
Windows	17220
Every	17215
ĠStart	17215
Ġconnecting	17212
Ġknee	17207
Ġinspired	17207
supp	17206
Ġtension	17205
Ġvalidity	17204
EP	17200
ova	17199
oint	17198
cases	17197
ĠTer	17189
Ġsuicide	17185
Ġdom	17184
Ġstupid	17181
Ġnorthern	17179
Ġgalaxy	17165
Ġicon	17164
ĠThird	17163
ĠPacific	17162
(){	17161
Ġpitch	17158
track	17157
Ġcoast	17151
Ġhopes	17150
ĠFair	17150
âĪ	17148
aria	17147
Hi	17147
124	17144
LR	17143
Ġregistration	17142
scope	17139
category	17139
Ġprosecution	17138
109	17137
Ġsomebody	17136
Ġphenotype	17135
Ġignored	17135
Each	17132
cks	17130
Ġinvariant	17129
~*	17126
Ġcontacts	17122
Mac	17121
ĠCy	17121
ĠÂ	17120
profile	17118
Ġguest	17109
Ġresonance	17108
ulin	17107
349	17104
013	17101
ĠKingdom	17098
TP	17096
Ġisolation	17094
nie	17092
ĠWithout	17090
Tra	17088
Font	17087
.*]{}	17084
Ġgall	17084
Ġdenotes	17084
plugin	17082
yst	17081
because	17075
border	17073
Integer	17062
Ġpreventing	17061
Ġcardiovascular	17057
iber	17048
ĠAgency	17047
RR	17043
Host	17039
Ġhtml	17036
mask	17035
Ġtransmitted	17033
*~*	17029
Ġmor	17024
licenses	17023
Ġliterally	17022
Ġequilibrium	17020
ĠAgreement	17018
Ġgross	17017
Ġ"#	17016
mac	17015
kes	17015
ety	17010
oice	17008
à®	17006
ishes	17004
lie	17002
Ġexcessive	17002
Ġhero	16998
Ġcomputation	16998
Ġdiffusion	16993
diff	16991
United	16990
Ġprospective	16990
ĠHave	16989
Ġpounds	16988
Ġembodiment	16988
Ġeliminate	16985
othe	16984
Ġoste	16983
Ġfactory	16978
!)	16976
Ġdish	16976
---------------	16973
Ġextrem	16965
ĠLove	16965
ĠBR	16963
áº	16961
Has	16961
Ġswitching	16960
iological	16958
awn	16956
aux	16954
011	16954
ione	16951
Ġpublicly	16950
Ġgravity	16946
save	16944
ĠGames	16943
Ġedit	16942
Ġdefensive	16932
bal	16927
Reader	16924
Ġflour	16924
Ġphosphorylation	16918
Ġelectricity	16916
Pa	16912
PV	16911
Ġregulated	16908
Ġworried	16907
Ġtonight	16904
Ġphysically	16902
Ġobesity	16902
ĠAnderson	16900
ĠStr	16898
ĠInst	16895
ĠBitcoin	16893
Ġamendment	16891
short	16889
Ġdifficulties	16885
Ġdefect	16885
Null	16884
ĠWord	16881
ĠĠĠĠĠĠĠĠĠĠĠĠĠĠĠĠĠĠĠĠĠĠĠĠĠĠĠĠĠĠĠĠĠĠĠ	16877
Ġcombine	16876
Ġdestruction	16874
Ġdelayed	16873
Ġboxes	16873
Ġspecificity	16871
kn	16869
Ġcro	16868
SW	16866
Ġattractive	16866
Ġamb	16864
åĪ	16860
Ġdenial	16860
Ġip	16857
Ġunexpected	16856
Ġassumptions	16856
Ġnod	16853
perp	16851
Ġepisodes	16850
Ġlaugh	16847
Ġcoli	16842
Ġovernight	16841
Ġmethyl	16840
.(	16839
HL	16835
ĠZealand	16834
126	16831
lection	16829
Ġfounded	16829
Ġpoverty	16827
utter	16820
ĠConsequently	16813
Ġsearching	16807
Ġattributed	16803
oli	16799
mate	16799
ĠĠĠĠĠĠĠĠĠĠĠĠĠĠĠĠĠĠĠĠĠĠĠĠĠĠĠĠĠĠĠĠĠĠ	16798
Ġaer	16793
Ġtill	16782
Ġhardly	16779
ĠPerhaps	16779
Ġdisplays	16770
\[[@	16761
ĠBase	16758
Ġpace	16754
ady	16751
READ	16749
Ag	16749
Ġbatch	16749
_{-	16747
Ġblocked	16745
Ġabortion	16744
\,\	16739
Ġhits	16736
pg	16731
Ġacknowledge	16731
imum	16725
ĠWITH	16725
RES	16720
Ġcontra	16719
Ġgenuine	16718
Ġflags	16715
Ġcritic	16715
Convert	16713
Ġbomb	16711
ĠDu	16711
JS	16710
114	16709
xs	16701
Ġframes	16701
ĠINT	16701
Ġcompatible	16697
Ġbeliefs	16696
Ġ1985	16695
Ġmel	16676
Ġoven	16675
ĠCas	16669
Ġpermissions	16668
Ġdefend	16668
Ġ103	16663
čĊĠĠĠĠ	16661
season	16659
Ġml	16659
Ġtransl	16657
Ġpartnership	16657
ĠHead	16657
ĠMem	16656
Ġboss	16647
Ġenables	16646
Ġvisits	16643
Ġobtaining	16638
Ġlift	16638
Session	16636
ready	16635
Ġretain	16635
Ġaffecting	16635
sign	16632
human	16632
shape	16631
ĠAdditional	16630
sex	16627
Ġmagnet	16626
uan	16621
Ġgenerator	16621
jar	16620
Ġ108	16617
cence	16616
Ġpepper	16616
ching	16614
Ġ{@	16613
[[	16609
Ġped	16609
Ġgotten	16609
ĠMah	16606
Ġmagic	16601
ĠSir	16598
Ġguns	16596
Values	16590
022	16586
ĠSpecifically	16584
Ġdifferently	16583
Ġcoal	16583
^)	16578
ĠRA	16576
urg	16574
Ġmaximal	16574
delete	16572
Ġvac	16571
Ġtradition	16570
nel	16568
Ġweights	16568
Ġawesome	16567
Ġdescribing	16563
Ġbehaviors	16562
Ġserv	16559
Free	16551
Ġfits	16548
bad	16546
ĠTitle	16546
Ġreflects	16545
Ġreject	16538
Ġ01	16538
organ	16531
izers	16531
Maybe	16529
Ġcontest	16529
ĠMinistry	16526
gin	16525
Ġasks	16525
Ġfunctionality	16522
resource	16521
Items	16520
Ġbearing	16514
iology	16513
Ġfilling	16512
ĠIowa	16512
Ġdesignated	16511
Ġdemocracy	16510
Ġdeals	16510
iot	16508
Ġcommands	16508
Widget	16504
Ġink	16501
Ġcallback	16501
Ġclinic	16500
Ġaud	16495
Ġunderwent	16493
1994	16484
ĠMethod	16483
ĠFord	16483
Ġtrends	16482
**.	16480
Ġpredictions	16480
also	16476
Ġinvestigations	16476
Ġkiss	16475
icular	16474
ÑģÑĤ	16473
Ã©e	16472
Ġequality	16472
Ġselective	16471
Ġinterviews	16470
Ġhem	16469
192	16468
Additional	16467
ĠRather	16465
NN	16462
ĠRen	16461
Record	16460
ĠOp	16458
obs	16451
ĠHard	16445
ORE	16441
Bs	16434
fact	16432
ĠArray	16432
Ġtor	16431
Ġcord	16430
Ġblame	16426
Ġshoes	16424
\.	16423
mov	16422
Ġtexture	16417
Ġbreaks	16410
Ġretail	16405
Hz	16403
Ġrough	16402
Ġprogressive	16401
023	16400
Ġfitness	16399
ĠAward	16395
Ġprogramme	16394
energy	16393
Ġsegments	16393
ĠFalse	16390
opy	16387
$^{-	16386
rome	16383
HTML	16383
figure	16381
rule	16380
Ġlistening	16373
rees	16370
Ġweird	16370
Ġgear	16370
++;	16369
Ġweekly	16362
Ġms	16357
Ġmold	16355
Inst	16353
asted	16346
ĠPrior	16344
ĠCore	16344
Ġfarmers	16336
Ġvariant	16335
ĠdÃ©	16335
Ġdetector	16335
Collection	16331
random	16329
âĢ¯	16325
Ġconspiracy	16323
ĠSon	16321
translation	16320
ĠAsh	16319
700	16318
Ġxmlns	16318
ĠJordan	16318
ĠArticle	16317
Ġcombat	16314
Ġconsciousness	16309
Ġmad	16308
ibr	16307
Ġfocusing	16307
ems	16305
Ġhypertension	16302
Ġsynthetic	16298
Ġinserted	16297
Ġboundaries	16296
ĠRh	16296
Ġtem	16293
ĠHon	16293
Ġpython	16292
backs	16287
umber	16280
Ġpipe	16276
Ġintellectual	16271
ĠSat	16271
ĠPy	16271
ĠStill	16269
Ġattempting	16268
Ġcomplement	16267
apt	16266
ARE	16266
ĠSciences	16266
CV	16260
area	16258
=>	16257
}'	16256
children	16248
Ġangry	16248
otion	16246
Author	16246
Ġvertices	16244
Ġ1984	16237
ĠNick	16235
XX	16234
Ġfavorable	16229
ĠBas	16229
GH	16226
Ġcomputers	16226
Ġindices	16222
ĠTour	16213
^{*	16211
ĠSpe	16210
Ġ135	16210
Ġadapted	16207
Ġconfident	16206
Ġapps	16206
rical	16205
ruct	16200
ĠAC	16198
Ġrendered	16196
Ġphysicians	16191
Ġregulate	16190
Ġvaried	16187
ĠGreek	16187
derived	16183
âĦ¢	16180
113	16178
Ġfitting	16175
Ġcompl	16175
WR	16172
Ġmath	16171
ban	16169
Operation	16169
Ġconvenient	16166
modules	16162
Ġfatty	16162
oded	16161
found	16157
ĠGrant	16157
hu	16156
Ġcombinations	16154
Ġaims	16152
Ġpolynomial	16151
Ġintracellular	16151
Ġdeeper	16151
Ġreflection	16149
Ġedition	16147
Ġ$.	16143
omes	16141
Ġinverse	16139
rite	16137
Ġcos	16132
icy	16130
Ġsettled	16129
ĠCPU	16129
ĠSanta	16121
Ġfunded	16118
opes	16115
Ġ132	16113
Ġstretch	16111
news	16110
Ġnegligence	16110
Ġdates	16108
âĢ²-	16107
etc	16105
Ġrestaurants	16105
Ġlateral	16104
forall	16102
Ġterrible	16102
gly	16101
Ġprof	16100
Ġchlor	16099
Ġintense	16098
Ġdiscount	16098
register	16097
Ġrail	16095
*(-	16093
ĠÂł	16093
Params	16092
Ġpeaks	16092
Ġing	16090
Ġdoc	16089
Ġsuspension	16088
ĠâĢ	16087
Ġloud	16087
abb	16086
ĠColumbia	16086
Ġmatched	16085
Ġlimiting	16084
Ñ	16081
Ġretirement	16076
Ġdisclosure	16075
ĠChar	16075
Ġmood	16074
Ġcollapse	16069
Handle	16066
owed	16064
Ġquantities	16064
Ġepithelial	16064
Ġ"<	16064
hold	16063
Ġsatisfying	16061
obe	16060
Ġmagazine	16056
exec	16049
Ġdans	16048
Parent	16047
ACT	16043
Ġtransparent	16041
Ġsucceed	16040
ĠRound	16037
ĠCF	16037
ĠPBS	16035
.:	16033
cond	16032
---------	16027
party	16022
ema	16022
))/	16022
Ġscoring	16022
nes	16021
ĠÐ¿	16020
()->	16017
Ġproposition	16017
Ġjuice	16017
$]{}	16014
Ġmeth	16012
Ġbreakfast	16010
keys	16009
move	16007
1990	16006
ĠKar	16005
priv	16004
emia	16004
Ġpeer	16003
Ġconsensus	16003
Ġfingers	16001
yy	16000
hest	16000
Ġpotent	15998
Ġchoosing	15996
ĠBC	15989
Ġmortgage	15987
Ġvulnerable	15985
simeq	15984
ĠProfessor	15984
Ġscaling	15982
Ġlawsuit	15981
kind	15978
Ġchains	15978
ĠFull	15978
ĠLy	15977
Ġmanually	15975
rew	15968
Ġbul	15968
ither	15967
Ġpreferably	15967
Ġdamaged	15966
Ġdollar	15959
1993	15958
cted	15953
Ġpharmac	15951
.).	15949
ols	15946
Ġlikes	15943
Ġstrictly	15942
Ġ+\	15942
report	15940
Ġrepresentations	15940
Ġtied	15937
Ġphysiological	15927
Ġholiday	15927
stand	15925
ati	15917
Ġgener	15916
Ġretro	15915
ĠCommonwealth	15912
Ġdeveloper	15911
Ġsupplies	15909
Her	15906
Ġshots	15905
čĊĠĠ	15905
Ġwondering	15902
Stack	15898
ĠProperty	15898
ĠPlace	15897
your	15894
Hash	15894
--------	15894
ĠBrazil	15890
à¥	15889
bibr	15889
Ġconcur	15888
aces	15887
ĠNC	15887
zen	15882
Ġisolates	15876
_+	15874
ĠAff	15874
Ġtolerance	15870
ĠHor	15868
Ġbounds	15866
tool	15860
âĢĻ.	15857
}$$\	15856
Ġmini	15856
Ġconstitution	15848
ĠCap	15845
terminal	15842
Ġpushing	15842
hom	15838
ĠPI	15838
Ġaggressive	15834
Ġions	15831
had	15830
Ġvisitors	15828
password	15826
Ġentities	15825
Gr	15821
ĠĠĠĠĠĠĠĠĠĠĠĠĠĠĠĠĠĠĠĠĠĠĠĠĠĠĠĠĠĠĠĠĠ	15818
ounds	15816
anging	15815
Ġquote	15815
ĠOP	15815
ĠNF	15815
ĠAdam	15813
;">	15812
Param	15811
Ġqui	15810
Ġobjection	15809
Ġlogical	15809
Ġenc	15805
ĠTurkey	15803
220	15802
Ġtemp	15802
Ġbills	15801
Ġviruses	15797
items	15796
Ġlos	15796
ĠUs	15793
Ġdil	15791
istance	15790
-$	15789
inates	15788
CODE	15788
âĤ¬	15786
Ġparam	15786
eh	15783
ĠCC	15779
è¿	15778
eting	15778
ĠSR	15776
Ġnucle	15773
Ġsir	15770
gent	15769
Despite	15768
~)	15766
hl	15761
,\,	15759
Ġdiss	15759
Ø±	15757
Ġassistant	15756
Panel	15753
ĠBible	15753
esh	15750
\!	15750
arily	15749
ĠDifferent	15746
ĊĠĠĠĠĠĠĠĠĠĠĠĠĠĠĠĠĠĠĠĠ	15746
made	15745
Ġ\*	15741
jection	15740
admin	15739
ĠĠĠĠĠĠĠĠĠĠĠĠĠĠĠĠĠĠĠĠĠĠĠĠĠĠĠĠĠĠĠĠĠĠĠĠĠĠĠ	15739
NULL	15734
plane	15727
Ġcoat	15727
ĠWE	15726
Ġbaseball	15724
seq	15720
Ġblank	15720
ĠPur	15718
Ġnucleus	15714
Ġemerging	15713
ãĤĴ	15712
Ġreferring	15711
ped	15710
Ġequipped	15710
holder	15708
users	15705
alf	15705
ĠGaussian	15696
ĠAssembly	15695
Ġinquiry	15694
ĠSW	15689
Ð´	15685
_>	15681
Ġment	15681
Ser	15679
ĠBuild	15678
145	15676
utils	15675
oni	15675
Â³	15671
Today	15670
names	15669
Ġmembership	15667
Ġcavity	15666
ĠUnless	15663
TEST	15662
Ġpocket	15662
Ġdeficiency	15662
ĠMAP	15662
Ġ***	15662
regulation	15660
regulated	15658
phase	15656
Ġsensors	15656
ĠParliament	15656
æĺ¯	15651
Ġterritory	15651
}}}_	15647
>();	15647
Ġtoxicity	15647
ĠHarris	15639
Ġplatforms	15638
Ġmorph	15638
ĠYeah	15637
grid	15633
Ġinvited	15630
una	15626
Ġvessels	15622
Ġbirths	15622
ĠLib	15620
Ġpromised	15619
Json	15617
ĠâĢĭ	15615
Ġsingular	15615
EV	15613
amps	15611
ĠDet	15611
Ġtrick	15610
Ġtired	15610
ĠCoast	15609
å®	15607
bes	15607
Ġsaving	15607
Ġextending	15606
Ġmuscles	15603
Ġdeny	15602
Ġdefining	15602
ĠMinnesota	15602
Ġhealing	15599
Â§	15596
Ġodds	15596
Ġpipeline	15594
wed	15590
inity	15590
Ġparticipated	15590
Ġjournal	15589
Ġmodeling	15588
Ġagreements	15588
129	15586
wt	15584
]{}\	15581
Return	15574
ĠCE	15574
selected	15573
Ġpill	15565
Ġobligation	15563
Ġdance	15562
ĠHamiltonian	15562
oa	15561
ĠFisher	15561
Ġstomach	15559
Ġsens	15559
$^{	15557
ĠIndiana	15553
ĠDaily	15553
doi	15551
Ġ|\	15551
ĠSy	15550
Fr	15549
Ġinjected	15548
[**	15545
ĠFin	15544
Ġaccurately	15543
ĠWin	15542
PORT	15541
Ġestimation	15538
tes	15534
gi	15534
Ġbehavioral	15534
Ġencounter	15531
claim	15530
account	15529
walk	15528
Chapter	15527
tern	15525
each	15523
Ġsuspected	15521
agent	15519
Ġpreserve	15516
Ġinflation	15515
ãģ«	15514
Ġnobody	15514
VD	15513
Ġestablishment	15512
ĠAfghanistan	15507
Ġmeaningful	15506
Ġregarded	15503
uns	15499
Ġcertificate	15499
iki	15498
Har	15496
Ġcortex	15495
rier	15494
Ġbird	15494
Ġwedding	15492
Ġimpressive	15491
region	15487
Ġtalent	15486
Ġphrase	15485
Ġlease	15485
DF	15483
ĠHaw	15482
Ġplugin	15481
Ġdeemed	15481
colon	15478
Ġconform	15476
ancies	15475
Ġsuspended	15473
Ġarrive	15473
utor	15466
bel	15466
python	15462
ĠTNF	15459
condition	15458
ĠKorean	15456
ĠFather	15456
Ġresistant	15455
ĠToronto	15454
hib	15453
ĠPHP	15452
ĠLittle	15452
Ġstayed	15451
Ġoxidative	15451
Ġresident	15446
acher	15445
Ġreliability	15445
Ġ''	15443
rat	15441
ĠQueen	15440
Ġpromoting	15436
ĠmL	15434
Ġarising	15431
century	15428
Ġbench	15426
Ġton	15425
240	15423
Ġexpense	15422
ĠSupport	15418
280	15416
Ġindication	15416
Ġcomparisons	15416
Di	15415
Ġelectrons	15415
Ġmicroscopy	15408
ĠLibrary	15406
Ġelderly	15400
Ġendothelial	15399
sample	15398
Ġadjustment	15397
)</	15392
Ġ-------	15390
mass	15389
ower	15387
lay	15382
Ġartificial	15378
rug	15377
ere	15377
Ġenergies	15375
Ġpersonality	15371
ĠHouston	15370
ags	15369
RL	15369
views	15365
Ġscre	15364
Round	15363
Ġdemonstrates	15362
gra	15361
Ġbranches	15355
idx	15354
bigg	15353
Ġmanifest	15347
Ġlifestyle	15347
Ġspots	15345
Î¼	15343
ĠSystems	15341
ĠRegister	15341
CHAR	15339
Ġexisted	15337
GM	15336
175	15334
Ġinputs	15334
Ġdistances	15333
ĠSav	15332
encing	15330
Ġthreats	15329
earing	15328
Ġ107	15328
Ġdefinitions	15327
FIG	15324
Ġsuppression	15323
ĠSpirit	15323
article	15322
Ġdefeat	15321
hs	15320
Sm	15320
Ġengagement	15320
Ġposterior	15319
VF	15311
Ġinhibited	15311
ĠDefense	15308
Ġiter	15307
Ġvariability	15305
Rule	15301
Ġpointing	15300
Ġnose	15300
iance	15299
Ġvisiting	15298
Ġ1981	15296
Ġdocumented	15295
Ġham	15291
Ġgenomic	15291
Ġ&=&	15288
Ġawait	15286
ĠHim	15286
)_{	15285
Option	15283
ĠIFN	15280
Ġreply	15279
Ġcow	15278
bits	15275
Ġcy	15275
Ġtends	15274
people	15273
Ġranges	15272
Ġenum	15272
Ġtrauma	15271
otes	15269
edu	15265
Ġwarranty	15259
2020	15257
Ġlibraries	15254
ATH	15253
ĠCambridge	15249
illy	15248
idity	15247
ĠSaudi	15247
Ġhandler	15246
ronic	15245
Ġminority	15241
Ġconc	15237
abilities	15235
sters	15232
Ġparagraph	15231
Ġcommun	15231
ĠMoore	15230
udd	15228
Ġpunishment	15227
Ġclosure	15227
Discussion	15223
132	15223
Ġyeast	15222
aze	15220
Ġcomplaints	15218
165	15217
136	15217
Ġprompt	15216
Ġcapabilities	15215
Ġheaded	15214
dk	15209
ĠBul	15207
ĠEgypt	15206
neg	15204
alg	15204
Ġchocolate	15204
},$$	15201
ĠLewis	15201
Ġ1960	15200
Ġrevolution	15199
ĠEric	15199
?)	15198
Ġuptake	15189
arly	15186
Ġhighlight	15186
Root	15185
)}(	15185
plex	15181
Ġfinance	15176
Ġthirty	15175
Ġalongside	15174
ĠEvent	15169
Ġnav	15167
roid	15166
ĠChristians	15166
CONFIG	15163
vc	15161
hard	15156
Ġmic	15155
Ġemerged	15155
cycl	15153
Ġopens	15152
License	15149
Ġsurprising	15146
Ġsuggestions	15145
Ġdenying	15145
Ġwing	15141
Ġsatisfaction	15141
Ġspray	15139
Ġ255	15135
1992	15132
ĠLatin	15132
prom	15126
Ġupset	15125
bor	15123
118	15123
otherapy	15122
ĠInterestingly	15121
Ant	15120
âĸ	15117
Ġnitrogen	15117
Ġdental	15115
Ġpassion	15113
force	15108
watch	15106
Ġparticipant	15102
ppers	15101
'],	15098
Ġbasketball	15097
753	15096
release	15095
Abstract	15095
clusion	15091
ĊĠĠĠĠĠĠĠĠĠĠĠĠĠĠĠĠĠĠĠĠĠĠĠĠĠĠĠĠĠĠĠĠĠĠĠĠĠĠĠ	15083
Ġfaculty	15081
Ġpreparing	15079
ĠShould	15075
Active	15073
ĠHz	15073
ĠNode	15072
oud	15070
Ġinduces	15069
Ġxe	15062
General	15061
`.	15060
Ġtrim	15060
ĠTre	15058
ĠSil	15055
Ġdense	15054
uer	15053
lat	15051
ĠNations	15050
custom	15049
Ġoccasion	15049
gun	15047
ABLE	15041
ĠMart	15041
Ġtransformed	15038
Ġmil	15038
Ġwinner	15035
Ġheading	15029
Ġvirtually	15024
[$	15020
147	15020
Ġhosts	15019
Ġanger	15019
ĠCustom	15018
Ġbases	15017
stage	15014
Identifier	15012
wd	15011
|-	15008
ONG	15004
allow	15003
itable	14993
hep	14993
1991	14986
nam	14984
Ġscroll	14980
aire	14978
Ġclaiming	14976
mM	14975
POST	14974
degree	14973
Ġwelfare	14973
946	14969
Ġconstraint	14969
aid	14968
Based	14965
Ġcond	14965
Ġasset	14959
Introduction	14958
Ġreceives	14956
Ġprec	14954
Ġblocking	14953
Ġrespondents	14949
nutrients	14945
Ġcoronary	14945
================================================================	14944
ĠBa	14942
Ġwaters	14939
rank	14938
Ġprobable	14938
Ġticket	14936
icles	14934
Properties	14934
Ġlocked	14931
btn	14928
Ġconfusion	14925
Ġ).	14925
Full	14923
Ġfake	14921
ĠGC	14915
rell	14912
aper	14912
Ġmedi	14908
ĠSea	14905
ĠPK	14904
Ġnp	14900
ĠĠĠĠĠĠĠĠĠĠĠĠĠĠĠĠĠĠĠĠĠĠĠĠĠĠĠĠĠĠĠĠĠĠĠĠĠ	14900
raph	14898
hex	14896
Ġgovernor	14895
Pos	14893
ÃĲÂµÃĲ	14892
ais	14890
Ġcommunicate	14890
Ġaffirmed	14889
Ġchances	14887
inating	14886
isions	14885
Ġprotocols	14883
hab	14881
ĠFarm	14879
Ġ133	14879
ĠSS	14878
edge	14875
Ġoptimization	14875
ï	14873
Ġagenda	14870
Ġconstants	14867
idine	14866
Ġreset	14866
ĠIgG	14865
ĠCommissioner	14865
Take	14864
Ġdecomposition	14861
cin	14860
opol	14859
0005	14857
Ġhat	14857
Mo	14856
Ã	14854
ĊĠĠĠĠĠĠĠĠĠĠĠĠĠĠĠĠĠĠĠĠĠĠĠĠĠ	14854
ĠHas	14853
ĠÎĶ	14852
Âµ	14848
ĠSilver	14847
Ġwavelength	14844
Custom	14843
Ġsubgroup	14843
Ġcultured	14843
oster	14842
Ġspark	14840
plain	14837
illi	14836
Ġeq	14835
Ġshortly	14834
Ġparams	14834
Ġinterpret	14832
Ġappreciated	14826
iah	14825
Ġpleasure	14825
Ġfrozen	14824
ante	14822
sort	14820
olt	14819
Ġshaft	14818
Ġdetermines	14818
Ġtimely	14817
Ġcircular	14815
ears	14814
144	14813
World	14808
ĠÂ»	14808
Ġsudden	14808
Ġorange	14807
Ġjustify	14806
Ġdistinction	14806
etal	14805
Ġdonor	14802
ouch	14799
Ġsolved	14798
Ġgrain	14797
<<	14796
forming	14795
Ġappointment	14795
Ġtracks	14793
Ġsilicon	14792
ĠCNN	14791
)\,	14788
Display	14787
AX	14786
ĠTem	14782
EF	14781
margin	14777
Ġbleeding	14776
ĠTHAT	14775
Ġcookies	14773
Ġefficiently	14767
Ġmutants	14765
rack	14764
coming	14763
ĠMarket	14763
Ġ134	14763
Ġsecured	14761
Ġthrown	14757
Ġlocalization	14757
Ġexclusion	14757
ross	14756
gathered	14755
204	14755
Ġcriticism	14755
ĠMill	14752
ä¸	14751
ĠĠĠĠĠĠĠĠĠĠĠĠĠĠĠĠĠĠĠĠĠĠĠĠĠĠĠĠĠĠĠĠĠĠĠĠ	14751
ellar	14746
sym	14744
ĠCat	14744
825	14742
Ġtags	14742
134	14739
Both	14736
Ġreputation	14736
iving	14735
Down	14734
Ġnavigation	14733
ifer	14731
Ġthreatened	14730
GFP	14729
ĠChild	14729
ĠLat	14722
Ġmemories	14719
Ġcustody	14719
Ġupload	14718
ĠOUT	14715
fb	14714
Ġadj	14714
Ġstimulus	14708
aden	14706
ĠMas	14706
Ġaden	14705
Vis	14701
ĠSports	14701
wait	14700
Ġsilent	14699
iaz	14698
Ġdent	14697
ĠRos	14695
Ġ{"	14694
Ġstriking	14694
Ä±	14693
Ġoptional	14693
ĠCamp	14693
Ġreplication	14690
erred	14689
BF	14689
fo	14688
ĠFeb	14685
MAP	14683
Ġord	14677
Ġfluor	14677
Ġanybody	14676
Ġeff	14675
Ġflood	14674
inct	14672
Ġcancers	14671
olves	14668
ĠInsurance	14668
ĠSort	14667
Ġcircuits	14661
Ġinstruments	14660
ĠImmun	14660
Ġprejudice	14659
ĠMean	14656
Definition	14655
ĠStephen	14655
Ġflying	14651
Ġhistoric	14646
Ġwins	14645
Ġ1982	14643
ĠMont	14641
Ġsom	14637
tools	14630
Ġliable	14625
ĠHoly	14625
Ġchallenged	14624
Thus	14623
hips	14621
Ġtraits	14618
Ġnonlinear	14617
ĠInterest	14617
Rem	14613
Ġmature	14606
RNAs	14605
models	14604
Ġtries	14604
Ġconserved	14603
ĠIdent	14603
temp	14602
Ġinject	14599
Ġeveryday	14599
ĠWisconsin	14595
Ñĩ	14592
Ġrh	14592
Ġfactual	14590
ĠEM	14588
Ġrescue	14587
Ġdecimal	14586
settings	14583
iments	14583
Ġacted	14582
$).	14577
fall	14576
Ġinches	14575
FONT	14574
ĠException	14574
Ġcalm	14571
Ġgray	14569
Ġbelongs	14568
Ġdried	14567
1986	14566
Ġvegetables	14565
Ġpropag	14562
arth	14559
oured	14556
Ġstained	14554
Parameters	14551
ailing	14549
yer	14548
screen	14547
Ġ800	14546
wp	14545
ĠDocument	14540
Ġresidential	14538
TM	14536
ÃĦ	14535
osed	14535
Ġsatellite	14534
Ġlitigation	14534
ĠLeg	14533
contin	14532
Ġqueue	14531
Ġmining	14531
iral	14529
Ġut	14526
Ġconvention	14526
Ġflex	14524
ĠFR	14524
ĠBlock	14521
cluded	14519
oped	14518
.\[[@	14518
ãģ§	14516
170	14516
fit	14515
elli	14515
Ġconv	14515
čĊčĊĠĠĠ	14513
ĠReturns	14512
ket	14510
ĠÎ¼g	14510
Ġgraphs	14510
Ġfilters	14510
ĠProcess	14508
,_	14505
Ġmi	14505
Ġexclusively	14504
ĠSometimes	14504
Ġseats	14503
155	14502
ted	14499
)^{\	14499
Ġgradually	14496
Ġflows	14494
Ġtech	14493
ele	14490
ĠâĤ¬	14490
Ġbedroom	14490
cho	14488
Ġprevented	14488
Ġperpet	14486
forms	14485
arts	14484
lands	14483
hbar	14482
attribute	14477
record	14475
Ġsentenced	14475
Ġimpairment	14472
four	14471
ĠHay	14471
Ġwage	14470
plet	14468
engine	14468
court	14468
ÙĨ	14466
zi	14466
sky	14466
Ġflowers	14466
Background	14463
ĠKelly	14463
Sw	14462
Ġ<?	14462
NOT	14459
Enabled	14458
Ġwidespread	14456
Ġrespondent	14455
Ġgeneralized	14455
Ġestablishing	14455
Ġsimilarity	14454
ĠEV	14454
Ġconvergence	14453
cha	14451
Ġconfused	14450
Ġactors	14448
Ġpi	14445
Ġmothers	14444
ĠKen	14444
Ġartist	14437
Ġresin	14436
best	14434
Cons	14433
Ġstating	14432
bury	14429
Ġnotation	14429
Ġxml	14428
rict	14427
Ġ^{	14425
ĠSoviet	14422
Ġroads	14420
Ġcam	14419
ĠXML	14417
pling	14410
ĠES	14410
lections	14407
Ġindependence	14407
Ġdescending	14405
Ġcompression	14405
Ġpas	14404
ĠPers	14403
Ġreplied	14401
Ġminds	14401
Ġintersection	14399
Ġjoining	14397
ĠBu	14395
ĠWhe	14394
zip	14393
standard	14390
Ġbarely	14390
aus	14380
Equ	14380
ders	14378
Callback	14378
'(	14377
ims	14375
rl	14373
ti	14372
norm	14372
Ġseeks	14371
ĠKansas	14370
Ġscenes	14369
Ġmol	14369
Ġatomic	14369
Pe	14368
ĠSem	14367
Ġsymbols	14366
Ġrestore	14365
Ġpolarization	14361
BIT	14360
Bytes	14359
Ġmotions	14359
Ġmethylation	14359
Ġguests	14356
Ġsquad	14354
Ġlady	14352
ĠSher	14346
Ġske	14345
Ġviewing	14344
Ġexhaust	14344
Ġsalary	14343
Ġ'\	14342
hw	14341
Ġbold	14338
Ġquestionnaire	14334
Async	14333
122	14333
Ġpreference	14333
ifdef	14332
Ã±	14330
Ġtrivial	14328
Ġemploy	14327
Ġaccomplish	14327
Ġprocessor	14325
ĠAG	14325
ĠLO	14324
edit	14322
Ġenhancement	14318
Ġcapability	14317
Ġ136	14317
may	14316
Ġhel	14316
missions	14314
Ġfiscal	14313
Ġprescribed	14310
inding	14308
rained	14302
Ġincredible	14302
ĠCast	14302
ĠĠĠĠĠĠĠĠĠĠĠĠĠĠĠĠĠĠĠĠĠĠĠĠĠĠĠĠĠĠĠĠĠĠĠĠĠĠĠĠĠ	14299
Ġje	14297
Ġairport	14297
Day	14295
pad	14284
ĠAF	14278
"};	14277
rick	14276
ĠCG	14275
ĠWild	14274
Ġdating	14271
ĠRadio	14270
nb	14269
Ġmanaging	14267
Ġunfair	14266
Ġattorneys	14266
iable	14265
Ġacceptance	14262
abil	14259
Names	14259
ĠDown	14259
205	14258
ĠFre	14256
ĠMassachusetts	14254
Ġshed	14253
craft	14252
Ġbriefly	14251
filename	14247
à¥į	14245
Direct	14245
Ġpub	14244
VP	14239
ĠUpdate	14239
Ġanterior	14237
ĠNature	14233
Ġattachment	14225
Ġlegitimate	14223
Ġstyles	14222
Ġloc	14221
Ġcocaine	14218
Ġacknowledged	14214
drop	14213
Ġviolations	14211
Ġasc	14211
pu	14210
ĠScale	14208
imm	14207
Graph	14207
Ġflu	14207
eval	14205
Ġemissions	14205
impl	14204
Ġcov	14202
$_{	14199
ucks	14198
Ġpeptides	14196
Ġdramatic	14190
DO	14189
Ġeng	14189
TX	14187
Ġpartly	14187
ĠMus	14187
lab	14183
asis	14182
Ġsurely	14181
clusive	14180
inite	14179
Ġcontention	14178
bian	14176
)}}	14176
Ġcharacterization	14174
Ġoffices	14173
Ġdietary	14167
.",	14165
ISH	14161
interest	14160
Ġoh	14160
Ġprotecting	14158
Ġstere	14157
ĠClinical	14154
)^{-	14150
Ġundergo	14150
Ġparticipating	14150
Ġrandomized	14147
133	14146
Will	14144
Ġsavings	14144
ĠLC	14142
ĠAug	14142
{}	14141
Ġinvestigating	14141
Ġhex	14141
Ġmas	14134
DATA	14133
toString	14131
Ġprovince	14130
Ġmaternal	14130
Ġfelony	14128
ĠKevin	14128
emat	14127
Adapter	14127
ensions	14126
Ġknife	14125
imp	14123
linux	14122
Ġsigning	14122
Ġlandscape	14122
ĠDisc	14122
BER	14121
Stud	14120
ĠGOP	14120
ĠLE	14118
Ġunnecessary	14116
Ġexec	14113
ĠĠĠĠĠĠĠĠĠĠĠĠĠĠĠĠĠĠĠĠĠĠĠĠĠĠĠĠĠĠĠĠĠĠĠĠĠĠ	14113
oving	14110
Ġracial	14110
Wh	14109
)*-	14106
ighter	14105
Ġseal	14101
Ġperiodic	14100
SF	14096
Ġadvised	14093
025	14092
Loc	14091
Ġmediated	14090
Ġletting	14087
Ġfuck	14087
âĢĻ,	14083
Book	14081
ski	14079
arp	14079
Ġrepresentatives	14079
ORY	14076
Sign	14074
Ġquasi	14073
Changed	14072
ĠDB	14071
iy	14070
imer	14070
Icon	14069
isms	14066
Four	14063
Ġpad	14062
program	14060
VI	14060
Ġproportional	14060
Ġfur	14059
Ġconservation	14059
ĠStation	14059
ĠOs	14058
direct	14057
cam	14053
Ġloves	14053
pgen	14052
ogs	14052
rupt	14051
ĠABC	14050
á	14049
Ġshadow	14049
Ġmodifications	14047
Ġhor	14046
iat	14044
121	14040
ona	14034
ĠAst	14032
ĠScotland	14031
ido	14028
Var	14028
čĊčĊ	14025
omers	14018
ĠDrug	14018
Super	14015
ĠOper	14014
Ġpa	14013
Ġmembranes	14013
Ġremarkable	14012
ĠProv	14012
ju	14011
Ġplots	14010
Ġlovely	14009
ĠKong	14002
Flags	14000
Public	13998
!!!	13995
Ġuna	13994
Ġcoating	13988
Ġwarned	13985
Ġsentences	13985
Ġpurified	13984
Ġrs	13981
ĠNatural	13980
ĠIrish	13978
Ġ------------------------------------------------	13978
Ġemotions	13975
ogram	13974
Assert	13974
Ġconfigured	13974
ĠCommon	13974
Ġtherein	13973
schema	13972
ĠCHECK	13971
ÃĲÂµ	13969
ĠTen	13969
ĠBO	13969
Ġelectrodes	13968
ea	13967
Ġimpaired	13964
DIS	13963
Ġenforce	13963
Ġspect	13960
Ġrig	13958
Ġcooperation	13958
uster	13957
Cap	13955
Ġsec	13955
ĠJeff	13955
ĠConsider	13954
ĠAssert	13951
transform	13950
ĠPlus	13948
ariant	13942
Ġlucky	13941
Ġnursing	13940
Ġactively	13938
Ġconstructor	13937
Ġdrove	13933
ql	13932
138	13932
ĠShort	13931
Ġoutstanding	13929
ĠUkraine	13928
Ġsake	13927
Ġcontroversial	13927
shaped	13926
itative	13925
iest	13925
Ġcop	13925
ASS	13924
Ġgather	13923
156	13922
Ġdebut	13922
ÑĮ	13921
åĲ	13920
erated	13919
ULT	13919
450	13915
Ġexert	13914
uzz	13912
Ġfo	13910
&=	13908
ressive	13905
ĠTE	13905
ĠInclude	13904
onia	13903
Ġarrow	13903
Global	13899
anth	13897
AME	13896
Exp	13895
Ġaccomplished	13895
arding	13892
Ġoverlap	13892
ĠUnit	13887
Ġrings	13886
fix	13883
IND	13883
Ġshipping	13883
Ġrelate	13881
Ġradial	13880
Ġhip	13880
137	13877
Ġprospect	13877
Ġpixels	13877
+)	13876
ruction	13875
aya	13874
ĠBrian	13874
Helper	13870
Common	13866
Ġencouraged	13866
player	13865
ĠGraph	13864
Ġdiscloses	13857
ĠWatch	13853
Ġshield	13850
Ġintestinal	13850
Ġinitiated	13849
wn	13845
0004	13845
Ġinfants	13845
Ġwider	13844
Ġrelies	13840
hd	13838
aph	13838
Ġutil	13837
Ġrobot	13837
Example	13836
itted	13835
Ġdisaster	13834
Ġmacro	13833
Ð¾Ð²	13831
Ġslide	13830
Ġinst	13829
Editor	13828
Ġprivilege	13827
enny	13825
Writer	13818
210	13818
Ġfranchise	13818
Ġmoon	13817
ĠOb	13816
stit	13814
XF	13811
mc	13810
Cr	13810
Ġsecretary	13809
Ġcircles	13809
Ġtur	13808
Ġpositively	13808
à¤¾	13807
Ġgenerations	13807
mapsto	13805
SK	13804
lessly	13803
atar	13800
Ġsel	13799
Ġintrinsic	13797
Ġke	13796
ĠChem	13795
Ġfunctioning	13789
Ġmyth	13787
Ġcopper	13787
UV	13786
Ġexplored	13786
pled	13785
Ġstops	13785
ping	13782
lan	13775
displaystyle	13775
Ġdominated	13775
unction	13769
fish	13769
istor	13767
flu	13767
bat	13764
Ġgraft	13762
ĠÐ¸	13761
Ġsilence	13761
amide	13760
Ġimportantly	13760
Space	13756
Ns	13754
Ġcrossing	13752
wiki	13742
à¹	13741
Photo	13740
Ġpermits	13739
Ġ137	13737
Ġdot	13735
println	13734
greg	13734
ridge	13733
pmatrix	13730
okes	13730
ĠGM	13730
Ġbathroom	13727
wer	13725
imon	13722
Ġlands	13722
ĠWas	13721
ocom	13720
ĠDar	13720
Ġprom	13718
Ġattacked	13715
ĠMaryland	13712
Arg	13711
Ġbrothers	13711
Ġreasoning	13710
Ġfirms	13708
ĠBMI	13708
ĊĠĠĠĠĠĠĠĠĠĠĠĠĠĠĠĠĠĠ	13707
ĠLED	13706
Ġcorruption	13703
Ġchat	13703
odge	13702
Ġrape	13702
Ġcontinuously	13700
LICENSE	13699
Ġarrival	13697
Ġinfant	13695
Ġfantastic	13695
Print	13691
Ġupcoming	13690
Ġgains	13690
Ġcompete	13687
ĠEC	13684
Ï	13679
Ġvent	13679
Ġconflicts	13676
ĠATP	13676
History	13675
Ġproxy	13674
ĠRose	13673
Ġquoted	13671
rons	13670
Ġdownstream	13668
Ġannouncement	13667
ĠSearch	13667
ĠDun	13667
*=	13665
Ġprofits	13665
ĠBBC	13663
Ġconvinced	13662
))/(	13660
Ġimpose	13660
ĠSix	13659
Ġ",	13659
abstract	13655
Ġcomputational	13650
ĠNothing	13644
Ġexpertise	13642
metadata	13639
WORD	13639
ĠNavy	13638
1989	13635
Ġpursue	13633
iform	13631
Ġcas	13631
Ġarr	13630
ĠAvenue	13630
ĠMuseum	13629
ĠAllen	13628
Ġ138	13625
chan	13624
0003	13619
Ġretained	13619
night	13617
Ġdatasets	13617
ÐµÑĤ	13615
Ġwebsites	13610
Ġfluctuations	13610
ĠSL	13603
Ġfeatured	13600
bus	13598
Ġbags	13596
ĠHaving	13596
Close	13595
Ġgrateful	13595
asting	13594
Ġscanning	13594
ĠSanders	13594
ĠHTTP	13594
ĠOregon	13593
Ġgraduate	13592
Ġ1979	13592
xf	13591
Ġrelied	13590
Ġgerm	13590
1988	13589
Ġcanonical	13589
half	13585
Ġediting	13574
[(	13572
uing	13571
Ġguaranteed	13571
iden	13568
1985	13564
Ġemphasis	13563
ê	13562
Ġdrives	13556
iger	13555
rh	13554
ayers	13554
ĠHart	13553
Stat	13550
Ġchampionship	13548
Ġcontemporary	13547
Ġcomply	13545
Given	13544
Ġrod	13543
ties	13539
Ġgathered	13538
quality	13537
Ġfle	13537
five	13535
Ġtie	13532
Ġrecurrence	13532
Ġmutual	13532
Ġconsistency	13532
ĠPerson	13531
ĉĉĉĉ	13530
anned	13528
ORS	13528
Ġindicator	13528
relation	13527
Ġcytokines	13527
results	13526
Ġstimuli	13526
itated	13524
ĠHong	13524
fered	13522
Ġchromosome	13522
Ġcorn	13517
INFO	13515
Ġeigen	13511
Ġinstitutional	13509
Ġcompet	13507
dest	13505
ĠClick	13505
require	13501
prefix	13499
Ġhol	13496
rea	13495
Ġaffinity	13494
arant	13493
Ġpublish	13489
Ġwriters	13486
Ġsyntax	13486
Ġexceed	13484
Ġdimensional	13479
Ġstrategic	13478
Ġfiring	13472
Ġmacrophages	13471
anna	13470
Ġreaches	13468
Ġum	13467
Ġought	13467
Methods	13466
West	13461
({{\	13461
Ġmanifold	13461
Ġinhibit	13458
}}=	13455
Ġaccounting	13455
Ġexpectation	13452
Ġconsisted	13451
Ġburning	13450
Ġclothing	13449
Inv	13448
Ġtransient	13445
Ġlacking	13443
Ġsolvent	13441
ĠExp	13439
Ġ09	13439
ĠOrgan	13438
Ġcult	13437
ĠNet	13433
190	13431
ÐµÑĢ	13429
wave	13427
Ġmount	13427
ĠHarry	13427
nan	13426
igration	13426
Eq	13425
mol	13424
è®	13422
expected	13421
ĠWay	13419
icing	13418
ĠArea	13416
Ġgenerates	13411
Ġstudio	13410
Ġsanctions	13409
three	13408
Ġstruggling	13407
Ġstaying	13402
Ġoxid	13402
Ġbal	13399
Ġscreens	13397
sun	13396
Ġoper	13396
osomes	13395
Ġdecent	13391
ĠRelated	13390
Ġfam	13389
ĠPhil	13388
would	13387
ĠLabor	13385
reat	13383
ĠRom	13382
Ġretired	13379
Tim	13375
Ġpel	13373
Ġmedications	13373
Ġdebug	13373
Ġsubstances	13371
Enter	13370
rus	13368
ashes	13366
ACC	13365
Ġtobacco	13365
Ġhoney	13365
leton	13364
erk	13362
ĠMuslims	13360
Import	13359
Ġcorrected	13359
Ġcarries	13359
ĠLevel	13359
ĠHillary	13359
çĶ¨	13358
ĠDefault	13358
ĠBox	13353
fp	13352
Ġwash	13352
ĠĠĠĠĠĠĠĠĠĠĠĠĠĠĠĠĠĠĠĠĠĠĠĠĠĠĠĠĠĠĠĠĠĠĠĠĠĠĠĠ	13352
:</	13350
345	13348
Ġ127	13348
hole	13347
Ġcollaboration	13345
eqn	13344
valid	13343
oker	13343
ATED	13343
ĠSelect	13342
vt	13341
lig	13339
1984	13339
ĠKIND	13337
Ġservers	13336
Na	13333
osity	13331
Star	13330
ucle	13328
Microsoft	13326
ĠLeft	13326
square	13325
Ġreplacing	13325
ĠGre	13324
ĠComput	13323
cker	13321
Ġknock	13319
===========	13318
IES	13317
ĠReturn	13317
Ġterrorist	13316
Ġble	13316
Ġau	13315
istry	13313
Ġminimize	13313
Ġslot	13311
clean	13310
kit	13309
Ġolig	13308
road	13307
ista	13307
enders	13307
Ġfragments	13302
Ġcollision	13301
ĠProp	13301
ĠScientific	13300
ĠFlu	13300
Â»Â	13299
Ġentrance	13299
Ġderive	13298
Ben	13296
ignment	13293
Li	13292
Ġdrama	13291
Ġdecor	13286
Ġpredictive	13285
Ġconscious	13285
Ġelastic	13284
Ġreporters	13283
ĠBan	13283
containing	13276
ĠHollywood	13275
Cur	13271
Ġethnic	13269
video	13266
Ġ1977	13266
Ġspinal	13265
ĠMB	13265
ĠColor	13265
pd	13264
ĠÐº	13264
idden	13263
Ġentropy	13263
Ġloose	13262
Ġlongitudinal	13262
ĠDiv	13261
Network	13260
TG	13259
Ġroutes	13259
ï¼	13258
Ġslope	13256
Ġnut	13256
Ġexceptions	13255
VERSION	13253
Ġcake	13253
closure	13250
="/	13249
Ġintegr	13249
Ġpic	13247
Ġalarm	13246
Ġfort	13245
157	13244
Ġcontributing	13244
Ġscenarios	13243
oting	13242
acks	13241
ĠUbuntu	13240
icket	13237
Ġlys	13236
Ġentertainment	13236
Ġinitiative	13233
ĠTry	13232
Ġimpression	13230
ĠNic	13229
Ġtooth	13227
Ġdreams	13226
ĠBio	13225
eling	13223
aton	13220
Ġgastric	13220
Ġ170	13219
risk	13218
cost	13218
utf	13217
omin	13210
opathy	13209
Ġshifts	13209
MAN	13208
ĠTask	13208
Life	13206
211	13206
uction	13196
ĠMiami	13193
Ġschemes	13192
acon	13189
ILL	13187
Ġstraightforward	13187
Ġinhibitory	13185
Ġtendency	13183
PK	13182
ĠSY	13182
Del	13181
Ġabnormal	13181
ĠAlabama	13181
Ġpossibilities	13178
Ġburst	13178
ĠEffect	13177
isan	13176
eland	13170
Ġbroader	13169
chen	13168
999	13168
Ġplacement	13168
)}{\	13166
Ġhired	13166
Ġlicensed	13163
Share	13161
Empty	13160
Ġpoorly	13159
ĠMult	13158
ï¼ļ	13155
Ġ$${\	13155
Files	13154
ĠEdward	13154
Ġguilt	13153
ĠSimilar	13147
Ġpresenting	13145
Ġbegun	13145
}}^{\	13144
Ġallele	13141
Ġsepar	13138
Ġneighbors	13136
Ġfitted	13136
Ġdetecting	13135
Ġbil	13135
stud	13134
via	13133
ĠJean	13132
ĠCells	13131
ĊĊĊĊĊ	13128
350	13125
Ġmerit	13125
Ġlawyers	13124
Ġspokesman	13123
Ġencountered	13123
Ġsys	13120
ago	13119
Ġ1978	13112
Ġplacebo	13111
mas	13108
Ġships	13108
ITE	13107
Ġpersistent	13102
racted	13101
Ġnoting	13101
ĠCommand	13101
ĠLuc	13100
ĠPhiladelphia	13098
ĠIr	13098
Ġele	13097
Ġordering	13095
ĠSche	13095
Ġincubation	13090
rix	13087
ĠGene	13087
ĠFive	13086
looking	13085
Ġwanting	13085
Ġequity	13085
Ġanalysed	13085
Ġreconstruction	13082
Ġlesion	13082
ello	13079
Ġdebtor	13078
Const	13077
Ġinvest	13077
Ġindividually	13076
Ġmanagers	13075
ika	13074
WA	13074
Ġneuronal	13074
ĠIg	13074
lif	13072
Ġtro	13072
Ġwithdraw	13071
Ġaligned	13070
Ġsphere	13069
ĠJavaScript	13069
Ġfishing	13068
ĠOverall	13068
ission	13065
Ġoccupied	13064
Ċĉĉĉĉĉĉĉ	13064
Conf	13063
cert	13062
Game	13061
Ġvo	13061
Ġmeals	13059
rence	13058
OWN	13054
Ġprot	13053
146	13052
ĠTB	13050
cong	13044
Ġethanol	13043
miss	13039
Account	13039
Ġpie	13036
Ġstolen	13035
Ã¡Âº	13033
Ġinvent	13032
Ġraises	13028
Ġassociate	13028
Appellant	13023
139	13023
ishment	13021
ĠStudent	13020
Ġ123	13020
Platform	13019
Ġtit	13019
Ġchemicals	13019
Ġundefined	13017
Ġgal	13017
Ġdelicious	13015
Ġbelt	13015
}}}(	13013
enger	13013
Ġgolf	13012
030	13011
Ġaf	13010
ĠDiego	13009
ĠBow	13009
Ġdont	13006
ients	13004
ĠAuthor	13004
ĠSmall	13002
ĠCSS	12999
ĠExecutive	12998
Ġaffairs	12995
cloud	12993
Ġspecimens	12992
ICK	12991
appro	12988
Ġinspection	12988
worth	12986
Ġ(<	12985
202	12984
ĠUt	12983
shift	12981
Ġneg	12981
Ġtriple	12977
PF	12975
Ġlogin	12972
Ġsurrounded	12970
Ġhon	12970
Ġpositioned	12969
ĠAk	12966
present	12963
Ġhemat	12963
Ġcou	12961
ĠMars	12961
Ġlocalized	12960
ĠSeattle	12960
Valid	12959
ĠÂ«	12959
Ġcitizen	12959
čĊĠĠĠĠĠĠĠĠĠĠĠĠĠĠĠĠĠĠĠ	12959
Ġformulation	12958
UID	12957
Ġaddressing	12957
Rest	12956
Ġpromotion	12955
Ġmile	12953
ĠAli	12952
198	12950
Ġhandled	12950
ĠChen	12950
Ġalien	12949
ĠWat	12949
callback	12947
Media	12940
vere	12939
ochemical	12939
;;	12938
bytes	12937
Express	12937
Ġarises	12937
ĠVen	12936
Video	12935
ĠMom	12935
exper	12932
speed	12931
acet	12930
Ġadm	12930
uments	12929
ensor	12929
antic	12929
Obj	12928
Ġnegotiations	12928
ĠOklahoma	12928
Ġ-------------	12928
Ġbirthday	12927
ĠOil	12922
God	12920
apply	12919
minute	12916
imb	12914
Ġbeings	12914
ĠFootball	12914
properties	12913
ĠARE	12913
ĠChange	12912
springframework	12909
fg	12909
Ġgrace	12909
uid	12905
Runtime	12905
154	12905
owner	12904
Real	12904
umps	12898
Ġquit	12893
ĠBureau	12893
DT	12891
Ġgrants	12889
Ġurine	12886
Engine	12882
ĠFC	12880
Ġfra	12878
Ġexclude	12878
Ġstir	12876
"],	12875
ĠRod	12875
Ġrestrict	12874
Ġlets	12873
),$$	12871
Ġcorporations	12871
ĠNR	12871
ĠLLC	12871
1987	12868
Ġtermination	12867
padding	12865
ĠForeign	12863
Ġverified	12862
vention	12856
wan	12853
ream	12850
Args	12849
ĠNation	12849
Ġpray	12848
ÙĦ	12844
Ġorgans	12841
ĠManager	12841
Ap	12839
illion	12832
230	12831
fx	12828
Ġdispersion	12828
Ġhearts	12827
ĠLabour	12827
Ġconsiderations	12826
Pop	12822
Ġalloc	12819
Ġpod	12818
Ġgro	12816
isted	12812
Ġrolling	12812
Ġhighlighted	12810
Ġclubs	12808
ĠBol	12808
ican	12807
osomal	12806
XML	12806
âĢ©	12803
Delete	12801
Ġchairman	12801
Ġcarriers	12801
ergic	12800
ician	12799
Ġdisrupt	12798
ĠSyrian	12796
orable	12795
Ġlim	12793
Ġfatal	12793
ivities	12792
Ġsheets	12791
ĠInvention	12791
share	12787
gan	12786
ĠPhoto	12786
Ġcomb	12783
Ġprostate	12782
Ġindictment	12778
EQ	12774
depth	12772
Stop	12772
Ġoccasionally	12768
ĠInv	12767
Ġinsights	12763
Ġsimulated	12762
Ġimplements	12757
omen	12756
shared	12754
Ġexpanding	12754
Ġengaging	12754
ãģĹ	12750
olve	12750
Ġsuggestion	12749
Ġbarriers	12749
Directory	12748
Ġshapes	12748
Ġphoton	12748
mers	12746
erry	12746
Ġlobby	12746
Ġflexibility	12745
Ġkg	12742
ppat	12741
Ġprescription	12738
ĠCurrent	12738
Dem	12737
ĠJon	12731
Ġapproached	12728
rev	12727
ĠSoc	12727
Ġdistricts	12723
render	12722
ĠMi	12722
unct	12720
ĠÎ¼M	12720
Ġbreathing	12719
ĠSelf	12717
sr	12716
Ġremarks	12715
Layer	12714
np	12711
--------------------	12711
ĠRoss	12708
Ġrealistic	12707
Ġmonitored	12704
Ġtournament	12703
Ġtitles	12702
*\	12701
}{{\	12700
ylation	12699
Ġprep	12697
network	12696
Ġinconsistent	12696
Ġangles	12693
æľ	12692
ãģŁ	12692
Ġvolumes	12691
Ġdishes	12690
ĠJacob	12690
Ã£o	12689
know	12689
ĠKat	12689
ĠForest	12688
Factor	12687
Ġincredibly	12687
Ġvolunteers	12686
ses	12681
iterator	12679
Ġdevelopmental	12678
Â¤	12674
dig	12674
>;	12674
Ġdeleted	12674
Ġ-----------	12674
Doc	12672
bour	12671
Che	12671
Ġimpacts	12671
USE	12665
Ġinference	12662
hh	12658
urch	12657
]}	12656
Ġdistant	12655
JSON	12654
Ġlin	12654
Ġsleeping	12653
Ġ1975	12652
Ġpostoperative	12651
Ġmathematical	12651
Ġyours	12650
Ġ'/	12649
ĠPrince	12648
ĠCV	12648
Ġarrays	12647
rophic	12646
Ġmodulation	12646
Ġasthma	12645
Ġforecast	12644
Ġsolving	12642
amer	12641
Draw	12639
Ġconversations	12639
both	12637
ĠÃħ	12636
ĠOxford	12636
itness	12631
Kind	12630
Ġencoded	12629
Ġdisposed	12629
ĠPack	12628
Gener	12626
Ġ05	12626
iful	12625
Ġmandatory	12625
PUT	12624
Ġabandoned	12624
ĠOnline	12624
ĠMarc	12624
ĠML	12622
WT	12621
Ġdeclaration	12621
åľ¨	12618
IGHT	12618
Ġdying	12618
ĠVisual	12617
Ġthr	12615
Ġneedle	12615
ivers	12614
Ġglyc	12613
Ġcho	12613
AH	12612
ĠContent	12612
Ġslice	12610
market	12609
254	12609
Ġimply	12609
library	12607
without	12606
Ġsmell	12606
brief	12601
ACH	12601
&=&	12598
Ġpurely	12598
Ġextracts	12598
.....	12597
Ġsuppressed	12597
nic	12594
Ġbalanced	12594
Ġtranslate	12592
Ġfilename	12592
ä¹	12590
bn	12588
job	12587
switch	12586
Wait	12585
Ġspoken	12585
ĠPrice	12584
burn	12581
}$-	12580
ĠPot	12580
Ġju	12577
Ġdialog	12577
ĠEL	12577
ĠThrough	12575
ĠFuture	12572
pler	12567
Ġhitting	12562
appe	12556
Ġsubstitute	12555
xim	12551
Ġborrow	12550
ĠSym	12549
Ġproceeds	12548
Ġsecretion	12546
ĠRO	12545
than	12543
*\<	12541
ferences	12539
Ġmotivation	12538
ĠRich	12538
Ġfocuses	12531
Ġupgrade	12530
Ġnutrition	12530
Ġligand	12530
PATH	12529
Ġaccordingly	12529
âĢ¦.	12528
Ġcontroversy	12527
ĠTheory	12527
Ġsixth	12526
Ġinnovation	12525
arious	12524
Ġappend	12524
Ġpleased	12523
ocon	12522
)/((-	12522
Ġpromoted	12522
ĠMissouri	12520
Ġexam	12519
oman	12518
returns	12517
Ġremedy	12512
Ġpulling	12512
price	12511
Ġattach	12511
roc	12510
Ġtransitions	12510
yard	12509
Ġconsiderably	12507
Ġarguing	12506
Ġmerge	12503
Ð¿	12502
Ġcyt	12500
icul	12496
Ġoperational	12496
PAR	12495
Ġdozen	12494
Ġanalytical	12492
proof	12491
ãģ¯	12490
Ġexplaining	12489
Ġexhibits	12488
ĠHotel	12488
Ġinspect	12486
Ġmag	12484
DEBUG	12483
racy	12481
Ġtranscripts	12479
Ġintact	12476
}})$	12475
Ġmorphology	12475
024	12474
Email	12473
Ġethical	12473
anded	12472
âĢĿ)	12470
never	12466
Ġgarlic	12460
ĠBoy	12459
Ġtmp	12458
Ġmobility	12458
æķ°	12454
Evaluate	12453
(!	12452
Ġrum	12447
decl	12443
BY	12443
Ġč	12438
Ġcure	12436
Ġox	12430
prov	12427
otypes	12427
Ġ,\	12426
lick	12422
done	12420
feed	12418
Ġterror	12418
}:	12417
vision	12417
Ġties	12416
="../	12415
iac	12414
IDE	12414
Ġ350	12414
actor	12411
iso	12410
ĠNBA	12410
inline	12407
Ġconducting	12407
Ġevaluating	12405
ĠWithin	12405
Ġfounder	12404
206	12402
ĠĠĠĠĠĠĠĠĠĠĠĠĠĠĠĠĠĠĠĠĠĠĠĠĠĠĠĠĠĠĠĠĠĠĠĠĠĠĠĠĠĠ	12402
atum	12400
Ġreviewing	12399
ĠMount	12399
success	12398
ĠROS	12398
uts	12397
ption	12396
166	12394
andy	12392
ĊĉĠ	12390
Users	12389
Ġnarrative	12389
Ġprefix	12387
Ġfate	12387
Ġreserve	12386
Ġphones	12386
LOG	12383
ĠJe	12383
ĠÙ	12381
Ġenemies	12381
ĠMessage	12381
oved	12379
Trump	12375
,âĢĻ	12375
aken	12372
Ġreportedly	12370
æł	12368
olding	12368
(:	12368
Ġinnocent	12368
Ġmaxim	12363
Ġcannabis	12362
Ġ1976	12362
pic	12361
ĠâĢĻ	12360
coll	12359
Art	12359
Lock	12357
Ġkil	12355
Ret	12354
Ġqual	12353
ĠCle	12352
Ġconvenience	12351
ife	12350
Ġlegally	12350
Channel	12347
Ġposting	12347
Ġprayer	12346
Ġplacing	12345
ĠDirect	12344
Ġswing	12342
Ġimplementing	12342
Ġ02	12342
Ġphen	12341
ĠInf	12341
Ãº	12339
Ġofficially	12339
ĠRab	12339
143	12336
Those	12334
$;	12332
ĠCt	12332
Si	12330
ĠSky	12330
ague	12329
\|_{	12327
aga	12326
Ġhomogeneous	12322
Ġdra	12322
ytic	12321
Ġnurse	12319
ĠMur	12319
Ġcurvature	12318
ĠCre	12316
Ġhormone	12315
Ġsustainable	12313
quant	12312
Ġballs	12312
protected	12308
ĠRapids	12308
ilation	12307
Ġvaries	12306
Ġoutdoor	12304
ĠFred	12303
oves	12300
AST	12300
Ġthrew	12299
Ġasserted	12299
Pool	12298
Ġcounting	12298
ĠFactor	12297
187	12296
Pal	12292
Ġheaven	12291
Ġ------	12291
Ġrecruitment	12290
Ð¼	12288
Ġgar	12287
Ġspe	12286
ĠTan	12284
sing	12283
ĠGovernor	12281
ĠFinal	12281
driver	12275
rophy	12270
.[]{	12268
Ġocean	12268
ĠBUT	12266
Age	12263
Ġconstitutes	12261
illary	12259
Ġoverwhelming	12259
ĠMotion	12259
rust	12257
ĠRF	12254
Storage	12252
Ġfever	12252
Ġtraveling	12250
para	12249
äº	12247
ĠDallas	12243
Ġolive	12241
Ev	12240
Ġtun	12238
Ġmethodology	12238
elect	12237
ĠEs	12236
Åį	12235
Ġacquire	12232
ĠMY	12232
Ġmyel	12231
stitution	12230
integer	12228
Ġtender	12223
Ġident	12221
ĊĠĠĠĠĠĠĠĠĠĠĠĠĠĠĠĠĠĠĠĠĠĠ	12221
platform	12220
TF	12220
ĠGolden	12220
Ġdenoted	12219
ructions	12218
gener	12218
177	12218
>::	12216
Ġlas	12216
Pat	12215
Ġshifted	12213
Ġlessons	12212
ĠPalestinian	12212
900	12211
ĠTarget	12211
Ġ[$	12210
Ð°Ð½	12207
natural	12207
inos	12206
Edge	12204
Ġnuclei	12203
Ġmotiv	12201
Ġappellate	12201
ĠSF	12201
Ġtears	12199
Ġ"%	12199
Ġextracellular	12195
Ġvalidate	12194
Ġprobation	12194
Ġmetastasis	12193
ĠKit	12192
Ġenv	12191
ĠFinancial	12190
ĠCOURT	12189
148	12187
Ġmist	12187
Ġbiology	12187
plant	12186
Ġ121	12186
effect	12182
Ġpollution	12180
bullet	12178
Ġcups	12177
ĠAlexander	12176
Ġappearing	12175
Ġlesser	12174
xp	12171
Ġwr	12170
Ġsusceptibility	12170
185	12169
Ġraces	12169
Ġwages	12168
Ġsubstrates	12166
Ġcod	12166
IAL	12165
ĠRequest	12165
Ġindirect	12163
News	12162
ãĢ	12161
ATA	12156
Ġhanging	12155
Ġimmigrants	12154
parameter	12152
period	12151
_;	12151
ĠGro	12151
Ġ"-	12151
ĠUpon	12150
ĠWould	12149
Invalid	12148
ĠBall	12147
Consider	12145
Ġconfigurations	12143
Ġspeaker	12141
Ġdiver	12140
oci	12138
Ġrally	12138
Ġobjectives	12138
Ġviable	12137
Ġgamma	12137
hire	12136
Ġorganisms	12134
Policy	12133
Ġstepped	12131
~\	12130
itate	12130
ĠDim	12130
ÐµÐ½	12129
look	12129
idents	12129
Ġmerits	12127
ĠEr	12124
ĠRules	12121
Ġclip	12120
ĠTur	12120
Ġdiscussing	12117
Ġabilities	12114
Ġdramatically	12112
^{+	12111
Byte	12111
uration	12110
ĠBor	12110
Ġbelonging	12109
Ġasserts	12109
ĠMother	12107
ĠHamilton	12107
Ġpseud	12105
ĠMC	12103
ĠSingapore	12102
issue	12100
ARK	12100
Ġfallen	12100
ordered	12098
Sur	12098
hidden	12096
Ġinvestigators	12096
ived	12095
Ġdevelopments	12094
ĠIde	12094
Ġdrops	12093
Ġcharging	12092
Ġwrap	12091
original	12090
Ġhighlights	12090
gate	12089
ĠCarl	12089
)\\	12088
ĠTennessee	12086
classes	12085
Ġrobbery	12085
ä¸Ń	12084
equals	12083
gel	12082
Term	12082
ĠAdv	12080
ÃĲÂµÃĳ	12079
ĠWars	12078
Ġaspir	12076
167	12073
ĠUSE	12073
ĠLes	12073
ĠChannel	12071
Ġ---------	12071
ĠTony	12070
Ġproducer	12069
pred	12067
DEF	12067
twitter	12066
Ġinnovative	12066
Ġlengths	12065
]=	12063
Ġnecessity	12063
Ġ--------------	12063
208	12062
Ġtopological	12060
cribe	12059
Release	12057
Ġadoption	12057
ĠCorn	12057
ĠRome	12056
Ġblot	12054
Ġ----------	12054
Ġriding	12053
oxid	12050
Ġpink	12050
131	12047
Ġsubstit	12047
delim	12046
jax	12045
ĠHan	12044
SON	12043
Ġdip	12043
Ġreceipt	12041
Ġoperates	12041
around	12040
ride	12039
Ġexcitation	12039
ben	12036
195	12033
Hy	12032
FLAGS	12032
Ġhumanity	12032
ĠOrganization	12032
cross	12031
225	12030
conv	12029
375	12027
lated	12026
Ġfluorescent	12026
Ġdiscontin	12026
oted	12025
Java	12024
cas	12022
Ġcredibility	12022
ĠRon	12022
Ġassertion	12020
ĠMRI	12018
controlled	12015
connected	12015
Ġsynt	12015
Ġfreely	12014
Ġgrab	12013
bach	12012
Ġoxidation	12012
Ġprevents	12011
ĠEditor	12011
188	12010
Ġsafely	12010
omatic	12009
Win	12009
tri	12008
Ġpacked	12007
ror	12006
oi	12005
FOR	12005
opp	12004
Ġconvex	12004
ĠNight	12004
ĠCapital	12001
ribut	12000
gif	12000
1980	12000
Ġwisdom	12000
Ġcasual	12000
Ġbol	11999
Ġio	11995
Ġincorrect	11995
Ġmesh	11994
ĠHom	11994
ĠClark	11994
_(	11989
Ġprojected	11989
Ġaffordable	11988
piece	11986
Matrix	11986
Ġwid	11986
caps	11985
Ġwheat	11984
ĠBad	11984
Ġstopping	11982
Ġinvasive	11981
Ġattending	11981
Bank	11980
Ġtriggered	11980
sized	11979
Ġfucking	11979
Ġalterations	11979
)$-	11978
Ġmodest	11978
Ġlighting	11978
inch	11977
fra	11975
ael	11975
Ġdonors	11975
ĠVis	11972
typedef	11966
Ġunity	11964
Ġë	11963
ĠGi	11963
atching	11962
ĠAppro	11961
ĠLanguage	11960
Ġadaptation	11959
ĠBridge	11959
extern	11958
Ġpromises	11958
ĠBit	11958
ĠYouTube	11954
Ġcatalyst	11953
Ġconvey	11948
Ġasync	11948
Ġapt	11948
Mask	11946
Ġconfirmation	11945
Api	11944
ãģ¨	11941
ĠKh	11941
ĠProtection	11937
Ġmeets	11934
Ġcombining	11933
ĠDIS	11930
nex	11929
}$)	11928
Ġreb	11927
Ġbother	11927
ĠHub	11927
ĠExpression	11927
ĠChampionship	11926
Ġnurses	11925
Ġshame	11923
Ġcameras	11923
exists	11921
ĠBet	11921
Ġutilize	11918
Ġgentle	11918
Float	11916
Math	11915
Ġresort	11915
Ġrelaxation	11915
ĠĠĊ	11914
Ġinherent	11913
ĠRoy	11912
ĠSarah	11911
Ġathletes	11909
orship	11908
ĠJason	11907
David	11905
Card	11905
ĠMeanwhile	11904
ĠCome	11902
Ġconcert	11900
Âĩ	11899
ulsion	11899
Ġbud	11899
ĠPURPOSE	11898
Ġdeficit	11897
alty	11895
Ġcomplain	11895
ounce	11894
Ġdensities	11893
Ġconditional	11893
Ġmetrics	11891
ĠComb	11885
chers	11883
Bit	11883
ĠSK	11883
ques	11881
ĠWHERE	11879
tests	11878
deg	11878
Pointer	11876
Ġoccasions	11873
uced	11872
Ġrepl	11872
ĠAuto	11871
cover	11867
Ġretention	11866
Ġinvestments	11866
Ġhanded	11865
Ġartists	11865
Ġ08	11865
Ġ------------	11864
ĠStock	11861
username	11859
spin	11858
Ġtel	11857
rection	11856
ĠExpress	11856
ĠBerlin	11856
Ġarbitration	11852
ĠBurn	11851
ĠAuthority	11849
infected	11847
ĠTex	11847
Ġtet	11845
Ġprotests	11845
Ġfoo	11843
ĠCost	11840
Ke	11839
360	11834
Ùħ	11832
distance	11832
\#	11831
Ġanimation	11831
hesis	11829
Ġtestify	11825
Copy	11824
UTF	11823
Ġgolden	11822
soft	11821
Ġinsured	11820
ĠAccount	11820
ushing	11818
224	11817
Ġens	11817
éĢ	11815
MIN	11814
ionic	11811
Ġmistakes	11811
ĠÐ¾	11810
Ġjudges	11810
Transform	11809
lected	11807
Ġfloating	11805
Ġdiagonal	11805
yd	11804
Ġcompiler	11802
Selected	11801
Ġdatabases	11800
irst	11799
linked	11793
istent	11793
'))	11793
PN	11791
ĠLicensed	11790
ĠHoward	11790
ipher	11789
![](	11789
ĠExample	11789
ceived	11788
Ġsocket	11788
Ġmotivated	11786
mult	11785
Ġcru	11785
Ġensuring	11783
ÙĪ	11782
ĠSure	11782
fusion	11781
Ġdated	11781
rez	11778
isen	11778
Ġenormous	11773
Ġremand	11771
ĠStore	11771
pot	11770
Ġbaking	11770
Ġ175	11770
ounding	11769
164	11769
Queue	11766
Ah	11766
ASH	11765
Ġsupers	11764
Ġactivists	11764
ĠStudio	11763
sol	11762
hou	11762
irl	11759
weet	11758
expr	11757
Ġyard	11757
Ġearnings	11754
icip	11749
agon	11749
ĠĠĠĠĠĠĠĠĠĠĠĠĠĠĠĠĠĠĠĠĠĠĠĠĠĠĠĠĠĠĠĠĠĠĠĠĠĠĠĠĠĠĠĠĠĠĠĠĠĠĠĠĠĠĠĠĠĠĠĠĠĠĠĠĠĠĠĠĠĠĠĠĠĠĠĠĠĠĠĠĠĠĠĠĠĠĠĠĠĠĠĠĠĠĠĠĠĠĠĠĠĠĠĠĠĠĠĠĠĠĠĠĠĠĠĠĠĠĠĠĠĠĠĠĠĠĠĠĠĠĠĠĠĠĠĠĠĠĠĠĠĠĠĠĠĠĠĠĠĠĠĠĠĠĠĠĠĠĠĠĠĠĠĠĠĠĠĠĠĠĠĠĠĠĠĠĠĠĠĠĠĠĠĠĠĠĠĠĠĠĠĠĠĠĠĠĠĠĠĠĠĠĠĠĠĠĠĠĠĠĠĠĠĠĠĠĠĠĠĠĠĠĠĠĠĠĠĠĠĠĠĠĠĠĠĠĠĠĠĠĠĠĠĠĠĠĠĠĠĠĠĠĠĠĠĠ	11748
Ġpremises	11745
Ġamongst	11744
Ġ139	11744
OUR	11743
Ġvas	11743
Ġlegislature	11742
Ġcrop	11742
Ġinitiation	11740
Ġsav	11739
~-	11738
ĠPsych	11738
Dim	11737
Ġbare	11736
ĠTreatment	11736
mn	11735
Ġboards	11734
operation	11733
Ġlat	11732
UG	11731
ĊĠĠĠĠĠĠĠĠĠĠĠĠĠĠĠĠĠĠĠĠĠĠĠĠĠĠĠĠĠ	11731
Ġthrowing	11730
Ġprognosis	11726
Ġdowntown	11726
Ġstra	11724
})$.	11723
expression	11723
ĠDark	11723
gram	11722
à´	11721
ĠSummer	11721
ĠVery	11720
ĠEmploy	11720
Ġhes	11718
required	11717
bul	11714
Ġtherapies	11714
ancing	11712
ĠNi	11712
Ġinsertion	11710
Ġads	11710
Ġshops	11709
ĠNav	11709
jet	11708
Try	11706
Double	11705
ĠSenator	11704
ENCE	11701
ĠNK	11700
Ġultra	11696
pected	11694
176	11693
Ġmilit	11693
Ġhire	11693
Ġ]{}	11693
Ġindustries	11690
ĠWorks	11688
_-	11684
Ġrepository	11683
Ġ240	11683
mel	11679
ÐµÐ	11676
Ġjustified	11674
Contact	11673
Ġchopped	11673
chlor	11672
../../	11672
ĠSEC	11672
Unc	11670
bid	11669
Ġspeaks	11669
Ġdistribute	11668
Ġ"",	11667
ĠFact	11666
Report	11663
OLD	11661
Ġcirc	11661
shell	11660
ixed	11660
Ġuniversities	11660
Ġbasal	11659
\)	11658
Ġredirect	11657
Ġdeploy	11657
inals	11655
Ġpassenger	11655
Ġmanufacturers	11655
charge	11654
ĠWalker	11654
Ġ04	11652
Ġreactive	11650
ĠSep	11650
handler	11647
heart	11646
ANK	11646
mk	11645
ĠMorgan	11645
sel	11642
irts	11640
Fi	11640
ĠĠĠĠĠĠĠĠĠĠĠĠĠĠĠĠĠĠĠĠĠĠĠĠĠĠĠĠĠĠĠĠĠĠĠĠĠĠĠĠĠĠĠ	11640
ÙĬ	11639
[:	11639
))?	11638
ĠcDNA	11637
Pay	11636
Ġantibiotics	11636
Member	11634
Ġcats	11634
Ġobligations	11633
Ġpers	11632
Ġtent	11630
ĊĊĠĠĠĠĠĠĠĠĠĠĠĠĠĠĠĠĠĠĠ	11628
Ġemails	11627
Ġbackup	11627
ĠPARTICULAR	11627
264	11625
pir	11624
Ġdisappear	11624
Ġaveraged	11623
Ġempirical	11621
Ġdepart	11620
209	11618
,[	11617
ifndef	11616
Ġsupplement	11613
Ġprofound	11613
ĠTrade	11612
ĠTurn	11611
Ġavoided	11608
Subject	11606
Mus	11606
Ġfought	11606
Ġfruits	11604
ĠÐ´	11603
Ġveteran	11602
Ġpackaging	11597
clock	11594
alls	11593
xsl	11592
1983	11592
plate	11591
annon	11591
ieve	11589
Ġmainstream	11589
Ġaqu	11589
Ġdistress	11588
Ġmultip	11587
Ġarts	11587
ĠElect	11587
ĠCOVID	11587
Ġdeserve	11586
Ġratings	11585
Ġduct	11585
dfrac	11584
Ġholder	11583
Ġchips	11581
ĠTam	11581
ĠElizabeth	11581
virtual	11576
eld	11576
Ġpreserved	11575
Ġexperiencing	11575
ograph	11574
Ġgenotype	11574
since	11573
Ġdesk	11570
uge	11567
Ġcancel	11567
Ġalternatives	11565
ãģª	11564
Ġmayor	11564
ĠKeep	11563
Ġ1950	11563
Job	11561
Ġblockchain	11561
ĠSquare	11561
ãĥ³	11560
carbon	11560
odot	11557
odies	11555
Ġgranting	11554
udge	11553
Ġadvances	11549
lee	11547
ĠWales	11546
oser	11545
Ġfig	11545
Black	11543
Ġsearched	11543
Ġapproximate	11542
osition	11541
isp	11541
ĠMoon	11541
184	11540
Ġrefuse	11537
Ġcatal	11537
mag	11536
Ġreprodu	11536
Parser	11533
1982	11533
uda	11532
formation	11532
Ġvoluntary	11532
sg	11531
olly	11531
oidal	11531
Ġmand	11527
åį	11526
Ġhappiness	11525
ĠâĢľ[	11523
Ġpole	11523
DU	11522
Ġmus	11522
oxide	11520
ĠDisney	11520
LIB	11517
Ġprosec	11517
ĠInteger	11517
Ġunc	11516
Ġadhesion	11516
ĠBesides	11515
Ġupstream	11512
Ġcit	11507
urance	11506
Summary	11506
mus	11503
ools	11501
try	11500
Ġeastern	11500
ogra	11499
ilit	11499
]-[@	11499
ĠFITNESS	11499
eff	11497
Ġintensive	11497
Ġresidue	11496
ĠLater	11495
ĠMember	11494
ĠCredit	11494
174	11493
Ġarchitect	11493
Ġ$|\	11491
Ġrevised	11490
Ġol	11490
inet	11489
ĠCollection	11489
ĠUSB	11486
Ġscr	11484
Kit	11483
orous	11481
Ġevolutionary	11481
ĠBlood	11481
ugg	11480
)+\	11479
Ġps	11478
ĠRick	11478
Ã´	11477
ĠRow	11477
Ġbuttons	11475
asive	11473
Ġcompile	11473
ĠCruz	11473
Ġshirt	11471
Ġselecting	11471
ĠVector	11471
ĠKy	11471
Ġpaste	11468
uma	11466
Track	11466
$:	11466
identifier	11463
Ġmechan	11463
Ġtumour	11462
Ġclinically	11460
fulness	11459
ĠUtah	11458
Ġsan	11451
153	11449
Ġdivorce	11448
_*	11445
ĠDutch	11445
Ġpseudo	11444
Player	11443
uity	11442
ĠNat	11441
ceptor	11440
stock	11439
Ġexempt	11439
ĠHA	11439
Ġ1973	11439
Health	11438
apes	11437
ĠAI	11437
Ġ124	11437
}}}_{	11436
Ġstationary	11436
ĠNotice	11436
Ġviability	11433
oxic	11432
Ġinfluenza	11432
Ġflav	11432
Ġconsumed	11432
Ġdeck	11431
Ġprimers	11430
ĠHal	11429
opath	11428
Ġterr	11428
Ġrival	11428
ĠStep	11427
osome	11425
159	11424
Ġloads	11423
ĠCaptain	11422
tp	11421
mitted	11420
Ġillustrate	11420
Ġexponential	11419
alling	11418
Ġranked	11418
ĠResponse	11418
Ġsusceptible	11417
Ġrecipes	11417
Ġ``	11417
inson	11413
onomy	11411
[]{	11410
VR	11410
Ġcounted	11409
ĠVietnam	11409
Ġrelevance	11407
ector	11403
Ġthereafter	11403
Ġpremium	11401
Ġpainful	11400
did	11399
028	11398
Ġdisclose	11398
ĠLive	11398
initial	11397
quire	11394
Ġagricultural	11391
except	11390
Ġmusical	11390
uated	11388
arsh	11388
quoting	11387
ĠBrad	11386
amic	11385
Fil	11383
emon	11380
Ġimper	11380
flag	11379
ulatory	11375
Ġembarrass	11375
Ġallocation	11372
IZ	11370
ĊĠĠĠĠĠĠĠĠĠĠĠĠĠĠĠĠĠĠĠĠĠĠĠĠ	11365
UST	11364
Ġappellants	11364
ĠTal	11362
vee	11361
ĠZe	11359
Ġfigured	11358
ĠĊĊ	11358
Ġintim	11353
ĠJosh	11351
Play	11348
Ġintroducing	11347
Ġtap	11346
aren	11345
=\"	11345
ĠJul	11345
Binding	11344
ĠGET	11344
Ġfetal	11343
Ġcenturies	11343
Ġpredetermined	11341
ĠOtherwise	11341
======	11338
{$	11337
Ġskip	11337
tf	11336
cu	11335
ensed	11334
ĊĠĠĠĠĠĠĠĠĊĠĠĠĠĠĠĠ	11334
Ġtickets	11331
ĠFrancis	11331
Ġalk	11330
ĠHad	11330
|_{	11324
olin	11323
Ġaffidavit	11322
oton	11321
Arch	11321
ĠMcG	11318
anny	11316
Ġbeef	11315
ĠLouisiana	11315
Ġprolonged	11314
æľī	11313
Ġgraphics	11312
Register	11311
Ġdispar	11308
Further	11307
040	11307
Ġincidents	11307
Ġabsorb	11307
were	11305
Ġcalendar	11303
Ġcrossed	11301
Sal	11300
Ġamplification	11299
irk	11298
Ġfurniture	11298
igg	11296
Ġtransit	11295
ĠSab	11295
Fin	11291
Ġdx	11291
ĠLind	11291
ĠHu	11290
ĠPhysics	11289
ĠJane	11286
ĠArts	11286
ĠFil	11285
^](#	11284
Ġ1972	11284
Ġactiv	11283
ĠGP	11283
Ġconcurrent	11281
[-	11279
ĠFilm	11279
Ġtackle	11276
Ġconjunction	11276
ĠNASA	11272
ĠBull	11271
207	11269
Ġinfectious	11269
ViewController	11268
fileID	11267
ä½	11266
come	11266
LINE	11266
separ	11265
controller	11265
irect	11264
Ġwrit	11263
Ġseemingly	11263
Ġopp	11263
Save	11261
ĠTerm	11261
Ġcorrections	11260
Ġventricular	11258
Security	11257
Ġcertified	11255
Ġlake	11252
ĠTi	11250
poss	11244
Ġrecommendation	11244
skip	11242
ĠDA	11241
Ġrelax	11240
Ġcarb	11240
reset	11238
).\	11238
ĠCong	11238
å°	11237
ouse	11235
Ġevolved	11235
LV	11233
ĠMess	11233
quest	11231
Ġ%>	11230
Abs	11228
ledge	11227
Texture	11226
Ġ360	11226
Ġbon	11223
Ġdismissal	11221
Ra	11217
Em	11217
Ġcone	11217
ĠBP	11215
ĠAffairs	11215
ĠNetherlands	11214
Ġemployers	11213
Ġbrands	11211
Press	11210
Short	11209
ipl	11208
arXiv	11208
Ġcontamination	11208
Ġregret	11207
usp	11203
Ġrotating	11199
Ġundergoing	11198
à²	11193
512	11193
Ġcurious	11193
Ġ.$$	11193
027	11192
SB	11191
026	11190
Ġawards	11190
rooms	11189
Util	11189
Ġdynamical	11189
ĠET	11188
Ġdemonstrating	11186
ĠUnlike	11186
Sample	11185
Ġmarginal	11183
ĠMERCHANTABILITY	11183
ĠContin	11181
Ġtransplant	11180
icode	11178
Ġcircum	11178
Ġremark	11177
Av	11174
Ġtwelve	11174
Ġorbital	11174
Ġ--------	11173
Ġnest	11169
Ġgrey	11168
Ġ201	11168
Ġprofession	11167
ĠSenior	11167
ĠRecently	11167
Ġhepat	11166
ĠProte	11166
ĠBM	11166
Ġsch	11163
Ġgran	11162
iph	11161
Ġsubtle	11160
Ġcorrupt	11157
essed	11155
Ang	11155
Ġcytos	11154
162	11153
ĠDouble	11153
Ġtransverse	11152
Ġdrain	11152
Ga	11150
)->	11150
Ġtongue	11150
Ġcouples	11150
ĠMayor	11150
execute	11149
Ġsettle	11149
lass	11148
pattern	11145
Ġfeasible	11144
INS	11143
Ġdir	11141
Ã§Ã£o	11139
iques	11139
Ġpublications	11138
Ġextr	11137
Ġachieving	11137
ä¸Ģ	11136
Ġâī¤	11136
Ġhorses	11136
Ġ126	11135
bas	11131
nder	11130
BV	11130
Ġtear	11129
react	11126
igma	11126
Ġtopology	11125
)-\	11123
Ġpressed	11122
abe	11121
ĠFront	11120
ĠSpec	11119
ĠJay	11119
ĠTokyo	11118
ĠAppendix	11117
Ġlips	11115
Ġsorts	11114
ĠPop	11114
ĠSOFTWARE	11113
ĠResources	11113
Ġhill	11112
Ġenrolled	11112
TEXT	11111
ige	11110
Ġcylinder	11110
203	11107
___	11104
Ġwise	11104
Ġlesson	11103
Ġdialogue	11103
Â£	11102
Ġhoped	11101
every	11095
Ġexcuse	11095
Ġcapt	11094
ador	11093
ĠNeg	11093
ocy	11091
Ġrigid	11091
Ġdam	11090
ĠWHO	11087
achment	11086
Ġspontaneous	11086
dehyde	11085
Ġabdominal	11085
ĠEngineering	11085
ĠBeing	11083
ĠLPS	11080
Home	11079
Ġ1974	11078
Ġswimming	11077
ĠAddress	11077
Ġoutputs	11075
osc	11074
Ġcontacted	11074
ĠMountain	11074
eno	11071
à¦	11067
cale	11065
bow	11065
Ġtubes	11065
Ġblade	11064
ĠTa	11064
ĠSurvey	11064
qual	11063
)](#	11062
overs	11060
general	11060
Ent	11059
Ġactivate	11059
building	11058
Ġlemma	11057
Ġcollabor	11056
ÃŃa	11055
lg	11055
Ġunemployment	11055
Ġphenomena	11055
Ġeth	11054
Comment	11053
Ġvon	11053
orse	11052
Obv	11047
mill	11046
Enum	11046
Ġdeletion	11046
enz	11045
Ġmanufacture	11044
Ġdisplacement	11040
Ġ122	11039
Ġ"âĻª	11038
Ġmot	11037
Ġconvictions	11037
bx	11036
'-	11034
ĠNeither	11034
inally	11033
Ġmicroscope	11031
ĠMaterial	11031
Therefore	11029
ÂĮ	11028
Information	11025
ĠMusic	11025
Effect	11024
Ġtheft	11024
phan	11021
Ġsends	11021
Ġhint	11021
Ġtrap	11019
Ġpromotes	11019
ressing	11016
Ġcerebral	11016
245	11015
ĠNH	11015
ĠÎ¼m	11012
Ġthreads	11012
Ġcontributes	11012
Ġbail	11012
owski	11008
Ġscared	11008
Ġtons	11007
Ġbabies	11006
Ġspecification	11004
ĠAssistant	11004
Ġsho	11003
nia	11002
MY	11002
umes	11000
tim	11000
Fore	10999
Ġneighbor	10999
scan	10998
Ġrental	10996
tor	10994
UX	10994
$),	10993
Light	10992
ĠDisease	10992
Ġloops	10990
\{\	10989
ĠBackground	10982
activated	10978
Ġpose	10978
ĠSafety	10978
Bean	10976
Ġlemon	10973
Ġextensions	10972
Ġcmd	10972
into	10968
Ġsheep	10968
lux	10967
Ġoccupation	10966
typ	10962
ĠJerusalem	10962
))$	10961
ĠFourier	10960
hydro	10958
variant	10956
ifiable	10956
Ġaqueous	10956
ĠSummary	10955
uter	10954
Ġadventure	10954
Lib	10953
Ġpap	10953
olf	10952
Ġproposals	10951
Ġinstruct	10951
tip	10950
Ġrack	10950
information	10949
Ġinstability	10947
ĠMonte	10946
oming	10945
Ġhug	10945
ributed	10942
ĠĠĠĠĠĠĠĠĠĠĠĠĠĠĠĠĠĠĠĠĠĠĠĠĠĠĠĠĠĠĠĠĠĠĠĠĠĠĠĠĠĠĠĠ	10942
Ġextraordinary	10941
ĠWright	10941
Remove	10938
ĠAh	10938
Ð·	10936
usions	10936
download	10935
course	10935
Ġconcentrated	10932
Ġsustain	10930
Ġ(âĪĴ	10930
sha	10929
Ġsnap	10928
elly	10925
Ġcaps	10925
ĠDetroit	10924
Rad	10923
Memory	10923
ĠCIA	10923
ĠHeart	10920
Ġbeneath	10917
ĠHot	10916
ĠCB	10916
ativity	10915
Ġweighted	10915
Ġuniformly	10915
Ġdistal	10915
Ġdemocratic	10914
comb	10913
Ġdistinguished	10913
Package	10912
Ġinstructed	10911
omed	10908
ĠInput	10908
Should	10907
Ġdirectors	10906
Ġdrinks	10905
ĠAbs	10904
ĠOntario	10903
ĠMg	10903
editor	10902
Ġtransfected	10902
-->	10901
éĩ	10900
=$	10900
Ġheated	10900
vey	10897
ĠLab	10897
Ġbuf	10896
Ġ03	10896
istence	10895
NM	10895
Ġlegacy	10895
Flow	10893
Ġfacial	10893
Ġcle	10893
__(	10892
\](	10892
ĠMT	10891
Â¡	10890
Ġtrailer	10890
months	10889
Ġendogenous	10887
Ġanonymous	10887
ruit	10886
ĠRaj	10885
Following	10884
ĠOpp	10883
Ġclustering	10882
Ġineffective	10880
ĠJoh	10880
Ġnegatively	10879
Ġgovern	10879
Ġwrapped	10877
Ġjunction	10877
Tom	10875
White	10874
ĠSaint	10874
forward	10872
Ġrecon	10872
Ġcooked	10872
037	10870
uler	10869
uj	10869
Ġqueries	10868
Ġsynthesized	10867
Ġstocks	10867
upload	10866
ĠLoc	10866
artifactId	10865
abc	10865
Auto	10865
Ġinfluences	10865
Ġcaution	10865
Ġacadem	10864
ĠWH	10864
pal	10863
resistant	10861
Ġstip	10861
ĠEnt	10861
events	10860
emphasis	10859
ĠBuilding	10857
ĠKal	10854
Ġbacked	10853
ĠThompson	10853
ĠDer	10853
Ġdesert	10851
Ġtranslated	10850
edy	10849
Ġabroad	10849
Ġsurveys	10848
claimed	10847
Ġsons	10847
ĠGuide	10846
fun	10843
ĠĠĠĠĠĠĠĠĠĠĠĠĠĠĠĠĠĠĠĠĠĠĠĠĠĠĠĠĠĠĠĠĠĠĠĠĠĠĠĠĠĠĠĠĠ	10842
ulates	10841
role	10841
mouse	10841
ĠProm	10841
design	10838
Ġmort	10838
Ġdefence	10838
Ġautomated	10838
ĠSweden	10838
ĠFound	10837
ĠâĨĴ	10836
Ġhopefully	10833
Ġtechn	10832
Ġproducers	10832
))\	10831
Ġwithdrawal	10831
Ġnom	10831
Ġdeciding	10829
radius	10826
xsd	10825
athe	10824
disp	10820
ĠSum	10819
icians	10818
dh	10818
Ġexploration	10818
asion	10817
Ġhepatic	10817
ĠMcK	10817
lm	10816
cz	10816
ĠAustin	10815
Ġcriterion	10814
bigl	10812
Ġtick	10812
Ġdependency	10812
held	10809
Ġty	10809
alle	10806
Ġwhilst	10806
Ġharmful	10806
Ġreleases	10805
Ġpuls	10805
Ġdf	10805
ĠAnthony	10805
Ġvalidated	10804
Ġstatutes	10804
ĠAA	10804
Ġcatalog	10802
their	10801
{{{\	10798
ocr	10797
izard	10797
Ġfasc	10797
[*	10796
Pass	10796
152	10795
Ġcomprised	10795
Ġsensory	10794
Ġcervical	10793
ĠSimon	10793
Ġdrew	10792
ĠTrib	10790
Ġremind	10789
Ġenterprise	10789
Bundle	10788
IRE	10784
ĠrÃ©	10782
Ġrubber	10782
Ġwashing	10781
Ġutilizing	10778
ĠDor	10777
uce	10776
Ġmyocardial	10776
Ġric	10775
-,	10774
Ġsuck	10772
Scale	10770
Auth	10770
grams	10769
Ġtoll	10769
Ġethics	10769
Ġplotted	10768
etime	10767
Ġgli	10767
igious	10764
hpp	10764
ĠCro	10763
Ġfn	10761
mock	10759
Ġ'<	10759
xF	10756
Ġrevision	10755
Ġquad	10754
Ġou	10754
Ġhouseholds	10754
Ġtempt	10752
Ġ07	10751
dm	10749
Ġdiscipline	10749
URI	10748
Ġantenna	10748
ancer	10746
ĠVice	10746
ĠPed	10746
Ġshower	10745
Ġphosphate	10743
andra	10742
Ġunstable	10742
Ġheaders	10742
Ġ129	10742
305	10741
ĠQuant	10741
Ġcollecting	10739
atus	10738
??	10738
*),	10738
Ġeliminated	10738
wal	10736
loss	10736
Ġrendering	10735
sens	10734
bing	10734
ĊĊĠĠĠĠĠĠĠĠĠ	10733
Ġrestored	10732
Ġhub	10732
vable	10731
Ġshaped	10731
subject	10730
Ġfractions	10730
ument	10729
Ġsitu	10729
SN	10728
VAL	10727
Ġvacation	10725
ĠSar	10725
props	10724
Bi	10724
Ġterrorism	10724
ĠLORD	10723
Ġ256	10722
Ġrecombinant	10719
Ġhabits	10719
Ġcompromise	10719
Ġ700	10719
Ġinterrupt	10717
Ġcharacterize	10717
212	10716
Ġsink	10716
Ġpsychiatric	10716
ĠDemocrat	10716
irmed	10715
Ġmapped	10715
Ġconsist	10715
olver	10714
hbox	10714
aco	10712
Leg	10712
Ġsuff	10712
driven	10711
Program	10710
IK	10708
cn	10706
;"	10706
pay	10703
atur	10702
Proxy	10699
234	10699
ĠSTR	10698
smallcaps	10697
Ġears	10696
wx	10694
ashi	10693
Ġopposing	10693
ĠAnti	10692
ĠFourth	10691
OPT	10689
Ġtot	10689
cel	10688
Ġgravitational	10687
spect	10685
ede	10684
Simple	10684
ĠIntegr	10684
wind	10683
){\	10683
Ġcelebrate	10682
factory	10681
ĠConst	10681
Ġprimer	10680
Ġleuk	10678
ilization	10676
Ġquestioned	10674
Ġtoss	10673
$^	10671
Ġgrows	10671
otor	10670
Ġbrush	10670
Ġlocus	10668
ented	10667
158	10667
Ġannounce	10667
ĠFDA	10666
Ġsubjective	10664
groupId	10662
addy	10662
DH	10662
Ġhi	10662
ĠMM	10662
======================	10661
)~	10660
Ġdeposited	10658
Ġdemanding	10658
Ġcomedy	10658
ĠCulture	10657
Ġregards	10656
Ġencouraging	10656
ilton	10654
aro	10654
Ġtranscriptional	10654
Ġaluminum	10654
Ġenabling	10653
ĠSept	10653
Enc	10651
149	10651
Ġexploring	10651
Ġrounds	10650
Ġchemistry	10650
ĠStone	10647
Ġgit	10646
ĠVideo	10644
isher	10643
een	10643
Ġessence	10642
ĠEarly	10642
Sam	10640
ysis	10639
ORD	10637
ĠMexican	10637
ĠKan	10637
Ġillustrates	10636
INTER	10635
Ġactin	10635
ĠOlympics	10635
REE	10633
uto	10632
Ġreservoir	10632
Ġfavour	10632
293	10631
endants	10630
annotation	10629
Ġoffenses	10629
Ġrefugees	10627
ĠGuard	10627
verted	10626
ĠEPA	10626
Ġpride	10624
Ġremembered	10622
Quant	10621
Ġelite	10621
Ġsubsection	10620
Ġprobes	10619
Ġdesktop	10616
ĠEN	10616
Ġreson	10615
Ġkinetic	10614
ĠDal	10613
ĠEss	10612
ADD	10610
Ġexamining	10610
Never	10609
Ġunders	10606
Descriptor	10605
ĠStaff	10605
ĠMarx	10604
ĠTech	10603
Ġmagn	10601
Ġassessing	10601
independent	10600
Ġcoaches	10598
Ġdining	10596
ĠWrite	10596
Ġhind	10595
Ġwalks	10593
Ġjournalists	10593
ĠGrad	10593
Ġimproper	10590
Ġmetals	10589
ĠCounsel	10588
Selection	10587
olecular	10586
Db	10585
ĠCould	10585
ĠEND	10581
ply	10580
Ġexpecting	10579
Ġanticipated	10579
Ġsteam	10578
Ġdamn	10578
icted	10576
Ġbiopsy	10573
ĠEmpire	10572
Ġwars	10569
í	10568
rock	10567
ĊĉĊ	10566
Ġopponents	10563
Ġns	10563
ĠINTO	10562
ĠAtlanta	10560
ĠĊĠĠĠĠĠĠĠĠĠĠĠ	10560
marks	10558
Ġpassive	10558
pleted	10557
agger	10556
ĠDeputy	10555
rine	10554
olved	10554
Bo	10554
anol	10553
airs	10553
Ġedited	10553
ĠCN	10552
azole	10551
Ġpul	10551
Ġallocated	10551
Ġmounting	10550
Ġfetch	10549
ĠBarack	10547
tc	10545
exe	10545
Ġspr	10544
ĠPO	10543
olo	10542
bell	10542
Ġwx	10542
ochemistry	10541
Ġgrad	10541
ĠSant	10541
ohn	10537
inth	10536
Ġmechanics	10536
0010	10534
qq	10533
169	10533
Ġscholars	10532
STAT	10529
Ġpreceding	10529
boot	10527
APP	10527
197	10527
ĠSteel	10527
Mintage	10526
Android	10526
REF	10525
ĠManchester	10525
testing	10524
cou	10524
ĠRub	10524
.""	10520
Ġslower	10520
Ġoz	10519
Ġtrou	10518
ĠBowl	10517
ĠAK	10517
ĠRelations	10516
Dest	10514
ĠCart	10509
Ġmountains	10506
ĠGreece	10503
Ġbandwidth	10502
ĠSTAT	10500
ĠMoscow	10500
ĠExchange	10500
Ġlane	10497
idi	10495
Ġgeometric	10493
ĠIl	10493
Ġcab	10492
Ġforcing	10491
emic	10490
Func	10490
Ġvoc	10490
Ġcausal	10489
ĠLaboratory	10488
ĠSupplementary	10485
ĠRemove	10485
ograms	10483
Ġdisposition	10482
Ġcontainers	10480
Ġmig	10477
Ins	10476
033	10476
Ġhosted	10476
Ġantibiotic	10476
Ġgoogle	10475
---|---|---|---|---|---|---	10474
Ġqualify	10474
Ġharvest	10474
Msg	10469
manager	10468
Ġiso	10468
Ġallies	10468
Ġbypass	10467
Ġauthentication	10467
Screen	10466
Ġdeparture	10465
âĪĹ	10464
Ġpup	10463
gre	10461
Ġdeposit	10459
Ġaz	10459
Ġtowns	10458
Ġpip	10458
Ġpancreatic	10455
Ġavoiding	10455
Ġadaptive	10453
Ġdisp	10450
ĠEight	10450
oons	10449
sor	10448
Ġdiabetic	10448
Ġthroat	10447
199	10446
Ġsimplicity	10446
rf	10445
pur	10445
*^*	10445
ĠCONDITIONS	10445
303	10443
Timeout	10442
Ġsummarized	10440
Ġswim	10439
parallel	10437
Ġpassengers	10435
Ġ\+	10432
Ġregulating	10431
Ġborders	10431
Ġthoroughly	10429
ince	10427
bigr	10426
Ġsymptom	10426
ĠLady	10426
formula	10423
Ġagrees	10423
ĠDoctor	10422
Ġwhereby	10421
Ġepit	10421
agan	10420
Ġfiltered	10419
dam	10418
Ġworship	10418
Ġadequately	10415
ird	10414
Ġattitudes	10414
ĠPatrick	10414
rown	10413
Sen	10413
320	10412
Ġvibr	10412
čĊčĊĠĠĠĠĠĠĠ	10412
Ġclearance	10411
ĠDuke	10411
ĊĠĠĠĠĠĠĠĠĠĠĠĠĠĠĠĠĠĠĠĠĠĠĠĠĠĠĠĠĠĠĠĠĠĠĠĠĠĠĠĠĠĠĠ	10411
ĠCarter	10410
Ġcaptain	10409
Ġoutlined	10408
fly	10407
bec	10407
Ġlum	10406
ÂĴ	10405
Ġmodul	10404
Ġinqu	10403
ä¸į	10401
ĠAud	10400
ĠCountry	10399
Ġrecipient	10397
Ġnights	10396
Ġveget	10395
contract	10394
Details	10394
Ġsurvived	10394
fere	10391
Schema	10391
)));	10391
resolved	10388
}^*	10387
yle	10384
ĠStatus	10384
ĠNM	10384
ogn	10382
Ġdirty	10381
Proof	10379
quer	10377
ĠServ	10377
Ġrejection	10376
Ġconfidential	10375
exception	10373
ois	10371
Ġhandful	10370
Ġperformances	10369
Ġenrichment	10368
ĠSize	10368
ĠTy	10366
ĠGard	10366
Ġmalignant	10364
Ġreproduce	10363
Ġhyd	10363
limit	10362
Øª	10359
Ġdeadly	10359
Ġcant	10358
offs	10354
ANCE	10354
386	10354
Ġvi	10354
Ġproving	10354
oro	10353
hero	10353
ĠLim	10350
RC	10349
Ġcontinuum	10349
entity	10348
counter	10348
Ġqualitative	10347
Ġhorror	10347
boolean	10346
bank	10346
Ġquest	10346
Ġluminosity	10344
Ġsensing	10343
142	10342
ĠHum	10342
="-	10341
270	10340
Ġjoke	10340
Ġcock	10340
Ã©t	10338
ĠPas	10336
ĠScript	10334
Ġappellee	10332
oned	10331
Su	10330
login	10328
Ġinteracting	10325
closed	10324
Ġcra	10320
Ġonc	10317
Ġhighway	10316
Ġpreferences	10314
ync	10313
character	10313
Ġdear	10313
uating	10312
Ġsoci	10311
ĠSpect	10311
EDIT	10310
Ġvirtue	10310
ĠGA	10310
gets	10309
Ġcritics	10308
ĠJun	10308
MEM	10306
typename	10304
Internal	10304
Ġschema	10304
acer	10302
MODE	10302
:"){	10302
Ġquotes	10302
Conclusion	10301
itic	10300
Ġmaintains	10298
Ġcursor	10298
Ġcampaigns	10298
OSS	10297
Ġforeach	10296
faces	10293
1981	10293
Ġdeployment	10293
Ġspecialized	10292
Ġbesides	10288
Ġ?>	10288
contact	10287
Acc	10287
ĠBern	10287
Ġproductivity	10285
ĠBASIS	10284
Ġpropagation	10283
Off	10282
Ġconnectivity	10282
Ġcourage	10281
ĠTaiwan	10281
Ġclone	10280
ĠSeason	10280
resp	10278
Ġdemographic	10278
ivation	10277
Ġgoverned	10277
simple	10276
Plugin	10276
ensitive	10275
Ġlob	10274
Ġnie	10273
ĠContract	10273
--------------------------------------------------------------------------------	10272
Ġcompiled	10271
).](	10269
ĠRelease	10268
itations	10265
Unknown	10264
sets	10261
ĠDVD	10261
Ġproximity	10260
216	10259
Ġ06	10259
Ġacceleration	10256
Normal	10255
pcbi	10252
ĠWarren	10250
ĠAnimal	10250
Ġlisting	10249
iÃ³n	10248
Ġengines	10248
pn	10246
QL	10246
ĠÅ	10244
Ġcurrents	10244
Ġslip	10242
Ġreass	10241
Ġcumulative	10240
ĠSite	10240
ĠSV	10239
ĠHAVE	10239
umer	10238
iley	10238
uty	10236
Ġrolled	10236
Ġelementary	10236
Sem	10235
222	10235
ceive	10232
aning	10231
Ġautomobile	10231
Ġidentifier	10230
Great	10228
Ġpneumonia	10228
Âı	10227
Ġharassment	10227
Ġpotentials	10226
environment	10225
STATE	10224
Ġthromb	10224
rans	10223
Ġtower	10222
Ġmeters	10222
ĠAz	10222
amount	10220
Span	10220
Ġequals	10220
Ġbanking	10219
omics	10217
Related	10216
Ġenriched	10216
Ġsituated	10215
Ġquarterback	10215
tech	10214
Ġoct	10212
ĠDigital	10211
mount	10210
Ġperforms	10210
ĠDa	10210
quin	10208
Ġcosm	10207
ĠMich	10207
Ġ"_	10207
Ġrecruited	10204
Ġdevoted	10204
196	10203
aim	10202
Ġspite	10202
Ġburied	10202
Sorry	10201
Ġstake	10201
frequency	10200
Ġbeans	10199
ĠEngine	10199
Ġdisable	10198
HH	10197
ĠStatistical	10197
cv	10196
xff	10195
ington	10195
akh	10194
Google	10194
uality	10193
Person	10193
Ġdefeated	10193
outh	10192
oding	10192
important	10192
Paul	10192
Ġamid	10192
Ġindicators	10191
Ġpronounced	10189
Ġcatheter	10189
ĠJose	10189
auer	10188
Ġflip	10188
MAT	10187
141	10187
Ġalkyl	10186
ĠFranklin	10186
books	10184
something	10182
ĠGas	10182
Ġshoulders	10181
ĠMort	10181
metry	10180
large	10180
Ġvers	10180
Ġgaming	10180
Ġblend	10176
Ġana	10175
Scroll	10174
HO	10174
Ġgym	10174
Ġfet	10174
ummy	10173
boy	10173
Ġpediatric	10173
iating	10172
employ	10172
ĠiPhone	10170
Ġextensively	10170
ĠRevolution	10170
ĠGulf	10170
rand	10169
phones	10167
oj	10167
dent	10167
Xml	10167
Ġshelter	10167
Ġdelta	10167
Ġ[$\	10166
ĠIron	10166
ĠStory	10165
safe	10164
Sil	10163
Ġlam	10163
Ġ220	10161
ÎºB	10160
ÛĮ	10159
Ġcoronavirus	10158
incre	10157
igs	10157
Ġsaline	10157
Mock	10156
ĠCloud	10156
unes	10154
phosph	10153
Ġthemes	10153
ĠDeath	10152
INGS	10151
HP	10151
Ġdeployed	10151
ĠBody	10151
special	10149
Ġsne	10149
ĠmiRNA	10148
Ġirrelevant	10146
Ġabnormalities	10146
Ġtunnel	10145
Ġceremony	10145
ĠNative	10145
Ġtouched	10144
Ġracing	10144
Ġcarcin	10144
Ġcalibration	10144
oil	10143
Ġstrikes	10143
Ġministry	10143
Ġcytokine	10143
ĠHun	10143
ĠNT	10142
ĠGov	10139
Ġascending	10138
dro	10137
ĠĠĠĠĠĠĠĠĠĠĠĠĠĠĠĠĠĠĠĠĠĠĠĠĠĠĠĠĠĠĠĠĠĠĠĠĠĠĠĠĠĠĠĠĠĠĠ	10137
ariables	10136
Cast	10136
ession	10135
beat	10133
Dep	10133
Ġbrilliant	10133
Best	10128
Ġresponding	10128
}{(	10126
Ġabused	10126
Ã¨re	10125
Ġirre	10125
247	10124
ĠRic	10124
memory	10123
Seq	10123
citing	10121
aught	10121
Ġfro	10121
ĠAtlantic	10121
ĠPred	10118
Ġdepicted	10117
Ġabandon	10117
Ġarrangements	10116
(__	10115
Ġoverview	10114
Ġmob	10113
Ġanchor	10113
istically	10112
Ġparental	10112
Ġmur	10112
unique	10110
otted	10110
Ġresection	10110
Ġconsequently	10110
304	10107
+(	10107
Standard	10106
Ġwarn	10106
ĠPremier	10105
Ġfatigue	10104
exit	10103
Still	10102
Send	10101
Ġnovo	10099
external	10098
HER	10098
Ġfixing	10098
Ġbullet	10098
ĠEconomic	10098
Ġexercises	10096
364	10094
agnetic	10093
Ġzones	10093
throw	10092
Ġdistribut	10091
Ġaccepting	10088
arma	10087
Ġfears	10087
Ġranks	10086
components	10085
ĠEnter	10084
hthal	10080
Ġtransmit	10080
Ġemotion	10079
ĠIranian	10079
supported	10078
Ġfeaturing	10078
ĠANOVA	10078
Native	10076
Ġsulf	10076
Ġhunting	10075
ĊĠĠĠĠĠĠĠĠĠĠĠĠĠĠĠĠĠĠĠĠĠĠĠĠĠĠ	10074
imated	10071
Ġinterfaces	10071
228	10070
Ġabundant	10069
ĠCK	10068
Meanwhile	10067
Ġaccommodate	10067
308	10066
Ġwishes	10066
Ġ164	10065
middle	10063
Ġirrit	10063
Loader	10062
_[	10061
>>>	10061
Ġgaps	10061
ĠJS	10061
plicit	10059
Ġmineral	10059
Ġinadequate	10059
riz	10058
Miss	10057
ĠAdams	10057
bu	10054
ĠFT	10054
Ġdemanded	10053
Ġportable	10052
1979	10050
Ġtrips	10049
National	10048
Ġnotable	10048
Ġacet	10048
ĠEmb	10048
ĠLas	10047
goto	10044
between	10044
Ġvit	10044
lier	10042
0006	10038
Ġnotification	10036
ĠBab	10036
ToString	10035
=====================	10035
Ġforgotten	10035
Ġsophisticated	10032
Ġdeputy	10031
jquery	10030
Ġcompositions	10029
Ã¥	10028
panel	10028
221	10026
178	10025
icking	10024
Ġjournalist	10024
emb	10022
Ġrabbit	10021
ĠOk	10020
oration	10018
Ġencompass	10018
ĠFestival	10017
redit	10016
tv	10015
third	10015
Ġlabour	10015
ĠGall	10015
dose	10014
404	10014
ĠTed	10014
borne	10013
Ġprintf	10013
ĠEvidence	10013
509	10012
arity	10011
utable	10008
Ġsearches	10008
ivariate	10007
384	10007
ĠProcedure	10007
:[	10006
ĠFifth	10006
pair	10005
WD	10005
à¤°	10003
BASE	10003
Ġpharmaceutical	10003
ĠGra	10002
Ġcentered	9996
Several	9995
Po	9995
Ġspreading	9995
him	9994
clusions	9994
Ġloving	9994
GD	9992
ENC	9990
lik	9989
Gs	9989
complex	9988
endant	9987
UB	9985
Ġproductive	9985
Sum	9983
Ġvari	9983
ĠPhot	9983
})=	9981
cpu	9980
forcement	9979
194	9979
Ġbones	9978
ĠBeijing	9978
Ġpension	9977
ĠMun	9977
ĠDead	9976
respon	9975
oven	9975
Ġcirculation	9975
fol	9974
factor	9974
Ġvoices	9971
Ġbubble	9971
312	9970
!\	9970
Ġprohibited	9969
Ġarrows	9969
ĠVA	9969
Court	9965
Ġnons	9964
Ġinvoke	9963
Care	9962
Ġash	9962
Ġaccompanying	9962
ĠActive	9962
hn	9961
pes	9960
ario	9958
bold	9957
Library	9957
Ġcalculating	9957
ĠRobinson	9956
tic	9953
NUM	9952
181	9952
ĠCooper	9952
hav	9950
Ġclicking	9949
ĠWARRANTY	9949
Ġcaus	9948
ĠâĪ	9947
}_{-	9946
Dig	9946
Ġaccord	9943
ĠDur	9943
hydroxy	9941
ĠArabia	9941
Ġciting	9940
Ġassembled	9940
ĠFall	9940
ĠArthur	9940
Ġneglect	9936
Ġgently	9935
ega	9934
adic	9933
SCs	9932
Ġye	9932
ĠTGF	9931
ĠDav	9931
Move	9929
storage	9928
Ġadmits	9928
ä¸º	9926
Ġsql	9926
Ġclarify	9923
}>	9922
Database	9922
LF	9920
ISA	9920
Ġcoin	9920
å½	9919
Sn	9919
English	9919
Ġpathogenesis	9919
Ġsumm	9918
260	9917
ĠYES	9917
ĠProduct	9917
})$,	9913
Ġ##	9913
171	9911
NY	9910
Ġgathering	9909
ĠWang	9909
Ġcrude	9908
Ġincomplete	9907
Ġabs	9907
ĠFab	9907
Ġ192	9907
Ġstabil	9905
Ġfi	9905
aman	9904
Ġpredominantly	9904
Ġimplicit	9904
ĠReact	9904
phal	9902
Ġoutbreak	9902
^*$	9901
PIN	9901
Ġtemple	9901
Ġteaspoon	9897
Ġwaited	9896
Ġ131	9895
esty	9894
Trace	9894
Ġsongs	9894
}_{{\	9893
Ġrestart	9892
Ġnucleotide	9892
Ġlanding	9892
Ġov	9891
235	9888
Ġcattle	9887
Ġrevenues	9886
Ġquantified	9886
ĠCox	9886
tem	9885
Support	9885
Ġguided	9885
Ġirregular	9884
10000	9883
Ġstructured	9880
Ġsoccer	9880
Ġdough	9880
Ġflesh	9878
Ġphotographs	9877
vest	9875
Ġquark	9874
Single	9873
Nav	9871
Ġfol	9871
ĠLegend	9871
Ġimproves	9869
Ġsteep	9868
INST	9867
chy	9865
ĠĠĠĠĠĠĠĠĠĠĠĠĠĠĠĠĠĠĠĠĠĠĠĠĠĠĠĠĠĠĠĠĠĠĠĠĠĠĠĠĠĠĠĠĠĠ	9865
zan	9864
*:	9861
ĠDave	9861
ĠReference	9860
ERN	9857
ĠHash	9857
.");	9856
Ġwooden	9856
Ġconsiders	9856
ĠNMR	9856
Download	9855
pet	9854
phys	9853
Ġanalyzing	9853
="@	9852
Ġinjunction	9852
)",	9850
Ġpressing	9849
ĠRC	9849
raints	9848
Ġskilled	9848
ĠEuro	9848
Ġpriest	9846
AI	9845
Ġgifts	9845
213	9844
/-	9844
ĠLD	9843
Ġmanufactured	9842
variable	9841
ĠCommerce	9841
Ġstimulated	9840
Ġseverely	9840
Ġhomeless	9840
Hand	9839
inator	9838
Green	9838
Ġinch	9838
ĠSimple	9836
Ġtypename	9835
gb	9834
school	9833
Metadata	9832
Ġurged	9832
Ġnit	9832
income	9830
ĠKentucky	9830
wr	9829
Ġpolls	9829
029	9827
outer	9825
ĠEXPECT	9825
________________	9824
ĠMobile	9822
ĠDelhi	9819
Ġoutlet	9818
Ġinteractive	9818
Ġdressed	9818
ÑĤÐ¾	9816
iano	9816
Ġdarkness	9816
ĠGh	9816
189	9815
ĠUP	9815
ĠAV	9814
chn	9813
ĠChap	9813
Ġorthogonal	9812
isol	9810
ĠTM	9810
Ġjavax	9808
rx	9807
193	9807
Ġhorizon	9807
patch	9806
RD	9806
Ùİ	9805
Ġantioxidant	9805
Ġreproductive	9804
Ġbadly	9803
ringe	9802
Ġranged	9802
ĠMot	9802
oprotein	9801
Ġprisoners	9801
ĠTag	9801
ãģĮ	9800
="{	9800
Ġplasmid	9800
Ġterminated	9799
oret	9798
Ġbuck	9798
Ġpun	9797
å¾	9793
Ġesc	9793
Ġspecialist	9788
Ġarterial	9788
lit	9787
Ġswitched	9786
fixed	9785
Follow	9785
Ġsectors	9785
nce	9784
TRUE	9784
Ġreception	9784
Ġeager	9784
Ġcortical	9784
ĠMatthew	9784
structure	9783
Ġcontend	9783
Ġbugs	9783
Ġdashed	9782
Ġneu	9780
Ġfulfill	9780
Ġdictionary	9779
Ġcotton	9778
Ġanalytic	9775
ĠVictor	9775
cludes	9774
Ġ144	9773
South	9772
Ġsoluble	9770
score	9769
amped	9769
Ġpaired	9769
Ġdielectric	9769
Ġacres	9769
ĠPrint	9769
ĠLem	9769
rene	9768
Ġvarieties	9768
Ġ1971	9768
Ġwaiver	9767
Ġey	9766
Ġgrasp	9765
ĠTraining	9765
Ġsealed	9764
opts	9762
Ġru	9762
ĠSex	9760
oes	9758
>)	9758
Ġ145	9758
ceptions	9756
Ġinability	9756
ĠVI	9756
035	9755
Ġintelligent	9754
Ġimprisonment	9754
Ġbuilder	9754
Ġproton	9753
ĠMut	9752
Ġ[âĢ¦]	9751
ĠINC	9749
ĠBart	9749
ĠPi	9748
ĠRs	9747
Ġ---------------	9747
iddle	9745
Ġcontractor	9744
ĠTurkish	9744
Ġconstituted	9743
ĠCut	9742
ĠHT	9741
åĽ	9740
bur	9740
nal	9739
arer	9738
eler	9736
365	9736
theme	9734
Place	9733
ĠKennedy	9733
Ġinappropriate	9732
Ġmanipulation	9731
Ġcoil	9731
}$]{}	9730
Iterator	9730
consum	9727
179	9727
ardo	9726
igan	9724
GFR	9724
ĠEverything	9723
iri	9722
ĠItem	9722
Ġexpressly	9721
Ġecosystem	9720
ordinate	9719
Power	9719
ĠHarvard	9719
rays	9718
Attributes	9718
Ġunw	9718
Ġfiltering	9717
Ġembryos	9715
Having	9712
ĠMedicare	9711
ANS	9710
=============	9710
Ġrecurrent	9708
306	9707
ipeline	9706
Es	9705
ostics	9704
Ġtransistor	9704
Ġsoup	9704
ĠVir	9704
ĠOpt	9703
crete	9700
Ġincorporate	9699
ĊĠĠĠĠĠĠĠĠĠĠĠĠĠĠĠĠĠĠĠĠĠĠĠĠĠĠĠĠ	9699
ifference	9698
Ġul	9698
Ġtransplantation	9695
ĠChi	9694
Ġaforementioned	9691
Ġuncertain	9690
405	9689
Ġequivalence	9689
ĠACC	9689
uke	9687
Len	9685
Ġlogo	9684
created	9683
apse	9682
Ġsupplemented	9682
Ġdesigner	9682
Ġweigh	9680
Ġsubstituted	9680
Ġadvers	9680
ĠGab	9680
Ġgarage	9679
jud	9678
same	9677
è§	9676
ushes	9676
hook	9674
Ġpunct	9673
Ġoverexpression	9672
nil	9671
Ø¯	9670
Ġmetadata	9669
Ġdozens	9669
ĠLearning	9669
policy	9668
generated	9668
Mal	9668
Ġseized	9668
tax	9667
Variable	9666
LI	9666
Ġbatt	9666
038	9665
Ġwed	9662
ilities	9661
ĠLin	9660
license	9659
Notes	9659
333	9659
Character	9657
Ġapple	9656
ĠBron	9656
ucker	9654
COMP	9654
Ġruntime	9653
Ġ%}	9653
acle	9652
Os	9652
ĠCreek	9652
Ġexceptional	9651
Ġbilateral	9650
ĠPetitioner	9650
ĠCondition	9650
Vs	9648
ĠCos	9647
oscopy	9646
Could	9642
ĠSEM	9640
Îµ	9639
gging	9639
tags	9638
ĠGFP	9638
ĠBeck	9638
ĠHS	9637
Ġreversal	9636
Ġ1968	9636
ðŁ	9635
Ġscrew	9635
Match	9634
Dev	9634
Âª	9633
(-\	9632
Ġoptimized	9631
Statement	9629
Ġsupervision	9629
Ġcompelling	9629
Ġleak	9627
Ġcleared	9627
ĠGraham	9625
apsed	9624
ĠEle	9624
Ġpainting	9622
Ġbeside	9620
Ġultrasound	9619
Ġlifted	9616
tex	9615
Ġputative	9614
ĠIRS	9614
163	9613
Ġsimpl	9612
hang	9611
ĠTree	9607
Ġpresumably	9606
Ġcookie	9605
Ġwings	9604
Ġensures	9603
ĠRepresentative	9603
cop	9602
ĠCX	9602
ĠDenver	9600
does	9597
Ġbears	9597
friendly	9596
idal	9595
Ġtimeout	9595
Ġimplicated	9595
Ġbeating	9595
Ġvag	9593
Ġthumb	9592
Ġproves	9592
groups	9591
angular	9591
Ok	9591
amel	9590
ĠQuestion	9590
arded	9589
Prior	9586
Ġlean	9586
Ġcoalition	9586
ĠFollow	9586
pret	9585
henyl	9584
ĠGordon	9584
ingu	9582
enabled	9582
sig	9581
ĠTu	9580
manif	9579
^[	9579
Living	9579
Pref	9578
ĠMic	9578
Ġrush	9577
Ġplanes	9575
Ġdissolved	9575
ĠProtein	9575
country	9574
Ġenvelope	9574
ĠCharacter	9573
ĠNelson	9572
Ġinspiration	9570
]$.	9569
guard	9568
Ġclaimant	9568
Ġ450	9567
ked	9566
Ġassumes	9565
Ġspectroscopy	9564
Ġsignatures	9564
Ġretrieve	9564
Ġessay	9564
pec	9563
Ġpathological	9563
ĠBag	9563
alo	9562
Socket	9562
Ġenjoying	9561
Ġbite	9561
Meta	9560
umor	9559
ĠEP	9559
Ġvaccination	9558
Ġminus	9558
Ġceiling	9558
ĠSydney	9558
Figures	9556
151	9556
ĠRemember	9556
viruses	9555
ĠJac	9555
ĠPBX	9554
050	9551
syn	9549
San	9548
Ġdealt	9548
usted	9547
Ġunfortunately	9547
ĠCert	9546
ormal	9545
Ġcelebr	9545
ĠSET	9544
Ġvec	9543
Ġbis	9543
Ġactress	9543
sensitive	9541
orrow	9540
Ġbiochemical	9540
Ġ(_	9540
dimen	9539
Ġreplic	9539
OME	9536
CLA	9536
ĠBat	9535
ĠInternal	9533
aba	9532
Ġthreatening	9531
Ġartic	9529
ĠLink	9529
dark	9528
ĠTX	9528
Ġdocumentary	9527
Ġhierarchy	9526
Ġnullptr	9525
Ġmandate	9525
Ġaggregate	9524
Ġbreakdown	9523
ensing	9522
Ġcyber	9522
plementation	9521
Ġports	9521
Ġwarnings	9520
Ġdischarged	9519
Ġagriculture	9519
generate	9518
aza	9518
ĠâĢĿ	9516
ĠHans	9516
Ġcolored	9515
Ġgest	9514
=""	9513
Ġanalogous	9512
Ġadolescents	9512
Ð¾Ð´	9511
ĠRomney	9511
mand	9510
submit	9507
ansion	9506
Oper	9505
161	9504
Ġmicrobial	9504
visible	9503
186	9501
ĠEng	9501
Ġvein	9500
single	9499
Rob	9498
avor	9495
Ġalternate	9495
Rearrange	9494
#.	9493
Ġjunior	9493
early	9492
Ġbot	9491
cmp	9490
lon	9487
ĠParent	9487
spring	9486
Ġnanoparticles	9486
ĠjQuery	9486
tar	9485
Ġcoherent	9483
ĠSNPs	9482
aron	9480
ĠBaltimore	9480
========================	9479
Ġharsh	9478
Ġrefusal	9477
ĠResource	9477
sheet	9475
Scope	9475
pkg	9474
Christ	9474
ĠTele	9474
ĠStewart	9473
obby	9472
Ġleather	9472
anted	9468
Ġsuspicion	9468
ostic	9464
iotic	9464
named	9463
TIME	9463
Ġstadium	9463
Ġintend	9463
Ġsalad	9462
Ġconfigure	9462
hyd	9461
:#	9461
lesssim	9460
Ġprev	9460
batch	9458
patient	9457
Center	9457
Ġ"^	9457
Ġuntreated	9456
ĠRat	9456
Through	9452
ATT	9452
Ġlig	9452
cod	9449
asi	9449
fection	9448
orious	9447
aping	9447
adian	9447
Ġviolate	9446
March	9445
Ġctx	9444
Ġconce	9443
Ġkin	9442
dependency	9441
ĠEnvironmental	9441
Ġgenus	9440
Ġattracted	9439
resources	9438
contains	9438
Ġunreasonable	9436
Ġmarrow	9434
LT	9433
Ġfibrosis	9433
ĠCharlie	9433
heat	9429
Ġsoy	9429
itarian	9428
........	9428
Boolean	9427
Ġbladder	9427
complete	9426
ĠCow	9426
ĠWhit	9424
ĠRussell	9424
ĠLincoln	9424
Ġgrip	9423
Ġblast	9423
Ġendpoint	9422
Ġdock	9422
ĠBoolean	9420
Ġmetabolites	9419
oblast	9416
ĠStadium	9415
brain	9414
hedral	9413
Sk	9413
Ġdependencies	9413
ĠReserve	9413
ĠPER	9413
Ġdisadvantage	9412
DateTime	9411
Ġopponent	9411
Ġdelivering	9410
Ġurinary	9409
ĠLou	9409
ĠArg	9409
INK	9408
Ġisomorphism	9405
Ġpremature	9403
ĠWL	9402
Ġlogging	9401
parser	9399
Ġow	9398
Ġiteration	9398
Ġthorough	9397
Ġhockey	9397
Ġconstit	9397
ĠNHL	9396
matic	9395
Ġjud	9395
vd	9394
rex	9394
)'	9394
Ep	9392
ĠDI	9392
sz	9390
prote	9390
health	9390
erved	9390
ku	9389
Ġsits	9389
Ġpeaceful	9389
USER	9387
ĠLegislature	9386
ĠCriminal	9386
atomic	9385
Ġbp	9385
ĠPAR	9385
owned	9384
Ġpolic	9384
framework	9382
Lat	9382
Ġoverflow	9382
mont	9381
Ġepid	9381
illo	9379
Multi	9379
asty	9378
ivated	9377
Yet	9377
asma	9376
Ġnevertheless	9376
could	9375
Help	9375
team	9374
phen	9374
ĠVictoria	9371
[...]
