.	51135744
,	43768032
Ġthe	41287212
Ġof	23445139
Ġand	19922893
Ġto	19256599
-	15950477
ĊĊ	15745415
Ġa	15568388
Ċ	14972890
Ġin	14244788
_	9974178
Ġis	9718308
Ġ(	8494050
Ġthat	8318877
)	7643911
Ġfor	7485756
:	6934244
1	6049529
Ġwith	5752778
2	5605511
(	5561301
Ġ"	5227685
Ġon	4915788
Ġ	4892586
/	4655794
Ġas	4486895
Ġbe	4385487
Ġwas	4354882
Ġit	4287773
ĠI	4205761
Ġby	3930518
Ġare	3892651
Ġ=	3864306
ĠĠĠĠĠĠĠĠĠĠĠĠĠĠĠĠ	3784989
0	3773795
;	3725927
Ġ-	3571559
s	3506229
Ġthis	3395075
ĠThe	3355413
Ġfrom	3296695
Ġat	3277623
Ġ$	3274465
Ġyou	3260309
âĢĻ	3217903
{	3215554
Ġor	3185066
Ġnot	3151979
Ġ\	3145767
*	3111762
}	2992602
Ġhave	2949941
's	2858576
\	2858187
3	2837976
Ġan	2810345
"	2696536
ĊĠĠĠ	2673385
Ġ0	2557051
>	2517924
Ġ1	2432693
Ġ*	2425750
Ġwe	2314371
Ġcan	2117609
Ġwere	2086477
."	1969452
Ġwhich	1950800
4	1947942
$	1943097
="	1929110
Ġhas	1878809
ĊĠĠĠĠĠĠĠ	1821065
t	1805073
Ġ+	1803076
Ġ{	1779092
Ġbut	1771298
The	1758240
Ġwill	1701223
Ġhe	1699082
?	1688784
Ġ2	1683473
).	1668408
Ġall	1649123
x	1635881
5	1632792
A	1613591
Ġif	1611877
ĊĠ	1603904
a	1592685
Ġhis	1571267
Ġone	1565372
I	1562551
Ġthey	1506746
d	1474492
B	1465356
n	1441205
Ġtheir	1404615
Ġmore	1397556
ĠA	1389713
S	1378965
C	1347493
**	1344318
Âł	1327660
i	1318263
_{	1285087
Ġhad	1274401
Ġ$\	1264935
Ġbeen	1263527
]	1244912
Ġalso	1227893
Ġyour	1225693
<	1225567
Ġ<	1211918
),	1200807
);	1191406
'	1191260
Ġ3	1183656
Ġabout	1175660
p	1175070
ĠIn	1171466
Ġwhen	1161888
Ġwould	1159603
ĠS	1151351
b	1145219
=	1141837
Ġout	1137686
Ġtime	1134955
Ġthere	1128146
Ġso	1122761
c	1117798
Ġother	1110748
't	1110628
^	1091263
6	1084301
Ġmy	1082945
ĠâĢľ	1076214
Ġwho	1071396
m	1070458
ĠC	1068170
Ġthan	1040360
Ġup	1032808
Ġno	1030802
[	1028845
Ġdo	1028483
----------------	1020100
Ġ[	1015132
ĠĠ	992084
Ġits	982561
f	978612
8	975893
Ġinto	974541
ĊĠĠĠĠĠĠĠĠĠĠĠ	965880
Ġ&	964407
Ġ'	958888
Ġ}	957150
Ġour	945769
D	945734
Ġonly	939420
Ċĉ	935911
Ġtwo	935032
Ġsaid	925692
Ġher	921483
7	917094
Ġwhat	904406
Ġlike	901690
e	898266
Ġany	896596
Ġ4	888147
k	886289
Ġsome	883962
Ġmay	881655
Ġnew	879754
in	869558
ĠIt	867460
ĠThis	859222
T	853967
Ġsuch	846930
%	844920
Ġfirst	844237
ĠP	841706
F	840906
g	837240
P	836010
R	833701
Ġthese	828245
ĠM	821996
ĊĠĠĠĠĠĠĠĠĠĠĠĠĠĠĠ	809813
ĠB	809745
Ġ5	806876
ĠT	798837
Ġthem	796011
Ġover	792237
Ġget	791556
ref	784765
Ġme	782955
E	781631
Ġuse	777948
Ġthen	772762
9	769708
Ġjust	765572
M	763784
Ġafter	761814
type	761725
Ġbetween	756700
r	748885
+	746370
j	720552
Ġused	719891
ĠWe	719008
Ġwhere	715551
Ġcould	715169
ĠD	714285
ĊĠĠĠĠĠ	711671
h	709790
.,	709202
Ġdata	708281
Ġp	707976
N	707342
L	701545
ĠF	694841
H	693951
Ġv	691434
",	691277
</	687144
Ġpeople	685168
In	672700
Ġshe	666671
Ġusing	662344
ĠR	659187
v	658467
Ġbecause	654673
#	652052
ĠH	648302
ĠL	646882
10	639665
{\	630681
Ġi	626786
Ġshould	626218
Ġ[@	614577
Ġs	611032
Ġwell	608207
G	607687
}\	603250
Ġhow	603122
!	602441
ĠG	601231
Ġmost	598070
ĠN	595472
Ġ.	595162
Ġm	592851
Ġeach	590831
){	590064
Ġ10	589358
Ġcase	586523
Ġhim	582734
Ġ|	571012
Ċĉĉ	570701
Ġunder	566945
Ġclass	564796
y	561029
Ġmake	556020
u	554223
Ġwork	548104
Ġthrough	543648
ĠĠĠ	542917
l	539049
~	538006
Ġsame	537614
Ġ@	537605
Ġway	536337
ĠHe	530489
ĠU	528615
ĠE	528117
Ġc	527724
Ġsee	527709
Ġeven	524673
Ġ6	523750
X	523051
Ġthose	522122
->	520213
Ġyears	519935
Ġvery	519915
frac	519513
Ġnow	518936
Ġboth	516501
Ġknow	515396
Ġd	509527
Ġset	505909
Ġbeing	505757
Ġdid	501718
Ġ_	500555
Ġt	500482
Ġmany	498995
Ġneed	498601
Ġbefore	494986
Ġnumber	490795
Ġreturn	490576
Ġdifferent	489657
?"	488870
Ġright	487418
()	486968
](#	484811
Ġback	481631
right	480827
âĢī	479644
}$	477884
K	477766
ĊĊĠĠĠ	473052
Ġhere	471745
com	469569
z	469161
Ġdon	467945
::	465529
left	465099
00	463084
ĠK	460418
q	460019
Ġmade	458579
Ġvalue	458319
Ġb	457043
to	456866
w	456041
">	455384
12	454903
Ġus	452981
Ġ\[[@	452581
fig	451951
Ġwhile	451642
--	450720
âĢĿ	450334
ĠâĢĵ	450248
Ġsystem	446493
Ġf	446210
://	445629
Ġfound	444110
Ġhigh	441749
Ġmuch	435121
Ġn	434723
Ġ7	434701
Ġ**	433939
":	433105
Ġstudy	432163
.âĢĿ	431477
Ġfunction	431174
ĠJ	429406
Ġthree	428431
Ġstate	428243
Ġgood	428029
J	426998
W	424876
Ġwant	424020
the	423889
Ġpatients	423175
Ġpublic	421480
ĠIf	421286
Ġwithout	418581
Ġde	418450
Ġduring	417445
ĠFor	416060
Ġ8	415549
11	413932
Ġcells	413422
Ġname	413022
ĠLet	411281
We	410937
_{\	410547
What	410032
Ġcourt	409135
Ġdoes	407990
Q	404712
ĠĠĠĠ	404656
,"	404502
Ġthink	401338
Ġorder	401300
th	400933
V	400861
Ġ//	400151
Ġ:	399026
Ġre	397169
$,	396190
Ġe	394880
Ġyear	394393
Ġx	392027
Ġnon	391769
ĠV	391472
ĉ	390393
',	389649
Ġend	389282
Ġgroup	386257
Ġpart	384097
It	383347
Ġagainst	381688
Ġg	381533
Ġh	381194
re	379245
Ġdown	377710
Ġr	377530
ĠW	374800
end	373825
Ġlong	373482
Ġtake	371947
Ġstill	370790
//	370140
ing	369362
Ġmust	368201
Ġlast	368034
o	367300
ĠĊ	367005
$.	366926
Ġtype	366859
("	366349
}{	365836
Ġgo	363461
Ġinformation	359882
ĠBut	357793
Ġl	354566
(\	354046
Ġsecond	353635
Ġday	352367
Let	350459
This	350029
get	348569
O	348138
mathcal	347531
Ġ,	347483
Ġresults	346822
...	343002
|	342854
();	340592
ĠAs	340233
Ġfollowing	339993
Ġun	336945
ĊĠĠĠĠ	336592
and	335782
čĊ	334606
Ġal	334505
^{	334478
id	334391
Ġoff	334155
Ġgoing	333849
Ġfind	332050
âĢľ	330914
int	329420
Ċĉĉĉ	328733
ĠO	328235
Ġwithin	327864
],	327383
Z	325479
'm	325362
if	325273
Ġlife	324674
Ġaround	323341
ĠYou	323023
ĠAnd	320866
].	320509
Ġpoint	319576
Ġsince	319032
alpha	318393
ly	315279
,âĢĿ	315158
Ġcontrol	314815
Ġmodel	314639
Ġ*/	314638
Ġanother	314107
)$	312218
Ġ12	310788
U	310704
000	309909
20	309817
Y	309778
&	309378
Ġ9	309372
Ġ</	306959
âĢĵ	306617
Ġown	305280
Ġexample	304612
ĠĠĠĠĠ	303275
Ġincluding	302556
Ġself	302102
Ġam	301730
]\].	301463
Ġtoo	300822
You	299175
ĊĊĠ	298980
Ġline	298812
Ġevery	298808
Ġgiven	298109
ĊĠĠ	298069
Ġshow	297513
Ġhelp	297350
15	297109
16	296202
is	296121
Ġreally	294666
Ġmight	294484
CR	294096
Ġsay	293034
Ġresult	293018
Ġworld	292359
ĠHowever	292103
Ġcell	291507
Ġ{#	289557
Ġprocess	289490
ĠThey	289447
or	289176
Ġ20	288906
Ġtest	288716
Ġet	288710
Ġ#	287616
're	285894
\]	285295
Ġbased	285195
Ġk	284675
13	284549
Ġfile	284146
01	284074
Ġ$$\	283764
Ġsupport	283299
Ġpresent	283233
ed	281832
Ġform	279727
Ġanalysis	277456
Ġw	276518
name	275471
Ġnext	274956
ĠNo	274649
ĠâĢĶ	274280
Ġbest	274068
Ġ\[	273336
Ġevidence	272072
Ġsomething	271931
Ġchange	270293
Ġmethod	269960
Ġsmall	269958
Ġwhether	269896
Ġper	269416
Ġleft	269072
Ġhome	268658
ĠĠĠĠĠĠ	268179
mu	265692
32	263312
14	263264
}(	263060
Ġy	262737
Ġplace	261828
Ġfact	261448
Ġpower	259960
,\	259787
Ġimportant	258567
ĠThere	258197
Ġ11	258087
ĠWhat	257944
Ġfew	257512
Ġbetter	257445
âĢĶ	256991
Ġabove	256744
text	256684
Ġlarge	255739
Ġ15	254373
Ġless	253477
Ġtrue	253430
data	253277
ĠNew	252670
Ġnever	252489
label	251843
Ġlevel	251747
mathbb	250410
Ġint	249933
Ġtreatment	248965
Ġleast	248754
Ġlittle	248217
Ġpossible	247704
Ġwater	247641
Ġ{\	247319
Ġthings	245943
ĠĠĠĠĠĠĠ	245898
Ġdue	244559
Ġcome	244027
Ġproblem	243308
ĠX	243179
div	243066
Ġlow	242603
Ġlaw	242428
To	241678
ĊĠĠĠĠĠĠĠĠĠ	239306
Ġlook	239056
ĠTo	238246
Ġgreat	237852
Ġ--	237504
Ġfield	237043
18	236577
Ġhaving	236299
Ġdays	236048
Ġshown	235606
Ġgive	235154
Ġeffect	234302
)\	234214
begin	234091
Ġcommon	233955
Ġgot	233095
Ġ/	232940
Ġtrial	232413
Ġfurther	230810
!"	230391
19	230265
}}	229985
If	229060
))	228789
able	228259
Ġsize	228259
Ġgame	228147
Ġlet	228121
Ġhealth	227978
Ġexpression	226713
Ġprovide	226289
Ġcode	226245
Ġu	225915
Ġalways	225789
ĠSo	225722
Ġcurrent	225405
As	224934
Ġagain	224670
Ġgovernment	224470
Ġ30	224293
Ġeither	223741
of	223365
Ġfour	223338
17	223272
Ġknown	223037
Ġcalled	222613
set	221333
ĊĊĠĠĠĠĠĠĠ	221228
@	221162
ĠState	221136
ĠThese	220913
Ġuntil	220440
Ġavailable	220209
('	220042
Ġfamily	220031
ĠUnited	219891
Ġsingle	219466
Category	219297
Ġfree	219186
Ġj	218063
Ġhuman	217543
aligned	217483
Ġmeans	216629
ĠCourt	216130
ĠĠĠĠĠĠĠĠ	215945
Ġelse	215780
Ġside	215709
Ġ==	214890
Ġvalues	214669
ĠShe	214535
Ġaction	214378
Ġcases	213834
Ġable	213787
Ġlocal	213530
Ġlight	213317
Ġchildren	213234
Ġmean	213201
Ġreal	212465
Ġseveral	212371
\[	211960
li	211718
pone	211181
Ġman	210934
lambda	210538
Ġhigher	210455
usepackage	210436
):	210022
ĠThat	209916
Ġarea	209580
this	209399
've	209360
Ġstudies	209076
"}	208986
table	208695
Ġbody	208468
Type	208209
Ġtop	208069
rm	207934
http	207234
Ġtimes	207035
Ġsignificant	206972
Ġput	206321
Ġteam	206257
25	205987
Ġerror	205822
span	205820
import	205760
Ġwhy	205665
Ġrate	205453
}$$	204906
pi	204865
Ġfull	204798
Ġcare	204789
Ġ)	204547
For	204262
Ġenergy	203858
Ġ16	203645
30	203318
al	202141
Ġstart	202062
Ġpost	201954
Ġo	201950
Name	201191
ĠStates	201142
Ġtotal	201073
as	200390
Ġ14	200288
Ġrun	200029
Ġsimilar	200018
Ġalready	199299
Ġdidn	199182
================	198818
ÃĲ	198349
}_	197691
Ġopen	197407
Ġassociated	197321
Ġlevels	196884
Ġspace	196705
Ġperson	196357
Ġresponse	195575
ĠAll	195462
Ġlot	195360
org	195317
Ġ100	195310
Fig	195051
ĠWhen	195042
And	194977
Ġ13	194950
21	194587
Ġgeneral	194510
Ġhand	194020
st	193972
ĊĊĊ	193823
le	193752
ĠĠĠĠĠĠĠĠĠ	193454
><	193179
Ġquestion	192886
Ġ18	192850
Ġrequired	192534
Ġwomen	192275
'll	192198
Ġkey	192146
Ġdone	192079
Ġfinal	192009
];	191792
mathbf	191772
---	191770
Ġaway	191590
_\	191563
Ġissue	191229
Ġsays	191226
ĠY	190196
Ġoften	189956
Ġ${\	189876
up	189853
Ġspecific	188646
Ġlist	188392
Ġterms	188072
Ġactivity	187837
Ġcall	187836
string	187526
Ġ=>	186535
sum	186521
Ġfar	186183
Ġgroups	185867
Ġhowever	185840
Ġamong	185799
Ġreported	185377
},	185293
Ġthing	184711
Ġsure	184445
sec	184200
Ġlater	184197
He	184170
beta	183996
Ġsub	183504
us	183122
ĠZ	182952
Ġcourse	182766
Ġenough	182735
05	182644
Ġage	182466
Ġtold	182097
Ġ`	182035
Ġthough	181682
Ġz	181386
sigma	181332
Ġcompared	180871
ĠRe	179741
Ġalong	179688
Ġprovided	179179
Ġmaking	179108
Ġposition	178422
ĠOn	178119
Ġinclude	178099
Ġhead	178082
Ġread	178009
ve	177432
Ġworking	177418
22	177306
return	177233
Ġupon	177119
Ġconditions	176800
for	176783
Ġconst	176721
></	176561
Ġrole	176236
Ġpotential	175625
Ġ%	175333
Ġlower	175116
Ċĉĉĉĉ	174701
Ġweek	174370
Ġincrease	174321
Ġvoid	174319
Ġrange	174316
Ġdevelopment	174159
Ġeffects	174153
Ġseen	173863
Ġplay	173787
Ġrisk	173630
]).	173604
Ġold	173594
But	173531
}_{	173325
Ġdoesn	172914
Ġchanges	172535
Ġprogram	172422
Ġresearch	172183
ĠSt	172067
Ġ([@	171686
Ġsection	171636
24	171491
Ġtogether	171396
ĊĊĉ	171308
Ġmoney	170758
Ġprotein	170567
Ġproperty	170555
ĠâĢĺ	170514
Ġco	170073
Ġincreased	169930
Ġbecome	169884
Ġservice	169731
Ġkeep	169686
Ġmain	169380
Ġpre	169181
www	169166
Ġfactors	169083
Ġimage	169054
Ġ([	168761
td	168740
Ġaddition	168629
out	168514
Ġcannot	168350
Ġsource	168331
html	168271
Ġobserved	168262
Ġ24	168159
Ġbusiness	168114
Ġparticular	167949
Ġlove	167859
tr	167656
Ġschool	167321
ĠUniversity	166584
Ġaccording	166163
Ġmonths	166110
"}).	166038
on	165997
bar	165866
No	165804
Ġdisease	165633
Ġthird	165594
Ġtry	165445
Ġuser	165125
}^{	165050
Ġearly	164948
Ġdoing	164920
Ġ50	164723
Ġcreate	164255
Ġcountry	163700
man	163439
un	163220
^{\	163153
ĠĠĠĠĠĠĠĠĠĠ	163113
Ġview	162916
Ġstructure	162860
Ġdefendant	162634
Ġdescribed	162115
mathrm	161859
ation	161699
Ġprivate	161560
Ġmultiple	161517
sqrt	161441
Ġthought	161124
Ġactually	160955
Ġpositive	160888
er	160458
ĠSee	160363
Ġpoints	160349
Ġcompany	160347
`	160048
ĠĠĠĠĠĠĠĠĠĠĠ	159814
There	159748
Ġversion	159562
Ġobject	159512
Ġ25	159354
\_	159202
Ġacross	158973
gamma	158271
Ġothers	158050
Ġreport	158029
Ġid	157793
value	157458
class	157269
Ġsurface	157086
50	157036
Ġrather	156957
Ġbase	156880
Ġonce	156736
pm	156709
Ġadd	156694
Is	156129
Ġcontent	156037
delta	155988
Ġlikely	155508
Ġperiod	155354
Ġstring	155282
Ġfive	155207
code	155139
Ġshows	154772
time	154707
de	154693
Ġmillion	154652
Ġperformed	154565
Ġshowed	154452
Ġbelow	154348
Ġamount	154337
ist	154171
Ġ17	154166
String	154038
en	153884
Ġshort	153827
23	153824
Ġmatter	153798
ĠAmerican	153430
Ġcame	153345
Ġfeel	153339
Ġsystems	153121
ate	152840
Ġstandard	152805
Ġclear	152741
ĠAt	152670
ers	152582
'd	152474
os	152171
Ġfalse	152153
it	152090
Ġhard	152043
Ġsite	152002
Ġcause	151778
Ġobtained	151767
bib	151753
key	151635
");	151623
Ġbig	151613
Ġtook	151405
Ġpast	151396
.)	151263
Data	151245
Ġinterest	150955
64	150645
Ġwhole	150356
}^	150351
Ġmakes	150003
co	149940
Ġapplication	149934
Ġfood	149714
Ġcancer	149626
Ġever	149613
Ġexperience	149414
[@	149263
Ġterm	149138
ization	149082
Ġmen	149080
Ġ(*	148993
ia	148992
Ġvarious	148847
Ġseason	148672
Ġtaken	148489
Ġsocial	148441
001	148384
ized	148121
Ġconsidered	148113
Ġadded	148049
Ġfuture	148048
Ġfactor	147908
Ġrelated	147854
am	147667
ĠAn	147507
02	147495
)(	147446
Ġanti	147438
Ġ>	147409
ism	147381
ID	147083
Ġaccess	146889
Ġyet	146878
ĠGod	146807
phi	146666
Ġdefined	146128
rho	145736
ĠOne	145680
Figure	145639
Ġbelieve	144990
es	144907
Ġq	144531
size	144154
Ġapproach	144010
ĠThen	143466
Ġsolution	143375
Ġcommunity	143150
/*	143131
So	142937
Ġproject	142609
no	142581
Ġminutes	142355
Ġwent	142354
partial	142245
Ġstates	142232
Ġbit	142227
")	141711
Id	141682
Â°	141518
Ġdecision	141455
)/	140814
%)	140212
test	140168
Ġdevice	139975
omega	139911
ĠAfter	139685
Ġtrying	139628
^{-	139575
Ġreason	139530
Ġincluded	139519
100	139276
Ġmajor	139112
Ġindividual	138936
theta	138869
Ġblood	138750
Ġregion	138657
nu	138401
ul	138357
Ġmembers	138264
Ġ$(	138224
Ġkind	138148
ant	138144
ĊĠĠĠĠĠĠ	138004
Ġtoday	137999
Ġrespectively	137953
at	137687
Ġchild	137627
Re	137626
Ġclose	137623
On	137597
ÂĤ	137520
],[@	137191
Ġmaterial	137134
Ġreceived	137122
eq	137061
Ġwon	136807
Ġadditional	136712
Ġpercent	136580
times	136280
Ġcity	136244
Ġsignificantly	136171
Ġanything	136165
Ġpatient	135990
ĠUS	135897
Ġ},	135845
tau	135809
Ġevent	135724
Ġclaim	134674
ĠCo	134627
Ġgrowth	134431
Ġcertain	134423
Ġface	134346
var	134332
Ġtext	134292
ĠQ	134259
Ġneeds	134258
Ġnull	134251
Ġasked	134180
ĠĠĠĠĠĠĠĠĠĠĠĠ	133812
ic	133809
Ġdeath	133691
Ġnight	133668
Ġgetting	133404
Ġsimple	133187
Ġhalf	133176
31	133174
Ġnormal	133020
Ġhistory	132998
Ġ21	132991
ĠĊĊ	132917
Ġproduct	132486
}{\	132114
line	131988
Ġ19	131947
Ġlooking	131887
include	131658
Ġdifference	131366
leq	131339
Ġhref	131101
Ġmethods	131065
27	131010
03	130992
Ġroom	130978
Ġseries	130971
Ġreview	130968
Ġperformance	130736
log	130592
Ġvia	130585
âĢ¦	130448
Ġproblems	130359
Table	130092
based	129912
Ġparty	129891
ĠMr	129810
Ġthus	129770
$-	129766
io	129691
Ġtarget	129683
Ġ\\	129605
Ġissues	129490
Ġinvolved	129487
infty	129326
ating	129326
Ġalmost	129205
Ġcar	129094
Ġprevious	129024
Ġnothing	128810
Ġhours	128743
Ġcheck	128689
Ġservices	128625
Ġtherefore	128584
pt	128558
year	128532
40	128431
Ġneeded	128347
Ġexpected	128195
Ġnetwork	128091
Ġgene	128045
When	127758
Ġheld	127448
Ġconsider	127280
How	127211
Ġrecord	127006
Ġpopulation	126899
Ġinstead	126846
ĠĠĠĠĠĠĠĠĠĠĠĠĠ	126784
ell	126676
Ġpaper	126538
Ġunderstand	126432
https	126334
Ġpay	126218
Ġen	125452
self	125434
Ġrecent	125370
Ġmass	125366
Ġseems	125130
ness	125068
28	124764
Ġidea	124718
Ġlines	124695
new	124486
Ġcost	124382
čĊĠĠĠ	124318
Ġcondition	124260
Ġcomplex	124207
Â±	124191
Ġloss	123986
ch	123937
Ġfilm	123759
Ġjob	123757
Ġpolice	123755
Ġstep	123737
ĠIs	123736
ĠÂ§	123679
Ġdesign	123339
Ġhouse	123247
List	123231
Ġcomes	123196
Ġstudents	122890
Ġmotion	122872
Ġproduction	122731
Ġweight	122716
Ġquality	122532
Ġmove	122523
Ġtell	122430
Ġair	122396
Ġ22	122203
Ġlead	122162
Ġplan	122107
Ġsomeone	122070
04	122041
Ġtable	121996
Ġ...	121993
Ġmodels	121834
Ġprior	121791
ll	121697
Ãĥ	121603
Ġtaking	121466
Ġstarted	121451
hat	121367
Ġpolicy	121364
ĠYork	121294
Ġ(-	121292
Ġblack	121226
by	121209
Ġmedia	121141
26	120903
Ġprovides	120851
Ġpage	120692
ity	120632
Ġstrong	120628
Ġitself	120548
ĠThus	120338
Ġnecessary	120306
Ġvar	120105
Ġdistribution	119735
Ġlive	119620
see	119596
Ġmarket	119535
*,	119361
Ġaverage	119349
That	119309
list	119141
80	118998
Ġ40	118655
define	118590
file	118577
ian	118431
Ġstory	118419
Ġrights	118344
add	118292
Ġsignal	118162
Ġshall	118138
Ġprobably	118089
xi	117786
ar	117554
ĠTrump	117516
Delta	117384
Ġclinical	117183
ĊĠĠĠĠĠĠĠĠ	116972
ĠNational	116648
Ġoriginal	116623
Ġspecial	116533
29	116394
Ġallow	116330
Ġfunctions	116276
param	116211
Ġsimply	116186
Ġproducts	116178
ĠBy	116078
Ġla	116033
Ġ||	115905
Ġturn	115891
Ġphase	115824
px	115814
Ġlength	115790
Ġespecially	115550
Ġtemperature	115438
Ġbook	115433
Ġsequence	115310
Ġpath	115275
Ġsample	115274
Ġwords	115269
Ġaccount	114890
Ġproperties	114750
Ġinput	114625
Ġsix	114598
Get	114566
ĠĠĊ	114488
ĠOF	114258
Ġcolor	114055
Ġ!=	113829
Ġheart	113766
Ġaddress	113722
eta	113570
Ġcomplete	113517
]{}	113505
^\	113425
Ġyoung	113425
Ġmind	113345
Ġpresence	113270
));	113171
Ġdetermined	113140
ĠCity	113098
Value	113049
Ġmedical	113046
ĠĠĠĠĠĠĠĠĠĠĠĠĠĠ	112842
ac	112833
All	112822
Ġstatic	112613
Ġevents	112586
ĠWith	112285
Ġpolitical	111946
Ġoutside	111882
ley	111847
Ġpressure	111780
Ġsense	111618
ĠMy	111602
Ġdate	111435
With	111433
ies	111262
Ġeffective	111165
Ġsubject	111048
Ġworks	110980
Ġoutput	110967
Ġprimary	110939
Ãĳ	110859
Ġlanguage	110784
Ġgenes	110766
ad	110678
Ġfollow	110640
min	110568
35	110543
Ġarray	110517
ĠĠĠĠĠĠĠĠĠĠĠĠĠĠĠ	110428
Ġeverything	110358
et	110302
ĠDe	110021
Ġ23	109890
Ġtypes	109795
Ġelement	109706
ĠÂ±	109625
ine	109617
Ġfeatures	109609
Ġlonger	109598
Ġnear	109536
ĠTHE	109527
Ã©	109433
Ġinside	109244
Ġbad	109205
Ġstop	109143
Ġdetermine	109108
Ġphysical	109006
}}\	108989
33	108972
Ġpresented	108872
one	108861
08	108812
Ġeasy	108802
Ġdi	108713
09	108671
34	108610
Ġjudgment	108551
Ġquite	108509
Ġidentified	108455
-\	108375
Ġcreated	108371
]\]	108306
Ġwhite	108305
Ġrunning	108133
Ġst	108026
Ġsamples	108010
Ġbasis	107828
ak	107826
not	107759
ĠInc	107732
ir	107674
Âĥ	107572
Ġmember	107541
Ġ&&	107471
Ġformer	107413
Ġparameters	107368
Ġwanted	107251
array	107137
Ġbreak	107132
')	107052
ations	107005
Ġfollows	106981
Ġstatus	106980
net	106832
Ġstatement	106810
Ġinitial	106675
all	106602
ated	106600
be	106507
ai	106438
em	106404
ĠMay	106309
Ġareas	106219
au	106048
ĠString	105897
Ġrespect	105876
Ġfront	105845
Ġpersonal	105737
Ġago	105597
($	105578
Ġcross	105466
Ġisn	105463
Ġelements	105442
";	105313
ĠLicense	105264
public	105249
Ġweeks	105171
Ġdirectly	105064
My	104952
ĠDr	104632
Ġquestions	104482
bf	104336
Ġrelationship	104229
Ġnatural	104148
Ġch	104088
Ġsearch	104078
Ġ28	103924
Ġmemory	103900
Ġrequest	103741
Ġforce	103717
âĢĲ	103661
}$,	103473
Ġgames	103412
Ġtheory	103360
rangle	103276
Ġ$$	103043
Ġcontext	103025
ĠAl	103022
Ġtraining	102982
Object	102812
tilde	102805
ED	102751
Ġrest	102406
Ġground	102385
Ġvideo	102382
Ġindex	102282
so	102185
}(\	102110
Ġcontinue	101969
Ġdeal	101896
](	101757
Ġ(\[	101553
Ġbuilding	101539
Ġbehind	101491
br	101378
il	101287
..	101169
View	101155
old	101091
Ġ/*	101061
Ġgreater	101021
Ġapplied	100852
Ġdifficult	100801
Ġlimited	100558
Ġnews	100521
Ġacid	100509
Ġmice	100425
ÃĤ	100412
39	100355
Ġmonth	100307
Ġrelease	100239
Ġdistrict	100178
Ġpreviously	100166
ĠDNA	100131
ĠSuppose	100049
Ġtitle	99912
Ġincludes	99888
Ġreduced	99873
ĠTherefore	99696
__	99671
Ġrequire	99659
ner	99629
cdot	99579
Ġability	99430
field	99372
Ġdrug	99217
Ġstyle	99187
Ġred	99070
ĠJohn	99068
width	99018
im	99015
Ġmessage	98967
])	98915
Ġknowledge	98820
void	98814
path	98794
an	98749
Ġclaims	98735
Ġcharacter	98726
Ġdeveloped	98688
ĊĠĠĠĠĠĠĠĠĠĠĠĠĠ	98640
ally	98575
Ġarticle	98521
Ġwrong	98443
from	98375
with	98287
ie	98273
\\	98266
Ġlayer	98237
".	98220
led	98174
ĠOur	98134
Ġsuper	97989
Ġ60	97896
Ġsaw	97775
ab	97684
Ġsoftware	97571
Ġcontact	97526
Ġinvention	97468
const	97437
Ġwrite	97277
(-	97110
Ġdis	97093
Ġindependent	96951
45	96838
Ġmap	96801
ts	96718
Ġdirect	96610
Ġnumbers	96601
().	96592
Ġplayers	96591
Ġhttp	96585
Ġwritten	96580
})	96404
Ġoil	96399
:**	96386
Ġbuild	96367
Ġreference	96366
ion	96291
Ġfollowed	96262
Ġcoming	96178
Ġ2012	96164
psi	96155
+\	96133
Ġparticularly	96082
str	96066
Ġtax	96026
Ġflow	96020
ĠCounty	95934
Ġgas	95787
Ġleave	95769
sub	95727
Ġactive	95524
Ġsecurity	95338
Ġobtain	95277
op	95271
ĠSince	95258
Ġcut	95227
Ġimpact	95122
Ġcon	95115
ĠPresident	95048
Ġnegative	95016
Ġdefault	94960
Ġnote	94850
Ġ26	94845
Ġunit	94663
}$.	94646
ĠSh	94530
less	94458
ĠWhile	94430
Ġentire	94372
Ġdouble	94283
36	94257
ĠCh	94223
\])	94149
42	94137
Ġ[*	94047
ĠHis	94038
Ġspecies	93983
Ġusually	93973
over	93905
Ġnature	93904
ins	93839
At	93813
![	93783
Ġrule	93767
app	93689
res	93636
max	93636
Ġrates	93635
Ġdifferences	93622
Ġact	93482
ne	93478
Ġliving	93446
Ġoffice	93421
Ġword	93350
Ġalthough	93288
js	93285
Ġwhose	93188
Ġwar	93120
Ġhope	93118
43	93054
Ġ2013	93020
Ġpractice	92996
Ġtried	92922
Ġanswer	92879
ists	92674
ĠWorld	92670
el	92666
Ġonline	92651
Ġetc	92598
Ġhold	92583
my	92336
ling	92286
Ġcorresponding	92279
Ġ2016	92225
Ġgenerally	92215
Ġlost	92143
Ġargument	92102
Ġrecently	92067
ĠSouth	92019
An	91964
Ġpain	91883
function	91712
Ġbrain	91687
Ġthemselves	91679
Ġplaintiff	91573
Ġblock	91561
Suppose	91525
Ġ2014	91461
Ġanyone	91448
07	91415
Ġinter	91366
Ġtakes	91329
06	91312
Ġproposed	91263
Ġcountries	91248
Ġlate	91239
ĠHere	91189
ĠAct	91187
ment	91168
Ġagreement	91120
ary	91081
)}	91057
60	90931
Ġdef	90919
Ġglobal	90834
ors	90692
Ġsaying	90677
Ġnational	90677
state	90611
let	90544
Ġdensity	90523
Ġshare	90517
epsilon	90411
ĠâĪĴ	90354
um	90241
Ġex	90205
Ġtreated	90195
item	90176
user	90162
=\	89980
te	89977
Ġforward	89971
Ġhimself	89851
Ġ27	89706
One	89683
File	89681
like	89509
Ġsituation	89356
off	89347
ĠChina	89309
Ġcom	89251
ĠHouse	89200
Ġpurpose	89199
Key	89159
Ġfederal	89145
Ġenvironment	89103
Ġland	89063
$\	89041
By	89015
ĠMarch	88945
Ġcenter	88914
base	88841
Ġbar	88762
Ġbecame	88701
ize	88683
Ġrelative	88608
Ġpretty	88517
ĠAmerica	88484
ge	88363
Ġ2015	88338
Ġse	88308
ĠII	88285
Ġprice	88174
ah	88124
Ġfailed	87958
Set	87897
Ġways	87853
sh	87800
Ġpublished	87792
Ġart	87715
AN	87708
Ġoffer	87667
ĠDepartment	87533
sp	87393
Ġlegal	87293
Omega	87287
varepsilon	87271
Ġhighly	87169
Gamma	87114
Ġwoman	87075
Ġ);	86999
con	86963
Ġfindings	86935
AS	86895
Ġ/>	86891
Ġallowed	86821
that	86765
Ġ?	86746
Ġderivative	86730
Ġcharge	86709
Ġnode	86707
ance	86651
Ġselected	86618
Ġtalk	86613
Ġcontract	86598
Ġdegree	86479
ĠSome	86261
ty	86076
..."	86036
Ġcomponent	86036
ex	86031
Ġlimit	85996
Ġlarger	85996
Ġstage	85988
Ġmeasured	85983
Ġgave	85946
Ġdesigned	85941
ĠSystem	85941
Ġoperation	85893
di	85846
Ġmulti	85821
Ġjury	85805
Ġbring	85802
Ġinstance	85750
Ġdetails	85599
ĠNorth	85548
38	85489
Ġindividuals	85421
ĠFirst	85411
link	85406
Ġmoment	85345
Ċĉĉĉĉĉ	85334
ap	85299
est	85240
Ġconstant	85220
Error	85154
Ġeveryone	85130
age	85119
Ġcurrently	85051
Ġimages	85032
Ġdirection	85027
Ġcaused	85027
Ġfocus	85009
Ġalone	84995
ĠGeneral	84965
ish	84949
41	84922
top	84779
Ġbackground	84760
Ġfriends	84731
Ġlocation	84687
Ġproteins	84628
Ġbehavior	84594
Ġ29	84516
Ġwasn	84503
cal	84413
chi	84401
index	84397
čĊĠĠĠĠĠĠĠ	84388
Ġgives	84387
ĠJune	84354
Ġ2011	84348
ĠCD	84251
Ġcomponents	84212
ful	84097
me	84094
Ġask	84018
ive	83983
ee	83977
ĠAlthough	83899
Ġ2010	83892
Ġmatrix	83880
Ġchoice	83874
Ġscale	83773
Ġrequires	83690
land	83475
Ġsent	83392
Ġ:=	83386
ĠFig	83299
Ġcompanies	83170
Ġbegan	83001
Ġknew	82995
Ġmicro	82933
čĊĠ	82916
document	82893
IN	82871
Ġwin	82804
we	82796
Ġfixed	82794
49	82746
Ġleading	82727
Ġratio	82630
Ġoptions	82625
ĠHow	82621
Ġpass	82520
Ġ///	82478
Ġeyes	82459
Ġfailure	82416
ĠNot	82407
Ġ2017	82361
Ġmother	82345
Ġ[**	82330
###	82309
term	82209
Ġ;	82137
Ġfinancial	82124
Ġmanagement	82123
Ġfrequency	82102
(),	82003
}}$	81978
Ġdisplay	81887
ĠNow	81841
ei	81774
Ġ31	81752
');	81724
ti	81716
Ġunique	81682
als	81664
Ġ->	81629
Ġattention	81628
Ġeducation	81626
he	81599
Ġusers	81563
Ġtechnology	81522
)=	81497
ĠCir	81487
Ġappropriate	81448
Ġcontains	81378
"><	81377
Ġpro	81259
ings	81203
mm	81127
Ġdivided	81063
Ġcompletely	81007
script	80975
Ġincreasing	80967
Ġorg	80888
ĠLe	80820
lib	80797
Ġcosts	80775
Ġconnection	80742
Ġprime	80685
Ġparts	80438
());	80403
Ġseem	80384
003	80372
Ġexpect	80359
Now	80336
ase	80298
Ġapply	80295
Ġindustry	80284
Ġparties	80283
Ġsuggest	80251
Ġapp	80218
Ġoption	80178
Ġmode	80165
Ġserver	80127
Ġfiles	80092
ĠJanuary	80065
Ġfine	79941
She	79914
ra	79903
Ġearlier	79897
69	79846
ĠApril	79791
Test	79787
ĠMa	79755
Ġlack	79749
ms	79696
._	79672
From	79647
Ġexpressed	79575
ments	79454
Text	79416
Ġdistance	79399
Ġcount	79337
varphi	79317
ĠJuly	79312
Ġsupported	79272
Ġgenerated	79223
la	79221
Exception	79174
map	79160
Ġoverall	79143
fn	79139
Ġ\<	79126
Ġestablished	79104
Ġstated	79066
Ġallows	79035
Ġle	79020
{{\	78972
Ġdevices	78930
Ġled	78909
They	78896
Ġuseful	78767
Ġeasily	78732
Ġcopy	78673
Ġ32	78673
Ġlink	78658
Ġheat	78640
37	78613
ĊĊĠĠĠĠĠĠĠĠĠĠĠ	78608
ens	78593
Ġstay	78565
ĠBe	78538
dev	78528
Ġsites	78385
Ġcontaining	78358
title	78313
Ġreasons	78311
Ġsh	78286
sim	78108
Ġfinding	78091
ana	78075
ates	78057
Ġequal	78057
AC	77928
Ġsoon	77922
.'	77899
)$.	77808
Ġhighest	77771
ol	77733
Ġmeasure	77714
Ġlocated	77712
ĠDo	77571
App	77554
Ġproduced	77504
Ġactivities	77430
44	77364
48	77356
Ġsp	77305
Ġhost	77298
Ġexcept	77298
Ġeconomic	77270
Ġnotice	77145
Ġreduce	77095
Ġrelevant	77066
Ġfiled	77043
)-	76953
Ġcritical	76947
Ġclearly	76913
){#	76778
Ġsign	76739
Ġ<<	76604
Ġfelt	76599
Ġappeal	76584
back	76565
Ġvariable	76557
Ġfire	76458
Ġopinion	76429
ig	76412
Ġcentral	76322
Size	76246
Ġcorrect	76240
Ġpattern	76180
Ġstore	76045
}_{\	76041
Ġhit	76032
Ġwriting	76026
Ġson	75993
Ġgoal	75977
ans	75932
Ġmin	75838
Ġwebsite	75818
Ġpresident	75748
static	75673
Ġinjury	75671
cm	75659
Ġchanged	75631
Ġbrought	75623
}^{\	75617
Ġvs	75560
overline	75546
Ġactual	75539
Ġparameter	75534
ĠId	75509
Ġshowing	75464
ability	75438
Ġreceive	75387
Ġ__	75384
95	75379
Ġsmaller	75351
Ġgoes	75251
ise	75237
Ġuses	75187
Ġstress	75184
Ġexperiments	75167
"/>	75049
Ġlearning	75049
Ġ2008	74970
Ġauthors	74967
Ġwidth	74958
Ġappears	74954
Ġvector	74920
ĊĊĊĊ	74918
ĠAND	74911
)).	74879
ĠOR	74878
operatorname	74862
langle	74828
Ġitems	74806
se	74805
Path	74721
izing	74693
Ġbeyond	74658
Ġlooks	74650
Ġrules	74606
Ġheard	74605
Ġremains	74596
Ġculture	74477
day	74455
si	74446
After	74432
IC	74382
Ġweb	74298
Ġboard	74212
Ġhearing	74206
Ġunderstanding	74130
Ġmeet	74092
)^	73936
Ġlooked	73898
Ġturned	73813
53	73795
AP	73794
St	73750
Ġworked	73728
Ġtowards	73662
Ġbox	73628
Context	73566
Ġmet	73559
Ġcampaign	73504
Ġmajority	73455
\].	73412
group	73392
cr	73380
Ġtumor	73372
ĠCon	73352
True	73324
Info	73303
pr	73285
Ġplease	73249
Ġbinding	73230
Ġproduce	73217
ING	73210
Ġregarding	73201
Ġbuilt	73193
Ġvariables	73184
Ġinternal	73153
Ġappear	73145
Ġdecided	73129
ma	73124
':	73061
ĠWest	73048
Ġones	73036
ca	73020
}=	73012
Ġexists	72998
*.	72954
color	72936
*-	72930
Ġdoor	72885
Ġspeed	72873
Ġtherapy	72870
Ġbenefits	72816
State	72770
Ġfully	72768
ĉĉ	72723
ĠHealth	72717
ĠFrom	72654
Ġfast	72650
Ġconcentration	72638
ĠDistrict	72635
Ġ!	72634
Ġimprove	72605
Ġtissue	72591
big	72524
Ġcomputer	72522
Ġparents	72495
Ġ($	72494
Ġreports	72454
Ġmilitary	72419
AR	72404
Ġnor	72401
ĠAugust	72345
Ġresulting	72344
ast	72339
Ġ2009	72245
ĠIN	72241
true	72088
Item	72086
};	72075
['	72072
Ġexactly	72064
Of	71926
Ġindicated	71895
Ġprevent	71889
Ġinfection	71794
Ġcouple	71790
ha	71752
Ġsetting	71706
Ġwrote	71681
Ġmatch	71679
Ġfather	71659
Ġskin	71638
Ġstaff	71630
ĠOctober	71622
ui	71597
Ġandroid	71567
Ġmorning	71552
box	71546
75	71545
vec	71529
ator	71444
free	71414
use	71384
node	71312
do	71232
Ġmaterials	71226
Ġsuccess	71193
Ġreading	71177
Ġvehicle	71157
Ġzero	71149
Ġplayed	71096
nbsp	71066
Ġhands	71017
$$	70965
ĠSeptember	70923
Ġlearn	70906
Ġfeature	70895
om	70892
Ġavoid	70814
ii	70802
oo	70731
500	70710
Ġmeeting	70707
ĠDecember	70669
ting	70597
Ġgets	70596
002	70545
Ġseparate	70539
Ġreasonable	70537
ry	70438
Ġproof	70379
Ġdefine	70346
='	70335
Ġmedium	70334
Ġreaction	70293
Ġplayer	70286
ina	70279
Ġfields	70220
ĠPhys	70216
Ġcommand	70187
Ġheight	70139
Ġconstruction	70137
struct	70116
Ġstarting	70101
Ġapplications	70097
Ġfriend	70089
Ġ2018	70068
Ġvolume	69914
Ġthroughout	69874
cl	69855
Ġinteresting	69850
Ġparticipants	69809
Ġtask	69807
Ġnoted	69706
Ġdamage	69698
Ġprocesses	69676
Ġmaximum	69673
Ġdrive	69641
55	69640
Ġregions	69622
Ġformation	69590
Ġconnected	69534
Ġlinear	69529
Ġsafety	69462
info	69451
Ġpoor	69399
Ġlives	69350
Ġclosed	69343
lo	69341
Ġ35	69337
Ġbecomes	69314
ph	69310
Ġformed	69310
Ġitem	69291
90	69274
input	69245
Ġdomain	69234
son	69233
Ġinternational	69231
Ġsources	69192
Ġadministration	69155
94	69121
ĠBecause	69119
":"	69114
****************	69084
les	69072
length	69035
Ġfit	69022
New	69021
Ġrevealed	68925
Ġchar	68922
)*	68862
)$,	68798
java	68721
Ġhospital	68677
Ġinteraction	68651
ara	68599
Ġotherwise	68510
ering	68509
Ġcollection	68508
ĠSection	68465
Ġtransfer	68441
ĠData	68423
Ġbasic	68412
Ġtests	68365
image	68363
Ġpr	68359
db	68345
Ġinfluence	68339
Ġfun	68317
form	68301
ĠNovember	68297
ag	68260
Ġimmediately	68236
Ġscore	68229
Ġvisit	68228
def	68207
ns	68195
ĠOf	68155
Ġequation	68149
200	68145
Ġextra	68111
ĠCa	68085
ĠMoreover	68062
ut	68031
Ġcolumn	68009
Ġfall	67942
ek	67941
which	67940
ĠCenter	67939
CA	67921
Ġrandom	67909
ĠĠĠĠĠĠĠĠĠĠĠĠĠĠĊĠ	67887
Ġreduction	67814
Ġreleased	67804
Ġactions	67804
ea	67801
Ã¡	67670
ij	67670
dis	67659
\,	67628
Ġopportunity	67616
Ġtoward	67585
Ġwide	67575
Ġdefense	67553
ĊĊĠĠĠĠĠ	67539
Ġpaid	67510
Ġmechanism	67478
Ġgiving	67478
Ġfl	67475
Ġexist	67475
py	67473
Ġwindow	67464
ĠUSA	67432
Ġ80	67414
ox	67364
Ġcombination	67359
ce	67358
Ġcontrast	67353
ĠWashington	67315
Sec	67304
php	67289
way	67207
Ġtr	67199
Ġerr	67079
99	67072
ae	67066
case	67063
Ġidentify	67057
Ġconsistent	67044
ĠÃĲ	67036
Ġfigure	67005
Ġtesting	67002
Ġdeep	66970
Ġdocument	66926
Ġcover	66919
IP	66908
rightarrow	66884
Ġroot	66852
Ġrelatively	66815
mathfrak	66726
ent	66720
view	66709
Node	66707
Ġensure	66699
]:	66692
Ġsometimes	66687
Ġphone	66653
Ġcounsel	66636
ons	66629
False	66611
geq	66594
per	66588
Ġresources	66569
Ġresistance	66558
Ġforms	66548
Ġ90	66547
ip	66487
Ġchance	66468
}}_	66388
ane	66368
Not	66343
Ġquickly	66301
70	66296
Ġmiddle	66237
related	66227
Ġroad	66217
ative	66198
MS	66173
51	66141
ics	66135
Ġclient	66125
body	66113
Ġthinking	66076
Ġsex	66053
error	66049
ĠOr	66041
are	66007
Ġmyself	65896
ous	65874
Ġprocedure	65842
Ġstand	65837
ta	65835
Ġhappen	65829
47	65812
De	65808
Here	65778
Ġsolid	65769
Ch	65710
Ġplaying	65708
Ġchoose	65675
Ġ^	65658
ical	65657
Ġnearly	65635
[^	65584
';	65507
Ġproviding	65481
Ġmovement	65469
Ġremove	65466
ised	65465
Ġmoved	65436
ĠSchool	65432
Ġportion	65430
Ġchannel	65425
Ġdetected	65424
Ġagree	65416
Ġhappened	65392
Ġdatabase	65380
Ġconducted	65372
^{(	65350
Ġexisting	65220
Ġobjects	65198
Ġ(**	65187
Ġmoving	65184
ĠSan	65137
Ġready	65121
read	65071
%,	64997
Ġseven	64985
Ġreach	64982
ats	64975
err	64969
Ġdaily	64916
source	64912
ĠObama	64887
Ġtown	64877
Ġbottom	64876
bo	64854
Ġcalculated	64803
Ġstd	64749
ĠSe	64743
Ġscreen	64742
Ġfunctional	64713
Ġfacts	64704
ĠCalifornia	64699
ite	64698
Ġbuy	64682
Ġfinally	64675
######	64668
Color	64651
Ġsteps	64617
Ġanimals	64596
Ct	64570
Ġindicate	64465
Ġyourself	64428
\],	64418
PA	64417
Ġattack	64414
ions	64337
.[	64332
Ġupper	64330
Ġregular	64314
su	64300
Ġdemonstrated	64294
Ġnearest	64250
Ġblue	64221
sc	64172
Ġwall	64063
AL	64036
len	64001
Class	63965
Ġremain	63961
ĠAlso	63908
Ġunits	63904
ĠTable	63877
Ġdefinition	63863
pre	63858
Time	63838
Ġtrade	63834
Ġcomments	63784
Ġstar	63779
Ġprove	63764
Ġcore	63757
Ġten	63720
ard	63687
ĠLa	63642
ĠNULL	63610
Ġremember	63600
Ġrepresent	63572
Ġhot	63535
*~	63526
bm	63492
54	63455
Ġtrans	63439
Ġcapacity	63436
Ġshape	63425
EN	63408
Ġ200	63378
Ġcarried	63324
Ġsufficient	63317
())	63316
Ġremoved	63306
Ġplaced	63247
CO	63243
ĠMore	63232
46	63193
52	63161
Ġprocessing	63158
Ġsound	63130
Ġ/**	63119
ĠPublic	63094
Ġhear	63073
quad	63012
Ġvariety	62957
Ġque	62952
ĠApp	62922
Ġframe	62891
ning	62848
Ġwife	62839
dot	62749
ray	62703
Ġsafe	62692
,-	62641
Ġsets	62632
OR	62613
Ġoperator	62608
Ġbenefit	62570
Ġdistributed	62557
dr	62444
ĠFebruary	62423
ĠIS	62366
Ġselection	62333
Ġmachine	62333
Ġsend	62273
.\	62242
Ġ2007	62195
ep	62171
Ġsuggested	62171
]\],	62117
start	62103
Ġmg	62093
ik	62075
Ġlog	62056
Ġonto	62040
Ġplant	62022
Ġbi	62004
url	61966
","	61886
ĠFigure	61869
Ġperfect	61840
Ġprograms	61776
Index	61767
Ed	61754
Ġnamed	61740
Ġcomparison	61690
II	61680
Ġworkers	61635
Ġhealthy	61526
ĠWhite	61521
Ġincreases	61472
Ġworth	61428
ok	61400
Ġmagnetic	61391
Ġsort	61344
AT	61332
Ġexposure	61292
ur	61250
Ġauto	61250
Ġserious	61248
ĠEuropean	61223
Ġtool	61179
0000	61177
amp	61142
Ġpassed	61140
Ġmaybe	61137
Ġletters	61106
Ġemail	61071
ri	61065
Ġgreen	61065
Ġplaces	61055
Ġrace	61009
Ġresponsible	61008
Ġmeasures	60991
ĠWar	60988
IS	60973
sa	60971
Ġdiscussed	60970
go	60961
Ġreplacement	60946
##	60889
Ġbegin	60887
Ġcomment	60879
content	60862
ĠIndia	60824
Ġapproximately	60808
Ġdevelop	60786
Ġsave	60783
Ġ(\	60749
Ġim	60738
Ġpicked	60731
Ġborder	60718
57	60693
Ġcharacteristics	60672
Ġincome	60669
Ġmanner	60659
Ġupdate	60590
iv	60566
ĠResearch	60562
CC	60558
Ġprint	60555
Ġsymptoms	60546
Ġinsurance	60512
56	60476
Ġcl	60426
ĠEven	60423
ob	60419
Ġeye	60409
Phi	60349
Ġcircuit	60343
Ġrow	60325
Ġdrugs	60280
config	60275
ĠBoard	60266
Ġstructures	60255
Ġdark	60224
pa	60195
core	60194
Ġtalking	60159
its	60144
ĠGet	60143
Ġmale	60139
Ġbeginning	60098
Ġhair	60097
Ġpair	59983
Ġcontinued	59976
cap	59921
val	59801
api	59765
Ġ45	59765
ĠIL	59748
ou	59706
Ġletter	59693
Ġtestimony	59692
Ġload	59652
Ġsc	59630
Ġ37	59606
Ġeffort	59587
Ġassume	59576
ĊĠĠĠĠĠĠĠĠĠĠĠĠ	59561
Ġactivation	59552
Ġ95	59547
čĊčĊ	59527
Ġedge	59523
Ġreturned	59519
uk	59515
ĠPM	59510
ino	59509
Ġhappy	59435
"},	59427
Ġ70	59389
but	59369
ĠFurthermore	59336
Ġtree	59310
Ġdetection	59291
čĊĉ	59236
point	59223
Ġeight	59185
Ġmodern	59153
ĠUK	59133
)/(-	59118
Ġnice	59115
Ġinvestigation	59094
Ġ});	59054
Ġstrength	58877
67	58874
eb	58866
nd	58857
Ġkids	58783
Ġtruth	58629
Î±	58626
Ġtransition	58613
Ġdescription	58562
Ġproper	58555
Do	58485
Ġpanel	58465
ÂŃ	58438
Ġessential	58425
65	58380
Ġexercise	58315
AD	58304
Ġstuff	58299
na	58285
Ġpar	58284
ef	58276
ĠMe	58273
Ġmusic	58267
ĠEnglish	58260
ĠMar	58224
yl	58223
Ġinterface	58104
Oh	58096
Ġspecifically	58028
Ġspent	58025
Ġdenied	58007
SA	58002
/(-	57993
Ġchallenge	57993
Ġaffect	57975
Ġplans	57970
Code	57968
Ġclean	57968
Ġsurgery	57948
Ġfamilies	57874
ÃĹ	57863
ĠPa	57854
Ġstrategy	57824
({\	57823
count	57811
well	57790
Ġpopular	57777
Ġsolutions	57769
gen	57759
Ġalternative	57748
pl	57729
Â¾	57709
ible	57675
Map	57673
Ġtested	57670
[]	57669
Ġstock	57667
Ġmeaning	57645
Ġsum	57637
num	57605
Ġofficials	57574
rs	57571
Ġcareer	57539
ants	57537
ler	57526
Ġserve	57513
Ġcouldn	57503
Ġsummary	57478
SE	57469
Ġperform	57460
Ġwants	57442
Ġmentioned	57427
Ġdead	57370
ĠInternational	57363
ldots	57344
ter	57321
Ġround	57263
Event	57231
ml	57216
Ġ2006	57183
Ġ2000	57151
}}(	57125
Ġelection	57083
IT	57063
ES	57062
Ġprepared	57026
*)	57024
Ġstudent	56997
**)	56969
.](	56964
CD	56898
Ġwait	56896
Ġconduct	56889
Ġofficial	56874
Ġdespite	56860
Ġleads	56841
gl	56837
Ġmis	56789
Ġfemale	56783
Ġunless	56776
els	56774
)**	56719
RE	56718
Ġ\,	56694
ro	56673
Ġagent	56670
Ġmetal	56654
Ġstudied	56647
Ġcycle	56637
Image	56604
Ġimproved	56570
object	56508
CH	56507
Ġtypically	56478
Ġcombined	56453
Ġnuclear	56431
Ġjudge	56426
ata	56381
Ġ48	56357
]^	56355
\<	56355
/**	56347
ification	56276
version	56259
Ġbillion	56256
Yes	56244
ities	56239
Ġselect	56232
Ġexperimental	56231
ĠAr	56231
ĠTO	56217
Ġshot	56205
Ġgrowing	56194
Ġ36	56175
Ġqu	56172
Ġplus	56172
Ġcontrols	56165
Ġbound	56164
Ġ((	56141
Ġsuccessful	56134
den	56124
Ġcommunication	56105
Ġexplain	56100
Ġvote	56073
Ġpick	56073
Ġentry	56065
red	56061
Ġsurvival	56034
Service	56026
ier	55991
Ġpackage	55984
ung	55977
Ġmodule	55962
Calculate	55958
Ġattempt	55920
Ġ-->	55876
Ġconfirmed	55872
^*	55789
Ġkilled	55787
row	55773
iz	55738
Ex	55735
Ġminimum	55723
ĠYour	55711
Ġhour	55710
ĠPat	55707
ore	55699
59	55693
prime	55661
ĠBr	55649
Lambda	55646
Ġcontain	55624
ically	55594
US	55594
Ġmolecular	55590
Ġpress	55567
af	55565
cs	55542
Ġjava	55525
Ġcircumstances	55516
Ġguy	55514
Ġsociety	55502
Ġinduced	55498
Ġpiece	55495
Ġperhaps	55459
pro	55439
ene	55435
SD	55430
bin	55397
Ġagreed	55382
Ġ33	55356
Ġhttps	55333
Ġraised	55323
Ġstr	55321
Ġoperations	55293
ĠCongress	55289
ĠEx	55285
github	55266
ton	55258
Ġanalyzed	55249
Un	55227
Ġprofessional	55221
Ġreached	55185
Ġmid	55163
Ġwhereas	55152
Ġwalk	55142
Why	55129
Ġaffected	55123
ke	55116
Ġlinks	55112
"></	55094
otimes	55087
Ġdied	55079
Ġassociation	55061
Ġtools	55052
ev	55029
Ġnames	55025
Ġfeet	55024
Ġcalls	55021
Ġhandle	55013
ĠDavid	55012
Ġemployees	54994
Ġofficer	54989
Ġclasses	54982
Well	54925
ill	54867
ade	54856
using	54812
Array	54810
Ġcauses	54797
Ġsentence	54776
date	54769
ality	54741
ĠMc	54712
Ġwouldn	54692
âĢ¢	54661
Ġforeign	54649
Ġ~	54621
Ġprobability	54609
93	54580
Ġspin	54580
PR	54557
Ġwatch	54525
Ġkept	54520
IA	54506
eh	54498
ice	54487
Ġwave	54485
ĠÂł	54477
Int	54443
ST	54438
ĠList	54428
Ġparent	54410
sin	54397
TR	54388
Ġefforts	54382
Ġcollected	54358
Ġnil	54338
da	54278
Ġtraditional	54276
Ġoccurred	54247
Ġhuge	54238
page	54233
Ġvoice	54222
Add	54220
},\	54197
boldsymbol	54180
Ġmental	54166
Ġoccur	54152
lin	54134
ĠNews	54131
src	54101
ators	54083
Ġintroduced	54079
Our	54064
Ġrelation	54021
Ġsuggests	53989
Ġdiscussion	53978
Ġstorage	53970
Ġprotect	53939
ĠCode	53934
ica	53931
Ġth	53923
Ġ]	53888
ĠMost	53882
Ġestimated	53868
Ġcertainly	53856
Ġcredit	53850
Ġexplained	53801
dt	53789
Ġtechniques	53776
ĠNote	53767
86	53765
gr	53760
Date	53752
specific	53750
Ġcorrelation	53700
Ġmovie	53695
While	53690
Ġdiagnosis	53687
model	53681
Ġimport	53673
ĠLondon	53648
Ġball	53643
Ġstatute	53614
ĠUn	53605
Ġremaining	53569
ure	53533
Ġprotection	53528
Sigma	53502
Ġsexual	53494
66	53483
Ġgone	53477
Ġ(!	53463
Ġsrc	53458
Ġappellant	53451
Ġbed	53445
cc	53403
Ġbuffer	53388
create	53373
ĊĊĉĉ	53373
lu	53360
mer	53332
Ġad	53323
ines	53289
Ġforces	53279
Ġcriminal	53263
Ġwhom	53222
down	53212
ĠGroup	53130
Ġrequirements	53113
ology	53079
init	53079
Ġbiggest	53052
ĠIsrael	53048
58	53044
čĊĠĠĠĠĠĠĠĠĠĠĠ	53028
Ġ2005	52985
Ġgr	52952
Ġbill	52952
Ġchain	52903
Big	52873
}-	52860
av	52821
ial	52797
Ġabsence	52779
)?	52773
Ġrecords	52771
98	52716
ps	52705
Ġnone	52639
Ġgeneration	52628
po	52621
tu	52620
ero	52612
pos	52611
az	52591
Ġpicture	52563
Request	52546
run	52540
]{	52524
dir	52520
Ġolder	52513
AA	52507
Ġorganization	52494
Ġresponses	52456
Ġmissing	52444
Ġserved	52420
open	52409
Ġ42	52403
ale	52402
Ġsleep	52373
Ġlaws	52355
ĠHigh	52354
|\	52343
Ġadding	52325
Ġgun	52284
Ġoffers	52264
Ġoptical	52252
head	52249
ĠEach	52197
Ġquantum	52182
ds	52178
Ġderived	52146
çļĦ	52113
Ġcreating	52107
Ġdes	52086
Ġauthor	52061
ars	52033
Ġscience	52023
Ġsubjects	52019
Ġres	52006
Ġpurposes	51995
ni	51948
ho	51939
Î²	51921
Model	51905
ĠEl	51877
Ġeconomy	51868
Ġalgorithm	51850
ĠTexas	51850
*(	51833
OS	51815
\{	51776
Ġassert	51729
Ġideas	51727
Ġsummer	51708
ĠHer	51706
dd	51700
level	51699
Ġintended	51698
((	51697
Al	51695
mbox	51687
Ġschools	51678
ano	51662
where	51641
Ġ("	51636
User	51603
material	51599
Ġanimal	51574
ER	51567
Ġcapital	51552
col	51548
Ġproperly	51517
NS	51506
ru	51501
78	51471
AM	51468
Ġrepresents	51457
ĠEast	51453
ĠPaul	51446
induced	51434
men	51429
Ġexternal	51427
Ġtrack	51425
Ġresolution	51420
ĠCan	51393
Ġextent	51374
Field	51305
Ġstation	51288
Ġdecreased	51287
Con	51281
Ġ34	51230
result	51179
Ġcr	51142
main	51119
ĠBritish	51110
.[@	51107
ĠTV	51088
ĠPark	51051
ĠSupreme	51048
Ġauthority	51041
ĠCal	51038
nonumber	50992
Ġmechanisms	50986
Ġliquid	50985
char	50957
Ġvirus	50948
style	50947
Ġprotected	50942
our	50935
ĠTh	50932
Ġradio	50930
ax	50923
Ġachieve	50904
Ġlargest	50881
ĠEurope	50849
Ġattorney	50848
ang	50846
Ġfeeling	50843
*]{}	50788
Ġdie	50781
Ġ""	50756
Ġinterests	50732
kappa	50713
mo	50688
att	50650
Ġmembrane	50648
Ġtechnique	50644
ensuremath	50640
Ġteams	50636
ba	50617
However	50605
(&	50605
Ġofficers	50581
ets	50546
ĠGoogle	50529
Ġcontained	50502
Ġcrime	50497
Ġpoly	50473
Ġdirector	50457
Ġslightly	50439
96	50430
ron	50399
port	50342
rin	50263
ham	50247
ren	50244
Ġcard	50175
_.	50168
oc	50160
ĠCouncil	50136
Ġloop	50128
Ġsales	50122
**]{},	50119
Ġfight	50118
Ġdriver	50062
PS	50057
Ġshared	50034
Ġcounter	50028
Ġguys	50024
ide	50004
Ġcharged	49998
").	49994
Ġopening	49948
Ġrise	49923
Ġcharacters	49915
Ġerrors	49869
Ġbool	49865
Ġlatest	49855
Message	49834
Ġprojects	49830
âĢĿ.	49774
Ġfloor	49768
Ġoffered	49747
ini	49693
Ġconventional	49693
Ġholding	49686
ach	49684
ĠID	49666
ĠCommission	49665
97	49661
Ġcoverage	49646
Â»	49640
ĠChinese	49639
NO	49628
Ġannounced	49621
Ġsevere	49615
ec	49607
Ġvalid	49594
EL	49590
63	49576
ĠPro	49557
ĠFoundation	49544
Ġexchange	49527
Ġtrust	49491
has	49479
Ġwild	49477
ĠStreet	49472
Ġentered	49442
ĠRNA	49440
ĠCanada	49425
Ġgirl	49386
Ġdescribe	49386
âĪĴ	49359
check	49340
Ġagents	49335
Ġinteractions	49332
ified	49316
ĠBlack	49308
68	49286
ĠRed	49277
Count	49216
Ġsupply	49208
ĠJust	49203
pe	49170
Ġformat	49158
Ġarm	49139
ĠSp	49133
Ġband	49123
Ġdecrease	49107
scale	49105
Ġgain	49102
Ġenter	49040
First	49024
Ġagency	49000
ĊĠĠĠĠĠĠĠĠĠĠ	48980
cos	48976
default	48961
Ġanalyses	48960
Ġfilter	48950
summary	48947
bb	48947
Ġdose	48925
func	48915
Ġconcentrations	48885
ĠCalculate	48882
fl	48876
Ġconcept	48873
TA	48857
ama	48854
IL	48842
Ġprofile	48838
Ġnovel	48836
fs	48818
Ġsl	48800
Ġoutcome	48794
ib	48788
Ġ38	48787
arg	48777
Ġviews	48704
Ġgenetic	48700
âĢĬ	48693
Ġfear	48689
Ġwish	48686
Â½	48684
Ġreceptor	48661
Co	48657
Sh	48638
ĠTwo	48611
^[@	48599
bi	48578
Ġphoto	48555
Ġexistence	48546
Ġfinite	48542
Ġpossibility	48508
Ġswitch	48504
Ġmotor	48500
side	48488
Ġplants	48477
ĠPeople	48459
Ġoperating	48448
ĠEn	48418
ĊČ	48409
Ġdriving	48394
Ġcompleted	48388
Ġ+=	48369
ĠSuch	48368
Ġreturns	48335
lang	48321
']	48307
Ġbeautiful	48302
91	48300
Ġpatterns	48283
tab	48267
fully	48261
Ġinteger	48261
qu	48236
Ġsignals	48232
action	48228
Ġwhatever	48228
Ġnet	48209
ĊĊĠĠĠĠĠĠ	48194
Ġidentity	48152
Ġheavy	48145
LE	48109
See	48105
ĠTr	48105
77	48097
ĠJames	48082
88	48077
Ġblog	48077
Ġ2004	48044
ros	48031
Ġdiseases	48007
61	47984
Ġgenerate	47983
Ġinterested	47979
Ġalleged	47976
ĠGreen	47963
]),	47957
block	47903
Ġfresh	47902
Ġcold	47895
Ġstable	47884
mod	47867
era	47811
bit	47801
ĠFriday	47790
Ġappeared	47779
Ġstars	47763
Ġindicates	47753
Ġequipment	47750
ĠService	47738
reg	47714
property	47701
Ġimportance	47697
Ġequivalent	47695
ĠAM	47655
Ġspectrum	47630
range	47584
72	47555
Ġconfiguration	47549
CS	47539
Ġbutton	47532
nabla	47531
Ġcontrolled	47528
DS	47527
Ġmobile	47516
Ġ"[	47513
rd	47509
Ġ};	47467
Ġholds	47451
widetilde	47448
Manager	47432
Ġconclusion	47414
ĠRev	47410
Ġsequences	47386
.*	47379
Ġnation	47373
ians	47371
Ġcatch	47367
Ġbank	47362
Ġfat	47355
ĠLaw	47348
Ġruns	47341
ĠAd	47341
TC	47294
ĠCA	47288
Ġmax	47279
Ġmouse	47274
:"	47232
Ġhappens	47221
Ġadvantage	47193
ber	47192
Ġparticles	47148
ĠCO	47146
Ðµ	47137
ĠWestern	47127
cell	47125
ĠMo	47095
ls	47094
Ġsecondary	47048
Ġdefendants	47044
Ġreality	47037
({	47034
Ġaren	47030
write	46997
ay	46997
)"	46988
Cl	46967
Ġshift	46962
Ġ2019	46953
ĠDon	46922
Ġnoise	46918
92	46911
Ġdog	46885
ï¼Į	46861
DE	46855
Ġstruct	46855
Ġstraight	46853
util	46820
Ġreferred	46818
Ġmeasurements	46802
ĠPr	46787
PC	46786
yr	46785
85	46784
ĠInstitute	46760
sk	46742
you	46725
Ġdemand	46725
81	46696
ford	46689
ĠBoth	46649
Ġdigital	46635
Ġsession	46629
62	46607
sl	46605
Ġcontinuous	46585
false	46555
Ġthrow	46521
Ġseemed	46514
Some	46505
og	46503
Ġdeveloping	46466
Ġdrop	46403
oid	46398
Ġcommercial	46397
Ġstatements	46376
ĠEq	46366
Ġspeak	46363
ological	46318
Ġexpress	46303
Ġmaintain	46273
ĠSmith	46272
ng	46271
Ġprogress	46250
Ġlibrary	46242
Ġring	46223
ney	46214
Ġquery	46167
Ġremainder	46150
Ġfish	46122
2015	46113
height	46111
ĠMonday	46082
ĠAccording	46079
ani	46069
------	46060
IR	46052
circ	46033
vert	46032
Be	46020
Ġbalance	46007
Ġrepresentation	45986
Ġleaders	45972
Ġeat	45959
ģ	45934
dimensional	45927
Ġchemical	45920
Ġenvironmental	45907
Ġcollege	45886
lim	45885
Ġfaith	45877
ĠMichael	45877
Ġapproved	45871
Ġdoubt	45867
ĠCompany	45855
ud	45845
Ġslow	45834
ka	45801
order	45768
Ġjobs	45725
Ġcarry	45723
Ġlatter	45721
CT	45703
Ġaccept	45681
Ġissued	45676
ix	45649
TS	45640
Ġ500	45595
Ġextremely	45584
400	45571
Ġplasma	45565
Ġspeech	45552
Ġclub	45514
System	45488
Ġknows	45481
Ġleader	45469
Ġborn	45466
Ġempty	45455
ĠMan	45453
ĠFacebook	45434
Ġliver	45432
Ġestimate	45427
ala	45414
Ġscript	45403
Ġfix	45380
Ġexamples	45369
Ġabuse	45366
Ġcovered	45357
Ġret	45347
Ġtransmission	45342
}+	45317
Ġexception	45292
Ġcharges	45271
Ġplatform	45252
Ġahead	45246
Ġregulation	45243
Ġliterature	45224
Ġhyper	45210
non	45189
ĠBar	45175
ris	45126
Ġserum	45122
ĠJapan	45117
Ġsubstantial	45102
Ġaware	45102
Group	45092
Ġsigned	45088
Ġguess	45088
Ġscene	45078
Ġopened	45078
Ġhusband	45075
apache	45066
Ġchronic	45059
Ġimplementation	45027
Ī	45019
ĠBo	44969
font	44963
.</	44953
Ġchurch	44904
Ġcustomers	44899
Ġtravel	44871
ĠRo	44860
dy	44850
ue	44849
ass	44842
Ġoccurs	44826
Ġ${	44792
ĠTheorem	44787
.$$	44784
position	44759
čĊĉĉ	44747
Ġrecorded	44718
Ġcompounds	44689
ening	44678
Ġdiscuss	44656
Ġdecisions	44654
Ġfair	44644
Ġdelivery	44631
ĠSet	44629
message	44598
od	44578
can	44571
ck	44562
dependent	44554
Ġextension	44554
Ġfootball	44534
Ġreceiving	44531
Ġevaluated	44523
004	44497
Ġnetworks	44490
first	44480
hu	44466
300	44461
Ġvisual	44454
Ġallowing	44450
SP	44446
Ġcalling	44445
Ġextended	44433
Ġleaves	44421
ence	44418
Ġsoft	44407
Ġviolence	44385
ters	44378
Ġbirth	44378
ari	44371
Ġinner	44368
Ġdigit	44351
king	44350
ĠAmericans	44343
ĠÃĹ	44340
Button	44317
Ġpercentage	44316
Ġhaven	44305
exp	44300
ĠBank	44293
Ġestablish	44280
Ġoutcomes	44272
SC	44235
Ġconcerns	44227
vi	44224
ĠFrench	44221
Ġgraph	44217
Ġalcohol	44216
Ġleaving	44197
Ġassessment	44191
ĠCommittee	44189
ĠSunday	44182
Ġsubsequent	44168
ĠLeague	44167
ĠUnion	44163
endif	44162
Ġthousands	44156
gt	44124
Ġtestified	44102
Ġhelped	44100
lan	44099
Ġowner	44097
event	44090
bs	44090
istic	44084
Ġmostly	44072
Ġ2003	44069
Ġunderlying	44042
Ġimmune	44037
Ġsale	44019
Ġval	44002
Ġarguments	43999
ĠCl	43993
Ġca	43989
tag	43981
Ġadult	43979
ĠSc	43972
zeta	43950
Ġefficiency	43935
null	43930
post	43908
ĠFinally	43902
Ġ()	43898
aw	43893
Ġthank	43879
df	43851
dots	43845
Ġmuscle	43844
fe	43818
ĠFOR	43804
Ġport	43787
ey	43767
Ġrepresented	43765
ures	43760
ret	43738
Ġcriteria	43728
Ġcentury	43710
ĠGo	43691
Ġraise	43689
ya	43687
Ġexperiment	43650
ĠAm	43646
mid	43638
EC	43624
long	43621
local	43597
Ġfluid	43597
Ġcent	43594
Ġgreatest	43586
Ġexamined	43573
)=\	43560
ited	43547
}}{	43546
Ġsquare	43532
}}}	43529
Or	43520
ĠUnder	43501
CL	43499
Ġbooks	43495
RI	43458
Ġspecified	43458
Ġlearned	43451
ĠDuring	43444
ĠWhy	43440
Ġexact	43431
Ġeventually	43408
2013	43383
ind	43379
ĠUsing	43379
ash	43366
Ġgrow	43352
})$	43351
Ġpowerful	43346
)*(	43309
Ġevolution	43309
Ġcandidate	43289
Ġmm	43280
Ġbreast	43280
ĠNOT	43274
SS	43270
Ġcurve	43263
Property	43260
ĠBig	43255
ong	43249
ĠBl	43233
Ġtransport	43226
Ġdepends	43205
ĠOther	43197
Ġlimitations	43189
ess	43170
Ġplane	43152
Ġpositions	43130
Ġlicense	43128
ĠNa	43121
ĠKing	43069
Ġpeak	43058
Ġscheme	43036
ĠYes	43024
Source	43020
Ġvoltage	43019
Ġspread	43015
Ġel	43013
ga	43010
'.	43004
AB	42940
Ġinterview	42925
Ġinvestigated	42922
ĠTuesday	42915
ĠJudge	42906
These	42901
ĠGermany	42900
sup	42886
TH	42861
RS	42860
Ġbl	42858
Ġenjoy	42835
][	42830
Ġachieved	42830
oi	42828
ĠCI	42828
ĠHa	42810
2014	42800
Ġtypical	42779
ville	42761
TO	42737
Ġpathway	42734
Client	42717
ĠScience	42716
Ġpurchase	42715
Ġ75	42701
atory	42697
xml	42692
fi	42689
Ġmixed	42673
Ġcustom	42671
Ġprob	42667
ĠDi	42658
Ġchanging	42650
Ġpolicies	42634
Ġ${{\	42609
Ġweak	42606
current	42599
ĠNone	42598
ĊĠĠĠĠĠĠĠĠĠĠĠĠĠĠ	42546
Ġformula	42545
ĠCollege	42537
Ġprocedures	42531
Ġstandards	42525
supplementary	42499
Ġrecovery	42477
$(	42452
Ġapplicable	42444
Ġgranted	42430
CP	42428
Ġne	42426
Ġcomplaint	42426
ĠGr	42402
isation	42387
Ġfilms	42386
ĠMany	42377
DI	42371
Ġ2001	42357
Ġpl	42349
Ġinstall	42349
button	42317
Then	42307
sen	42305
ĠGu	42301
print	42268
Ġspend	42239
Ġacts	42193
Ġcool	42190
Ġisolated	42188
2016	42186
Ġbaby	42184
ola	42183
Ġgoals	42182
}.	42161
ĠPress	42143
json	42133
sm	42129
ied	42123
2012	42099
Ġdesired	42084
ted	42081
ĠAssociation	42048
Ġevaluation	42042
Ġyes	42039
Ġseeing	42033
Config	42002
84	41997
ĠDay	41994
Ġsold	41988
Ġflat	41970
Ġeasier	41967
LA	41953
ĠPost	41947
pc	41944
71	41940
izer	41934
Ġlabel	41928
Ġsubstrate	41922
xe	41920
ĠPe	41914
ĠIII	41904
?âĢĿ	41897
oy	41883
board	41858
Ġsections	41855
Ġsurvey	41846
inter	41843
Ġindeed	41842
Ġstrongly	41829
Sub	41785
Ġdetailed	41784
Ġfunds	41782
Ġtraffic	41779
Ġma	41767
Ġinvestment	41759
ao	41749
Ġmo	41749
kg	41743
Ġcarbon	41742
Ġobvious	41717
Ġchosen	41700
Element	41692
č	41682
Ġentitled	41636
DB	41613
Ġ39	41602
ĠCar	41591
Ġrelief	41581
Ġfourth	41575
Ġfreedom	41548
ato	41542
Ġ41	41539
ptr	41534
PL	41525
Ġstored	41525
Ġcategory	41524
Ġ64	41515
ĠGovernment	41500
sch	41494
"),	41488
ify	41473
Ġ{{\	41466
Ġcluster	41462
Ġglass	41458
ĠTest	41455
^âĪĴ	41449
Ġquick	41441
Ġcommitted	41437
sy	41435
73	41426
$$\	41413
uc	41412
Ġjoin	41412
Ġdaughter	41400
Ġkill	41388
rp	41383
ran	41374
Ġduty	41368
Ġconclude	41368
83	41367
Ġmeant	41367
Ġconsidering	41340
Ġdirected	41294
ă	41281
Ġassay	41269
Ġspot	41265
ably	41250
module	41241
Ġdiet	41221
ĠWhich	41215
Ġpayment	41213
ita	41199
Ġsell	41198
Ġthanks	41190
part	41188
Ġprices	41158
ened	41151
ious	41150
oma	41123
ĠEngland	41115
icon	41114
else	41114
Ġdocuments	41095
Ċĉĉĉĉĉĉ	41093
context	41092
Ġforced	41085
ĠFlorida	41049
74	41046
005	41046
GL	41033
mar	41023
Ġdistinct	41022
ĠParty	41021
status	41013
ky	40991
Ġlisted	40990
76	40989
Ġdebt	40975
mi	40973
cast	40970
RA	40968
Ġ65	40948
Ġvictim	40933
LL	40887
Ġclick	40852
MA	40846
CF	40846
}}_{	40840
Ġapparatus	40840
Ġdetermination	40839
Ġstories	40821
section	40816
Ġequations	40816
ĺ	40812
target	40812
Ġskills	40812
Ġem	40804
ery	40803
Ġstream	40799
Ġfocused	40796
Ġsun	40790
cent	40774
ĠSub	40765
Ġdepending	40755
Ġpush	40752
,'	40727
Ġwaiting	40712
2000	40705
Since	40700
Ġplate	40693
CI	40692
Ġlose	40692
ography	40682
Content	40678
Ġresulted	40628
Ġlo	40624
ĠCopyright	40624
ging	40611
....	40593
Ġ2002	40580
Ġcivil	40569
Ġmeasurement	40560
Ġconcern	40547
Ġpe	40541
Ġvirtual	40530
ci	40518
Ġobservations	40517
Ġpossibly	40513
Ġburden	40492
Ġversus	40486
Ġuint	40486
ali	40473
Ġmodified	40468
Ġplays	40447
Ġbelieved	40443
Result	40436
ĠâĢ¦	40430
any	40423
cdots	40416
ĠRussia	40412
Ġprotocol	40404
star	40399
Ġ44	40395
Ġregard	40375
Ġsmooth	40355
MC	40348
Ģ	40345
ada	40343
Ġfans	40343
ational	40340
ĠWeb	40307
aj	40305
Ġassuming	40289
Ġexcellent	40275
"}.	40251
2017	40242
[\	40240
PP	40237
Ġneither	40223
format	40213
ger	40201
Ġangle	40199
ĠHIV	40189
Ġfees	40176
EA	40173
Ġoffense	40151
Ġbus	40134
oh	40132
ots	40128
ged	40128
DA	40128
}}^	40122
hr	40111
Ġtwice	40100
md	40098
ĠArt	40081
Ġemployed	40062
ĠHo	40056
Ġapproaches	40046
Ġcommunities	40042
space	40041
ĠThursday	40022
Ġsw	40013
_{{\	40010
Ġdamages	40004
Ġdetail	40000
0001	39998
ĳ	39993
Ġreligious	39970
ĠAdd	39961
ĠMon	39957
Ps	39948
ÃŃ	39929
Ġstreet	39929
ĠSa	39920
Ġ55	39910
128	39906
ile	39904
Ġnodes	39899
ĠĊĠĠĠ	39892
Ġplanning	39882
Override	39871
Ġfloat	39855
Ġfoot	39843
Ġdry	39842
ME	39841
Just	39830
Ġmanager	39827
Ġresource	39825
uint	39818
Ġbroad	39817
parent	39807
Ġinvestigate	39801
Ġran	39779
Ġ00	39769
Ġstanding	39764
.**	39759
Ġ300	39720
kin	39718
Ġtrain	39715
120	39698
Ġdelay	39690
ĠWednesday	39688
Ġgl	39678
Ġcompare	39672
Ġconfidence	39661
ured	39660
Ġnine	39646
Ġaccuracy	39644
Ġfunding	39618
ack	39606
ĠWindows	39599
Ġhelps	39568
Ġconcerned	39564
Number	39563
]--[@	39562
lon	39548
Ġhousing	39537
Ġbrief	39533
Ġefficient	39525
Ġintervention	39524
Ġtouch	39522
Ġtrials	39520
Ġconflict	39516
DR	39513
Ġscores	39511
Ġtreat	39497
Ġsensitivity	39476
ln	39475
client	39473
last	39469
2010	39444
ĠSaturday	39440
layout	39438
2011	39438
Don	39421
ĠTime	39420
Ġmainly	39400
Ġguilty	39388
Ġbudget	39362
Ġboundary	39360
}=\	39353
Ġasking	39352
aa	39341
Base	39337
gu	39336
Ġadults	39325
Se	39324
Ġrelationships	39320
IO	39282
ĠCircuit	39277
ĠĠĠĊ	39271
SI	39265
Ġelectronic	39264
Ġinvolving	39236
82	39230
Ġexperienced	39227
Ġdu	39223
oe	39220
Which	39206
Method	39204
°	39200
Ġcup	39187
89	39177
ãĢĤ	39176
Ġevaluate	39170
Ġfinished	39169
Ġfirm	39168
Ġthin	39150
Ġexposed	39147
lt	39146
ĠJapanese	39128
)^{	39125
âĢĿ,	39110
Ġexpansion	39107
Ġcontribution	39107
FA	39105
tt	39087
Ġsuit	39087
Ġsignaling	39080
light	39077
tro	39072
ĠNO	39054
Ġextends	39051
CE	39045
cd	39044
Ġadvice	39037
Ġworse	39030
Ġmaster	39016
ks	39000
ĠSolve	38997
87	38989
Ġemployee	38987
ath	38947
Ġframework	38941
mg	38939
*/	38938
ĠJesus	38935
ĠChurch	38933
entry	38929
ĊĠĠâĢĥ	38927
ON	38926
Ġcontinues	38913
Ġcapable	38896
ert	38888
ĠFree	38883
ker	38855
ĠFederal	38832
Ġcash	38827
Ġcomposition	38825
Ġsettings	38806
Bar	38788
Ġpeace	38787
Ġassessed	38770
Ġintensity	38766
gs	38761
och	38755
fa	38721
**(-	38716
%.	38714
\/	38664
work	38645
Ġelectron	38645
ĠAustralia	38634
ez	38631
ĠInternet	38621
android	38615
Ġincident	38607
select	38579
Ġordered	38575
Ġdemonstrate	38568
Ġadvanced	38566
ĠOffice	38566
Ġbiological	38565
ases	38556
Ġplaintiffs	38546
ship	38537
Ġmon	38531
ub	38521
Ġrelates	38514
Ġ_{	38494
ĠĊĠ	38481
ĠAS	38463
ado	38453
IM	38424
ĠWell	38411
Note	38405
ze	38400
Ġpersons	38398
Action	38351
Simplify	38344
Ġwind	38338
Ġscope	38336
iting	38330
DC	38325
arr	38322
\"	38320
Ġchallenges	38312
Ġbrother	38310
Ġpotentially	38306
Ġinterval	38299
ĠGeorge	38299
ov	38296
Ġsuitable	38296
čĊĠĠĠĠĠ	38287
Ġimaging	38282
Ġ43	38277
79	38272
SO	38261
Ġhumans	38252
Ġvelocity	38251
Ġideal	38238
rate	38230
]);	38228
Ġsea	38206
Ġdecide	38205
Ġconference	38200
Ġrats	38184
Ġstopped	38179
bl	38171
Ġsemi	38169
++	38156
Ġdraw	38154
Ġstatistical	38132
Ġgold	38121
Ġimprovement	38108
Ġsalt	38066
Ġguide	38049
End	38048
Version	38042
Ġassess	38042
Ġfuel	38029
Ġengine	38013
AG	37999
Ġclaimed	37981
ĠDefendant	37981
Ġremained	37967
ann	37966
ny	37960
ids	37958
Ġopposite	37942
ĠType	37895
ĠMac	37891
According	37881
Ġended	37859
Ġjoint	37851
ĠOpen	37845
ot	37836
Ġdepartment	37835
Box	37815
Ġunknown	37814
ome	37795
Ġduration	37794
media	37776
Ġreflect	37774
ĠNe	37770
ĠPlease	37761
Ġsuggesting	37748
server	37742
ico	37738
msgstr	37726
$)	37725
UI	37698
Ġfrequently	37689
Ġsu	37688
Ġdiscovered	37679
onic	37659
Ġhence	37659
Ġfavor	37650
EX	37636
que	37625
600	37615
ĠFile	37611
Ad	37604
ĠÂ£	37589
Ġpartial	37581
ĠRussian	37577
**]{}	37547
next	37545
Ġreverse	37533
Line	37520
Ġargues	37518
ium	37516
ĠRule	37509
Ġreplace	37505
ĠLord	37492
ĠAir	37491
Ġstrain	37485
ĠFurther	37473
load	37466
Ġlimits	37463
Tr	37442
build	37436
ĠRepublican	37436
Ġnecessarily	37434
Ġsides	37407
Cs	37401
package	37374
Ġarms	37338
Ġannual	37338
trans	37313
BA	37311
ain	37294
aries	37291
ĠANY	37276
Page	37272
Ġcourts	37263
-(	37241
Ġseconds	37240
Ġradiation	37223
Ġspring	37209
ages	37205
ĠUse	37203
Ġorigin	37198
Ca	37196
Ġstability	37191
Ġvariation	37181
Ġmark	37143
Ġintent	37136
win	37127
ĠHence	37116
Ġab	37111
Ġassembly	37108
img	37107
ĠSuper	37102
Ġacute	37094
Ġwidely	37087
ĠMinister	37061
cher	37053
LI	37042
Ġantibody	37024
Ġthereby	37020
Ġtend	37020
Click	37011
Ġsit	37009
ł	36987
/(	36980
Ġdefinitely	36978
Ġthreshold	36968
ĠInt	36966
150	36958
web	36956
mon	36950
ĠTwitter	36936
Ġice	36933
Ġfail	36901
NA	36879
MM	36872
Ġlinked	36871
Ġaspects	36856
Ġoral	36836
du	36832
Can	36826
/\	36821
ĠJohnson	36812
Ġattacks	36810
Ġ49	36805
Ġ51	36798
Ġkeeping	36795
ĠBa	36794
Ġnumerous	36788
Ġimplies	36788
References	36775
Ġpopulations	36765
Ġcamera	36759
Ġstarts	36758
Ġparallel	36757
Ġindicating	36752
Ġrel	36745
SM	36723
Ġrelations	36712
some	36711
ĠFrance	36690
rel	36687
Ġforth	36686
Ġmixture	36684
GA	36671
Ġidentification	36669
eps	36667
Response	36649
Ġabsolute	36644
ĠChristian	36633
Ġaccepted	36610
Ġfundamental	36609
ĠJustice	36606
tor	36576
Ġrich	36576
ĠAny	36575
Ġgrant	36568
Ġinterpretation	36553
Ġmortality	36546
Psi	36545
Ġunable	36543
Ġaxis	36541
other	36535
âĢ²	36534
Ġcoach	36528
Ġinstructions	36526
Ġentirely	36525
Ġviolation	36523
Ġenable	36522
tin	36494
Ġbone	36487
Â·	36486
Ġpull	36482
Ġtruly	36481
ĠOnce	36480
Ġrecognized	36465
Ġsupposed	36455
Pr	36454
FS	36445
msgid	36439
Ġgonna	36431
iss	36412
par	36404
Ġmission	36402
En	36395
Ġ46	36394
Ġpractices	36386
ĠOnly	36382
2018	36380
Ġaward	36369
Ġgirls	36365
ĠChrist	36358
ĠCom	36333
Ġcontribute	36332
low	36331
hi	36331
Ġlung	36330
Ġchief	36327
doc	36320
Read	36319
Ġnotes	36316
cy	36305
match	36300
ying	36277
Ġends	36272
Ġpartner	36271
Ġdegrees	36262
ram	36258
author	36256
Ġmassive	36254
Ġsupporting	36247
IV	36244
Ġfraction	36242
png	36241
don	36240
"})	36218
eth	36205
Ġboy	36204
ole	36167
frame	36154
ory	36145
lock	36138
Solve	36135
Ġresponsibility	36123
([	36115
IF	36099
Ġ47	36098
Ġbecoming	36083
Ġsigns	36081
Ġemployment	36077
\|	36067
Ġmiles	36067
Me	36062
ops	36055
BP	36050
her	36046
ĠGerman	36041
uring	36033
ĠSenate	36020
Ġattached	36017
Ġappearance	36003
ella	35994
Ġseek	35976
ring	35967
ĠRa	35963
Ġrare	35961
**,	35959
ĠPC	35946
oon	35944
Ġcellular	35919
more	35909
~~~	35908
Ġminute	35908
Ġbr	35907
Ġtechnical	35895
ĠSecond	35890
request	35884
Ġresidents	35877
Point	35870
ten	35869
Ġmanaged	35861
Ġroute	35852
Ġdisk	35845
Ġdependent	35837
itis	35812
Ġ56	35807
Ġvitro	35799
show	35793
ĠGive	35791
Ġmolecules	35788
widehat	35787
Ġdynamic	35782
Ġconcluded	35774
Le	35772
Ġfill	35766
mail	35758
Ġhole	35750
ich	35741
#:	35726
ĠIndian	35717
ĠBrown	35706
Ġaim	35696
Ġamounts	35678
Ġcommonly	35677
Ġplot	35655
option	35641
\*	35639
wood	35612
Ġassigned	35611
Ġconsideration	35608
ward	35599
ss	35597
ĠPl	35588
PD	35583
ute	35579
Your	35557
ĠMark	35550
Ġelectric	35528
SH	35525
Ġunderstood	35523
Ġ52	35521
Ġarticles	35513
Ġdynamics	35508
ere	35500
ĠAPI	35490
Ġsought	35488
Ġrequirement	35480
ĠFe	35458
Ġthread	35452
:\	35448
Ġeffectively	35426
Ġaccurate	35420
ĠInstead	35419
Ġyield	35407
output	35393
Ġexpert	35390
>,	35387
osis	35381
ored	35380
Ġmurder	35376
house	35350
Ġrefer	35350
ĠTheir	35324
tre	35322
Please	35322
Two	35316
Ġestimates	35314
Ġjurisdiction	35310
Ġsensitive	35299
160	35279
ĠSch	35268
eg	35265
ides	35258
Ġpool	35258
Ġsecret	35238
Ġfilled	35220
Ġtemplate	35215
ĠSun	35211
Out	35192
ĠAfrica	35189
ement	35188
ius	35177
ĠPlaintiff	35167
UN	35160
Ġsupra	35143
Ġdecades	35112
Ġusual	35111
Ġfell	35091
ijms	35079
++)	35076
call	35074
ľ	35073
Ġmessages	35072
ents	35070
number	35067
ĠNS	35067
Ġbinary	35055
Ġestate	35049
>(	35043
Ġjustice	35035
css	35020
Ġspending	35012
ĠThomas	35001
SL	34992
Ġtrip	34988
Ġseeking	34957
MI	34950
\]).	34940
ena	34938
Ġsenior	34929
sn	34926
ora	34913
Ref	34903
rf	34900
hand	34892
Ġfavorite	34876
Ġwww	34866
Ġ72	34820
Ġro	34768
Ġstrategies	34765
&\	34757
Ġpa	34739
Ġprovision	34731
Ġobjective	34726
Ġconsumption	34717
ising	34690
Ġoxygen	34689
rat	34683
į	34678
Ġsqrt	34676
Ġdepth	34673
ias	34665
ĊĊĠĠ	34664
Ġbroken	34645
Ġassistance	34641
Ġgender	34625
Ġcharacterized	34620
ĠQu	34612
Yeah	34609
Ġconsent	34600
Ġcast	34600
==========	34590
Ġinfo	34574
Ġles	34570
Ġecho	34564
private	34561
ys	34543
ĠTimes	34541
ew	34540
Ġte	34537
OK	34527
mL	34514
float	34508
Ġdoctor	34506
2008	34504
Ġsmallest	34500
Ġmeta	34493
Ġnorth	34492
elle	34486
Ġcompetition	34463
Ġadvance	34447
rr	34439
Ġpredicted	34435
ko	34432
Â¸	34423
Ġemission	34413
Any	34404
ĠIndeed	34394
Pro	34392
Ġtissues	34377
Äģ	34363
Ġmouth	34361
Ġminor	34348
SU	34345
ĠEarth	34325
Ġorders	34323
ĠPA	34308
subset	34277
ĠOver	34250
Ġgap	34246
NAME	34243
split	34232
Ġneurons	34231
ave	34220
Ġscientific	34220
ura	34216
Ġprinciple	34216
PE	34214
Input	34214
Ġexpensive	34188
)]	34187
Ġzone	34181
Ġmarriage	34158
std	34120
Ġrecommended	34114
ĠInter	34108
Ġcustomer	34098
dx	34097
ĠCr	34086
Ġsupports	34080
put	34071
ĠInformation	34071
ees	34050
Ġparticle	34042
tl	34028
Ġĉ	34022
ĠClass	34014
Ġpages	34001
Ġpieces	33990
;&	33987
Label	33986
').	33985
1000	33984
OP	33962
Ġmanuscript	33947
ĠRobert	33931
ua	33918
Ġwatching	33916
Ġsplit	33915
Status	33902
Last	33887
eri	33876
ĠMedical	33864
Ġspaces	33857
Ġcausing	33833
used	33832
Ã¤	33824
ori	33812
Ġthreat	33809
Ġtelevision	33809
Ġsuccessfully	33808
Ġurl	33802
ric	33797
2009	33797
Ġchannels	33791
AF	33771
Ġbaseline	33761
Ġcorner	33741
)[	33737
Ġarrest	33735
Ġtargets	33729
¸	33726
Ġha	33699
ow	33697
Ġwaste	33674
hl	33672
vs	33650
Ġreducing	33649
Ġcrisis	33647
///	33644
{{	33641
Ġmargin	33641
}}{\	33639
Ġ1999	33584
ĠHospital	33579
root	33575
Ġimpossible	33567
Ġcomposite	33563
Ġlargely	33560
ĠCentral	33536
stream	33525
Ġinhibition	33525
ope	33499
Filter	33494
Ġrepresentative	33489
Ġautomatically	33481
Ġpetition	33475
©	33452
Ġsitting	33435
Ġinstalled	33433
Ġinformed	33431
Start	33417
ĠPer	33401
Ġauthorities	33398
Ġdiabetes	33388
Ġfan	33381
Ġpromote	33379
Ġresearchers	33366
Ġche	33364
Ġstructural	33347
BL	33319
ily	33309
Next	33297
END	33285
Ġunion	33279
RP	33278
Ġ120	33277
FC	33262
ĠLi	33247
Ġexamination	33245
Ġref	33243
Ġmarried	33239
Web	33238
Ġ150	33236
Į	33233
Ġorganic	33217
ĠSoftware	33210
ographic	33204
BC	33201
Thanks	33199
Ġdisorder	33174
ites	33171
ĠGood	33157
CG	33154
Ġship	33146
ĠRE	33144
Ġpo	33143
Ġearth	33124
obj	33106
ĠFIG	33103
Ġquarter	33099
Where	33097
Ġar	33092
lem	33091
Ġstrains	33088
options	33075
med	33072
Ġtag	33056
Ġseat	33054
ĠLemma	33048
Ġputting	33046
Ġvisible	33044
Although	33043
Ġturns	33041
Ã³	33036
Ġweekend	33035
LS	33034
home	33026
Ġsi	33024
was	33022
Mr	33018
PO	33014
Ġcompound	33010
Ġjoined	33004
only	33003
query	32993
Ġfaster	32991
Ġdetect	32985
ĠChicago	32982
tal	32981
Ġconcerning	32974
Ġreplaced	32947
Ġfinish	32945
Ġfacilities	32944
rich	32943
Another	32933
ives	32927
Ġdebate	32920
Ħ	32914
BS	32907
Ġsector	32905
Ġcm	32904
Ġsolve	32899
ĠPre	32893
assert	32888
Ð¸	32885
ĠIts	32883
Ġherself	32881
ips	32878
["	32859
Ġconnect	32853
ked	32840
ĠAfrican	32840
yn	32816
Ġacting	32807
Ġwilling	32798
Ġlayers	32774
ĠBill	32773
search	32767
lam	32766
Ġbattle	32756
iation	32753
Ġsugar	32749
Ac	32747
Ġmention	32745
Ġcitizens	32738
pp	32729
]{},	32721
.-	32721
Ġpara	32712
Ġantibodies	32712
TI	32706
Ġdangerous	32699
Ġsouth	32688
Ġprison	32685
Ġassumed	32679
mat	32674
Ġcandidates	32674
ĠGreat	32656
GC	32650
Ġinvolves	32645
ĠClinton	32633
ĠmRNA	32626
EP	32619
Ġmerely	32610
)}\	32609
Ġadmitted	32608
Ġmatters	32606
Handler	32600
(*	32600
Ġtrouble	32594
GE	32593
Ġemergency	32592
ulation	32582
Create	32573
ĠpH	32573
Ġ54	32556
ĠField	32528
rad	32523
ĠIran	32523
nm	32516
Ġobservation	32511
Ġcat	32504
TE	32503
equiv	32490
Ġperspective	32482
Ġexperiences	32478
oz	32475
Ġmenu	32469
Ġhundreds	32465
DO	32462
sensors	32451
Ġhundred	32451
000000	32449
ĠSecurity	32442
art	32440
Ġcontainer	32432
Ġ1990	32422
ĠAnother	32412
})\	32404
Ġpassing	32397
under	32395
Ġamazing	32395
Ġlowest	32394
Ġexecutive	32387
Ġpairs	32383
```	32382
tel	32378
Default	32376
MR	32375
Ġdetermining	32366
book	32365
ubuntu	32364
cu	32331
har	32297
mp	32282
Ġ2020	32275
Ġnative	32272
ĠST	32271
Ġoffset	32263
Ġaspect	32247
Ġclosely	32238
ĠEnd	32235
ake	32231
Ġlived	32225
Ġmilk	32224
ext	32213
Ġbias	32211
buf	32207
ĠÃł	32199
ĠMS	32182
Ġouter	32169
Ġproved	32166
Ġdirectory	32161
^+^	32156
va	32152
ras	32151
Ġconfig	32147
method	32133
Ġwitness	32130
Ġaid	32130
Ġwalking	32119
=======	32113
Ġpolitics	32107
MB	32105
Ġrespond	32104
Ġposted	32103
Ġconversation	32102
Com	32091
£	32084
Ġbag	32080
Ġliability	32060
each	32051
Ġwrt	32042
Ġ---	32009
ĠRiver	32008
Ð°	32005
ĠSu	32003
berg	31992
ĠAD	31990
Ġtrees	31989
ĠAb	31988
sw	31970
Ġdimension	31966
ĠPCR	31964
CM	31951
yo	31945
\]),	31944
description	31938
Ġmonitoring	31937
Ġtelling	31934
Ġprimarily	31930
Ġwear	31928
tree	31916
find	31913
gi	31910
ders	31909
center	31899
Ġsignificance	31897
Ġbranch	31892
Ms	31873
Ġinitially	31870
Ġdel	31869
Ġprincipal	31865
ick	31861
Ġargue	31853
Ļ	31850
Ġloved	31850
ads	31848
Ġsweet	31846
Ġ53	31841
ette	31799
Ġvivo	31795
Ġcities	31794
ĠIm	31784
control	31776
ifying	31769
fold	31768
DM	31768
Ġoperators	31765
ĠLife	31757
DF	31746
^-	31739
ink	31722
jpg	31713
Ġdollars	31693
ĠIP	31689
Ġinjuries	31682
Net	31673
called	31672
Ġlots	31671
Ġeating	31670
Rs	31663
abs	31651
Ġleague	31647
Ġdelivered	31642
Ġimplemented	31636
documentclass	31633
Ġmaps	31626
ĠGa	31621
Ġblocks	31617
Ġdisorders	31613
Ġsports	31612
»	31595
template	31594
Ġvision	31590
ver	31587
800	31586
mode	31585
Im	31578
Ġgrown	31578
dl	31567
CIT	31566
Ġbusinesses	31566
rie	31541
ming	31533
Ġconsists	31527
Ġcontributions	31525
minimal	31522
Ġ[]	31519
Ġinjection	31515
Ġsecure	31512
ĠTrans	31503
Ġdepend	31502
Ġproportion	31500
rick	31492
Ġaccordance	31484
ges	31475
Br	31464
LP	31454
ĠJones	31453
ĠMath	31450
tered	31445
Up	31443
Ġfont	31436
HA	31432
Ġbigger	31430
Ġenhanced	31429
Ġ*)	31427
lm	31422
Ġoptimal	31421
Ġcloser	31419
});	31405
active	31386
¥	31381
Ġhomes	31379
Ġdifferential	31364
¦	31361
ĠÎ²	31358
Ĳ	31355
MP	31350
Ġ1998	31350
oa	31345
Ġbodies	31323
Ġfeed	31322
Ġleadership	31309
Ġpure	31303
Ġlaser	31285
Mode	31276
ingly	31275
rated	31269
Ġop	31268
comp	31256
250	31251
der	31237
Ġaccounts	31236
cor	31233
Ġcaught	31233
Ġorganizations	31222
Ġtransform	31213
Ġgenome	31211
Ġlocations	31197
URL	31196
rc	31185
Ġconsequences	31163
Ġ99	31160
Ġcap	31157
rine	31156
pdf	31153
Ġopportunities	31149
oring	31148
RT	31143
Ġsorry	31137
Ġapparent	31132
"]	31128
]^.	31120
Ġelectrical	31120
Before	31115
ith	31090
ĠHall	31090
Layout	31089
Ġcorrectly	31081
Ġillegal	31069
Ġmix	31060
strong	31056
Ġmaintenance	31053
Ġfigures	31048
)+	31047
Ġrepeated	31029
PI	31028
]\	31023
Ġdenote	31007
Ġarrived	31006
Format	30984
Ġfacility	30982
¤	30978
service	30978
Buffer	30966
Ġsin	30956
Ġthermal	30952
Ġterminal	30949
PH	30948
eu	30947
Ł	30941
Ġextend	30933
Ġclosest	30923
Ġcompact	30922
ĠÃĳ	30917
Ġpathways	30913
TD	30911
Ġprevalence	30909
ĠHuman	30909
Ġiron	30908
rv	30897
Ġthoughts	30895
Ġaccident	30866
La	30864
las	30854
Di	30853
Ġdownload	30851
Ġbrand	30849
Ġsyndrome	30846
Ġrecommend	30845
real	30840
RF	30839
ses	30838
MO	30834
Ġwarm	30832
2006	30821
Ds	30820
Ġfund	30820
HR	30816
eds	30810
ĠEU	30807
OT	30805
eng	30800
)/(	30796
amine	30790
Ġremoval	30787
ĠName	30784
DD	30780
car	30775
BR	30774
ĠGen	30768
Ġinternet	30766
txt	30762
Ġdisplayed	30746
ĠTom	30743
Ġsurrounding	30742
More	30737
HS	30731
006	30716
ĠObject	30715
Ġmutations	30713
ries	30696
google	30696
ĠProject	30690
Ġabsolutely	30684
ose	30681
ĠFl	30681
ser	30672
LO	30666
2007	30655
Ġap	30649
ĠMI	30635
ĠPR	30628
Ġcreation	30627
Inter	30624
Ġpractical	30624
Ar	30620
Pa	30618
append	30617
PT	30608
Ġapparently	30598
eas	30595
Ġsa	30591
ĠCol	30588
Ġintegrated	30584
Ġbacteria	30577
tra	30576
Ġupdated	30574
BE	30562
}/	30557
¡	30555
neq	30543
čĊĉĉĉ	30535
Ġstages	30517
Ġinf	30517
AI	30515
arm	30507
ĠON	30507
Ġhypothesis	30499
ĠDemocratic	30488
cf	30478
Ġsat	30466
Ġamino	30460
Th	30442
Ġclients	30418
Ġspectra	30417
mark	30416
Ġhelping	30413
ATION	30410
Ġdepression	30396
2019	30383
Ġcommittee	30376
Ġevening	30370
Ġcoupling	30365
Ġscreening	30360
Ġconviction	30357
Ġemotional	30355
Ġimplied	30345
Ġ1997	30334
Ġmedian	30332
Ġregression	30329
Ġsensor	30325
Ġpp	30324
Ġsounds	30323
Ġrep	30323
Ġmine	30321
oke	30320
Ġadopted	30315
Ġtherapeutic	30308
Ġbeam	30300
Ġsubmitted	30297
prop	30291
Ġkitchen	30283
Ġextract	30278
Ġrepair	30275
ĠAppellant	30271
ett	30266
à¸	30254
ĠBay	30250
Ġ400	30250
Ġtopic	30241
ances	30237
sd	30216
Ġpointed	30210
inc	30202
args	30202
MT	30200
cat	30191
Ġconstructed	30163
system	30156
Ġargued	30150
Ġdescribes	30134
Factory	30129
iter	30118
Ġsynthesis	30102
Ġdogs	30098
Ġpictures	30089
Ġprovisions	30087
Ġ[[	30079
lie	30062
Ġepisode	30062
rol	30047
Ġimplement	30038
Ġclassical	30034
law	30027
^,	30015
Ġtrend	30014
Component	30011
Ġcharacteristic	30011
TYPE	29998
Ġsolar	29991
Ġcounts	29987
Ġplastic	29986
Ń	29980
gg	29977
ual	29971
ĠOS	29962
Ġessentially	29959
ĠGe	29957
Ġminimal	29952
####	29951
Ġcomp	29939
sf	29935
Ġapart	29933
Query	29931
Ġmeat	29923
Ã¼	29915
bool	29914
ices	29913
Ġmarked	29912
ously	29910
Ġ\{	29906
Ġremote	29893
ned	29890
align	29882
Ġsheet	29878
Ġtotally	29873
PM	29864
Ġencoding	29861
itt	29860
ug	29859
FF	29858
Ġexplanation	29847
¾	29843
}{-	29842
Ġmarkets	29839
ĠCup	29837
header	29834
FE	29831
vector	29825
Ġcol	29822
Ġdiscretion	29819
Ġcategories	29810
ĠEd	29810
Ġspatial	29806
Ġexplore	29800
Style	29799
Ġtaxes	29776
Ġtasks	29776
Ġguidelines	29756
Ġrapid	29751
setlength	29736
ĠHar	29724
Are	29723
ĠCH	29715
ien	29710
Log	29704
Ġ"(	29700
Ġspeaking	29694
Resource	29691
Options	29689
Ġlabor	29689
Ġmaintained	29685
ear	29679
>>	29666
Ġdesire	29659
Ġsoil	29647
Ġapproval	29647
ux	29646
Ġchapter	29634
ĠUI	29627
Ġlen	29626
Ġwonder	29625
msg	29623
Ġdeclared	29621
Ġ\>	29620
Ġrecording	29616
Ġregime	29614
***	29599
Pre	29588
Ġultimately	29586
2001	29583
]$	29570
amsmath	29568
Ġ1000	29563
Ġimmediate	29548
ĠPolice	29548
lv	29541
Cell	29536
Ġconsole	29535
Ġfamiliar	29534
Ķ	29529
È±	29526
Ġoffering	29518
Ġfee	29512
ĠLong	29505
ĠStar	29498
Open	29492
Ġ1996	29488
Ġcoffee	29484
rey	29469
}+\	29467
][@	29466
ĠServices	29457
Ġtells	29445
bu	29441
nt	29434
Ġfeedback	29427
Ġbio	29410
nor	29401
Ġpark	29384
ĠUN	29384
ula	29358
Ġreporting	29357
Ġpreparation	29349
Ġforget	29339
Ġtreatments	29330
Ġidentical	29328
conf	29323
Results	29319
amssymb	29311
une	29306
Ġraw	29304
Ġnum	29294
ķ	29291
Length	29288
ral	29285
ĠHome	29277
Â¼	29274
Ġclassification	29268
yes	29250
Ġregister	29243
ĵ	29239
LC	29237
,$	29236
Ġrealize	29235
amsfonts	29221
Ġtransformation	29215
wa	29214
molecules	29213
Ġmodify	29200
Ġrecognition	29191
Control	29187
Ġregulations	29187
EM	29182
ito	29178
SR	29176
¬	29169
:(	29164
={	29153
ļ	29152
aging	29151
Ġrespective	29149
Ġserving	29148
mathrsfs	29142
Ġcurves	29142
act	29141
Ġspoke	29141
Ġobviously	29140
amsbsy	29135
**(	29133
Ġrequested	29133
upgreek	29131
00000	29131
Ġprinciples	29131
Ġbars	29130
sky	29125
*^	29125
2005	29118
nn	29105
oddsidemargin	29098
wasysym	29091
Ġsurgical	29090
Ġincidence	29086
âĢĺ	29083
007	29083
Because	29075
ĠProgram	29070
Ġdiscovery	29069
Ġbond	29069
Ġfinds	29059
Ġsituations	29055
Ġpan	29046
Ġtranscription	29038
Ġ96	29030
ĠDis	29027
qquad	29015
fr	29012
Ġinstruction	29004
}^\	28971
Ġtumors	28944
ĠControl	28942
Update	28940
Token	28933
Ma	28930
ively	28922
Ġbeat	28908
Ġexamine	28894
Ġtaste	28881
Ġconfirm	28879
----	28878
word	28874
after	28874
ĠSecretary	28864
ĠAc	28863
Ġrat	28851
¢	28850
ĠAdditionally	28843
180	28841
Ġlies	28833
hm	28825
ĥ	28822
two	28815
ERS	28814
Ġshooting	28811
Stream	28810
Ġposts	28804
Ġdrink	28790
ĠAre	28785
ison	28783
Ġfiber	28774
ĠMicrosoft	28769
step	28762
Ġworst	28761
ding	28760
Ġ$(\	28759
host	28757
Ġest	28745
Ġ"""	28744
ales	28742
site	28739
ĠÎ±	28736
Ġclimate	28721
Ġcompliance	28706
small	28704
Ġbought	28702
Ġcognitive	28675
Tab	28673
Ġ58	28661
Ġpulled	28654
ĠLike	28654
Ġassets	28650
Ġ59	28650
%),	28649
Ġalpha	28641
ĠAT	28602
Ġbehaviour	28601
bd	28600
ues	28596
ĠDemocrats	28596
è	28594
Command	28594
atic	28586
¶	28583
ster	28582
approx	28579
110	28579
inal	28576
Ġsomewhat	28575
MD	28570
ĠDonald	28568
Ġtransaction	28566
ĠApple	28566
Ġrequests	28564
ĠPower	28562
ĠOut	28541
Ġowners	28537
Ġconstruct	28536
102	28527
Ġworry	28527
ĠSE	28527
Ġarrested	28521
Ġhelpful	28518
Ġspectral	28515
OH	28501
buffer	28492
Ġenforcement	28492
Ġcontents	28490
RC	28478
Ġruling	28475
Ġden	28469
Supplementary	28466
Sp	28461
Ġtube	28452
Ġfashion	28445
Ġdrawn	28445
ĠSociety	28415
Ġteaching	28414
NET	28413
bc	28412
ĠKa	28398
Rev	28376
Ġpreferred	28376
Ġglucose	28376
Ġok	28371
ĠBi	28363
Ġhurt	28360
Ġpossession	28352
Check	28351
ups	28341
Ġfruit	28335
Ġ85	28335
ĠPeter	28329
update	28314
Ġhidden	28300
Ġhate	28297
then	28292
Ġinfected	28292
125	28290
Ġcentre	28277
Ġban	28273
ĠMA	28266
Sc	28263
Ġdeaths	28263
child	28250
Ġdriven	28248
opt	28205
Ġsn	28202
bound	28188
Ġlogic	28188
Ġenzyme	28186
)),	28184
Ġfighting	28174
Ġapplying	28156
Ġorgan	28155
Ġpicking	28143
ĠIraq	28143
Ne	28142
{(	28138
Ġnormally	28136
Ġintelligence	28126
Ġrotation	28120
Ġvoters	28118
Go	28114
IE	28111
ĠDE	28111
ĠAg	28105
Man	28103
wise	28097
zo	28089
)*(-	28081
256	28080
Ġ57	28077
ĠIV	28075
rot	28070
location	28057
Ġnoticed	28052
Ġweapons	28049
Ġphotos	28049
´	28046
ĠThose	28046
han	28045
ĠSocial	28045
Ġgrid	28043
air	28041
dp	28038
ĠJournal	28038
izes	28036
ida	28031
============	28024
ĠCorp	28014
ows	28013
Ġcarrying	28010
Ġrealized	28006
Ġcounty	27990
Find	27981
DP	27971
Ġdivision	27964
Ġ62	27959
Ġpermission	27955
Ġassumption	27949
Ġroles	27948
ode	27945
==	27942
Ġgrade	27942
Ġcontroller	27928
nan	27926
ym	27923
Ġproliferation	27907
sel	27906
ĠLee	27904
ĠIsland	27894
Ġmanage	27891
Ġmechanical	27883
bre	27880
ÂĢ	27878
Ġreads	27877
ĠCT	27872
Ġcultural	27870
700	27863
olo	27851
ja	27850
ima	27849
Ġourselves	27848
uri	27837
GS	27830
response	27824
ĠIll	27822
Ġregistered	27812
People	27808
ises	27805
Ġacids	27800
Ġsubstantially	27793
Ġattempts	27788
ĠSam	27785
ular	27783
Ġinfections	27782
inf	27762
ĠDC	27762
None	27747
bottom	27745
Ġlaunch	27744
tc	27740
Ġhappening	27737
ĠIT	27735
Ġvertical	27711
Ġ],	27706
Row	27698
high	27696
rac	27695
Block	27693
Ġ&\	27693
ĊĊĠĠĠĠ	27675
ĠValue	27674
Ġaccused	27673
ĠPh	27671
ums	27667
ĠEducation	27664
ĠSi	27655
Ġmillions	27643
]]	27638
Ġimagine	27630
Ġseparated	27625
Ġtri	27621
ional	27604
=(	27603
Ġexperts	27583
Ġdiameter	27556
OD	27553
Ġdraft	27544
cp	27542
Ġpaying	27535
Ġcrystal	27535
filter	27530
Ġdropped	27530
jo	27529
Ġinstant	27527
Ġconversion	27517
Ġcrucial	27503
Ġuniversity	27499
Ġwine	27497
Ġmedicine	27496
ois	27494
fc	27493
Ġcorrelated	27484
ı	27475
close	27465
Right	27462
Form	27448
ivity	27447
ĠRead	27447
ared	27440
Ñĥ	27437
nav	27433
element	27431
Ts	27426
Ġ61	27426
Ġboolean	27420
ç	27418
Ġplanned	27413
ĠKorea	27413
Ġmetric	27412
Ġgate	27400
Ġlegislation	27397
Ġradius	27390
Ġpermit	27385
Server	27364
eno	27363
2004	27359
Width	27351
Ġleg	27345
Ġflag	27345
Ġsister	27344
cup	27335
tar	27332
ĠAttorney	27323
Ġbright	27316
Ġinstitutions	27314
'$	27313
Ġpowers	27312
Configuration	27304
Pi	27302
fer	27289
ĠWilliam	27287
rb	27280
Ġconsumer	27279
ĠWilliams	27272
ĠBen	27263
INT	27259
Ġpatent	27259
Ġpurchased	27248
ĠMs	27246
ĠGNU	27246
FI	27243
Ġsimulation	27237
Ġknowing	27233
Ġsizes	27230
Ġ>=	27215
env	27213
Ġconstitutional	27210
Ġreactions	27208
^+	27194
Ġfeels	27192
Ġdocumentation	27192
cb	27191
DIR	27190
ĠAP	27189
Ġloan	27187
ĠDevelopment	27182
Ġdream	27176
Ġsetup	27174
card	27171
Ġneck	27164
push	27157
El	27154
Ġopposition	27137
oth	27132
Ġ63	27131
§	27127
Ġpromise	27125
del	27124
mann	27122
des	27119
ĠMartin	27113
ties	27109
About	27108
Ġintroduce	27107
Ġreliable	27098
Ġcars	27095
$_	27087
Ġintra	27076
cpp	27074
}^{(	27073
Controller	27072
Ġincreasingly	27070
ese	27066
Ġsharing	27060
ela	27054
Ġweather	27051
iness	27047
anc	27046
Ġviral	27044
Ġexcited	27044
Ġowned	27043
.$	27042
life	27039
mathsf	27038
aff	27028
positive	27024
Ġtransferred	27023
Ġ66	27014
Ġkinds	27011
iding	26994
ident	26990
Ġcomplicated	26986
Ġreligion	26985
ony	26984
Ġokay	26978
Ġindustrial	26977
Ġsubstance	26973
TV	26968
fd	26967
meta	26964
;</	26948
Ġanswers	26946
ire	26935
.^[@	26935
Ġvictims	26933
Ġentity	26933
vo	26931
Ġrapidly	26924
Ġharm	26924
Ġrecognize	26915
raw	26914
Ġoriginally	26907
Ġforming	26907
²	26906
Also	26889
ĠDivision	26888
Ġformal	26879
(\[	26877
Dr	26872
Ġsymbol	26868
akes	26863
Ġdecade	26863
Ġbrowser	26851
Ġslowly	26846
ãĤ	26843
Ġextensive	26843
ils	26839
acy	26830
Ġcorporate	26818
foo	26816
Hey	26801
Frame	26798
ĠDirector	26798
ĠHill	26793
ĠWill	26789
Ġshop	26786
ination	26784
101	26780
Thank	26776
Ġneutral	26774
Ġacquired	26774
Ġanyway	26773
break	26766
nis	26760
ort	26754
Ġprobe	26750
{"	26742
Ġtheorem	26740
Ġcur	26729
sb	26728
Ġintegral	26712
Builder	26710
Ġinduction	26695
ĠMexico	26693
Ġconvert	26689
mic	26679
ĠRoad	26678
Ġdomestic	26677
ĸ	26672
ord	26664
EF	26658
Ġbeta	26658
(_	26655
Ġbattery	26655
Ġaddressed	26643
010	26639
ĠView	26638
Ġrisks	26637
Ġ1995	26637
Ġregulatory	26626
Ġsmart	26625
dc	26612
Ġrestaurant	26611
double	26608
"}),	26599
ff	26594
Ġexcess	26588
Ġbo	26586
Ġheader	26582
ural	26572
lers	26572
Ġpayments	26572
Âģ	26571
Ġreviewed	26564
note	26563
Ġwinning	26561
how	26560
ĠCor	26560
bp	26556
Ġbug	26554
Ġstatistics	26550
Ġcolumns	26545
Ġintegration	26537
byte	26532
Ġpresentation	26531
band	26527
Ġes	26526
Ġfairly	26524
Other	26517
American	26515
ware	26510
III	26509
Ġinflammatory	26501
din	26500
Ġlie	26495
ĠWhere	26493
Ġaudience	26489
)}$	26478
Ġparticipate	26470
Many	26463
oles	26454
ends	26453
auto	26450
ĠLake	26444
make	26441
OL	26429
Ġli	26424
Ġge	26424
ios	26417
ique	26414
Description	26406
Ġclusters	26404
ĠTR	26402
ĠCheck	26401
Ġmomentum	26400
Ġprop	26394
alt	26391
>&	26385
ĠmM	26385
che	26379
Ġgoods	26372
Ġcompensation	26371
illa	26362
ĠBu	26359
Ġion	26357
ĠWho	26357
ones	26356
CN	26353
Ġhotel	26353
Ġcopyright	26341
Ġfails	26338
\'	26327
RO	26292
Max	26289
Ġtwenty	26288
ently	26287
Ġwindows	26282
Ġregardless	26278
nie	26275
ĠĠĠÂł	26273
project	26272
Ġtemperatures	26262
ĠPD	26249
Ġdisc	26244
ĠmiR	26241
Ġpursuant	26238
ãģ®	26230
loc	26228
axis	26216
Ġflux	26204
Ġchoices	26200
UL	26195
ending	26184
Ġhydrogen	26183
Ġengaged	26179
Ġwarning	26173
ĠNA	26170
Ġcomfortable	26169
Ġac	26162
mem	26161
${	26161
Ġvehicles	26161
Ġstem	26154
uv	26149
acc	26137
Ġsimulations	26135
month	26134
Ġsurfaces	26125
Ġpublication	26122
ft	26121
empty	26120
tw	26118
Ġfr	26115
)))	26114
aker	26108
Ġadverse	26108
Ġuniform	26106
pass	26101
Window	26097
ET	26096
Â¶	26085
common	26081
ores	26077
Ġyounger	26066
Ġwood	26066
example	26064
Ġmi	26062
Ġ1980	26061
Ġdeliver	26060
Ġcamp	26056
103	26051
Ġkilling	26049
tx	26048
Ġedges	26048
Ġshock	26045
ĠMaybe	26041
ĠChief	26037
CB	26018
Ġlaboratory	26018
rit	26014
Ġ:)	26013
008	26011
Ġoperate	26008
Ġcoupled	26005
EB	26000
Ġsuffered	25990
]"	25985
Ġcapture	25984
ĠMrs	25984
arc	25980
Ġscenario	25980
Ĭ	25978
Mar	25973
ĠOhio	25969
Ġseparation	25959
ŀ	25950
Ġwonderful	25937
ĉĉĉ	25937
Ġaside	25935
Ġstores	25934
FT	25933
Â´	25931
Ġsubsequently	25921
Ġdual	25918
Ġcalculate	25909
ĠAppeals	25907
Ġturning	25903
ĠChris	25900
ami	25899
EE	25899
gers	25895
Ġ"\	25884
Ġbanks	25879
sz	25878
menu	25877
Ġoverride	25868
<?	25862
Ġrefused	25849
Ġdependence	25846
Ġbuildings	25830
ĠLos	25821
Ġattempted	25816
Ġproducing	25814
Location	25811
Ġnm	25810
ĠRef	25810
aut	25808
oli	25792
ĠVirginia	25791
Ġfamous	25788
ĠModel	25788
Ġinhibitor	25783
ele	25782
Ġwriter	25780
Ġsmoking	25779
Ġwire	25775
Ġelectrode	25774
Ġsuffering	25772
Ġexpand	25772
iated	25771
Ġroll	25760
Ġlay	25753
Ġflight	25746
Ġwalls	25743
Ġstrike	25742
Ġproposal	25741
values	25740
Ġclock	25739
je	25737
ĠVersion	25737
otic	25728
Ġstood	25726
Ġcalculation	25725
iy	25720
lp	25714
Ġcorresponds	25713
Ġtough	25706
}\\	25697
Ġapoptosis	25697
asing	25695
rem	25691
Ġschedule	25689
Ġemployer	25689
ĩ	25688
2003	25687
ĠJewish	25677
Ġdischarge	25661
ĠCanadian	25657
Ġear	25655
ĠBE	25651
RR	25646
Ġbelief	25646
ĠPar	25642
offset	25639
Ġodd	25631
ball	25630
Ġversions	25625
Ġeditor	25618
Ġcontributed	25614
ining	25611
Ġcolors	25610
Ġ68	25603
ws	25599
ever	25596
outs	25593
nl	25592
Ġboys	25591
Ġrepresenting	25590
ye	25589
Ġalign	25587
math	25586
Ġho	25585
Ġbeer	25582
~,	25581
Ġplenty	25577
OM	25571
Ġstack	25569
Ġproceedings	25567
Ġbasically	25562
ely	25559
Ġfacing	25559
,$$	25555
Ġgrounds	25553
Dis	25549
Use	25546
TP	25541
vis	25540
Ġescape	25528
sys	25520
Fe	25519
lit	25505
Ġreceptors	25495
ª	25486
Ġrec	25486
Ġ-\	25483
Ġvillage	25482
Ġexit	25476
201	25471
mit	25468
ays	25459
Ġspirit	25456
Ġextreme	25447
RNA	25445
Ġprogression	25439
Ġmapping	25439
Ġarbitrary	25438
Ġchamber	25426
ĠRepublicans	25423
dim	25421
Ġminister	25420
lis	25411
ĠThree	25402
Output	25400
Even	25391
now	25384
Ġattribute	25384
Ġteacher	25377
room	25367
Ġinvolvement	25366
ĠAmong	25365
ĠĠĊĠĠĠĠĠĠĠ	25357
spec	25351
ĠRichard	25350
ods	25349
Ġwalked	25348
lets	25343
}\,	25342
Ġdiffer	25342
ld	25339
Ġinflammation	25335
Ġequally	25334
Ġcoefficient	25331
Ġmodes	25321
Ġed	25314
Ġdinner	25312
Ġverdict	25310
Ġthickness	25309
Ġcircle	25302
Ġopposed	25300
Ġconsumers	25300
Ġassault	25299
Ġlib	25297
Ġthrows	25294
.âĢĻ	25292
isa	25289
Op	25288
Ġperforming	25281
Ġstimulation	25280
{-	25277
ĠCarolina	25277
eration	25272
Ġ1994	25267
Ġdev	25261
Ġplain	25260
Ġregional	25257
cont	25256
Ġisland	25252
prod	25245
Ġobserve	25241
GO	25239
Local	25238
Ġapplies	25232
tp	25231
ji	25230
Ġmoves	25205
Ġagencies	25186
ĠAccordingly	25186
ogenic	25182
before	25181
ped	25176
Ġdiversity	25176
NC	25164
Ġ-------	25156
Ġadjacent	25153
Per	25152
Ġcontrary	25149
&&	25142
Ġpregnancy	25134
Ġda	25133
;\	25127
Ľ	25124
Who	25123
Call	25115
Ġmod	25114
Ġbacterial	25112
Ġperiods	25111
git	25107
Ġsatisfied	25105
¼	25095
Ġ===	25094
Ġstronger	25087
files	25084
ĠDu	25084
itch	25079
140	25078
attr	25077
GR	25076
231	25074
ĠGiven	25074
Header	25070
ble	25063
aged	25062
Ġmissed	25061
Ġsegment	25056
Ġil	25051
ĠReview	25050
xy	25041
Ġlock	25023
Ġrank	25021
Ġdecline	25020
Ġwherein	25015
Ġdimensions	25013
Ġmagnitude	25010
lat	25000
Ġstatistically	24998
Ġmutant	24996
Ġcreates	24996
Ġmoral	24982
Ġrows	24979
%;	24972
Ġsaved	24968
ined	24960
cur	24958
za	24954
Ġbegins	24953
Ġshares	24952
Ġongoing	24950
Ġ67	24943
Ġmoderate	24939
Ġprofiles	24938
Ġthereof	24935
Ġthick	24929
¯	24928
RM	24925
}-\	24924
Ġprepare	24921
ĠMary	24914
ĠAmendment	24912
ede	24910
Ġcoefficients	24910
ech	24906
limits	24904
Ġdecreasing	24898
lab	24896
ners	24893
Ġexcluded	24879
2002	24877
Ġmarkers	24876
Ġstands	24875
Ġbringing	24875
Change	24869
ĠEm	24865
Function	24864
Ġwinter	24857
Ġnewly	24855
Ġpermanent	24847
Ġconnections	24846
Ġ\-	24838
det	24835
ĠSO	24830
ĠBush	24815
ĠUp	24814
oxy	24813
eling	24801
Ġsymmetry	24799
Url	24795
ĠGame	24786
Ġmigration	24782
Like	24778
Ġefficacy	24778
Ġteachers	24773
Ġanxiety	24772
Ġvictory	24767
Ãħ	24763
rum	24758
255	24758
sets	24753
ħ	24751
Ġconsequence	24748
mathscr	24740
âĢĥ	24736
Ġrequiring	24735
Tex	24734
Ġshell	24733
Ġreader	24732
ĠLo	24732
Ġvan	24726
Ġlosing	24725
ĠĊĠĠĠĠĠĠĠĠĠĠĠ	24717
TL	24716
ush	24709
Ġshut	24709
Ġcards	24703
Ġmanufacturing	24702
Ġselling	24698
ĠRes	24694
ema	24688
Ġlisten	24671
Ġadequate	24671
Ġcomplications	24669
Ĺ	24666
Ġill	24664
Ġrecover	24660
Ġdiagnostic	24659
Ġextracted	24658
ĭ	24654
ector	24653
Ġtargeted	24652
ĠFr	24644
none	24643
Target	24643
Ġyellow	24637
ctx	24635
Ġintermediate	24632
iner	24631
"}](	24630
Ġsubset	24614
Ġsur	24605
Ġmiss	24602
Ġlesions	24602
Ġplanet	24600
Ġinjured	24599
Ġfoods	24599
External	24595
rop	24587
Ĩ	24583
Ġdealing	24582
ona	24579
ipping	24576
His	24574
Most	24573
unt	24570
Ġuniverse	24570
Ġgrand	24570
}_\	24569
ÑĢ	24568
Ġpredict	24568
Ġdelete	24567
ĠSimilarly	24563
ĠGL	24556
Ġsuspect	24552
Top	24550
Ġhell	24547
Ġrender	24532
Ġtrained	24517
Ġkeys	24517
ĠYet	24506
112	24504
she	24490
rec	24489
SF	24488
yt	24487
Post	24485
process	24478
API	24474
Good	24472
ĠTa	24459
fo	24456
ĠNext	24449
cha	24442
aro	24440
Res	24428
AV	24428
Mo	24416
Ġvaluable	24415
Ġusage	24413
gel	24409
his	24407
ĠBlue	24405
Ġmutation	24400
ered	24398
Ġafternoon	24398
such	24396
ĠDec	24383
'_	24382
Ġcomputed	24380
lc	24373
Â²	24372
Ġinstances	24369
Ġbrings	24367
dom	24366
device	24352
Ġwearing	24346
Ġsuperior	24345
Ġshouldn	24344
Ġdiagram	24344
ust	24342
dict	24339
Ŀ	24338
oms	24337
Ġmoments	24335
aves	24327
ĠArmy	24311
namespace	24309
Ġnarrow	24305
Ġreserved	24303
ĠWater	24303
internal	24298
ĠMiddle	24298
Ġseed	24281
ĠBoston	24280
mt	24277
Ġcalculations	24273
Expand	24264
Ġser	24264
Ġactivated	24258
Ġtechnologies	24249
Ġos	24244
stone	24239
have	24237
Ġreviews	24223
Ġapartment	24219
Ġrecall	24216
Ġyouth	24209
lg	24208
Ġfaces	24207
ths	24201
ĠScott	24194
pu	24190
BD	24189
ĠSD	24187
Ġrely	24185
inner	24171
weight	24166
104	24164
Ġsick	24161
ials	24155
Ġkernel	24144
Ġrock	24139
Ġbroke	24135
¨	24134
Ġkid	24126
NP	24122
Ġtight	24110
ĠChristmas	24104
uz	24103
Application	24101
Ġdifferentiation	24100
ĠAnalysis	24096
Column	24092
Ġsatisfy	24090
Ġpop	24087
hy	24086
Ġallegations	24085
Address	24084
Ġchicken	24076
ĠFROM	24076
Ġalgebra	24072
Ġprefer	24070
ãĥ	24067
sent	24064
Ġcardiac	24062
Ġresolve	24059
Ġ1993	24059
including	24058
Ġelected	24056
Search	24052
ways	24048
Ġtip	24041
TT	24040
replace	24034
Ġdedicated	24034
when	24030
Ġchecked	24030
¿	24029
uss	24029
Ġ1992	24018
Ġclassified	24017
Ġfellow	24011
UP	24009
Ġchose	24007
Ġunsigned	24000
ĠNon	23998
ĠMi	23997
Ġseriously	23994
Es	23992
Ġsurprise	23991
Ġordinary	23990
Ġrenal	23979
±	23975
Ġrevenue	23973
Ġinvolve	23970
ĠMike	23967
Ġvary	23964
Instance	23960
Ġdistributions	23958
store	23955
ĠBased	23948
________________	23942
Ġbrown	23941
>\	23939
Ġgalaxies	23937
Ġanywhere	23932
Ġaged	23929
ern	23919
ĠRT	23918
ĠTrue	23916
Ġhistorical	23911
1999	23906
Ġ<-	23903
ĠJan	23899
\}	23894
late	23888
Ġ<=	23887
During	23873
ĠDespite	23872
Ġcutting	23866
Ġpresents	23852
Ġmatches	23852
wide	23849
Ġder	23833
ste	23828
DT	23828
105	23825
Ġtheoretical	23825
ĠME	23824
treated	23821
tmp	23815
Project	23814
dh	23812
ams	23810
ĠCR	23807
Ġlattice	23803
Ġperfectly	23802
Ġ),	23801
ĠNetwork	23796
Ġdr	23785
Ã¶	23784
Ġpartners	23778
ira	23770
Fs	23764
urs	23759
Min	23758
ĠAC	23758
Ġdiagnosed	23756
Ġtoken	23749
Ġreg	23748
los	23747
ĠEvery	23746
Ċĉĉĉĉĉĉĉ	23743
Ġillness	23741
sur	23740
Ġmetabolic	23738
Ġdust	23730
Ġprediction	23727
arch	23721
HI	23721
Ġant	23715
Ġlaunched	23710
play	23706
Ġrepeat	23704
erman	23701
Ġtheme	23694
ĠPo	23694
Attribute	23693
Ġincubated	23677
Ġdataset	23670
THE	23666
Core	23664
Ġbridge	23664
ĠUser	23660
even	23659
ĠAL	23659
ender	23656
ĠRight	23648
product	23646
Ġcarefully	23641
Link	23637
123	23632
ching	23625
master	23622
Ġbits	23615
ĠTeam	23614
Ġstatutory	23613
)}{	23612
Ġbytes	23609
Ġacademic	23609
Ġng	23605
ĠPart	23602
ĠDa	23598
white	23592
Ġride	23592
bed	23589
Ġyesterday	23589
ĠSC	23585
cons	23578
TF	23576
Ġgauge	23576
Ġexecution	23571
ĠYOU	23568
tri	23567
Ġaut	23562
\,\	23553
Ptr	23551
Ġstaining	23542
Ġjourney	23541
Ġinsulin	23540
Ġaudio	23540
RB	23538
Ġinit	23521
Ġ250	23521
ĠCharles	23514
Ġthousand	23513
Ġgift	23506
Bl	23501
ĠAngeles	23493
nh	23489
Ġinfrastructure	23488
Ġwelcome	23486
Ġmonitor	23486
Ġbreaking	23485
what	23484
quot	23483
Ġhardware	23479
'),	23472
Ġeducational	23468
Ġurban	23462
Ġcloud	23457
Ġrounded	23456
sil	23452
Ġsky	23450
omo	23434
Ġ110	23434
xc	23424
kers	23424
Task	23424
izations	23423
Ġdomains	23414
xa	23412
column	23402
Ġmetabolism	23401
Ġloaded	23397
Ġcarrier	23395
Ġdrinking	23394
Ġstick	23385
Ġsufficiently	23381
Ġreferences	23379
kt	23377
--------	23375
Ġcontends	23375
ares	23374
oral	23373
making	23373
ava	23369
Ġroutine	23368
ands	23367
Introduction	23360
ĠKe	23359
Ġintake	23357
Ġtranslation	23351
ĠError	23349
Ġcomplexity	23346
ĠOrder	23345
ĠConstitution	23343
tf	23342
Ġpartially	23342
gh	23334
Ġneighborhood	23334
Ġimposed	23334
Trans	23308
Ġconservative	23307
FL	23304
np	23302
layer	23302
377	23302
oro	23299
ĠSP	23294
Ġsomewhere	23286
Ġdisclosed	23286
Ġ71	23281
Range	23275
ĠParis	23275
mediated	23274
Ġengage	23274
Reference	23270
rh	23269
ĠThanks	23268
Ġyields	23260
ova	23256
water	23255
Ġdanger	23253
ĠWomen	23248
Ġcontrolling	23241
011	23228
Ġ$|	23214
ĠJava	23209
ĠGl	23209
Ġguard	23208
Gen	23203
Ġstroke	23192
Ġinduce	23190
final	23188
Ġnumerical	23188
Ġcomparable	23188
Ġ69	23186
Ġreveal	23185
Ġbelieves	23179
}},	23178
normal	23176
Ġph	23166
BB	23164
zy	23157
ott	23152
dist	23151
dn	23147
ĠDoes	23142
Ġconstraints	23138
Ġevil	23137
Ġbehalf	23136
full	23129
Ġcomprehensive	23125
ĠURL	23120
they	23112
Ġpet	23104
ĠOh	23103
pin	23098
Ġadmission	23095
214	23094
ĠBefore	23094
Ġtrigger	23092
Vert	23091
Ġwest	23089
Ġlens	23085
ially	23073
Ġdec	23071
blue	23069
Ġmarketing	23062
ĠHTML	23056
Ġfly	23055
ĠDetermine	23053
Ġ77	23051
mol	23050
Ġserves	23045
Connection	23042
ĠCorporation	23041
aled	23039
Over	23038
Ġintroduction	23038
Ġext	23027
will	23026
mn	23015
Ġtab	23013
ais	23012
Ġcollect	23006
docs	23003
Ġdiscrimination	23000
Ġ{}	22998
Ġinclusion	22991
had	22983
Qu	22980
OO	22980
Ġeq	22976
ĠBritain	22976
Ġpassword	22966
ĠSpecial	22965
Ġhandling	22958
Ġdivide	22946
world	22944
Ġtables	22938
Ġexplicitly	22938
rest	22937
Ġuniversal	22935
params	22926
Ġchallenging	22925
ost	22923
textbf	22922
ller	22918
}|	22913
Ġsampling	22911
uses	22905
-----	22903
Ġsnow	22902
Ġgrew	22898
Finally	22897
Current	22893
Ġcited	22891
·	22887
ENT	22880
arity	22878
ski	22877
ati	22874
Ġsimultaneously	22867
iu	22866
Ġcommit	22852
ibility	22849
Ġcache	22849
Ġalive	22842
Ġ84	22835
Does	22833
asm	22826
Ġenhance	22821
Ġbear	22818
John	22811
addr	22804
Ġinstrument	22799
ĠFind	22793
Ġtruck	22791
Ġmom	22787
Ġclassic	22787
Am	22781
Ġdenominator	22771
tm	22769
Ġvariations	22765
ĠAustralian	22765
Ġchest	22762
ĠReal	22760
Ġ78	22753
Ġhealthcare	22752
="#	22745
Ġgreatly	22745
Ġfarm	22736
wing	22734
mc	22734
ishing	22731
Ġpin	22731
ished	22727
defined	22727
Ġfa	22723
}[	22718
Ġsharp	22715
IB	22703
Ġresponded	22702
ĠAsia	22699
power	22694
ĠBusiness	22693
Ġsteel	22690
ĠLu	22689
Ġamplitude	22687
Ġprovider	22686
sey	22681
NI	22680
Ġ98	22672
Ġcopies	22668
Ġimproving	22665
yc	22657
ĠTechnology	22656
Ġquantity	22654
.;	22646
\}$	22636
Ġingredients	22629
Ab	22627
Ġfewer	22627
Ĥ	22623
ains	22623
Ġmarker	22623
ki	22621
years	22613
Ġeast	22613
Ġpenalty	22602
Ġcorrection	22599
ĠAnn	22593
%).	22580
Ġ88	22580
}"	22577
cache	22568
Ġmales	22565
LT	22563
Ġapproximation	22562
parse	22556
sql	22555
usr	22546
Ġpulse	22545
009	22540
tan	22539
ĠMin	22537
ĠJackson	22537
lay	22534
ater	22532
Ġfraud	22530
Ġcohort	22528
Ġsending	22526
Ġmovies	22523
Ġelevated	22523
ential	22520
ump	22515
Ġdrivers	22514
zi	22511
Ġexplicit	22509
mes	22505
ken	22496
Ġnamely	22496
ĠKey	22495
tes	22491
lies	22482
Val	22476
Ġomitted	22476
Ġrooms	22471
known	22467
Ġnearby	22463
PG	22460
ono	22453
Ġcomparing	22444
ĠClub	22443
Ġ------	22443
Ġriver	22440
ĠJr	22440
address	22439
Ġdifficulty	22436
rz	22434
aks	22434
erc	22433
Ġsignature	22430
Ġtea	22424
fin	22411
Ġpapers	22410
Ġrejected	22409
Ġvariance	22408
ping	22402
BI	22401
Ġjump	22397
)_	22393
Ġstrict	22391
ĠIllinois	22386
rating	22384
kl	22383
Ġleaf	22373
ĠMedia	22373
Ġcommitment	22372
Script	22358
pd	22353
Ġprecisely	22353
Ġau	22350
µ	22344
310	22344
uff	22338
ĠCell	22332
217	22331
ĠPage	22320
Ġinequality	22318
nk	22307
Ġreceiver	22305
Ro	22304
Once	22293
oph	22290
ĠValley	22283
Ġinvestors	22277
wrap	22270
Ġmachines	22268
Ġcodes	22267
Ġneural	22261
Ġhasn	22260
aka	22252
ded	22251
SB	22249
Ġatoms	22249
ĠJoe	22242
Ġscientists	22241
ĠCare	22241
Ġmatching	22240
Ġvast	22239
aps	22237
Ġbuying	22228
lines	22225
tering	22223
Ġfemales	22215
ĠForce	22212
Ġsemiconductor	22211
sing	22206
108	22198
ĠItaly	22198
Ġnaturally	22194
Ġtail	22191
born	22182
background	22176
Char	22174
ient	22171
Ġdoctors	22169
send	22165
TM	22164
Select	22163
ĠMichigan	22157
Cr	22152
there	22149
Ġadministrative	22133
gar	22131
materials	22120
Ġcrowd	22118
Ġbusy	22114
Ġ73	22111
ĠToday	22096
!âĢĿ	22089
Ġmeasuring	22080
Ġsuffer	22079
Ġscored	22076
Ġelections	22072
Ġmask	22067
bot	22061
Ġheads	22061
Ġcoordinates	22057
Ġdiv	22051
ĠEnergy	22050
Ġargs	22045
Ġrestricted	22038
Ġperipheral	22025
Ġsurprised	22022
ĠAmazon	22021
Ġcareful	22020
Ġprivacy	22018
fire	22012
Ġmodification	22012
Ġreduces	22010
)$$	22008
Ġadjusted	22003
ĠCatholic	22001
IX	22000
care	21996
Ġenabled	21996
about	21992
<!--	21991
Ġ::	21990
Ð¾	21986
Ġtrace	21977
Ġlab	21976
should	21974
Ġwh	21972
\!	21971
Ġparticipation	21970
Ġscheduled	21968
Ġproven	21961
Ġimp	21960
week	21954
Ġ74	21953
Ġdiverse	21951
////////////////	21949
ĠImage	21948
Ġnotion	21946
Pe	21936
ĠFire	21936
Ġabsorption	21927
Ġna	21926
thm	21925
Entry	21923
Ġindependently	21923
Ġfeelings	21922
ĠKo	21922
ĠNi	21917
Ġcomposed	21914
ame	21908
ĠResults	21904
eur	21902
inn	21899
!!	21894
Ġera	21888
}]	21886
ĠMake	21885
Â¿	21877
ency	21870
Ġmistake	21867
ĠLocal	21858
bt	21857
Ġarmy	21848
Ġcovering	21847
Ġanymore	21847
wd	21845
Ġpot	21845
SIZE	21841
Left	21835
eller	21833
Ġcontinuing	21833
Ġkinase	21830
game	21828
232	21828
FP	21825
LD	21822
Ġtiming	21820
ĠSyria	21818
Ġbulk	21817
Ġsettlement	21815
Ġpresidential	21812
Ġcable	21807
OC	21806
Ġcook	21802
Ġ97	21802
Ġwarrant	21790
Ġbreath	21786
ĠYear	21786
osa	21784
Ġhash	21782
Ġ**(	21779
/>	21771
Ġloading	21770
³	21769
Height	21768
Ġcommission	21767
erm	21766
ĊĠĠĠĠĊĠĠĠ	21764
Thread	21761
Ġadds	21759
pers	21754
Ġ94	21741
vers	21740
handle	21740
111	21739
ress	21736
117	21734
display	21732
Ġ101	21732
Entity	21728
Ġprogramming	21728
Ġ76	21717
Build	21715
Ġtalked	21715
nb	21712
types	21708
Ġcommunications	21706
ours	21702
Ġcrimes	21702
itation	21699
Ġaircraft	21692
ued	21690
Ġclosing	21690
ĠSal	21690
ĠBest	21686
Ġrational	21675
ace	21672
]{}]{}	21670
Using	21670
Ġ&=	21669
Ġgenerating	21667
Ġherein	21664
Provider	21663
ĠDavis	21661
Ġopinions	21642
Ġprecise	21641
Ġyards	21622
pen	21621
oni	21621
Ġreform	21620
remove	21617
Pl	21616
ML	21616
Ġexecuted	21612
'\	21609
Ġlists	21603
Ġexhibit	21594
iously	21588
Ġatt	21583
Ġwealth	21582
ĠFund	21580
Ġpriority	21579
aining	21571
Ġpetitioner	21571
Hi	21570
ĠFed	21566
Come	21562
mal	21555
Ġlocally	21555
ĠCreate	21548
210	21547
Ġ$\{	21543
}({\	21542
Comp	21542
Ġfunc	21541
Ġafraid	21538
130	21537
Ġlegs	21534
Ġ81	21534
EV	21533
Ġvectors	21533
():	21528
Â®	21526
^{-\	21526
total	21522
ĠSec	21516
family	21513
debug	21510
ĠSource	21510
Ġlipid	21509
AND	21501
Ġpolymer	21501
copy	21500
ĠChapter	21500
Module	21499
Ġfailing	21498
uan	21497
-*	21495
Ġrefers	21489
Ġradical	21488
<\	21486
Ġwhenever	21486
ĠAR	21485
STR	21484
UT	21481
Ġwaves	21478
Ġpos	21477
Ġsuddenly	21476
ĠPlan	21475
ĠGrand	21461
Ġcuts	21453
Ġcrazy	21451
Level	21449
''	21447
106	21434
nar	21433
Ġdeclare	21428
Ġaimed	21428
just	21425
Ġhouses	21424
Ã¢	21402
ĠYoung	21397
Ġ1991	21397
Ġinhibitors	21393
ĠManagement	21391
Theta	21387
Ġtaught	21387
Ġtemporary	21381
Ġdist	21380
SET	21379
ards	21370
Ġconf	21367
ĠPrime	21367
Ġ91	21360
click	21356
116	21353
vm	21348
shape	21342
ERROR	21342
Ġexpenses	21342
ĠDate	21340
Ġsuppose	21335
domain	21334
Ġcultures	21332
lying	21320
Ġweapon	21310
IG	21302
}}^{	21295
Ġproduces	21292
hin	21287
áĢ	21284
ĠPolicy	21282
ĠAction	21278
Okay	21275
Ġencourage	21275
sr	21274
Ġdecay	21272
OB	21270
Ġer	21264
Ġupdates	21261
mers	21260
Ġscan	21259
ail	21258
ĠMal	21256
rt	21243
Ġteeth	21241
Ġfrequent	21236
ĠSpace	21235
iii	21233
Ġwatched	21229
eto	21228
Ġstrange	21226
Ġver	21217
Ġfifth	21215
ĠSer	21213
unit	21202
Ġ82	21200
Section	21196
Ġplurality	21195
inate	21194
Ġattributes	21193
Ġproviders	21192
Work	21189
).$$	21186
Ġreasonably	21180
Ġchair	21180
Ġwestern	21172
arn	21171
ĠRights	21171
Ġsilver	21166
rations	21162
Ġshoulder	21160
Ġfrequencies	21159
ime	21158
aming	21156
ĠOK	21156
ĠNumber	21149
activity	21142
Ġprocessed	21140
Ġtrading	21138
ĠApplication	21127
Ġnerve	21125
Ġdominant	21124
Ġorientation	21123
','	21122
Ġignore	21117
[[	21113
Ġvertex	21113
RD	21111
Ġawareness	21109
cut	21108
echo	21106
Tree	21105
Ġstreets	21095
Ġlosses	21093
hs	21091
Ġ92	21090
Parameter	21089
)|	21088
sie	21079
Ġcouncil	21071
CON	21069
Ġtiny	21067
Ġobj	21066
Ġfed	21065
ĠReport	21064
hash	21060
Ġvalve	21060
Ġpoll	21060
Ġ83	21057
ĠBio	21053
),\	21049
email	21047
Ġlawyer	21045
Ġquiet	21041
Ġwitnesses	21038
Ġassist	21035
points	21034
Ġtour	21027
Ġfo	21023
Ġimprovements	21020
mos	20999
Ġsomehow	20998
Ġplates	20998
Ġpersonnel	20988
ĠTe	20985
Ġsight	20968
NE	20962
Ġgeneric	20961
Ġsoul	20955
Spec	20954
ĠReg	20947
arian	20946
ves	20941
Ġfluorescence	20941
km	20940
ht	20933
Ġmarks	20932
Ġexplains	20931
SN	20927
ĠSw	20924
ude	20917
Ġ..	20911
bel	20907
ĠWilson	20907
Ġ93	20902
Ġdivisor	20901
ond	20896
enum	20896
Ġtalks	20896
Ġholes	20895
owing	20893
\^	20891
nf	20884
Ġstruggle	20875
Ġorganized	20875
Ġgoverning	20869
bon	20867
Ġreturning	20867
Did	20862
ĠThank	20862
}^{-	20855
ĠCivil	20853
gov	20851
Ã©s	20849
HE	20844
Title	20843
uck	20836
Ġvideos	20836
Ġmanufacturer	20835
/.	20828
Ġmail	20819
ĠFox	20805
Ĵ	20800
{}	20799
Ġrespiratory	20798
Ġweren	20796
VI	20795
Ġ($\	20795
Ġunlikely	20791
ĠGlobal	20788
Ġroughly	20783
Offset	20764
Document	20760
Ġ})	20758
Ġpermitted	20755
Tag	20754
cho	20752
Ph	20748
Ġ{{	20748
Ġarchitecture	20745
Ġpassage	20739
Ġnano	20738
Ġdirections	20735
ĠDescription	20733
Ġbyte	20721
inger	20719
ĠBur	20715
|^	20712
vin	20708
bus	20706
Ġcooking	20706
Ġmodules	20704
Ġrecipe	20701
Ġuncertainty	20698
war	20696
ims	20694
Ġund	20693
ĠWork	20693
Ġelsewhere	20689
0002	20682
eman	20681
Ġ}\	20674
Ġovercome	20674
ĠMen	20674
á»	20671
aling	20671
ark	20670
ĠBY	20670
PCR	20663
task	20654
Ġafford	20649
AE	20648
Ġrestriction	20641
Ġcal	20641
ĠRepublic	20637
met	20635
Ġparking	20632
Ġgeometry	20632
Ġdeviation	20629
Ġplea	20618
VE	20613
Car	20603
Ġcompute	20597
Ġfolder	20596
,{\	20595
Ġflash	20595
Ġsodium	20592
Ġconsisting	20586
change	20577
ased	20568
Ġsubmit	20563
Ġcycles	20563
Ġtelephone	20562
ĠMuslim	20559
Ġgarden	20555
Ġbounded	20554
Ġextraction	20550
export	20549
ches	20548
Ġbutter	20547
Ġkeeps	20546
Ġutility	20541
oids	20535
iel	20532
Ġpaths	20531
Ġvascular	20530
elli	20527
HC	20524
Ġmarijuana	20521
ĠText	20521
Ġcontracts	20517
ĠMiller	20515
Ġdisability	20514
try	20512
Ġseasons	20512
Position	20502
ĠProposition	20498
Ġalgorithms	20497
ĠIsraeli	20495
Ġaffects	20492
127	20491
Ġconclusions	20489
Long	20486
ister	20474
Î³	20472
Ġlymph	20471
ÂĹ	20469
Write	20468
nes	20463
Ġconcrete	20461
Ġgiant	20459
Ġ1970	20457
tools	20456
Ġ---------	20456
ĠCu	20448
rst	20443
Os	20437
Ġlip	20435
methyl	20429
ĠTop	20428
Ġcleaning	20426
Ġ79	20424
Ġpeptide	20423
Ġtheories	20421
who	20419
Ġmedication	20419
fx	20416
ĠLast	20410
Ġrev	20408
Ġconverted	20407
Ġboat	20404
stop	20401
Types	20396
Ġconsiderable	20396
Ġmeal	20395
Ġcolon	20395
ĠJack	20386
ades	20380
Supp	20369
Ġsm	20365
ih	20356
Ġavailability	20355
Non	20344
Ġdispute	20341
dagger	20340
textrm	20339
Ġ++	20334
Ġrobust	20332
Ġpowder	20325
MAX	20324
ĠAp	20323
ĠIC	20319
1998	20318
Step	20314
Ġresolved	20311
ĠSQL	20311
ĠER	20311
ills	20307
Ġfault	20306
Ġviewed	20300
burg	20298
AK	20295
Ġlunch	20289
Ġmaintaining	20285
Impl	20276
ĠNov	20276
Ġrural	20270
Ġnorm	20269
osh	20267
Ġpushed	20267
flow	20266
ĠFood	20266
sem	20265
underline	20260
Ġpersonally	20257
Dir	20243
Ġ89	20241
Total	20239
107	20237
sha	20236
Ġprevention	20236
Ġneuro	20232
enter	20227
Ġprofit	20227
Ġsong	20226
ĠCommunity	20226
Ġcompletion	20224
119	20223
green	20222
Ġgay	20222
Ġentries	20222
Ġking	20214
Ġstrings	20213
Listener	20210
uh	20207
UR	20203
Ġconvicted	20203
248	20202
zero	20195
Ġappreciate	20195
Ġadvantages	20195
ĠJe	20182
Ġguarantee	20180
.]	20178
ĠSouthern	20178
aya	20173
Ġ((-	20170
Ġbarrier	20166
ĠOfficer	20165
ATE	20164
Ġ-----------	20164
Ġtele	20162
Main	20159
ĠPakistan	20155
ĠKim	20155
Ġfired	20154
token	20147
Device	20146
Part	20143
Ġdiscussions	20135
Ġsequencing	20133
192	20132
Ġhom	20129
280	20125
DL	20124
eting	20120
Ġonset	20120
Ġscattering	20117
stat	20116
ĠOld	20111
Ġ01	20106
121	20103
ote	20100
pid	20097
Ġphenomenon	20097
Ġ-----	20095
Ġteach	20088
phone	20085
Ġfiling	20081
uted	20079
lip	20079
Ġownership	20079
place	20077
wers	20075
ense	20067
Ġexclusive	20067
Ġregularly	20063
ĠĊĠĠĠĠĠĠĠ	20063
Template	20060
Ġpor	20059
lot	20053
Ġcoll	20050
ually	20045
113	20045
CV	20042
Ġcompeting	20042
ĠCEO	20042
ë	20032
ces	20026
Ġoperated	20024
Ġ86	20020
Ġste	20018
Ġcolour	20018
Ġcream	20014
Ġatmosphere	20013
ĠNY	20010
container	20007
Ġattend	20003
Ġsystematic	20000
ĠWITHOUT	19996
rid	19992
iff	19992
*]{},	19987
Ġcomprising	19987
Ġquantitative	19980
Unit	19978
>.	19977
?'	19976
Ġcheese	19976
unsigned	19975
Ġphot	19975
Ġdress	19973
Ġpour	19967
aze	19964
rl	19961
equal	19960
Ġcenters	19958
«	19955
Ġthinks	19951
Ġverify	19950
oper	19947
ĠCentre	19936
Ġentering	19927
Ġrice	19926
{{{\	19923
itz	19919
front	19908
aring	19895
Ġhorizontal	19888
ĠLine	19885
Ġ87	19883
Str	19881
Ġ\"	19878
\>	19874
Ġworker	19873
ody	19870
LY	19870
Ġsustained	19867
cmd	19865
face	19860
ct	19859
Ġgovernments	19859
®	19857
Ġsatisfies	19856
Ġaccumulation	19855
person	19854
Ġfalling	19854
ila	19852
uous	19850
ĠVol	19845
Ġcaptured	19840
Ġcomfort	19839
ĠSpanish	19831
Ġtomorrow	19830
ĠRock	19827
OV	19826
pool	19824
CU	19819
pol	19812
pel	19807
ĊĉĠĠĠ	19806
Ġbin	19803
mb	19802
Ġreaching	19801
Ġexpanded	19795
Ġdemands	19792
Ġinterventions	19790
ĠHenry	19787
ume	19786
ete	19786
Ġspan	19783
Ġprofessor	19782
Ġremoving	19777
Ġdismissed	19773
Ġcrew	19772
Ġcolleagues	19771
Ġ>>	19769
Ġ----------	19761
loop	19760
Ġrecommendations	19758
ipe	19754
matrix	19752
||	19740
135	19732
icity	19731
Ġdegradation	19727
Ġqualified	19725
mac	19722
hard	19721
black	19721
subseteq	19720
Ġpump	19720
Ġnervous	19720
desc	19719
Utils	19715
Ġportions	19710
Ġinvasion	19710
Container	19708
asp	19705
âĢĭ	19703
Ġfalls	19702
Ġproud	19700
\.	19699
Ġincorporated	19699
gate	19698
Num	19695
ĠÂ°	19695
ĠStandard	19695
Ġbundle	19694
ĠJersey	19685
Ġcoding	19682
aws	19680
ĠServer	19678
Ġpsychological	19676
ĠWhether	19675
hes	19674
foot	19670
PV	19664
ĠGold	19662
**.	19659
fu	19654
Ġworldwide	19654
Ġnamespace	19652
GG	19647
Ġcons	19647
support	19640
ĠFrancisco	19637
iers	19636
Ġkidney	19633
Ġmasses	19630
Ġdestination	19629
Ġrose	19628
ove	19626
KE	19623
Ġgradient	19622
ĠItalian	19620
ÑĤ	19619
Ġcompetitive	19619
ĠDaniel	19619
Ġstations	19615
.(	19612
itions	19609
fill	19608
TX	19608
Ġadministered	19604
amo	19591
_{(	19591
Ġ1989	19589
------------	19586
0005	19584
Ġassays	19582
ately	19578
ĠDefendants	19574
ND	19572
ĠMD	19570
170	19568
Cache	19565
Ġsizeof	19563
ria	19562
Ġscales	19555
rib	19547
oes	19539
Ġseparately	19536
Ġancient	19536
Ġ--------	19532
Ġinterference	19531
168	19527
Ġeggs	19523
ĠApache	19523
ĠPut	19522
ĊĊĊĊĊ	19521
Ġreaders	19517
BU	19513
screen	19510
kr	19509
Ġdecreases	19506
FR	19505
Bs	19503
ologist	19501
}}$.	19496
ider	19489
stack	19487
igs	19485
Debug	19481
session	19478
Ġphysics	19476
ĠNFL	19472
Ġroof	19466
comment	19465
Ġintervals	19462
Reg	19461
HD	19461
Ġvotes	19458
Ġfaced	19455
Ġmounted	19454
Ġbowl	19453
Ġfriendly	19451
Ġinfinite	19446
Ġegg	19446
220	19445
ĠVan	19445
ĠÃ©	19440
012	19437
Ġsk	19433
PF	19424
½	19422
Ġstuck	19422
hw	19419
Edit	19416
'}	19411
Ġcovers	19409
Ġrain	19408
ĠCC	19407
Cor	19406
Ġtargeting	19406
Ġcheap	19399
Ġaddresses	19398
vent	19394
^)	19394
associated	19392
Ġalter	19392
oto	19382
-------	19372
Ġinterior	19372
Ġfolks	19372
109	19370
Ġstone	19368
ifier	19366
Ġ1988	19366
elling	19365
.),	19362
Ġprofessionals	19350
ĠAsian	19347
825	19346
Ġforum	19344
ometric	19342
Ġoffensive	19342
ĠGeorgia	19342
Ġcreative	19332
reference	19325
ĠLett	19322
ĠConference	19314
Ġroots	19310
Ġvariants	19309
anda	19307
:=	19307
ĠCP	19307
binding	19305
Ġpromoter	19305
114	19303
Vs	19293
linear	19292
Ġvacuum	19285
ĠChe	19280
ĠIR	19278
ĠShow	19273
OF	19272
Ġappointed	19270
SELECT	19269
Ġkit	19269
eral	19268
Settings	19268
Ġappeals	19268
Ġrising	19267
Ġanalyze	19264
hour	19263
lb	19261
unk	19260
lor	19256
vol	19253
Ġtoxic	19251
Ġflexible	19250
Ġconstitute	19250
san	19249
Ġhonest	19248
Ġheavily	19248
edu	19244
ĠStudies	19243
setminus	19239
Ġdrawing	19234
Store	19233
Ġpasses	19233
Ġexpressions	19232
ĠTaylor	19229
Ġev	19228
Ġprotective	19225
ĠDel	19224
Ġlikelihood	19222
Ġconsecutive	19216
Ġseverity	19214
Ġreflected	19214
Collect	19213
Ġexpectations	19209
Ġbind	19206
Ġhousehold	19205
antly	19203
Ġ------------	19202
Under	19196
Ag	19196
Ġinsufficient	19196
ometer	19188
Ġbeach	19183
Ġboost	19182
sta	19181
Ġinsert	19179
ĠMain	19179
rio	19177
NT	19165
Ġalignment	19160
ĠWall	19160
Ġmono	19158
ĠJo	19158
ĠMass	19156
PER	19148
Ġratios	19143
Ġlimitation	19143
Ġsolely	19134
Ġmovements	19134
pose	19133
,\,	19131
news	19128
ires	19127
Ġsoldiers	19127
Ġsimilarly	19124
iring	19122
Ġpas	19122
dm	19121
Phys	19121
Ġyeah	19121
global	19120
eter	19115
Ø§	19113
Ġadvertising	19113
command	19112
ough	19110
Ġrelating	19109
ĠDO	19108
Ġconstantly	19107
Back	19105
second	19098
Ġbike	19095
tic	19094
AH	19086
Ġhospitals	19086
Ġseeds	19084
ĠSA	19084
lier	19083
ĠRoyal	19083
Ġbands	19081
ĠSk	19079
Ġenzymes	19075
phase	19074
ĠMer	19074
images	19073
eria	19073
channel	19071
Ġbeauty	19064
ĠCross	19064
Ġ-------------	19064
ACT	19060
Ġfoundation	19058
Ġawarded	19057
ike	19053
ature	19053
Ġanswered	19052
Ġwet	19051
xs	19049
Ġadmit	19048
ĠPatients	19046
ĠHE	19041
Ġrestrictions	19040
ALL	19039
Ġcoordinate	19037
Ġce	19037
mis	19036
Ġpackages	19032
ĠWood	19029
Ġengineering	19027
days	19026
Ġsees	19024
Ġvice	19020
LM	19017
ĠTotal	19016
Ġalert	19013
cam	19012
Ġsubjected	19011
member	19006
Ġjudicial	19006
Ġmanual	19000
insert	18999
Ġmeetings	18999
Ġind	18995
ĠMu	18992
ĠAcademy	18991
Ġcomprises	18983
short	18982
ĠNorthern	18979
Ġsupplied	18978
ĠCase	18972
Ġabsent	18970
graph	18967
ãĢģ	18965
ided	18964
window	18957
join	18954
Ġmild	18954
Ġbeneficial	18952
rom	18951
Ġhoping	18944
Ġvarying	18943
ched	18942
OX	18942
Ġquasi	18942
SW	18940
Ġprotest	18940
arrow	18938
Ġ102	18938
May	18933
Ġvaccine	18933
Ġprojection	18933
ĠPS	18925
eries	18919
BO	18919
Ġproceed	18917
ĠAndroid	18915
ĠIF	18907
Ġproceeding	18903
\_[	18902
Ġ"$	18901
ĠMed	18900
ĠJoseph	18899
ijerph	18896
Ġexecute	18895
uf	18893
Ġenjoyed	18892
ĠPennsylvania	18892
---------	18891
Ġnations	18891
ester	18889
ogen	18888
ĠAN	18888
Ġpixel	18887
Ġgel	18887
ĠThough	18887
Ġimmunity	18883
Ġimplications	18882
rant	18879
Sort	18877
Ġphysician	18877
xx	18875
Ġaccessible	18867
"))	18856
Ġvalidation	18855
rab	18854
Vector	18853
application	18850
Ġchecks	18850
iles	18849
ĠPlaintiffs	18844
Ġass	18843
900	18842
0004	18840
Ġglad	18839
Ns	18838
wi	18836
Ġlayout	18834
lar	18833
}}$,	18831
Ġdiff	18831
Ġclothes	18828
Ġvol	18825
Ġcarcinoma	18825
cit	18823
132	18823
hep	18822
Ġserial	18818
Ġpilot	18818
ĊĊĉĉĉ	18818
Ġ(âĢľ	18817
0003	18814
inated	18808
Ġdismiss	18808
Ġacquisition	18803
Ġages	18800
oking	18799
mean	18799
Ġintention	18798
Ġantigen	18795
ĠLouis	18795
Ġpartition	18794
Ġmu	18794
rows	18792
atin	18784
Ġou	18783
020	18778
Ġtemporal	18774
ĠFa	18770
ĠIslamic	18764
rian	18763
diff	18760
Ġdb	18753
Ġchart	18748
sto	18745
Ġlaid	18740
cer	18737
tbl	18733
uid	18732
âĢħ	18729
ĠPE	18729
Ġcalcium	18725
tile	18722
015	18719
ĠTake	18716
----------	18714
access	18710
Access	18708
Ġabundance	18700
cn	18698
Ġbonds	18698
Ġdefines	18696
GT	18690
Ġob	18688
Ġfeeding	18688
HT	18685
ĠFBI	18683
GF	18679
Ġheating	18677
cells	18676
Ġti	18676
Order	18673
connect	18664
Ġhide	18661
fb	18657
FD	18655
Ð»	18649
}}}\	18646
Ġ104	18645
Ġcorporation	18641
º	18640
Ġcorrespond	18637
Ġartery	18634
æ	18631
ĠBeach	18631
ears	18619
Ġâī¥	18619
awa	18615
Ġvitamin	18615
Ġfusion	18612
ĠNor	18611
iate	18609
ility	18607
Ġpack	18607
Ġdestroyed	18606
======	18605
Ġspecify	18604
eff	18603
ences	18602
Ġranging	18602
FB	18591
ĠLinux	18589
connection	18588
Ġinstallation	18584
Ġimmigration	18579
Te	18576
iva	18575
GET	18574
TY	18573
gal	18568
Dialog	18566
Ġassignment	18565
gy	18553
Ġbread	18553
ĠIndex	18553
LR	18552
Ġsad	18551
Ġdesirable	18551
EST	18549
Ġshit	18547
Ġdevelopers	18543
ĠMax	18542
ĠFollowing	18542
rist	18534
Session	18532
'(	18532
Ġsmoke	18530
Ġautomatic	18530
]{.	18516
Ġ$-	18514
FILE	18511
753	18509
ailing	18506
ital	18503
ĠSea	18503
Ġ\;	18502
Ġerred	18499
-------------	18496
Ġarmed	18492
orn	18491
ogenesis	18491
illing	18489
Ġpadding	18489
+^	18488
Ġunusual	18487
Ġaltered	18483
done	18482
aga	18482
TB	18481
NN	18476
Ġacceptable	18474
ĠNevertheless	18474
wan	18472
Ġeffectiveness	18471
Only	18470
Ġbreach	18467
Ġeligible	18465
Ġearned	18459
115	18458
ĠAdministration	18455
Ġpreliminary	18452
Three	18445
Ġshoot	18440
ĠâĢ¢	18436
rx	18435
Ġstruck	18434
fit	18432
Ġwake	18431
Ġconsistently	18431
und	18430
ĠRyan	18428
ĠSte	18425
ĠPi	18422
pan	18421
ape	18414
ĠTHIS	18414
Ġfi	18411
aster	18409
Ġra	18409
Ġsessions	18406
Ġoccurrence	18403
Menu	18400
ĠUV	18398
ols	18397
Look	18393
Interface	18393
Ġvisited	18393
Ġmatrices	18393
RL	18387
Ġvoting	18387
ĠLtd	18387
Ġunclear	18383
ī	18379
fun	18379
Ġguidance	18378
}}(\	18374
Ġmirror	18372
Activity	18371
Ġskill	18370
ĠFour	18368
147	18365
ĠCont	18365
tk	18363
ĠBack	18361
Ġfacilitate	18356
Ġatom	18354
ĠPython	18352
Ġnormalized	18348
ĠPatent	18348
Ġinline	18346
KEY	18344
ifications	18342
elo	18340
Ġperceived	18339
Ġpacket	18334
Ġsmile	18333
čĊĉĉĉĉ	18331
Ġtracking	18329
pack	18328
Ġmolecule	18328
Ġending	18327
press	18326
Ġeverybody	18325
ĠLA	18325
component	18317
Ġarrangement	18316
Ġtank	18314
Ġexp	18314
rod	18310
$]{}	18309
ĠMO	18303
Ġspiritual	18296
126	18291
}.$$	18289
Ġlights	18288
ĠWT	18280
nov	18278
Ġangular	18278
sex	18277
Ġkm	18271
Ġ"/	18264
TU	18260
ĠPoint	18258
omas	18257
350	18254
Ġshopping	18251
ĠColorado	18251
Ġhadn	18250
!)	18249
Ġliberal	18249
ille	18248
etc	18248
ĠMat	18248
Ġhonor	18243
sig	18240
Ġidentifying	18235
Ġcomplexes	18232
Î	18230
Ġluck	18225
Ġrarely	18222
negative	18220
Ġease	18220
COM	18219
Ġrandomly	18219
ĠIns	18218
Ġtreating	18214
Ġruled	18213
Port	18211
Ġattended	18206
interface	18201
Ext	18200
Ġpromising	18196
"));	18192
ĠCS	18189
nds	18187
Ġchildhood	18184
Ġprecision	18182
Ġshorter	18178
Ġpoliticians	18177
Ġdesigns	18176
Ġvital	18175
Ġtape	18168
away	18165
Ġaging	18165
ĠSteve	18165
--------------	18163
Ġinstitution	18163
Ġexport	18163
ĠUnfortunately	18162
Ġpen	18161
ĠJews	18161
Ġ\#	18160
una	18159
ĠIreland	18157
[**	18156
sed	18155
Ġviolent	18153
ĠArizona	18152
VC	18150
Ġintegrity	18148
flags	18146
ull	18144
dg	18144
Ġtransportation	18142
help	18135
kan	18132
wedge	18131
Ġultimate	18128
Ġtips	18127
Ġchip	18127
Ġchemotherapy	18122
MF	18120
Ġpointer	18118
Ġ$[	18116
Ġwashed	18111
Ġclause	18108
Ġbunch	18108
enn	18104
Ġ600	18102
Ġsole	18100
Ġdeeply	18100
amed	18099
Ġoxide	18098
Ġ+/-	18098
DNA	18097
Ġpregnant	18097
Ġlifetime	18096
Ġsentencing	18090
eon	18089
aud	18086
Ġcollective	18078
ĠMet	18077
Fl	18076
Ġsteady	18076
ĠOct	18075
}}_{\	18074
Ġhybrid	18074
Ġconcepts	18074
uy	18073
scope	18073
stage	18072
Ġmes	18069
Ġ180	18067
Ġ--------------	18066
ule	18064
security	18064
Ġinform	18064
Ġharder	18062
ĠJSON	18051
Ġrear	18047
ĠSen	18042
Ġabstract	18039
ĠMedicine	18039
ock	18036
quality	18035
alo	18034
Ġeverywhere	18030
adi	18029
Si	18026
Ġsurvive	18024
Ġbid	18021
Ġforever	18014
Ġresidues	18013
Http	18011
anti	18010
ĠFamily	18007
ando	18006
Ġlabels	18005
pad	18004
212	18000
`,	17998
Ġjson	17996
Ġamended	17996
ĠAge	17994
Ġinteract	17990
ĠBel	17990
Ġ['	17987
ested	17985
itable	17984
Ġallegedly	17984
Pos	17982
EG	17976
ĠTrust	17974
aria	17968
AO	17964
-----------	17962
Ġ=\	17962
Body	17961
language	17959
Ġbirds	17955
Put	17954
Def	17952
Expression	17951
DATA	17950
Ġphases	17950
Ġdisabled	17949
ante	17948
Ġ----	17945
tech	17944
Ġmult	17944
Ġmountain	17941
Ġhorse	17939
imal	17937
118	17937
Ġimmun	17937
ĠFrank	17937
save	17936
Have	17932
onia	17931
stein	17930
hspace	17929
ĠMaster	17927
Ġpepper	17924
Ġhi	17921
Ġfunny	17920
Ã¨	17919
ĠWil	17919
1996	17914
Ġ1983	17914
Ġdoctrine	17909
Ġcu	17908
=-	17905
UC	17902
Ġcrash	17902
wal	17901
Ġnewspaper	17900
Po	17897
ĠForm	17896
sol	17891
analysis	17890
Ġcampus	17890
Ġcomputing	17889
iest	17887
Background	17881
Ġpaint	17880
shift	17875
multi	17873
fields	17869
Font	17869
Ġcurrency	17868
lr	17867
Ġfabric	17867
ounding	17852
Ġmonthly	17846
night	17845
MOESM	17844
Hello	17843
ĠSeries	17842
uer	17841
ĠVer	17838
Ġsymmetric	17835
AX	17834
KS	17832
Ġdoors	17832
Ġutilized	17830
ĠSeveral	17830
Ġrepeatedly	17828
ancy	17819
erated	17818
ili	17813
Ġflavor	17812
die	17811
ĠBob	17811
ank	17800
ĠAbout	17799
sample	17797
Mon	17797
Ġwrites	17787
Ġaccompanied	17782
Ġmixing	17780
ioned	17778
cas	17777
Ġ('	17777
ashed	17776
Ġenemy	17774
Ġdiscover	17772
admin	17769
Ġexhibited	17768
Ġbankruptcy	17768
ĠTim	17768
formed	17765
ologically	17764
SK	17764
Ġneur	17754
Ġadopt	17752
Ġviolated	17751
Ġarranged	17748
Ġreporter	17747
Ġjoy	17747
Ġlying	17746
WE	17743
Ġpatch	17743
Ġmini	17739
chen	17738
1997	17735
cases	17734
mor	17733
most	17730
oom	17727
queue	17724
Ġmitochondrial	17724
iro	17721
fix	17720
Ġ109	17720
Ġpulmonary	17716
Ġvessel	17711
}})	17709
Ġenvironments	17709
Ġchecking	17709
Ġtens	17707
lessly	17704
202	17704
025	17704
ĠCancer	17703
349	17701
Run	17698
Ġresidence	17695
Ġmere	17690
Ġsurveillance	17688
aly	17687
`.	17686
rep	17683
240	17682
ĠLand	17682
ĠHistory	17679
sid	17675
olic	17674
Sch	17674
enc	17670
Ġoccurring	17670
erd	17666
rn	17661
iled	17657
ĠMatt	17657
ĠLight	17655
à¤	17651
Ġreveals	17651
yst	17650
Ġlanguages	17644
Par	17642
Ġvi	17635
Ġ128	17633
Ġtopics	17632
Ġstudying	17632
ĠSpain	17632
draw	17630
Ġblind	17626
nr	17621
Ġscalar	17619
Ġphilosophy	17619
Ġdisagree	17619
Ġpipe	17618
.*]{}	17616
Ġvoted	17613
Ġreadily	17613
zone	17608
DH	17608
Ġqui	17608
Ġdeclined	17605
čĊĠĠĠĠ	17604
Ġrecovered	17596
kel	17592
inv	17592
Ġperception	17592
pot	17586
Down	17586
ÎĶ	17584
Ġsport	17584
Ġbottle	17584
edge	17582
Ġsupporters	17582
tie	17571
ĠLove	17564
Ġ(@	17564
nat	17563
Gu	17560
Ġreversed	17558
kar	17551
fp	17551
oin	17550
dec	17548
Ġpanels	17546
Ġderivatives	17540
ĠKingdom	17538
Ġ1986	17536
HL	17535
clear	17534
ĠAgain	17532
Ġparse	17531
Ġmar	17529
Ġlegislative	17516
earing	17515
Ġunlike	17513
Ġdefects	17513
ĠIslam	17513
Ġdoses	17512
Ġinterpreted	17508
Ġembedded	17508
Ġpseudo	17506
bal	17498
Ġtroops	17498
Ġtransactions	17498
014	17497
users	17490
VA	17490
ĠDan	17490
Ho	17486
124	17486
vy	17485
({{\	17482
oker	17481
Ġcorrelations	17481
iet	17479
VF	17476
Tool	17471
imp	17470
Ġstellar	17469
050	17465
Ġ106	17463
tle	17461
Ġputs	17458
obs	17457
dar	17455
oked	17454
Col	17451
pf	17447
amb	17447
Ġsouthern	17444
Ġliked	17443
ĠEastern	17442
Integer	17436
REG	17434
Ġfinger	17433
Ġknee	17431
Ġcholesterol	17428
Ġblow	17428
SG	17426
ĠMethods	17422
Collection	17419
ĠÂĹ	17418
*~*	17415
Ġsand	17405
Ġfibers	17403
ĠStudy	17402
ĠEs	17398
Ġ<!--	17398
Ġduties	17394
Ġbet	17394
Ġprinted	17393
Ġ105	17387
hed	17384
Ġsystemic	17382
131	17381
OA	17379
uce	17374
angle	17364
ĠWin	17363
ĠDue	17363
border	17362
Ġprominent	17361
Ġarise	17361
Ãª	17358
dings	17357
Ġlabeled	17357
Ġag	17356
Ġrating	17354
random	17349
lish	17349
Ġcooling	17348
instance	17347
ologists	17346
ĠALL	17345
Ġtranscript	17343
rea	17341
ĠJim	17338
ained	17337
Ġpropose	17336
Ġauthorized	17336
Ġaffirm	17335
dan	17332
ku	17329
-,	17324
High	17319
Ġactor	17317
Ġexpressing	17312
Windows	17306
Ġtone	17305
Ġinfluenced	17305
ĠMP	17303
sal	17302
him	17302
EO	17302
Ġ1987	17302
ĊĊĠĠĠĠĠĠĠĠĠ	17302
Ġillustrated	17301
NR	17300
req	17297
ĠWARRANTIES	17297
Ġassociations	17296
ĠMap	17295
ĠAu	17295
hem	17294
Ġnorthern	17294
.).	17289
Ġrad	17285
JS	17284
Ġent	17282
Ġcourses	17280
013	17279
Ġta	17277
ITY	17276
Ġgained	17275
category	17274
Ġprinting	17271
ĠRep	17265
Ġexciting	17263
colon	17261
kind	17259
ĠRu	17257
1995	17251
Ġraising	17249
čĊčĊĠĠĠ	17244
Ġpending	17243
bes	17241
BF	17238
ean	17237
Ġattitude	17234
yne	17232
144	17231
enting	17230
Ġdiscrete	17230
yer	17225
Ġwheel	17225
nos	17223
hen	17215
Ġjail	17214
Ġloans	17212
Ġconnecting	17212
Ġsuicide	17209
Ġvalidity	17204
plugin	17203
ĠPort	17203
Ġinspired	17202
ĠCall	17200
sg	17199
ĠMiss	17199
Ge	17198
Bo	17196
133	17196
bn	17193
United	17192
ĠSM	17191
KA	17187
erate	17186
.:	17184
perp	17175
129	17174
Ġje	17173
Ġstupid	17169
ulate	17168
profile	17168
Ġpy	17168
ĠHu	17168
OUT	17164
Ġgalaxy	17164
ĠChildren	17159
ĠPath	17155
Ġcry	17152
Ġhopes	17149
ĠImages	17149
Ġsomebody	17145
Ġpitch	17143
Ġdefensive	17143
Ġregistration	17142
hom	17141
450	17139
Ġprosecution	17138
Ġpol	17138
TN	17137
Ġignored	17137
Ġphenotype	17136
Ġdiffusion	17127
Ġcontacts	17126
ĠPacific	17125
|-	17121
¹	17120
aux	17120
Ġawesome	17120
etic	17117
ĠMod	17114
Ġresonance	17109
[$	17106
because	17105
_,	17102
arb	17100
Ġcont	17099
nit	17097
Ġisolation	17096
136	17094
atives	17091
\[[@	17091
ĠThird	17090
Ġtu	17087
ald	17085
Ġdenotes	17085
Ġtensor	17082
iser	17079
ido	17077
aver	17075
Ap	17073
Ġguest	17068
Ġcardiovascular	17068
Ġ["	17068
ĠCL	17066
Ġpreventing	17061
Ġphosphorylation	17059
ĠJa	17057
Ġcoli	17056
owed	17049
ĠWithout	17046
Ġequilibrium	17042
sort	17039
Ġhtml	17036
ĠAgency	17036
yan	17032
Ġtransmitted	17032
Sa	17031
Ġmacro	17028
tv	17027
licenses	17027
ĠRob	17024
Make	17023
Ġliterally	17022
ĠTH	17022
Ġwound	17020
Product	17019
wp	17013
ĠZealand	17013
delete	17011
para	17008
pn	17005
pine	17003
Ġexcessive	17003
ĠAgreement	17002
Reader	16999
resource	16998
Ġprospective	16993
Ġtemp	16992
Ġdestroy	16991
Ġtension	16989
Ġpounds	16988
Ġembodiment	16988
Ġeliminate	16988
forall	16984
Ġinvariant	16984
Ġ(%)	16979
ĠÂ¶	16975
Ġfactory	16975
mask	16968
sson	16966
Ġdish	16962
Ġedit	16961
AU	16960
Ġswitching	16960
GB	16959
oplus	16954
Ġgenuine	16954
ĠLog	16954
inder	16953
Ġpublicly	16950
030	16945
Ġgravity	16944
Ġalt	16937
Ġovernight	16936
Convert	16934
good	16933
Ġdysfunction	16922
javascript	16921
being	16919
Param	16919
Ġpi	16916
Ġelectricity	16916
uation	16910
bert	16910
Each	16910
Ġjet	16909
Ġregulated	16908
(){	16907
Ġworried	16907
ANT	16906
ager	16905
\{\	16902
Ġtonight	16902
Ġphysically	16902
Ġobesity	16902
Ġfe	16899
orb	16897
Ġamendment	16892
)</	16891
ĠDid	16889
Ġcombine	16888
Ġdifficulties	16885
ART	16884
Ġ103	16882
Ġinc	16881
Ġdestruction	16873
Ġdelayed	16873
install	16872
Ġboxes	16872
Ġspecificity	16871
Ġattractive	16871
aco	16868
ĠAnderson	16866
Ġdenial	16860
Ġpolar	16857
Ġassumptions	16857
temp	16856
_>	16856
Ġstorm	16851
Ġepisodes	16850
tex	16848
oss	16848
ĠBC	16848
wards	16846
Rect	16845
Ġlift	16844
Ġforest	16843
cz	16839
Ġins	16838
Ġblame	16837
Params	16833
Ġfounded	16828
Ġpoverty	16827
Ġevident	16826
Ġarg	16822
ipped	16819
Has	16819
205	16818
omic	16815
Ġmed	16814
ĠConsequently	16812
ĠGames	16808
pres	16807
Ġsearching	16807
Ġgod	16805
Ġattributed	16803
\#	16798
Ġicon	16792
ĠPan	16787
ple	16780
Ġhardly	16779
Ãł	16778
Ġwireless	16778
Record	16774
roid	16772
cross	16771
pur	16769
mut	16769
energy	16765
Ġdisplays	16764
Show	16763
ĠBitcoin	16758
Ġblocked	16748
ĠHave	16748
Ġabortion	16742
ifies	16737
Gr	16733
Ġweird	16730
Ġcoast	16730
ĠIowa	16726
Ġhits	16724
čĊĠĠ	16722
Ġfoo	16721
ĠWITH	16715
ĠMor	16715
grid	16714
Case	16713
Ġflags	16713
ĠPerhaps	16707
-$	16705
;">	16704
TER	16703
PB	16701
ĠGar	16701
204	16699
nel	16698
Ġcompatible	16698
Ġbeliefs	16695
Ġadjust	16694
rus	16691
}$$\	16680
Her	16678
Ġmagic	16677
Ġoven	16672
Ġpace	16670
oning	16668
++;	16668
Ġpermissions	16667
take	16664
ĠÐ²	16660
Ġtract	16657
Ġpartnership	16655
Ġdad	16655
aba	16653
041	16653
Ġ130	16649
omer	16644
Ġenables	16643
Ġvisits	16640
RG	16639
Ġobtaining	16638
Ġaffecting	16635
Ġ1985	16635
ĠPI	16633
ĠTown	16631
Abstract	16630
iders	16628
Ġinverse	16627
also	16625
512	16625
Ġguns	16625
erable	16623
Ġgenerator	16622
Ġdefend	16620
Ġgotten	16613
Maybe	16611
ju	16608
ĠPres	16608
mas	16607
aine	16604
Ġ{@	16604
Values	16590
Additional	16590
Ð½	16584
Ġdifferently	16583
oj	16582
ICE	16581
modules	16580
Ġtill	16579
zen	16576
$^{-	16573
utter	16571
ĠSpecifically	16571
]}	16569
Ġtradition	16568
Ġweights	16565
Ġdescribing	16562
human	16561
iam	16559
forms	16558
Ġbehaviors	16558
idx	16553
Ġreflects	16547
Red	16545
Ġacknowledge	16543
python	16541
ĊĊĠĠĠĠĠĠĠĠ	16541
BT	16537
Ġtrends	16537
Ġfits	16537
eva	16536
Ġms	16534
ait	16529
ented	16528
Items	16528
enable	16525
ĠGal	16524
Ġfunctionality	16522
Ġdemocracy	16522
ĠHead	16522
ĠDM	16522
Ġasks	16521
court	16518
Ġbearing	16514
Ġbatch	16513
Ġfilling	16512
uo	16510
Ġdesignated	16510
dest	16509
Ġdeals	16509
rog	16508
mission	16508
}}}$	16507
Ġcommands	16505
Ġcallback	16501
tol	16492
Ġunderwent	16491
ĠTi	16491
apping	16488
ĠMinistry	16485
ĠAdditional	16485
Ġmaximal	16484
Ġclinic	16484
erb	16482
dling	16480
Ġpredictions	16479
Ġpolynomial	16479
Ġinvestigations	16478
Ġequality	16472
Ġselective	16471
Ġdoc	16471
Ġagenda	16470
Ġinterviews	16469
lic	16464
anna	16461
ONE	16460
Ã©e	16458
UM	16456
ĠVa	16445
NER	16444
ĠJordan	16442
made	16439
ĠRather	16436
)}{\	16435
plot	16434
party	16434
auth	16433
Ġune	16433
Today	16424
posed	16421
Ra	16421
Ġshoes	16421
Ġtexture	16420
xf	16416
ĠArray	16416
vc	16412
Ġbreaks	16411
edly	16408
Ġcert	16408
Grid	16406
Ġxe	16404
Ġprogramme	16404
Ġprogressive	16403
Operation	16398
Ġsegments	16392
ĠFalse	16389
ables	16387
Ġpython	16386
imm	16380
213	16380
rent	16375
Ġlistening	16373
itude	16370
'>	16370
ĠCy	16365
Ġweekly	16360
hal	16358
Ġfitness	16357
Ġgear	16356
hd	16353
Free	16351
018	16349
ĠLow	16348
Ġpm	16345
ĠBase	16344
1994	16340
Ġdetector	16336
ĠBell	16336
Ġfarmers	16335
Ġcombat	16330
oul	16326
âĢ¯	16325
Ø	16324
Ġconspiracy	16324
Ġav	16323
vid	16321
Ġxmlns	16321
iana	16320
abe	16320
iant	16318
ven	16314
ĠTitle	16314
Ġconsciousness	16309
Ġfocusing	16307
ĠDesign	16306
Ġmat	16302
Ġhypertension	16302
while	16301
here	16301
122	16300
chy	16299
Ġboundaries	16299
ogram	16297
Ġsynthetic	16297
Ġinserted	16297
ign	16291
Ġretain	16290
ĠComp	16287
van	16278
ĠVi	16275
Handle	16273
plan	16271
Ġintellectual	16271
Ġattempting	16268
translation	16267
ĠWal	16267
alm	16266
RU	16266
lands	16265
ĠSciences	16264
ĠStill	16263
rig	16262
Ġscr	16260
Ã§	16252
Ġvariant	16252
ĠHan	16252
pal	16248
ĠčĊ	16247
Ġangry	16246
Ġvertices	16244
Ġinsight	16244
tur	16243
BM	16241
erson	16239
pping	16233
1993	16231
Ġfavorable	16229
derived	16226
mil	16223
Ġfore	16223
ĠMel	16219
.\[[@	16218
Ġcomputers	16218
Ġindices	16214
exec	16212
Ġadapted	16207
Ġconfident	16203
---------------	16200
Ġ1984	16197
946	16196
Ġrendered	16196
your	16195
Ġva	16194
Ġintracellular	16192
ĠEC	16192
Ġregulate	16190
ĠRec	16190
Ġphysicians	16188
Ġ125	16183
Ġapps	16182
Ġvaried	16180
gent	16179
Ġkick	16175
Ġfitting	16175
ĠChar	16175
Su	16172
ĠSanta	16172
)_{	16171
Ġchocolate	16163
017	16162
Ġfatty	16162
otes	16159
ady	16158
Ġ***	16157
rk	16155
eV	16155
Ġcombinations	16153
ĠMad	16153
Ġaims	16152
Ġ108	16152
Ġdeeper	16151
register	16150
Ġconvenient	16149
tg	16146
Child	16146
chain	16145
release	16144
Ġterrible	16143
Ġedition	16143
ĠGreek	16143
Ġreflection	16141
own	16139
ĠFord	16138
ĠSpirit	16134
ĠSU	16131
Ġsettled	16129
Ġburn	16129
ston	16127
Ġadapt	16124
tn	16123
Var	16118
Ġfunded	16117
vt	16115
Ġfragment	16115
igo	16114
ĠBrazil	16112
Ġnegligence	16110
ĠOp	16110
ĠCount	16106
ĠĊĠĠĠĠĠ	16106
../../../	16105
Ġrestaurants	16104
round	16103
Ġ$.	16103
ĠGC	16101
Despite	16100
ĠVal	16099
Ġintense	16098
Ġpeaks	16094
$).	16093
Ġrail	16093
âĢ²-	16090
Ġdates	16090
Ġsuspension	16089
Ġdefect	16088
ĠAss	16086
Ġmatched	16085
Ġlimiting	16084
ĠAward	16081
password	16080
acking	16078
Ġretirement	16076
Ġdisclosure	16076
ĠColumbia	16075
()->	16074
""	16074
Callback	16072
Ġcollapse	16072
×	16071
Ġjuice	16070
023	16066
Ġquantities	16065
Ġepithelial	16065
040	16062
)}(	16062
?)	16060
Ġmagazine	16060
Second	16055
eat	16054
_{-	16054
155	16054
LF	16048
Process	16047
aking	16044
203	16044
Ġscoring	16043
Ġtransparent	16038
pg	16034
ĠCPU	16034
İ	16030
Host	16030
Ġconsensus	16028
Ġlit	16026
ached	16025
Ġink	16022
simeq	16019
nil	16018
seq	16011
Ġbreakfast	16011
itor	16006
nutrients	16002
ĠES	15998
ples	15997
Ġchoosing	15997
kins	15992
Ġslight	15992
Ġsauce	15992
Bytes	15990
Ġmortgage	15989
ello	15988
icks	15986
Ġvulnerable	15985
Ġfingers	15985
Ġscaling	15981
Ġsatisfying	15980
Ġlawsuit	15979
hh	15976
Ġmanually	15974
Ġchains	15970
Ġpreferably	15967
rons	15966
Ġdamaged	15965
Ġcoal	15965
HP	15962
Ġdans	15961
TEST	15960
Ġdollar	15960
four	15958
Ġretail	15951
aki	15948
Ġstrictly	15942
orp	15940
Ġrepresentations	15939
terminal	15938
hol	15938
Ġlikes	15938
Na	15936
Ġquote	15936
ĠAuto	15933
pper	15928
Ġphysiological	15927
Ġholiday	15925
è¯	15924
ĠLittle	15921
143	15920
Ġcor	15918
eli	15916
Ġsir	15915
Ġdeveloper	15913
ĠProfessor	15911
Ġsupplies	15910
Ġbelong	15909
ĠAccess	15909
*\	15904
Ġlateral	15904
ĠCommonwealth	15903
Ġwondering	15902
ĠÑģ	15899
ĠGO	15899
é	15898
iso	15898
amer	15897
Ġ+\	15896
ente	15893
grade	15890
bibr	15890
1990	15890
ĠHy	15888
than	15884
WS	15884
Ġshots	15880
GM	15879
165	15878
Ġ"#	15878
ĠPBS	15877
Ġisolates	15875
thread	15872
bind	15870
Ġtolerance	15870
ĠPlace	15870
ĠFair	15870
Ġbounds	15869
211	15867
ĠAnt	15867
margin	15866
âĢĻ.	15865
Ġtrauma	15865
,[	15862
rah	15861
mr	15858
320	15855
Ġconstitution	15851
utils	15847
items	15846
Ġhum	15846
ĠHD	15846
ben	15844
ight	15843
Ġpushing	15842
Panel	15839
SY	15837
Ġaggressive	15837
people	15830
ota	15830
Ġvisitors	15828
Ġ\|	15828
Ġions	15825
Ġentities	15825
risk	15824
atter	15824
tim	15823
regulated	15821
rw	15812
Ġassistant	15812
ĠParliament	15809
Ġtied	15808
Ġobjection	15804
ĠBook	15804
ired	15803
ĠMinnesota	15803
ĠSir	15802
Ġdy	15801
Ġbills	15800
Ġviruses	15797
CODE	15794
.",	15793
Ġpeer	15791
Ġlogical	15789
names	15786
NULL	15785
nom	15780
IVE	15779
icate	15778
Ġdeposition	15777
Ġresidual	15771
ĠPL	15766
SV	15764
ĠSoviet	15761
selected	15760
NF	15756
Ġba	15754
Â³	15751
Ġ"<	15751
Ġstretch	15747
aus	15746
Ġcomm	15744
IST	15741
uma	15737
ĠBible	15737
roll	15736
Li	15733
ĠHarris	15731
Ġve	15724
tain	15722
ended	15722
eding	15721
ĠProperty	15719
sign	15714
Ġnucleus	15714
Ġemerging	15713
ãĤĴ	15712
Ġreferring	15711
ree	15710
Ġequipped	15710
Ġjournal	15708
lower	15707
Helper	15706
nic	15704
hers	15699
ĠTurkey	15697
Ġinquiry	15694
Ġprosecutor	15693
ĠGaussian	15691
doi	15688
134	15684
,_	15684
Ġpocket	15679
Ġcertificate	15675
ĠFA	15675
ĠArticle	15671
################	15668
ĠAssembly	15667
Chapter	15666
Ġcavity	15666
~*	15665
atching	15663
Ġdeficiency	15661
Enabled	15659
Rule	15658
ading	15656
vel	15655
uro	15652
æĺ¯	15651
Ġterritory	15650
Ġsensors	15650
Ġtoxicity	15647
fish	15640
ĠPHP	15640
Ġdeny	15639
Ġplatforms	15637
ĠCambridge	15637
lder	15636
Ġacc	15635
ington	15633
Ġinvited	15629
widget	15627
Ġvessels	15623
mate	15620
Ġbirths	15620
Ġpromised	15618
eless	15617
train	15616
Json	15615
}}^{\	15613
role	15612
Ġframes	15612
views	15611
rates	15611
dw	15608
berry	15608
MAN	15605
)^{\	15605
Ġextending	15605
Ġmuscles	15604
Ġtired	15603
Ġsaving	15602
Ġdefining	15602
\|_{	15597
Ġhealing	15596
Ġodds	15595
mag	15593
Ñĭ	15592
Ġparticipated	15590
Ġmodeling	15589
norm	15588
Ġagreements	15588
Ġmock	15587
Ġdem	15586
Ġrent	15585
Ġpipeline	15585
Ġhighlight	15581
ĠUnless	15576
mel	15575
itive	15575
Ġdance	15575
SON	15573
pat	15572
ĠCoast	15572
Ġobligation	15564
Ġbaseball	15563
Adapter	15562
ĠHamiltonian	15562
Ġrid	15561
Ġstomach	15559
ĠYeah	15554
~\	15551
))/(	15550
Ġinjected	15548
Ġml	15547
Ġaccurately	15543
linux	15538
Ġestimation	15538
ILL	15537
Ġbehavioral	15534
inch	15533
Ġencounter	15531
rule	15530
Return	15527
Ġpreserve	15525
Ġnobody	15525
Ġsuspected	15520
ãģ«	15514
Ġinflation	15514
ãģĦ	15513
Ġinvalid	15513
encing	15512
Ġestablishment	15512
ĠIndiana	15511
ĠMajor	15505
Ġregarded	15503
Ġ|\	15502
ĠAlex	15502
Ġ140	15501
)\,	15500
Ġnavigation	15500
Ð	15498
kit	15498
elt	15498
once	15497
Ġimpressive	15491
Ġcortex	15491
Ġwedding	15490
ĠAfghanistan	15490
Ġphrase	15488
CONFIG	15487
Ġlease	15486
ander	15482
Ġdeemed	15481
ĠFar	15481
Custom	15478
Ġtech	15476
Ġplugin	15475
Ġarrive	15475
Ġsuspended	15473
ĠAndrew	15470
138	15468
}}}_	15465
175	15464
216	15463
nut	15462
keys	15457
degree	15457
Rec	15456
abi	15455
Ġtalent	15455
Ġresistant	15454
bx	15453
Ġoxidative	15452
Ġstayed	15451
Option	15449
Ġreliability	15444
century	15442
ĠKorean	15439
<<	15437
HO	15435
ĠToronto	15435
Ġarising	15434
Ġpromoting	15433
lee	15432
ĠQueen	15430
ulated	15429
Ġhy	15429
live	15428
ĠSH	15424
Ġexpense	15423
Ġindication	15418
ĠAdam	15417
Ġcomparisons	15416
~)	15415
Ġelectrons	15415
Ġpossess	15409
Ġearn	15409
Ġmicroscopy	15408
wt	15406
Ġhang	15406
Ġgenomic	15406
direct	15405
Ġcontest	15403
Ġwa	15402
141	15401
Ġendothelial	15401
chan	15400
Ġelderly	15400
)^{-	15399
Changed	15397
Ġresident	15396
Ġadjustment	15395
eline	15391
ĠLewis	15390
oll	15389
via	15385
ĠLibrary	15385
bigg	15384
ece	15378
Ġartificial	15378
Ġenergies	15375
ĠBan	15374
Ġpersonality	15370
nam	15367
Ġposterior	15365
[*	15364
General	15364
ĠDaily	15364
Ġdemonstrates	15363
))/	15361
ĠAnti	15361
ĠInf	15359
ĠNF	15358
Ġlifestyle	15357
Ġbranches	15356
230	15355
Ġassign	15355
ĠSl	15354
ĠRA	15353
ships	15344
ĠHi	15343
Î¼	15342
Ġspots	15342
through	15339
225	15339
Ġexisted	15337
kh	15333
Ġdistances	15333
Ġthreats	15331
Ġparagraph	15331
IES	15330
Init	15327
Ġum	15327
Ġinputs	15326
Ġdefinitions	15324
Ġsuppression	15322
Ġengagement	15320
ĠBer	15320
ĠHouston	15319
ĠWa	15314
.[]{	15313
Ġhydro	15313
Ġinhibited	15311
sun	15308
Ġvariability	15305
Ġpointing	15300
Ġvisiting	15298
Active	15296
Ġdocumented	15295
ĠSupport	15294
ĠRadio	15292
Ġ1981	15291
acks	15289
ĠSystems	15288
Ġmeaningful	15286
itting	15285
ĠBal	15284
00000000	15282
alling	15280
ĠOs	15280
hood	15277
sic	15275
Ġtends	15274
$_{	15271
ĠDA	15269
sized	15268
Discussion	15268
ĠDefense	15268
Ġsol	15267
Ġranges	15263
Eq	15262
Ġhandler	15262
LU	15260
Ġwarranty	15259
eda	15257
yu	15256
Ġlibraries	15255
Ġ---------------	15255
sv	15254
Ġrescue	15249
ĠRegister	15248
Ġreply	15247
1992	15244
ĠPlay	15242
Gs	15240
Ġminority	15240
Ġbroadcast	15237
ĠRound	15236
super	15235
Ġrough	15232
Ġclosure	15228
Ġpunishment	15227
custom	15223
Ġyeast	15220
spi	15218
*=	15215
Ġcomplaints	15215
Ġcapabilities	15215
Ġ&=&	15215
Ġheaded	15213
Ġdistinguish	15212
otype	15210
Ġawait	15210
asts	15207
uit	15202
olt	15202
Cal	15200
Ġrevolution	15200
ĠMoore	15196
hel	15193
Ġgray	15193
Root	15190
move	15189
Ġuptake	15189
plus	15186
Ġmess	15185
License	15184
ERR	15182
'],	15182
edit	15180
Ġthirty	15175
Ġalongside	15174
Ġnose	15171
mM	15168
Ġdefeat	15168
hist	15166
iga	15162
spin	15158
yd	15155
Ġemerged	15155
OG	15154
Ġpu	15152
ĠSports	15150
shire	15149
Ġsurprising	15146
Ġstrip	15145
Ġdenying	15145
Ġsuggestions	15142
ĠmL	15142
ĠTax	15142
Ġsatisfaction	15141
Ġpotent	15141
opes	15140
ĠSaudi	15140
PN	15138
Ġfinance	15137
watch	15136
Ġfake	15135
ĠGene	15133
Mod	15130
roc	15128
1991	15127
VR	15124
hole	15122
ĠEgypt	15122
ĠNC	15121
Ð²	15119
World	15119
Exp	15118
aste	15117
153	15117
ĠInterestingly	15114
ĠNode	15112
anes	15110
alis	15109
2020	15104
olds	15103
bat	15103
$^{	15103
bur	15098
Ġdental	15098
INE	15097
Ġri	15097
dk	15096
come	15096
LV	15095
Ġpassion	15090
Ġgut	15090
Ġ1960	15089
ĠRun	15086
ubs	15085
oned	15085
UE	15085
Ġhyp	15085
iti	15082
0010	15082
Ġfaculty	15082
Ġpreparing	15079
iq	15077
anger	15076
esting	15074
bits	15073
221	15071
*\<	15069
Ġspec	15069
ĠHz	15069
ried	15068
Ġinduces	15067
./	15060
Ġarc	15059
apped	15057
OE	15054
eqn	15053
Take	15052
022	15052
Ġdense	15051
oted	15049
yard	15045
umb	15044
VM	15042
Ġwinner	15042
shell	15038
Ġtransformed	15038
NU	15037
152	15034
Mi	15032
Ġ111	15032
Ġheading	15029
conv	15026
Ġvirtually	15024
mont	15021
Ġbasketball	15020
Ġhosts	15018
aching	15016
Identifier	15016
isc	15014
Auto	15011
ault	15009
bie	15007
MENT	15007
LES	15006
ĠInd	15003
Ġnitrogen	14999
ĠNations	14999
rying	14998
sq	14997
Ġbases	14995
\;	14990
Properties	14989
*(-	14987
Ġtrail	14984
137	14982
SQL	14980
Ġultra	14980
Ġparticipant	14979
Ġwelfare	14977
Ġclaiming	14977
Ġconfusion	14972
Based	14971
Ġ'\	14969
ĠMAP	14967
Ġasset	14966
fall	14962
)\\	14962
aping	14961
ĠLC	14961
Ġconstraint	14958
à®	14957
Ġreceives	14955
Ġblocking	14953
nation	14952
btn	14952
Ġuna	14952
chr	14951
Ġ160	14951
Ġrespondents	14949
ĠRoman	14949
Ġtran	14947
forming	14944
Ġcoronary	14944
},$$	14939
Ġprobable	14939
lad	14931
Ġlocked	14930
overs	14928
itter	14928
edo	14927
Ġlongitudinal	14926
ocytes	14924
Ġfrozen	14924
Ġgen	14922
illy	14921
alls	14921
Ġslide	14912
emi	14910
Ġopt	14904
0000000000000000	14899
Ha	14897
Full	14897
Ġcommunicate	14889
Ġchances	14889
Ġaffirmed	14889
tron	14888
ety	14882
Ġprotocols	14882
145	14877
tb	14876
Ġoptimization	14875
;"	14866
Ġconstants	14862
Load	14858
Ġ112	14858
models	14857
Ġmath	14856
DN	14854
ĠÎĶ	14852
ĠSilver	14850
ĠCommissioner	14849
190	14848
Ġwavelength	14847
Ġ''	14846
Ġgross	14845
Ġsubgroup	14844
Ġcultured	14843
ĠEX	14843
Ġnonlinear	14842
Ġorange	14838
stable	14836
162	14834
Ġshortly	14834
tran	14833
ifdef	14833
Photo	14831
Ġparams	14829
settings	14828
Ġpleasure	14828
Ġanger	14826
uts	14824
Ġappreciated	14824
Ġfiscal	14821
lation	14820
Ġsudden	14820
Ġdetermines	14819
Ġtimely	14817
Ġ255	14809
Ġdonor	14808
Ġjustify	14806
Ġdistinction	14806
ports	14805
LOG	14800
Ġsolved	14797
Ġhall	14797
Ġappointment	14796
148	14795
pop	14792
emo	14790
Ġwage	14789
izable	14784
999	14784
Ġsilicon	14782
Definition	14780
Ġmembership	14779
Ġbleeding	14776
Ġcookies	14769
bury	14768
206	14768
Ġefficiently	14767
Ġflour	14766
bra	14765
Both	14765
gathered	14764
Ġmutants	14764
ĠTHAT	14764
raf	14763
Ġlocalization	14760
fy	14759
Ġgovernor	14759
142	14758
Ġexclusion	14758
Ġthrown	14757
Ġcriticism	14756
Ġsecured	14755
Ñı	14747
ÃĲÂµ	14743
Ġtags	14739
Ġreputation	14731
Ġthreatened	14730
Ġreward	14728
hbar	14726
WA	14726
Ġboot	14726
750	14725
Ġfold	14725
MG	14724
Ġmemories	14719
Ġiso	14719
Ġcustody	14719
cking	14718
Dec	14712
Ġticket	14709
bytes	14708
Ġstimulus	14708
town	14703
usion	14702
Mc	14697
Ġsilent	14697
ĠChild	14697
Ġstriking	14696
Ġcord	14696
Ä±	14693
Ġhip	14691
Ġreplication	14690
hn	14689
QU	14689
Ġoptional	14688
Cont	14686
016	14681
DG	14680
Ġanybody	14680
Ġnp	14675
inos	14673
aid	14672
Ġcancers	14672
kk	14666
ĠIFN	14665
EQ	14663
-.	14663
Ġprejudice	14660
Ġcircuits	14660
Ġinstruments	14659
Â¤	14658
Every	14656
Ġtra	14656
Ġmic	14654
ĠOff	14654
FO	14652
Ġflying	14651
wiki	14646
ctors	14645
ĠRos	14645
hon	14644
anted	14644
360	14644
Ġtort	14638
Thus	14636
ĠInsurance	14634
Ġ1982	14628
Ġ107	14627
156	14625
Ġliable	14625
Ġtherm	14624
Ġchallenged	14623
rÃ©	14620
Ġsuppress	14617
aches	14616
Ġtraits	14616
bh	14614
exe	14611
ĠChristians	14606
acked	14605
VERSION	14604
Ġconserved	14603
Ġmature	14600
oop	14599
ĠStephen	14599
Ġeveryday	14598
erg	14597
Ġtries	14597
Ġtracks	14597
Parameters	14596
Ġxml	14594
Ñĩ	14593
idi	14593
ĠSpring	14592
Ġfactual	14590
Ġdecimal	14590
Ø±	14587
âĢĿ)	14584
\!\	14584
atively	14583
Ġpad	14583
Ġacted	14582
Ġinches	14577
Ġ![	14577
Ġhistoric	14576
gene	14575
atable	14572
Ġcalm	14571
Ġbelongs	14567
mus	14566
Ġdried	14566
Ġvegetables	14565
unch	14563
ival	14563
uity	14562
Ġ800	14561
ÃĲÂµÃĲ	14560
attribute	14560
Ġqueue	14560
ĠIgG	14560
standard	14555
Ġstained	14554
dale	14552
aq	14548
cv	14546
Ġmsg	14544
three	14543
ĠWisconsin	14541
ÃĦ	14538
Â§	14536
Round	14535
Ġlitigation	14534
Ġsatellite	14533
Ġresidential	14533
News	14531
Ġmining	14530
plain	14527
139	14526
rator	14521
erry	14519
ĠStr	14518
sts	14515
ĠAB	14514
inflammatory	14511
Ġgraphs	14511
bers	14508
Ġfilters	14506
ĠÎ¼g	14505
Ġexclusively	14504
esh	14503
Mark	14503
shaped	14502
Ġseats	14501
iler	14500
ĠFeb	14500
Media	14498
Ġflows	14497
ĠXML	14497
Ġgradually	14496
Ġwins	14494
oil	14492
Ġbedroom	14490
fast	14488
Ġprevented	14488
ectomy	14486
PATH	14483
ĠâĤ¬	14482
ĠdÃ©	14479
181	14476
Ġsentenced	14475
Ġimpairment	14472
Ġbath	14467
ĠReturns	14467
Ġ",	14467
Bi	14465
Ġsal	14464
Ġflowers	14460
inte	14458
Ġwidespread	14456
Ġestablishing	14455
Ġsimilarity	14454
Ġrespondent	14453
Ġgeneralized	14453
Ġconvergence	14453
awn	14450
Ġconfused	14449
Ġlady	14445
Ġactors	14444
Ġtrick	14443
Ġmothers	14443
171	14442
ĠArab	14442
Ġmaternal	14441
ader	14437
Ġtall	14435
filename	14433
POST	14432
Ġstating	14432
ories	14430
schema	14422
deg	14422
GP	14418
ache	14412
Ġroads	14410
Ġindependence	14408
ĠLie	14408
Ġminds	14407
figure	14406
Ġknife	14404
146	14402
zip	14401
Ġreplied	14401
Ġcorn	14401
iological	14399
Ġdescending	14398
Ġjoining	14397
neg	14395
nable	14389
Ġbarely	14389
MEM	14388
Ġnotation	14386
Ġ).	14386
ests	14383
'-	14383
-->	14381
ĠMarket	14377
nx	14375
157	14374
Ġseeks	14371
ayed	14368
Close	14367
Ġsymbols	14366
ift	14365
AGE	14363
Ġscenes	14361
Ġpolarization	14361
ĠMC	14360
Ġmethylation	14359
ĠKelly	14359
Ġmotions	14358
mass	14357
Async	14357
ĠSometimes	14357
arts	14356
Ġguests	14356
}$)	14354
illi	14353
ika	14352
)+\	14349
pgen	14348
DER	14348
Ġanterior	14348
eron	14345
Ġviewing	14344
Ġsalary	14342
Author	14341
dit	14338
Ġpreference	14337
VD	14335
Ġquestionnaire	14335
video	14333
lli	14331
jar	14329
Ġprocessor	14328
âĢ	14326
ĠDist	14326
Share	14325
Ġcomputation	14325
185	14324
Ġ115	14324
Ġcompression	14323
Ġenhancement	14318
Ġcapability	14317
Space	14316
Ġreact	14314
ĠKansas	14314
speed	14309
"};	14306
Ġprescribed	14306
Ġincredible	14303
cot	14301
ocks	14300
051	14298
Ġairport	14297
Ġemploy	14291
ĠHoly	14290
Ġcyt	14288
Ġmood	14284
|{\	14282
pub	14278
Ġrape	14277
Ba	14276
Ġdating	14273
Ġmanaging	14267
actions	14266
ION	14266
Ġattorneys	14266
Ġacceptance	14262
Ġmal	14261
Ġcrack	14261
SCs	14253
Ġorbit	14251
Ġham	14251
Ġbriefly	14251
ĠScale	14251
aving	14249
Ġrestore	14247
ĠStart	14246
ĠRay	14246
à¥į	14245
pet	14245
idity	14245
PK	14245
Widget	14244
Day	14238
eness	14236
Ġgrain	14236
ĠDef	14235
ÂłÂł	14234
Us	14234
aire	14232
Ġatomic	14230
Ġoste	14229
sters	14228
craft	14228
Ġlegitimate	14228
Ġattachment	14225
disc	14220
XF	14220
Ġcocaine	14220
ĠMassachusetts	14218
edi	14215
Ġacknowledged	14214
:</	14213
aton	14212
east	14211
Ġviolations	14211
ĠShould	14210
hing	14208
Ġemissions	14205
erk	14203
215	14203
_+	14201
Ġgu	14201
\)	14198
Ġpeptides	14197
ania	14195
Ð¾Ð²	14194
Ġdramatic	14192
&#	14191
Multi	14188
Ġpartly	14187
Ġfantastic	14185
Ġtrivial	14183
Ġmill	14183
Ġsurely	14181
Ġcontention	14177
}:	14176
toString	14172
Ġoffices	14171
zz	14169
fers	14169
sus	14167
Ġdietary	14167
yg	14165
rone	14164
]=	14162
Icon	14160
Ġprotecting	14158
151	14156
ĠHR	14155
Global	14154
ĠException	14153
}'	14152
Ġparticipating	14150
Ġrandomized	14147
ket	14145
Ġsavings	14144
Ġmoon	14142
[:	14141
Ġinvestigating	14141
Ġintersection	14140
cum	14139
Ġmerit	14138
167	14136
blog	14135
ails	14132
Ġprovince	14132
rg	14131
illed	14128
Ġfelony	14128
Ġlandscape	14127
ĠSon	14126
ĠKi	14126
apa	14124
ĠNature	14124
Ġsigning	14123
ĠCNN	14123
itors	14122
aden	14122
cel	14118
Display	14117
Ġunnecessary	14116
itated	14114
ego	14114
019	14114
rand	14111
176	14110
Ġracial	14110
MY	14105
Ġresin	14104
aked	14097
),$$	14097
square	14094
ĠMethod	14091
Ġmediated	14090
Ġperiodic	14089
History	14088
Ġletting	14087
ĠHam	14082
Ġoccasion	14079
Ġshadow	14078
Ġrepresentatives	14076
sci	14075
Ġ{"	14075
Ġorth	14074
ĠSS	14073
Obj	14070
Ġpsych	14068
tings	14067
share	14064
hor	14062
ĠAllen	14061
ologic	14060
[(	14058
Ġconservation	14058
ĠDes	14057
Fi	14056
Ġproportional	14055
igh	14054
Ġmodifications	14045
Ġadvised	14044
Ġloves	14043
caps	14039
Ġfer	14039
Flags	14038
{$	14033
Ġoutstanding	14031
Ð´	14029
161	14027
âĢĻ,	14024
ĠGR	14024
ĠNatural	14020
048	14018
Ġhero	14018
ĠStation	14017
)-\	14012
Ġmembranes	14012
044	14011
Ġremarkable	14011
Ġlovely	14009
Ġplots	14008
1986	14001
ĠHas	14001
ĠKevin	13999
standing	13998
emp	13991
ĠScotland	13990
sam	13989
ĠMicro	13989
Ġcoating	13988
Ġwarned	13985
Ġsentences	13983
Ġpurified	13982
Ġtherein	13973
HF	13972
Ġemotions	13972
Ġconfigured	13972
Ġbird	13969
Ġelectrodes	13967
ĠFL	13965
Ġimpaired	13964
ĠCHECK	13964
ower	13961
Ġasthma	13961
ril	13960
Ġcooperation	13958
cus	13957
abstract	13955
cle	13953
Ġartist	13953
mir	13951
itr	13950
ĠPrior	13949
Ġlucky	13945
Ġnursing	13940
ĠAssert	13939
Ġactively	13938
Ġconstructor	13937
Ġelect	13936
Ġwing	13935
ãģ	13934
Ġsilence	13934
ĠFunction	13934
Ġdrove	13933
Ġsake	13930
anks	13929
Ġcontroversial	13927
ĠPlus	13927
rees	13922
ÑĮ	13921
lia	13914
ener	13914
wy	13913
ĠUpdate	13904
ĠKu	13903
ĠInclude	13903
047	13902
ĠHTTP	13902
Ġrelate	13900
Ġ119	13900
switch	13898
rank	13898
prefix	13897
Ġ^{	13896
Ġaccomplished	13894
\|\	13893
Ġoverlap	13893
ĠConsider	13890
Ġshipping	13889
iah	13888
Star	13885
ĠFather	13883
astic	13881
wave	13876
===========	13875
033	13872
Ġlaugh	13871
Writer	13870
Ġpixels	13870
ĠFisher	13870
)->	13868
Example	13867
Ġencouraged	13865
ĠJu	13865
ĠUkraine	13862
>;	13861
eme	13858
Ġintestinal	13858
Ġdiscloses	13858
aler	13848
leg	13847
Ġinitiated	13847
ĠCF	13846
Ġinfants	13843
priv	13841
Ġrelies	13840
ĠMulti	13838
Equal	13837
Ġwider	13837
ĠTE	13837
Ġdisaster	13836
Ġarrow	13833
Ġpur	13831
ĠAI	13830
Ġprivilege	13829
asa	13828
ÃĲÂµÃĳ	13824
driver	13820
Ġfranchise	13819
omes	13818
mapsto	13815
Ġradial	13815
Ġcopper	13811
Ġcircles	13811
Ġsecretary	13809
à¤¾	13808
Ġpositively	13808
Ġgenerations	13807
Ġintrinsic	13802
Parent	13801
ige	13800
âĢ¦.	13799
ĠSm	13798
Ġbold	13797
ĠPhil	13797
Ġfunctioning	13789
gged	13788
Ġexplored	13786
KI	13784
ĠSort	13784
displaystyle	13781
_*	13777
ork	13776
!!!	13776
Ġstops	13776
Ġdominated	13774
five	13773
cre	13773
iac	13768
Common	13768
ĠSur	13767
UV	13766
159	13766
Ġsec	13766
Ġrings	13766
Ġimportantly	13760
ĠGOP	13757
:/	13755
metadata	13752
library	13752
Ġcrossing	13752
MAP	13750
println	13749
pmatrix	13744
rell	13741
expression	13740
Ġpermits	13738
174	13737
iri	13736
ĠFo	13736
Ã¡Âº	13732
ĠSix	13731
154	13730
ĊĉĠ	13729
Editor	13728
Ġio	13727
Ġbathroom	13727
LICENSE	13726
207	13725
ĠBMI	13723
VS	13720
Names	13718
yy	13717
Ġattacked	13715
Ġbrothers	13711
rage	13710
Ġreasoning	13710
Ġfirms	13709
ĠBrian	13709
ĠJeff	13707
Ġcorruption	13702
Ġpres	13701
Ġcontinuously	13700
Ġcompete	13698
found	13697
Ġarrival	13697
teen	13696
222	13691
Ġupcoming	13689
Microsoft	13686
gas	13685
mond	13684
iotic	13684
erl	13683
Ġproxy	13683
Ġimpose	13683
tha	13681
Å	13678
Ġflu	13678
YS	13677
Ġdownstream	13677
ĠEr	13677
Ġconflicts	13675
ilo	13674
een	13673
stra	13672
)*-	13672
Layer	13671
ĠMaryland	13668
Ġannouncement	13666
ĠWeek	13666
="../../	13663
icing	13662
Ġconvinced	13661
Ġprofits	13657
uate	13655
asc	13654
tors	13651
ITE	13649
bas	13648
Ġcomputational	13648
ĠATP	13647
icked	13646
Ġ}}	13645
Ġexpertise	13643
Ġreset	13642
Queue	13639
Given	13636
FIG	13632
INFO	13631
Ġblank	13631
ĠAvenue	13631
Ġpursue	13630
Ġcircular	13630
ĠMuseum	13629
LB	13627
AY	13625
thi	13622
Ġdecomposition	13622
052	13620
Ġretained	13619
raction	13618
Ġdatasets	13617
ĠUnit	13617
ĠKong	13616
Ġquoted	13615
ĠExt	13615
amide	13614
264	13613
ĠNavy	13613
ĠGrant	13612
Ġwebsites	13611
Ġfluctuations	13609
209	13607
Ġgains	13607
Ġpat	13606
enberg	13605
Ġproposition	13605
half	13604
PRO	13604
HTML	13597
Ġreject	13596
scan	13594
Ġscanning	13594
Ġgraduate	13594
Ġbags	13594
variant	13593
inity	13593
ĠRose	13592
Ġrelied	13590
Ġfeatured	13589
AMP	13585
Ġethanol	13584
Ġcanonical	13582
Ġseal	13581
ĠCore	13578
ĠSanders	13575
Ġediting	13574
igen	13573
ition	13571
Ġoh	13571
Ġguaranteed	13569
ĠNothing	13569
Ġemphasis	13563
Ġ1979	13563
NOT	13562
ĠPhoto	13562
Methods	13560
ental	13559
FX	13557
223	13555
dos	13554
Ġloud	13554
results	13553
Ġbench	13552
ĠIrish	13552
198	13551
inline	13549
Ġcontemporary	13547
Ġcomply	13545
Video	13543
ĠIM	13541
Ġgathered	13538
rous	13535
ologies	13534
Ġmutual	13534
Ġrecurrence	13532
Ġconsistency	13532
ĠOregon	13532
Ġindicator	13528
Ġstimuli	13526
Mac	13524
Ġchromosome	13522
Ġgrateful	13520
iology	13519
Ġchlor	13519
164	13517
Ġtobacco	13514
NH	13513
rob	13512
ĠLy	13512
031	13508
ĠBBC	13508
Ġinstitutional	13507
ĠHA	13506
ĠGM	13506
208	13504
,,	13501
force	13499
Graph	13498
[-	13497
Ġpublish	13497
Ġconv	13497
Ġaffinity	13494
ista	13493
ANS	13493
ĠCas	13487
idine	13484
ĠClinical	13484
linked	13483
Ġwriters	13483
179	13481
Ġexceed	13481
ĠAng	13481
Ġ123	13480
urt	13478
Ġstrategic	13478
Evaluate	13477
hot	13474
Ġfiring	13471
Ġmacrophages	13470
Ġstudio	13469
Ġreaches	13468
Ġought	13467
ptic	13465
odi	13465
Ġtooth	13461
emic	13460
ĠHaving	13459
ĠKIND	13458
Ġaccounting	13455
Ġchi	13454
ĠNick	13454
Ġresist	13452
195	13451
Ġexpectation	13451
Ġconsisted	13451
utf	13450
024	13450
Ġdrives	13450
Ġburning	13449
bad	13447
Ġclothing	13447
gc	13444
Ġmanifold	13443
Ġlacking	13443
Ġsolvent	13440
would	13437
avi	13437
Ġinhibit	13437
orr	13435
Ġnucle	13434
Ġrs	13433
Ġunexpected	13429
hman	13427
Ġdimensional	13427
ĠFC	13426
312	13425
Ġboss	13423
NG	13420
mental	13418
Stop	13418
Engine	13417
ems	13414
orts	13411
Ġgenerates	13410
420	13409
Ġsanctions	13408
166	13407
Ġstruggling	13407
ĠTen	13405
ĠStat	13404
Parser	13402
Ġstaying	13402
ĠPol	13397
ĠPet	13397
ĠMember	13393
ARD	13392
printf	13390
ãĥ¼	13389
325	13386
ĠArea	13385
Ġslot	13384
224	13381
Ġretired	13378
ĠExecutive	13376
tail	13375
lig	13371
Ġsubstances	13370
Ġmedications	13367
ĠAug	13366
cloud	13364
Ġcarries	13361
score	13360
Ġcorrected	13359
phenyl	13354
ylation	13353
1989	13353
021	13353
FONT	13351
172	13350
Ġwash	13350
Ġcollaboration	13346
ĠMuslims	13346
Ġopens	13345
Ġslope	13340
ĠLabor	13339
ago	13331
Ġsyntax	13329
West	13325
Ġreplacing	13325
enes	13324
UB	13323
ĠHol	13321
icular	13318
ĠHarry	13318
Ġminimize	13316
loss	13313
URE	13313
ĠUbuntu	13311
tet	13310
ĠFull	13307
)));	13306
Ġdrama	13301
Ġcollision	13301
Member	13300
}}}(	13299
Ġfragments	13299
Ġentrance	13297
Ġdot	13296
Ġderive	13295
Ġbre	13288
ĠCook	13288
Ġfu	13287
Ġ114	13286
Ġpredictive	13285
Ġdecent	13285
260	13284
Ġreporters	13283
scriptstyle	13280
mov	13280
ban	13280
ĠĊĠĠĠĠ	13280
uno	13279
containing	13279
sheet	13269
ĠOUT	13267
ĠLeft	13267
Ġterrorist	13265
Ġentropy	13264
ĠBox	13264
izers	13263
Ġethnic	13263
ĠScientific	13263
USE	13259
Ġexceptions	13255
ĠTer	13254
Ġspinal	13253
Ġroutes	13253
Ġprot	13248
WT	13245
028	13245
Ġloose	13244
Ġcontributing	13244
Ġscenarios	13243
Ðº	13240
rap	13239
Hash	13237
)$-	13235
Ġservers	13235
Ġinitiative	13235
Ġentertainment	13235
ĠCe	13235
184	13230
icking	13229
apply	13229
Ġarch	13229
ĊĠĊ	13229
uke	13226
Ġcomplement	13226
ĠTur	13225
Ġgastric	13222
tum	13221
Ġhem	13221
Ġdreams	13220
NB	13219
ĠHillary	13218
ĠChi	13216
oco	13215
iable	13214
ĠLook	13214
may	13213
fed	13212
ĠHollywood	13212
ĠChange	13210
report	13209
meth	13209
Ġimpression	13209
Ġshifts	13208
ĠLatin	13208
pus	13205
ochemical	13202
enz	13200
OU	13197
Ġ1977	13197
}$-	13193
elled	13193
bank	13192
Ġschemes	13192
Ġshaft	13190
303	13189
Ġstraightforward	13188
Ġinhibitory	13185
ì	13184
PORT	13184
Ġtendency	13183
Ġcake	13181
032	13180
Ġhal	13179
ĠCommon	13179
Ġpossibilities	13178
children	13177
RV	13176
Ġabnormal	13176
region	13175
Ġguilt	13175
ashing	13172
Float	13172
ĠMiami	13170
Ġbroader	13169
depth	13168
\}$.	13168
Will	13168
UG	13168
ÂłÂłÂłÂłÂłÂłÂłÂł	13164
163	13163
Ġplacement	13163
Ġlicensed	13163
Ġgrass	13163
olog	13159
Ġpoorly	13159
ells	13158
>"	13157
pending	13156
did	13156
ï¼ļ	13155
oting	13153
structure	13152
ĠTu	13152
ĠHong	13151
ishes	13150
Ġhired	13149
ĠPhiladelphia	13148
Ġallele	13146
Ġpresenting	13145
Ġbegun	13145
transform	13144
Â¡	13143
amin	13143
aris	13142
Ġni	13142
ĠBre	13141
zer	13139
Cu	13138
ĠAlabama	13138
Ġfitted	13136
Ġdetecting	13135
cid	13134
Ġneighbors	13133
fil	13128
$:	13128
esi	13127
254	13124
091	13124
Ġspokesman	13123
Ġlawyers	13123
Ġencountered	13123
nas	13121
gor	13118
>::	13118
iveness	13117
ĠCells	13117
ĠSimilar	13116
ĠOklahoma	13116
Ġplacebo	13115
Ġexc	13114
ĠColor	13112
Ġships	13111
aning	13108
spect	13104
Import	13103
Ġassociate	13103
organ	13101
270	13101
Ġnoting	13101
oured	13096
Ġ$${\	13096
Ġordering	13095
ĠDB	13094
Ġincubation	13090
ĠMid	13087
Ġinv	13086
yers	13085
ande	13085
Ġequity	13085
Ġwanting	13084
Ġanalysed	13084
Ġpersistent	13083
Ġreconstruction	13079
Ġdebtor	13078
ĠMB	13078
DV	13076
Ġindividually	13076
ĠEdward	13075
ibilities	13073
054	13073
hill	13072
Ġmanagers	13072
Ġlesion	13072
Ġsphere	13070
Ġaligned	13070
ground	13069
Ġfishing	13069
very	13065
ights	13065
Ġdiagonal	13065
Ġoccupied	13064
Ġneuronal	13064
ĠWas	13064
$;	13063
got	13061
073	13061
tests	13060
cia	13060
Ġsquad	13060
Ġmeals	13057
same	13056
Platform	13056
rium	13055
ĠWE	13055
bio	13049
Ġ1978	13043
Appellant	13040
035	13040
icated	13038
NL	13038
182	13038
emia	13037
149	13037
Ġstolen	13037
anne	13036
factor	13035
Ġdeb	13035
price	13031
ĠDar	13030
Ġraises	13027
Ġgang	13027
GI	13025
ĠCons	13020
TON	13019
Ġundefined	13016
Ġcitizen	13016
Ġchemicals	13016
Ġbelt	13013
Ga	13012
ÙĨ	13011
Lo	13011
olly	13010
ĠPy	13009
lh	13007
Ġpub	13005
ACK	13002
uch	13001
ĠJavaScript	13001
callback	13000
imate	12998
Âĩ	12996
arin	12995
Ġaffairs	12994
Ġ127	12994
Ġhomogeneous	12992
Ġspecimens	12991
pair	12990
Ġlogin	12990
ĠOverall	12990
ĠDiego	12989
nal	12988
Directory	12986
minute	12984
Ġinspection	12983
Ġcytokines	12981
Ġhoney	12980
gif	12977
properties	12976
NV	12975
Ġdont	12973
Ġsurrounded	12970
Ġbuf	12970
Ġpositioned	12969
ulin	12968
ĠStudent	12967
Ġmile	12966
nc	12964
096	12964
026	12960
Ġlocalized	12960
Ġformulation	12960
MIN	12958
Ġaddressing	12957
Ġpromotion	12954
reset	12951
iques	12951
ĠBureau	12951
Ġupset	12947
inic	12945
293	12944
Ġhandled	12944
READ	12943
âĢ©	12942
Ġtie	12942
ĠSmall	12941
DEBUG	12938
^](#	12937
Ġarises	12937
gan	12934
dem	12934
ĠTask	12934
NM	12933
ont	12928
Ġnegotiations	12928
Ġbirthday	12927
dra	12926
VP	12926
pb	12923
Bu	12922
Ġgrace	12922
Ġexclude	12920
oria	12918
ĠÂ«	12918
springframework	12915
ĠTry	12915
Ġalien	12914
ĠEric	12914
1984	12912
âĶĢâĶĢâĶĢâĶĢ	12911
=====	12910
Ġbeings	12910
ĠLLC	12910
ury	12909
Att	12909
Ġpal	12909
verse	12907
Ste	12907
ÙĬ	12904
053	12897
ĠSeattle	12896
Ġquit	12894
Ġgrants	12890
ĠAF	12890
Effect	12888
Ġurine	12888
Matrix	12887
âĦ¢	12886
199	12885
obi	12883
ĠFive	12881
ashes	12880
ĠTrade	12880
uing	12877
eed	12875
))$	12873
Ġcorporations	12871
iar	12869
Ġtermination	12867
say	12865
Ġsys	12865
Ġverified	12862
inator	12861
'"	12860
ĠCat	12859
iling	12858
ult	12857
Ġstyles	12855
dz	12854
Ġ121	12852
ication	12850
bg	12850
gre	12848
PAR	12847
Delete	12847
ĠRi	12847
Ġhearts	12846
ÙĦ	12844
kn	12843
ĠClark	12842
eted	12841
Ġlets	12841
027	12840
ĠCSS	12839
Ġorgans	12838
ĠReturn	12837
comb	12835
1988	12833
ĠManager	12832
Ġinterpret	12831
ulatory	12828
Ġfin	12826
ĠKit	12826
lac	12825
375	12825
Ġconsiderations	12825
sty	12824
ĠLabour	12824
Ġdispersion	12823
Ġkn	12822
Ġchairman	12822
iller	12820
1985	12820
ĠProcess	12814
shared	12812
Ġrolling	12812
Ġhighlighted	12810
Ġclubs	12807
âĸ	12806
ppat	12806
Super	12805
>();	12805
TK	12802
301	12800
Trump	12796
Ġsheets	12791
Ġcarriers	12791
;}	12789
ĠInvention	12787
ĠFootball	12785
hc	12783
Ġprostate	12782
rays	12780
plane	12779
Ġindictment	12778
ĠFort	12778
parallel	12776
rak	12774
Ġbu	12772
Ġoccasionally	12768
LINE	12765
Ġinsights	12765
fat	12763
Ġsimulated	12760
Empty	12759
oration	12758
_;	12758
Ġimplements	12757
Ġengaging	12756
ĠKar	12756
ĠEM	12755
191	12753
Ġexpanding	12753
_(	12751
Ġsuggestion	12749
Ġbarriers	12746
due	12745
Ġshapes	12745
Ġflexibility	12745
ĠWord	12745
Ġprescription	12743
amm	12742
ĠSyrian	12740
Ġhook	12739
>)	12737
ĠForeign	12737
Ġphoton	12732
Ġenv	12732
ĠPO	12729
Ġapproached	12728
lik	12727
hold	12727
Ġdistricts	12723
ĠBR	12723
Ċĉĉĉĉĉĉĉĉ	12721
Ġbreathing	12718
osome	12717
impl	12717
aters	12715
Ġremarks	12714
Win	12713
lists	12712
Ġrealistic	12712
utes	12708
ĠNE	12708
Ġkg	12707
Ġmonitored	12704
Ġtournament	12703
Ġdrag	12703
rend	12699
Ġneedle	12698
TING	12697
Ġ116	12697
ĠPrice	12695
){\	12691
Ġdishes	12691
FU	12690
Ġinconsistent	12689
ĠÎ¼M	12688
maker	12687
Ġincredibly	12687
Ġangles	12687
iterator	12686
Ġvolunteers	12686
mons	12685
Ġplug	12684
Ġcancel	12679
ilt	12678
Ġdevelopmental	12678
Ġtitles	12675
ĠSy	12673
Ġimpacts	12671
228	12668
ĠPrince	12667
antic	12665
Enter	12665
ressive	12664
Ġdeleted	12664
********	12663
Ġvolumes	12663
Ġinference	12663
abc	12660
ulations	12658
brief	12658
atch	12658
mand	12657
oping	12652
Ġsleeping	12652
Ġpostoperative	12651
JSON	12650
550	12650
soc	12649
Ġmathematical	12649
Factor	12648
à¬	12645
ĠWh	12644
Ġsolving	12642
Ġ(<	12642
mur	12641
area	12641
yk	12640
FM	12640
Ġyours	12640
Ġdistant	12640
Email	12639
Ġconversations	12638
Ġ02	12636
without	12635
&=	12633
ĠÃħ	12632
=$	12631
ĠBridge	12629
Ġmodulation	12628
Ġdisposed	12628
wer	12626
Ġmandatory	12625
rar	12624
Ġencoded	12623
Ġabandoned	12623
158	12622
ĠOxford	12621
Ġdeclaration	12620
åľ¨	12618
Ġdying	12618
ĠKen	12618
-{\	12617
Ġgarlic	12616
189	12614
Ġsmell	12612
Ġslice	12612
Files	12611
record	12610
Ġmerge	12610
Ġfilename	12609
engine	12607
1987	12605
Ġimply	12604
Ã	12602
asi	12601
AST	12600
Ġextracts	12600
rev	12598
Ġpurely	12598
Ġsuppressed	12597
252	12594
Ġtranslate	12593
Ġads	12593
Ġbalanced	12592
CHAR	12589
===	12589
ĠÂ»	12587
Ġ113	12585
Ġspoken	12584
NY	12583
Ġ1975	12582
Ġmethyl	12580
ook	12574
RNAs	12574
Network	12574
}{{\	12571
eval	12570
lings	12566
Ġarrays	12566
Ġsubstitute	12565
ĠClick	12563
Ġhitting	12562
169	12560
,âĢĻ	12557
yi	12555
ulator	12554
aved	12554
both	12552
Ġproceeds	12549
Ġsecretion	12546
anth	12543
^{*	12543
ATED	12533
(!	12533
Ġupgrade	12531
Ġfocuses	12531
utt	12530
Ġaccordingly	12529
oidal	12528
gon	12528
Ġcontroversy	12528
uj	12527
Ġinnovation	12525
rex	12524
Ġnutrition	12524
Ġligand	12523
Ġpromoted	12521
ĠFuture	12520
returns	12518
178	12518
ĠÐº	12518
ĠThrough	12517
oric	12516
Ġpulling	12512
})$.	12511
Ġtransitions	12511
Ġremedy	12511
ĠContent	12510
029	12509
ĠTNF	12508
Release	12507
Ġconsiderably	12507
Ġarguing	12506
hidden	12505
arily	12505
ĠTheory	12504
ĠCG	12504
Ġpleased	12502
Ġdozen	12500
ĠMissouri	12499
Ġmotivation	12498
allow	12497
ĠSim	12496
ViewController	12495
unts	12494
193	12493
âĢĥâĢĥ	12492
Ġoperational	12491
ãģ¯	12490
Ġtmp	12490
ĠTB	12489
Ġexplaining	12488
Ġexhibits	12488
Ġcalendar	12487
simple	12485
Ġanalytical	12484
ĠVisual	12484
Ġtranscripts	12480
Wait	12479
ĠDisney	12479
ione	12478
umm	12476
ĠOnline	12476
Ġmorphology	12475
protected	12469
etal	12468
Ġterror	12468
onate	12467
pic	12465
).\	12465
omics	12464
840	12463
Ġintact	12461
Ġmobility	12458
Ġethical	12458
ĠKan	12458
ounds	12457
0008	12455
ĠĠĠĠĊĠĠĠ	12449
tool	12448
Those	12446
Descriptor	12444
ylated	12442
parameter	12442
0006	12440
Ġsixth	12440
iment	12438
056	12438
188	12437
="/	12433
ĠLan	12433
God	12431
ĠLE	12428
_-	12425
account	12419
="../	12417
Ġoutdoor	12416
Users	12414
Ġties	12410
Ġconducting	12408
Ġevaluating	12405
Ġfounder	12403
wh	12402
440	12400
Ġshame	12399
Ġreviewing	12399
phy	12395
original	12395
emed	12395
sensitive	12393
Age	12393
Four	12392
Channel	12391
061	12389
Ġnarrative	12389
ĠHotel	12386
trial	12382
401	12382
Ġphones	12382
Ġfate	12382
ĠCurrent	12382
)",	12381
Ġenemies	12381
ĠRelated	12381
Ġax	12379
ced	12377
Ġreserve	12377
ĠCard	12375
Gl	12374
Ġwaters	12373
Ġprefix	12373
oor	12371
Ġreportedly	12370
~-	12369
bullet	12366
olk	12365
Ġcannabis	12363
tom	12362
White	12362
handler	12361
Ġocean	12361
Pool	12360
backs	12358
het	12357
lio	12355
305	12353
Ġconvenience	12352
Ġ09	12351
ĠZe	12350
Ġlegally	12349
ĠMessage	12348
Ġprayer	12347
gp	12346
Ġposting	12346
network	12345
Ġplacing	12345
David	12344
Ġinnocent	12344
Ġimplementing	12342
*:	12341
ĠNBA	12341
Ãº	12339
orial	12339
Ġofficially	12339
ĠWithin	12339
ĠBuild	12333
rite	12330
oder	12330
ĠâĢĭ	12330
equals	12328
Edge	12328
ĠFrancis	12326
oney	12325
Storage	12325
Ġinvest	12324
Ġhormone	12321
Ġ1976	12320
Ġcurvature	12318
ĠWild	12317
yp	12316
wait	12316
RY	12315
ĠDirect	12314
platform	12312
ĠâĢĻ	12312
Ġsustainable	12312
essed	12311
Ġballs	12311
Ġwrap	12310
Ġgamma	12310
Ġvaries	12307
ĠYouTube	12307
ĠRapids	12306
Ġmad	12305
testing	12303
oir	12302
mouth	12302
Ġthrew	12300
Ġasserted	12299
Ġappend	12299
ulates	12298
Ġcounting	12298
__(	12293
pit	12292
173	12292
Report	12291
Ġrecruitment	12290
Ġcoat	12290
Real	12288
aces	12287
CK	12287
Policy	12285
Ġbomb	12282
dial	12280
218	12279
tier	12277
&=&	12277
ometry	12274
Null	12273
Ġnurse	12272
ved	12270
Ġextr	12270
Ġep	12270
))?	12269
245	12268
Ġolive	12263
etta	12262
Ġconstitutes	12262
iol	12258
480	12257
Ġinfant	12256
âĤ¬	12255
flag	12255
ĠĠĊĠĠ	12255
illary	12254
ĠCommand	12253
tion	12251
Ġtraveling	12249
Ġfever	12249
*),	12248
ĠPur	12248
fixed	12247
ÐµÑĢ	12245
oses	12242
oot	12241
rain	12240
integer	12240
Ġscroll	12240
ĠMotion	12240
Ġmethodology	12239
dst	12237
Åį	12235
visible	12231
expected	12229
ĠSN	12225
Ġmetastasis	12223
Ġclip	12222
Ġcarb	12222
oS	12220
DU	12220
ĠSelf	12220
Screen	12219
Ka	12219
Ġlands	12219
Ġdenoted	12219
rose	12218
Ġdelicious	12217
xF	12216
Ġshifted	12215
187	12214
/"	12212
prov	12211
Ġlessons	12211
ograph	12209
Ġvalidate	12206
Ġacquire	12206
cept	12204
ĠCOURT	12204
stock	12203
WR	12203
UD	12203
Ġnuclei	12203
tage	12201
Ġappellate	12201
Em	12200
dor	12199
Ġextracellular	12199
_{{{\	12198
Ġtears	12196
Ġprobation	12194
ĠMean	12193
require	12192
ĠVe	12192
Ġbiology	12189
opped	12187
ĠDallas	12187
ĠPalestinian	12185
330	12180
Ġpollution	12179
Ġenforce	12178
tax	12175
Ġlesser	12175
Ġappearing	12175
Ġasync	12174
ĠGi	12171
Ġsusceptibility	12170
Ġpig	12170
sym	12167
rim	12167
loaded	12167
Ġsubstrates	12166
Ġraces	12166
Ġwages	12165
Ġcycl	12165
resp	12160
mock	12159
,(	12159
equ	12158
058	12157
vey	12156
cted	12156
Ġhanging	12155
Ġindirect	12152
Ġimmigrants	12152
ĠFactor	12152
cg	12150
Ġgather	12150
Ġlos	12149
twitter	12148
ĠWay	12148
Ġmut	12147
oda	12142
Ġspeaker	12142
Ġconfigurations	12142
elin	12139
Unc	12138
Ġobjectives	12138
Ġcups	12138
Ġviable	12137
Ġ118	12137
Ġorganisms	12135
limit	12131
Ġstepped	12131
Ġ\*	12130
)/((-	12128
Ġmerits	12127
tone	12125
Api	12124
ĠNet	12124
sis	12123
citing	12123
RN	12121
ĠGolden	12121
exists	12120
ĠUpon	12117
Ġdiscussing	12116
wall	12114
Ġabilities	12114
Ġdramatically	12112
generated	12111
Ġinfluenza	12111
Ġbelonging	12109
Ġasserts	12109
ĠHamilton	12107
ĠCt	12107
Ġfallen	12106
Ġinnovative	12104
exit	12103
ĠAlexander	12103
ĠFinancial	12097
Ġcharging	12094
alities	12093
Ġinvestigators	12093
Ġhighlights	12090
Ġdevelopments	12090
ride	12089
ĠRules	12089
ĠKr	12086
Ġrobbery	12085
uting	12083
cin	12082
FN	12079
\(	12077
(:	12077
ving	12076
uter	12075
}}=	12069
Ġcraft	12069
ĠTennessee	12069
ĠED	12069
tem	12066
Ġsingular	12066
Ġproducer	12066
hak	12065
$),	12065
Ġlengths	12065
Ġwisdom	12064
Ġnecessity	12063
Ġcrop	12062
ĠSingapore	12062
lf	12060
Ġtopological	12060
Ġhist	12060
Sign	12058
Ġec	12058
Ġadoption	12057
``	12055
ĠChannel	12054
Ġriding	12053
Ġmagnet	12053
ĠBP	12051
ĠWould	12050
Ġblot	12045
nob	12044
Ġpharmac	12044
sten	12041
pert	12041
Ġoperates	12041
BIT	12040
Ġexcitation	12038
job	12037
177	12035
ĠMRI	12035
043	12033
Ġhumanity	12032
ĠForest	12031
ĠPURPOSE	12030
Ġfluorescent	12026
zel	12024
Ġcredibility	12022
ĠRome	12022
ĠEst	12022
860	12021
Ġgrab	12021
Ġdrops	12021
Ġassertion	12020
disp	12018
rov	12017
west	12016
anic	12014
Ġfreely	12014
Ġoxidation	12012
Ġprevents	12011
ĠMorgan	12011
Ġsafely	12010
emon	12009
cker	12009
gest	12008
Ġpacked	12007
extern	12005
ĠOrganization	12004
ifndef	12002
Home	12002
Ġmil	12002
Ġaf	12001
ĠDefault	12001
Ġwheat	11999
imated	11996
063	11996
Ġincorrect	11995
ĠCapital	11995
Ġconvex	11994
ĠSummer	11994
ĠWatch	11991
Double	11989
Ġprojected	11989
Ġmesh	11988
Public	11987
gm	11986
Ġaffordable	11986
reed	11984
Health	11984
worth	11983
Ser	11983
Ġinvasive	11983
Ġunfair	11982
Ġstopping	11982
Msg	11981
Ġattending	11981
Ġtriggered	11980
mans	11979
060	11979
Ġfucking	11979
ĉĉĉĉ	11979
Ġlighting	11978
Ġalterations	11978
Ġarr	11974
333	11973
Ġdonors	11972
tz	11971
aran	11965
875	11964
rait	11962
distance	11962
iya	11959
Ġadaptation	11958
Ġpromises	11955
dat	11954
HH	11953
Ġcatalyst	11953
ĠSky	11953
(__	11950
Ġunity	11950
ĠRO	11950
arer	11945
Ġconfirmation	11945
infected	11944
Pointer	11944
ĠMY	11944
DK	11942
183	11942
}.\	11941
ĠARE	11941
â	11939
ÂĴ	11937
Hz	11937
drop	11936
uli	11935
Ġmeets	11935
Ġcombining	11934
Ġhat	11932
ĠHim	11930
ĠBUT	11930
typedef	11928
Kind	11927
Ġnurses	11925
ĠChampionship	11924
kill	11923
coll	11923
Ġcameras	11923
196	11921
rik	11920
Ġutilize	11920
UX	11919
Ġtransit	11917
hp	11916
Ġrobot	11916
Ġresort	11916
Ġrelaxation	11915
Ġretention	11911
Ġinherent	11910
rina	11909
Ġloc	11909
Assert	11908
gn	11907
Ġathletes	11907
ĠLanguage	11906
Stack	11904
Ġdeficit	11901
jan	11900
ĠGovernor	11896
Ġchat	11895
Ġdensities	11894
prom	11893
orate	11893
---|---|---	11892
Ġconditional	11892
ĠProtection	11892
ther	11891
endo	11890
gd	11886
username	11884
$^	11884
Ġmetrics	11883
Ġgolden	11883
Ver	11882
Ind	11882
UTF	11880
native	11878
iw	11877
Ġaff	11877
Ġfre	11875
actic	11874
ĠMeanwhile	11874
mented	11873
Ġoccasions	11873
ĠFinal	11872
render	11871
Ġcure	11868
Selected	11867
Ġinvestments	11867
uto	11864
Contact	11864
1980	11864
Ġhanded	11864
Ġartists	11864
ĠDocument	11864
235	11862
vr	11859
Black	11858
ĠWHERE	11857
FOR	11855
groups	11854
Ġarbitration	11852
ACH	11850
![](	11850
cost	11849
ĠAuthority	11847
upper	11846
agg	11845
Ġtriple	11845
Ġprotests	11845
hex	11843
ĠRF	11843
olysis	11842
}{(	11841
ĠâĢī	11840
Ùħ	11838
different	11836
}>	11832
Ġanimation	11832
TABLE	11831
å¤	11830
Ġsem	11830
Ġdemocratic	11830
ĠTy	11827
Summary	11825
Ġtestify	11825
lyn	11822
Ġsubtle	11821
erous	11818
}&	11814
tags	11811
Ġmistakes	11810
ĠJason	11809
ibly	11808
302	11808
ocyte	11806
Ġcompiler	11806
xsl	11804
=[	11801
Ġfloating	11801
ĠSarah	11799
coming	11798
Ġrect	11797
Ġdatabases	11795
ĊĊĠĠĠĠĠĠĠĠĠĠĠĠĠ	11794
640	11791
410	11791
}})$	11787
ception	11787
acs	11787
ÙĪ	11786
vant	11786
Ġmotivated	11786
ĠLicensed	11784
Ġensuring	11783
ĠPen	11783
Ġexhaust	11778
BASE	11777
clusion	11775
Ġenormous	11773
Ġsocket	11772
072	11771
Ġbaking	11770
flu	11769
boy	11769
-[	11768
Ġbas	11768
904	11767
850	11767
Ass	11766
irs	11765
ĠStudio	11765
ogs	11764
Account	11762
Ġactivists	11762
required	11761
acher	11761
ĠExample	11761
pk	11759
itate	11757
Ġyard	11757
Ġearnings	11755
eled	11752
5000	11751
ĠInteger	11750
viruses	11749
340	11746
Ġpremises	11746
Ġamongst	11744
far	11742
Ġlegislature	11741
wire	11740
Ġinitiation	11740
Math	11739
aha	11737
Ġlam	11737
unn	11735
andy	11733
Ġlake	11733
ĠHoward	11733
vee	11732
inations	11731
Ġthrowing	11731
===============	11728
Ġprognosis	11726
odot	11724
Argument	11724
Ġboards	11723
à´	11721
ĠAnal	11721
ĠMoon	11720
Ġdated	11719
Ġtherapies	11715
delim	11714
asse	11714
Ġinsertion	11714
ĠAG	11714
XX	11713
mouse	11712
ĠROS	11712
toc	11711
ĠVI	11708
oved	11707
ĠNight	11706
ĠBerlin	11705
since	11704
mix	11704
Ġshops	11704
Ġtear	11701
Express	11698
720	11698
layers	11695
aan	11694
operative	11691
Ġol	11690
Ġindustries	11690
509	11689
ĠSW	11688
clock	11687
Ġjudges	11686
ĠTony	11685
ORY	11684
Ġrepository	11683
rier	11681
etz	11681
241	11681
ĠComm	11681
039	11680
Ġanalog	11677
Obv	11676
Ġjustified	11674
Ġconvention	11674
Ġchopped	11673
501	11670
Ġspeaks	11668
cycle	11666
ather	11666
ĠABC	11665
mia	11664
650	11664
Ġprof	11664
ĠHel	11663
Ġhire	11661
nik	11660
OLD	11660
Ġuniversities	11660
)>	11658
Ġuncon	11658
pts	11657
Ġbackup	11656
Ġpassenger	11655
Ġmanufacturers	11655
Ġ"",	11655
virtual	11653
lap	11653
Ġreactive	11652
Ñģ	11651
Short	11650
Ġdowntown	11650
Try	11649
crypt	11648
ĠExp	11648
events	11645
etter	11645
1982	11645
304	11644
esto	11643
BN	11643
ĠEvent	11642
ĠWalker	11640
315	11638
CAT	11636
Ġrespons	11636
Ġantibiotics	11636
aders	11633
Ġobligations	11632
.<	11630
valid	11627
ĠcDNA	11627
ĠPARTICULAR	11627
Ġeff	11626
ĠAtt	11626
owner	11624
233	11624
,.	11624
Security	11623
Ġpackaging	11623
Ġemails	11622
Ã´	11621
olar	11621
zu	11620
Ġempirical	11620
Ġaveraged	11620
uls	11619
Ġrefuse	11619
cong	11618
Ġsupplement	11614
esa	11610
Ġavoided	11608
Ġfought	11606
Sample	11605
ĠSI	11604
Ġveteran	11601
Ġmainstream	11601
Ġfruits	11601
ĠVery	11601
ĠWi	11600
Game	11599
ĠSquare	11598
dfrac	11596
Ġbasal	11595
197	11594
ĠElizabeth	11593
anz	11591
oves	11588
lav	11587
Ġdeserve	11587
ega	11586
Ġdialog	11586
186	11585
ĠDutch	11585
mf	11584
Ġratings	11584
Ġ117	11584
Ġchips	11583
ãģ§	11582
ashi	11582
Ġgenotype	11581
Ġholder	11580
Ġdesk	11580
404	11579
special	11578
gram	11578
Ġexperiencing	11575
ĠLive	11574
Ġpreserved	11573
Ġdistribute	11573
Ġupstream	11572
mot	11571
Ġmayor	11571
ĠOil	11569
pon	11568
|^{	11567
Ġscar	11567
Ġblockchain	11566
tell	11565
Ġmit	11565
Ġbare	11565
ĠTech	11564
Register	11563
Ġalternatives	11563
Ah	11562
erv	11561
ARE	11561
Ġ"%	11559
ĠCOVID	11556
Ġgranting	11554
ĠAA	11551
treatment	11550
ĠCON	11549
Ġcam	11548
Ġadvances	11548
ĠFilm	11548
omi	11547
045	11547
MN	11546
Ġapproximate	11544
380	11543
Ġsearched	11543
city	11541
Subject	11538
Player	11538
Ġshirt	11537
Ġaccomplish	11537
ayer	11536
Ġagricultural	11536
wen	11535
Copy	11535
194	11535
Ġapt	11535
hab	11532
384	11532
Ġvoluntary	11532
TG	11529
1983	11526
Ġhappiness	11525
arks	11524
Job	11522
Metadata	11520
oun	11517
Ġadhesion	11516
|$	11511
Ġcats	11511
ĠSn	11508
ĠGre	11506
901	11505
034	11504
]-[@	11502
Ġresidue	11502
DY	11500
Texture	11499
iat	11498
ĠVector	11498
ĠExpression	11498
Ġintensive	11497
ĠFITNESS	11497
ĠBesides	11497
hall	11496
Ġeastern	11496
Ġ1950	11496
sync	11495
formation	11494
Ġ350	11493
Ġrevised	11490
Ġdistress	11490
pay	11486
Cons	11483
ĠKh	11482
Ġevolutionary	11481
ĠKeep	11481
outing	11480
rav	11479
059	11479
rect	11478
Ġcompile	11478
ĠWales	11477
ĠConf	11477
das	11476
San	11475
323	11475
................	11475
ĠUSB	11474
ĠMont	11473
ervation	11472
.....	11472
Ġselecting	11471
program	11470
Ġip	11468
Print	11467
Save	11465
Ġbuttons	11465
ĠCollection	11465
identifier	11464
å	11463
601	11462
386	11462
0020	11460
Ġclinically	11460
opp	11458
Ġflex	11456
Ġ122	11455
isions	11453
signed	11452
Ġgolf	11451
Binding	11450
lov	11449
lated	11449
Ġdivorce	11448
ĠÐ¿	11447
ctr	11446
osp	11440
gie	11438
Ġstationary	11436
ĠSenator	11435
counter	11434
Ġviability	11433
Ġconsumed	11432
ĠOb	11432
design	11431
Ġprimers	11428
Ġdesktop	11428
ĠCruz	11428
serving	11423
cx	11423
enders	11421
Ġillustrate	11421
Ġ1973	11420
Ġranked	11418
Ġloads	11418
Ġsusceptible	11417
unique	11413
Ġrecipes	11413
Ġ``	11413
ĠSand	11413
ĠSearch	11412
Ġrelevance	11411
Ġcounted	11409
ANCE	11408
Ġdisclose	11408
247	11405
Ġthereafter	11403
ĠPass	11403
uth	11401
quoting	11401
Ġpainful	11401
Ġpremium	11400
ĠVietnam	11398
ĠVA	11396
ĠUtah	11396
))\	11394
Further	11393
esse	11391
ĠEP	11386
utions	11385
Bundle	11383
six	11382
Ġolig	11381
ĠCredit	11381
ect	11379
anal	11379
ĠNotice	11379
ĠCaptain	11379
Information	11377
Ġfuck	11377
Ġdep	11377
flex	11376
ĠAsh	11376
Ġallocation	11372
iano	11370
cul	11368
Mask	11368
Ġappellants	11364
anding	11363
alle	11361
Sw	11360
Ġarts	11360
Ġsucceed	11359
0007	11358
Ġendogenous	11354
Ġtumour	11352
mul	11351
Ġfigured	11349
arding	11348
Ġattract	11347
oqu	11346
Ġbat	11346
Ġintroducing	11345
ĠTri	11345
ĠResponse	11345
ĠTreatment	11344
3000	11343
Ġcenturies	11343
ĠGA	11343
903	11341
Ġpredetermined	11341
ĠOtherwise	11341
=>	11340
Ã¥	11338
pkg	11338
Ġspl	11336
itÃ©	11335
olin	11333
alloc	11333
251	11332
mx	11331
^*$	11331
ĠBlood	11331
Ġtickets	11330
Ġskip	11330
execute	11327
ĠLouisiana	11326
Ġaffidavit	11325
were	11324
Invalid	11322
xsd	11321
ĠAssistant	11321
dag	11320
editor	11319
Ġinst	11319
pattern	11317
Attributes	11317
Ġelectro	11317
Ġprolonged	11315
etin	11314
æľī	11313
çĶ¨	11312
fileID	11310
aven	11310
227	11309
ĠLater	11308
offs	11307
076	11307
Ġincidents	11307
ĠIr	11307
stan	11304
controller	11304
Ġtrap	11303
Ġgraphics	11303
Ġlemon	11302
Ġcrossed	11301
fm	11300
Ġ$|\	11300
Ġmount	11299
Ġamplification	11299
ĠArts	11299
Ġfurniture	11298
ĠDown	11298
imo	11297
ĠDouble	11295
Lock	11294
Enum	11294
Â£	11291
Ġneu	11291
Ġgrey	11291
Ġgastro	11291
Ġcos	11291
ĠRam	11290
XML	11289
Ġcone	11289
Ġ08	11289
lec	11288
Ġfetal	11288
uns	11281
AQ	11281
Ġtransient	11278
Ġtackle	11278
unting	11275
ECT	11275
Ġcart	11274
auer	11273
ĠâĢľ[	11273
Ġfil	11273
Ġ1972	11272
ighting	11271
Ġparam	11269
)~	11268
(-\	11268
Ġpink	11268
ĠPhysics	11268
hoe	11266
625	11265
ĠDR	11265
Ġseemingly	11263
Ġcorrections	11260
bles	11259
Ġventricular	11258
Ġcertified	11255
Ke	11254
Ġquant	11254
Ġ124	11254
ä»	11253
Ta	11249
resses	11246
Ġrecommendation	11246
urn	11244
IDE	11244
Ġinsured	11244
uel	11242
piece	11239
ĠNation	11237
Ġevolved	11235
okes	11234
Related	11230
athy	11229
player	11228
uis	11226
odo	11224
Memory	11222
Ġdismissal	11221
Ġcursor	11221
Util	11218
ĠAffairs	11216
hbox	11214
arXiv	11213
667	11213
Ġemployers	11213
Ġbrands	11212
Ġtransverse	11211
izz	11209
Ġcontamination	11208
ĠStore	11208
Ġlemma	11207
ĠNetherlands	11207
ulating	11205
ĠiPhone	11202
Ġwise	11201
Ġenum	11201
Ġundergoing	11198
Ġrotating	11198
Ġtwelve	11197
Ġ[$	11197
iating	11195
Ġorthogonal	11195
Ġcurious	11194
à²	11193
430	11193
Ġ.$$	11193
CHECK	11192
ĠDark	11190
edic	11189
rag	11188
ience	11188
Ġawards	11188
Ġdemonstrating	11186
Ġ05	11186
909	11185
229	11185
enger	11184
cli	11184
)](#	11184
ĠMERCHANTABILITY	11183
Ġsheep	11181
+(	11180
Ġdx	11180
ĠCE	11179
811	11177
ĠCM	11177
omatic	11176
Simple	11176
Art	11176
-)	11176
unc	11173
hou	11173
====	11172
EXT	11165
Ġdynamical	11163
RX	11162
Ġdesert	11162
Ġtongue	11161
Ġci	11160
oons	11159
ĠMount	11159
syn	11157
ĠUnlike	11157
oscopy	11156
opathy	11152
Ġsettle	11150
Ġrecombinant	11150
erator	11149
306	11149
Ġcouples	11149
rites	11147
.""	11147
ĠNASA	11146
SYS	11145
Ġfeasible	11144
402	11142
}}({\	11141
]$.	11139
307	11138
Ġpublications	11137
Ġachieving	11137
ä¸Ģ	11136
Package	11136
Ġâī¤	11136
Ġinfectious	11136
into	11135
Ġprospect	11135
ĠTokyo	11135
ilized	11133
ESS	11132
Ġorbital	11132
resistant	11131
orm	11130
Ġwi	11130
Following	11127
otherapy	11126
usions	11125
Ġdrain	11125
ĠMountain	11125
aca	11124
Ġtopology	11124
rators	11122
Ġpressed	11122
Ġblade	11120
ĠTex	11120
ĠSOFTWARE	11119
isi	11118
Ġ,\	11117
isp	11116
ament	11116
rew	11115
bach	11114
alia	11114
IND	11114
Ġsorts	11112
Ġenrolled	11112
lex	11110
Ġcylinder	11109
ĠRoy	11109
+{\	11108
ĠAppendix	11107
311	11106
general	11105
ATT	11104
Ġlesson	11104
Ġdialogue	11104
520	11103
Ġhoped	11100
ĠMag	11099
regulation	11098
independent	11098
ĠPu	11098
uni	11096
Ġexcuse	11096
atum	11095
hum	11091
Ġupload	11089
Ġrigid	11089
088	11088
cir	11087
Ġspontaneous	11086
Ġremand	11084
Ġabdominal	11084
ĠSenior	11084
ÃŃa	11081
.");	11081
Ġswimming	11078
ĉĉĉĉĉĉĉĉ	11077
Ġoutputs	11076
405	11072
Ġcontacted	11072
elic	11069
Ġinappropriate	11069
ĠMayor	11069
chers	11067
Ġphenomena	11064
Ġgran	11064
243	11063
ogra	11061
EY	11061
Ġactivate	11061
etti	11059
037	11059
365	11058
verted	11057
ĠSign	11057
Ġunemployment	11055
ĠResources	11055
036	11054
emphasis	11050
}}}_{	11049
Ġ1974	11048
motion	11046
cke	11046
Ġdeletion	11046
iÃ³n	11045
Cap	11045
Ġmanufacture	11043
Ġdisplacement	11043
Ġdebug	11043
Ġconjunction	11043
groupId	11041
).](	11040
236	11037
Book	11036
Ġconvictions	11036
ERN	11035
Ġcerebral	11035
ĠEngineering	11035
Therefore	11034
MU	11033
ÂĮ	11032
cmp	11031
BY	11031
Ġmicroscope	11031
Ġexponential	11031
Ġdebut	11031
erie	11030
Ġtowns	11030
Ġlips	11030
Ġcmd	11030
ĠJane	11030
ĠDrug	11027
itations	11026
ToString	11023
ĠNeither	11022
jection	11020
308	11020
Ġpromotes	11019
ĠRelease	11019
Ġsy	11018
ryl	11017
diction	11014
066	11014
ĠSat	11014
leton	11013
Ġthreads	11013
gb	11012
burn	11012
Ġsends	11012
Ġtubes	11011
Ġcontributes	11011
Ġfatigue	11010
atched	11008
ĠÎ¼m	11008
ĠSelect	11008
ardo	11006
Ġundergo	11005
Ġineffective	11005
Ġbabies	11005
GFP	11004
Ġspecification	11004
dent	11003
à¦	11002
Ġneighbor	11001
Ġimmuno	11000
ĠCB	10999
Ġhorses	10997
Remove	10996
ĠLPS	10996
Ġrental	10995
ĠStone	10993
ĠMusic	10992
ĠSF	10991
ĠJerusalem	10990
Ġloops	10989
Ð¼	10988
Ġ"âĻª	10988
encies	10987
Ġnan	10984
Ġflesh	10982
Ġvon	10981
school	10980
radius	10980
ĠSurvey	10979
Ġscared	10976
ifiers	10975
Ġpaste	10973
ochemistry	10971
Ġast	10971
Db	10970
Ġspark	10970
Ġextensions	10969
Ġdefence	10967
Ġcre	10967
iates	10965
Ġlocus	10964
ĠDisease	10964
vic	10963
Ġantenna	10963
cpu	10961
Ob	10960
Ġpit	10960
sight	10959
Ġaqueous	10959
ĠBeing	10958
ĠSoc	10957
omers	10956
ĠFourier	10956
"],	10954
ĠMaterial	10953
ancing	10952
Life	10951
Ġproposals	10951
ibr	10949
\](	10947
Ġinstability	10947
Ġ'/	10947
:[	10945
Ġhex	10945
hit	10944
Ġextraordinary	10941
aser	10940
ĠSupp	10938
artifactId	10937
998	10936
ĠUs	10936
ĠSimon	10935
Âı	10934
Doc	10933
ĠDick	10933
Ġdig	10932
Ġconcentrated	10932
ĠPremier	10929
ensive	10928
elles	10927
ĠUSE	10927
Bean	10926
bis	10925
237	10925
Ġmarginal	10925
049	10921
ĠMas	10921
lement	10918
Scale	10918
Ġinterrupt	10918
Ġbeneath	10918
months	10917
Ġweighted	10915
Ġuniformly	10915
Ġpharmaceutical	10915
Ġdistinguished	10913
trace	10912
Off	10912
Ġinstructed	10911
APP	10909
038	10906
Ġmorph	10905
eks	10903
tid	10902
onc	10902
Ġtransfected	10902
Ġlegacy	10902
Ġdrinks	10902
jet	10901
tons	10900
Ġslip	10900
Ġhabit	10900
akers	10895
Ġmanifest	10892
ĠJean	10892
imb	10889
Ġanonymous	10888
Ġfacial	10887
skip	10886
ĠThompson	10886
STATUS	10885
]*	10884
Ġtrailer	10884
kov	10882
Ġdistal	10882
Ġclustering	10882
ĠVice	10881
forward	10880
'))	10880
Ġnegatively	10879
ĠDetroit	10879
756	10878
GD	10877
Ġwrapped	10877
VO	10876
cond	10874
agan	10874
sided	10873
eld	10873
---|---|---|---|	10873
Ġcooked	10872
Ġburst	10871
efs	10870
HU	10869
Ġ(âĪĴ	10869
race	10868
Ġqueries	10868
Ġdirectors	10868
Ġsynthesized	10867
Ġdelta	10867
Ġinfluences	10865
Ġrally	10864
226	10863
Arg	10862
Ġstocks	10861
ĠLin	10860
aman	10859
sect	10858
spe	10855
ĠShort	10855
Ġlabour	10854
ĠRon	10854
bold	10853
Ġabroad	10851
906	10848
Ġbacked	10848
Ġtranslated	10847
ĠOntario	10847
Ġsurveys	10846
manager	10843
driven	10843
Ġcond	10843
288	10841
ĠML	10840
ĠHS	10839
wo	10838
Ġsil	10838
fty	10837
Ġautomated	10837
Ġtw	10834
Ġhopefully	10833
Bio	10832
Ġpose	10832
plex	10831
Ġwithdrawal	10831
Ġheated	10831
ĠâĨĴ	10829
Ġproducers	10829
Ġdeciding	10829
910	10826
Ġwithdraw	10826
LIB	10825
hee	10824
ĠRecently	10824
loading	10822
ĠCam	10821
299	10820
Ġexploration	10818
062	10817
ĠSafety	10816
Should	10815
bigl	10814
Card	10814
Ġdependency	10814
Ġcriterion	10814
ĠSweden	10814
074	10812
aped	10810
321	10809
kie	10808
Ġ126	10807
Ġwhilst	10806
Ġharmful	10806
Ġfatal	10806
Program	10805
../	10805
Ġstatutes	10804
Ġdrew	10804
best	10802
Ġreleases	10802
Ġvalidated	10801
Ġsons	10801
Ġenterprise	10801
uu	10798
esp	10798
ĠCOM	10797
Ġsustain	10795
Ġcomprised	10795
Ġoccupation	10794
Ġsensory	10793
ĠSL	10792
their	10791
alk	10791
ĠLORD	10791
ĠAustin	10790
Ġremind	10789
Ġretro	10787
Ġcervical	10787
Ġrubber	10783
{|	10782
OUR	10782
1981	10782
bid	10780
ĠMexican	10780
login	10779
Ġutilizing	10778
xb	10776
Ġmyocardial	10776
boot	10775
ĠCIA	10775
ĠSaint	10774
042	10773
dies	10772
too	10770
svg	10769
erre	10769
Auth	10769
Ġethics	10769
ĠVideo	10769
Ġplotted	10768
hpp	10767
ĠJS	10767
čĊčĊĠĠĠĠĠĠĠ	10767
Ġtunnel	10765
Light	10764
ĠCounsel	10764
gnu	10762
ĠAk	10762
ĠWright	10761
ractor	10760
=\"	10760
ĠTw	10760
enta	10757
Ġhouseholds	10757
Ġur	10756
ĠSteven	10756
ipper	10755
})=	10754
Ġbul	10752
}),	10750
Ġshower	10750
Ġdiscipline	10750
Ġmol	10748
ĠBL	10748
ension	10747
Ġunstable	10747
dog	10746
fen	10743
props	10742
ration	10740
Ġheaders	10740
Ġcollecting	10739
ĠAnthony	10739
lined	10738
Ġeliminated	10737
,*	10736
ĠGET	10736
Ġrendering	10735
Ġ135	10735
Ġphosphate	10734
Ġrestored	10730
Ġfractions	10730
Ġshaped	10728
pv	10727
nick	10726
safe	10725
Ġvacation	10725
lite	10723
Proxy	10722
ĠGuide	10722
ocal	10721
Ġcompromise	10720
Ġhabits	10719
Ġcharacterize	10719
ĠMus	10719
ĠBuilding	10718
ĠBad	10717
working	10716
Ġtoll	10716
082	10715
Ġpsychiatric	10715
Ġmapped	10715
Ġ"-	10713
Ġterrorism	10712
enic	10711
Ġ]{}	10711
ĠDemocrat	10711
smallcaps	10709
ĠIl	10709
Flow	10704
Len	10702
Ġrevision	10701
functions	10700
cis	10700
=\{	10700
549	10699
Ġharsh	10699
stitutional	10698
Lib	10698
Ġ03	10698
^{+	10697
1001	10697
Ġhill	10695
Ġbrush	10695
Ġopposing	10692
created	10691
Selection	10691
Ġcytokine	10690
dep	10688
Ġgravitational	10688
Ġns	10683
Ġ700	10683
Ġcelebrate	10682
ĠTA	10681
ĠMother	10681
ĠNT	10680
IGHT	10678
ASH	10676
à¤°	10675
EDIT	10675
Ġquestioned	10674
ĠSha	10674
posing	10671
Ġgrows	10671
ĠFourth	10670
Ġears	10669
})$,	10667
ĠFarm	10667
IZ	10666
Google	10665
Ġsubjective	10665
ĠUP	10665
ĠExpress	10664
Ġoc	10662
rative	10661
Details	10661
ĠRoss	10661
Ġdeposited	10658
Ġdemanding	10658
irk	10657
Ġregards	10657
Ġcomedy	10657
yb	10655
Ġencouraging	10655
obe	10654
illo	10654
Ġtranscriptional	10653
Ġenabling	10653
Conf	10652
Ġfn	10652
Ġaluminum	10652
eing	10650
Ġfort	10649
Ġchemistry	10649
ĠPH	10649
Ġexploring	10648
ĠRad	10647
ainer	10646
Ġrounds	10643
390	10642
219	10642
Ġelite	10642
ĠSummary	10642
Ġessence	10641
ĠMich	10640
porter	10638
Ġillustrates	10636
ĠMil	10635
uated	10634
iced	10634
annotation	10632
Ġdf	10630
Ġpride	10629
234	10628
Ġsteam	10627
Ġrefugees	10627
ĠEu	10627
Ġgit	10626
ĠOlympics	10625
mine	10624
ules	10623
089	10622
Ġremembered	10622
Ġpole	10622
Ġsubsection	10620
sor	10619
acker	10619
Ġoffenses	10619
Ġkinetic	10619
Ġperi	10617
Ġmusical	10616
Ġfavour	10614
890	10613
Ġtons	10611
ados	10610
Ġexamining	10610
Ġgoogle	10609
STATE	10607
Ġcumulative	10606
Ġconscious	10606
ethyl	10604
eny	10604
agen	10604
Ġintr	10601
Ġassessing	10601
urb	10599
osing	10598
ĠCulture	10598
068	10597
Ġcoaches	10597
aul	10596
INS	10596
ivers	10595
Ġdining	10595
242	10593
Ġjournalists	10592
Ġhepatic	10592
^.	10591
Ġimproper	10591
ĠAuthor	10590
apt	10588
amic	10588
Ġwalks	10587
gue	10586
Ġ256	10586
Ġconc	10585
Ġmetals	10584
Seq	10582
kowski	10581
920	10581
Ġexpecting	10579
Ġanticipated	10578
ÂłÂłÂłÂł	10577
Ġbiopsy	10577
ĠANOVA	10577
ĠFDA	10576
Ġincomplete	10573
Ġforcing	10573
í	10571
article	10571
Ġbeef	10568
them	10567
ĠSize	10566
Mintage	10565
Ġprimer	10565
Ġopponents	10563
igan	10562
gia	10562
Ġpassive	10561
510	10560
ĠINTO	10560
vd	10559
ĠMcC	10559
ĊĊĠĠĠĠĠĠĠĠĠĠĠĠ	10558
ĠHeart	10555
ĠEmpire	10554
DX	10553
Ġedited	10552
tables	10551
Ġallocated	10551
Ġmounting	10550
ĠAtlanta	10550
Ġhub	10549
ĠLady	10548
})^	10547
icating	10547
edy	10547
formula	10546
Args	10546
IK	10545
ĠJon	10545
National	10544
ADD	10544
710	10544
rock	10543
dal	10542
ĠDS	10538
wl	10536
oise	10536
Ġmechanics	10536
Ġchampionship	10536
Ġ131	10534
Ġlane	10533
andra	10532
Har	10532
ĠExchange	10532
ression	10530
324	10530
097	10530
Ġlin	10530
thr	10529
Ġpreceding	10529
Ġalarm	10525
ĠEPA	10525
genes	10523
801	10523
Ġactin	10523
ĠAddress	10523
Ġga	10522
finite	10521
ĠBowl	10521
Ġslower	10520
ĠDeputy	10519
Ġye	10518
Ġelectr	10518
ĠFestival	10517
owns	10516
Ġhind	10516
usted	10511
ICK	10511
Ġtor	10509
ĠET	10509
ĠFR	10507
raz	10505
ĠMR	10505
Ġdeposit	10504
ĠBarack	10504
087	10502
Ġbandwidth	10502
iper	10499
ĠPT	10498
275	10494
ĠCarl	10494
331	10493
amped	10492
077	10492
Ġrelax	10492
season	10491
rene	10491
Ġgeometric	10490
Ġoptim	10489
uru	10488
heat	10486
/)	10484
]{}.	10482
071	10482
055	10482
Ġantibiotic	10479
ĠSupplementary	10479
ĠDI	10478
xl	10476
padding	10476
Ġwashing	10476
Ġhosted	10476
lif	10475
Ġqualify	10474
Ġdeparture	10472
EU	10470
Ġoz	10470
ĠGreece	10470
åħ	10468
ABLE	10468
Ġallies	10468
Ġbypass	10467
Ġauthentication	10467
ĠMoscow	10466
Ġcontainers	10464
ĠRemove	10464
ĠCarter	10464
nv	10459
Ġ360	10458
urd	10456
umps	10456
erring	10456
Great	10455
Ġpancreatic	10455
Ġavoiding	10455
Ġadaptive	10455
ĠCrim	10455
Inf	10454
ĠMonte	10453
boolean	10452
Database	10452
ĠEv	10451
Best	10449
0100	10449
Ġdiabetic	10448
ĊĊĊĠĠĠ	10447
bigr	10446
Ġtan	10446
Ġsimplicity	10446
ĠCONDITIONS	10446
Ġthroat	10445
middle	10442
Ġadventure	10441
ĠLaboratory	10441
olate	10440
asting	10440
Ġsummarized	10440
ĠBlock	10439
Court	10437
Ġpassengers	10435
Ġ129	10434
entity	10433
rome	10432
ĠWrite	10432
ĠManchester	10432
Ġregulating	10431
Ġthoroughly	10429
ĠDuke	10428
Fr	10427
ĠFi	10427
Ġborders	10424
Ġagrees	10422
gun	10421
Ġwhereby	10421
Ġton	10421
Ġfiltered	10419
Ġworship	10418
ĠLED	10418
nell	10417
Ġjoke	10417
kb	10416
Tom	10416
Ġtre	10416
Ġadequately	10415
MV	10414
Ġattitudes	10413
WH	10412
something	10411
rez	10411
Ġclearance	10411
Ġcaptain	10411
ĠAv	10410
chin	10409
carb	10409
244	10408
Ġoutlined	10408
urer	10405
Plugin	10401
403	10401
emb	10399
ood	10398
OW	10396
Ġnights	10395
ä¸į	10394
Single	10394
:-	10394
Ġtransmit	10394
Ġsurvived	10394
sit	10392
ĠHal	10390
238	10389
ĠMM	10388
ĠJacob	10388
frequency	10387
bro	10387
Ġrecipient	10387
ĠWHO	10387
mini	10386
Ġcas	10384
ĠCur	10384
gio	10383
Ġ\+	10381
ishment	10380
370	10379
Ġhandful	10379
scape	10378
apes	10378
Ġsitu	10375
Ġrejection	10375
Internal	10373
owned	10372
\}$,	10371
Normal	10371
Ġscrew	10370
ior	10369
081	10369
ĠDoctor	10369
Ġreproduce	10368
Ġenrichment	10368
Ġcrude	10368
Ġ04	10368
Pop	10367
Ġperformances	10367
Jo	10366
432	10366
ĠCountry	10366
Ġmalignant	10365
Ġschema	10364
INGS	10363
Øª	10361
Person	10361
ĠAz	10361
ooting	10359
Ġdeadly	10359
mult	10358
Ġcop	10358
Ġqualitative	10356
Ġhorror	10355
Ġsim	10354
Ġproving	10354
483	10352
Ġcausal	10352
ĠHO	10352
ÎºB	10350
Ġ170	10350
Ġvirtue	10349
Ġcontinuum	10349
luent	10345
925	10344
Ġluminosity	10344
xd	10343
Ġsensing	10343
Ġ132	10343
ĠPatrick	10342
ĠEditor	10339
Send	10338
KING	10336
Ġsink	10336
umble	10335
azz	10334
Ġappellee	10332
gz	10331
Wh	10331
{%	10330
friendly	10330
setting	10329
acon	10329
Ġorganisation	10329
loader	10328
Ġdear	10328
Support	10327
069	10327
Ġbull	10326
Ġinteracting	10325
rif	10324
Sorry	10323
}_{{\	10321
olytic	10321
eded	10320
Ġprote	10320
Ġcyber	10320
tat	10319
Move	10319
HB	10319
typename	10318
track	10318
Ġdirty	10318
ĠBall	10318
gui	10317
Follow	10317
616	10317
313	10317
PU	10316
Ġhighway	10316
Scroll	10313
Ġpreferences	10313
icus	10312
union	10311
:'	10311
olving	10310
Conclusion	10310
}_{-	10308
osi	10308
Ġflip	10308
:"){	10304
/$	10304
ĠAlaska	10304
phe	10303
MIT	10300
webkit	10299
Ġcritics	10299
830	10298
Ġmaintains	10298
Ġcampaigns	10298
topic	10293
Ġforeach	10293
Ġdeployment	10293
ĠHAVE	10293
460	10292
083	10292
Ġtheft	10292
Ġspecialized	10292
Ġdeck	10292
Ġquotes	10291
ĠOP	10290
ggy	10289
Ġbesides	10289
092	10286
084	10286
Ġclone	10286
vubuntor	10285
bol	10285
Ġproductivity	10285
ĠBASIS	10285
closed	10284
Ġpropagation	10283
ĠLevel	10283
Ġconnectivity	10282
goto	10281
Ġcourage	10281
322	10279
Ġdemographic	10279
Ġgoverned	10277
Unknown	10275
Ġprobes	10272
ĠOl	10272
nex	10270
rug	10268
alg	10267
Ġë	10266
Ġcompiled	10265
ĠRequest	10265
ugs	10264
pcbi	10264
policy	10263
South	10262
ĠEarly	10262
Ġproximity	10260
storage	10259
Ġacceleration	10256
environment	10253
Native	10252
Power	10251
272	10251
Ġlisting	10249
ĠTaiwan	10247
Ġengines	10246
mv	10245
Ġcurrents	10245
orous	10244
~.	10243
memory	10240
ician	10240
ĠFranklin	10239
atus	10237
complete	10236
="-	10236
309	10236
090	10236
Ġrolled	10236
Xml	10235
Ġsymptom	10235
Ġidentifier	10235
Ġelementary	10234
alin	10233
Ġautomobile	10232
Ġtower	10229
ĠCloud	10229
Ġpotentials	10227
Ġharassment	10227
ÐµÑĤ	10226
variable	10225
imi	10225
Delegate	10225
voc	10224
ĠTor	10224
Sk	10222
Ġut	10221
Ġmeters	10221
Ġjunior	10221
LIN	10220
KO	10220
TAG	10218
BER	10218
Ġutil	10217
Ġequals	10217
Ġbanking	10217
nio	10216
lev	10216
Ġenriched	10216
MAC	10215
Ġsituated	10215
Ġdisable	10215
MODE	10214
RW	10213
.__	10213
Ġstake	10211
Ġperforms	10210
Ġmountains	10209
ska	10208
Still	10205
ĠAnimal	10205
Ġrecruited	10204
ĠFer	10204
hide	10202
Ġspite	10202
Ġburied	10202
holder	10201
Several	10201
RED	10201
Ġdevoted	10201
Ġwrit	10199
Ġbeans	10197
ĠCap	10196
eous	10195
Ġanchor	10195
ĠReference	10193
external	10192
Ġindicators	10192
Ġdefeated	10191
Ġcatheter	10190
icker	10189
Ġpronounced	10189
hydroxy	10188
ĠHad	10188
submit	10187
317	10187
President	10183
Ġsing	10183
Ġquarterback	10182
PIN	10181
lich	10180
Ġshoulders	10180
Ġgaming	10180
ĠTan	10179
odd	10178
Standard	10178
ĠSite	10178
ĠStatus	10177
important	10176
444	10176
Ġcompanion	10176
bing	10175
ä¸	10174
udd	10174
Ġpediatric	10174
though	10173
Ġrod	10173
eder	10172
PY	10171
Ġsyn	10170
Ġextensively	10170
Ġ192	10170
wind	10169
Ġtel	10169
ceptions	10167
Ġinte	10167
ĠSeason	10167
oos	10166
Socket	10164
Ġelastic	10164
ĠStatistical	10164
ael	10162
Ġmineral	10162
Ġnovo	10161
Ġblend	10161
ÛĮ	10159
classes	10159
)},	10158
Ġsaline	10157
Ġcoronavirus	10157
ĠGulf	10157
Folder	10155
+}	10155
631	10154
success	10153
links	10153
Sim	10153
oped	10151
anto	10151
Ġdeployed	10151
Ġconsist	10151
Ġjunction	10149
Ġirrelevant	10149
Library	10148
Ġdielectric	10147
theme	10146
Ġabnormalities	10146
Ġceremony	10145
Ġracing	10144
Ġcalibration	10144
Ġtouched	10143
Ġstrikes	10143
Ġministry	10143
ĠmiRNA	10143
going	10142
Func	10142
Ġthemes	10142
Ġju	10141
ĠWarren	10140
898	10139
ĠDigital	10139
ĠAtlantic	10139
Ġascending	10137
prec	10136
eric	10136
Mock	10135
pie	10133
Ġbrilliant	10132
Ġ240	10132
olation	10131
nett	10130
Ġdamn	10130
ĠGP	10130
Ġrot	10128
Ġresponding	10128
ĠNative	10128
Sam	10127
Da	10126
Ġbow	10126
Ġabused	10126
ĠTarget	10124
Ġgrasp	10120
yx	10119
Ġkiss	10117
Ġdepicted	10117
Ġoverview	10116
iden	10115
Ġrib	10115
Ġarrangements	10115
ĠMart	10115
poly	10114
456	10114
Comment	10113
294	10113
Ñħ	10111
social	10111
Del	10111
Ġtim	10111
Ġparental	10111
Ġconsequently	10110
ĠSol	10109
Ġ07	10109
between	10108
third	10105
components	10105
shot	10104
anton	10101
Ġresection	10101
Ġmac	10100
Ġ[$\	10100
ĠChen	10100
gmail	10099
Meanwhile	10099
ensis	10098
709	10098
Ġfixing	10098
Ġexercises	10098
253	10096
hest	10095
bies	10094
Ġemotion	10090
Ġfears	10089
jquery	10088
Ġaccepting	10088
ĠAli	10088
ĠVar	10086
Ġzones	10085
286	10084
1979	10081
Ġprompt	10081
aper	10079
sad	10076
Ġranks	10076
Ġir	10075
Ġfeaturing	10075
Ġreproductive	10074
ĠDeath	10069
Ġinterfaces	10068
Ġaccommodate	10068
ĠRobinson	10064
yman	10063
nty	10063
Ġwishes	10063
Ġinadequate	10062
Ġabundant	10062
895	10060
0011	10060
áĥ	10058
subject	10058
Ġuns	10058
Ġhunting	10057
ĠSup	10055
Ġasc	10054
Ġdemanded	10053
866	10052
Ġportable	10052
ARS	10050
ĠBon	10050
oming	10049
ictions	10049
Ġnotable	10049
Ġgaps	10049
ĠGE	10048
ĠFre	10048
dll	10044
Ġinvoke	10044
ĠSeven	10044
polar	10042
rang	10041
Ġheaven	10041
ĠEND	10040
ĠBody	10040
Sl	10039
Hu	10039
265	10038
Ġtrips	10038
Ġnotification	10037
ĠIranian	10037
English	10035
Ġforgotten	10035
toggle	10033
large	10033
dam	10033
Though	10033
Ġsophisticated	10032
Ġdeputy	10031
418	10029
Ġcompositions	10029
proto	10028
ĠBA	10028
TZ	10027
Ġrabbit	10027
single	10025
eros	10025
Î½	10024
iki	10024
aded	10023
ĠCooper	10023
ento	10022
;;	10018
290	10018
Ġgerm	10018
Green	10016
gro	10014
502	10014
ĠIron	10013
rail	10012
LG	10012
lx	10011
ĠHon	10011
Ġ'<	10010
iot	10009
mitted	10008
=============	10008
Ġsearches	10008
Ġprintf	10008
Ġbubble	10008
HG	10007
#.	10007
662	10005
EW	10004
Byte	10004
ĠEconomic	10004
lium	10003
**:	10003
generation	10000
ĠProcedure	10000
Ġbiochemical	9999
por	9998
phosphate	9998
ĠCha	9998
panel	9997
]$,	9997
Visible	9997
Paul	9996
Ġcentered	9996
712	9995
Ġspreading	9995
Ġloving	9993
dimen	9992
Ġbot	9990
orse	9989
098	9989
oks	9988
560	9988
Ġty	9987
crete	9985
Ġproductive	9985
period	9984
Ġrestrict	9983
Ġjournalist	9982
918	9981
ĠFifth	9981
Encoding	9980
Ã£o	9979
enti	9979
530	9979
door	9978
schemas	9977
Proof	9975
Ġcirculation	9975
ä¸Ń	9973
Variable	9972
Lu	9972
}|\	9970
works	9970
ints	9970
Ġarrows	9970
Ġvoices	9969
Ġprohibited	9969
hea	9967
TW	9967
rup	9966
261	9966
rica	9963
uber	9962
Ġaccompanying	9962
apple	9960
425	9960
Ġeigen	9960
omen	9959
looking	9956
BG	9956
504	9956
Ġcalculating	9956
Ùĩ	9955
zh	9955
čĊĠĠĠĠĠĠĠĠĠ	9954
Ġru	9953
Coll	9952
til	9951
rer	9951
istically	9950
Ġclicking	9949
ĠWARRANTY	9949
Ġshed	9948
SHA	9947
ĠBeijing	9947
Ġspray	9945
Ġbones	9945
Ġsteep	9941
ĠArabia	9941
uda	9940
inct	9940
Ġpension	9940
Ġciting	9940
Ġassembled	9940
ĠArthur	9939
intestinal	9937
Ġneglect	9936
Ġgently	9935
ĠNK	9932
oline	9930
Ġadmits	9928
ä¸º	9926
Ġdiscount	9926
urable	9925
345	9924
Ġclarify	9924
Ġbra	9924
Ġtemple	9923
Ġirregular	9921
ĠTal	9921
ĠSpec	9921
Ġpathogenesis	9919
}</	9918
paper	9915
iners	9915
Ġultrasound	9915
Ġrush	9913
easy	9910
Expr	9910
Ġgathering	9910
Ġ[âĢ¦]	9909
Ġdough	9907
Ġcattle	9906
ĠSept	9906
sulf	9905
clean	9905
Ġpredominantly	9904
Ġimplicit	9904
TRUE	9903
Ġrein	9902
Ġoutbreak	9902
mitt	9900
nw	9899
Ġteaspoon	9899
620	9898
Ġsongs	9898
ĠFred	9897
Ġwaited	9896
Ġportfolio	9896
ĠPor	9895
ĠWang	9894
roy	9893
Ġnucleotide	9892
Ġlanding	9892
armed	9891
agent	9891
ĠJun	9891
Ñ	9889
ugg	9888
ĠDead	9888
Ġquantified	9886
amount	9885
Match	9885
344	9885
Ġsoccer	9885
Ġrevenues	9885
Ġguided	9882
ĠGraph	9882
erred	9881
915	9881
ĠYES	9881
mad	9880
lint	9880
Place	9880
ĠChem	9880
Ġstructured	9879
wr	9877
SSL	9877
Ġphotographs	9877
812	9873
surface	9872
natural	9867
Ġimproves	9867
ĠActive	9867
ube	9866
contact	9863
266	9863
inson	9862
hang	9862
ĠKennedy	9862
Ġquark	9861
TEXT	9859
Ġmel	9859
iph	9857
Ġconsiders	9857
Ġamid	9856
Ġwooden	9855
proof	9854
835	9853
744	9853
Ġanalyzing	9853
{(\	9851
income	9850
adr	9850
Having	9850
Ġtender	9850
Ġpressing	9849
Ġskilled	9848
506	9847
099	9847
dig	9846
cov	9844
239	9844
Ġps	9843
except	9842
;<	9842
Ġmanufactured	9842
ĠCommerce	9842
etting	9841
socket	9840
Ġstimulated	9840
Ġseverely	9840
Ġinjunction	9840
Ġgifts	9839
ogue	9837
848	9837
Ġcotton	9837
VB	9836
Ġrh	9836
Ġtypename	9834
Ġtetra	9834
Ġpolls	9834
exception	9832
Ġurged	9832
Ġneo	9831
672	9830
Could	9828
ĠCle	9828
416	9827
ĠMotor	9826
jc	9825
iton	9825
parser	9824
ĠEXPECT	9823
ĠLegend	9822
078	9820
Ġspherical	9818
Ġdressed	9818
Ġdarkness	9818
fact	9817
Ġinteractive	9817
Ġoutlet	9816
åı	9813
ĠHot	9813
mile	9812
Ġnut	9812
Ġiter	9812
grad	9811
Ġaud	9811
ĠUC	9811
batch	9809
Ùİ	9808
mage	9808
=""	9807
Ġhorizon	9807
ĠAccount	9805
070	9804
Ġmagn	9804
Ġantioxidant	9804
Ġbadly	9803
Ġjavax	9802
Ġranged	9801
ãģĮ	9800
516	9800
Ġprisoners	9800
Draw	9799
Ġterminated	9799
orin	9797
HW	9797
ĠKentucky	9793
Ġspecialist	9792
Ð±	9791
ĠSimple	9791
804	9789
518	9789
ĠDelhi	9789
Ġarterial	9788
Ġ220	9786
squ	9785
fac	9785
806	9785
Ġswitched	9785
Ġplasmid	9785
]+	9784
Ġreception	9784
Ġcontend	9783
Ġdashed	9782
license	9781
fg	9781
}%	9779
RES	9779
Ġdictionary	9779
ronic	9777
owl	9776
arp	9774
GER	9774
Ġmag	9774
ĠGraham	9774
880	9773
273	9773
Ġbugs	9773
Ġanalytic	9773
inating	9772
emen	9772
552	9772
Ġinch	9772
Ġsoluble	9771
processing	9770
Iterator	9770
Ġcortical	9770
alb	9769
567	9769
Ġpaired	9769
ĠStory	9769
Ġvarieties	9768
Âĳ	9767
qua	9765
Ġwaiver	9765
Ġ1971	9765
Ã©t	9764
eras	9764
Notes	9764
ĠRs	9764
891	9763
Ġsealed	9761
esta	9760
Ġsectors	9760
Ġdet	9760
Ġapple	9760
ĠRel	9760
mma	9759
Ġinability	9756
Ġbuilder	9756
ĠNMR	9756
aph	9755
Ġvec	9754
Ġimprisonment	9754
amino	9752
Ġhol	9752
815	9751
686	9750
cert	9749
Ġbladder	9749
AW	9746
937	9745
Ġrefusal	9744
Ġcontractor	9744
Ġconstituted	9743
inary	9740
Ġlogo	9740
rance	9738
Ġshelter	9738
ĠLas	9738
ario	9737
ĠFu	9737
ĠAdams	9736
Ġhar	9734
Living	9733
ctl	9731
Ġwx	9731
Ġmanipulation	9731
ĠEvidence	9730
books	9729
Ġren	9728
ĠNH	9725
yz	9722
pler	9722
833	9722
412	9722
icals	9721
AZ	9721
Ġexpressly	9721
Ġfiltering	9717
ĠCreek	9716
vision	9714
aint	9714
YM	9714
Ġembryos	9714
orf	9713
bridge	9713
Private	9712
Ġpray	9712
erer	9710
783	9709
Ġacres	9709
415	9708
ĠHarvard	9706
inst	9705
Ġtransistor	9704
Ġbilateral	9704
moving	9703
Ġsoup	9703
GN	9702
Ġuncertain	9702
Ġintelligent	9701
ĠNat	9700
ĠMatthew	9700
Ġincorporate	9699
Ġconsult	9698
operation	9697
Ġdisp	9696
Ġtransplantation	9695
Ġswing	9695
ĠReact	9695
ĠCN	9695
eze	9693
Michael	9692
ĠMedicare	9692
Ġequivalence	9691
Ġaforementioned	9691
ĠMobile	9688
Ġdesigner	9687
xff	9686
team	9686
MW	9685
ĠTraining	9685
ĠTurkish	9684
Statement	9683
Cy	9683
Ġsupplemented	9682
Ġgarage	9682
336	9681
Ġsubstituted	9679
824	9677
ĠIntroduction	9677
tailed	9675
opo	9675
="@	9674
Ġredirect	9674
ĠFin	9674
Ø¯	9673
WD	9673
Ġmetadata	9673
Ġoverexpression	9672
Ġcookie	9672
writer	9671
Center	9671
ATA	9671
505	9671
Ġdozens	9669
ĠÃ	9668
Ġseized	9668
)}}	9667
MASK	9666
287	9666
Ġprognostic	9665
}\,\	9664
Ġcoil	9664
xon	9663
Ġruntime	9663
urg	9660
oose	9660
bor	9660
condition	9659
oly	9657
+)	9657
omb	9656
736	9655
Transform	9654
react	9652
ĠTGF	9651
ĠPetitioner	9651
odies	9650
dependency	9646
Ġexceptional	9646
Rearrange	9643
ĠFat	9642
Scope	9641
("%	9641
285	9640
Îµ	9639
oat	9639
Î¿	9638
ĠItem	9638
framework	9635
clone	9635
bmatrix	9635
Ġreversal	9635
Ġcru	9635
&=\	9634
prob	9633
ilization	9633
ĠLD	9633
Du	9631
Ġoptimized	9631
supp	9629
Ġsupervision	9629
Ġcompelling	9629
319	9628
angular	9627
Ġunreasonable	9627
Ġcleared	9627
1004	9626
ĠNelson	9626
soft	9625
ivo	9625
bian	9625
ĠCox	9625
ĠCondition	9624
Ġvo	9623
Ġpainting	9622
cop	9621
Ġmodest	9621
ĠGFP	9621
Ġbeside	9620
Interval	9619
locked	9618
RK	9618
540	9617
Ġpie	9617
dump	9616
Ġlifted	9616
ĠGordon	9615
\,{\	9614
503	9614
Ġputative	9614
iota	9613
Ġmas	9613
ĠJul	9611
ĠMars	9610
Symbol	9609
Ġswe	9609
country	9608
Ġdefinite	9607
Ġpresumably	9606
Ïģ	9605
Ġelectromagnetic	9604
ĠEverything	9603
mk	9601
Bit	9601
Ġstochastic	9601
ĠDifferent	9601
IRE	9600
553	9600
ĠGuard	9598
ĠBow	9598
enabled	9597
Ġensures	9597
ĠRepresentative	9596
Ġimplicated	9595
Ġbeating	9595
ask	9594
408	9593
Ġtimeout	9593
ĠBruce	9593
XC	9592
ĠDor	9592
414	9590
Ġproves	9590
877	9589
inous	9588
Help	9588
DW	9587
Ġlean	9586
Ġcoalition	9586
rence	9584
North	9583
*^*	9582
1002	9581
icted	9579
Ġhon	9579
commit	9577
ĠTree	9576
})}	9575
Figures	9575
Ġdissolved	9575
Ġke	9574
Parse	9573
Ġenvelope	9573
nia	9572
RON	9572
888	9572
isters	9571
780	9571
Ġbears	9570
ĠAcc	9570
services	9569
agon	9569
Ġthumb	9569
isting	9568
Ġclaimant	9568
Ġplanes	9567
Ġretrieve	9566
Ġassumes	9565
elly	9564
Ġspectroscopy	9564
Ġsignatures	9564
${\	9563
Ġpathological	9562
Ġinspiration	9562
ĠIRS	9562
Mat	9561
>'	9561
Ġenjoying	9561
ĠProtein	9561
Ġ1968	9561
focus	9560
Miss	9560
oca	9559
Ġtex	9559
Ġtap	9559
Ġrecurrent	9559
695	9558
536	9558
Ġvaccination	9558
Ġceiling	9558
fts	9557
]{}(	9557
Ġminus	9557
Ġbrains	9556
ĠNu	9555
ilation	9553
ĠDenver	9553
Ġdir	9552
ĠLearning	9552
cil	9550
ĠPay	9550
osomes	9549
046	9549
Ġdealt	9549
>>>	9547
Ġunfortunately	9547
mutex	9546
Stat	9546
Ġmaxim	9546
Ã©r	9545
^{{\	9544
AIN	9544
aza	9543
Ġbite	9542
Dem	9541
ãģ¨	9540
|_{	9540
832	9540
enet	9538
}$]{}	9536
:*	9536
292	9536
Ġgraft	9536
iver	9535
ĠLab	9535
411	9533
ĠLincoln	9533
training	9532
Ġports	9531
ĠRemember	9531
Ġnullptr	9530
Ġjuvenile	9530
ĠPRO	9530
Ġhierarchy	9528
microsoft	9527
Ġdocumentary	9527
fulness	9526
Ġmandate	9526
660	9525
(@	9525
Ġaggregate	9524
Ġbreakdown	9523
PRE	9522
Ġagriculture	9522
Ti	9520
cular	9519
alla	9519
827	9519
Ġdischarged	9519
esc	9518
Tur	9518
Ġwarnings	9518
ĠSydney	9518
rically	9515
708	9515
Ġcolored	9515
Ġ133	9515
="{	9514
stats	9513
eland	9513
ĠPP	9513
ensitivity	9512
Ġanalogous	9512
Ġadolescents	9512
Ok	9510
:#	9508
Ġcanvas	9508
ĠDep	9508
cred	9507
Events	9507
Ġvein	9505
alled	9503
318	9503
DateTime	9502
Ġessay	9502
acer	9500
341	9500
science	9499
ention	9497
Ġleather	9497
scripts	9496
OME	9496
Ġalternate	9496
Direct	9495
Ġmicrobial	9495
ĠIE	9494
cluster	9492
Boolean	9492
ĠLuc	9491
ĠCould	9488
0009	9487
Ġnanoparticles	9486
ĠjQuery	9486
contains	9485
Ġcoherent	9483
ĠFT	9482
ĠSNPs	9481
ĠRomney	9481
'+	9480
ĠÎ	9480
pages	9478
\}\	9477
dL	9475
basic	9475
scr	9474
aught	9473
Ġsuspicion	9472
249	9470
511	9469
HV	9468
258	9468
ĠInv	9466
UA	9465
HTTP	9465
pps	9464
eclipse	9464
Ġcoin	9464
ĠInternal	9464
259	9463
Ġstadium	9463
079	9462
issue	9461
Ġsalad	9461
ĠBoolean	9461
pend	9460
lesssim	9460
289	9460
Ġconfigure	9459
Ġthreatening	9458
VT	9456
Ġuntreated	9456
Ġhor	9454
Term	9453
ĠStewart	9453
ĠResource	9453
lw	9452
Valid	9452
Xi	9451
Runtime	9451
Ġparliament	9451
314	9449
ĠGas	9448
887	9447
Ġviolate	9446
Ġintend	9446
ĠrÃ©	9445
ĠConn	9445
065	9444
ãĥ³	9443
comm	9443
ĠBaltimore	9443
anny	9442
Ġgenus	9442
Ġattracted	9439
racted	9438
Ev	9437
435	9436
Ġ144	9435
emy	9434
ools	9433
Ġfibrosis	9433
thin	9432
Password	9431
BV	9429
ctive	9427
Ġregret	9427
neu	9426
abl	9426
ĠWars	9424
ĠMississippi	9424
246	9423
Ġendpoint	9422
Ġcollateral	9420
ERT	9419
Ġmetabolites	9418
Ġknock	9417
ĠRet	9417
348	9416
ĠTM	9416
extra	9415
resources	9414
ĠDun	9414
stylesheet	9413
rip	9413
Ġdisadvantage	9412
Ġopponent	9411
Ġdelivering	9410
ĠStadium	9410
could	9409
777	9409
332	9409
094	9409
Ġurinary	9409
Ġblast	9408
ĠReserve	9407
lys	9405
amar	9405
Ġoverflow	9405
Ġisomorphism	9405
Ġpremature	9403
Ġlogging	9403
790	9402
455	9402
Ġdependencies	9402
Ġpriest	9401
326	9400
279	9400
Ġthorough	9400
Ġiteration	9399
Ġhockey	9399
umes	9398
818	9398
gin	9396
Ġuni	9396
health	9395
ĠCV	9394
Yet	9393
805	9393
Ġhr	9393
around	9392
Ni	9392
ĊĊĠĠĠĠĠĠĠĠĠĠĠĠĠĠ	9392
Ġpeaceful	9391
Ġsits	9388
Ġmarrow	9388
Ġpizza	9387
nodes	9386
nals	9386
Ġctx	9386
fw	9384
334	9384
Ġds	9384
eor	9383
ĠMis	9383
gf	9382
257	9382
ĠLegislature	9382
uating	9380
omycin	9380
sectional	9378
FG	9378
TIME	9377
March	9377
ĠRussell	9377
USER	9376
Ġnevertheless	9376
noun	9375
particle	9374
ĠCharlie	9372
matic	9371
eyed	9370
Pattern	9370
Ġ##	9370
Plan	9367
Ġrelatives	9367
Ġlas	9364
Ġchromatography	9364
hb	9363
fort	9363
899	9362
857	9359
ï	9358
Err	9358
uster	9357
longrightarrow	9357
Ġfocal	9357
912	9356
Desc	9355
wick	9354
268	9354
ĠGer	9352
ĠĊĉ	9352
810	9351
dma	9350
328	9350
story	9349
Ġcrops	9349
Word	9348
URI	9348
Ġcomplementary	9348
ĠCriminal	9348
ĠiOS	9347
335	9346
Ġsubsets	9345
Ġtwist	9344
Ġmisconduct	9343
unted	9342
activated	9342
ĠÐ´	9342
marks	9341
Py	9340
Ġnu	9340
vl	9339
0015	9339
Ġadjusting	9339
ĠVictoria	9339
MER	9337
Ġalleges	9337
rely	9336
Ġsubmission	9336
Ġregulator	9336
Watch	9335
Ġovarian	9334
xt	9333
621	9333
~/	9332
515	9332
ĠArm	9332
Ġbanned	9331
Î´	9330
Ġrehabilitation	9330
Ġalkyl	9330
ĠIndependent	9330
ĠEnvironmental	9330
Ġchurches	9329
Ġ"^	9329
Ġkeyboard	9328
Ġconstrued	9328
many	9327
Ġdisappeared	9327
Ġdelays	9327
ĠChairman	9327
BACK	9325
Ġirr	9325
343	9324
Ġcoordination	9324
}}}}	9323
ĠDean	9323
Timeout	9322
ĠFE	9320
mobile	9318
Ġduct	9318
Ġconductive	9318
vascular	9316
stand	9315
reported	9314
856	9314
tery	9313
icle	9310
Ġslices	9310
VER	9308
Ġformally	9308
controlled	9306
Ġutilization	9306
ĠJay	9306
Ã¡n	9305
ruby	9305
icles	9305
amy	9305
parameters	9304
ership	9304
COMP	9304
ĠBattle	9304
Ġconvince	9303
iction	9302
Ġmuseum	9302
proxy	9301
ajax	9301
ĠAntonio	9300
389	9298
must	9297
316	9297
591	9296
aur	9295
Ġshield	9295
ready	9293
Ġunlawful	9292
Ġ145	9292
serial	9291
runtime	9291
question	9291
Ġmyth	9291
ients	9290
KK	9290
Ġ(_	9289
ulsion	9288
rants	9288
ç»	9285
^(	9285
064	9285
Ġoverwhelming	9285
Ġoldest	9285
Ġdepartments	9285
ĠBas	9285
Aut	9284
ĠStock	9284
compare	9283
ĠLink	9283
localhost	9282
Cre	9282
ĠNHL	9282
iny	9281
Ġfailures	9281
Ġattach	9280
odes	9279
Ġaddiction	9279
Consider	9276
803	9275
Ġpopularity	9275
Ġbp	9275
={\	9274
ĠâĢĿ	9274
ĠProv	9274
Welcome	9273
602	9273
gins	9270
291	9269
ĊĊĠĠĠĠĠĠĠĠĠĠ	9269
717	9268
"`	9268
jj	9267
392	9267
Ġfavourite	9266
onde	9261
vartheta	9260
ĠTS	9260
SQ	9259
Ġreflecting	9259
ĠStop	9259
dark	9258
817	9257
Ġretrospective	9257
Ġdict	9257
AIL	9254
ĠFreedom	9254
prev	9253
Ġvenue	9253
Ġbonus	9253
Ġachievement	9253
lights	9252
Ġflood	9251
Ġcy	9251
ĠmiRNAs	9250
Ġsimpler	9249
Ġcombustion	9249
inters	9248
cause	9247
ĠMom	9247
Ġwings	9245
Ġconsultation	9245
ĠFermi	9245
}}{{\	9244
gra	9243
==============	9243
xp	9242
Ġmetastatic	9242
Ġcompetent	9242
Ġcirculating	9242
Ill	9241
ĠBasic	9241
701	9240
Java	9239
580	9239
Ġsurprisingly	9237
Ġnowhere	9237
Ġdim	9237
Ġunchanged	9236
Ġkiller	9236
ĠEp	9235
asted	9234
Ġroyal	9233
Ġinfer	9233
Ġexam	9233
Ġphotons	9232
Fa	9231
eson	9230
ĠAut	9230
ouring	9228
Ġtrajectory	9227
Ġracist	9227
Ġaden	9227
RH	9226
Area	9226
ongs	9223
281	9223
Ġforegoing	9223
idd	9222
checked	9221
Ġmalaria	9220
density	9219
Ġthyroid	9217
Fields	9215
Ġproximal	9215
ahl	9214
Ġoriented	9214
ench	9213
sports	9212
Ġcorrespondence	9212
Ġusername	9210
Mesh	9208
Ġjumped	9208
Ġ06	9208
)&	9207
ĠsiRNA	9206
ĠBrexit	9206
407	9203
Ġassessments	9203
Ġburned	9202
ndra	9201
immer	9201
271	9201
Domain	9200
cover	9199
Ġstat	9199
ĠStep	9199
spring	9197
ĠJonathan	9197
fmt	9196
pha	9195
FLAGS	9195
ocyt	9194
icide	9193
819	9192
Shape	9191
338	9191
Resources	9189
1978	9189
idad	9188
directed	9188
870	9188
vac	9187
ĠWL	9187
Ġ({\	9186
Ġradi	9185
Ġowns	9185
Ġfantasy	9185
Ġbitter	9185
Ġclarity	9184
ĠCurrently	9184
ssl	9182
Year	9182
ĠFront	9181
297	9180
Ġ\~	9180
extension	9179
1977	9179
ĠPal	9179
nine	9178
262	9178
LN	9177
Ġdeadline	9177
Ġcredits	9175
ĠProduct	9175
ĠCleveland	9175
culture	9174
Ġ"_	9173
bil	9172
Ġluxury	9171
Ġcheaper	9170
initial	9169
Ġfestival	9169
Ġaggregation	9169
ĠEveryone	9167
Che	9166
610	9164
ĠassertEquals	9164
ENCE	9163
ÑģÑĤ	9162
ANK	9162
cks	9161
expr	9160
Mu	9160
ĠModern	9159
WL	9158
1976	9158
Ġcatalytic	9157
Ġbore	9157
883	9156
680	9156
.'"	9156
prototype	9155
configuration	9155
bell	9155
Ġ\_	9155
Ġtrains	9154
ĠOlympic	9154
896	9152
Ġgrams	9152
Ġannually	9152
aug	9151
astro	9150
ĠAlb	9150
Ġchampion	9149
}^*	9147
807	9147
Ġgro	9147
ĠEvans	9147
378	9146
dash	9145
ĠGary	9145
Ġscripts	9144
ĠScottish	9144
342	9143
448	9142
Ġquestioning	9142
Ġfinishing	9141
utor	9140
Ġheterogeneity	9139
}},\	9138
Ġeu	9138
ãĤĭ	9137
Ġsubstitution	9137
Ġridiculous	9137
Price	9136
Ġkingdom	9135
?:	9134
Ġincoming	9134
ĠSK	9134
ressions	9132
think	9130
James	9130
Ġsorted	9129
{$\	9127
alty	9127
Ġpsychology	9127
Å¡	9126
etics	9126
Ġsplitting	9126
Ġlaptop	9126
ĠAirport	9126
University	9124
GW	9124
Sum	9123
337	9123
Ġunrelated	9123
Ġcomic	9123
Ġbro	9123
760	9122
orted	9120
conn	9120
Ġappearances	9120
chat	9119
Perhaps	9119
Ġ!==	9119
pred	9118
leqslant	9118
1007	9117
Ġdeploy	9117
expect	9116
Ġstreams	9116
omy	9115
929	9115
355	9115
Ġain	9115
journal	9113
789	9113
Ġdisruption	9113
iments	9112
357	9112
June	9111
Ġtrapped	9111
Ġsender	9111
Ġliberty	9110
wed	9109
928	9109
Ġfifty	9108
ĠLat	9108
Ġmold	9107
Ġinventory	9107
Ġchunk	9107
\^[	9106
Ġstoring	9106
Ġlogs	9106
lett	9105
errors	9105
Ġzinc	9105
primary	9104
Ġexpects	9104
Ġsmiled	9103
sea	9102
Ġconfined	9102
Logger	9100
Ġspeeds	9100
814	9099
/#	9098
Ġgirlfriend	9098
cfg	9097
oud	9096
Ġpurchasing	9095
ĠCustom	9094
jp	9093
Ġnested	9093
Ġinterfere	9092
Ġeigenvalues	9092
attributes	9089
868	9089
ANA	9087
resolution	9086
Ġproc	9086
duction	9085
Ben	9085
Ġsup	9085
ARC	9084
Ġ136	9083
Low	9081
Ġaccessed	9081
ĠDave	9081
este	9080
ĠÂ§Â§	9080
ĠNP	9080
lette	9079
ĠComputer	9079
cro	9078
MX	9078
ROW	9077
čĊčĊĉ	9075
Ġfracture	9074
utable	9073
LIST	9072
865	9072
Ġinferior	9071
coding	9069
820	9069
363	9069
ife	9067
egan	9067
shadow	9065
idin	9065
Act	9065
Ġwanna	9065
Ġcomprise	9065
ĠPoly	9065
Âª	9063
imer	9063
859	9063
vable	9062
823	9062
ĠPhase	9062
UPDATE	9061
Ġ|=	9061
Ġpathogens	9061
ĠFO	9061
Among	9060
808	9060
Ġmor	9060
Ġreass	9059
Ġflower	9059
Ġapproaching	9058
10000	9056
Ġprocedural	9056
scroll	9054
cline	9054
907	9053
Ġpackets	9053
Ġislands	9053
åĪ	9051
ĠCamp	9051
ĠMorris	9050
DQ	9049
Ġapi	9048
ifi	9047
hyd	9047
sense	9046
ovo	9046
Ġ$,	9046
781	9045
Ġwars	9045
269	9043
anus	9042
ISA	9042
Ġsnap	9041
Ġdemo	9041
Ġadmin	9041
Generator	9040
Ġunions	9039
plo	9037
TES	9036
828	9035
Ġroller	9035
setup	9034
ionic	9034
Ġclouds	9033
Rel	9032
Ġpressures	9031
Ġcute	9031
Ġrecipients	9030
Âĭ	9029
Ġprecursor	9029
ENS	9028
885	9028
Ġcaution	9028
Ġ450	9028
Instead	9027
Ġhint	9027
agram	9026
535	9026
ĠCohen	9026
Ġintegrate	9024
PX	9023
Extension	9023
ĠSingle	9023
ĠRh	9023
Ġlinking	9021
ĠFix	9021
zes	9020
iem	9020
Ġeconomics	9020
Ġannounce	9019
oit	9018
*).	9018
"/	9018
548	9017
Ġpertinent	9017
Ġ1969	9017
Ġthy	9016
ici	9014
263	9014
Ġdiss	9014
Ġcoaching	9013
ĠNeu	9013
Ġpathology	9012
Ġimpressed	9012
iang	9011
chlor	9011
424	9009
Ġang	9009
aron	9007
RQ	9007
[...]
