.	51315059
,	43988268
Ġthe	41254618
Ġof	23434656
Ġand	19906823
Ġto	19239087
-	16262101
ĊĊ	15692212
Ġa	15407978
Ġin	14125863
Ċ	14085351
_	10059379
Ġis	9671827
s	9417732
Ġthat	8312499
Ġ(	8188402
)	7520728
Ġfor	7395030
:	7033091
1	6225212
(	5921791
2	5919956
Ġwith	5748834
Ġon	4904152
/	4702774
Ġ"	4700813
Ġas	4477617
0	4424224
Ġbe	4355723
Ġwas	4352487
Ġit	4275728
*	4050881
ĠI	4000576
Ġby	3932968
Ġare	3890443
;	3815461
Ġ=	3792078
{	3598021
}	3509741
\	3437501
Ġ-	3396947
Ġthis	3318659
"	3294053
Ġfrom	3286331
Ġyou	3261250
Ġat	3245945
ĠThe	3238599
âĢĻ	3221434
Ġor	3187137
3	3159731
Ġnot	3146487
ĠĠĠĠĠĠĠĠĠĠĠĠĠĠĠĠ	3127747
Ġ$	3049534
Ġhave	2948860
's	2806598
Ġan	2792237
Ġ\	2731422
a	2681557
>	2518957
ĊĠĠĠĠ	2485180
e	2391921
Ġwe	2311532
4	2292217
d	2286848
t	2277644
$	2224019
Ġcan	2119121
Ġwere	2086401
Ġ0	1987192
5	1985128
."	1975226
i	1960626
Ġwhich	1948465
<	1946334
n	1932899
="	1916340
ing	1911870
The	1884688
Ġhas	1874714
x	1863633
A	1828319
Ġ+	1777972
Ġbut	1769080
ĊĠĠĠĠĠĠĠĠ	1748320
Ġ1	1741899
Ġwill	1701365
Ġhe	1698867
).	1693140
ĠĠ	1692040
?	1688883
I	1659636
Ġall	1648638
ĊĠĠ	1623868
y	1570263
Ġhis	1569793
Ġone	1565529
ed	1535931
Ġ*	1507470
Ġthey	1506216
S	1498167
Ġ{	1496559
**	1471887
6	1422517
Ġ2	1415023
ĊĠĠĠĠĠĠĠĠĠĠĠĠĠĠĠ	1405274
Ġtheir	1404052
Ġmore	1397419
C	1391630
Âł	1349074
B	1308513
_{	1297526
m	1285592
Ġif	1284569
Ġhad	1279118
8	1279041
r	1275398
p	1266835
Ġbeen	1263221
);	1245345
Ġ$\	1237688
7	1234711
Ġalso	1227350
Ġyour	1225812
=	1225337
),	1225136
c	1211002
'	1204235
]	1193833
[	1184447
Ġabout	1175182
b	1172276
o	1167463
Ġwhen	1159424
Ġwould	1157952
k	1133579
Ġtime	1130823
Ġso	1130146
Ġthere	1130036
't	1128790
Ġout	1128528
^	1120040
er	1108228
Ġother	1108089
in	1080047
Ġwho	1075319
ĠIn	1075236
9	1073662
Ġmy	1071690
ĠâĢľ	1071332
ĠĠĠ	1067204
Ġthan	1038865
Ġdo	1037231
Ġno	1029683
Ġ3	1020513
Ġup	1019612
f	1010425
g	1008523
Ġits	981849
h	978341
Ġinto	976671
</	963768
R	961153
ĠA	954807
D	945682
Ġour	945335
Ġonly	938500
ly	938046
Ġtwo	934729
Ġher	926223
Ġsaid	925595
E	924152
ĊĠĠĠĠĠĠĠĠĠĠĠĠ	919539
Ġ[	914013
----------------	913418
Ġwhat	905963
Ġ&	905300
Ġlike	904580
Ġany	895541
l	894313
T	884120
Ġsome	882553
Ġmay	879654
%	878545
ĊĠ	866091
Ġ'	864601
Ġnew	860808
P	856994
Ċĉ	852387
ĠIt	848778
Ġsuch	845834
Ġfirst	841644
Ġthese	828761
F	828247
ĠThis	827554
#	814167
Ġthem	798164
ref	790176
Ġget	786347
type	786262
Ġuse	772687
Ġthen	771699
Ġ4	768080
Ġjust	767549
+	767141
Ġme	765523
{\	761466
Ġafter	760346
Ġover	760110
Ġbetween	756219
ĠĠĠĠĠ	749309
u	736158
ĠWe	724906
L	723466
Ġused	719182
N	719097
Ġcould	713990
Ġwhere	712232
.,	711049
Ġ5	705675
v	702567
",	698884
M	697055
ĊĠĠĠĠĠĠ	695543
Ġdata	695230
Ġpeople	684900
Ġshe	670469
10	668313
//	667051
al	662186
j	661352
In	659783
Ġbecause	653897
Ġusing	653701
if	642386
es	636424
X	628537
on	625989
Ġshould	623851
z	619520
}\	613400
!	612659
Ġ[@	610064
Ġwell	609540
Ġhow	603835
Ġmost	598498
Ġeach	590119
){	589180
H	589069
Ġv	587443
Ġhim	582713
Ġi	576182
ĠĠĠĠ	573053
Ġunder	557852
Ġclass	556285
Ġmake	552475
~	546200
Ġ10	543820
Ġthrough	543393
Ċĉĉ	542034
Ġwork	541441
Ġcase	538196
Ġsame	537696
Ġway	536069
Ġ<	534941
->	532601
ĠHe	532282
Ġsee	526227
Ġeven	524537
G	523317
frac	522187
Ġthose	521877
Ġnow	520597
Ġvery	519799
Ġyears	519732
Ġboth	516288
Ġknow	515529
Ġbeing	505469
Ġdid	501699
Ġ.	501471
q	499414
Ġmany	498673
or	497975
Ġneed	497426
to	497013
?"	496649
--	495792
K	494238
()	492622
Ġbefore	491954
Ġnumber	490615
âĢī	490422
V	490290
](#	488678
Ġdifferent	488634
Ġset	487737
Ġright	484616
}$	484246
right	484165
">	482047
Ġhere	477487
Ġdon	476914
return	476729
::	476214
Ġback	474251
|	472487
left	469041
ĠU	466658
ĊĊĠĠĠĠ	466294
Ġ|	466197
fig	464129
âĢĿ	464101
12	463998
Ġus	463518
Ġ_	460300
ĉ	459280
the	458681
Ġmade	458425
O	456987
We	450118
w	449475
://	449199
ĠâĢĵ	447565
Ġvalue	447041
Ġ\[[@	445367
Ġhigh	445074
Ġ@	445020
Ġsystem	444187
W	442940
Ġfound	441232
Ġ6	440611
com	439888
Y	436395
Ġmuch	435955
Ġwhile	434883
11	434621
Q	433971
Ġstudy	432157
id	431163
ĠS	430375
":	429586
Ġgood	429272
Ġthree	428818
is	427322
.âĢĿ	426949
Ġwant	425128
Ġstate	424214
Ġpatients	423121
_{\	419183
Ġwithout	417711
Ġduring	417103
ic	416650
Ġcells	415690
th	414589
Ġfunction	413901
What	413487
Ġcourt	412395
ĠLet	411847
Ġp	411178
Ġdoes	407354
It	405513
Ġthink	405499
,"	405096
ĠC	402665
ation	402617
ĠFor	401898
Ġorder	401578
end	400112
$,	399318
ĠIf	397753
Ġyear	395312
&	395077
int	394668
Ġname	389486
J	389267
Ġpart	388400
Ġx	386581
Ġgo	384235
Ġgroup	384057
$.	382162
',	382114
This	382001
Ġagainst	381323
and	379711
get	379420
Ġnon	379180
Ġlong	377654
le	376009
Ġtake	375400
00	375126
an	374993
Ġdown	374096
Ġstill	371506
}{	371296
Ġmust	370681
("	370004
ers	365643
Ġlast	365111
(\	363278
],	360809
Ġinformation	360486
ĠĠĠĠĠĠĠĠĠ	358813
Z	357570
en	357569
ĠBut	356270
...	355709
Ġend	355453
Ġsecond	353058
Let	352989
Ġday	351430
Ġ7	349463
mathcal	347542
U	347491
ĠĠĠĠĠĠ	346513
Ġtype	345909
Ġresults	345647
re	345604
Ġ:	344559
();	341667
^{	340814
Ġfollowing	339922
âĢľ	338453
@	336542
Ġfind	335663
Ġoff	334625
Ġgoing	334281
ĠĊ	333911
Ġ8	331567
able	329122
Ġlife	328955
Ġ**	328797
Ġwithin	327632
'm	327354
].	327238
Ġal	326161
ĠĠĠĠĠĠĠ	323329
Ġaround	323288
ĠAnd	323284
Ċĉĉĉ	322995
ĠF	322810
Ġ,	322767
Ġpoint	320509
)$	320391
Ġsince	319979
alpha	318709
Ġam	317757
20	317000
ĠYou	315140
Ġcontrol	314186
You	313800
Ġanother	313781
16	313077
us	313020
15	312313
âĢĵ	311918
ĠAs	311482
Ġmodel	311383
ĠJ	311116
,âĢĿ	310161
ĠB	309226
Ġe	308866
ate	308838
000	308274
ity	307353
Ġown	305156
ĠP	304854
Ġexample	303987
name	303577
]\].	302392
Ġincluding	302214
Ġm	301447
Ġtoo	300104
Ġline	299347
ĊĊĠĠ	298637
Ġevery	298513
Ġcell	297562
Ġgiven	297507
ĠT	296859
13	296439
čĊ	296373
Ġde	294660
Ġreally	294622
Ġmight	294316
Ġshow	294314
Ġhelp	293800
Ġworld	293609
Ġet	293267
Ġsay	292390
it	290536
Ġprocess	289073
Ġtest	287678
Ġn	287599
Ġ$$\	287598
},	286917
CR	286600
Ġpresent	286223
ĠThey	286115
Ġ{#	286020
ĠHowever	285720
're	285677
Ġbased	285139
ĠM	284463
public	284297
this	284240
Ġsupport	282791
Ġfile	282674
Ġresult	280452
To	279486
Ġform	278763
\]	278200
Ġ12	278200
ĠR	277777
ĠE	277602
Ġanalysis	277263
Ġbest	276932
ĠĠĠĠĠĠĠĠ	276901
14	275928
ĠNo	275536
ĊĠĠĠĠĠ	274720
Ġhome	274489
ĠâĢĶ	273500
Ġevidence	273238
,\	272338
Ġsomething	271931
Ġnext	271925
text	270897
ll	269952
Ġchange	269885
Ġsmall	269638
Ġwhether	269200
}(	268703
32	268318
ĠD	267849
âĢĶ	267814
Ġ\[	267610
Ġleft	266953
Ġmethod	266816
Ġ20	266251
Ġd	266025
ĠL	265279
ion	261973
data	261761
Ġper	261689
Ġc	260543
Ġplace	260036
Ġimportant	259673
ĠN	259398
Ġpower	259202
Ġt	258912
label	258682
Ġless	258446
ve	258192
Ġfew	257955
Ġbetter	257885
ĠWhat	257834
Ġs	257654
Ġfact	257040
mu	256667
Ġabove	256365
Ġwater	256342
ĠNew	256217
Ġlarge	256117
If	255208
Ġlevel	254336
)\	252443
ĠThere	252394
Ġnever	252351
div	251761
ia	251003
Ġtrue	250965
ĊĠĠĠ	250643
mathbb	250551
Ġ9	249465
Ġtreatment	248842
Ġdue	248756
Ġleast	248640
nt	248542
Ġh	248335
Ġlittle	248151
Ġcome	248016
Ġpossible	247481
))	247157
ĠH	247121
18	246722
Ġpublic	246321
rm	246109
Ġthings	245850
for	245326
Ġproblem	245317
Ġlow	244117
et	243915
Ġgreat	240775
Ġlook	239147
at	239061
Ġlaw	238669
01	237770
st	237303
begin	237065
Ġb	236816
Ġhaving	236109
Ġgive	236077
!"	235957
Ġdays	235789
Ġshown	235590
Ġfield	235196
of	235187
Ġk	234651
Ġcommon	234502
set	234215
Ġgot	233895
17	233492
as	233178
ĠTo	232990
Ġtrial	232725
Ġeffect	232196
Ġ}	231936
Ġ{\	231150
Ġg	230901
Ġy	230727
Ġgame	230714
Ġfurther	230599
Ġself	230184
Ġcode	230053
ĠShe	229479
Ġun	229363
ĠX	229331
('	228336
Ġhealth	227807
Ġ15	227212
Ġprovide	226747
19	226413
Ġexpression	226181
Ġalways	225467
ies	225267
up	225090
Ġagain	224759
Ġgovernment	224113
Ġ11	223995
For	223807
Ġfour	223556
Ġeither	223360
ĠSo	223214
Ġknown	222995
Ġcalled	222257
30	222171
Name	222116
ĊĠĠĠĠĠĠĠĠĠĠ	222029
Ġfree	221898
pi	221649
Ġside	221464
Ġcurrent	221291
Ġman	221173
http	220611
Ġuntil	220556
25	220054
Type	219932
Ġr	219897
Ġfamily	219740
Category	219730
Ġavailable	219715
Ġsingle	219636
Ġhuman	219429
As	219371
li	219263
Ġsize	219171
ĠState	219153
\[	219112
ĠK	218844
ar	218799
Ġf	218758
ĠThese	217880
ine	217376
Ġmeans	216479
ĊĊĠĠĠĠĠĠĠĠ	216073
ĠCourt	216044
aligned	215879
Ġ/	215602
"}	215562
Ġ==	215075
ĠĠĠĠĠĠĠĠĠĠ	214928
ĠĠĠĠĠĠĠĠĠĠĠĠĠ	213907
Ġable	213785
Ġmean	213726
Ġaction	213720
te	213716
ĠUnited	213614
Ġtimes	213610
Ġcases	213597
Ġseveral	212963
Ġvalues	212853
import	212676
Ġchildren	212336
Ġlight	212220
Ġl	212043
Ġreal	211352
man	211169
el	211144
lambda	210672
pone	210612
Ġ30	210587
usepackage	210434
var	210403
Ġhigher	210368
Ġcare	209924
Ġarea	209835
}$$	209339
Ġstudies	209049
've	208691
Ġteam	208464
Ġlocal	208463
He	208448
Ġpost	207782
Ġtop	207570
---	207192
Ġsignificant	206898
And	206879
):	206732
ĠThat	206719
Ġrate	206475
Ġput	206103
table	205965
Ġtotal	205732
Ġwhy	205697
Ġbody	205335
Ġfull	204910
ive	204879
ated	204809
Ġenergy	203662
span	202241
21	202169
}}	202090
Ġrun	201336
ĠStates	200715
ĠAll	200597
Ġerror	200248
Ġstart	200093
Ġsimilar	199878
ÃĲ	199562
================	199536
Ġdidn	199189
Ġalready	199073
Ġperson	197556
Fig	197481
Ġopen	197452
Ġlot	197333
self	197277
Ġassociated	197139
ĠZ	196822
Ġlevels	196819
ta	196730
string	196729
ment	196552
Ġspace	196087
];	196020
Ġ100	195902
}_	195466
Ġgeneral	194997
ĠĠĠĠĠĠĠĠĠĠĠ	194841
No	194721
Ġ--	194569
ist	194221
ne	194081
Ġlet	193694
ĠG	193626
ng	193461
><	193356
Ġwomen	192655
Ġissue	192540
/*	192508
Ġquestion	192299
Ġreturn	192161
'll	191867
mathbf	191789
Ġresponse	191738
Ġaway	191533
Ġsays	191214
ness	191208
Ġhand	190739
ĠV	190641
org	190068
Ġoften	189982
Ġdone	189891
Ġrequired	189860
rs	189060
ĠWhen	188876
Ġspecific	188187
Ġu	187898
Ġterms	187844
Ġ${\	187602
Ġactivity	187385
Ġsure	186910
24	186512
ch	186495
ĊĊĊ	185859
Ġamong	185702
Ġgroups	185617
Ġhowever	185560
Ġfar	185497
Ġcall	185431
um	185403
Ġreported	185311
22	185252
Ġthing	185154
ant	185090
*/	185057
Ġkey	184656
Ġ)	184149
_\	183938
ĠĠĠĠĠĠĠĠĠĠĠĠ	183854
beta	183814
Ġlater	183649
Ġage	182804
Ġenough	182732
Ġcourse	182608
Ġlist	182563
ss	182094
Ġtold	182010
Ġthough	181568
`	181370
But	181021
Ġcompared	180836
Ġ16	180124
ry	179936
sigma	179829
bar	179501
50	179363
05	178983
Ġmaking	178973
Ġworking	178911
ti	178881
out	178756
ie	178753
Ġprovided	178695
os	178540
Ġalong	178341
de	178205
Ġread	178139
Ġfinal	178085
}_{	178031
Ġz	177984
sum	177526
ce	177443
Ġlower	177399
Ġupon	176860
Ċĉĉĉĉ	176712
Ġconditions	176443
Ġrisk	176284
Ġweek	176052
String	175840
Ġw	175789
Ġrole	175753
Ġpotential	175516
Ġ14	175268
Ġ([	175101
Ġold	175001
Ġinclude	174904
Ġrange	174638
ĠO	174444
Ġincrease	174249
Ġsection	174184
Ġprogram	174069
Ġeffects	174054
Ġresearch	173985
^{\	173746
Ġseen	173736
So	173385
Ġdevelopment	173169
Ġplay	173111
ization	173078
Ġchanges	172958
Ġdoesn	172932
Ġre	172921
Ġhead	172884
]).	172731
const	172721
Ġkeep	172585
Ġ=>	172255
sec	171954
Ġ#	171775
Ġmoney	171450
Ġtogether	171327
Ġposition	170662
ĊĊĉ	170518
Ġprotein	170370
Ġsource	170101
Ġ([@	169977
ĠâĢĺ	169913
Ġincreased	169895
Ġbecome	169778
ĠOn	169750
Ġschool	169673
Ġ`	169431
Ġservice	169354
Ġelse	169333
www	169263
nd	169232
Ġfactors	168929
ge	168668
ating	168665
Ġ13	168665
html	168546
Ġaddition	168452
log	168197
Ġobserved	168183
Ġlove	168108
Ġcannot	168046
Ġbusiness	167842
Ġparticular	167762
There	167601
Ġdisease	167544
line	167400
Ġproperty	167388
ĠY	167312
Ġthird	167100
td	167081
></	167061
value	166934
"}).	166675
Ġimage	166574
Ġ*/	166530
Ġmain	166314
ns	166101
class	166067
Ġaccording	166060
Ġmonths	165907
ĠUniversity	165563
23	165207
Ġdoing	165183
Ġearly	164844
Ġmultiple	164674
phi	164667
ter	164190
Id	164029
one	163314
Ġcountry	163274
Ġstructure	162564
Ġdescribed	161918
mathrm	161854
Ġdefendant	161752
pm	161658
}^{	161392
sqrt	161310
time	161253
Ġcreate	161148
Ġj	161049
Ġactually	160837
Ġpositive	160721
ism	160659
Ġo	160645
[@	160630
Ġcompany	160175
Ġuser	160071
Ġ18	160052
Ġthought	159925
100	159873
Ġint	159764
Ġpoints	159589
Is	159550
Ġsurface	158979
Data	158971
Ġacross	158899
Ġview	158691
Ġperiod	158416
Ġothers	157978
code	157974
\_	157626
gamma	157436
64	157279
On	157168
Ġreport	157086
Ġcame	156872
Ġsub	156834
Ġversion	156762
Ġrather	156722
Ġonce	156623
Ġobject	156423
tr	156362
delta	156213
Ġhard	156175
ized	156100
Ġmatter	155685
ID	155572
Ġfive	155450
Ġlikely	155444
'd	155428
Ġmen	155296
Ġbase	155274
Ġ50	154935
Ġshows	154871
ĠW	154814
ent	154788
test	154705
Ġmillion	154568
Ġperformed	154493
Ġshowed	154416
Ġ%	154386
Ġbelow	154154
Ġadd	153906
Ġfeel	153820
Ġamount	153718
ĠAt	153682
sh	153539
Ġ24	153485
ĠAmerican	153398
Ġbig	153357
Ġpast	153346
Ġsystems	153098
key	152546
bib	152442
Ġstandard	152405
xi	152390
Ġshort	152265
ĠGod	152254
Ġclear	152215
Ġsite	152205
.)	152092
Ġcause	151985
Ġobtained	151662
Ġseason	151576
Ġtook	151388
Ġmakes	151319
Ġfactor	151310
Ġanti	151288
la	150818
no	150318
Ġfalse	150246
Ġever	150073
Ġfood	150056
Ġvarious	149804
Ġcancer	149585
Ġexperience	149369
Ġsocial	149179
Ġinterest	149120
Ġwhole	149050
io	148807
Ġapplication	148645
)(	148410
Ġtaken	148396
est	148223
Ġconsidered	147927
Ġ>	147827
Ġfuture	147802
Ġcontent	147733
40	147694
Ġadded	147685
ian	147672
Ġtry	147600
Ġrelated	147552
am	147389
Ġterm	146948
Ġyet	146932
Ġid	146802
Ġ(*	146756
Ġvoid	146035
Figure	145920
Ġaccess	145690
Ġdefined	145480
}^	145276
rho	145093
Ġbelieve	144919
nu	144874
^{-	144778
ĠOne	144602
Ġ25	144090
Ġapproach	143957
partial	143464
Ġproject	143362
");	143291
Ġsolution	143219
ĠUS	143166
Ġcommunity	143053
Ġblood	142823
%)	142790
Ġmajor	142390
Ġwent	142337
Ġminutes	142314
")	142278
Ġstates	142277
27	141983
Ġbit	141863
Ġstring	141688
ĠThen	141661
Â°	141638
Ġkind	141611
ĠĠĠĠĠĠĠĠĠĠĠĠĠĠ	141299
ts	141245
Ġdecision	141085
Ġindividual	141073
ĠĠĠĠĠĠĠĠĠĠĠĠĠĠĠ	140297
Ġq	139957
size	139878
pt	139871
tt	139863
Ġtrying	139555
Ġincluded	139276
new	139078
Ġreason	139054
)/	138857
ra	138844
Ġdevice	138752
theta	138504
Ġtoday	138408
Ġmembers	138028
Ġrespectively	137892
Ġwon	137619
Ġmaterial	137590
ÂĤ	137520
28	137494
Ġclose	137345
80	137312
Ġregion	137289
ĠSee	137267
],[@	137187
omega	137040
When	136888
Ġreceived	136799
List	136735
ĠAfter	136544
include	136536
def	136513
Ġadditional	136370
ĠCo	136253
Ġsignificantly	136145
Ġanything	136086
Ġcity	136009
ous	135910
Ġpatient	135897
eq	135862
Ġpercent	135608
Ġsimple	135547
Ġcertain	135426
Ġface	135159
times	134964
001	134881
Ġgrowth	134807
Ġhalf	134781
]{}	134677
Ġchild	134652
Ġtext	134542
Ġvia	134517
Ġ$(	134407
Ġnormal	134406
Ġclaim	134298
26	134193
Ġasked	134104
Ġneeds	134094
}{\	133845
tau	133796
ff	133616
Ġdeath	133562
Ġgetting	133338
Ġreview	133228
Ġnight	132977
Ġnull	132965
Ġevent	132848
Table	132671
Ġhistory	132596
ling	132507
leq	132422
ee	132399
by	132368
09	131961
Ġlooking	131834
ĠQ	131736
min	131555
na	131468
Ġroom	131352
How	131267
Ġdifference	131257
Ġproduct	131152
$-	131145
based	130914
Ġpay	130877
02	130792
Ġparty	130713
Ġseries	130528
Ġperformance	130527
Ġmethods	130382
ĠAn	130307
Ġproblems	130270
ma	130223
$\	130064
void	129837
Ġ17	129796
Ġthus	129638
Ġinvolved	129369
Ġissues	129287
year	129203
ĠMr	129196
Ġhref	129170
Ġalmost	129161
https	128948
Ġcar	128893
Ġrecord	128855
Ġnetwork	128808
Ġnothing	128807
infty	128664
ĠIs	128650
Ġhours	128572
Ġprevious	128476
âĢ¦	128444
Ġtherefore	128347
Ġair	128235
Ġneeded	128211
Ġservices	128047
31	128014
do	127819
That	127791
hat	127670
Ġpolice	127660
ck	127615
co	127613
Ġheld	127329
Ġconsider	127116
Ġpopulation	126860
Ġpaper	126712
Ġinstead	126585
Ġmass	126538
Ġcomplex	126501
file	126336
Ġtarget	126309
Ġexpected	126307
08	126280
age	126078
ell	126077
Ġtell	125907
Ġidea	125832
ial	125748
ator	125683
Ġcost	125579
Ġrecent	125533
ĠÂ§	125243
Ġpre	125111
Ġseems	125090
Â±	125014
Ġunderstand	124949
Ġ(-	124926
Ġdesign	124732
Ġgene	124727
Ġspecial	124502
Ġlines	124487
All	124478
/**	124091
Ġstep	124088
35	124079
ton	123953
Ġloss	123940
Ãĥ	123906
add	123582
Ġcondition	123548
Ġstory	123495
Ġcomes	123278
Ġmotion	123271
Ġprior	123266
Ġstudents	123082
Ġplan	123048
Ġjob	123045
Ġweight	122996
ĠDr	122985
Ġfilm	122967
Get	122728
View	122676
Ġhouse	122672
Ġproduction	122615
Ġmedia	122515
Ġlead	122471
Ġquality	122392
Ġsomeone	122305
ĠBy	122082
Value	122038
29	121904
Ġtaking	121756
Ġmove	121666
Ġmarket	121644
33	121596
Ġmodels	121582
tion	121470
Ġla	121376
ĠYork	121321
Ġstarted	121310
define	121281
Ġpage	121209
Ġblack	121091
sa	121043
di	120950
ke	120697
Ġprovides	120644
ol	120571
Ġstrong	120472
Ġitself	120397
Ġ\\	120395
Ġcheck	120355
Ġdistribution	120311
Ġtable	120256
da	120215
Ġpolicy	120194
Ġsignal	120151
Ġnecessary	120133
see	119933
ea	119860
less	119815
mp	119688
Ġheart	119677
Ġlive	119441
^\	119253
Ġaverage	119147
ot	119069
ĠMy	118868
ĠNational	118811
ey	118721
ĠInc	118682
param	118470
ĠĊĠĠĠĠĠĠĠĠĠĠĠ	118448
03	118364
Ġrights	118228
Ġ---------------	118215
ĠĠĊ	118176
case	118047
Ġprobably	118013
Ġoriginal	117972
ĠTrump	117936
eta	117676
Delta	117553
ki	117542
son	117522
Ġphase	117426
Ġclinical	117193
il	117117
-\	116990
Ġshall	116946
Ġ21	116658
Ãĳ	116567
*,	116562
ĠThus	116544
ĠTHE	116278
Ġsimply	116115
Ġsample	116113
ĠĊĊ	116107
Ġaccount	116069
Ġproducts	115969
Ġallow	115924
Ġfunctions	115874
Ġmind	115782
](	115747
Ġsequence	115542
Ġyoung	115525
Ġespecially	115489
path	115310
Ġtemperature	115275
Ġworks	115262
Ġpath	115259
Ġoutside	115238
rd	115193
ĠSt	115174
Ġwords	115015
04	114966
ure	114928
Ġ19	114794
Ġlength	114775
ĠOF	114754
lu	114663
Ġturn	114421
With	114418
list	114416
si	113970
width	113848
')	113829
Ġ!=	113798
âĪĴ	113771
69	113625
my	113612
));	113587
Ġnear	113432
Ġpressure	113424
Ġpresence	113420
Ġsix	113403
ize	113396
Ġcomplete	113396
45	113331
em	113203
]\]	113180
Ġdetermined	113101
Ġproperties	113086
Ġmedical	113032
px	112775
Ġsense	112753
ĠCity	112646
čĊĠĠĠĠ	112624
Ġbook	112608
Ġaddress	112599
My	112495
Ġ...	112412
Ġgenes	112374
__	112365
Ġfollow	112176
Ġ	112168
}}\	111971
Ġevents	111895
Ġpolitical	111894
ĠMay	111848
array	111557
Ġfront	111426
60	111184
Ġeffective	110975
Ġconst	110876
ĠWith	110597
///	110511
])	110431
Ġtypes	110366
Ġwhite	110338
Ġeverything	110326
Ġlanguage	110149
Ġprimary	110045
Ġinside	109759
Ġelement	109656
Ġstop	109646
Ġsubject	109547
Ġlonger	109536
Ġinput	109518
Ġphysical	109504
86	109473
Ġfeatures	109255
from	109247
ED	109114
Ġdetermine	109092
Ġdate	109073
mm	109029
with	108786
Ġeasy	108779
Ġpresented	108719
ĠÂ±	108572
($	108544
Ġquite	108521
Object	108506
At	108431
Ġidentified	108379
Ġ40	108254
ER	108250
36	108233
sp	108224
Ġjudgment	108075
Ġbad	108050
Ġrespect	107930
Ġrunning	107833
Ġsamples	107788
hi	107785
ance	107714
})	107675
Ġ||	107674
Ġbasis	107646
Ġ//	107632
Ġformer	107622
Ġcross	107583
34	107572
Ġcreated	107552
..	107437
Ġisn	107400
Ġwanted	107178
=\	106907
Ġfollows	106877
Ġ60	106768
Ġground	106507
tor	106458
dd	106425
se	106415
Âĥ	106353
73	106328
lo	106257
Ġpersonal	106242
Ġstatement	106229
Ġareas	106203
Ġparameters	106186
all	106179
Ġmember	106109
Ġ$$	106066
Ġago	106031
ip	105832
Ġ22	105817
72	105726
ally	105575
Ġarray	105505
ro	105466
+\	105416
nc	105312
Ġweeks	105131
âĢĲ	105019
Ã©	105019
Ġdirectly	104932
Ġelements	104925
Ġoutput	104882
old	104773
Ġstatus	104696
ĠLicense	104559
ha	104458
mb	104393
Ġinitial	104373
Ġquestions	104341
hr	104323
private	104270
Ġred	104257
ir	104243
54	104210
ĊĊĠĠĠĠĠĠĠĠĠĠĠĠĠĠ	104192
ad	104172
Ġrelationship	104077
Ġnatural	104068
ut	103967
53	103806
Ġcolor	103797
82	103751
bf	103598
function	103595
Ġtraining	103549
let	103494
Ġgames	103448
net	103338
Ġtheory	103321
cal	103315
Ġforce	103257
Ġmemory	103140
83	103101
ul	102940
Ġmice	102926
ting	102865
58	102865
Ġsearch	102857
Ġrest	102752
Ġtax	102751
chi	102663
Ġacid	102657
res	102583
Ġvideo	102527
Ġ&&	102514
}$,	102513
Ġindex	102410
Ġ(\[	102295
ur	102229
\\	102133
rangle	102084
not	101947
Ġco	101938
ary	101896
tilde	101686
ei	101581
za	101550
Ġbehind	101448
Ġbuilding	101406
ĊĠĠĠĠĠĠĠ	101315
Ġnews	101266
Ġdeal	101097
me	101041
ĠDNA	101001
tu	100845
Ġdifficult	100770
Ġapplied	100721
Ġgreater	100718
62	100703
84	100658
ct	100657
psi	100651
ec	100644
}(\	100593
".	100553
Ġlimited	100468
";	100450
File	100431
Ġwrong	100408
Ġunit	100383
ide	100309
Ġrequest	100096
Ġpreviously	100058
ĠSuppose	100038
Ġsaw	100016
74	99966
js	99874
Ġmonth	99870
max	99860
Ġreduced	99791
Ġgas	99752
Ġincludes	99698
Ġdistrict	99598
val	99595
Ġrelease	99561
Ġdrug	99548
63	99437
Ġability	99357
sub	99343
81	99302
ase	99293
Ġinvention	99289
42	99001
ÃĤ	98890
{{\	98772
Ġknowledge	98693
Ġdeveloped	98663
field	98648
cdot	98545
be	98513
\])	98494
Ġclaims	98422
Ġarticle	98334
Ġoil	98333
Ġlayer	98195
:**	98187
Ġindependent	98160
ble	97983
Ġstyle	97950
Ġimpact	97938
ĠCD	97901
Ġrequire	97787
ĠTherefore	97688
Set	97631
Ġcharacter	97562
Ġcontact	97526
Ġetc	97520
Ġmap	97437
over	97368
Ġflow	97364
Ġnational	97347
93	97305
Ġcontinue	97292
38	97172
};	97170
Ġsoftware	97121
ps	96961
ĠOur	96857
ĠAct	96796
ĠJohn	96742
Key	96720
06	96623
Ġnegative	96615
ĠPresident	96589
By	96555
Ġplayers	96539
Ġcontext	96436
Ġnumbers	96392
Ġcoming	96361
Ġcut	96358
Ġwritten	96307
().	96225
Ġfollowed	96182
92	96112
Ġbuild	96065
ty	96058
Ġparticularly	96039
}$.	95974
Ġleave	95971
gl	95961
Ġreference	95729
Ġstatic	95688
ĠCounty	95638
Ġbar	95515
red	95497
07	95436
Ġdirect	95365
![	95251
Ġ23	95246
Ġobtain	95240
Ġword	95173
59	95077
Ġ2012	95057
Ġsecurity	94928
Ġnature	94867
like	94789
Ġwar	94739
top	94693
ba	94692
(-	94671
Ġactive	94626
Ġmessage	94482
)}	94432
base	94426
Ġcorresponding	94344
Ġentire	94336
79	94252
Ġwrite	94230
Ġtitle	94226
ms	94209
tic	94132
static	94112
Ġspecies	93933
Ġusually	93921
per	93909
Ġblock	93900
go	93871
71	93850
that	93811
ca	93783
Ġnote	93760
bi	93684
ĠII	93659
ka	93610
Ġrates	93610
Ġdifferences	93595
89	93555
lib	93496
ĠHis	93473
Ġliving	93470
so	93455
ac	93452
ical	93371
Ġoffice	93328
Ġalthough	93237
user	93136
item	93111
Ġwhose	93053
ful	93021
Ġanswer	92964
Ġrule	92936
Ġpractice	92922
ĠSince	92895
Ġtried	92884
Ġhold	92857
Ġ[*	92846
der	92816
One	92720
She	92637
Ġonline	92601
Ġlate	92581
he	92520
ative	92396
Ġargument	92275
Ġprivate	92201
Suppose	92190
ĠWorld	92167
Ġgenerally	92122
Ġlost	92108
Ġrecently	92041
Ġ2013	91965
44	91926
Ġforward	91755
AL	91648
Ġlegal	91636
Ġthemselves	91627
document	91519
Ġanyone	91467
Ġ2016	91410
Ġhope	91403
Ġplaintiff	91323
39	91302
Ġglobal	91294
Ġsaying	91290
Ġfederal	91290
ĠWhile	91288
Ġtakes	91238
Ġcountries	91201
76	91176
Ġproposed	91144
ĠAmerica	91128
else	90994
Ġagreement	90895
ga	90894
Ġpurpose	90892
Ġpain	90835
ĠHouse	90736
ĠHere	90666
Ġ28	90542
Ġsituation	90528
ted	90525
ING	90512
Ġ2014	90495
Ġshare	90487
ĠFig	90485
Ġdensity	90435
ĠSouth	90407
48	90405
003	90274
Ġbrain	90270
NS	90160
Ġtreated	90147
ĠMarch	90034
See	89952
Ġhimself	89806
un	89778
37	89630
ner	89602
ap	89553
Ġcenter	89525
43	89480
90	89441
ise	89360
Ġland	89321
..."	89007
$$	88989
ĠChina	88959
land	88793
state	88757
Ġmicro	88722
Ġbecame	88662
95	88658
epsilon	88650
Ġcharge	88636
Ġenvironment	88606
91	88568
Ġpretty	88351
Ġways	88318
52	88184
Ġrelative	88164
ĠSome	88105
bb	88095
41	88068
Error	87931
Ġoffer	87799
Ġtalk	87729
Ġprice	87623
Ġfailed	87578
Ġpublished	87527
Ġ2015	87353
ya	87346
ĠDepartment	87332
Omega	87292
varepsilon	87268
cc	87236
Gamma	87159
Ġwoman	87143
ĠString	87141
Ġhighly	87136
ĊĊĊĊ	87120
ite	87103
op	87054
Ġlimit	86965
Ġfocus	86940
Ġact	86905
Ġ/>	86837
Ġfindings	86833
Ġderivative	86791
ci	86587
Ġallowed	86334
Ġdegree	86311
br	86299
ler	86246
Ġgave	86145
ĠNorth	86106
Ġcontract	86068
mo	86047
Ġdouble	85991
Ġlarger	85976
Ġmeasured	85942
Ġdesigned	85920
Ġbring	85818
ities	85788
Ġinter	85782
Ġprime	85734
index	85636
Ġstage	85634
Ġjury	85609
Ġart	85594
ex	85528
om	85447
Ġconstant	85370
Ġindividuals	85353
Ġdefault	85335
use	85298
Ġwasn	85281
Ġeveryone	85275
Ġdetails	85268
)=	85243
ĠNot	85217
Ġselected	85042
Ġcurrently	84978
Ġoperation	84969
Ġalone	84960
ĠHow	84949
Ġcaused	84945
75	84893
Ġmoment	84754
Ġfriends	84653
ĠLa	84646
Ġproteins	84621
Ġimages	84515
Ġinstance	84489
ĠOR	84485
Ġcomponent	84431
ĠGeneral	84431
ping	84410
Ġgives	84306
Ġbreak	84297
sm	84244
Ġeyes	84223
Ġbehavior	84181
Ġask	84145
title	84135
Test	84105
off	84100
Ġratio	83949
Ġattention	83947
.'	83890
Ġcomponents	83736
ĉĉ	83718
Ġdirection	83699
61	83674
map	83615
Ġ2011	83579
56	83571
ĠJune	83539
Ġchoice	83476
Ġrequires	83295
###	83289
ists	83273
Ġsent	83178
Ġappropriate	83171
}}$	83165
Ġcompanies	83114
Ġmatrix	83113
Ġ2010	83068
Ġhttp	83019
Ġbegan	82993
Ġknew	82981
str	82971
Ġ:=	82968
Ġlocation	82932
fn	82922
ĠDo	82874
Ġfixed	82871
ep	82852
ast	82796
Ġen	82771
ĠNow	82713
Ġscale	82701
Ġleading	82633
Ġfine	82624
Ġhit	82574
ni	82562
Ġseem	82492
Ġled	82471
ĠFirst	82429
les	82364
Ġmother	82322
They	82276
Ġpass	82251
57	82235
Ġnode	82191
Ġmanagement	82149
Ġfinancial	82072
struct	82046
Now	82012
Ġfrequency	82002
70	81994
color	81956
rt	81933
Ġ[**	81917
Ġ26	81909
Ġfailure	81903
app	81857
Ġeducation	81830
Ġ?	81828
Ġ2017	81742
čĊĠĠ	81724
way	81696
ab	81591
Ġusers	81575
46	81563
Ġunique	81526
ley	81504
Ġtechnology	81487
lt	81443
From	81433
Ġcentral	81428
pe	81318
Ġson	81284
yl	81238
55	81187
Ġdivided	81074
Ġcontains	80981
(),	80961
Ġcompletely	80956
Ġheat	80955
Ġgoal	80936
Ġincreasing	80932
ay	80928
graph	80798
ko	80724
Ġcosts	80724
Ġlack	80677
Text	80576
Do	80564
Exception	80415
Ġhost	80384
cm	80367
ence	80309
Ġwin	80234
Ġindustry	80226
Ġparts	80208
Ġpattern	80070
Ġsuggest	80062
Ġparties	80044
sc	79922
free	79917
Ġearlier	79844
view	79746
ST	79674
Ġstress	79663
Ġdistance	79657
Ġfiles	79647
After	79627
Ġequal	79547
Ġexpressed	79503
Ġuseful	79502
ĠIS	79481
99	79409
led	79401
ĠAlthough	79336
izing	79311
Ġoverall	79310
An	79287
Ġoption	79269
varphi	79247
ĠJanuary	79242
ĠApril	79234
Ġconnection	79218
49	79093
Ġstated	78984
Ġgenerated	78973
Ġestablished	78967
Ġsupported	78962
Ġallows	78941
51	78931
Size	78922
ĊĠĠĠĠĠĠĠĠĠĠĠĠĠĠ	78876
Ġdevices	78849
py	78804
day	78799
Ġ90	78729
ability	78719
Ġweb	78713
Ġeasily	78704
Ċĉĉĉĉĉ	78654
ons	78637
čĊĠĠĠĠĠĠĠĠ	78633
Ġstay	78624
sim	78502
94	78502
ĠJuly	78435
Ġmode	78411
Ġorg	78395
Ġsites	78371
Ġoptions	78365
back	78342
ĠLe	78308
Ġreasons	78167
fi	78121
Ġcontaining	78114
Ġapply	78046
Co	78011
());	77975
='	77968
Ġfinding	77948
Ġsoon	77935
App	77926
Info	77880
Ġreduce	77876
va	77839
CH	77765
Ġhighest	77687
ile	77677
Ġcritical	77677
Ġmeasure	77654
Ġserver	77649
Ġlocated	77635
"><	77621
term	77611
Ġcount	77482
Ġproduced	77448
Ġfire	77420
Ġeconomic	77354
Ġactivities	77342
ins	77322
47	77231
Ġcorrect	77191
ĠCir	77160
)$.	77134
Ġstaff	77107
Ġfelt	77077
ĊĠĠĠĠĠĠĠĠĠ	77072
Ġfiled	76992
ĠWest	76924
Of	76919
Ġrelevant	76914
._	76903
Ġparameter	76842
)^	76817
Ġclearly	76809
Ġvs	76757
){#	76749
Ġauthors	76680
Ġ80	76621
Ġskin	76556
Ġcopy	76507
dev	76491
Ġopinion	76383
Ġ27	76353
ish	76316
Ġappeal	76260
Ġactual	76170
ĠGo	76140
Context	76071
.\	75981
State	75937
}_{\	75916
\<	75906
Ġwriting	75904
link	75874
Ġshowing	75831
Ġsign	75816
Ġvariable	75810
\'	75765
Ġwebsite	75727
Ġpresident	75716
87	75653
Ġlink	75582
Ġbrought	75567
\].	75555
Ġinjury	75551
Ġunderstanding	75473
overline	75451
mer	75444
Ġ($	75419
box	75405
Item	75389
Ġsmaller	75315
ĠOr	75273
});	75265
Ġchanged	75242
Ġboard	75228
Ġgoes	75227
Ġexperiments	75164
nn	75146
Ġreceive	75131
Ġlearning	75124
"/>	75093
Ġhands	75035
langle	74986
Ġappears	74879
operatorname	74861
Ġextra	74812
ui	74808
vec	74757
True	74699
Ġuses	74696
Ġnotice	74675
Ġlooks	74623
Ġheard	74596
Ġ;	74584
Ġstore	74579
Ġremains	74554
Ġbeyond	74534
Ġdoor	74517
Ġculture	74505
['	74503
Ġcomputer	74487
Ġrules	74458
cr	74363
Ġfast	74307
ze	74293
Sh	74243
Ġcouple	74189
Ġplease	74177
Ġbuilt	74156
Ġ2008	74139
ors	74123
Ġmeet	74101
Ġwide	74090
ue	74067
*.	74031
Ġmorning	74021
Ġhearing	74006
Ġ70	73954
node	73935
Ġlooked	73873
Ġtumor	73854
Ch	73844
Ġturned	73788
');	73708
input	73707
Ġworked	73703
assert	73666
ON	73617
Ġtowards	73613
Ġ->	73596
ard	73544
ĠSystem	73457
Ġcampaign	73456
Path	73443
Ġmajority	73421
ten	73348
Ġones	73316
ĠAND	73303
ier	73217
Ġappear	73208
Ġvector	73178
ology	73111
Ġdecided	73094
Ġ<<	73059
Ġproduce	73056
Ġitems	73051
Ġbox	73043
ped	73039
Ġmet	73027
Ġfall	72999
68	72988
Sec	72954
Ġregarding	72894
Ġbinding	72886
Ġ29	72879
Ġtherapy	72867
Ġvariables	72849
Ġsuper	72846
ĠAl	72826
Ġmatch	72795
image	72771
Ġlearn	72746
Ġdisplay	72741
Ġfully	72708
Ġbenefits	72705
Ġimprove	72704
length	72688
Ġexcept	72662
java	72645
Ġspeed	72627
Ġconcentration	72613
Ġtissue	72567
004	72556
Ġexists	72556
66	72439
Ġparents	72397
IN	72391
Ġmilitary	72390
group	72389
Ġreports	72383
true	72314
}^{\	72282
":"	72268
Ġresulting	72223
ĠHealth	72222
Ġtransfer	72095
Ġfather	72069
ĠDistrict	72044
big	72017
Ġexactly	72013
':	71999
android	71952
ĊĊĠĠĠĠĠĠĠĠĠĠĠĠ	71943
Ġpoor	71902
Ġcontrast	71878
Ġprevent	71868
New	71821
Ġindicated	71813
Ġinfection	71789
ks	71742
Ġrandom	71655
Ġwrote	71646
Ġ2009	71605
Ġnor	71599
Ġmedium	71599
Ġinteresting	71544
ĠPhys	71539
Ġlinear	71538
ev	71518
Ġsafe	71511
ĠAugust	71493
)).	71428
ĠFrom	71358
Ġvolume	71356
Ġsetting	71346
Ġcommand	71319
ĠDi	71307
ug	71295
TA	71222
Ġapp	71151
Ġmaterials	71080
Ġreading	71072
Ġ31	71070
Ġplayed	71069
content	71055
Ġadministration	71023
Ġvehicle	70964
nbsp	70894
ĠOctober	70846
Ġzero	70758
db	70753
Ġavoid	70738
Ġgets	70727
info	70677
Ġmeeting	70640
Here	70568
*~	70564
Ġseparate	70500
Ġfeature	70500
ĠPM	70499
mi	70493
Not	70486
which	70481
gi	70369
ĠData	70306
Ġreaction	70274
Ġscore	70265
Ġproof	70222
ĠSeptember	70160
Ġreasonable	70156
Ġconstruction	70147
ĠTO	70106
Ġvisit	70101
Ġauto	70059
$(	70040
Ġinternal	70038
Ġapplications	70034
Ġfit	70016
65	69989
ĠDecember	69985
ina	69970
Class	69969
form	69957
}=	69955
Ġ);	69915
Ġstarting	69912
ĠSan	69873
men	69865
Ġlives	69852
Ġthroughout	69842
Ġ!	69811
Ġparticipants	69782
Ġchance	69767
cl	69670
Ġnoted	69650
Ġexist	69646
Ġ95	69645
Ġprocesses	69611
Ġdamage	69606
Ġformation	69583
Ġregions	69563
Ġdrive	69539
Ġmaximum	69504
Ġ</	69497
96	69491
Ġmin	69434
Ġsafety	69420
)*	69382
*-	69307
Ġformed	69292
Ġfields	69292
ations	69275
rightarrow	69246
Ġconnected	69217
Ġ2018	69213
Ġbecomes	69208
Ġclosed	69204
Ġplayer	69195
Ġinternational	69181
dy	69158
Ġerr	69141
error	69003
we	68977
Ġdis	68975
Ġsources	68947
ĠÃĲ	68937
Ġdomain	68930
*)	68929
Ġrevealed	68910
ĠIN	68876
Ġfriend	68855
67	68851
Ġinteraction	68810
OR	68797
ger	68796
II	68784
ĠUSA	68722
Ġphone	68720
****************	68686
Ġsex	68682
Ġbackground	68640
Ġinfluence	68609
ret	68522
her	68484
dot	68457
Ġtests	68454
ls	68412
Ġ^	68375
Ġle	68240
que	68234
Ġfunctional	68190
Ġequation	68172
Ġbasic	68158
Ġimmediately	68130
97	68124
Ġtask	68092
ĠCenter	68082
Ġotherwise	68078
ĠUn	68056
zi	67956
gen	67943
Ġcollection	67939
eg	67923
ds	67897
|\	67885
ĠRe	67810
Ġreleased	67755
Time	67754
Ġreduction	67729
La	67726
AS	67718
Ġ(\	67658
AP	67655
Ġresistance	67593
ĠIL	67584
ĠNovember	67564
Ġtoward	67551
Ġopportunity	67517
Ġdefense	67509
False	67500
Ġpaid	67452
Ġmechanism	67435
Ġgiving	67434
ible	67401
php	67343
Ġcombination	67310
Ġdi	67241
Ġ32	67216
using	67186
Ct	67170
)$,	67144
ium	67110
im	67094
vi	67087
Ġstar	67076
SC	67065
ĠMore	67044
Ġroad	67040
Ġhospital	67015
Ġcounsel	67015
Ġidentify	67007
Ġconsistent	67004
ĠWar	66990
ĠWashington	66987
Ġactions	66974
url	66959
Ġdefine	66920
Ġfigure	66909
but	66866
SE	66838
Ġsuccess	66805
Ġrelatively	66798
Ġblue	66781
Ġdeep	66752
Ġtesting	66731
mathfrak	66726
Ġten	66705
Ġsometimes	66660
)-	66644
Ġchar	66634
Ġforms	66575
geq	66567
}}_	66525
Ġsolid	66492
Ġrace	66365
related	66361
ow	66300
LL	66293
Ġquickly	66292
^{(	66281
Ġhot	66275
Ġwall	66240
Ġensure	66232
Ġplant	66221
Ġtool	66165
77	66127
ĠOf	66112
Ġthinking	66079
Ġcomment	66046
Ġmiddle	66041
Ġprove	66033
Ġcolumn	66031
Ġchoose	66029
ĠMoreover	66025
TE	66019
Ġresources	65918
Node	65881
Ġmyself	65879
Ġroot	65694
Ġ(**	65694
Ġradio	65684
Ġplaying	65678
Ġmulti	65653
Ġtrade	65621
Ġnearly	65618
body	65583
Ġsound	65575
SS	65573
tri	65530
Ġbenefit	65519
Ġonto	65509
sl	65475
Ġportion	65451
source	65428
ess	65425
Ġmovement	65425
ny	65422
ĠSection	65411
Ġproviding	65403
rc	65390
Ġdetected	65371
Ġhappened	65355
Ġmoved	65353
Ġconducted	65323
Ġitem	65320
Ġagree	65312
Ġhair	65299
ised	65255
Ġready	65247
ver	65230
ĠObama	65225
Ġque	65221
ho	65209
Code	65187
style	65178
Ġmoving	65164
Ġcore	65137
Ġregular	65110
ĠId	65078
Ã¡	65055
##	65046
read	65026
,-	64996
Ġhappen	64984
Ġstand	64983
gg	64982
Ġexisting	64977
ĠSchool	64971
ĠBecause	64971
ĊĊĠĠĠĠĠĠ	64966
Ġobjects	64940
Ġreach	64932
Ġprocedure	64914
Ġdaily	64859
Ġcover	64790
]:	64761
ph	64754
Ġcalculated	64731
ii	64705
err	64692
######	64657
Ġdatabase	64635
Ġbuy	64623
Ġsteps	64618
quad	64590
Ġanimals	64584
Ġfacts	64578
Ġremove	64572
[]	64505
Ġchannel	64494
GA	64472
ĠTable	64471
Ġwindow	64468
ĠPat	64458
ĠCalifornia	64442
Ġindicate	64419
())	64418
Ġyourself	64417
Ġtown	64373
ber	64363
Ġattack	64323
Ġfun	64296
Ġdemonstrated	64263
Ġupper	64251
Ġnearest	64224
ES	64208
den	64201
Ġworth	64163
har	64135
start	64119
0000	64107
Ġdocument	64101
Color	63958
TI	63925
čĊĠĠĠĠĠĠĠĠĠĠĠĠĠ	63923
ĠApp	63900
Ġ__	63888
Ġserious	63849
RA	63808
Be	63803
fe	63802
ging	63799
Ġbottom	63791
Ġremain	63725
Ġunits	63721
%,	63697
Ġexpect	63690
85	63668
Ġperfect	63666
Ġdefinition	63593
Ġcomments	63545
Ġfinally	63503
Ġremember	63492
Ġcom	63433
.[	63392
Ġsort	63392
NG	63381
Yes	63351
Ġseven	63342
Ġcarried	63294
script	63272
\],	63266
Ġcapacity	63262
art	63242
Ġplaced	63188
Ġsufficient	63161
Ġmg	63153
Ġprocessing	63130
Ġremoved	63115
98	63104
Ġreplacement	63083
Ġmanner	63057
result	63049
Ġmachine	63027
ĠBe	62971
78	62970
Ġclient	62943
Ġvariety	62938
ĠWhite	62906
Ġemail	62816
Ġwife	62813
count	62795
Ġrepresent	62795
Ġsets	62776
Ġhear	62755
Ġmagnetic	62749
Index	62713
[^	62712
Ġshape	62690
';	62657
500	62633
ak	62622
qu	62613
Ġsh	62597
tra	62581
ĠRi	62577
Event	62548
ĠÂł	62470
Ġnice	62451
)**	62400
ĠAlso	62346
\,	62324
Map	62305
Int	62235
core	62110
]\],	62083
Ġsuggested	62079
ml	62062
Ġbeginning	62030
Ġselection	61921
ĠFigure	61839
rr	61812
config	61810
System	61779
Ġoperator	61763
Ġwidth	61742
ĠFebruary	61742
Ġprograms	61737
CC	61627
cap	61625
Ġ2007	61615
Ġnamed	61595
row	61575
ĠBoard	61529
Ġworkers	61524
Ġhealthy	61507
MS	61505
Ġincreases	61439
Ġcomparison	61432
002	61392
Î±	61330
object	61319
ĠMan	61300
bm	61296
Ġsend	61275
Ġdistributed	61273
Ġexposure	61242
Ġdetection	61236
Ġgreen	61225
Ġeye	61224
LA	61223
ĠPublic	61177
ĠCI	61153
Ġbegin	61124
NT	61123
ĠRev	61083
ĠNULL	61081
Ġletters	61059
api	60997
Ġpassed	60996
Ġplaces	60991
Ġdark	60977
Ġscreen	60968
Ġmaybe	60966
ĠEuropean	60954
ai	60948
Ġmeasures	60948
RI	60946
Ġresponsible	60934
nce	60932
Ġdiscussed	60929
ĠAM	60909
Ġdrugs	60885
Ġsave	60865
Ġdevelop	60830
Ġex	60826
88	60812
Ġapproximately	60739
Ġdes	60713
len	60705
Ġpicked	60698
ĠHer	60697
Ġactivation	60674
ah	60665
IC	60665
ere	60622
Ġcharacteristics	60611
ĠIndia	60605
Ġincome	60588
Ġinsurance	60581
Ġsymptoms	60543
IT	60530
Ġletter	60500
page	60486
ified	60432
Ġ200	60420
CA	60401
005	60391
point	60346
Ġ35	60286
ĠResearch	60274
SA	60268
IP	60265
Ġcircuit	60263
ĠEven	60234
Ġedge	60230
Ġstructures	60199
Ġmodern	60155
âĢ¢	60139
Ġtalking	60139
ice	60134
ana	60098
Ġframe	60079
Ġchallenge	60078
NA	60053
Ġheight	60053
Image	60010
Ġessential	59994
Ġmale	59975
Ġround	59961
}}(	59946
Ġcontinued	59916
Oh	59877
Ed	59877
dir	59830
Ġ\<	59814
Ġperform	59811
ef	59731
ND	59709
čĊĉ	59668
ĠGa	59647
ĠRed	59643
ĠID	59619
Ġeight	59611
ĠUK	59610
Ġinvestigation	59606
src	59580
Ġassume	59569
std	59562
Ġeffort	59557
Date	59529
((	59465
Ġtestimony	59451
Ġpanel	59425
Ġhappy	59422
Request	59413
ron	59360
ĺ	59306
Ġstuff	59244
ix	59224
xe	59209
Ġreturned	59200
ae	59191
)/(-	59132
Ġpick	59078
print	59065
Ra	59051
Ġstock	59041
Or	59037
ane	58946
ft	58890
Ī	58887
"},	58850
fa	58831
Ġpopular	58820
CT	58809
Ġkids	58779
ĠCal	58753
CE	58742
Ġproper	58735
are	58626
Ġtruth	58620
Ġtree	58609
OS	58608
down	58604
ĠDe	58602
Ġwatch	58600
tc	58590
ij	58559
Ġexercise	58541
ĠGet	58537
Ġrow	58524
wa	58522
Ġpair	58495
","	58467
/(-	58400
ĠPaul	58359
Ġpress	58294
Ġwait	58245
Ġconduct	58229
Ġcouldn	58211
ĠFurthermore	58196
Ġtrans	58193
Ġmusic	58188
ĠCa	58163
Ġauthor	58133
ĠSch	58096
Ġwalk	58086
Ġspent	58023
num	57992
pa	57978
ĠEnglish	57951
Ġplans	57943
Ġspecifically	57940
Ġsurgery	57930
^*	57916
Ġtransition	57908
ÂŃ	57907
port	57865
Ġfamilies	57852
Ġdenied	57847
default	57844
dr	57824
Ġcontain	57795
ning	57783
Ġserve	57768
pp	57742
model	57741
Ġsolutions	57741
Ġplus	57709
Ġ2000	57694
ĳ	57679
AC	57651
Ġalternative	57619
Ġtested	57616
Ġstrategy	57600
Ġcareer	57571
Ġofficials	57559
Ġcycle	57543
Ġ\,	57501
dl	57488
Ġdead	57465
Ġwants	57430
Ġspin	57403
Ġmentioned	57389
ldots	57342
Ġupdate	57314
bl	57299
Ġstrength	57289
ĠCongress	57269
Ġelection	57264
Ġinterface	57247
ĊĉĠ	57241
St	57239
ates	57193
hip	57182
Array	57160
**)	57160
IS	57142
Ġmid	57139
Add	57094
LE	57084
ĠInternational	57079
Ġbill	57038
tan	57021
bit	57019
Â¾	56994
However	56988
ĠTi	56958
Ġsleep	56949
Phi	56942
Ġload	56932
Ġprepared	56930
200	56922
dt	56915
Ġaffect	56910
Well	56902
While	56890
Ġleads	56854
Calculate	56847
Ġdespite	56847
Ġofficial	56825
Ġnil	56797
init	56796
------	56773
]^	56731
create	56718
Ġ~	56714
Ġ64	56714
Ġstudied	56639
Ġfemale	56621
Ġ2006	56615
Ġsummary	56596
çļĦ	56592
Ġimproved	56542
Ġstudent	56526
Ġnuclear	56460
Ġtypically	56444
Ġmetal	56422
char	56391
ain	56386
Ġexplain	56366
ĠCode	56353
Ġwave	56351
Our	56339
Ġcombined	56337
prime	56320
Ġprotect	56291
Ġnone	56285
height	56256
Un	56255
ĠHigh	56253
bo	56238
Ġsurvival	56233
Ġsuccessful	56209
CD	56207
Ġgrowing	56188
Ġexperimental	56180
ĠMS	56164
cs	56099
Ġmeaning	56070
Ġuns	56066
Ġcommunication	56066
action	56060
Ġcontrols	56049
Ġvote	56037
Ġagent	55997
break	55981
Ġunless	55980
Ġbound	55941
Ġoccur	55933
where	55870
Ġconfirmed	55829
Ġattempt	55792
ĠNews	55787
Ġpiece	55778
Ġkilled	55763
cy	55734
Ġminimum	55717
ification	55696
has	55692
ĠNi	55691
version	55686
cell	55682
ĠYour	55675
Why	55671
can	55662
Ġshot	55658
RT	55643
specific	55625
Model	55609
ino	55582
Ġguy	55569
Ġhour	55554
Ġmolecular	55546
Cr	55532
},\	55504
Ġsociety	55490
Ġinduced	55437
User	55436
Ġforeign	55428
Ġperhaps	55423
Ġwouldn	55421
Ġball	55391
github	55379
func	55350
RE	55328
Ġagreed	55315
Count	55267
ov	55240
Ġraised	55234
Ġanalyzed	55232
Ġcircumstances	55224
han	55202
Ġprofessional	55178
Ġassociation	55164
Ġcalls	55143
font	55135
Ġreached	55129
Ġwhereas	55125
Ġ75	55120
ĠTV	55117
MA	55111
Ġbillion	55111
Ġjudge	55106
Ġoperations	55103
lin	55099
Ġsum	55080
Ġaffected	55057
Service	55054
Ġchain	55051
Ġdied	55048
Ġfeet	55035
col	55027
Ġliquid	55011
ĠDavid	54966
otimes	54944
Cl	54909
Ġlinks	54888
Ġofficer	54869
:"	54861
ģ	54841
Ġemployees	54830
Ġpackage	54773
Ġcauses	54750
Ġclasses	54721
Ġtools	54708
Ġentry	54590
Ġcounter	54561
Ġnames	54555
¡	54538
Ġprobability	54510
Ġjava	54494
Ġkept	54487
Ġ(!	54453
Ġmental	54430
ious	54417
Mo	54410
Ġcredit	54400
ĠAm	54385
Ġefforts	54367
Ġhuge	54352
Ġcriminal	54313
Ġcollected	54309
check	54304
Ġsentence	54280
Ġtraditional	54258
ding	54205
boldsymbol	54182
Ġ56	54175
local	54160
Ġoccurred	54141
Ġvoice	54140
Ġcorrelation	54088
ert	54058
Ġintroduced	54034
ud	54026
AR	54011
Ġsuggests	53969
Ġdiscussion	53947
Lambda	53903
Ġtrust	53903
EL	53902
Ġrelation	53853
Ġcertainly	53832
Ġestimated	53801
Ġparent	53793
open	53786
Ġtechniques	53771
ĠPark	53768
Ġexplained	53735
Ġdiagnosis	53668
Ġstation	53649
lit	53645
Ġsc	53645
Ġ("	53640
^[@	53616
ics	53610
Sigma	53606
Ġgone	53586
Ġgeneration	53563
Ġmovie	53561
level	53533
sin	53500
Ġabsence	53498
ĠLondon	53455
Ġprotection	53453
Ġsexual	53447
ual	53436
ĠNote	53426
Ġstatute	53401
Ġsummer	53398
Ġphoto	53379
Ġremaining	53338
ĠMost	53336
Ġappellant	53315
Ġstorage	53275
ek	53267
Ġforces	53262
Ġwhom	53260
ĠCan	53250
wi	53229
ł	53195
Ġhandle	53119
Ġalgorithm	53068
Î²	53040
fs	53036
Ġbiggest	53034
Dr	53024
ara	53006
ĊĊĉĉ	52997
uint	52991
Ġlog	52971
']	52968
Ġrequirements	52892
Field	52888
Ġbed	52802
Ġrecords	52789
Ġmodule	52787
Ġ((	52774
reg	52729
Ġband	52715
PA	52692
Ġgun	52685
ib	52646
Ġ65	52625
Ġpro	52586
Ġclean	52571
ĠPC	52570
Ġolder	52530
block	52523
Ġhttps	52468
NO	52461
({\	52442
Ġfear	52425
Ġ2005	52395
Ġlaws	52369
Ġexchange	52369
Ġfloor	52356
Ġserved	52345
date	52336
Ġpicture	52335
ĠDon	52307
ach	52295
AD	52281
Ġ45	52278
Ġadding	52258
Ġbuffer	52253
Ġdescription	52252
Ġborder	52249
Ġ48	52238
Ġoptical	52231
ore	52225
Ġorganization	52224
Ġmissing	52213
Ġextent	52212
Ġsl	52211
Ġoffers	52186
Ġcapital	52185
.](	52173
Ġquantum	52161
US	52133
Ġimport	52114
ri	52097
Ġsevere	52084
Ġwild	52059
eb	52049
our	52043
Ġcreating	52007
Ġscience	51999
Ġbio	51994
Ġbank	51986
Ġloop	51980
Ġsubjects	51963
ĠEast	51951
First	51930
ja	51918
GL	51916
Ġvalid	51889
ĵ	51885
ĠMe	51877
Ġeconomy	51865
Ġpurposes	51860
ular	51838
Bar	51801
Ġanimal	51800
Ġderived	51796
Ġresponses	51763
Ġexternal	51735
*(	51732
Ġideas	51723
}-	51681
ora	51677
Ġschools	51677
Ġmis	51677
ĠGroup	51624
Ġenter	51603
Ġintended	51581
ect	51579
Go	51572
ax	51571
"></	51550
Ġfresh	51548
exp	51540
ĠTexas	51505
ht	51496
induced	51456
Fe	51449
RS	51447
ĠPA	51433
PS	51408
Ġproperly	51389
Ġrepresents	51384
ķ	51378
gs	51362
ĠStreet	51345
006	51306
Ġpoly	51299
util	51293
Ġdecreased	51284
Ġmotor	51275
Ġresolution	51252
main	51243
)?	51232
Ġdirector	51230
era	51226
Big	51180
Ġachieve	51163
Ġselect	51148
mbox	51122
Ġformat	51120
Le	51111
ĠIsrael	51082
Ġ37	51039
con	51015
Ġ-->	50999
nonumber	50991
Ġse	50981
ĠBritish	50971
Ġmechanisms	50963
Ġrise	50957
Ġtrack	50943
Ġvirus	50935
Ex	50909
Ġdoubt	50896
ĠWi	50886
Ġauthority	50884
Ġel	50881
*]{}	50874
Ġfeeling	50845
Ġarm	50845
Ġlargest	50829
ĠSupreme	50829
2015	50828
)"	50814
Ġnovel	50792
ĠEach	50776
Ġsoft	50749
ĠBlack	50712
Ġcold	50701
property	50686
Ġteams	50677
Ġattorney	50669
Ġinterests	50656
ensuremath	50640
ĠEurope	50638
Ġmembrane	50631
Ġsrc	50612
Ġtechnique	50599
ĠCH	50558
čĊčĊ	50555
ind	50537
Ġ""	50525
ub	50521
Ġofficers	50507
Ġcrime	50498
Ne	50463
ster	50443
Ġdie	50434
Ġslightly	50413
_.	50401
Ġcontained	50375
ua	50371
Ġprofile	50360
Message	50298
amp	50295
ray	50278
Ġfoot	50223
aa	50141
DA	50141
ĠFoundation	50130
gn	50108
ĠGu	50097
Ġfight	50079
AA	50076
atic	50070
ĠCouncil	50056
Ġsales	50054
Ġcoverage	50053
Ġguys	50023
ĠPi	49973
post	49972
AT	49964
IA	49895
Ġcharged	49893
Ġopening	49878
Ġ/*	49864
Ġslow	49849
ĠCommission	49827
Ġcharacters	49803
ĠSp	49802
Ġconventional	49758
su	49752
Ġdose	49746
(&	49728
head	49725
Bo	49724
Ġtravel	49712
Ġlatest	49707
ĠPeople	49697
Ġprojects	49695
material	49691
Ġoffered	49691
VE	49674
summary	49669
**]{},	49661
Ġret	49641
Ġholding	49615
Ġannounced	49609
ica	49570
ĠCalculate	49561
cos	49534
ĠCA	49532
ĠBl	49509
SD	49492
Ġshared	49487
Ġnet	49474
ĠCanada	49458
write	49434
ĠGoogle	49401
ĠChinese	49400
Pi	49395
EN	49393
ĠRNA	49364
008	49351
ĠEx	49333
Ġgain	49322
Ġinteractions	49314
Ġentered	49305
Ġagents	49302
âĢĿ.	49262
FA	49253
čĊĠĠĠĠĠĠĠĠĠĠĠ	49233
Ġerrors	49228
Some	49215
Ġsupply	49180
Group	49148
ions	49144
IL	49134
Ġ72	49115
sha	49090
Ġdecrease	49077
Ġdriver	49069
Ġdu	49066
({	49027
.[@	49023
Ġpar	49023
Ġdog	48982
long	48978
AN	48953
Ġanalyses	48952
ify	48949
message	48939
ged	48933
NC	48907
Ġwish	48886
Ġconcentrations	48884
.$$	48875
Ġagency	48848
ĠFriday	48846
kappa	48808
ĠSub	48794
Â½	48780
Ġblog	48773
bin	48758
Ġchronic	48758
run	48722
Ġoutcome	48716
ala	48705
Ġgenetic	48686
Ġscript	48673
'.	48655
Ġexistence	48646
Ġreceptor	48631
you	48629
Ġprogress	48629
Ġdigital	48625
Ġviews	48618
circ	48616
Ġstable	48562
ham	48555
ĠMar	48548
false	48543
Ġfinite	48514
rec	48499
CO	48498
uri	48489
Ġad	48484
Ġplants	48475
Ġcommercial	48473
Ġpossibility	48464
Ġstars	48463
Ġequipment	48455
ans	48448
ĠGreen	48435
Ġexpress	48432
ĠPe	48425
po	48407
ĠEl	48402
Ġdriving	48391
Ġoperating	48387
Ġdrop	48376
ĠQu	48348
Ġgirl	48334
ky	48309
Ġbeautiful	48295
ĠList	48270
board	48269
au	48242
007	48210
Ġpatterns	48210
Ġwhatever	48187
Ġheavy	48180
oid	48174
Ġexperiment	48174
Ġsignals	48160
Ġcompleted	48158
Ġliver	48114
hu	48113
Ġdiseases	48002
ĠTwo	47996
Re	47966
ker	47960
Ġinterested	47955
Ġmobile	47937
Ġstd	47935
°	47917
Ġtransmission	47912
Ġidentity	47901
Ġalleged	47856
ĠJames	47840
ĠNa	47816
Ġreturns	47786
Ġappeared	47748
Ġeat	47724
Ġequivalent	47717
ano	47715
Ġimportance	47712
Ġaren	47688
ring	47658
ĠJust	47658
Ġindicates	47649
Manager	47647
ĠBank	47623
SI	47601
Ġspectrum	47601
âĢĬ	47593
Ġmaintain	47580
ĠSuch	47562
Ġ59	47554
Ġ()	47544
xml	47536
0001	47518
Ġhusband	47514
well	47513
Ġprob	47511
Ġconcept	47481
ĊĊĠ	47473
Ġ2004	47466
TR	47455
og	47454
widetilde	47436
Ġhappens	47434
Ġcontrolled	47427
Ġ36	47423
tar	47366
Ġdemand	47366
Ġgenerate	47365
IR	47360
Ġ+=	47357
Ġruns	47348
Ġsequences	47337
Ġinner	47334
lla	47330
Ġholds	47330
Ġconclusion	47318
mod	47304
Ġstraight	47288
Ġabuse	47274
ĠSC	47269
Ġab	47251
Ġ"[	47244
Ġfootball	47238
zo	47234
nabla	47224
order	47209
current	47182
Ġparticles	47134
ators	47119
ĠMac	47115
ĠFe	47072
cha	47062
Ġconfiguration	47053
Ġfilter	47037
ĠService	47037
Ba	47035
Ġreality	47024
ĠST	47017
ĠGi	47013
Ġ62	47011
End	46965
Ġgrow	46945
ĠWestern	46945
Ġcard	46921
gu	46912
Ġem	46909
Ġdefendants	46907
Na	46887
Ġbalance	46867
Ġ55	46846
Ġplasma	46822
ĠMo	46819
").	46818
Ġ66	46813
ĠBi	46810
Ġsecondary	46800
jo	46793
Ġmeasurements	46784
ĠMonday	46779
Ġreferred	46769
Ġmouse	46740
context	46737
ings	46701
ĠTheorem	46700
first	46697
Ġring	46691
Ġinteger	46689
Ġnoise	46687
ĠAr	46667
format	46637
ens	46633
Sub	46625
\{	46612
oa	46597
endif	46565
Button	46551
final	46545
ĠInstitute	46539
2016	46533
ï¼Į	46519
Ġinterview	46515
Ġrepresentation	46510
Ġcontinuous	46510
Ġseemed	46506
kg	46481
Ġempty	46481
Ġ2019	46478
bool	46459
car	46448
Ġdeveloping	46446
][	46385
Ġdescribe	46382
Ġshift	46314
ji	46287
Ġremainder	46273
Ġspeak	46242
Ġadvantage	46237
ĠLaw	46220
ral	46219
]),	46207
These	46207
ern	46167
2013	46162
Ġnation	46160
ĠIP	46160
Ġstatements	46119
Ġfat	46111
ĠSunday	46107
bs	46091
ological	46081
Ġcatch	46061
2014	46058
ws	46034
ku	46025
ĠBar	46015
Ġquery	45992
ĠBoth	45989
ĠAS	45972
Ġleaders	45968
prop	45967
null	45961
Ġhaven	45959
ĠPa	45939
Ġjobs	45930
Ġliterature	45928
Ġbutton	45914
Ġadult	45910
Ġenvironmental	45899
Property	45890
Ġchemical	45889
ĠNe	45889
Ġcollege	45859
target	45825
Ġ58	45819
MP	45809
Ġ57	45802
Ġapproved	45792
ĠSmith	45729
Ġlatter	45724
AM	45682
ld	45640
ĠHar	45625
Ġcarry	45621
Ġrec	45609
Ġlibrary	45605
Ġissued	45601
ĠCompany	45590
non	45586
Ġsun	45585
lic	45582
Ġclub	45571
Ġextremely	45569
Ġda	45567
inc	45553
})$	45550
ona	45549
Sp	45518
parent	45512
Ġmm	45500
Can	45499
ĠFOR	45497
]{	45481
Ġspeech	45473
Ġborn	45473
Number	45463
Ġplatform	45460
Ġknows	45458
ĠPress	45451
Ġhyper	45450
Log	45447
ă	45434
009	45414
ĠCommittee	45407
Ġsquare	45381
Ġestimate	45365
ĠFacebook	45350
ox	45344
Ġalcohol	45342
ĠArt	45342
ĠRec	45340
2012	45333
Ġ00	45329
Ġleader	45325
Ġbooks	45314
Ġcovered	45301
Ġ500	45296
Ġcharges	45282
Ġserum	45261
Ġ61	45241
Ġahead	45235
Ġaccept	45230
ĠBa	45216
Ġha	45195
Ġexamples	45170
pl	45158
Ł	45155
Ġregulation	45145
ĠMichael	45133
Ref	45129
pc	45102
Ġcool	45101
apache	45097
ied	45076
Ġport	45076
Ġaware	45072
ĠUnion	45035
lang	45011
++	44987
Ġopened	44987
float	44983
vert	44971
Ĥ	44959
Ġguess	44954
ĠJa	44952
ĠHa	44933
Ġsubstantial	44923
king	44921
Ġfluid	44919
eu	44913
Ġchurch	44881
ĠJapan	44874
Ġcustomers	44866
lim	44865
Ġsuit	44851
client	44833
EA	44833
uk	44831
Ġsmooth	44827
range	44824
Ġoccurs	44811
ĠPer	44807
ig	44795
ĠBig	44773
Ġsigned	44768
Ġscene	44754
Ġfish	44749
Ġlose	44747
ĠSl	44738
ĠLeague	44723
Ġexception	44720
Ġ42	44720
Ġcompounds	44690
ĊĊĠĠĠĠĠĠĠ	44640
md	44631
Ġsession	44618
Ġrecorded	44613
Ġdiscuss	44608
Ġdelivery	44597
Ġsw	44585
ene	44584
Ġdecisions	44581
ĠAccording	44579
011	44560
af	44548
Ġ33	44542
Ġexact	44524
Ġcarbon	44515
Ġcalling	44503
ĠKa	44498
čĊĉĉ	44496
Source	44495
UN	44489
Ġreceiving	44477
Ġpowerful	44474
Ġevaluated	44471
Ġdiet	44463
©	44453
du	44444
SP	44440
Ġrel	44411
)*(	44410
Ġallowing	44405
Ġviolence	44393
&\	44385
cat	44358
Ġfair	44357
TT	44354
Ġtransport	44353
Ġnetworks	44353
Then	44351
ľ	44349
event	44345
acy	44337
ale	44334
ĠAmericans	44334
IF	44333
120	44328
Ġleaves	44321
book	44300
Ġpeak	44268
Ġimplementation	44268
Ġextended	44263
Ġoutcomes	44257
Ġextension	44248
ose	44246
.</	44246
2000	44242
Ga	44237
EC	44220
Ġpercentage	44198
Page	44194
Ġconcerns	44191
Str	44182
Ġestablish	44171
Ġsale	44168
Ġleaving	44153
ving	44151
Me	44137
Ġ]	44134
Ġthousands	44133
Ġbirth	44128
Ġsubsequent	44116
Ġassessment	44116
media	44111
Ħ	44106
Ġhelped	44089
Ġfaith	44079
Ġmuscle	44061
Ġmostly	44056
ĠFrench	44049
Ġimmune	44035
nes	44027
ali	44018
Ġevolution	44000
Ġ},	43999
ĠCT	43999
button	43996
Ġtestified	43992
Ļ	43964
Ķ	43935
Ġunderlying	43920
»	43919
Ġefficiency	43907
CI	43887
Ġfix	43868
Don	43849
doc	43842
ĠCollege	43831
Ġ54	43820
Ġflat	43803
zeta	43786
pre	43780
Ġdel	43747
ĠBE	43747
sb	43735
active	43735
cor	43734
iv	43727
Client	43721
Ġ2003	43721
Ġcentury	43703
Config	43690
Ġrepresented	43682
Ġformula	43678
Ġtraffic	43669
Ġ63	43658
dimensional	43654
ĠFree	43630
Box	43629
·	43606
}}_{	43586
Ġgreatest	43578
Ġexamined	43556
Ġbaby	43545
Ġcriteria	43532
2017	43496
}}^	43473
dependent	43453
Ġthank	43451
module	43434
status	43432
,'	43431
Ġlearned	43429
json	43422
Ġarguments	43408
ĠWhy	43384
df	43383
į	43368
Ġeventually	43365
ĠGovernment	43351
Ġowner	43342
mar	43332
Ġ53	43331
Ġplane	43313
....	43298
ĠĊĠĠ	43298
load	43285
dots	43276
ĠAssociation	43263
cast	43243
ĠNOT	43223
Man	43219
}}}	43197
Ġdry	43185
ĠCO	43155
ĠKing	43146
Ġcandidate	43137
Ġvisual	43135
scale	43130
Since	43122
Ġspecified	43117
Ġcurve	43105
Ġbreast	43093
Ġ68	43079
ĠPost	43064
Ġscheme	43056
?âĢĿ	43053
)=\	43033
ĠChrist	43018
Element	43012
Ġworse	43011
lock	42997
Ġvoltage	42975
Ġpositions	42973
}}{	42968
mail	42967
arg	42965
Ġsurvey	42948
ĠChurch	42940
ik	42933
Ġfuel	42920
Ġinvestigated	42919
æ	42912
last	42908
Base	42902
ĠNO	42843
HA	42842
Ha	42833
auto	42827
ĠTuesday	42824
Ġachieved	42818
ĠMI	42795
Ġenjoy	42777
gt	42769
rb	42764
Ġtypical	42764
Ġdepends	42755
ME	42727
Ġpathway	42727
Ġspread	42713
Ġgoals	42703
ĠGermany	42667
ĠScience	42639
Ġgraph	42637
Ġlicense	42631
Ġchanging	42620
kin	42608
Ġglass	42586
Ġspend	42581
Ġpurchase	42574
Ġpolicies	42568
ĠDay	42562
Ġmaster	42559
ĠEq	42553
Ġfilms	42518
TH	42512
Ġprocedures	42504
supplementary	42502
Ġsi	42493
Ġ34	42489
ĠPar	42488
Ġstandards	42487
vo	42480
ru	42479
Cs	42479
.*	42475
ĠUsing	42454
Ġdigit	42445
Ġtrip	42438
ĠâĢ¦	42436
----	42430
Ġmixed	42422
ĠCu	42392
Ġ67	42385
Ġrecovery	42384
ĠOpen	42369
128	42351
Ġapplicable	42321
Ġgranted	42312
Ġcast	42308
Ġcivil	42296
Ġcomplaint	42288
ati	42257
ĠHo	42253
gh	42236
Ġ${{\	42228
request	42183
Ġisolated	42149
ult	42141
Ġquick	42141
}.	42132
ĠAT	42122
Ġmax	42106
ĠTime	42102
Ġfavor	42092
Ġ2001	42087
Ġlimitations	42082
Ġangle	42069
Ġmurder	42060
\*	42059
Ġacts	42055
ĠJudge	42052
Ġseeing	42029
Ġsalt	42026
od	42020
Ġdesired	41972
ĠMany	41965
[\	41961
Ġeasier	41952
Ġevaluation	41941
Ġsubstrate	41909
ort	41905
Ġyes	41904
Ġstanding	41888
Ġ${	41888
Ġcup	41877
ĥ	41875
und	41868
ĠWell	41853
Ġref	41844
Al	41841
Ġindeed	41809
Ġran	41803
Ġstrongly	41795
Ġcustom	41792
don	41776
Ġdef	41776
Ġsections	41774
NE	41764
¢	41754
Ġdetailed	41739
Ġelectronic	41738
DE	41732
Ġinvestment	41730
Ġrelief	41727
mid	41721
Ġfunds	41718
ĠFinally	41716
Ġjoin	41714
Ġinvestigate	41713
Ġobvious	41699
ini	41697
CS	41684
101	41647
300	41635
ulation	41627
PC	41625
Ġfourth	41623
SO	41616
Ġchosen	41589
ĠAd	41589
¥	41560
ĠMa	41559
§	41547
Ġfreedom	41540
ĠLi	41540
ª	41538
2011	41533
Ð¸	41528
ĠDuring	41521
Ġentitled	41512
Ġsell	41504
DI	41498
Ġweak	41482
Ġkill	41460
ven	41453
Ġtrain	41423
Content	41415
Ģ	41401
"}.	41393
Ġmanager	41387
nk	41381
Ġdaughter	41375
ĠTh	41363
Ġmeant	41357
}+	41348
Ġstored	41339
GE	41335
fl	41329
2010	41299
Ġconsidering	41289
Ġassay	41272
Ġduty	41258
Ġconclude	41255
Ġdelay	41251
Ġprint	41242
Ġcommitted	41238
ang	41231
ĠWhich	41228
Ġinstall	41226
Ġdirected	41224
output	41220
author	41220
BA	41211
ĠGeorge	41210
ants	41196
layout	41187
ĠEngland	41187
Ġlo	41180
ĠAdd	41170
ata	41167
ick	41164
Ġskills	41152
Ġmono	41132
Ġprices	41130
'}	41112
ĠMon	41103
Note	41098
Ġ71	41091
Ġthanks	41086
¸	41082
Version	41078
ĠLu	41075
Ġreligious	41067
Ġvictim	41066
try	41065
ĠSu	41059
act	41045
Hi	41042
Ġforced	41033
Ġ99	40995
ĠParty	40990
Ta	40989
ET	40982
ade	40981
Ġdebt	40975
Ġintervention	40973
trans	40971
Ġspot	40961
Ġdocuments	40961
call	40955
DB	40955
Ġstream	40949
FF	40946
Ġlisted	40940
ĠFlorida	40939
Result	40936
Ġpayment	40930
ĠSun	40926
Ġplays	40901
ries	40900
ĠMA	40897
tab	40860
Ġapparatus	40840
¤	40831
ĠUnder	40830
ĠCon	40821
Ġcluster	40820
Ĳ	40818
ĠOther	40797
ĠIII	40792
Ġequations	40786
Ġstories	40783
Ġconflict	40783
Just	40760
EM	40749
Ġplate	40740
ĠFA	40724
Ġfocused	40723
ĠIC	40713
Ġdepending	40712
IO	40704
Ġdetermination	40698
position	40676
Ġconcern	40674
Ġsold	40664
web	40650
)]	40650
ptr	40646
Ġcategory	40639
isation	40635
¯	40622
Ġexcellent	40618
Ġcash	40602
Ġfans	40593
Ġresulted	40583
Ġwaiting	40573
ĠSolve	40564
Web	40553
Ġmeasurement	40504
oe	40502
Ġbrief	40497
£	40496
Ġobservations	40479
Ġclick	40467
Ġsea	40463
Ġpossibly	40456
cdots	40421
ĠAir	40420
Ġbelieved	40410
010	40392
Ġtreat	40364
ĠRussia	40364
oc	40363
match	40354
Ġswitch	40332
ĠMark	40331
Ġregard	40324
Ġ300	40317
yn	40316
%.	40305
DC	40301
Ġsemi	40300
Ġ69	40287
she	40286
Ġ2002	40279
Ġassuming	40277
win	40250
Ġparallel	40237
oh	40227
ĠTest	40211
Ġhousing	40199
mg	40188
Ġversus	40180
tes	40172
light	40164
lan	40160
Į	40156
Ġneither	40151
Ġfees	40104
Ġmodified	40080
Click	40067
Ġtwice	40064
Method	40044
Ġapproaches	40038
Ġdistinct	40036
Ġcommunities	40036
Ġemployed	40024
Override	40011
ŀ	39995
ire	39987
ĠBra	39965
ĠThursday	39963
Di	39956
Ġtouch	39956
ĠHIV	39944
ĠLord	39934
ĠOffice	39933
Ġoffense	39920
Ġneuro	39911
Ġprotocol	39909
Read	39877
Ġplanning	39867
ĠPD	39864
ĠOS	39864
Ġ38	39849
ĠCircuit	39842
Pro	39812
}=\	39799
Which	39796
Ġdamages	39794
Ġconfidence	39790
ĠNone	39787
ou	39779
Ġlabel	39767
MC	39766
2018	39763
PT	39760
ments	39758
des	39746
Filter	39736
LI	39718
ĠSi	39686
Ġfunding	39640
Ġcompare	39640
Ġdetail	39639
ĠWednesday	39633
Ġnodes	39614
img	39609
ford	39609
Ġpush	39604
ĠGe	39598
Ġstreet	39588
Ġhelps	39583
]--[@	39562
ĠSuper	39558
Ĺ	39552
Ġconcerned	39540
ĠTom	39540
Ġscores	39538
Ġduration	39538
Ġaccuracy	39510
ord	39509
Ġefficient	39506
Ġtrials	39486
**]{}	39481
frame	39456
([	39452
ĠSc	39451
ĭ	39449
Ġ96	39442
ass	39440
Ġadvice	39411
ĠPS	39408
Ġscope	39403
Ġsensitivity	39399
section	39397
Ġmainly	39391
ode	39389
Ġstrain	39384
ĠSaturday	39383
According	39378
''	39378
Tr	39372
Ľ	39370
work	39356
istic	39345
Ġbudget	39334
Ġasking	39334
Ġadults	39310
select	39306
Ġ85	39296
Ġrelationships	39287
Out	39276
ĠWindows	39251
Ġboundary	39230
Ġguilty	39226
mon	39220
Ġfirm	39214
Ġ49	39211
Ġexperienced	39210
comp	39209
next	39205
show	39195
ome	39188
Ġinvolving	39184
Rev	39183
ãĢĤ	39176
ĠIT	39161
ition	39153
template	39146
Ġelectron	39145
its	39132
/\	39127
ĠEd	39111
Ġexposed	39101
Ġsignaling	39087
Ġburden	39069
Ġevaluate	39068
Ġexpansion	39061
TC	39058
Ġfan	39058
Ġcontribution	39024
sta	39013
Ġthin	39013
ĠSet	39008
Ġconsent	38991
Ġav	38987
PP	38970
Ġsecret	38962
Ġtend	38960
Ġcoach	38954
ĠJapanese	38948
Ġcapable	38943
Ġresource	38934
any	38929
tin	38921
Ġrich	38921
ĠJesus	38914
Ġideal	38904
Ġcontinues	38898
Ġacute	38897
Ġfinished	38883
**(-	38867
Ġ77	38851
)^{	38847
Ġfundamental	38844
¬	38838
icon	38838
Ġframework	38835
Ġ73	38830
ĠMinister	38827
ĠSha	38817
Ċĉĉĉĉĉĉ	38809
ãĤ	38787
mat	38787
Ġreverse	38784
Ġcomposition	38781
ĠYes	38770
Ġassessed	38757
"})	38740
Ġuna	38715
Ġres	38710
Ġintensity	38704
ĠKe	38704
Ġdepartment	38703
Ġsides	38700
Ġ{{\	38698
wood	38687
Ġbus	38675
012	38670
:\	38667
Ġemployee	38657
Ġ81	38644
Ġguide	38623
ser	38602
package	38574
Ġbroad	38572
Ġmassive	38561
ys	38537
Ġbiological	38534
tre	38520
Ġdemonstrate	38514
ĠFederal	38509
âĢĿ,	38508
Ġice	38499
ĠBay	38497
Ġdecide	38496
Ġrelates	38494
Ġincident	38487
Ġadvanced	38483
Ġpartner	38472
Ġplaintiffs	38459
ĠWeb	38459
ĠAustralia	38454
ĠRA	38450
was	38447
Ġraise	38430
Ġgrant	38426
Any	38420
Ġordered	38415
Response	38409
ĠInternet	38407
rate	38398
Ġpull	38397
Ġassess	38393
ı	38390
Ġextends	38347
/(	38339
Ġgold	38330
oma	38315
Ġbrother	38309
ato	38308
ari	38303
BC	38298
\/	38292
Ġimaging	38288
Ġpersons	38286
Ġpotentially	38275
je	38274
background	38271
Ġchallenges	38263
Ġsuitable	38262
Psi	38258
Ġhumans	38248
ĠJustice	38223
rn	38209
Ĩ	38204
Ġrats	38189
Ġjoint	38189
Ġconference	38177
ĠPh	38171
Simplify	38137
tz	38135
ned	38133
description	38132
Ġvelocity	38130
pr	38120
Start	38120
Ġchief	38120
Ġstatistical	38117
Ġ74	38115
Ġstopped	38114
ĠAD	38112
"),	38107
Ġimprovement	38078
Ġidentification	38072
.**	38068
Ġdoctor	38065
gan	38051
Ġintent	38037
Ġintra	38029
Ġsit	38028
ĠĊĠĠĠĠ	38015
Ġrare	38008
query	38005
Solve	38002
Line	38000
Ġdraw	37989
Ġ_{	37987
^âĪĴ	37953
Ġcourts	37948
lli	37947
Ġremained	37947
ĠBill	37946
Ġclaimed	37944
Ġinterval	37934
disc	37927
side	37926
Ġopposite	37898
Ġcm	37890
Gr	37879
Ġsettings	37876
$)	37871
400	37862
Action	37857
Th	37852
Ġended	37838
Ġlung	37835
´	37834
-----	37818
²	37815
ĠGood	37779
ĠCor	37759
ln	37753
Ġ76	37753
Ġsuggesting	37746
¦	37742
Ġspring	37736
ĠSP	37718
Ġ78	37716
Ġcap	37713
wn	37694
hl	37689
Ġfrequently	37666
Ġbag	37642
ãĥ	37637
Although	37629
Ġradiation	37627
Ġhence	37624
Cor	37621
Ġdiscovered	37614
DO	37601
Ġnine	37591
Ġbl	37575
Ġac	37554
INT	37537
Ġengine	37537
Ġreflect	37536
Ġ===	37525
cd	37520
ĠBrown	37506
Status	37502
ĠRussian	37502
Ġpartial	37492
ets	37491
ĠEU	37491
put	37479
build	37468
oo	37462
^+^	37456
Ġbone	37456
PR	37455
Ġjustice	37451
Ġunknown	37450
ĠRepublican	37443
¾	37439
berg	37438
ĠLA	37435
Ġargues	37424
Ġorigin	37412
Ġarms	37382
Ġnecessarily	37374
>(	37352
Ġestate	37339
ĠDO	37333
Ġwind	37318
ION	37316
ĠDC	37316
PI	37312
Ġlimits	37312
Â¶	37310
Ġannual	37304
ĠDec	37300
TO	37295
obj	37288
Ġreplace	37288
Ġgap	37280
ĠComp	37277
Â·	37269
ĠPl	37251
double	37232
_{{\	37232
ī	37217
oni	37192
ĊČ	37191
house	37185
Ġstability	37181
\"	37178
Ġvariation	37155
References	37154
Ġfill	37154
ĠOver	37148
ĠÂ£	37127
server	37106
ack	37106
ĠUse	37105
čĊĠĠĠĠĠĠ	37099
Ġwidely	37074
Ġseconds	37070
Ġdependent	37058
ĠInter	37043
Your	37042
ost	37034
ĠRule	37028
SH	37008
ura	37001
Ġantibody	36998
Ġthereby	36993
Ġqui	36981
Ġoral	36979
ĠANY	36977
Ġgender	36967
Ġdefinitely	36962
Ġassembly	36960
Handler	36945
png	36909
lat	36905
eri	36903
HI	36896
Ġforth	36868
ĠSA	36866
ĠTwitter	36854
Create	36850
ĠUN	36842
Ġaspects	36834
ĠGerman	36828
}})	36823
FE	36820
Ġpeace	36815
Ġthreshold	36813
Ġna	36806
mode	36802
Ġattacks	36799
options	36791
SM	36790
Ġlinked	36788
)}\	36782
Ġnumerous	36782
Ġkeeping	36780
\-	36774
Ġabsolute	36773
Ġpopulations	36770
ĠAP	36763
Pa	36759
Ġelectric	36754
OK	36751
ĠPR	36751
ĠÃĹ	36739
Ġseek	36736
Min	36727
Ġmouth	36710
Ġindicating	36708
Ġsupra	36703
Ġstarts	36703
ĠHence	36702
Two	36694
Ġprovision	36694
Fa	36693
Last	36691
Ġrelations	36689
Please	36678
Ġimplies	36669
ĠPlease	36669
split	36668
Ġmixture	36655
ory	36640
Check	36635
Ġroute	36633
ute	36619
LD	36606
ju	36594
ĠDE	36594
sis	36585
cke	36580
ming	36578
Ġpool	36570
msgid	36558
ĠMal	36545
Ġmortality	36543
DS	36517
Ġinterpretation	36516
Ġcent	36510
Ġentirely	36504
Ġunable	36500
Ġaccepted	36500
OP	36498
ĠJohnson	36496
number	36481
Ġmission	36471
ĠTa	36462
Ġtruly	36449
ĠCP	36444
Ġsupposed	36435
ĠGive	36432
Ġgonna	36424
Ġends	36416
Ka	36412
/>	36400
Ġrecognized	36394
Ġcellular	36394
Ġ82	36391
msgstr	36389
ĠFrance	36386
pos	36382
Ġhole	36368
Ġcontribute	36367
Ġpractices	36366
Ġgirls	36361
other	36334
³	36333
150	36331
Ġinstructions	36328
Ġcamera	36327
ĠFurther	36327
Ġviolation	36326
Ġscientific	36324
}/	36322
$$\	36317
Ġaxis	36313
Ġaward	36310
ok	36302
ĠSe	36289
Ðµ	36283
sk	36271
Ġ150	36270
ĠChristian	36265
Ġaim	36257
ress	36255
Ġdegrees	36255
NI	36250
Ġarrest	36249
Se	36238
Ġstruct	36236
ably	36235
¼	36229
lia	36220
Ġsupporting	36202
mL	36194
ĠLo	36187
ĠDis	36182
++)	36178
Ġbattle	36148
Ġnotes	36139
Ġfraction	36124
Point	36123
IM	36109
<!--	36091
Ġemployment	36076
Ġbecoming	36073
Ġsigns	36065
inf	36062
Ġresponsibility	36056
Ġmiles	36054
inter	36052
¶	36035
tag	36031
ĸ	36025
Ġpe	36012
***	35993
Ġvitro	35988
Ġthread	35988
Ġwaste	35987
ĠSenate	35975
ani	35961
Ġtechnical	35945
Ġminute	35924
Input	35914
Ġ88	35913
Ġattached	35899
Ġappearance	35888
iz	35884
Tra	35878
Ġsensitive	35877
Ġresidents	35874
ĠTimes	35848
ĠFa	35826
conf	35808
ded	35790
widehat	35787
Ġmolecules	35783
mal	35779
Ġenable	35776
MI	35773
Ġ92	35771
Ġcompound	35770
Ġmanaged	35767
Ġboy	35766
Ca	35743
ula	35737
ĠInt	35709
Ġconcluded	35694
Ġwear	35682
ering	35676
âĢ²	35670
Ġcommonly	35663
Ġandroid	35641
buffer	35640
Mr	35640
Ġamounts	35640
Ġdisk	35637
option	35633
~~~	35631
||	35629
Are	35616
ĠRobert	35603
itis	35598
ĠHospital	35598
ime	35585
ole	35559
Du	35559
Ġ84	35556
Ġpp	35553
Ġassigned	35524
VI	35514
ĠIndian	35510
Ġconsideration	35506
ĠBo	35495
Ġ120	35486
Ġunderstood	35484
Ġdynamics	35474
Ġarticles	35466
ĠAR	35465
RO	35464
ĠRa	35464
ĠMP	35461
Ġiso	35460
Ġdynamic	35458
ĠOnly	35455
Ġfell	35454
2008	35451
ĠHall	35434
ĠOnce	35433
ight	35432
Ġsought	35429
fold	35416
ĠAPI	35404
\]).	35401
Ġeffectively	35398
xa	35382
Ġaccurate	35379
Ġprinciple	35376
Ġexpert	35354
Ġestimates	35300
ĠLife	35299
Ġrequirement	35291
à¸	35278
search	35259
CP	35247
ĠAfrica	35241
gar	35240
del	35207
ĠPart	35203
103	35194
Ġoxygen	35193
Ġspaces	35183
Ġbi	35175
ĠME	35169
Ġfilled	35157
entry	35138
]]	35128
Ġ83	35127
AF	35126
Ġjurisdiction	35119
Ġearth	35113
**,	35110
Ġdecades	35110
Ġra	35107
Ġval	35105
Ġusual	35102
Ġhomes	35091
ising	35078
ĠAfrican	35073
ijms	35071
ĠSecond	35063
space	35034
ĠTheir	35034
Cell	35033
Ġest	35031
Ġspending	35020
ĠSM	35016
uring	35003
Next	35003
update	34996
ĠSam	34964
})\	34945
Ŀ	34927
2009	34915
Ġsenior	34904
display	34893
Ġseeking	34889
Ġplot	34888
Find	34887
Bi	34868
Ġadmitted	34865
root	34852
Ġfavorite	34844
Ġsplit	34843
Ġsugar	34837
ĠCC	34829
eh	34825
ĠNS	34825
Ġconsumption	34820
#:	34817
{}	34804
Ġzone	34802
Ġsweet	34802
Mode	34801
Ġwilling	34798
Ġtelevision	34789
ÃĹ	34778
ĠAny	34763
ĠBen	34753
als	34746
Ġ[]	34745
CF	34743
Ġbaseline	34739
Ġstrategies	34736
ĠEarth	34728
Ġfl	34716
ĠThomas	34695
Ġser	34694
ĠType	34686
ĠHi	34685
ĠMor	34680
Ġobjective	34678
--------	34669
TS	34667
Ġdev	34666
Yeah	34665
ĠSE	34662
Ġ79	34655
method	34651
è	34638
Ġmessages	34634
ĠâĪĴ	34629
Label	34628
ext	34625
Bl	34625
AB	34618
"""	34618
Ġfa	34615
Ġbroken	34612
CL	34611
ĠRiver	34610
Ġcharacterized	34608
Ġsqrt	34607
Buffer	34599
osis	34595
Ġassistance	34591
ĠRT	34580
ĠEn	34566
âĢĥ	34558
home	34556
Ġlabor	34553
Format	34546
Ġvan	34542
Ġwww	34517
Ġtag	34516
Ġorganic	34510
ened	34507
Ġfloat	34506
{{	34502
subset	34500
ĠRes	34488
Ġoptimal	34481
Ġamino	34476
UI	34450
HE	34447
Ġcompetition	34439
ĠRo	34433
Ġaid	34428
Ġsmallest	34425
Ġfail	34417
Where	34416
BO	34408
ĠHu	34392
Ġprincipal	34387
ĠPCR	34386
Ġemission	34381
Ġminor	34379
Ġtissues	34378
Â¸	34374
Ġcompact	34370
Ġpredicted	34368
Ġsin	34356
```	34345
*^	34345
Ġbinary	34333
Ġdepth	34328
Ġprop	34324
Ġamazing	34323
Ġdangerous	34320
Ġimp	34300
Ġexpensive	34289
hy	34287
tal	34282
ĠInstead	34270
ath	34255
PD	34234
Ġship	34230
ĠLemma	34226
Ġneurons	34222
ĠCS	34222
star	34221
Ġwitness	34218
Ġorders	34218
Res	34211
Ġmilk	34201
Ġvision	34197
ivity	34179
ĠKo	34178
RC	34170
Ad	34149
Ġconnect	34149
Ġbrand	34138
Ġfund	34130
Ġmarriage	34128
Ġnative	34106
110	34101
append	34097
ther	34094
Ġ41	34069
Ġphotos	34060
Ġrecommended	34058
ĠHuman	34028
ĠFIG	34015
yo	34010
Äģ	34007
ĠPro	33981
==========	33978
Ġne	33974
ĠCopyright	33974
ĠDa	33971
Ġsupports	33968
uc	33964
Ġgrand	33962
ĠĊĠ	33962
Ġpieces	33958
Ġmanuscript	33943
Ġinhibition	33917
Thanks	33916
Ġwatching	33914
Ġwarm	33913
van	33900
Ġ}}	33897
={	33891
Ġparticle	33890
;&	33872
Ġpages	33869
kh	33853
Ġinfo	33847
ĠSD	33837
Ps	33824
GO	33824
ĠOut	33805
Ġcausing	33804
hn	33799
imi	33798
Ġthreat	33785
sch	33783
css	33782
Ġcustomer	33773
some	33771
Ġcon	33771
Ġsuccessfully	33769
Comp	33743
fo	33737
Hu	33729
]}	33721
equiv	33714
Ġsat	33700
rg	33693
Ġtri	33686
Ġfruit	33649
Open	33648
Ġcrisis	33647
Default	33646
)[	33645
ĠSO	33644
MM	33642
Ġchannels	33641
Ġreducing	33633
DR	33630
ĠMedical	33629
more	33628
Ġquarter	33627
Ġthermal	33624
iss	33622
["	33615
Ġcomposite	33601
ļ	33578
Ġ39	33578
Ġtargets	33574
Ġrecommend	33562
ĠMD	33561
ĠMC	33553
Ġsitting	33552
DD	33549
Another	33548
Ġlargely	33542
Ġimpossible	33539
real	33522
ew	33505
Ġ51	33499
ĠClinton	33498
Ġrepresentative	33493
ado	33492
ves	33490
Ġpure	33489
}}}}	33486
ĠInformation	33484
"]	33480
find	33475
160	33474
ĠSS	33470
ĠpH	33458
Ġnorth	33454
Ġ86	33443
1000	33436
BR	33431
ym	33427
Ġmine	33417
Ġfinish	33403
Ġinformed	33385
±	33379
Ġau	33375
ash	33370
Ġresearchers	33370
Ġdiabetes	33366
msg	33360
Ġauthorities	33350
Ġtight	33349
Ġinstalled	33348
arr	33343
Ġautomatically	33343
gue	33342
Ġpromote	33338
Ġthrow	33337
ħ	33333
Ġbool	33330
Ġouter	33323
Ġstructural	33317
ĠWill	33317
oi	33310
ĠIndeed	33306
Ġconstitutional	33300
Ġ*)	33294
Ġpetition	33293
Ġles	33292
response	33289
ram	33273
Ġsolve	33262
Ġmark	33258
Ġrespond	33249
ĠIV	33244
Ġfeed	33238
ĠDefendant	33238
Ġsector	33224
Ġdisorder	33223
Because	33220
ĊĠĠâĢĥ	33216
rep	33212
Ġ1999	33210
ob	33207
RD	33199
Ġmarried	33197
Per	33191
Ġder	33175
Ġseat	33164
Ġexamination	33162
Ġdebate	33157
¿	33133
En	33125
echo	33113
Ġconversation	33108
]);	33087
Ġstrains	33086
ĠCentral	33084
ery	33080
ign	33079
Ġweekend	33079
while	33051
Ġputting	33038
WA	33028
Ġturns	33021
ĠTA	33021
Ġbias	33012
Ń	33000
hs	32999
ĊĊĊĊĊ	32998
¹	32993
omp	32990
Ġfaster	32983
stream	32967
Before	32965
part	32955
Ġjoined	32954
Ġunion	32941
014	32927
Ġ44	32915
Ġprotected	32913
Ġfacilities	32906
rad	32904
Ġconcerning	32895
cf	32892
ĠEnd	32890
Update	32889
ake	32887
Ġdetect	32887
Ġmeat	32880
Ġherself	32873
Sa	32870
wo	32866
Ġreplaced	32863
ĠSta	32861
control	32853
CIT	32837
PL	32811
)))	32789
ĠSoftware	32784
ĠChicago	32778
Ġacting	32765
(*	32759
Ġargue	32753
ĠGL	32753
ĠIts	32741
Ġvisible	32740
dg	32736
ney	32730
mem	32730
Ġcitizens	32724
Ġformal	32717
Ġevening	32713
Ġantibodies	32707
Ġpara	32702
Ġmention	32698
args	32693
Ġillegal	32688
ĠGA	32685
high	32677
Ġassumed	32664
ez	32655
Ġadvance	32651
Ġprison	32642
Ġcorner	32642
More	32637
Ġcreation	32637
}]	32627
Ġ87	32623
]\	32620
>>	32618
Ġinvolves	32617
Ġrepair	32606
ĠMath	32600
Ġ47	32599
Style	32598
Ġtherapeutic	32593
Ġplastic	32590
Ġrefer	32581
Ġharm	32568
Ġpan	32565
Ġcandidates	32564
Ġmatters	32563
ĠmRNA	32560
Ġmerely	32550
ĠGreat	32549
Ġch	32531
Ġemergency	32518
Ġlayers	32515
Ġ91	32508
Ġ89	32489
Ġvar	32486
None	32482
ada	32478
Ġdifferential	32477
Ġ52	32475
center	32472
sup	32468
Ġexperiences	32466
Ġyield	32460
Ġst	32460
Ġhundreds	32460
DM	32455
µ	32453
015	32451
Ġobservation	32451
Ġhundred	32432
Who	32431
rem	32427
ĠCup	32422
Mar	32416
Ġperspective	32416
Ġsecure	32395
Ġpassing	32393
Ġexecutive	32382
ĠSI	32360
Ġlowest	32355
Ġexplore	32348
ĠStar	32326
ÃĹÂ	32321
Ġpairs	32304
º	32293
ĠProject	32293
Ġlived	32275
ran	32273
Ġdetermining	32263
Ġclosely	32233
meta	32219
Ġmix	32203
El	32194
Ġaspect	32182
000000	32167
').	32167
Ġproved	32159
Ġwrt	32152
Ġ1990	32152
ĠRef	32139
ĠÃł	32136
pro	32130
Ġmo	32129
ĠRep	32109
ĠHome	32109
Ġpolitics	32101
Ġap	32100
Ġtelling	32099
Ġposted	32094
Post	32093
sw	32091
Ġsignificance	32088
Ġwalking	32081
ĠSecurity	32068
111	32066
Ġscreening	32061
]$	32049
Ġ94	32041
Ġvivo	32038
Ġtrees	32027
125	32023
Ġ2020	32018
ĠAC	32016
ero	32004
Part	32002
din	31983
ĠEr	31967
mark	31952
Ġrapid	31948
sf	31941
Ġliability	31941
che	31940
016	31908
ĩ	31907
Ġterminal	31903
ĠWa	31903
Ġprimarily	31899
Ġmonitoring	31882
2007	31881
Ti	31874
ux	31868
google	31863
Ġloved	31852
==	31848
Ġtube	31847
ĠSal	31841
NAME	31839
Ġdirectory	31838
Ġinitially	31833
Ġextract	31833
minimal	31820
vs	31811
ĠField	31808
Ġsn	31802
ĠMc	31786
Si	31784
ĠAnother	31783
Ġclassification	31782
ĠFile	31777
pan	31762
low	31760
=======	31757
Layout	31755
ĠDan	31752
Ġoperators	31751
ĠControl	31750
tle	31748
Ġmenu	31746
Ġcities	31742
close	31736
Ġblocks	31732
element	31727
Ġtrend	31723
Ġidentical	31722
Ã³	31717
Ġlots	31715
020	31703
Ġ98	31700
Ġsports	31685
Ġ93	31684
Ġregression	31679
Ġdollars	31674
only	31672
Ġfi	31672
kl	31670
Ġbeam	31669
Other	31668
Ġeating	31668
hand	31661
.-	31659
Ġinjuries	31642
Ġleague	31636
ĠLike	31634
host	31622
ids	31613
Ġmaps	31613
Ġmeta	31611
Ġdelivered	31609
hed	31607
Ġdisorders	31607
Ġmedian	31601
Ġdrink	31600
documentclass	31593
txt	31592
EP	31591
Ġgrown	31590
Ġbranch	31589
ĠCR	31588
Ġclassical	31585
lc	31583
Ġcloser	31573
buf	31561
Ġvirtual	31558
Ġbusinesses	31551
Ġimplemented	31541
Ġge	31534
ĠDA	31532
Ġminimal	31521
pol	31514
ĠSea	31510
ori	31504
Ġinjection	31502
2006	31501
Ġcontributions	31500
HO	31492
sensors	31482
note	31481
Ġconsists	31479
Ġdimension	31474
Â»	31473
UR	31471
ç	31462
Am	31455
ient	31449
ill	31430
Ġaccordance	31427
Ġsensor	31421
ĠChi	31420
Ġleadership	31409
BE	31405
Ġbigger	31400
ĠClass	31392
-(	31382
Ġremoval	31372
jpg	31371
rit	31363
called	31357
Ġenhanced	31344
yr	31343
ĠAre	31337
Ġsouth	31322
Ġlaser	31317
čĊĠ	31309
Ġprevalence	31308
ĠON	31308
Ġbodies	31302
lm	31297
Ġneck	31282
ĠPlaintiff	31256
&&	31253
ĠSa	31240
Ġextend	31230
Ġsurgical	31210
header	31207
Ġorganizations	31204
gr	31202
Ġcaught	31196
ĠJones	31190
Ġgenome	31187
ĠLong	31178
ĠUI	31170
Ġsynthesis	31169
border	31168
BL	31159
Ġaccounts	31149
Ġapparent	31147
Stream	31146
ĠIran	31137
<?	31136
env	31134
Ġconsequences	31134
Ġopportunities	31132
Ġelectrical	31118
Command	31117
ĠHA	31116
Ġsorry	31110
ĠBC	31099
Ġapproval	31096
ville	31084
Ġcontainer	31078
>,	31077
ĠInd	31076
LO	31073
Ġlocations	31072
Token	31048
Ġ1998	31046
Ġdepression	31042
Ġlib	31036
Ġfigures	31033
Ġcorrectly	31025
Ġed	31023
Ġoffset	31021
vector	31020
Ġsa	31008
Ġiron	31005
ĠJan	31005
Ġ\{	30991
Ã¤	30983
Ġmaintenance	30981
Ġarrived	30973
URL	30963
ÃŃ	30956
-------	30947
Ġgu	30926
Control	30924
Ġthoughts	30924
Ġinternet	30923
Ġpathways	30913
pdf	30912
OL	30911
Ġfacility	30906
)+	30903
sn	30899
Ġ43	30897
small	30896
super	30884
nic	30880
MO	30875
ung	30874
}}{\	30856
Ġsyndrome	30851
ĠCh	30842
Ġclosest	30839
Ġdenote	30818
ĠBio	30809
ĠÃĳ	30807
ĠPo	30790
push	30784
bottom	30774
ĠVal	30774
ont	30762
®	30758
Ġproportion	30755
make	30752
Ġtrouble	30744
019	30743
Net	30741
Ġshop	30730
Ġpointed	30718
Ġaccident	30715
ĠEC	30712
Ġsurrounding	30709
Po	30704
ĠPre	30696
]^.	30689
Ho	30686
ĠCl	30686
Ġcharacteristic	30677
Ġabsolutely	30676
Ġdisplayed	30672
child	30669
Ġmutations	30669
Ġpractical	30647
Ġpark	30635
Ab	30627
Ġrepeated	30626
Ġbacteria	30626
Ġposts	30605
GC	30603
Ġmiss	30597
Ġdepend	30596
)/(	30595
ubuntu	30590
ĠLee	30590
ĠPI	30586
Ġapparently	30572
018	30569
Ġemotional	30569
ĠGen	30569
Ġ101	30567
Ġintegrated	30561
ENT	30541
102	30529
Ġdownload	30525
lem	30507
ĠDemocratic	30497
Ġhelping	30495
130	30490
ĠView	30489
Ġtea	30488
Ġhypothesis	30484
ĠCF	30480
ars	30470
013	30470
Ġstages	30452
Ġden	30450
Ġinstruction	30444
sen	30440
Ġsoil	30435
cp	30433
105	30430
Ġcentre	30420
attr	30411
Ġclients	30403
ĠNA	30402
nm	30397
Ġspectra	30396
KE	30394
Ġ97	30392
inv	30382
iter	30365
ĠApple	30359
Ġcoupling	30357
Ġcommittee	30357
ĠName	30356
SU	30355
PE	30345
ĠDel	30345
Ġro	30342
¨	30328
Ġincidence	30323
Ġsounds	30318
Ġfashion	30318
Ġvi	30310
after	30308
Ġlaunch	30300
Ni	30299
ĠObject	30296
Ġforget	30295
water	30288
Ġadopted	30288
Ġstr	30286
Up	30282
ĠÎ²	30279
Ġkitchen	30273
dis	30267
\]),	30263
aw	30261
lar	30260
Ġimplied	30260
ement	30258
\}	30257
Ġth	30254
sing	30251
wise	30245
protected	30240
Ġche	30222
Ġsubmitted	30221
service	30219
Ð°	30215
Ñĥ	30205
Ġdomestic	30199
Ġsolar	30194
Ġconviction	30193
ĠÃ	30192
Ġrev	30182
Ġsheet	30174
Query	30173
ici	30163
Ġremote	30158
ric	30152
Ġdraft	30133
ë	30129
Ġdogs	30129
Ġconstructed	30124
Attribute	30117
project	30113
Ġdescribes	30109
Ġpictures	30093
Ġ1997	30090
017	30089
ibility	30086
Ġargued	30085
2001	30084
Ġcoffee	30062
Ġma	30061
ace	30057
}'	30052
mt	30049
Ġupdated	30049
ĠMartin	30045
Tab	30038
Ġepisode	30028
Factory	30026
Ġtransformation	30026
Link	30022
strong	30017
2005	30015
Ġclimate	30013
ĠAss	30010
Ġ"(	30010
Ġimplement	29990
foo	29982
Ġtopic	29979
.$	29959
Ġprovisions	29959
}{-	29957
Ġapart	29957
Ġ400	29936
word	29927
Ġmarkets	29925
Ġessentially	29924
dec	29922
Options	29907
Rec	29904
ural	29897
ered	29894
FI	29890
ĉĉĉ	29889
filter	29887
life	29878
Ġpl	29874
ĠVer	29869
]{},	29864
Ġtotally	29863
GS	29861
TYPE	29859
Ġmanage	29852
Ġconversion	29845
Ġmarked	29838
Ġbright	29823
nat	29805
Ġcounts	29789
Ġexplanation	29788
hin	29779
ĠIR	29774
Ġbra	29764
Ġtaste	29761
WE	29751
Ġspatial	29744
setlength	29734
how	29732
atory	29727
Call	29726
ĠAL	29720
Ġtaxes	29714
Ġguidelines	29713
Ġfeedback	29699
ĠVi	29694
Ġspeaking	29690
Te	29689
âĢĺ	29684
Ġneutral	29663
Ã¶	29658
Ġdream	29657
Ġmaintained	29653
align	29649
:(	29638
Ġdesire	29630
Ġdiscretion	29628
lor	29619
Ġregime	29610
Length	29609
zed	29607
xc	29602
pin	29595
dp	29594
ris	29591
ĠPolice	29591
Ġcategories	29578
EX	29572
ĠTri	29565
Ġchapter	29559
ĠKu	29553
Ġrecording	29549
Ġdeclared	29545
pu	29543
Ġultimately	29543
ong	29542
rin	29540
Results	29535
END	29534
ĠKey	29532
Ġfamiliar	29529
È±	29526
Ġcognitive	29518
Ġimmediate	29517
Ġhate	29512
Ġoffering	29505
ĠES	29498
amsmath	29497
Ġsp	29497
ag	29496
Controller	29483
Ġflag	29471
Ġ46	29471
margin	29469
ĠNE	29462
Ġ1000	29460
RR	29457
Ġwonder	29444
2019	29442
Ġcopyright	29436
sd	29434
ket	29430
Ġtells	29429
Ġtasks	29426
####	29422
mic	29421
ĠCar	29403
Ġgrade	29351
RM	29349
Resource	29345
Ġrat	29336
Ġrealize	29333
Ġtreatments	29332
Ġrecognition	29331
Ġpreparation	29325
Block	29320
ola	29319
Ġreporting	29317
Ġpin	29314
ĠMs	29314
Ġ1996	29311
123	29301
ĠJo	29300
Ġfiber	29279
ĠServices	29279
amssymb	29276
Impl	29276
Right	29273
mor	29271
Ġwine	29263
+-	29256
ĠCorp	29238
xy	29233
Use	29233
][@	29224
ĠSer	29215
00000	29214
dx	29212
amsfonts	29208
Ġhelpful	29204
Inter	29200
when	29177
Ġpermit	29174
Ġ{}	29171
Component	29155
Ġspoke	29151
Ġrespective	29145
ĠUp	29144
Ġ110	29144
mathrsfs	29141
Ġexamine	29137
Ġbars	29136
Ġfinds	29134
amsbsy	29132
Ġregulations	29132
upgreek	29131
neq	29126
itation	29126
ball	29118
Ġcurves	29115
Ġlogic	29114
Ġobviously	29112
Ġserving	29111
ĠAttorney	29110
ĠOs	29107
194	29102
Ġprinciples	29098
oddsidemargin	29097
Ġcamp	29097
Ġbond	29093
wasysym	29091
ĠRE	29088
ĠAg	29085
Ĭ	29074
zy	29064
ĠSk	29052
ĠOl	29049
MB	29045
Ġsituations	29037
ĠDevelopment	29035
EE	29031
ening	29023
Ġshut	29022
Pr	29018
qquad	29010
ich	29010
Ġmoral	29010
Ġencoding	29003
ique	28999
ĠNC	28998
Ġtumors	28996
Ind	28982
Ġleg	28975
pass	28974
Ġdiscovery	28974
Ġcha	28970
ria	28968
molecules	28959
256	28955
Ġcur	28951
orm	28949
192	28947
ĠCheck	28946
Ġraw	28940
Row	28938
Ġrequested	28928
cb	28926
ĊĠĠĠĠĠĠĠĠĠĠĠ	28921
Ar	28920
lp	28911
Ġcat	28908
Ġnm	28905
Ġ[[	28905
ĠSh	28898
½	28881
Ġparticipate	28880
hal	28873
Ġworst	28865
approx	28855
ĠIsland	28830
dom	28824
Ġbeat	28823
BI	28820
hen	28814
fin	28814
Ġlies	28812
Ġcrucial	28780
Ġanyway	28780
who	28776
Ġshooting	28776
ĠWho	28776
Ġbug	28771
ĠSecretary	28764
Pe	28750
Ġyouth	28749
ĠCall	28734
---------	28731
ĠPower	28730
Ki	28723
Ac	28716
ĠHill	28714
Ġurl	28705
internal	28703
Ġtip	28703
ĠDu	28698
Ġbought	28693
104	28690
eps	28687
Ġind	28683
IE	28682
Ġcompliance	28680
nav	28673
ama	28673
IV	28670
Ġion	28669
tree	28663
Ġloan	28656
Ġrain	28649
Server	28641
Ġpulled	28639
ĠReg	28635
Col	28626
Ġstem	28626
Ġpet	28626
Ġhappening	28600
FS	28597
ration	28596
ĠReal	28590
yt	28585
**(	28585
ĠDemocrats	28585
Max	28583
flow	28575
Ġmodify	28575
ians	28574
SL	28573
Over	28568
People	28553
2004	28551
Ġsomewhat	28549
ĠFi	28546
Ġconfig	28544
RP	28541
ware	28530
Ġpatent	28529
Ġsm	28528
logic	28524
Ġassets	28523
Ġbehaviour	28516
Ġtranscription	28515
Ġowners	28508
Ġspectral	28507
600	28490
Ġarrested	28490
two	28488
ĠER	28488
Supplementary	28484
Ġhurt	28479
Ġ$(\	28478
Ġgate	28472
uct	28469
Also	28458
Da	28453
unsigned	28451
km	28449
----------	28447
GT	28445
ote	28444
ĠDonald	28444
Ġruling	28427
ĠTra	28427
109	28424
Ġdrawn	28421
RNA	28412
ĠJournal	28411
Ġteaching	28409
Ġenforcement	28405
Project	28399
Ġimagine	28393
nz	28383
Ġune	28381
OD	28377
Ġglucose	28362
ĠSociety	28358
Function	28357
nia	28353
Ġworry	28343
Ġpo	28341
Ġpicking	28325
TG	28324
Ġgi	28324
Ġintelligence	28323
Ġsegment	28320
imp	28314
ye	28312
byte	28309
ail	28299
band	28298
Ġinfected	28297
PRO	28282
Ġdeaths	28277
^-	28273
lb	28271
ĠDirector	28271
ĠMicrosoft	28269
Ġlen	28257
Ġpreferred	28251
ĠRead	28246
Ġdriven	28245
ĠCha	28243
ao	28237
Ġthick	28225
loc	28221
rich	28213
Ġwonderful	28209
Ġpossession	28206
CG	28204
Ġrequests	28201
osa	28196
mit	28195
dh	28195
Builder	28186
Ġweather	28180
vel	28177
Ġfighting	28170
bio	28165
Description	28159
ĠMake	28153
Ġass	28149
before	28148
fd	28145
Qu	28136
Ġenzyme	28133
Ġcontents	28129
ĠPeter	28122
Ġconfirm	28119
Ġvoters	28109
Ġnormally	28109
pen	28108
Ġvillage	28108
Ġapplying	28107
rel	28092
Ġunc	28087
ĠÎ±	28082
Ġlay	28056
OM	28050
Ġnoticed	28038
Ġpowers	28034
Ġproliferation	28023
THE	28021
Ġweapons	28020
(_	28009
Ġrealized	27999
fp	27992
Ġwood	27991
Ġhidden	27990
Ġka	27989
Ġinstant	27988
ĠAdditionally	27988
ĠIll	27980
------------	27979
oz	27977
Configuration	27974
Ġcarrying	27969
Li	27956
čĊĉĉĉ	27949
Ġextreme	27940
ett	27934
Ġalpha	27928
fc	27924
Ġmechanical	27919
Ġassumption	27917
ĠHO	27917
Ġtough	27915
Ġdivision	27915
Ġcounty	27906
ule	27905
Car	27902
Ġescape	27895
ock	27887
CM	27884
$_	27881
Ġintegral	27881
Ġschedule	27877
ĠRoad	27874
normal	27870
ĠCM	27867
Ġcultural	27866
Ġdischarge	27858
Form	27853
Ġreads	27851
Ġourselves	27843
Ġgl	27829
Ġtemplate	27828
late	27827
offset	27825
Tri	27822
Ġtransaction	27816
ĊĠĠĠĠĠĠĠĠĠĠĠĠĠ	27815
Ġregister	27811
Ġroles	27807
ĠTop	27804
Ġacids	27801
ÂĢ	27799
Ġassault	27795
fully	27793
ĠSen	27788
Ġrein	27786
Ġinfections	27781
Ġseparation	27775
%),	27773
-----------	27759
Width	27756
Ġbeta	27755
Ġobserve	27750
Ġrotation	27738
Ġsubstantially	27736
112	27729
Ġattempts	27727
Ġsetup	27722
Ġng	27703
ĠGar	27686
Mi	27672
vis	27664
Ã©r	27649
Ġmillions	27643
Ġaccused	27643
ĠTH	27642
Ġexcited	27634
Ġregistered	27621
{(	27619
Even	27609
ĠThose	27594
Ġseparated	27586
ĠVo	27584
Target	27578
ĠProgram	27578
Thread	27575
Ġag	27572
Ġ:)	27569
Ġexperts	27566
Ġpermission	27564
ĠKi	27564
cer	27558
amine	27551
ĠKorea	27549
Ġmoderate	27544
De	27542
Ġlegislation	27538
ĠIns	27533
oss	27531
ĠPT	27531
}\,	27524
law	27521
Ġpaying	27521
alo	27517
Ġbrown	27512
Ġconstruct	27511
remove	27499
Ġmedicine	27498
Ġintegration	27496
Ġdropped	27485
Location	27481
Ġuniversity	27479
Ġdiameter	27476
Ġcorrelated	27463
ĠGl	27457
tl	27450
Â¼	27449
namespace	27448
OC	27445
Ġviral	27444
site	27431
dist	27431
cu	27430
Ġseed	27429
cut	27416
Ġmetric	27416
system	27414
Ġopposition	27410
About	27403
Ġplanned	27402
ĠLos	27401
ĠmM	27389
140	27357
Ġintroduce	27346
ota	27339
there	27336
values	27333
Ġstick	27333
Ġsister	27327
menu	27324
opt	27323
Ġfee	27319
ĠVol	27315
ena	27311
kr	27310
Ġorgan	27310
Ġinstitutions	27307
fu	27302
Ġrecognize	27298
common	27293
bound	27290
ĠDivision	27282
Ġpi	27281
iation	27279
Ġcla	27254
fire	27252
Ġ250	27246
Ġ>=	27241
Ġinf	27233
============	27226
ple	27222
GG	27220
American	27220
Ġpurchased	27218
ĠCE	27215
Ġnarrow	27213
Ġcars	27213
ust	27211
zing	27205
Ġreactions	27198
Ġknowing	27195
Ġfeels	27193
iso	27192
war	27189
Ġconsumer	27185
180	27184
Ġsmart	27178
}+\	27172
Ġsimulation	27170
Local	27168
Ġplain	27168
Ġcorporate	27165
Ġradius	27161
Ġdinner	27159
Output	27155
Ġce	27153
Ġim	27149
Ġsizes	27144
Ġcrystal	27136
Je	27133
Ġwinning	27130
021	27125
Thank	27120
ĠVan	27119
ĠEducation	27105
ĠSocial	27100
Ġreligion	27094
cher	27081
Ġop	27081
ĠWilliams	27075
Ġincreasingly	27070
Ġreliable	27069
Hey	27058
Instance	27054
GI	27046
Case	27043
nit	27042
mathsf	27037
Ġokay	27028
Ġkinds	27003
Application	27000
ines	26998
Ġsharing	26991
Ġpy	26989
Ġcontroller	26986
Ã¼	26978
Many	26976
CB	26975
Ġcomplicated	26975
Ġindustrial	26970
Ġowned	26966
ining	26965
Ġtransferred	26965
CK	26962
ĠLand	26962
«	26952
uv	26931
Ġvictims	26918
Ġrapidly	26914
Ġdecade	26910
Ġforming	26895
Ġdust	26894
Ĵ	26893
esc	26893
Ġtransform	26890
Ġsubstance	26883
Ġoriginally	26881
Frame	26879
Ġok	26867
Ġpromise	26862
)*(-	26860
Ġdual	26856
Ġanswers	26842
Ġslowly	26836
Ġcol	26829
193	26822
Ġextensive	26817
ĠAmendment	26817
Ġflash	26811
cent	26801
ĠAc	26799
Ph	26798
FC	26791
Ġč	26779
sys	26772
HR	26771
zz	26769
isa	26768
Ġacquired	26754
Ġtheorem	26744
ĠAN	26744
Ġgrid	26742
Ġlie	26724
}^{(	26717
Ġvertical	26716
Ġni	26716
tmp	26710
]"	26697
els	26690
rk	26689
Su	26682
Ġinduction	26678
ĠLake	26675
250	26648
Ġuniform	26645
have	26641
Lo	26641
Ġdisc	26624
Ġrestaurant	26623
ĠAnn	26623
Ġrisks	26621
ĠMexico	26613
Ġaddressed	26611
ĠIraq	26607
{-	26599
Ġpresentation	26591
Ġregulatory	26586
Ġbattery	26579
Ġwinter	26576
)}{	26574
ident	26569
His	26569
otic	26566
uni	26565
Ġpa	26521
}^\	26517
Ġflu	26517
ĠKar	26516
Ġfairly	26514
Ke	26510
Ġreviewed	26508
example	26507
Ġera	26505
>.	26503
ĠMaybe	26496
location	26494
~,	26492
Ġrecall	26492
121	26490
Window	26489
Ġfails	26488
Ġill	26486
Ġinflammatory	26483
Ġstatistics	26480
month	26478
Like	26471
Ġpayments	26470
Ġaudience	26468
Ġprobe	26465
Ġdependence	26463
231	26457
Ġresolve	26447
2003	26446
Ġhydrogen	26446
Ġcompensation	26446
Ġecho	26434
Total	26431
Ġenhance	26406
^,	26404
Ġsuffering	26401
Ġmomentum	26399
izer	26395
ÑĤ	26392
handle	26387
Ġcircle	26376
Ġclusters	26367
Ġexcess	26366
ĠModel	26362
ĠVa	26360
Ġcons	26354
Ġconvert	26348
ĠDes	26348
=(	26335
Ġ1995	26333
ĠCol	26328
ĠWilliam	26326
Ġwindows	26325
ĠCare	26322
address	26316
Ġgoods	26309
Ġev	26308
Ġhotel	26305
-------------	26303
Ġrecover	26295
Ġflux	26294
Ġbrowser	26286
eth	26284
ĠSec	26278
ĠDM	26277
av	26272
Ġ\>	26272
Ġclock	26268
Ġcoll	26262
Ġtemperatures	26261
Ġdocumentation	26256
=>	26249
00000000	26247
Ġkeys	26241
ĠOrder	26238
Ġtwenty	26232
Ġregardless	26232
ãģ®	26230
ĠGame	26211
AG	26210
Ġmigration	26208
Pl	26201
FT	26200
ĠWall	26174
Ġcomfortable	26173
Address	26161
ese	26157
Ġuniverse	26157
ĠPort	26150
ĠDR	26146
Ġengaged	26140
Ġvehicles	26134
Ġregional	26130
Ġsimulations	26125
ĠShi	26119
his	26116
"}),	26115
Ġbanks	26115
Ġsurfaces	26105
Ġadverse	26105
bc	26100
Ġwire	26100
ĠAI	26093
then	26091
ĠKr	26091
ila	26086
rov	26085
Ġpublication	26084
Sc	26074
Ġcook	26074
ĠVirginia	26071
dra	26068
Ġchoices	26067
Ġyounger	26062
Ġpursuant	26062
kt	26056
cup	26052
Ġshell	26051
ĠBre	26050
Ġ1980	26047
Range	26045
Ġkilling	26036
Ġaside	26034
Ġca	26033
iti	26029
Ġexpand	26028
Ġfe	26027
ĠAppellant	26024
Ġil	26008
Ġlaboratory	26006
TD	26004
ĠmiR	25998
Ġreform	25996
Ġrational	25991
Ġsymbol	25984
Ġph	25980
BB	25979
Ġcoupled	25977
Ġdeliver	25970
Ġ102	25968
Ġrock	25964
ĠSte	25956
)}}	25955
Ġprogression	25953
Ġoperate	25953
Section	25950
Dec	25950
Ġsuffered	25942
Ġuint	25930
ĠPP	25930
Ġturning	25929
ima	25912
ĠScott	25906
Fi	25903
'$	25903
Ġstores	25903
Ġlisten	25892
="#	25887
Ġbreath	25887
Ġodd	25886
illa	25885
ĠPE	25885
Ġmini	25883
Ġheads	25883
Ġscenario	25874
ãģ	25873
Ġsubsequently	25868
ĠMen	25862
Ġsky	25848
mann	25847
Ġedges	25845
Ġmutation	25844
dc	25840
Ġ104	25839
Ġrows	25837
Good	25836
Her	25832
Ġelectrode	25830
Ġrefused	25821
ĠEvery	25817
ĠWhere	25813
Ġbuildings	25810
Ġguard	25798
Ġhell	25797
ĠOhio	25796
During	25794
mes	25792
Ġproducing	25792
Ġwarning	25791
ĠTeam	25790
Ġcapture	25785
ĠGNU	25784
Ġfamous	25782
Ġcolumns	25781
fr	25778
Ġcalculation	25777
Ġ01	25776
Ġinhibitor	25775
Ġsmoking	25770
Ġfoods	25768
AND	25762
ward	25760
sy	25760
dim	25760
ĠTR	25760
107	25757
ĠAli	25752
Ġgrounds	25751
Ġwalls	25750
Ġstimulation	25750
Ġattempted	25748
NET	25747
step	25746
,$	25734
}|	25727
Ġcalculate	25727
Ġstood	25723
Ġstrike	25722
ĠAppeals	25721
Â´	25715
will	25715
layer	25713
Most	25711
fill	25708
cin	25708
Ġlock	25703
106	25700
ĠSm	25695
ito	25689
Ġentity	25687
Ġapoptosis	25685
ĠBO	25685
Ġver	25681
ĠMel	25679
Ġflight	25671
ĠMrs	25664
108	25660
abs	25659
Ġcorresponds	25659
Rep	25657
gy	25654
Ġproposal	25652
Ġboys	25645
ĠJewish	25644
Ġfarm	25639
Ġshock	25625
Ġfacing	25624
ape	25623
Ġbelief	25622
Ġstands	25620
2002	25617
ĠChief	25615
temp	25613
wide	25610
Change	25608
yst	25594
Âģ	25592
Ġcontributed	25590
TER	25584
Ġmon	25582
Did	25577
used	25576
Ġplenty	25574
Ġbeer	25572
enti	25570
ĠCanadian	25570
Ġemployer	25566
ination	25558
ĠBush	25549
Ġwelcome	25546
Ġrepresenting	25543
Ġbasically	25542
~*	25541
Ġbin	25541
ita	25539
LC	25532
Ġroll	25532
Ġinvolvement	25529
ĠCarolina	25518
Op	25515
}"	25513
MT	25513
Ġho	25513
--------------	25512
ĠGO	25510
Ġlens	25508
)|	25506
Ġminister	25504
Ġinflammation	25504
Ġsuperior	25501
Ġversions	25497
Ġreceptors	25495
ĠText	25495
EF	25490
Par	25481
%;	25480
aka	25472
now	25468
urg	25466
Ġins	25464
Ġcl	25464
High	25461
Ġproceedings	25461
hor	25459
Expand	25456
Ġfo	25442
\;	25437
ĠFu	25436
Ġnum	25429
ĠRepublicans	25427
ĠEM	25411
Ġchamber	25408
ĠMary	25401
math	25398
Ġinclusion	25385
Ġtail	25383
Ġprotest	25380
Ġarbitrary	25380
Ġcolors	25378
ĠHE	25376
Reference	25368
Ġyellow	25361
uta	25359
ĠOh	25358
PO	25356
Ġteacher	25353
ĠVersion	25341
air	25340
800	25337
117	25337
Ġwalked	25336
ĠValue	25332
Reg	25327
ĠTre	25322
Ġequally	25321
place	25316
Br	25315
Ġwa	25313
Ġfellow	25313
ision	25310
Ġmodes	25309
ĠCharles	25306
cing	25304
Ġgauge	25297
Ġexecution	25293
ĠReview	25292
Ġconsumers	25288
Ġcoefficient	25283
ĠRock	25282
Ġqu	25280
Ġopposed	25280
Ġthickness	25274
Ġisland	25272
Ġpulse	25270
Ġ<-	25257
Ġperforming	25246
UL	25240
dit	25235
Ġbacterial	25234
Ġjourney	25230
Ġtab	25227
Ġverdict	25226
Top	25216
full	25214
Ġuniversal	25214
Ġmoves	25214
wing	25212
022	25207
total	25203
Red	25192
edu	25190
ĠBell	25188
ega	25185
ĠMO	25181
awa	25177
Sl	25177
Gu	25171
Ge	25168
Ġdiversity	25162
Ġagencies	25158
ĠAustralian	25156
Ġapplies	25152
ĠMiddle	25149
under	25146
params	25144
Ġfly	25139
Ġnano	25138
replace	25135
kar	25134
ink	25133
ĠGC	25132
Under	25131
Ġadjacent	25131
Ġpregnancy	25124
ĠWE	25124
expect	25123
ctx	25119
Ġrepeat	25117
Gi	25108
MD	25106
Ġdecline	25098
Ġinduce	25096
device	25092
0002	25090
Ġcontrary	25086
Ġstronger	25083
Header	25080
Ġperiods	25079
Finally	25077
par	25073
TM	25072
Ġ1994	25072
Ġplanet	25071
Ġsatisfied	25067
Ġsand	25065
Ġsharp	25062
Ġprepare	25062
oxy	25058
Ġbutter	25057
Ġmissed	25053
190	25050
>&	25041
ĠHR	25036
\|	25034
Ġmapping	25031
)}$	25022
ĠDoes	25007
ĠAmong	24997
Ġstatistically	24996
Ġmutant	24996
Ġgarden	24994
"))	24992
Val	24982
ats	24976
Ġwherein	24976
Ġmagnitude	24973
Ġpermanent	24971
Ġcreates	24969
files	24963
ĠPrime	24962
Ġban	24961
;</	24958
ius	24952
ĠMer	24952
Ġcards	24945
una	24942
about	24942
Ġbegins	24940
Ġintake	24934
white	24933
Ġongoing	24923
Char	24918
Ġshares	24918
ĠJoe	24916
Ġclassic	24909
ĠThree	24906
é	24897
bu	24897
Ġthereof	24897
Ġspirit	24892
Ġdecreasing	24888
cpp	24886
Ġdimensions	24885
Ġcoefficients	24880
Ġhyp	24876
External	24875
anti	24874
san	24869
BS	24869
ÑĢ	24864
Ġbringing	24864
Ġtheme	24861
DIR	24854
Ġprofiles	24854
Ġcutting	24853
Ġrep	24850
Ġstack	24847
Ġ$|	24839
burg	24837
Ġacademic	24834
Ġnewly	24832
Ġdivide	24825
Ġconnections	24823
Ġmarkers	24819
bp	24801
Ġevil	24801
pers	24798
Ãħ	24795
Ġrank	24790
.âĢĻ	24789
ith	24778
onic	24777
Ġexcluded	24777
Ġefficacy	24775
Ġsymmetry	24772
ĠTrans	24772
Ġcomprehensive	24771
Ġteachers	24768
Ġanxiety	24765
(\[	24764
positive	24757
Ġvictory	24756
ĠRichard	24756
AI	24755
Edit	24751
119	24742
mathscr	24740
Ġconsequence	24725
Ġaudio	24724
Ġsick	24722
Ġlosing	24720
Ġchose	24712
Ġos	24711
Step	24709
ĠMike	24709
HS	24708
UM	24705
ĠFL	24701
Ġintermediate	24698
Ġshouldn	24696
Ġtrace	24695
ĠBR	24684
Ġselling	24683
Non	24682
Core	24680
Ġrequiring	24679
Ġmanufacturing	24675
LT	24673
Fr	24669
enter	24667
une	24666
Ġcomplications	24666
GH	24665
Ġvariance	24663
Search	24659
LS	24658
Ġsaved	24656
{"	24648
Ġbowl	24647
Ġboost	24641
John	24637
Ġsubset	24632
Unit	24626
Ġextracted	24622
Ġtargeted	24620
Ġadequate	24614
ency	24609
Ġlesions	24603
click	24599
ĠCho	24598
Ġdiagnostic	24597
1999	24596
eno	24589
Ġpowder	24585
rl	24577
Ġinjured	24571
"}](	24568
Ġdealing	24568
Connection	24566
Lu	24562
unit	24560
ifies	24556
|-	24553
via	24553
Ġusage	24553
ĠLO	24543
ĠYet	24539
uch	24537
VA	24533
Ġsuspect	24533
column	24532
master	24518
Column	24516
tw	24513
Ġtrained	24501
Ġob	24499
what	24495
ĠTe	24494
Ġalign	24488
Dir	24486
Ġpop	24480
oli	24476
een	24476
Def	24471
Ġinfrastructure	24468
np	24467
sql	24466
Ġsur	24453
ides	24442
ĠCe	24432
LP	24431
Ġstrange	24429
Ġmetabolic	24429
Ro	24424
Con	24420
Ġhydro	24420
ATION	24417
Ġtour	24416
Ġpredict	24414
edit	24413
ĠNetwork	24409
Ġvaluable	24406
including	24398
ros	24391
}}^{	24390
214	24386
Ag	24379
ĊĊĊĠĠĠĠĠĠĠ	24375
Ġafternoon	24373
Ġbrings	24367
Ġprofit	24363
rio	24353
,$$	24351
127	24345
Ġwearing	24339
should	24338
Ġconservative	24337
Ġ105	24337
Â²	24334
Vert	24334
Ġmoments	24328
die	24327
ĊĊĠĠĠ	24323
yc	24319
Ġprefer	24314
inal	24311
LY	24310
cript	24302
parse	24300
Tex	24294
Ġfaces	24289
Cu	24284
Ġsu	24283
empty	24282
ĠBur	24281
Ġprec	24280
ĠArmy	24272
Ġcalculations	24256
Ġdifferentiation	24254
Ġtape	24253
limits	24250
such	24246
ĠGiven	24241
Ġtechnologies	24240
ĠGold	24240
ĠTer	24226
Ġdiagram	24223
mn	24219
Ġactivated	24215
Ġtruck	24211
Ġreviews	24210
mc	24205
Ġ190	24203
met	24200
OH	24199
Ġinstances	24199
aries	24192
Ġapartment	24187
Ġattribute	24185
Ġbridge	24184
Ġrely	24181
ĠGP	24176
ren	24174
UC	24173
cho	24163
Ġbits	24163
ĠFire	24162
Har	24148
ĠWater	24146
Ġreserved	24145
Ġhash	24143
ech	24125
Es	24125
weight	24124
Tree	24124
III	24116
Ġbear	24107
ĠBoston	24106
ski	24105
Ġchicken	24104
MR	24099
Ġheader	24095
ĠFrank	24092
ĠChristmas	24086
ĊĠĠĠĠĊĠĠĠ	24084
ann	24083
conv	24082
oy	24081
Ġ<=	24077
Ġelected	24057
vin	24044
Ġcardiac	24040
rat	24035
Ġrenal	24031
+^	24030
ĠInf	24030
Ġallegations	24022
Ġcloud	24021
Port	24019
Ġcomputed	24019
lf	24017
ĠPur	24013
blue	24009
Ġintroduction	24005
BU	24001
Ġclassified	23999
UP	23996
${	23989
Ġseriously	23984
Ġsurprise	23980
Ġdedicated	23978
Win	23977
[[	23975
ters	23974
ĠSH	23972
lam	23964
ĠPL	23963
Ġsatisfy	23956
Ġmail	23953
Ġordinary	23949
Current	23948
Ġdistributions	23946
Ġrevenue	23944
git	23941
nie	23940
Ġgalaxies	23931
Url	23930
ĠCorporation	23929
Ġaged	23925
ĠFind	23922
fer	23921
padding	23919
Ġoverride	23916
Ġhistorical	23910
Ġvary	23900
Ġ103	23894
med	23893
Ġnu	23893
Make	23880
Ġdecay	23875
Ġ106	23875
Ġsemiconductor	23872
pace	23869
Ġsteel	23869
Ġmask	23869
Ġsnow	23864
mol	23850
Task	23843
ĠOP	23835
Ġgift	23832
Ġpresents	23829
.^[@	23828
Ġ$\{	23824
delete	23823
Ġtheoretical	23817
Ġcorrection	23817
GR	23814
ulated	23807
255	23806
Ġboolean	23803
Ġkit	23802
\}$	23798
-*	23794
Ġreader	23793
Ġperfectly	23793
ĠFo	23791
Ġrepr	23790
process	23789
export	23788
.]	23788
quot	23782
store	23778
Ġeditor	23777
Ġpartners	23776
Ġinstrument	23775
just	23769
Ġinvolve	23765
Ġlattice	23757
Ġdiagnosed	23750
acc	23744
Ġstaining	23743
ille	23739
Ġ1993	23739
Ġchecked	23738
113	23737
Ġpot	23735
ĠSimilarly	23732
product	23730
Ġwarrant	23730
Ġillness	23730
yd	23727
Ġanywhere	23726
Ġ1992	23720
rop	23717
Ġmom	23716
ĠPet	23706
})}	23701
Ġimmuno	23699
ĠClub	23697
ĠHam	23695
ĠBlue	23690
Ġlaunched	23686
ĠIM	23684
Ġincubated	23677
115	23670
send	23667
ĠParis	23666
Ġhem	23663
Ġdiffer	23657
Ġchest	23657
ĠTE	23657
osi	23648
HC	23644
Ġmetabolism	23643
Ġprediction	23636
Ġya	23633
Ġcarefully	23628
nis	23623
Ġfu	23622
ead	23620
Ġeducational	23607
ĠAnalysis	23606
Ġafford	23603
Ġ130	23602
ĠError	23590
Tag	23582
Ġyesterday	23582
Ġurban	23575
Ġdiv	23573
Sch	23572
Ġstrict	23570
TP	23566
---------------	23545
FL	23542
Main	23538
PH	23537
Level	23534
lines	23533
700	23532
ĠSU	23531
here	23525
Ġmatches	23524
ame	23520
materials	23516
tel	23511
Ġinsulin	23507
gin	23505
Introduction	23504
Select	23502
Ġbreaking	23499
Ġfraud	23490
ĠAngeles	23488
Ġthousand	23481
Ru	23480
Ġstatutory	23480
ĠLight	23478
Ġride	23473
etic	23472
oke	23458
United	23457
),\	23457
ĠShow	23457
global	23442
Does	23442
Ġĉ	23435
ĠMedia	23434
ĠBA	23430
Ġhardware	23423
ĠYOU	23417
Come	23415
Ġdrinking	23388
Ġrounded	23387
Ġwriter	23386
Doc	23376
Ġdance	23371
kes	23370
Ġsole	23367
Order	23365
osition	23358
lation	23355
Fl	23355
bra	23353
hash	23349
Ġdomains	23345
Ġsufficiently	23344
Ġlit	23343
ĠGrand	23342
Once	23340
Ms	23334
Ġcomplexity	23332
Ġroutine	23330
Ġpartially	23326
Ġà¤	23325
Ġcarrier	23325
cur	23324
Ġneighborhood	23317
Ġpseudo	23316
Ð	23314
Ġcontends	23313
Ġdataset	23308
ĠTro	23293
Ġchi	23292
ĠDespite	23290
IB	23282
ĠVI	23279
Ġwest	23278
Ġdisclosed	23277
mut	23274
Ġcomparable	23271
ĠDetermine	23271
Ġsomewhere	23270
Ġmonitor	23263
sit	23258
Ġreferences	23256
232	23250
Ma	23249
ures	23247
Ġkernel	23247
they	23241
Ġloaded	23235
ami	23234
Ġimposed	23227
FD	23226
docs	23222
Ġcontrolling	23206
Ġyields	23201
rest	23200
Ġcrowd	23199
Ġdenominator	23192
Ġnumerical	23182
dn	23181
Write	23175
Ġbelieves	23173
}-\	23170
Ġstroke	23169
FR	23168
Ġtranslation	23160
ties	23148
ĠAF	23147
Ġrender	23143
}},	23139
ĠPan	23138
ĠMass	23137
ĠJava	23134
!!	23133
Ġthrows	23131
Ġjump	23131
ĠEX	23130
Second	23123
ark	23121
mediated	23120
Ġdiscrimination	23120
cache	23118
ele	23116
ĠSpecial	23109
Ġreveal	23098
ela	23096
Ġsampling	23093
ulate	23081
Ġbehalf	23075
Ġsight	23073
195	23069
rar	23058
Ġtables	23058
Ġcommit	23058
ĠConstitution	23056
ĠFE	23055
Ġperipheral	23054
Ġadmission	23050
container	23046
Ġmarketing	23044
ĠBritain	23044
Ġbytes	23042
________________	23037
ĠIF	23030
Ġtele	23029
)),	23026
ĠCell	23024
pd	23019
Back	23017
Ġserves	23014
Ġ180	23010
ĠLE	23000
ĠFar	22999
á»	22997
nar	22995
Provider	22995
Ġgeneric	22992
}\\	22991
Ġeast	22985
116	22975
Ġcache	22972
ĠFed	22965
Left	22960
Ġhandling	22940
ically	22937
det	22934
Ġkid	22934
zero	22932
Ġchallenging	22928
textbf	22918
ĠSpace	22907
ĠAu	22907
urs	22902
Ġgrew	22899
ĠTrue	22892
Ġconstraints	22891
ĠAA	22887
arm	22883
Ġli	22883
Ġci	22880
RES	22877
?'	22876
bro	22872
vol	22871
ĠMain	22868
}_\	22867
ĠDS	22866
Ġexplicitly	22864
}[	22863
Ġcited	22862
gra	22852
Ġsimultaneously	22843
Ġalive	22839
ĠCat	22837
unt	22828
tom	22828
years	22823
Ġalgebra	22811
Ġmales	22806
Ġacc	22800
ken	22796
Ġtiming	22789
ĠAccordingly	22789
Ġproven	22787
ĠNext	22780
ĠForce	22777
xs	22772
Ġ-\	22772
debug	22767
Ġneural	22767
Ġhealthcare	22748
ĠSN	22748
Ġvariations	22747
Ġ"\	22740
Ġgreatly	22738
Only	22731
email	22728
Ġ111	22722
switch	22717
Ġquiet	22717
FP	22715
ĠFox	22715
ĠBased	22712
usr	22711
ship	22710
nl	22699
ĠRight	22699
Debug	22698
ĠHTML	22695
Ġer	22692
yes	22689
prod	22684
Ġresponded	22683
foot	22664
Ġamplitude	22661
Ġimproving	22654
ĠAsia	22647
Ġcovering	22644
care	22632
114	22632
ĠTC	22626
Ġvast	22624
Ġfewer	22623
Ġingredients	22620
stat	22612
Ġfed	22612
Using	22611
Ste	22605
ĠNI	22605
ĠOld	22592
SELECT	22590
Gl	22586
move	22582
ĠTechnology	22577
cli	22572
ĠWomen	22572
nb	22567
ĠNon	22563
ĠThanks	22559
ĠJr	22557
ĠRI	22556
Ġrose	22551
Ġpenalty	22551
Ġapproximation	22545
Height	22544
ĠWT	22541
Cal	22539
310	22536
ĠSw	22536
Ġclo	22534
Ġchair	22530
ĠMatt	22523
377	22522
game	22521
mine	22519
ĠBusiness	22519
Ġelevated	22517
OT	22516
Ġadministrative	22516
Ġcohort	22514
alt	22509
Bu	22507
Ġhasn	22497
Ġinc	22496
dep	22495
PM	22495
Ġbottle	22495
ĠLy	22493
Ġgli	22491
Ġloading	22483
ida	22481
ĠYoung	22480
ĠUV	22480
Ġar	22479
DP	22478
Ġgay	22476
Ġsending	22475
Ġmovies	22473
ĠURL	22472
Ġnamely	22469
task	22464
Ġrooms	22459
Ġnearby	22455
clear	22450
Document	22448
ĠUser	22438
Ġsubt	22434
Ġmill	22433
uit	22432
command	22431
Ġcopies	22426
Ġmatching	22424
Ġfailing	22419
Ġcomparing	22418
Ġtrigger	22412
Ġquantity	22411
Ġpapers	22410
Ġdrivers	22410
Ġdifficulty	22408
window	22407
ico	22407
Ġcompute	22403
Ġcodes	22401
à¤	22397
ĠÐ	22388
ĠValley	22388
Ġdec	22377
Ġcouncil	22372
Ġtoken	22370
Supp	22366
Ġomitted	22362
ction	22361
Ġrejected	22357
Ġcommitment	22355
ĠIsraeli	22351
Equal	22345
Ġprecisely	22345
arch	22343
Ġfrequent	22338
ĠDar	22329
gon	22327
Mon	22326
had	22322
'),	22322
Ptr	22320
Build	22318
Ġfifth	22317
Ġinequality	22312
Ãł	22310
ĠLocal	22306
matrix	22291
COM	22290
Ġspiritual	22287
ĠCON	22281
Ġja	22277
Ġovercome	22276
Ġinvestors	22271
Ġlunch	22270
Ġcollect	22267
122	22266
Ġ128	22266
rp	22265
ĠOK	22260
Title	22257
IG	22248
Ġprovider	22248
Ġdivisor	22247
Ġnotion	22240
Ġscientists	22239
Ġabsorption	22238
Ġmachines	22237
Ġexhibit	22231
Ġund	22230
types	22227
Ġbuying	22222
Ġatoms	22222
Ġmes	22220
ĠFund	22219
cmd	22214
Ġbulk	22209
Ġfemales	22205
ĠLove	22199
ì	22192
Ġdep	22188
Ġcompetitive	22187
ĠRam	22187
Ġbusy	22186
Ġnaturally	22185
May	22182
170	22177
Ġdiverse	22170
Ġdoctors	22166
Ġwet	22162
ĠAng	22162
ĠIllinois	22161
Ġcu	22151
uation	22150
Ġheter	22150
Ġes	22145
RF	22143
bd	22136
Ġmu	22132
sur	22131
ĠRob	22129
copy	22125
ility	22124
Ġscan	22122
ĠPlan	22121
hm	22120
Ġclosing	22118
|^	22117
cre	22117
Ġcareful	22113
ĠJack	22111
ĠJackson	22107
Ġsignature	22105
Offset	22103
ĠTS	22098
%).	22094
uns	22088
ĠBr	22086
ĠCivil	22083
week	22081
ĠDavis	22081
asm	22080
Ġparticipation	22077
Ġmarker	22077
Position	22074
Ġcuts	22074
GP	22070
Ġelections	22068
Ġmeasuring	22065
Ġscored	22064
Ġsubmit	22062
191	22060
application	22057
ĠRoyal	22057
Ġcheese	22056
Ġroof	22055
KI	22053
'>	22053
Ġcream	22049
ĠCur	22049
known	22044
Ġengage	22043
pack	22041
ĠChapter	22041
itive	22038
ĠToday	22035
Ġmal	22034
ĠYu	22034
Entry	22031
Ġ108	22030
!âĢĿ	22025
ĠKim	22023
Ġsurprised	22021
ĠMichigan	22013
ĠMB	22006
Ġreduces	22004
Ġriver	21991
Ġrestricted	21989
gov	21986
^+	21986
Ġperi	21983
ĠSQL	21981
Mac	21971
loop	21970
Ve	21967
Ġexit	21967
Ġadjusted	21960
Ġcomfort	21959
}^{-	21957
ĠBal	21957
Ġyards	21955
ĠCL	21952
Ġcable	21945
ĠTu	21943
Ġprivacy	21939
×	21938
ĠAmazon	21930
ĠMin	21929
ĠCatholic	21925
ĠNov	21924
)_	21922
Ġfeelings	21920
rot	21916
interface	21916
ĠItaly	21915
Ġscheduled	21912
Ġ192	21912
ĠMat	21910
Ġindependently	21905
Ġcomposed	21904
Ġleaf	21903
Ġtelephone	21898
Ġ\;	21898
////////////////	21897
Ġsuffer	21897
Ġcoordinates	21894
bn	21881
wl	21879
tm	21878
kk	21875
ĠHor	21871
Ġcheap	21870
throw	21867
Ġdominant	21859
Ġadds	21859
Template	21851
Ġarmy	21847
ĠEm	21846
oph	21845
Ġanymore	21836
nom	21835
Ġpresidential	21835
Ġmistake	21832
Ġbundle	21832
Ġjo	21831
Ġserial	21827
stra	21825
Ġkinase	21820
Ġsuppose	21818
ĠImage	21818
ĠCEO	21817
rint	21816
Ġcontinuing	21812
HD	21811
ĠDem	21811
equal	21810
ĠAv	21808
ifying	21798
ond	21797
join	21791
Cache	21791
ĠSyria	21786
Ġsilver	21784
world	21778
Ġrear	21768
030	21758
ĠPut	21753
BP	21751
Ġteeth	21750
Ġsettlement	21749
Ġlipid	21745
ĠGal	21745
ais	21744
ĠReport	21740
Ġear	21738
Ġmodification	21729
Parameter	21720
Tu	21719
124	21718
ography	21707
Ġcrimes	21707
Ġtalked	21706
Ġboat	21703
draw	21700
ĠEnergy	21697
Bra	21696
Ġprogramming	21692
access	21691
dan	21686
Ġelectro	21686
210	21683
Ġcommunications	21682
Ġcommission	21681
Ġaircraft	21678
Ġko	21671
Ġherein	21668
tx	21667
addr	21666
Ġbroke	21663
sol	21659
ĠChris	21658
Collect	21653
bus	21649
Ġprecise	21646
ĠResults	21643
Ġgenerating	21637
ĠĊĠĠĠĠĠĠĠ	21631
Ġsmoke	21628
power	21624
binding	21623
transform	21622
ĠCont	21622
Ġopinions	21617
ĠBest	21617
Ġpassword	21607
Ð»	21605
vm	21596
kn	21594
Ġlymph	21592
reference	21591
NN	21590
Module	21585
desc	21579
Ġje	21579
Ġski	21578
Long	21577
Ġwealth	21576
Ġlegs	21563
Okay	21561
Ġlists	21560
ited	21546
ĠMcC	21543
ved	21542
Ġshoulder	21541
ily	21539
Ġwaves	21534
Ġlocally	21534
Ġafraid	21532
hol	21531
Ġexecuted	21530
Ġvectors	21528
Ġdad	21527
Ġdanger	21524
Ġradical	21520
iel	21519
Ġ140	21514
Ġdelete	21513
ĠNY	21507
Ġ125	21504
Ġhide	21495
Ġ**(	21493
Ġpour	21492
Ġreceiver	21491
Ġcrazy	21485
Free	21483
tp	21478
Ġinfinite	21474
ĠNF	21474
Ġextraction	21473
.;	21470
Ã¢	21468
ĠYear	21467
Ġsuddenly	21466
Ġpetitioner	21465
ios	21464
Ġblind	21464
Ġsal	21456
Ġrefers	21455
DF	21450
Phys	21449
tain	21440
Ġhonor	21440
Device	21438
Ġhouses	21436
URE	21432
bed	21429
Ġaimed	21427
Vo	21423
Î	21412
ĠItalian	21412
Ġlip	21404
Ġinhibitors	21395
Sal	21393
Ġmild	21393
ĠTB	21393
tn	21391
Ġ112	21390
Ġbath	21389
Ġtaught	21384
Ġjail	21380
unc	21375
Ġacquisition	21375
Ġwhenever	21374
Ġpres	21372
support	21371
Jo	21370
\>	21369
most	21367
zu	21362
ERROR	21361
Http	21351
Trans	21350
making	21347
Ġstreets	21347
Ġattend	21344
'_	21342
ĠBY	21339
ĠGeorgia	21337
ĠJe	21335
Ġcultures	21333
Ġforum	21330
DNA	21327
ĠAsian	21326
Ġorientation	21320
Ġenabled	21315
API	21313
session	21309
ĠLS	21309
bat	21295
Ġexpenses	21291
ĠAb	21289
Ġencourage	21288
ĠStra	21288
ĠPen	21285
áĢ	21284
Ġvital	21283
Ġtemporary	21279
sil	21277
Ġpriority	21277
ĠDisc	21275
Ġplea	21272
Ġpassage	21271
sel	21269
ces	21269
Spec	21267
Ġbreach	21266
Ġweapon	21261
Entity	21254
gel	21252
zer	21250
vc	21246
)$$	21242
Put	21237
uce	21236
ĠProposition	21236
oon	21235
Ġexplicit	21233
Ġconsecutive	21229
ĠEli	21228
ĠManagement	21226
>\	21225
thm	21221
Ġatmosphere	21221
virtual	21220
born	21220
Ġwestern	21219
Ġwatched	21211
dict	21208
AK	21207
ĠCross	21207
Activity	21205
ĠØ	21203
PER	21201
Ġupdates	21196
Ġplurality	21194
Ġproduces	21190
ĠTen	21187
ĠBefore	21185
ffe	21182
VER	21182
023	21181
Ġnerve	21179
Ġsymmetric	21177
Ġ1991	21174
Listener	21172
ĠAnti	21172
ĠRights	21171
,{\	21168
nan	21165
ĠED	21162
Ġappreciate	21161
rv	21159
Ġhi	21156
','	21154
ave	21150
ĠDB	21150
Ġfrequencies	21148
Ġvalve	21141
Ġ::	21141
Ġearn	21139
Ġsoul	21137
ril	21133
Ġtrading	21132
Os	21131
Sw	21127
impl	21119
SR	21118
132	21115
ĠWork	21115
UT	21107
Ġpsychological	21099
Ġawareness	21099
ĠMR	21096
():	21095
Ġtiny	21092
Ġreasonably	21086
town	21085
ĠPolicy	21085
scope	21084
ĠHD	21084
Ġsubs	21077
Cy	21073
Ġanalyze	21072
token	21066
mia	21065
change	21060
126	21059
Ġassist	21057
help	21043
\[[@	21037
Ġ}\	21037
green	21028
Ġpipe	21027
ira	21022
Ġlosses	21021
Ġlawyer	21020
Ġplates	21019
Ġpersonnel	21016
Ġprocessed	21013
ĠSR	21009
ĠChe	21006
Ġ189	21006
Ġimprovements	21003
ison	20996
axis	20989
aring	20989
Ġsauce	20987
ĠTake	20986
Ġsomehow	20985
Ġmar	20982
ĠPhoto	20982
nh	20978
Ġgang	20961
Ġwitnesses	20960
sv	20959
screen	20958
Ġpu	20958
Ġstruggle	20954
Ġweren	20953
wrap	20946
room	20943
ĠTim	20940
133	20933
Ġtalks	20933
Ġdeclare	20931
Sort	20927
Ġproviders	20923
angle	20922
Ġtank	20918
Ġexplains	20918
dar	20916
Ġvascular	20916
ĠNor	20914
ĠBack	20910
ĠSur	20909
Ġholes	20905
Ð¾	20904
-$	20904
Ġfluorescence	20904
Ġvideos	20902
xt	20900
å	20894
~)	20893
eur	20892
Ġantigen	20892
Sen	20885
Ġdist	20882
ĠPu	20879
Ġtemporal	20874
play	20873
Theta	20870
;\	20867
Ġorganized	20867
Ġmarks	20866
Ġuncon	20862
ĠGlobal	20858
Assert	20855
Ġcolour	20855
0005	20847
bot	20845
Ġgoverning	20840
methyl	20839
Ġaffirm	20834
Ġadopt	20834
Â¿	20828
linear	20828
hes	20828
Ġ};	20827
Ġexp	20811
Ġstone	20802
Ġreturning	20802
Ġmanufacturer	20797
Ġ>>	20791
Ġcolon	20789
Ġrespiratory	20783
ĠâĢ	20782
Ġroughly	20778
Ġunlikely	20773
Ġ&\	20773
ĠĠĠĊĠ	20773
tol	20772
ked	20765
Store	20763
Â®	20761
Ġinterior	20758
Ġdestroy	20754
SET	20753
ational	20752
SF	20750
Ġcreative	20748
ĠLC	20747
Ġgel	20744
Î³	20738
Ġinteract	20730
Ġ600	20726
lie	20722
ĠBP	20720
Ġnervous	20713
Ġcooking	20709
ĠCook	20707
none	20704
raw	20702
Ġdirections	20702
Ġ($\	20694
grade	20692
Ġpermitted	20691
Ġcorrespond	20689
Ġuncertainty	20688
ĠFR	20686
ido	20684
/.	20684
xf	20683
Ġrecipe	20681
\^	20680
Ġ(%)	20680
Ġarchitecture	20679
ĠThank	20675
iff	20672
ĠMiller	20672
'\	20671
Ġelsewhere	20671
Ġtall	20670
1998	20666
OO	20661
ĠAp	20660
Ġinvalid	20659
ĠWilson	20643
Ġmeal	20641
asi	20640
Ġignore	20638
Ġcovers	20638
0003	20637
pad	20636
ĠLI	20632
Ġfoundation	20631
Container	20628
Ġpad	20627
ĊĉĠĠĠ	20624
sed	20620
ĠCentre	20620
erg	20612
Ġparking	20609
âĢĭ	20604
ĠFC	20601
135	20599
Ġvertex	20599
Ġdeviation	20599
Ġsystematic	20594
Ġbounded	20587
Ġcleaning	20585
ĠVA	20584
ĠRen	20584
Ġverify	20582
Script	20573
equ	20568
Ġrestriction	20568
bre	20567
Em	20558
Dis	20558
Ġpolymer	20552
ype	20546
131	20545
second	20543
Ġpatch	20541
Ġkeeps	20537
Ġconsisting	20530
Ġcycles	20527
Ġsodium	20526
ĠRepublic	20526
Ġcompletion	20525
Ġinvasion	20524
lip	20516
PCR	20516
^)	20514
Ġmod	20514
ĠCN	20508
hon	20504
Ġseasons	20502
region	20498
ĠPO	20495
Ġchecks	20494
Ġviolent	20491
ĠMuslim	20490
217	20485
Ġutility	20482
ĠMax	20481
Ġmarijuana	20474
ĠGM	20474
iet	20471
Show	20470
Ġaffects	20470
exc	20466
Ġcontracts	20466
Ġattributes	20461
ĠAction	20460
Ġalgorithms	20458
Ġgiant	20456
Ġdisability	20453
Ġarch	20453
Ġconclusions	20451
ĠCra	20446
Ġpeptide	20443
Ġbike	20442
Ġoffensive	20436
gene	20430
Ġ1970	20429
Gen	20423
Ġchip	20419
Ġconcrete	20416
SIZE	20415
hood	20412
ĠAge	20412
Ġscattering	20410
Ġtheories	20408
Ġrice	20405
Ġwake	20403
Ġmedication	20393
Ġconsiderable	20386
instance	20383
rid	20376
Ġaccumulation	20369
Ġreaders	20363
./	20362
Ġfolder	20355
oper	20352
ĠLett	20352
Ġunt	20348
Ġonset	20343
Ġcert	20339
textrm	20338
Ġpor	20337
ML	20333
iness	20332
spe	20324
language	20320
TL	20317
Ġhybrid	20314
wt	20310
Ġrobust	20309
Ġtract	20307
Ġdispute	20306
disp	20302
Ġbroadcast	20299
Ġfra	20297
ifier	20294
Ġgeometry	20292
Ġavailability	20291
Ġrural	20286
129	20284
Ġconsole	20283
Ġconverted	20280
Ġmodules	20278
Ġep	20278
Ġdoctrine	20277
Ġviewed	20275
Ġmaintaining	20275
pat	20271
save	20270
Ġprevention	20270
treated	20267
Ġhorse	20262
ĠÃ©	20257
Ġpushed	20256
118	20255
Ġbread	20254
lab	20250
cn	20248
ĠJersey	20246
900	20244
ees	20242
Ce	20241
Ġvol	20241
och	20240
147	20239
ĠET	20239
ĠMu	20236
Ġcoli	20232
Ġpilot	20229
Ġpersonally	20229
ĠCG	20229
Ġdiscover	20226
Ġhang	20225
Ġsong	20224
ĠFROM	20223
Ġfault	20222
profile	20212
ĠCB	20211
ogenic	20205
Ġ((-	20202
Ġadvantages	20191
ĠSim	20183
Ġking	20180
ĠAtt	20180
Ċĉĉĉĉĉĉĉ	20180
ĠPH	20178
mac	20177
ĠCreate	20177
lon	20176
DT	20170
Cat	20165
ĠFla	20164
Ġphenomenon	20159
Ġexc	20158
rus	20150
Ġresolved	20146
Ġ107	20146
Ġconvicted	20144
Ġdysfunction	20143
Ġguarantee	20141
comment	20140
black	20136
GM	20132
ĠTM	20132
Ġfired	20131
Ġsurvive	20127
Ġdiscussions	20125
ĠLast	20124
Ġinterference	20123
======	20121
Ġteach	20118
Ġquasi	20115
Product	20114
ĠDI	20112
queue	20111
cil	20111
Ġsequencing	20111
Ġmirror	20108
OUT	20104
Ġlifetime	20104
Ġ''	20103
ups	20098
Ġending	20097
Ġhousehold	20092
ĠFood	20091
images	20090
ĠRP	20085
Ġbarrier	20078
ĠTan	20076
Mu	20072
Run	20071
ĠZe	20071
Ġvacuum	20070
SN	20067
JS	20065
mel	20059
ĠCy	20057
front	20055
Ġkm	20052
Ġregularly	20051
iva	20047
ĠCount	20047
Ġownership	20044
Ġmargin	20036
ĠSource	20036
Ġenc	20035
Ġcompeting	20032
los	20030
Ġpaths	20024
Ġ123	20024
Ġfiling	20019
Ġsir	20017
ĠKh	20017
Ġeggs	20016
ĠSouthern	20007
ĠMicro	20007
Ġfinger	20006
bly	20005
Ġoperated	19997
ban	19996
ĠLine	19995
Ġ"/	19993
Ben	19990
Grid	19989
Ġexclusive	19988
eas	19987
Ġinv	19987
Ġcrew	19987
220	19984
Ġcomprising	19984
ĠBel	19983
wall	19981
248	19981
ĠGR	19980
Ġprofessor	19976
ĠDen	19976
ĠWood	19968
fields	19967
DL	19960
Att	19958
GB	19957
Ġthinks	19956
Ġcenters	19955
Ġpsycho	19952
ĠHI	19951
ĠApplication	19946
Rect	19944
Ġentries	19944
ĠCommunity	19937
fb	19935
member	19934
ĠAG	19930
aging	19929
kins	19925
Ġquantitative	19922
Ġliberal	19921
Ġguns	19921
Ġ(âĢľ	19906
ben	19904
168	19902
Ġentering	19901
wave	19897
ĠCard	19895
Ġfusion	19894
enum	19886
wedge	19880
Ġpen	19878
ĠDescription	19878
pur	19871
Ds	19869
Ġancient	19866
Ġstrings	19863
Exp	19861
]=	19860
Ġgovernments	19858
Ġdegradation	19857
Ġjudicial	19855
ĠHal	19853
lig	19851
Ġpaint	19848
Ġfalling	19847
idi	19846
}}}\	19841
Vector	19841
Ġproud	19838
NP	19834
ĠDesign	19833
Ġreact	19830
family	19828
Ġsustained	19828
eed	19825
Ġms	19821
insert	19819
Ġtomorrow	19818
Ġease	19818
Ġ109	19815
175	19811
las	19809
Ġflavor	19801
Ġcaptured	19798
ĠHS	19798
Ġhum	19796
Ġì	19790
Ġreaching	19787
Ġsatisfies	19785
Ġrent	19785
Ġdemands	19782
Ġknee	19776
Ġinterventions	19776
Types	19774
\.	19772
Ġcolleagues	19772
Ġdia	19770
para	19761
person	19760
Bio	19760
FO	19758
Ġvice	19752
Ġfont	19749
Ġrecommendations	19748
Ġ187	19747
Ġremoving	19744
round	19740
ette	19740
Ġcoding	19730
Ġarg	19729
Tool	19724
Ġext	19718
Ġcoast	19714
Ġ$[	19714
usion	19712
ĠPoint	19712
Ġ115	19712
Ġadmit	19711
ĠTw	19711
lg	19707
}({\	19706
Â	19705
Ġhorizontal	19703
ĠSpanish	19702
Ġdismissed	19695
ĠDist	19695
ĠAdv	19695
Ġfalls	19689
Ġbid	19686
Age	19684
Ġportions	19679
Ġincorporated	19679
Ġroots	19677
ĠConference	19674
ĠMi	19672
Ġmut	19666
Ġexpanded	19665
Num	19660
console	19655
Ġqualified	19655
Ġworldwide	19646
Ġmess	19646
stop	19645
ĠHy	19638
Ġarise	19637
Ġmasses	19632
ior	19631
Ġobj	19621
ses	19618
144	19615
Ġkidney	19614
Ġprospective	19608
Ġlayout	19606
Session	19604
Ġnorm	19600
Ġstations	19595
Ġspan	19595
Operation	19594
ĠÂ°	19591
Ġfaced	19591
ĠOfficer	19587
Ġadministered	19586
Ġcra	19585
GET	19582
Ġassays	19582
ĠUC	19579
ĠFrancisco	19576
ulo	19573
att	19573
subseteq	19569
olo	19569
Has	19565
Ġexcessive	19551
EG	19546
Ġreg	19541
FILE	19537
Expression	19535
Ġrem	19531
Ġdoors	19522
Ġfolks	19521
280	19518
ĠNFL	19512
component	19511
ĠBol	19508
Ġresidence	19505
Ġseparately	19501
ĠCas	19500
Auto	19495
Ġstuck	19493
Ġdecreases	19493
Ġscales	19488
associated	19486
Ġgut	19486
wp	19480
pic	19478
ider	19477
Ġglad	19473
Ġfore	19469
Ġworker	19466
ĠPakistan	19464
Ø	19459
Access	19457
155	19457
ĠApache	19456
License	19452
Ġprominent	19451
jar	19449
ĠServer	19448
ĠHenry	19448
elo	19446
*]{},	19444
roc	19443
ĠDid	19439
Ġpackages	19434
ense	19433
Ġintervals	19431
Ġdeb	19419
Ġvotes	19418
domain	19415
ICE	19411
vent	19410
Ġfriendly	19410
mean	19409
Sk	19408
Ġgear	19405
Ġprotective	19404
Ġphysics	19402
Ġtoxic	19401
Ġ1989	19399
ĠTrust	19397
]{}]{}	19396
Interface	19396
Ġtargeting	19395
Mor	19391
Ġgradient	19391
Ġbunch	19386
mate	19381
Ġegg	19381
face	19379
Ġequ	19379
translation	19376
ĠGI	19366
sto	19361
Ġbeach	19361
ĠUr	19357
Have	19354
Ġprofessionals	19354
ĠLie	19353
Ġshit	19350
}}}$	19348
uous	19339
render	19333
ĠEc	19333
Ġmounted	19330
Ġclinic	19329
?)	19317
Ġpromoter	19308
spin	19304
hem	19300
204	19299
ĠCons	19296
ones	19294
Ġrising	19294
yp	19292
gui	19290
Ġfer	19283
sort	19280
ĠNu	19273
Ġvariants	19271
dor	19268
Record	19265
Ġaddresses	19264
Ġbands	19259
Ġargs	19257
Ġhonest	19255
Ġconf	19247
Ġappointed	19242
defined	19240
Ġheavily	19240
Ġflexible	19240
setminus	19239
145	19234
Ġscalar	19233
Ġpump	19229
Del	19227
mask	19222
hour	19220
Ġ188	19219
uli	19215
ĠDate	19213
Ġpasses	19209
Ġnamespace	19207
even	19204
Ġreflected	19203
ĠBor	19202
iated	19201
Ġconstitute	19200
Ġlikelihood	19198
Ġburn	19198
Ġabsent	19190
Ġ1988	19190
ĠDor	19189
Ġdb	19188
Ġju	19187
Ġdress	19187
anc	19186
Ġappeals	19186
ĠĠĠĊ	19186
sor	19182
ges	19182
Ġexpectations	19181
stack	19178
ĠMah	19175
Ġhat	19162
ede	19160
Ġpace	19157
Ġinsufficient	19151
Ġinform	19143
activity	19140
Ġratios	19140
xx	19139
ĠBob	19132
Ġsoldiers	19128
Â»Â	19125
Ġvalidation	19123
Ġmovements	19123
Ġdismiss	19121
Ġexpressions	19120
ĠStudies	19119
âĢ	19118
Ġpm	19118
Ġdrawing	19117
Ġseeds	19115
ished	19114
Ġvaccine	19112
_{(	19108
ĠProv	19108
Ġyeah	19104
Ġsolely	19104
Ġlimitation	19103
Ġgod	19103
Ġdish	19103
Ġseverity	19102
Ġconstantly	19101
ined	19094
Ġcarcinoma	19092
Ġsimilarly	19091
ĠLouis	19091
ĠMap	19090
Ġsees	19087
ĠEP	19086
Ð²	19085
MAX	19082
ĠAB	19082
Ġhospitals	19081
Ġadvertising	19079
İ	19078
Ġstupid	19076
Ġjoy	19075
ĠHas	19075
Ġenzymes	19073
Ġrelating	19068
short	19066
Ġbeauty	19059
ĠSir	19045
ĠInv	19045
Ġ\"	19041
ĠRun	19040
ĠPlay	19039
:=	19030
Ġanswered	19030
Ġengineering	19025
ĠIr	19025
release	19024
ĠTaylor	19022
channel	19021
ĠRet	19019
Ġbet	19018
ĠBeach	19017
rom	19016
Ġtensor	19014
ĠBL	19011
Ġdestination	19006
Ġrestrictions	19005
Ġawarded	19005
Ġsubjected	19003
Ġfeeding	19003
Ver	19000
ĠExp	18997
pal	18995
Ġcru	18992
Ġmeetings	18990
Ġforest	18989
Three	18988
Ġalignment	18986
Ġorth	18985
ude	18982
Ġcomprises	18982
Ġblow	18971
ĠDaniel	18970
ãĢģ	18965
nf	18965
ĠAcademy	18960
ĠDep	18959
Ġcoordinate	18950
åı	18949
card	18948
Ġbeneficial	18945
eff	18938
Ġhoping	18938
tf	18935
ÎĶ	18934
Ġbull	18934
San	18933
|}	18930
itude	18930
153	18929
Ġsupplied	18929
}.$$	18928
cit	18928
Ġbind	18926
ĠMiss	18926
ĠPage	18922
Ġdense	18912
ĠALL	18912
gate	18910
ijerph	18896
Ġnations	18893
Ġenjoyed	18890
away	18889
Fla	18889
Ġmanual	18887
ĠPatent	18886
Ġvarying	18885
ĠMedicine	18877
Ġimplications	18876
ĠOff	18875
tools	18872
Ġprojection	18872
Ġprosecution	18870
Ġlights	18866
=-	18865
Ġproceed	18860
cyt	18856
shape	18853
TV	18853
Ġedit	18852
ĠAnal	18851
Ġphysician	18848
Ġcombat	18846
Å	18845
Ġ113	18842
ĠWas	18838
area	18836
Ġimmunity	18836
Ġaccessible	18834
Ġcal	18833
Ġwheel	18824
Ġclothes	18824
Ġchart	18819
ops	18818
**.	18817
Ġalter	18817
).$$	18816
vari	18809
oids	18804
each	18796
Ġages	18791
Settings	18790
Ġproceeding	18789
good	18788
grid	18785
ĠAndroid	18783
Ġsmile	18782
ĠWITHOUT	18782
rol	18778
Ġmaximal	18778
ĠIslamic	18777
ĠSol	18775
cells	18766
ĠCarl	18756
Pol	18752
Ġga	18752
Ġsuicide	18750
ĠMag	18748
ĠMT	18744
ĠNorthern	18740
Ġlaid	18739
ĠFBI	18739
ĠRu	18728
ĠPennsylvania	18727
proc	18725
ulin	18722
Ġcalm	18722
141	18718
ree	18716
Ġ186	18712
âĢħ	18705
MENT	18705
press	18704
Ġbonds	18704
Ġbomb	18704
ĠLow	18702
Ġabundance	18697
odi	18694
[**	18692
<<	18685
Ġheating	18682
install	18677
Each	18675
Ġcalcium	18673
underline	18668
205	18668
Ġchat	18664
kind	18660
ĠForm	18658
Ġsizeof	18656
ĠJoseph	18656
Ġtips	18650
ĠHC	18647
Ġjet	18645
AE	18642
ĠEA	18642
Ġpixel	18641
Ġbr	18636
ĠSL	18635
emb	18634
Ġartery	18634
Media	18630
ĠTax	18630
Ġcord	18629
Ġstrip	18626
ĠRoman	18626
}}$.	18625
Ġpack	18620
ras	18613
Ġvitamin	18605
Ġranging	18599
hw	18597
EB	18594
Look	18592
Ġimmigration	18576
Ġcorporation	18576
Ġdefensive	18574
Ġtr	18571
Ġdestroyed	18565
Ġautomatic	18561
ĊĊĉĉĉ	18554
yan	18551
OW	18549
Cap	18547
Ġdesirable	18547
Ġabstract	18545
Ġsupers	18544
.(	18536
ean	18530
adi	18530
ĠCom	18529
ĠRO	18528
Ġinstallation	18524
ĠRyan	18522
Ġdevelopers	18521
ĠGreek	18519
Ġdys	18518
Ġresist	18515
Ġink	18513
Ġfunc	18513
ĠWhether	18511
rev	18510
ground	18506
ĠFort	18506
Im	18505
ĠAdministration	18500
Ġcollective	18498
ĠWA	18498
eon	18490
Ġeligible	18484
Ġdefines	18484
Ġcont	18483
Ġunusual	18479
Ġspecify	18477
Ġinsight	18477
ying	18476
Ġarmed	18476
.),	18473
Av	18471
Ġ\|	18469
iding	18468
Ġluck	18468
Ġeffectiveness	18467
Ġ114	18466
Thus	18465
ACT	18465
square	18464
ured	18460
Ġaltered	18460
ĠLinux	18459
Ġpartition	18457
Ġacceptable	18457
Ġproc	18456
ald	18454
Work	18450
iol	18446
Ġearned	18443
scripts	18442
ĠLtd	18442
Ġaff	18439
ĠTI	18437
Ġerred	18436
colon	18435
Ġlateral	18433
Ins	18431
Ġassignment	18424
dagger	18423
Ġstruck	18423
136	18421
*\	18421
Body	18420
Ġshoot	18416
Ġattractive	18415
Ġconsistently	18414
fall	18409
Ġpreliminary	18409
Ġsport	18406
Ġedition	18404
Ġunclear	18402
rect	18400
gal	18398
RY	18395
Background	18394
NF	18393
Ġwound	18393
Ġguidance	18392
Ġ02	18391
printf	18388
ĠPol	18384
ĠPatients	18383
è¯	18380
ĠMM	18376
Ġhom	18375
Ġvoting	18373
eli	18372
Utils	18371
Ġoccurrence	18367
Menu	18366
ĠHead	18366
ĠSteve	18362
bol	18360
ulating	18356
Ġhadn	18353
Ġmatrices	18350
1996	18348
fast	18346
Ġfacilitate	18345
Ġsessions	18344
osing	18343
ĠNumber	18341
Ġintention	18335
Ġ&=	18331
mil	18325
`,	18325
Ġrid	18325
Ġperceived	18322
ĠFour	18322
track	18317
ĠSanta	18317
Ġeverybody	18316
Ġloose	18314
Ġboot	18311
phase	18310
Ġmolecule	18310
ias	18307
Ġpoll	18305
AU	18301
uth	18292
Ġarrangement	18291
Ġbur	18288
enc	18286
pool	18283
KEY	18281
gm	18280
Dialog	18280
ĠBer	18277
Ġnormalized	18275
Ġtone	18271
Ġpepper	18263
iro	18257
Ġtracking	18257
news	18247
Ġoverlap	18243
flags	18242
Ġsystemic	18242
ĠAuto	18242
Ġintense	18238
watch	18237
Ġvisited	18236
ĠDue	18234
Ġshopping	18232
Ġcomplexes	18232
Ġexecute	18229
Ġmacro	18228
Ġsteady	18225
Ġidentifying	18223
Ġbirds	18219
ĠTor	18219
Ġrarely	18217
Ġflags	18217
Ġlab	18216
genes	18210
Ġruled	18209
Ġprecision	18207
Ġrandomly	18204
AGE	18200
!\	18200
Ġregistration	18199
Ġtreating	18198
Ġpromising	18196
Pre	18195
Ġmountain	18194
Ġattended	18193
Ġdesigns	18187
Ġsad	18185
Ġpur	18183
ĠMaster	18183
Ġchildhood	18181
fit	18180
Ġve	18180
Ġshorter	18180
diff	18177
_+	18177
Ġpoliticians	18177
ĠJews	18172
Ġcry	18169
ĠColorado	18168
Ġaging	18167
ĠIreland	18166
Ġtransportation	18162
ught	18157
ĠBook	18157
Ġmat	18156
UE	18149
Handle	18147
Ġprep	18145
ĠBase	18145
Ġultimate	18141
Ġba	18134
TF	18132
omb	18130
negative	18129
ĠSon	18129
hot	18128
Hello	18120
Ġflour	18120
Ġchemotherapy	18117
Ġwashed	18111
ĠLen	18111
outs	18109
ĠJim	18106
Ġoxide	18105
ĠPra	18101
Ã©e	18099
ĠTown	18099
Ġpregnant	18097
wait	18093
0010	18093
Ġdeeply	18092
ĠAcc	18090
category	18086
tbl	18085
ĠLT	18082
ologic	18081
ington	18079
="../../../../	18079
Ġinsert	18079
Ġvo	18078
ova	18076
Ġdeposition	18073
Photo	18071
Ġmagic	18071
pb	18069
Ġblame	18069
Ġintegrity	18067
Ġharder	18064
Ġconcepts	18063
}}_{\	18059
cam	18055
EXT	18053
1997	18053
Ġneo	18050
Ġrh	18048
ĠArizona	18047
Ġ"$	18046
ĠPython	18039
ĠStandard	18038
Ġwash	18035
Take	18034
0004	18029
rf	18028
ict	18027
inline	18024
ĠSupport	18024
NULL	18022
Ġclause	18021
Ġeverywhere	18020
ella	18017
Ġ160	18016
ĠKl	18015
HP	18012
Ġdenial	18011
Ġresidues	18008
Ġ121	18007
ono	18002
Ġforever	18000
CN	17998
Font	17990
ocytes	17989
Ġ202	17989
stone	17988
ĠAgreement	17984
Ġdefect	17975
Ġdefend	17974
ents	17973
$]{}	17965
ĠKit	17965
Ġmixing	17961
metric	17955
Ġallegedly	17953
ĊČĠĠĠĠĠĠ	17950
Ġmere	17946
Ġphases	17945
ĠNevertheless	17945
Ġangular	17944
oop	17937
vr	17936
Ġprogressive	17936
ĠBI	17933
CON	17931
ographic	17930
Ġamended	17927
items	17925
asp	17923
Ġfunny	17919
spi	17915
asse	17915
vie	17912
Ġdemo	17911
ĠPath	17911
vt	17910
WS	17910
Ġskill	17910
Ġinstitution	17902
Author	17901
Ġretain	17900
Ġsol	17895
Ġsentencing	17893
240	17889
aro	17886
Ġ+/-	17886
Convert	17884
Ġnewspaper	17880
Ġcampus	17879
ĠDefendants	17879
because	17870
Ġcomputing	17870
ĠKn	17870
ĠTHIS	17868
chain	17867
Ġcrash	17863
ĠUnfortunately	17859
MOESM	17844
hspace	17843
]{.	17840
Ġdem	17838
FB	17836
čĊčĊĠĠĠ	17836
<\	17831
rie	17830
ĠOct	17829
}}(\	17828
Ġutilized	17826
ĠGrant	17820
ĠEp	17820
Ġexport	17819
Ġpeer	17811
register	17807
Ġ1983	17802
Prop	17800
ĠBM	17800
ancy	17798
Ġrepeatedly	17798
cop	17797
CU	17796
Ġmonthly	17796
Ġte	17794
040	17793
plot	17792
Ġwrites	17790
ste	17786
}}$,	17781
Return	17776
Ġ++	17775
adv	17774
Ġlegislative	17774
Ġintellectual	17774
Ġcollapse	17771
exe	17770
Ġcomplement	17766
zone	17764
nos	17764
Ġoven	17764
ĠRad	17763
Ġexhibited	17762
Ġaccompanied	17762
ĠGro	17757
Ġmanifest	17750
Ġta	17745
Ġlying	17745
ĠSeries	17744
NR	17743
ĠHol	17741
sample	17740
Ġarranged	17739
Ġthi	17738
resource	17736
Ġalt	17736
ĠdÃ©	17734
kan	17733
Ġham	17733
poly	17731
Ġhall	17726
expected	17719
\,\	17715
Ġenemy	17708
Ġgovernor	17707
Ġpulmonary	17696
opic	17694
Plan	17694
typedef	17693
Ġvessel	17689
Ġviolated	17686
Ġfitting	17679
Ġsurveillance	17677
Ġmitochondrial	17673
DATA	17670
password	17669
Ġreporter	17667
Windows	17665
Ġenvironments	17665
Ġbankruptcy	17663
Ġoccurring	17662
ava	17658
HT	17654
Ġdiscrete	17651
Ġdet	17651
143	17650
ĠBan	17650
Ġdisagree	17648
ĠDev	17648
CV	17646
dal	17645
Ġ{{	17644
hep	17640
Ġchecking	17640
ĠBitcoin	17640
Ġreveals	17637
134	17635
Ġ('	17635
Ġcre	17634
Host	17631
Ġultra	17631
Ġstudying	17629
Load	17628
PU	17626
perp	17622
Ġphilosophy	17622
Ġcurrency	17622
ĠFollowing	17621
random	17617
Ġ127	17615
Ġalert	17613
ĠWin	17613
Ġdistinguish	17609
pop	17605
Ġmit	17598
Ġreadily	17597
Ġvoted	17595
Ġdeclined	17595
Ġpropose	17590
ĠUnit	17586
ĠHave	17585
Ġsupporters	17583
Ġbyte	17581
ĠCancer	17581
kel	17580
Ġæ	17580
Ġperception	17580
connect	17575
analysis	17575
Ġtopics	17574
Ġ(@	17573
Ġlanguages	17570
Ġrecovered	17566
Ġunlike	17562
Ġrough	17560
.*]{}	17557
mas	17553
Ġpanels	17543
TEST	17540
Ġfabric	17540
1995	17539
Reader	17537
ĠPG	17537
Ġdip	17532
Ġderivatives	17527
025	17524
ĠRay	17522
ÂĹ	17521
ĠCPU	17517
Ġparse	17512
Ġdoses	17512
ĠDer	17511
Ġaudit	17508
ĠCi	17507
SY	17503
uel	17502
Ġreversed	17501
ĠRel	17493
Ġdefects	17492
Ġcorrelations	17491
ĠKingdom	17490
Ġtroops	17486
por	17481
Ġtrauma	17480
plugin	17479
Ġadjust	17478
Ġsouthern	17470
ĠFO	17470
pose	17464
Ġinterpreted	17463
Ġatom	17462
Ġstellar	17461
ĠTur	17460
spec	17458
require	17453
Ġlift	17452
Ġarc	17452
ĠAbout	17444
Ġliked	17443
ĠMed	17443
Ġ1986	17442
ĠFair	17441
nec	17440
nder	17440
Ġ×	17439
icit	17433
Ġml	17432
Ġfibers	17429
ĠSpain	17428
vor	17425
!)	17425
race	17424
Ã©s	17423
dm	17423
ĠSeveral	17422
ĠInclude	17422
Ġcholesterol	17411
cia	17409
ois	17407
Ġtransactions	17407
Ġwedding	17404
Ġpacket	17404
Ġtill	17403
Ġpod	17401
Ġembedded	17393
Ġwireless	17392
being	17391
ĠFamily	17391
security	17390
ĠIndex	17388
made	17386
Ġlifestyle	17386
fix	17384
čĊĉĉĉĉ	17384
\_[	17383
Ġminimize	17383
Ġdisabled	17378
bind	17377
sr	17376
Ġcriticism	17376
Ġcrack	17374
Ġtexture	17372
Ġprinted	17364
LOG	17360
Ġduties	17360
Process	17359
BD	17359
javascript	17349
ALL	17349
ĠEastern	17348
Ġcooling	17346
Ġlabeled	17345
ĠBro	17344
Ġexciting	17343
ĠSin	17343
bad	17339
Ġfilling	17339
ĠCap	17339
Ġ116	17337
Ġphysiological	17332
ĠWil	17332
Ġprinting	17331
record	17330
Ġnorthern	17328
ĠMarket	17327
Ġevident	17325
Ġdiffusion	17319
ĠÂĹ	17315
Ġpointer	17315
ih	17313
Ġcombine	17310
ils	17309
Ġexpressing	17306
Ġent	17305
Ġinfluenced	17300
Ġillustrated	17299
ĠMethods	17297
ĠÑģ	17296
Ġprosecutor	17295
Ġtens	17286
iii	17285
Ġwage	17284
iy	17283
Ġdefeat	17283
Appellant	17281
ĠJu	17281
Ġassociations	17280
Report	17279
)_{	17277
Ġdistinction	17275
ĠIE	17272
Ġgained	17271
mot	17270
ĠStudy	17269
ever	17268
ĠYe	17268
031	17263
)\,	17263
mM	17256
ĠHim	17256
kit	17252
lot	17251
iri	17251
Ġcourses	17250
RU	17247
Ġphenotype	17247
ĠAsh	17244
Va	17241
Ġgenomic	17241
349	17236
your	17235
Ġisolation	17235
ibly	17234
Ġenv	17233
REG	17230
Ġrating	17227
ĠPlaintiffs	17227
Ġplug	17226
bel	17223
Ġtension	17222
Ġraising	17222
Ġloans	17220
Ġattitude	17219
Rs	17217
ĠMari	17217
Ġauthorized	17214
rated	17208
human	17202
ĠCla	17202
Ġinspired	17200
Life	17198
Ġactor	17197
ĠPy	17196
iers	17195
OF	17194
eqn	17190
Ġconnecting	17186
Var	17179
rib	17178
}:	17171
ĠVe	17171
Ġvalidity	17170
eva	17167
Ġ1987	17167
Ġgalaxy	17160
*~*	17157
ĠGra	17157
Ġhopes	17152
Ġze	17150
far	17148
Ġ\#	17146
bigg	17139
Ãª	17136
Ġye	17136
Ġsomebody	17134
Cons	17133
(){	17131
../	17126
ĠProp	17122
req	17117
Ġawesome	17114
ĠWARRANTIES	17114
Maybe	17110
done	17107
etc	17106
Mag	17105
Ġresonance	17101
Ġgross	17101
thread	17097
wire	17092
ocal	17089
ipe	17081
ĠImages	17079
Ġguest	17078
also	17072
cons	17071
Null	17069
ĠAccess	17067
Ġcontacts	17060
Ġperiodic	17059
Ġphosphorylation	17058
Ġtherm	17057
limit	17055
Ġpitch	17055
ĠKorean	17055
xb	17054
ĠAgain	17054
Ġcardiovascular	17053
Ġinvariant	17051
Ġpreventing	17049
Parent	17046
Util	17044
licenses	17043
Ġbrush	17043
ĠPacific	17041
ĠImp	17041
Ġequilibrium	17037
SQL	17029
Ġtolerance	17027
Ġignored	17025
iner	17024
Rel	17019
ĠNat	17017
Ġtransmitted	17016
Ġliterally	17014
Ġestimation	17013
)'	17012
ĠJSON	17012
Ann	17010
ĠHistory	17009
ĠZealand	17008
à®	17006
VM	17006
-->	16993
Ġoste	16990
lay	16989
Ġembodiment	16988
ĠCommissioner	16987
ĠGames	16981
Ġpounds	16980
Ġkick	16979
ĠLD	16979
ĠFra	16979
^{*	16976
âĢ²-	16971
ages	16970
Full	16969
wan	16967
Ġmotivation	16967
Ġeliminate	16966
ĠAgency	16966
Ġswitching	16965
ĠArab	16955
ika	16951
Ġasc	16950
Additional	16948
ĠConf	16945
Ġpublicly	16939
ĠDown	16935
Ġdestruction	16934
Ġtonight	16931
Ġovernight	16931
Ġgenuine	16929
Ġstretch	16926
Ġorbit	16925
nal	16924
ĠChildren	16921
Ġpending	16920
ution	16916
phone	16916
Ġretro	16911
Ñı	16910
ĠMad	16910
Ġelectricity	16909
2020	16905
Ġworried	16903
uer	16900
found	16899
Ġobesity	16899
Ġdenotes	16899
Ġenhancement	16898
Ġregulated	16895
ĠThough	16893
court	16892
Ġnose	16891
stein	16890
pg	16890
yu	16881
ĠHan	16881
figure	16880
ĠML	16880
demo	16876
Ġdifficulties	16872
ression	16871
modules	16862
Ġaggressive	16860
Ġ122	16855
Ġspecificity	16846
Ġassumptions	16846
Ġtin	16845
Ġepisodes	16840
Ġ185	16840
ĠNR	16839
Ġphysically	16837
ĠGri	16837
ĠAlex	16836
Ġdelayed	16835
oll	16831
rim	16830
Ġamendment	16830
ĠHamiltonian	16830
Ġpoverty	16824
ĠMus	16823
Ġ191	16820
Ġstorm	16810
ĠSW	16810
Ġfounded	16809
hou	16808
Ġsearching	16806
ĠSpring	16806
ope	16805
Ġgravity	16801
Star	16799
Integer	16798
Ġnucle	16798
oplus	16795
Ġlabels	16795
edge	16793
Ġwh	16793
STA	16790
)}(	16784
General	16783
Ġattributed	16781
čĊčĊĉ	16778
UA	16777
Ġâī¥	16777
Ġ),	16777
EV	16774
Ġhardly	16772
Ġ132	16771
ĠFull	16768
Ġmas	16760
ĠAnderson	16760
RG	16758
Ġ'\	16757
Ġcommunicate	16754
Ġretail	16753
Ġdisplays	16753
ĠLook	16752
Ġacknowledge	16747
Ġsynthetic	16746
ĠGas	16745
Ġcallback	16744
Ġabortion	16741
doi	16735
Ġweird	16735
Ġtranscript	16735
ĠStart	16735
ĠRegister	16735
ĠRF	16733
isi	16732
Ġsmell	16727
VC	16723
^{-\	16718
Ġwing	16718
Ġboxes	16718
ĠArray	16718
Ġcompete	16717
ĠSB	16717
gp	16715
âĶ	16713
Ġshoes	16704
âĢĻ.	16703
TB	16703
Abstract	16703
Ġopt	16700
Ġhits	16697
Ġrevolution	16695
standing	16692
Ġbeliefs	16692
Print	16690
energy	16686
Collection	16686
dam	16681
Despite	16679
Ġblocked	16678
Ġcompatible	16673
cis	16672
$^	16671
Ġsqu	16670
Ġsilence	16670
202	16669
ĠIowa	16669
ots	16665
Ġpunishment	16664
yer	16662
142	16662
188	16657
Public	16654
Ġmature	16652
drop	16648
Ġpleasure	16645
sat	16643
Ġpartnership	16642
1994	16638
Ġspa	16638
Ġpr	16638
Child	16632
Ġqueue	16632
Ġenables	16631
Ġreset	16629
Ġaffecting	16627
}}}_	16626
aco	16626
1993	16625
Ġsec	16623
Ġpotent	16618
Ġcoal	16618
days	16617
ĠStephen	16617
KA	16616
rea	16615
áĥ	16614
ĠÐ²	16612
ĠRadio	16612
oral	16610
BT	16610
Ġgotten	16610
050	16608
Ġtrends	16608
PG	16606
Ġinverse	16606
genic	16602
Ġvisits	16602
Ġmeaningful	16602
Ġcor	16602
Ġtemp	16601
Inc	16598
Today	16597
Rule	16594
Ġobtaining	16593
Ñģ	16592
Ġcraft	16592
ĠProfessor	16591
Ð´	16589
Ġ..	16585
ĠGer	16576
ĠBu	16575
RN	16572
ĠSF	16569
ĠÂ¶	16567
Ġengagement	16567
Ġdifferently	16567
187	16566
lis	16565
sal	16562
ĠLog	16561
Ġspec	16557
cases	16556
Ġframes	16553
uo	16551
Ġdiff	16551
Ġtradition	16550
Ġ117	16550
ĠSky	16547
ĠWITH	16545
Ġple	16543
Ġpolar	16542
Ġdescribing	16540
Ġyeast	16539
Ġbehaviors	16535
""	16533
Ġreflects	16528
Ġpermissions	16526
Game	16521
Ġdemocracy	16520
Ġcontest	16517
Ġasks	16516
Ġ1985	16512
urn	16511
zen	16510
Ġxe	16509
Ġdeals	16504
degree	16500
Meta	16500
ching	16496
ĠThird	16496
Param	16495
terminal	16492
Ġbearing	16491
Ġfits	16488
Ġunderwent	16486
ĠSaudi	16482
Ret	16481
Ġselective	16480
Ġfunctionality	16479
ĠWithout	16478
btn	16477
Ġagenda	16476
Ġinterviews	16473
Ġfake	16473
ĠStill	16473
cale	16471
Ġjuice	16471
ĠFord	16470
Ġinvestigations	16468
Ġdesignated	16462
Ġ['	16460
Ġloud	16459
Ġintrinsic	16459
omo	16455
Ġfactual	16454
bt	16452
Ġjson	16452
Unc	16451
ĠPBS	16451
ĠmL	16448
Ġanger	16447
derived	16445
rum	16434
than	16431
ien	16431
152	16430
Ġpolynomial	16430
Ġpit	16430
four	16428
assertEquals	16428
$^{-	16425
ĠPerhaps	16423
ĠColumbia	16422
Ser	16417
ĠSn	16414
Callback	16410
pn	16408
orn	16408
ĠSat	16406
_*	16405
Ġemphasis	16405
Ġmock	16401
Ġfitness	16400
Ġprogramme	16397
189	16396
SW	16393
Ġorange	16392
Ġaccomplish	16390
Ev	16388
Both	16385
Values	16384
Ġpassion	16381
Ġbreaks	16378
Ġpredictions	16375
forall	16373
ĠTitle	16371
Chapter	16361
hole	16360
mass	16355
212	16355
driver	16354
Ġretirement	16351
Ġspray	16345
Ġpos	16343
Ġlistening	16340
ĠJordan	16340
ĠMinistry	16338
ĠNP	16336
Ġ124	16335
hard	16334
xp	16333
Ġfarmers	16332
Ġweekly	16331
wd	16330
Ġapps	16329
Ġcrossing	16327
âĢ¯	16323
Ġmortgage	16323
Ġcommands	16323
Global	16322
az	16321
Ġradial	16321
Ġcho	16318
ĠAward	16318
ento	16316
Ġequality	16315
ĠRC	16315
Ġcomputational	16314
eng	16311
Ġrub	16308
fish	16307
1990	16305
Ġconsciousness	16303
FOR	16302
Ġproportional	16299
Ġhypertension	16299
Ġfocusing	16299
Ġflo	16295
ĠTea	16295
Ġsegments	16294
Ñĭ	16293
138	16289
Based	16285
999	16283
Ġdetector	16283
ĠCarr	16281
ror	16280
Ġconspiracy	16278
Ġgenerator	16271
Ġfactory	16271
Down	16270
Identifier	16266
ĠSciences	16265
ĠNT	16265
Ġputs	16264
Ġcart	16262
ĠConsequently	16262
MAP	16261
Ġboundaries	16253
Ġoptimization	16252
Init	16246
toc	16244
Ġslip	16243
Ġtrivial	16242
Ġweights	16240
Ġinserted	16240
Ġattempting	16238
ĠBS	16238
Ġparam	16237
Ġangry	16236
ĠPres	16235
price	16233
lv	16232
Ġfavorable	16232
ester	16229
Ġtrail	16229
ĠRound	16229
ĠGaussian	16224
ĠFI	16224
185	16223
Import	16221
230	16220
Root	16219
Json	16218
Ġfranchise	16215
Ġcomputers	16215
Ġscaling	16213
Ġclip	16211
151	16206
Ġtie	16206
attribute	16205
ĠIslam	16205
Mark	16203
callback	16200
ĠNick	16199
Ġslight	16196
Ġadapted	16194
+)	16187
)^{-	16186
Ġregulate	16186
Ġterrible	16184
Ġvaried	16183
ĠBible	16183
ĠEL	16182
Ġphysicians	16178
auth	16177
Ġintracellular	16176
Ġrescue	16174
take	16169
Sign	16168
party	16167
Ġphrase	16167
Ġimpressive	16167
Ġunf	16166
137	16160
Ġchocolate	16160
ards	16158
Ġconvenient	16157
ĠFarm	16157
uro	16156
Ġaims	16154
ĠRem	16154
hold	16152
Ġroads	16150
Ġdeeper	16150
_(	16149
ĠÃĹÂ	16149
ĠNatural	16149
ĠAdditional	16141
pir	16138
ĠMU	16137
priv	16136
ĠFin	16136
Ġfatty	16131
450	16130
ature	16124
165	16123
except	16122
Ġnp	16122
Ð¼	16121
146	16121
Fs	16117
Ext	16115
Ġsettled	16113
Ġfunded	16112
Ġ1984	16108
react	16107
ĠPF	16104
Ġvariant	16102
Ġrestaurants	16102
Ġreflection	16102
Ġexclusion	16102
Ġcombinations	16102
ĠPlace	16099
Super	16097
Ġhero	16095
cel	16092
Ġsta	16092
ĠSpirit	16092
Ġhist	16091
âĸ	16088
video	16085
Ġracial	16085
admin	16080
Ġheading	16080
cle	16079
widget	16077
Ġrendered	16077
Ġsuspension	16076
Ġpeaks	16076
meter	16072
Params	16072
Active	16067
Ġmood	16067
Ġchains	16067
complete	16065
Pos	16065
Ġlimiting	16065
people	16064
Ġnegligence	16060
vers	16058
Ġassert	16056
CODE	16055
Ġfingers	16054
Ġdates	16054
PF	16052
AV	16052
Ġmagazine	16050
Ġbelt	16050
Ġquantities	16049
Ġdrama	16049
ĠKat	16048
Ġsettle	16046
python	16044
VO	16041
filename	16037
Ġscoring	16036
ANT	16035
Ġcontra	16032
ĠIA	16032
Ġcontend	16031
ĠSand	16030
Ġjustify	16028
Ġdisclosure	16028
Ġepithelial	16027
Ġconc	16027
_{-	16026
ĠTar	16012
ital	16004
Ġsucceed	16003
exec	16002
Ġ|\	16002
SEC	16000
Ġdans	16000
Ġprejudice	15995
ĠStat	15994
Ġsatisfying	15993
Ġmath	15992
Ġconsensus	15992
Ġgrip	15991
ĠÐ¿	15988
Ġproposition	15988
raise	15987
Ġvulnerable	15985
simeq	15984
Ġvertices	15984
Ġchoosing	15984
'(	15982
dro	15981
ĠRest	15981
stage	15979
'))	15979
gas	15975
iate	15974
Ġprima	15972
points	15971
ĠTF	15970
Four	15968
avi	15967
Ġlawsuit	15967
Ġconfident	15967
ĠAdam	15967
Ġmi	15966
Discussion	15965
Ġou	15965
oro	15964
Ġ135	15962
Ġdollar	15961
Ġwondering	15960
ĠCro	15955
bibr	15953
Ġdamaged	15951
Ġpreferably	15950
ĠEric	15949
.).	15948
Ġmanually	15948
Ġquit	15944
sun	15943
Ġbatch	15940
Ġ129	15940
ĠEst	15936
Helper	15933
ĠAlt	15929
SB	15925
MIN	15925
Ġtied	15925
Ġstat	15922
Ġlikes	15920
Ġtransparent	15918
Ġmatched	15918
Ġholiday	15916
Ġstrictly	15914
ĠSpe	15914
ĠCore	15914
"));	15911
Ġrepresentations	15911
Ġsupplies	15905
ĠFre	15903
rig	15902
ĠRose	15901
ites	15899
.:	15897
Ġshots	15893
Ġbelong	15892
Widget	15887
Ġpython	15884
Mc	15880
Ġdeveloper	15877
Ġisolates	15875
Ġindices	15875
Ġlegitimate	15869
ĠCoast	15864
="/	15861
Ġio	15857
ĠâĢ¢	15856
ĠPrior	15856
Close	15855
Ġfatal	15854
Ġ118	15852
keys	15848
171	15847
mus	15841
Ġ{@	15841
ott	15840
Ġrs	15840
ago	15838
Ġpushing	15838
lets	15837
Aw	15836
Ġthr	15836
cas	15834
Ġbehavioral	15833
Ġions	15830
Ġbreakfast	15823
Ġvisitors	15819
Share	15817
ĠColor	15817
ody	15815
ĠTP	15815
uf	15813
sz	15812
Ġbills	15811
Parameters	15809
hd	15803
jan	15802
;">	15801
too	15800
utils	15799
zh	15797
Ġviruses	15796
JA	15795
Ġreputation	15794
Ã	15791
mr	15791
ĠEN	15784
ĠLar	15783
ĠArch	15783
expl	15781
Float	15780
Display	15777
Ġresidual	15776
Round	15767
156	15767
ĠLittle	15767
Ġtort	15765
()->	15764
Ġobjection	15761
Ġdimensional	15761
ĠSpecifically	15761
QU	15759
Ġgrass	15758
ĠParliament	15756
ĠAk	15755
Delete	15745
ĠMajor	15742
connection	15739
Ã¨	15737
Ġassistant	15737
148	15733
181	15731
Ġ119	15731
CAT	15728
izes	15727
aca	15723
ĠMinnesota	15721
ols	15720
Ġbaseball	15720
Ġdebtor	15718
Space	15715
Ġemerging	15715
ĠSoviet	15713
Ġgray	15709
ĠMil	15709
Ġshr	15708
Ġhealing	15706
Multi	15705
Ġreferring	15702
izable	15699
Ġentities	15699
Ġequipped	15698
Ġnucleus	15697
Ah	15694
yard	15693
Ġbirths	15689
Ġquote	15682
ĠDH	15681
Ġum	15680
Ġprov	15680
Ġfragment	15678
Ġposterior	15676
idx	15672
Ġcavity	15665
ĠKan	15664
Ġ131	15664
ĠArea	15663
Sm	15662
Ġicon	15662
Â³	15661
xF	15660
ĠPoly	15657
wiki	15650
Den	15650
Ġreply	15650
ĠSupp	15648
ĠAV	15648
Ġtoxicity	15646
Ġlap	15646
Ġinquiry	15646
Ġpocket	15645
Ġdeficiency	15644
Ġsensors	15637
ĠTurkey	15636
Ġterritory	15632
Ġoxidative	15631
ĠFisher	15629
cker	15628
Kr	15623
Ġven	15623
hing	15621
Ep	15621
sci	15620
Ġvessels	15618
350	15614
1992	15612
ĠWI	15611
STR	15610
Ġstomach	15609
Ġpromised	15609
Ġmembership	15607
Ġarrive	15607
Ġtired	15606
ĠSho	15606
}$$\	15602
Ġinvited	15602
Ġtetra	15596
Ġpreserve	15596
Ġinspection	15594
Ġmodeling	15590
Ġextending	15590
ĠPHP	15589
ĠFS	15589
elli	15586
++;	15586
Ġsaving	15585
Ġmuscles	15585
Ġtrim	15579
Ġmoon	15578
ĠCambridge	15578
ained	15576
Ġdefining	15574
Ġps	15573
ively	15570
Ġnurse	15570
Ġsed	15569
ound	15567
USE	15567
041	15566
Ġparticipated	15566
Ġstrategic	15562
Ġodds	15560
ĠOb	15560
Ġagreements	15558
Ġrestore	15556
Ġinflation	15556
Ġdil	15555
Ġbounds	15555
dog	15549
Ġcertificate	15545
FIG	15543
bon	15541
Ġdeny	15540
Ġinjected	15537
Ġ126	15537
Ass	15535
uction	15534
World	15534
ĠRather	15533
Ġpointing	15530
Ġaccurately	15529
################	15526
may	15525
Ġlogical	15524
Ġunsigned	15522
Ġencounter	15517
Ġsuspected	15516
ãģ«	15514
enable	15514
Ġplatforms	15514
ĠAssembly	15514
ãģĦ	15513
Ġpromotion	15513
ĠFT	15511
VF	15510
sg	15509
Ġadapt	15509
Ġti	15508
ĠHarris	15508
ĠAna	15508
ield	15507
nucle	15506
Ts	15506
Ġnobody	15503
1991	15502
Ġgrateful	15501
Ġ170	15501
cv	15500
Ġobligation	15499
tk	15498
320	15497
Ġestablishment	15496
Ġcortex	15496
ĠYeah	15492
ony	15491
ĠCase	15487
Ġregarded	15485
Ġtalent	15483
154	15482
Ġru	15480
"\	15476
cz	15469
ĠMoore	15468
Ġtransit	15466
Ġexpense	15466
icate	15462
ĠAfghanistan	15460
NL	15457
Ġresistant	15457
through	15455
rank	15455
Ġenforce	15449
ĠTNF	15448
Ġpipeline	15446
Ġlease	15446
Mill	15444
Ġdeemed	15444
ĠLewis	15442
blog	15441
Ġstayed	15441
century	15440
_>	15439
Ġsuspended	15436
ĠWh	15436
ĠFalse	15436
Ġpharmac	15435
account	15431
Ġbird	15430
LV	15429
ĠBh	15429
Copyright	15428
Ġresort	15428
Ġpromoting	15428
Icon	15427
plane	15419
Ġtor	15419
čĊĉĉĉĉĉ	15419
Ġsuppress	15416
Ġcomply	15416
Che	15414
Ġelectrons	15413
ĠToronto	15413
Ġreliability	15409
Ġcomparisons	15408
Ġmicroscopy	15407
gc	15401
Ġpossess	15401
Ġhighlight	15401
War	15400
Ġelderly	15399
ĠBrazil	15399
Ġresident	15396
sic	15391
Ġindication	15391
Inv	15390
operative	15387
Properties	15387
Ġendothelial	15387
[$	15381
ĠOp	15375
Ġ133	15375
Ġlas	15374
Ġtrick	15373
>)	15372
Ġunw	15372
Ġhoney	15372
ĠKal	15372
ĠBat	15372
Ġartificial	15368
ĠJS	15366
Ġenergies	15365
comb	15364
ĠCommonwealth	15363
Ġpersonality	15356
Ġsuppression	15353
043	15352
Ġdemonstrates	15349
Ci	15346
Ġspots	15346
lect	15344
selected	15339
Ġreplication	15339
Ġblast	15337
ĠHaw	15337
Pal	15336
ÃĲÂµÃĲ	15335
}})$	15335
ĠSel	15335
expression	15334
Ġgrain	15334
Ġadjustment	15334
ĠPr	15334
Ġarising	15331
512	15328
Ġuptake	15327
Ġ09	15327
Ġskip	15326
Ġthreats	15325
ĠBridge	15323
schema	15322
Ġpat	15322
ĠWay	15320
Ġticket	15319
pid	15318
nutrients	15316
Ġarrival	15316
Ġtournament	15314
aid	15313
825	15312
ĠScale	15312
Ġexisted	15311
ĠLim	15309
ĠUpdate	15307
Ġinhibited	15306
Ġrape	15305
Real	15301
Ġvariability	15301
phy	15300
apply	15296
Math	15296
ĠLin	15296
_,	15295
EQ	15293
Ġvisiting	15292
chan	15288
Ġbases	15288
ĠAndrew	15288
Common	15287
Ġdocumented	15287
161	15284
ocyte	15283
Ġpublish	15283
Ġlocalization	15281
ait	15280
IVE	15279
INFO	15279
Ala	15279
Ġdistances	15277
ĠIndiana	15276
ĠHTTP	15275
ication	15274
ĠTour	15274
Ġ=\	15274
Items	15273
ways	15272
Ġopens	15272
ĠFather	15270
ĠIFN	15269
Ġdefinitions	15262
ĠĠĊĠĠĠ	15262
uff	15261
ĠDef	15261
Ġtends	15260
sem	15259
Ġ1981	15258
Ġ255	15255
}),	15254
ãĤĴ	15250
Ġble	15243
Ġsatisfaction	15240
Ġrail	15239
ĠSV	15233
mission	15232
Ġpolarization	15232
Ġminority	15231
ĠSystems	15231
ĠHouston	15231
Ġnavigation	15228
ĠMethod	15221
ely	15218
network	15211
Ġheaded	15211
ĠDP	15211
Ġfinance	15210
ĠSports	15209
Ġbranches	15208
deg	15205
bal	15204
chr	15203
Ġconfusion	15193
ĠTrade	15191
Ġcomplaints	15190
&=	15189
Ġ["	15186
Ġnitrogen	15183
settings	15181
Ġparagraph	15181
Ġclosure	15178
pher	15176
ear	15176
166	15169
Ġalongside	15169
ĠException	15169
Ġwarranty	15164
ĠLibrary	15163
ĠDefense	15163
ĠDaily	15162
10000	15158
Every	15154
Ġthirty	15153
Ġdental	15153
Ġemerged	15152
Ġranges	15151
CONFIG	15150
Ġlibraries	15150
ĠChristians	15150
eral	15146
Ġsurprising	15144
Ġhtml	15135
coll	15132
Day	15131
Ġblot	15131
$_{	15130
lr	15123
Ġupset	15122
Ġ1960	15121
Factor	15118
ĠArticle	15118
ĠQueen	15114
cycle	15109
Ġunders	15109
ĠSort	15109
prefix	15100
Ġwise	15099
POST	15098
Ġplugin	15096
Ġdenying	15090
gly	15088
Ġbasketball	15087
ĠTry	15086
Ġfaculty	15081
ĠNations	15080
ĠInterestingly	15076
ĠChen	15071
Ġsuggestions	15070
ims	15069
Will	15067
Cont	15067
Ġpreparing	15067
XF	15066
println	15065
models	15064
RB	15063
rule	15062
ners	15062
+}	15061
162	15060
Ġparticipant	15056
Ġbro	15056
Ġrum	15055
BM	15053
ĠMol	15053
Ġcapabilities	15050
946	15048
SK	15044
ĠHz	15043
xd	15042
Definition	15040
Ġdrain	15039
ĠMonte	15036
Ġoccasion	15031
foreach	15029
Ġlandscape	15028
Ġcollaboration	15026
oom	15025
SV	15018
Ġbench	15017
139	15016
nr	15015
=====	15015
Ġvirtually	15013
GF	15009
ĠMulti	15009
~\	15008
Ġprote	15008
Stop	15004
Lin	15003
))$	15003
ĠRos	15002
rac	15000
Ġextrem	15000
lag	14999
'],	14992
Ġsigning	14992
sex	14991
Ġinduces	14989
Try	14988
Ġwinner	14982
Editor	14980
Ġinit	14979
craft	14976
Ġdecimal	14976
ĠCV	14975
linux	14972
Ġmagnet	14971
Ġ05	14971
cus	14970
(.	14969
Ġwelfare	14969
sky	14965
results	14964
ĠMill	14959
ĠHad	14959
News	14957
Ġclaiming	14953
ĠMet	14952
iar	14951
Ġwaters	14948
ĠWeek	14948
ĠTotal	14946
PB	14942
Ġfur	14939
Ġrespondents	14937
Ġ"#	14934
igo	14929
Ġswing	14929
Xi	14928
184	14927
ĠLP	14927
Ġhosts	14926
Ġfiscal	14924
plan	14923
Ġprobable	14923
*(-	14921
ank	14920
Ġtransient	14919
mov	14918
guard	14918
Ġcoronary	14918
Ġeigen	14916
Ġreceives	14914
ĠSilver	14907
Ġ03	14907
`.	14905
177	14904
\)	14902
Ġnotation	14902
Given	14899
ĠMcG	14899
Ġbleeding	14898
lands	14897
ĠPass	14892
pub	14891
ential	14889
Ġlongitudinal	14889
ĠCt	14889
ĠAla	14889
APP	14888
Ġchances	14888
Ġinterpret	14887
Ġgerm	14886
Ġ184	14885
ĠFM	14883
Ġblocking	14881
157	14877
Ġfrozen	14876
Ġrecurrence	14874
ĠUP	14870
ĠProperty	14870
Panel	14868
Ġprotocols	14866
Ġmac	14861
ĠPay	14859
report	14851
Ġaffirmed	14848
Ġcultured	14843
FONT	14840
Ġfold	14839
Ġwavelength	14838
Ġlocked	14838
Ġdecomposition	14836
ĠPrice	14836
ĠPRO	14834
ando	14833
Graph	14832
UB	14831
Ġnonlinear	14829
ogram	14828
Ġsudden	14828
Ġsteam	14828
ĠĠĠĠĊĠ	14828
Ġatomic	14826
Ġshortly	14824
ĠUt	14824
Ġshower	14821
Ġhistoric	14819
Ġanchor	14819
182	14818
Ġshaft	14818
fan	14817
360	14817
inn	14816
Ġtransformed	14815
theme	14813
ĠColl	14810
ĠHand	14806
ĠTD	14805
vet	14800
à¬	14799
ount	14799
ĠDiv	14799
ĊĊĠĠĠĠĠ	14799
ĠPV	14797
DIS	14796
*=	14794
Ġdistress	14793
Ġ134	14791
Ġsilicon	14790
oso	14787
Ġss	14776
Ġbold	14776
isk	14775
Ġtwist	14774
Ġcompression	14773
Ġbacks	14773
Transform	14770
Ġdonor	14770
Ġsolved	14769
Ġdetermines	14769
Ġwins	14767
Ġtimely	14766
Ġcircular	14766
Ġmutants	14765
Ġ"<	14765
Ġtracks	14764
gathered	14763
Ġefficiently	14762
did	14757
ĠPal	14757
Ġappreciated	14755
uck	14753
pf	14753
names	14753
ä¸	14751
regulated	14751
pha	14751
Enter	14751
ĠTHAT	14750
bing	14749
179	14748
ĠÂ»	14747
Ġappointment	14747
astic	14745
rey	14744
chem	14744
186	14742
Ġpursue	14741
Ġconstraint	14741
}}}(	14740
Ġimm	14740
Network	14739
Ġip	14734
Ġconstants	14734
ĠIgG	14734
NOT	14731
tv	14730
abi	14729
Ġpostoperative	14727
ĠCre	14727
Ġsecured	14725
amb	14723
Ġrot	14723
Layer	14721
three	14719
Ġtender	14716
Ġheaven	14716
Ġmemories	14713
ĠNM	14713
night	14712
Ġassign	14712
ĠSem	14708
ĠStation	14707
AH	14706
Ġstimulus	14704
Option	14702
Ġthreatened	14698
Enabled	14697
seq	14696
ASSERT	14696
Ġtar	14696
Ġ[$	14695
Ã³n	14692
=""	14692
Ġstriking	14691
ĠSign	14690
alg	14689
Ġinputs	14689
zip	14688
Ġthrown	14688
kb	14682
Ġcookies	14678
Wait	14676
Ġabnormal	14675
Ġsubgroup	14674
ĠWis	14673
Ġcancers	14672
)^{\	14670
OA	14668
Ġcustody	14668
rent	14664
Ġanybody	14663
rap	14659
Ġreward	14659
Ġmothers	14658
Ġdece	14657
Ġasset	14657
ĠBall	14655
026	14654
Ġinstruments	14654
174	14652
Ġflying	14652
Ġ",	14652
Lib	14651
ĠCru	14650
Ġcircuits	14649
Ġ800	14649
Ġtech	14648
Ġfantastic	14647
Bre	14645
IX	14643
ĠCNN	14643
epi	14638
Ġspl	14638
pk	14636
Async	14636
ĊĉĉĠ	14635
burn	14634
Ä±	14632
Sn	14632
ĠRat	14630
Ġtriple	14625
225	14620
Ġattract	14612
ston	14609
Er	14609
properties	14605
Ġdoc	14605
hom	14604
Ġeveryday	14603
Ñĩ	14602
Wa	14600
ĠWild	14599
,_	14597
ĠHoly	14596
JO	14594
Ġchallenged	14589
Ġentrance	14588
custom	14586
ÑĮ	14585
ĠTT	14585
Ġtries	14584
Ġliable	14584
ĠPin	14584
oca	14583
Ġnons	14581
Ġmerit	14581
hbar	14580
Ġsilent	14579
Ġ1982	14579
Ġkin	14578
Ġlitigation	14577
ĠIO	14575
Ġ04	14574
ifdef	14573
ĠHM	14573
fluor	14572
handler	14571
aba	14571
ĠKeep	14571
>"	14567
Ġinches	14567
Home	14566
Ġdispersion	14566
Ġax	14566
ĠWatch	14565
Ġpri	14564
Ġdried	14564
rows	14563
Ġvegetables	14563
ĠDocument	14562
ĠFeb	14561
direct	14560
Ġacted	14558
Ġmathematical	14555
Ġdrove	14554
gd	14553
Ġstained	14553
ĠRome	14553
ÃĦ	14552
Ġcorn	14551
ended	14549
compl	14548
æĺ¯	14547
Ġconvergence	14547
Writer	14546
ĠSche	14546
Ġblank	14545
WR	14543
Ġresidential	14540
Ġflows	14540
ĠAug	14539
ĠIm	14538
}}=	14534
213	14534
Ġartist	14532
ĠInsurance	14531
West	14530
ĠAllen	14529
Ġtu	14528
ĠFilm	14528
Ġsatellite	14525
Ġviewing	14522
Ġtraits	14522
Ġmining	14521
MAN	14519
Ġphoton	14518
Ġconserved	14512
.\[[@	14511
ĠSym	14511
Ġminds	14510
Ġresin	14508
Ġadaptation	14505
Example	14504
uid	14503
Ġseats	14501
History	14500
Au	14499
753	14499
ough	14498
ĠÎ¼g	14498
Ġasthma	14498
Ġshake	14497
Ġreconstruction	14497
metadata	14495
ĠHard	14493
mk	14492
Ġgradually	14490
164	14489
abstract	14488
Ġinfl	14488
Ġoh	14487
Ġflip	14486
Ġexclusively	14486
multi	14482
Ġfuck	14481
Pen	14478
ĠWisconsin	14478
Ġgraphs	14476
Ġbedroom	14472
Ġperpet	14471
inflammatory	14470
ĠMean	14469
Î¼	14468
inst	14468
amo	14466
scan	14465
Ġlady	14465
force	14464
Ġflowers	14464
Ġprevented	14460
exit	14459
BER	14459
ĠÎ	14454
Ðº	14453
children	14453
Men	14453
LU	14453
tti	14451
Ġwidespread	14451
ĠHP	14450
Ġimpairment	14449
Book	14443
Ġconfused	14441
Ġing	14439
Ġmaternal	14436
Ġgeneralized	14432
standard	14430
Ġsimilarity	14429
Ġinsertion	14429
ogen	14428
Adapter	14427
Ġactors	14427
1986	14423
ĠBarr	14423
Ġestablishing	14420
Ġindependence	14413
Ġsubstitute	14409
Ġ![	14408
Ã©t	14407
bor	14405
Ġjoining	14403
Video	14401
024	14401
Ġstating	14401
Ġmethylation	14399
ĠGE	14398
Ġknife	14396
+(	14394
Ġslot	14393
Ġ136	14393
Ġreplied	14391
Ġrespondent	14390
Ġbelonging	14390
********	14389
Us	14387
Ġbarely	14385
Ġsentenced	14384
Ġdescending	14383
ĠCOM	14381
211	14380
Hash	14378
Ġscenes	14373
Ġacceptance	14366
_-	14365
ĠNet	14365
ĠFinal	14362
Bytes	14361
Ġmate	14358
pri	14357
ĠShould	14357
Ġguests	14353
Ġloves	14352
čĊĠĠĠ	14352
Ġseeks	14350
Ġsquad	14349
ĠMas	14347
Ġanterior	14345
ĠPB	14338
Ber	14337
PATH	14336
itz	14331
Ġrealistic	14331
ĠDra	14331
Ġquestionnaire	14329
wr	14327
iona	14326
ume	14325
ided	14322
Ġgrab	14322
Ġocean	14321
pit	14320
Ġsake	14319
Ġdin	14318
pay	14315
would	14314
Ġmotions	14314
Ġexhaust	14314
Ġintersection	14311
UD	14307
Ġjournal	14306
lap	14305
present	14304
WH	14304
WT	14303
Ġtam	14302
cation	14301
Ġeq	14301
dw	14300
Ġincredible	14300
ĠStore	14299
Ġdot	14298
Save	14297
Ġglyc	14297
ĠKelly	14297
NM	14296
âĢĿ)	14295
$).	14293
ĠCooper	14292
Ġcrop	14290
Ġpersistent	14289
Ġprost	14287
mock	14285
Ġprescribed	14284
Ġcomputation	14284
obe	14283
203	14283
Ġdramatic	14283
ĠJean	14283
Ġmad	14282
Ġairport	14280
bytes	14277
Ġcapability	14277
ĠXi	14276
Ġpreference	14275
Ġdating	14275
uss	14273
ĠKer	14273
ĠSar	14272
jm	14269
users	14268
rh	14268
Ġsalary	14268
1989	14265
Match	14264
Ġsymbols	14264
zan	14261
BF	14261
hydroxy	14260
Ġcontroversial	14259
nv	14257
Ġ&=&	14256
Ġshed	14253
``	14251
&#	14251
Flags	14248
ĠCam	14248
cont	14247
Coll	14247
Ġmanaging	14247
ĠKansas	14247
à¥į	14245
plus	14243
Ġcanonical	14243
icular	14240
Ġbriefly	14240
ĠLuc	14239
176	14238
Ġtestify	14238
ĠSoc	14238
âĢĻ,	14237
Ġunfair	14237
UND	14236
Sim	14235
gb	14229
ĠĠĠĠĠĠĠĠĠĠĠĊĠ	14228
Ġ08	14225
toString	14222
ĠOC	14222
Ġattorneys	14218
Ġmethyl	14217
Ġ+\	14217
"};	14214
fat	14210
ĠGT	14206
oj	14203
$^{	14200
ĠLatin	14199
Card	14197
Ġpeptides	14196
Ġemissions	14195
Ġfilters	14194
Ġplacement	14193
ĠReact	14193
Ġ144	14191
ĠKra	14189
ĠConsider	14188
Ġisot	14186
Ġacknowledged	14183
Ġpartly	14182
Ġprocessor	14181
ĠVin	14181
Sol	14179
rite	14178
inate	14177
Ġsurely	14175
bie	14170
Ġethnic	14170
ĠNature	14170
library	14169
Ġindictment	14168
bg	14167
^*$	14167
Ġoffices	14166
(:	14165
Ġgrace	14165
original	14164
Ġupload	14163
Mal	14162
Ġdietary	14161
Ġviolations	14160
Ġ^{	14160
Ġhook	14155
Ġcontention	14151
Ġprotecting	14150
Ġletting	14147
Ġempirical	14144
emia	14138
enh	14137
Ġattachment	14137
Sur	14135
ĠSanders	14133
ange	14132
Custom	14132
TIME	14131
ĠSometimes	14131
Ġinvestigating	14130
Changed	14128
Ġsavings	14128
Ġcocaine	14127
033	14126
Ġwo	14126
Ġseal	14124
Ġparticipating	14122
Ġconservation	14122
HL	14118
ĠMassachusetts	14118
ĠABC	14117
Ġacquire	14115
172	14114
ĠNode	14112
Ġrandomized	14110
Ġgastro	14110
gers	14104
Ġscrap	14102
Ġprovince	14100
apa	14099
Ġemploy	14098
Demo	14097
pgen	14096
Ġunnecessary	14095
fun	14089
bank	14089
Ġmediated	14089
ĠBrian	14089
integer	14088
rial	14087
Microsoft	14087
Ġhandler	14087
Ġbo	14087
cost	14086
Lock	14085
asa	14084
mis	14077
Job	14077
Ġgolf	14077
ĠOrganization	14077
ried	14076
ĠMuseum	14076
ĠSyrian	14073
ĠMid	14070
'-	14069
Ġadvised	14062
ises	14059
Register	14059
ĠRon	14058
ÃŃa	14057
five	14057
White	14057
Ġtherein	14056
Ġrepresentatives	14055
ĠGOP	14054
Ġdim	14051
simple	14048
engine	14048
å¤	14043
âĤ¬	14042
Ġbelongs	14041
Ir	14040
Ġfelony	14037
ĠChild	14034
cond	14033
speed	14028
PLA	14028
Ġmodifications	14027
gro	14026
Sample	14023
rod	14022
Ġstyles	14015
Ġmembranes	14012
ĠPlus	14012
Ġremarkable	14009
Ġlovely	14008
Rest	14007
Ġplots	14007
ĠOm	14005
028	14004
Ġcopper	14004
dat	14003
__(	14003
Ġconditional	14001
Ġoutstanding	14000
required	13999
---|---|---	13999
Ġtent	13993
,[	13992
iling	13991
Ġcooperation	13991
ĠFF	13991
gif	13987
Ġcoating	13986
vic	13984
job	13984
half	13981
Ġpurified	13981
ĠKong	13981
Ġwarned	13980
Ġ]{}	13977
Ġelectrodes	13976
.",	13975
writer	13974
ĠXML	13974
ĠAma	13974
Arg	13971
ĠFri	13969
Ġinfant	13967
ĠKam	13967
Ġemotions	13965
ĠBad	13964
Ġcos	13963
ĠMir	13962
rant	13961
216	13956
0008	13956
TY	13954
Ġton	13954
ĠGB	13953
ĠScotland	13948
ject	13947
Ġ).	13946
ONE	13945
Ġimpaired	13945
ĠUSE	13945
rob	13944
Ġtowns	13943
sync	13942
ĠDirect	13940
gie	13939
Ġlucky	13939
uto	13938
jp	13937
Bro	13937
Ġnursing	13936
mers	13934
ĠUnless	13934
Ġactively	13932
Lat	13930
LR	13930
BIT	13929
ĠChange	13928
Ġdebut	13923
Ġconfigured	13920
ĠHart	13916
nel	13914
general	13914
ĠBru	13914
Ġsecretion	13908
LICENSE	13899
ĠFD	13899
Ġtro	13898
shaped	13897
hex	13897
iance	13895
)</	13895
neg	13894
alis	13893
ĠGS	13893
Ġcyclo	13891
áº	13888
Ġsentences	13887
Ġaccomplished	13886
Ġva	13885
rian	13884
ĠIrish	13884
Ġrings	13879
opa	13874
Ġsnap	13872
ĠAvenue	13872
Ġrelate	13871
Channel	13869
Ġdecent	13867
Ġhex	13865
Ġwider	13864
Ġ$-	13859
controller	13858
Ġorbital	13858
Ð¿	13857
Ġencouraged	13857
Ġdiscloses	13855
Ġintestinal	13852
ĠUkraine	13850
ĠCome	13849
Ġolive	13848
uan	13844
Ġinfants	13843
score	13842
prom	13840
Ġcorruption	13840
ices	13839
ĠShar	13839
163	13838
Ġdisaster	13834
Ġrelies	13828
ĠNar	13828
ĠKevin	13828
Ġinitiated	13827
Ġshield	13824
Release	13821
opy	13819
Ġasp	13817
|$	13816
mapsto	13816
ĠHotel	13815
Ġpaste	13812
Ġmutual	13812
ĠAff	13812
ival	13811
à¤¾	13807
sign	13806
Ġprivilege	13805
Ġpositively	13805
Ġsecretary	13804
Ġgenerations	13804
ä»	13803
Ġfiring	13803
matic	13800
Remove	13800
pres	13795
Ġreasoning	13791
Ġfunctioning	13791
Ġposting	13790
Ġlaugh	13789
Ġcircles	13789
Ġovers	13788
Ġboss	13785
Normal	13784
ache	13783
)})	13783
Ġexplored	13782
ĠImmun	13782
acle	13777
Ġbirthday	13777
Ġshipping	13776
displaystyle	13775
emp	13774
Ġdominated	13773
ĠHel	13772
omic	13769
Ġgraft	13769
Edge	13766
appe	13764
xl	13763
jet	13763
sym	13761
EO	13761
Ġstudio	13760
ush	13757
roid	13756
Ġimportantly	13755
Ġstops	13754
share	13753
183	13752
South	13750
jk	13747
Ġ-------	13747
)*-	13744
Tw	13742
ĠEF	13742
ĠBon	13742
Ġlands	13741
ener	13740
OG	13740
Ġshame	13740
Ġarrow	13739
Ġchill	13735
ĠÐ¸	13730
ĠAstr	13730
PRE	13728
imm	13727
Ġcure	13725
pmatrix	13723
Ġshadow	13723
159	13722
ĠIl	13719
ifi	13718
hit	13717
DU	13717
Ġpixels	13717
ĠMur	13717
iving	13713
Ġbrothers	13713
ĠSix	13713
Ġpermits	13712
arc	13710
Ġattacked	13707
Ġfirms	13706
Ġbathroom	13706
PK	13705
Ġinstitutional	13705
\#	13704
Ġmus	13703
ĠManager	13702
ĠJeff	13702
Engine	13701
ĠEle	13701
ĠDT	13696
Ġcontinuously	13694
Ġlesion	13692
Ġimpose	13692
Ġethical	13692
0020	13691
ĠBit	13690
GN	13689
DES	13689
Ġcop	13689
ĠBus	13689
Ġalarm	13687
ues	13686
ĠMom	13685
Ġ183	13684
Ġgains	13678
Ġupcoming	13671
ĠBin	13671
Args	13670
Imp	13667
178	13667
Binding	13665
role	13663
Cur	13661
cro	13656
Ġslope	13655
ili	13653
Ġelastic	13653
worth	13652
ister	13652
Ġprofits	13651
ĠSab	13651
umb	13650
Ġtags	13650
Ġconvinced	13650
ĠJay	13650
ready	13648
Ġmesh	13648
Ġconflicts	13647
aff	13646
Methods	13645
8000	13645
boolean	13644
Ġtooth	13640
JSON	13638
Ġmayor	13638
ĠEvent	13638
Ġexpertise	13635
ĠEgypt	13634
Ġec	13631
ÐµÐ	13629
Ġannouncement	13629
Ġslide	13622
ĠNavy	13622
Gro	13619
ĠGene	13618
Pop	13616
===	13614
åĪ	13613
oto	13613
Ġfluctuations	13610
Ġwebsites	13607
ĠSau	13607
God	13606
Ġscratch	13601
Ġdownstream	13600
Ġbags	13597
0000000000000000	13590
ĠBBC	13590
420	13589
Ġretained	13589
Ġgraduate	13588
ĠOUT	13588
Ġcausal	13587
ases	13586
158	13586
ĠLabor	13586
Len	13584
=[	13584
ĠMaryland	13583
Ġpas	13582
ĠGovernor	13582
Ġbis	13580
Ġburning	13578
Ġbell	13578
mur	13576
aching	13574
ĠEt	13573
Ġscanning	13570
Ġquoted	13570
Ġethanol	13570
Screen	13567
149	13566
ĠSav	13566
ERS	13564
Ġfeatured	13563
rog	13560
Eq	13560
ĠATP	13557
roll	13553
goto	13553
Ġmol	13553
ĠSEC	13553
ances	13551
~-	13549
leg	13549
Ġdrives	13549
Ġguaranteed	13548
Ġdevelopmental	13548
Ġsocio	13547
ĠAve	13544
uting	13542
Ġrelied	13542
Ġir	13539
Ġaf	13539
Ġcontemporary	13537
Ġ07	13537
Ġinhibit	13536
Ly	13531
Ġterrorist	13531
Ġmsg	13531
actor	13530
Ġtopological	13530
Ġgathered	13530
AW	13528
Ġstimuli	13528
Ġeu	13528
Ġcytokines	13527
cluster	13526
aver	13523
without	13519
Ġdatasets	13517
containing	13515
Ġincubation	13515
ĠBowl	13514
ĠAE	13514
hc	13513
Ġconsistency	13511
cloud	13509
Ġtit	13509
Âµ	13506
NK	13506
032	13505
({{\	13504
ĠKel	13503
ĠÎĶ	13502
Ġediting	13501
risk	13499
wer	13497
Ġmodulation	13496
ĠWal	13495
Ġtobacco	13494
ĠSummer	13493
Art	13491
Files	13490
oth	13488
Ġinline	13487
Ġchromosome	13486
Ġ1979	13485
Ø±	13478
Ġfate	13478
Ġcave	13478
Ġaccounting	13478
ĠEV	13478
sie	13476
Ġwriters	13476
Ġaffinity	13476
Ġesc	13475
Ġmacrophages	13471
lower	13470
LF	13470
Ġrental	13470
ĠDD	13468
ĠOregon	13463
quality	13461
Ġcr	13461
ĠProcess	13461
Med	13459
ĠPri	13458
Ġought	13457
Ġreaches	13456
Ġprof	13456
Defendant	13455
Ġordering	13455
Ġcake	13455
ĠCle	13455
Ġindicator	13452
continue	13450
Ġdeposit	13450
Ġclothing	13450
Ġmanifold	13449
Ġconsisted	13449
iles	13447
Ġbackup	13446
variable	13444
pec	13441
yme	13436
owner	13436
Ġoverr	13436
Ġinnocent	13435
Account	13434
Ġlacking	13431
Ġentertainment	13431
Ġoz	13428
Ġoptional	13423
è®	13422
Disc	13422
ogy	13421
Ġfort	13421
Ġexpectation	13420
FM	13419
Ġouts	13419
aga	13418
pot	13415
ĠRh	13415
Ġsolvent	13414
Ġstruggling	13409
ĠGuide	13403
))/(	13402
Ġsanctions	13397
ÐµÑĢ	13395
Ġstaying	13395
ĠThr	13395
ĠClinical	13395
jd	13390
berry	13390
AY	13390
unk	13389
Ġgenerates	13389
aha	13387
shift	13386
micro	13385
XML	13382
AX	13382
Ġtrailer	13381
ĠFuture	13381
Ġunexpected	13378
ige	13377
READ	13376
!!!	13376
ĠHong	13375
ĠGun	13375
;"	13370
Ġretired	13370
ĠTask	13370
Ġtackle	13368
ĠOil	13368
ishing	13367
Schema	13365
allow	13364
Ġtermination	13363
ĠTs	13362
Email	13361
Ġoccupation	13361
Ġmedications	13361
038	13359
çĶ¨	13358
Ġsubstances	13353
Ġpredictive	13353
Ġmerge	13353
Ġdear	13353
both	13351
Ġenormous	13351
1985	13346
Ġcarb	13346
Dan	13344
ĠMuslims	13344
ĠTele	13340
ĠPrince	13339
URI	13338
Ġcorrected	13335
Ġ350	13334
ĠRoss	13333
234	13332
ĊĉĊ	13332
ĠBou	13331
ITY	13324
article	13322
)}{\	13322
Ġcarries	13321
ĠTru	13320
Empty	13318
xff	13314
HTML	13311
Ġcann	13311
*}	13310
Ġdistant	13308
Player	13305
Effect	13305
VERSION	13301
Ġreplacing	13301
Ġolig	13298
Ġappend	13298
cid	13297
037	13295
221	13290
Pool	13289
Ġlogo	13289
Ġbeg	13289
ĠExecutive	13287
Ġspinal	13286
vir	13284
utf	13282
iterator	13282
Ġdreams	13281
Ġderive	13281
\(	13280
eric	13279
Gar	13276
(!	13273
/"	13272
ĠScientific	13272
167	13266
060	13265
Ġplacebo	13264
Ġservers	13262
ĠKIND	13262
ĠClark	13261
Ġtap	13260
PIN	13259
224	13258
)&	13257
ARD	13256
Â§	13254
Ġâ	13254
Ġpainful	13253
gun	13252
Ġfragments	13250
IST	13249
'"	13248
Ġreporters	13248
Ġcollision	13248
Single	13242
ĠÐº	13242
ĠNeuro	13242
LINE	13240
Ġpc	13240
ĠUbuntu	13240
ĠRS	13235
Ġ06	13234
own	13232
Ġsync	13230
Ġscenarios	13230
Ġcontributing	13228
DN	13227
yy	13226
Ġentropy	13226
ĠHat	13224
Ġinitiative	13223
Ġhind	13221
gram	13219
Ġimpression	13217
ĠHillary	13216
[(	13215
1984	13213
sig	13212
Ġchlor	13208
Ġgastric	13206
ĠCommand	13204
ĠDoc	13201
ĠHollywood	13198
vas	13196
Ġshifts	13195
Ġships	13194
shared	13193
fm	13192
Ġnie	13192
ometer	13187
Ġsweat	13187
Join	13185
Ġstraightforward	13181
him	13180
Ġreject	13180
ĠHarry	13180
Ġexceptions	13179
Ġinhibitory	13178
Ġxml	13177
very	13175
oqu	13174
Ġtendency	13173
ĠFan	13172
Ġpossibilities	13171
}))	13168
Api	13168
David	13167
Ġburst	13166
Ġhip	13162
OB	13161
Ġbroader	13160
ĠStep	13160
Ġpoorly	13157
pto	13156
Ġschemes	13156
Ġguilt	13156
Directory	13152
Bit	13150
Ġ1977	13150
ĠCommon	13149
Hol	13148
Ġhired	13148
Ġawait	13147
exception	13146
dk	13146
Ġutil	13142
Ġcharacterize	13142
1987	13141
Ġ$${\	13141
Ġlicensed	13137
Ġbegun	13137
Ġallele	13137
aris	13133
Ġsyntax	13133
Ġfitted	13133
Ġmarch	13132
Ġspokesman	13125
Ġpresenting	13125
ĠTal	13125
INE	13121
Ġpig	13120
RL	13116
Obj	13116
Ġlawyers	13116
Ġchairman	13113
ĠLas	13112
Ġneighbors	13111
Ġhire	13111
ĠClick	13110
0006	13109
tax	13108
Ok	13108
Ġdetecting	13108
ĠCredit	13104
Ġdump	13102
Platform	13100
Ġnoting	13099
251	13098
Ġdeck	13098
Ġfri	13097
Ġmile	13096
cong	13093
Ġinvest	13093
Ġana	13092
Ġ138	13092
pair	13091
Ġneuronal	13091
Ġencountered	13091
Ġchemo	13090
mos	13089
dst	13089
minute	13086
Ġcondo	13086
valid	13084
Ġanalysed	13084
270	13083
080	13083
ĠAlabama	13082
iu	13081
UTE	13081
Ġwanting	13081
Ġcrypto	13081
ĠLLC	13081
Ġcurvature	13080
ĠFP	13077
amino	13076
returns	13075
Ġinvasive	13075
uted	13074
ĠDet	13073
fil	13070
Ġequity	13070
ĠMiami	13070
Ġscar	13069
ĠOklahoma	13069
ĠHU	13068
ĠARE	13068
Ġsto	13067
Ġ137	13067
depth	13062
ĠStr	13060
Ġfishing	13059
ĠPhiladelphia	13058
vd	13057
Ġindividually	13057
ĠNothing	13057
Ġmanagers	13054
Ġamid	13053
ilo	13051
Ġste	13051
COMP	13049
Connect	13044
Ġoccupied	13044
Therefore	13042
Ġlogin	13041
ĉĉĉĉ	13040
sey	13038
Ġdiscipline	13038
Ġmeals	13036
Ġinconsistent	13036
Ġdiagonal	13036
iza	13035
inated	13035
Ã¡Âº	13033
Package	13033
1988	13031
ivo	13030
ece	13030
Ġkg	13030
walk	13029
[*	13029
Ġstolen	13029
Ġhearts	13024
Ġinterfere	13019
ĠSimon	13019
ĠOk	13019
Ġchemicals	13018
ĠThor	13017
ĠCells	13017
Ġdelicious	13013
Ġassociate	13012
omi	13011
Ġexcuse	13009
ched	13008
Ġcelebrate	13006
Ġdar	13003
bling	13002
Ġworship	13001
Ġgenotype	12999
Ġaligned	12999
ĠHen	12999
Ġroutes	12998
ĠOd	12996
027	12995
Ġsphere	12994
Ġ145	12994
tet	12993
Ġ1978	12991
osomes	12990
ump	12989
Ġspecimens	12989
Ġaffairs	12987
Ġvirtue	12985
ĠCSS	12983
Pur	12982
^{+	12981
execute	12980
Pin	12980
cross	12979
cou	12979
ĠBox	12976
Ġhomogeneous	12974
Ġesp	12974
Ġcro	12973
ĠBMI	12973
Ġ182	12972
lers	12969
Ġsurrounded	12966
Ġfever	12963
ĊĊĉĉĉĉ	12962
Ġpositioned	12961
endo	12960
ĠDiego	12960
ĠSpr	12959
209	12957
Ġurine	12956
Ġalien	12956
Ġovert	12954
Ġformulation	12954
Ġdont	12954
ĠROS	12954
169	12950
ï¼ļ	12949
}}^{\	12946
ogenesis	12946
cert	12945
Ġcitizen	12943
Ġcheer	12942
come	12940
:</	12940
pper	12934
Ġraises	12934
Ġlegislature	12934
Ġbu	12934
ĠCollection	12934
stic	12933
inte	12933
Ġoperational	12932
Ġlocalized	12930
Ġarises	12930
single	12928
Kit	12924
ĠChar	12922
Character	12918
NH	12917
ĠJavaScript	12917
orb	12916
Ġrack	12916
Ġaddressing	12916
Ġbeings	12915
ĠCr	12914
ĠBureau	12914
ĠAz	12912
Ġprostate	12911
Ġnegotiations	12910
}&	12909
springframework	12909
distance	12906
206	12904
Ġproto	12904
Ġ})	12902
ĠForest	12902
flag	12901
ĠSimilar	12901
Trump	12900
Ġrob	12900
Those	12896
ĠJun	12896
ERR	12891
LM	12886
Tom	12885
Kind	12885
Ġhandled	12885
Ġbump	12885
ĠInvention	12884
kat	12883
Matrix	12883
Ġgru	12882
Ġdistribute	12882
tb	12881
215	12881
Ġbail	12881
bh	12880
>'	12877
ĠLabour	12874
Ġcompiler	12873
ĠMeta	12872
Ġlets	12871
Ġgrants	12871
inct	12868
![](	12868
Ġallocation	12864
ĠMusic	12863
Ġfro	12862
ĠAnt	12861
CHAR	12860
ĉĉĉĉĉ	12860
âĶĢâĶĢâĶĢâĶĢ	12858
ifer	12857
hh	12857
ches	12856
uz	12853
\!	12851
ĠStock	12850
Ġcorporations	12849
ĠAle	12848
username	12845
ĠÂ«	12845
ĠNight	12845
DW	12844
Ġsocket	12844
ĠEnc	12843
Ġmel	12842
ection	12840
))/	12839
quant	12838
Pointer	12838
Evaluate	12838
Ġorgans	12838
ĠCapital	12837
iser	12831
ĠCamp	12831
"],	12830
ĠFive	12829
Ill	12828
Ġconvenience	12827
Ap	12826
Ġdesk	12825
Ġintensive	12824
ĠSeattle	12824
ĠLanguage	12823
HM	12821
bell	12816
ppat	12813
ibilities	12812
agen	12811
Ġcow	12810
ĠLac	12810
paper	12809
Temp	12809
Ġclubs	12809
Ġverified	12806
Ġthromb	12806
Ġrolling	12805
âĢ¦.	12804
Ġconsiderations	12804
ĠMoon	12804
âĢ©	12803
ĠMarine	12803
Proc	12802
301	12802
Ġflex	12802
ÂłÂłÂłÂłÂłÂłÂłÂł	12800
mini	12797
Black	12793
Ġlips	12791
clean	12788
\|_{	12788
Ġ181	12788
Ġfibr	12787
Met	12785
oring	12782
Ġsheets	12782
Ġcarriers	12782
Ġshapes	12778
Ġhighlighted	12777
ĊĉĉĠĠĠ	12776
å®	12774
ĠExt	12773
Ġtransmit	12768
Ġdrill	12768
DEBUG	12767
ĠPU	12765
ĠÎ¼m	12763
catch	12761
Health	12759
Ġoccasionally	12759
Ġinsights	12759
ncing	12757
ĠDun	12752
Ġexpanding	12749
fre	12747
Ġlumin	12746
ĠÎ¼M	12745
Ġbarriers	12745
ĠDam	12745
Ġengaging	12744
Ġonc	12743
Ġpunch	12742
calc	12741
Ġsimulated	12740
Queue	12738
flo	12736
Ġflexibility	12735
233	12733
Ġkiss	12732
Ġquadr	12731
ĠEdward	12731
Ġ(<	12731
cks	12729
AST	12727
ĠSus	12723
Ġyours	12721
222	12720
Double	12719
parameter	12717
ĠAh	12717
Ġpie	12716
/)	12715
yi	12712
ĠWS	12712
Ġbreathing	12711
Ġdistricts	12710
ĠRick	12708
Ġsuggestion	12707
ĠMotion	12707
Ġprescription	12705
ĠEditor	12705
Ġdig	12704
Ġapproached	12704
into	12701
Ġundefined	12699
works	12698
ĠCAR	12698
Ġfavour	12697
ĠâĤ¬	12695
ĠMaria	12694
ĠHaving	12694
PORT	12692
Ġremarks	12691
Ġ$.	12691
ĠDy	12690
bullet	12689
Ġneedle	12689
Ġhub	12689
Ġaccommodate	12689
SHA	12688
Ġur	12687
brief	12686
Ġdishes	12686
Ġann	12686
223	12685
Ġincredibly	12684
identifier	12683
*\<	12682
ĠFootball	12681
Ġvolunteers	12680
Ġauthentic	12680
Ġmonitored	12678
Â¤	12675
fore	12675
Ġremedy	12670
Ġangles	12670
Ġimpacts	12667
Ġenvelope	12667
abc	12661
Ġdrag	12660
Ġtrap	12656
clock	12655
ĠForeign	12655
aining	12653
}$)	12652
olog	12652
>>>	12650
âĪ	12649
035	12649
Ġtongue	12649
Ġterror	12648
iga	12647
Great	12647
ĠEuro	12647
Ġsleeping	12645
Ġradi	12645
âĦ¢	12641
Ġsolving	12640
ĠJon	12640
ĠDal	12640
player	12635
say	12634
Ġtitles	12634
Names	12633
ĠStone	12630
North	12627
]+	12626
===========	12626
}}})	12621
variant	12621
Ġquant	12621
piece	12619
Ġdying	12619
åľ¨	12618
Ġgarlic	12618
Ð½Ð¾	12612
vp	12612
delim	12612
Ġdisposed	12612
Ġinference	12611
tip	12608
Ġts	12608
ĠSil	12608
Ġabandoned	12607
oga	12606
Ġconform	12606
yb	12605
tests	12605
Ġdiscount	12605
omy	12603
Ġjoke	12602
Ġarrays	12601
ĠÃħ	12600
Ġimply	12599
Ġextracts	12599
ĠMAP	12599
Ġconstructor	12598
ĠChannel	12598
Ġdr	12597
fur	12596
Ġpurely	12593
Ġfounder	12592
Ġconversations	12592
ä¹	12590
Ġsink	12590
Ġdecor	12590
ÃĲÂµ	12587
Ġslice	12587
Users	12585
Ġbalanced	12585
ĠStudent	12585
ams	12583
Ġcoin	12583
Ġadhesion	12583
ĠUs	12581
iot	12579
Ġspoken	12579
Ġsuppressed	12578
ĠNH	12578
ĠDoctor	12575
Ġlemma	12574
Sam	12573
264	12571
inar	12570
ury	12569
Ġfilename	12567
Ġligand	12563
Ġlemon	12563
edia	12562
structure	12561
Ġhitting	12560
lement	12558
arian	12557
Mod	12556
ABLE	12555
Ġ1975	12553
Ġpension	12552
Ġcoat	12549
erson	12546
Further	12540
ATE	12540
}$-	12535
uh	12535
****	12534
ĠOxford	12534
Fre	12529
Ġapproximate	12529
Ġfocuses	12528
Ġinnovation	12527
___	12526
ĠEss	12526
Ġvalidate	12524
Ġsteal	12523
iest	12520
ema	12520
ĠJane	12520
kov	12517
ced	12517
Ġsixth	12517
Ġke	12517
Ġpulling	12515
Ġpleased	12515
Ġox	12515
Ġmandatory	12514
Ġcontroversy	12513
$;	12511
Ġupgrade	12511
Ġproceeds	12511
isc	12509
cpu	12509
Ġeff	12507
dest	12504
tick	12503
Ġfin	12500
330	12499
Ġpromoted	12499
ĠFel	12499
Ġdozen	12498
Ġconsiderably	12498
Ġtransitions	12496
Ġnarrative	12496
quote	12494
Term	12494
Ġ139	12494
ulf	12493
hidden	12493
enu	12493
Ġaccordingly	12493
eto	12491
ãģ¯	12490
Ġdeleted	12490
Mat	12489
Ġanalytical	12489
ĠHeart	12489
Ġarguing	12487
look	12484
Ġdisplacement	12484
cht	12482
Ġ'/	12482
Ġov	12481
BY	12478
yg	12476
Short	12476
Ġexhibits	12472
proof	12471
Ġmorphology	12471
Ġexplaining	12471
Ġtranscripts	12469
Ġintact	12469
Ġconcur	12469
aged	12468
iant	12467
ĠJP	12467
ĠHT	12467
ĠDisney	12466
ĠResponse	12465
Send	12463
ĠSmall	12463
Ġautomobile	12462
ĠFactor	12458
ĠLeft	12455
thy	12449
equals	12449
Ġmobility	12449
NB	12444
Ġvis	12441
Ġindirect	12438
ĠTheory	12438
Ð¾Ð²	12436
Ġic	12436
tags	12435
Ġdeclaration	12435
ĠMessage	12432
ĠVisual	12428
Extra	12427
Ġpun	12427
Copy	12425
anta	12424
Ġvolunteer	12423
Ġcompromise	12421
Ġ220	12421
3000	12420
ĠWO	12420
ĠMissouri	12419
platform	12418
ĠVideo	12418
large	12417
333	12416
Ġconfirmation	12416
suppl	12414
Elect	12414
="../	12414
ĠTRA	12411
ĠNBA	12411
osed	12410
cca	12409
Ġadoption	12408
Ġanonymous	12407
Enc	12405
resp	12404
dad	12403
Ġarr	12403
Ġencoded	12401
tile	12400
Ġmanufacture	12400
Ġchol	12400
Ġties	12398
Ġevaluating	12393
Ġvolumes	12391
ĠOverall	12391
Ġconducting	12389
Invalid	12388
Ġplacing	12387
Ġhanging	12386
ĠDF	12386
Ġ240	12386
1983	12383
,âĢĻ	12383
ĠOnline	12377
Ġphones	12376
Summary	12375
ĠVM	12370
ĠDU	12370
Ġreportedly	12369
Ġasserted	12363
ĠWhit	12363
Ġexclude	12361
Ġcannabis	12361
ĠTher	12361
ĠDur	12361
bec	12359
Ġrelaxation	12359
Ġrecruitment	12359
čĊĠĠĠĠĠ	12356
phys	12354
parallel	12354
Ãº	12353
Ġ360	12351
Ġenemies	12350
ĠCorn	12350
ored	12349
Subject	12348
Conv	12346
Ġunde	12346
Ġchips	12346
Ġatt	12346
editor	12345
ĠEG	12345
Ġreserve	12343
Ġprayer	12343
Ġreviewing	12341
ĠRapids	12341
ĠMot	12341
cular	12340
173	12339
ĠFun	12339
Mask	12338
Ġballs	12338
ORT	12337
Ġofficially	12337
success	12336
Cas	12335
Policy	12331
ĊĉĠĠ	12331
Ġblockchain	12325
Miss	12324
>;	12324
Ġpink	12323
extern	12322
cul	12322
ĠTem	12322
ĠSurvey	12322
Ġimplementing	12321
Ġlegally	12320
Ġtransl	12319
Ġquarterback	12319
Ġhormone	12317
esh	12313
Ġward	12313
Ġimplements	12311
Prep	12309
Ġsustainable	12309
ĠEB	12307
uy	12302
asing	12301
Ġsubsection	12300
ĠRelated	12300
Ġvaries	12299
norm	12295
erv	12295
TX	12295
tech	12293
Watch	12293
Ġcounting	12293
Ġbare	12292
Ġriding	12291
commit	12290
Ju	12289
Ġthrew	12288
jun	12287
Ġoutdoor	12287
ĠSquare	12286
Byte	12285
Ġtranslate	12283
Ġdecom	12283
}^*	12280
ï	12279
ocation	12279
vy	12278
Ġfetch	12277
Ġopera	12274
ĠâĢĻ	12273
bits	12272
260	12270
Ġ1976	12269
ĠWolf	12266
wx	12265
Contact	12264
ĠYouTube	12263
Ġinst	12257
Ġdict	12256
053	12255
Ġspark	12254
ĠBD	12254
0011	12252
ĠWord	12252
thr	12248
äº	12247
typename	12246
Standard	12244
ĠFrancis	12243
Ã©m	12241
Ġtraveling	12241
iac	12236
ĠThrough	12236
Ġpollution	12234
Ġmethodology	12234
Ġgen	12232
dynamic	12230
;;	12230
Ġcatheter	12230
>()	12229
ĠWars	12227
xsl	12225
Ġconstitutes	12224
XX	12223
Stack	12218
Ġmetastasis	12218
Ġdesc	12217
Ġproxy	12216
dz	12215
XC	12215
SG	12214
Ġgamma	12213
Ġdenoted	12213
ĠMont	12213
ĠEver	12211
Ġnuclei	12210
ARE	12208
Ġtears	12208
Ġlessons	12206
license	12200
=".	12200
heat	12199
Ġshifted	12195
Åį	12193
uma	12193
Ġventure	12189
ĠMRI	12189
ĠGolden	12189
Ġpred	12188
Scale	12187
Ġbiology	12185
Light	12183
KO	12179
Ġlesser	12177
Ġinnovative	12177
ĠPalestinian	12176
Db	12173
Ġren	12173
Ġtear	12172
[:	12171
Ġreb	12171
were	12170
Act	12170
iw	12169
Ġappearing	12168
Ġsusceptibility	12166
Ġsubstrates	12166
Year	12165
1982	12165
Ġraces	12165
exists	12163
ĠSearch	12163
hydro	12161
formula	12161
Ġcalendar	12161
.[]{	12160
Ġcurious	12160
Ġdrops	12158
Ġreproduce	12157
Ġclaimant	12155
029	12151
Ġimmigrants	12151
ght	12148
Ġwages	12148
elle	12147
Ġlengths	12147
Ġcups	12147
twitter	12146
Ġwheat	12146
ĠLam	12146
Ġpole	12144
ĠGy	12144
ĠBUT	12144
Ġextracellular	12143
ĠSTR	12143
perm	12142
Member	12136
Ġorganisms	12136
Ġbasal	12136
Seq	12135
Ġviable	12134
sam	12133
Ġcancel	12131
proto	12130
ACE	12130
)/((-	12129
Ġstepped	12128
Ġrally	12128
Ġprobation	12126
Ġobjectives	12126
ĠBas	12125
anda	12121
Ġcaptain	12120
Ġappellate	12120
â	12119
Storage	12119
Ġram	12119
Ġoxidation	12119
Court	12118
Ġ700	12117
Ġspeaker	12116
Ġ155	12111
Ġdro	12110
Ġdramatically	12110
Ġdiscussing	12110
Ġabilities	12109
ending	12107
ĠWithin	12107
Ġfallen	12106
Ġconfigurations	12106
æľ	12105
====	12105
čĊĠĠĠĠĠĠĠĠĠ	12105
mouse	12104
ulsion	12103
VS	12103
Ġinfluenza	12102
Ġsubtle	12100
Off	12099
Ġmot	12099
Ġ204	12099
Program	12097
Ġmerits	12095
Ġdevelopments	12093
Support	12091
Ġmanipulation	12091
Ã¡n	12090
osite	12090
Ġinvestigators	12090
Ġvacation	12088
Ġ157	12088
bul	12087
Ġpra	12087
Ġcyto	12085
ĠDL	12085
ä¸Ń	12084
ĠrÃ©	12083
Ð·	12082
Ġhighlights	12082
pon	12081
Selected	12079
Ġ});	12078
Ġcharging	12078
Ġwithdrawal	12076
ĠDallas	12075
Comb	12074
Ġprefix	12074
Ġsalad	12073
oot	12072
Express	12072
ĊĉĠĠĠĠĠ	12070
Ġasserts	12069
228	12068
Ġwrap	12068
Ġcone	12068
Information	12067
Following	12064
Ġgather	12064
Ġsustain	12062
Ġtransverse	12061
ĠReturns	12058
PAR	12057
Ġpose	12057
Ġredirect	12055
Ġwisdom	12054
ĠINC	12053
Ġprize	12052
metry	12050
Ġnecessity	12050
Lett	12049
Ġparams	12049
208	12048
inity	12043
>::	12043
Ġfluorescent	12043
Ġscroll	12040
Ġrobbery	12039
Ġconvex	12039
caps	12036
Ġexcitation	12036
ĠRou	12036
1980	12033
Ġdialogue	12033
program	12032
ĠBerlin	12031
Ġattending	12030
Ġhumanity	12029
Ġnutrition	12028
subject	12023
Ġ179	12022
Ġgathering	12018
_;	12017
Play	12017
ĠProcedure	12017
Ġkn	12016
Ġbp	12015
beat	12014
Ġdefence	12014
ĠVir	12014
ĠNotice	12013
Ġmount	12012
^](#	12010
Ġoperates	12010
Ġmodest	12010
Ġsingular	12009
ĠRules	12008
chen	12006
Ġsafely	12000
Sat	11997
Cit	11995
ulator	11994
Ġprevents	11994
reset	11992
ĠSingapore	11992
ĠFinancial	11991
ĠBoy	11990
pattern	11988
oin	11988
tun	11987
Dim	11986
Ġlighting	11984
Ġaffordable	11984
Ġnut	11982
ĠHelp	11982
Ġproducer	11979
Ġfucking	11979
opathy	11978
ĠFunction	11978
Serial	11977
Ġcredibility	11976
Ġstopping	11975
Ġassertion	11975
iah	11974
Ġ151	11974
Ġdonors	11972
Ġprojected	11971
Ġalterations	11970
emon	11969
EST	11969
Ġfreely	11969
Ġhanded	11967
Ġhorror	11965
Ġalternate	11964
Inst	11960
ĠTennessee	11959
Ze	11958
Ġ175	11958
Ġunity	11957
linked	11956
nam	11954
bis	11952
Ġpassive	11952
Ġbud	11952
036	11951
Ġpacked	11951
Ġincorrect	11950
252	11949
0007	11949
ĠAlexander	11949
Ġutilize	11948
=&	11946
miR	11942
hb	11942
ĠWu	11942
ãģ¨	11941
ensive	11940
ĠBlock	11938
Move	11937
ĠProtection	11937
ĠSelect	11936
Ġcatalyst	11934
Ġxmlns	11932
Ġgolden	11931
Ġbother	11931
extra	11929
Ġrect	11928
Ġcombining	11928
ĠBeck	11926
Mean	11925
Ġnurses	11925
Ġbow	11925
,\,	11922
Ġmeets	11921
Ġmeth	11919
Ġcameras	11915
Ġamplification	11914
ĠTony	11913
anal	11912
ĠChampionship	11912
ĠMorgan	11911
opp	11910
once	11910
ibi	11910
Ġtriggered	11910
Ġathletes	11909
National	11907
Ġjam	11907
)~	11905
UTF	11903
ĠMexican	11903
Ġ"%	11903
Ġinherent	11901
Ġine	11901
vee	11900
Âĩ	11899
Ġremand	11898
Ġretention	11897
Ġ143	11897
Ġdeficit	11895
Ġprompt	11894
Ġdensities	11894
Ġconcert	11894
Simple	11891
Hon	11891
FROM	11891
ĠPURPOSE	11890
since	11885
ared	11884
MN	11884
Ġineffective	11882
Flow	11880
fy	11878
Ġ142	11878
Ġbitter	11877
Security	11875
Ġrival	11875
Ġarbitration	11875
esse	11872
Argument	11868
Ġinitiation	11867
Ġbonus	11867
ĠAy	11865
rans	11864
Ġinvestments	11864
ĠPas	11864
ĠWalker	11863
}{(	11861
Ġreass	11860
Ùħ	11859
Bur	11858
Ġoccasions	11856
ĠMY	11856
Ġpromises	11854
Ġconsultation	11853
olin	11852
Ġclimb	11852
oil	11851
Power	11849
Ġinfer	11848
Ġprotests	11847
Ġartists	11847
Ġrobot	11846
ĠPremier	11846
cause	11844
Ġ---	11843
pling	11842
route	11841
onal	11841
irl	11841
ders	11840
erge	11838
Ġfence	11838
events	11837
ĠSelf	11836
stri	11834
)",	11834
ĠOT	11834
ĠLang	11833
>();	11832
ĠCulture	11831
Texture	11830
Ġpub	11829
Ġinspiration	11829
got	11827
ĠKen	11826
Ġdemocratic	11825
omer	11823
Ġdamn	11823
Ġ\*	11822
ÂłÂł	11821
Ġë	11818
mf	11817
LIB	11817
ract	11816
ĠRelease	11816
ĠWould	11815
ĠLive	11814
fx	11813
Ġdivorce	11813
Ġmistakes	11810
pref	11809
Ġ?>	11809
EXPECT	11807
Ġjudges	11805
ĠSG	11805
ÙĪ	11804
KS	11802
edo	11801
Spe	11800
ĠAuthority	11800
Place	11798
ĠGall	11798
ller	11797
Paul	11794
Green	11794
Ġgall	11792
Ġads	11792
manager	11791
TN	11791
Ġcoil	11790
alc	11789
Ġ210	11788
Ġinsured	11787
itt	11786
ÃĲÂµÃĳ	11783
ĠDark	11783
Ġmotivated	11778
|^{	11774
obs	11774
Func	11774
Rate	11772
Ġbaking	11772
Ġensuring	11771
Ġapt	11771
compare	11769
Eu	11769
Ġhabit	11769
Ġdatabases	11765
ads	11763
Ġactivists	11762
ogra	11761
Ġpalm	11761
props	11759
ÙĨ	11758
Ġfacial	11757
Ġsav	11756
Ġlys	11756
ĠDefault	11754
eval	11753
iver	11751
Ġdated	11750
Ġabundant	11750
Ġ153	11748
)$-	11747
QS	11745
DH	11745
Ang	11745
ĠStudio	11744
Ġearnings	11742
Anti	11741
Ġboards	11741
ĠMerc	11740
ĠLeg	11740
counter	11738
Ġamongst	11738
312	11736
ometric	11731
ĠRD	11730
ĠArabia	11730
ĠĠĠĠĠĠĠĠĠĠĠĠĠĠĊĠ	11730
Ġwrit	11729
Ġ165	11728
Ġdeparture	11727
convert	11726
Gene	11726
Ġdowntown	11726
Ġprognosis	11725
---|---|---|---|	11724
Ġthrowing	11723
ĠVice	11723
ĠSite	11723
Ġpremises	11722
Ġdisadvantage	11722
ĠExpression	11722
à´	11721
ĠMeanwhile	11721
zm	11720
ĠSarah	11720
ĠVE	11719
Ġtherapies	11714
ĠHoward	11714
ifndef	11713
Ġduct	11713
ĠHay	11712
panel	11708
Ġcompile	11708
NY	11705
=\"	11705
Mer	11704
nil	11702
Ġshops	11699
Ġwithdraw	11698
})$.	11697
ĠBB	11697
\^[	11695
Google	11693
401	11692
Acc	11691
Ros	11690
ĠJason	11690
Ġreactive	11687
Ġdeployment	11686
Ġlos	11685
Ġscrew	11683
Ġentr	11681
Ġcats	11678
Af	11676
207	11676
$:	11676
ĠMother	11676
Ġ,\	11675
bury	11674
expr	11673
Ġchopped	11673
Ġindustries	11672
ART	11670
090	11670
Ġapi	11669
information	11668
asc	11666
ĠVar	11665
Plugin	11664
Parser	11662
Ġspeaks	11662
Bundle	11661
entity	11660
Ġuniversities	11658
Ã©n	11656
Ġrush	11656
Ġrespons	11656
ÙĬ	11655
icle	11654
:[	11654
Ġom	11654
Ġlag	11654
Ġjustified	11654
stan	11652
cted	11650
ĠDIS	11650
ĠTreatment	11649
)+\	11645
Ġgrey	11645
rx	11644
Ġsoup	11644
HB	11643
Ġmanufacturers	11643
218	11642
Ġcurl	11639
245	11636
Render	11635
Ġzip	11634
Ġmusical	11634
Ġantibiotics	11634
Ġpassenger	11633
gent	11632
Ġrefuse	11630
Dep	11628
cot	11627
ĠCruz	11627
Ġfloating	11626
Far	11625
Ġlac	11625
Ġ-------------	11624
750	11622
ĠFol	11622
ĠCou	11618
Ġadm	11617
ĠCut	11617
ĠCOURT	11616
nas	11615
ethyl	11615
Ġemails	11614
ĠLater	11614
ĠAnna	11614
ĠNK	11613
Ġarts	11612
cad	11610
Ġaveraged	11608
ĠIranian	11608
ĠBuilding	11608
ull	11607
Should	11606
Ġfought	11606
ĠSenator	11606
Ġveteran	11604
ĠBee	11603
Ġpackaging	11601
Ġmainstream	11601
Ġgro	11601
PV	11600
Ġtower	11600
ĠMart	11600
ĠVen	11599
Ġavoided	11597
ĠcDNA	11595
Ġdeserve	11594
ĠDick	11593
ĠPARTICULAR	11591
illo	11590
dfrac	11590
Ġobligations	11588
Ġmicroscope	11588
aks	11585
Ġfruits	11582
ĠBU	11582
ĠSK	11581
BASE	11578
Ġdebug	11578
Ġdismissal	11577
ĠFred	11577
ãģ§	11576
5000	11576
Ġsho	11576
Ġratings	11576
Ġconvention	11576
Ġthroat	11573
Ġexperiencing	11573
Inf	11570
ĠÐ´	11569
Ġcaution	11569
ĠFat	11569
batch	11568
bes	11566
Ġceiling	11566
ĠCHECK	11566
download	11559
ĠMeg	11557
Ġ141	11557
othe	11556
Internal	11556
ĠMayor	11556
Ġsupplement	11555
Ġter	11552
Leg	11551
Ġmarginal	11550
vn	11549
Ġramp	11549
ĠCaptain	11549
ĠCOVID	11549
forward	11547
Ġhorizon	11546
ĠFront	11545
Ġsteep	11544
Ð°Ð	11541
USA	11541
Ġpreserved	11541
osome	11540
Ġadvances	11539
ĠMountain	11539
Bean	11538
lex	11537
arn	11537
Ġkiller	11536
Ġbrilliant	11536
Memory	11535
Ġalternatives	11535
:'	11534
ĠMount	11534
regulation	11533
Ġintelligent	11533
Ġagricultural	11531
ĠUSB	11531
Ġadventure	11529
ĠDutch	11529
imo	11528
Ġflood	11528
rand	11526
Ġlabour	11526
team	11523
observ	11523
encing	11523
Ġshirt	11523
Ġhappiness	11523
submit	11522
environment	11522
inator	11521
hop	11521
-,	11521
ĠPsych	11521
Ġ1950	11521
oting	11514
ectomy	11514
Ġrubber	11511
ĠNL	11511
Ġcaps	11509
Sem	11508
Ġtrait	11508
Ġintercept	11508
kill	11507
Ġgranting	11507
Ġexploration	11507
ĠRemove	11507
ĠLegend	11507
assign	11506
ĠDN	11505
Ġsearched	11504
gre	11503
Poly	11503
===============	11503
*:	11503
Comment	11501
0009	11501
ĠFerr	11501
pie	11499
]-[@	11499
ĠWales	11499
Ġregret	11497
Scope	11495
Ġmetrics	11495
Ġeastern	11494
aya	11493
DV	11489
ĠLock	11489
ĠAuthor	11489
lated	11488
Ġvoluntary	11488
Ġ....	11487
jc	11486
asion	11486
Ã´	11485
}{{\	11484
Ġexceed	11484
aj	11483
STATE	11483
Ġcontamination	11483
Ġevolutionary	11480
Ġbrains	11479
CHECK	11477
Ġsusceptible	11477
Ġsubjective	11477
ql	11474
Ġfasc	11473
ĠElizabeth	11473
BN	11470
ÑģÑĤ	11469
Ġexplosion	11468
051	11467
unique	11466
Ġgar	11466
loss	11465
Ġresidue	11464
Though	11463
ĠâĢĭ	11463
mir	11462
ĠBart	11462
Ġrevised	11460
Ġ256	11460
modal	11458
Ġclinically	11457
Ġclarify	11455
Ġdistal	11454
Ġswap	11452
Ġdiabetic	11452
Ġshelter	11451
Ġloads	11451
Ġselecting	11448
Ġcabinet	11447
Ġdrift	11446
ired	11443
Ġadhere	11443
))?	11440
Ġsuspicion	11439
Ġmedal	11438
Ġtumour	11434
ĠDouble	11433
Ġviability	11432
inner	11431
Pass	11431
Ġprimers	11430
Ġunlawful	11429
Ġ146	11429
ĠAccount	11427
[-	11426
ories	11424
Ġstationary	11424
trace	11423
Ġped	11423
Ġupstream	11422
Ġyard	11421
ĠDeb	11421
same	11420
Ġpride	11420
Ġillustrate	11419
Ġ152	11419
Keep	11418
quoting	11417
044	11417
ĠIB	11417
Ġ178	11417
dos	11415
Low	11413
ĠCU	11413
ĠBesides	11413
erc	11412
Ġvon	11412
Ġdisclose	11411
Was	11408
Ġranked	11406
)\\	11404
ĠArts	11403
070	11402
Ġket	11401
eld	11400
Ġfork	11400
Ġconsumed	11400
aster	11398
Ġexponential	11398
Ġintend	11397
ĠSenior	11396
ĠExpress	11396
Ġ1973	11395
Ġcounted	11393
Ġtre	11391
ience	11390
wy	11389
Ġrecipes	11389
Py	11388
Ġpremium	11387
Ġrelevance	11386
ĠCin	11386
}$]{}	11383
Ġmyth	11382
Ġbot	11380
Ġtranscriptional	11379
ITE	11378
Ġrap	11378
Ġdesktop	11375
their	11371
Ġthereafter	11371
Ġwaiver	11369
ĠIntel	11369
Ġpeaceful	11368
character	11367
dump	11366
fra	11365
otype	11363
actions	11362
,*	11362
basic	11361
MF	11361
Ġpap	11360
lies	11359
ques	11358
imate	11357
Ġfigured	11356
Ġexcit	11356
ĠKin	11355
Cast	11354
ĠMis	11354
ĠContent	11354
Ġthumb	11353
Ġendogenous	11352
login	11351
ç»	11350
Ġpile	11347
Ġphosphate	11342
uis	11340
Ġsie	11340
igh	11338
Ġpredetermined	11338
Ġcenturies	11338
ĠUtah	11338
)-\	11337
uda	11336
oda	11336
Ġintroducing	11336
Ġlake	11335
Com	11334
`)	11333
ĠVietnam	11333
0015	11332
bid	11330
ĠConvention	11330
Ġremind	11326
ĠTG	11326
540	11325
&=&	11325
Ġ$|\	11325
ĠLM	11324
Ġincomplete	11323
ĠReturn	11322
Ġhint	11320
ĠShort	11319
ows	11318
Ġstereo	11318
Ġbeef	11317
Ġtickets	11316
Ġlaptop	11316
HF	11315
Ġabsorb	11315
Ġprolonged	11312
Ġfetal	11312
\{\	11311
ĠRequest	11310
)->	11309
Ġyo	11309
Ġfurniture	11309
Ġfoo	11309
atch	11307
ĠBuck	11305
Ġappellants	11304
parser	11302
Related	11302
Ġreception	11302
Ġclassroom	11302
bach	11299
fly	11296
Ġincidents	11295
Ġblade	11294
Ġcrossed	11293
geo	11291
}\|	11290
Ġprimer	11290
ĠMars	11290
Ġaffidavit	11287
ĠMos	11287
odot	11284
ĠTex	11280
Descriptor	11279
375	11279
Ġinfectious	11274
ride	11273
erm	11271
eria	11271
Ġsacrifice	11270
Ġclearance	11270
ention	11268
Ġpanic	11268
ĠKy	11268
ãĥ³	11267
Ġprospect	11266
303	11265
ĠDuke	11265
UG	11263
ĠLouisiana	11259
Ġ1972	11258
mv	11257
infected	11256
Ġseemingly	11256
=$	11254
Ġventricular	11254
ĠUpon	11254
Ġannounce	11253
ĠTurn	11252
340	11251
Ġdeadline	11251
operation	11249
Ġstri	11249
fileID	11244
Ġcorrections	11243
Ġrhythm	11241
wk	11238
Ċĉĉĉĉĉĉĉĉ	11238
Obv	11236
Ġhorses	11236
Ġevolved	11235
ĠRich	11235
Desc	11233
Ġsheep	11232
Ġrepository	11228
ĠWHO	11226
mount	11223
ĠRy	11222
Ġcertified	11221
Ġeng	11219
Best	11218
Ġmem	11218
Ġrecommendation	11216
Ġlocus	11215
Ġhalo	11215
Rad	11214
JP	11214
Ġemerge	11214
lass	11212
Ġbrands	11212
grat	11211
arXiv	11211
utes	11210
ĠAffairs	11210
Mock	11209
Ġabdominal	11208
ĠFITNESS	11205
Selection	11204
Msg	11204
ĠRow	11204
ĠBos	11204
Ġsing	11202
Ġ225	11199
sche	11198
cri	11198
293	11198
ĠCurrent	11196
cmp	11195
Ġundergoing	11195
Ġgravitational	11195
à²	11193
))\	11193
Ġemployers	11193
independent	11192
ĠOri	11192
Ġ149	11191
}>	11189
Ġdynamical	11187
Ġfracture	11186
ulatory	11185
Ġrotating	11185
Ġdesert	11185
Ġber	11184
mond	11183
Ġtau	11183
ĠTr	11183
groups	11182
Ġawards	11182
MEM	11180
Geo	11180
President	11179
Java	11179
Ġorthogonal	11177
Ġ".	11176
Ġtwelve	11174
Ġdemonstrating	11171
Ġrigid	11170
design	11169
ĠOA	11169
034	11168
ĠiPhone	11167
ĠNASA	11167
Bs	11165
Ġattach	11164
ĠPhysics	11162
ĠLPS	11162
}}}_{	11159
},$$	11154
Ġtur	11153
Ġ\}	11153
UV	11149
ĠVery	11148
Ġcouples	11147
Ġvir	11145
ĠVC	11144
pet	11142
ĠâĢľ[	11142
lessly	11141
best	11141
Ġfeasible	11141
Ġamb	11141
ĠSeason	11141
ĠProc	11141
gf	11140
ĠInfo	11140
nor	11139
Ġordinance	11138
radius	11137
ä¸Ģ	11136
Ġrecombinant	11135
Ġfool	11134
Ġachieving	11134
Ġfulfill	11133
ĠOD	11133
GFP	11132
Ġlamin	11130
factor	11128
Ġjournalist	11127
city	11126
Ġactin	11126
Ġrendering	11124
lh	11122
ĠAssistant	11122
Ġnights	11121
quet	11119
Phil	11119
iat	11118
Scroll	11115
Ġ-----------	11115
Ġbuttons	11112
Ġ"-	11110
)>	11109
ĠNetherlands	11109
months	11108
Ġconjunction	11108
ĠAddress	11108
Plaintiff	11107
Ġenrolled	11107
Ġpublications	11106
ĠNeed	11106
Ġsorts	11105
ĠTarget	11105
Ġhoped	11101
Limit	11100
ersion	11099
Div	11098
039	11098
Ø§	11096
243	11093
Ġlesson	11092
ĠLou	11092
ĠHF	11092
oint	11091
ViewController	11090
Ġgraphics	11090
vl	11087
ĠAw	11085
Sum	11084
ĠMg	11083
Ġspontaneous	11081
ĠExample	11081
ĠsiRNA	11079
Ġpt	11078
241	11075
Ġpressed	11075
ĠCIA	11074
(__	11072
Ġphenomena	11068
à¦	11067
Ġsys	11067
Ġsubd	11066
odo	11065
)](#	11065
Ġtubes	11065
Ġcontacted	11065
aut	11063
ĠRod	11063
vascular	11062
Ġswimming	11062
ĠDave	11062
ĠConv	11062
Ġmold	11060
ĠBeing	11060
Ġ171	11059
ool	11057
Profile	11055
ĠSay	11052
resistant	11050
Ġtopology	11048
Ġfluor	11048
Ġunemployment	11046
Ġdeletion	11044
ask	11043
ĠAri	11043
ssl	11042
ually	11040
Ġ205	11038
Ġnest	11037
external	11036
Ġintegrate	11035
Ġcylinder	11035
ĠTokyo	11034
Ġinappropriate	11031
ĠPac	11030
feed	11029
ÂĮ	11028
annotation	11027
carbon	11025
Ġcerebral	11024
ĠThink	11024
iled	11023
Ġears	11023
IES	11022
HU	11022
angi	11021
Ġdirectors	11021
Ġ------	11019
Ġinsu	11018
ĠStri	11018
Sun	11017
ĠLind	11017
Ġ1974	11017
Head	11015
ĠEngineering	11014
ĠCop	11012
bigl	11011
ĠInteger	11011
Ġpromotes	11010
Ġcontributes	11010
ander	11009
Ġtheft	11009
Ġsends	11008
Ġfatigue	11008
Ġscared	11005
fail	11004
Ġcorrupt	11004
æľī	11003
Ġundergo	11003
Ġtons	11003
Ġbabies	11003
Ġwashing	11002
Mil	11001
ĠAppendix	11001
Ġloving	10995
Ġessence	10995
hel	10994
*),	10994
edi	10993
CAR	10993
Ø§Ø	10992
emphasis	10992
ĠUnlike	10992
Ġvaccination	10991
Ġadaptive	10990
ĠSaint	10990
Ġfoster	10989
229	10988
Ġspine	10988
Ġ"âĻª	10988
ĠPLA	10987
safe	10985
Ġrib	10981
Ġretrieve	10979
Ġflesh	10979
ĠMut	10979
ĠMember	10979
Ġexploit	10977
oria	10976
ĠJerusalem	10975
Ġ"",	10972
Ġneighbor	10970
Ġkinetic	10970
ĠPle	10969
ĠSingle	10968
ĠHB	10968
iam	10967
480	10967
$}}	10966
Ġloops	10964
ĠLat	10964
Ġ154	10964
Ol	10962
flu	10961
Socket	10961
Ġisomorphism	10961
Ġconvictions	10961
Ġcant	10959
Ġantenna	10958
Ġaqueous	10956
ÙĦ	10955
ross	10951
nov	10947
Variable	10946
Ġspecification	10944
ican	10943
ronic	10939
Ġinstability	10939
Ġclustering	10939
Ġactivate	10938
Database	10937
{{{\	10934
bold	10934
ĠProtein	10934
ĊĊĠĠĠĠĠĠĠĠĠĠ	10934
ctor	10933
Ġattain	10932
viruses	10931
Ġord	10931
ĠFourier	10930
;}	10929
Ð½	10927
Ġconcentrated	10927
254	10926
ĠSOFTWARE	10925
Ġrejection	10924
ĠHell	10924
memory	10922
iment	10922
Ġproposals	10922
Blue	10921
books	10919
rence	10917
Unknown	10917
ĠPil	10917
Ġextraordinary	10916
cycl	10915
Ġsail	10915
Ġharmful	10915
Ġspouse	10914
Ġbeneath	10913
ĠPenn	10913
ĠJacob	10912
Ġpharmaceutical	10911
ĠCart	10910
ĠMand	10908
Ġuniformly	10907
Ġdrunk	10905
{%	10903
Ġinch	10903
Ġtransfected	10902
ook	10901
Ġsword	10901
Â¡	10900
Pan	10900
Framework	10899
ologies	10898
Ġtra	10898
Ġ--------------	10898
Ġdrinks	10895
Ġdistinguished	10894
Press	10892
Ġalkyl	10892
Ġinstructed	10890
condition	10889
720	10889
isp	10888
dent	10888
Ġsons	10888
ĠHum	10888
ĠExchange	10887
Ġheated	10886
ĠSci	10886
agi	10885
242	10881
]*	10880
247	10879
-.	10878
ĠEmpire	10878
Ġnegatively	10877
Ġinadequate	10872
Ġapple	10872
ĠFl	10872
PN	10871
ĠResources	10871
raz	10870
ĠFlow	10870
pes	10869
Ġdialog	10868
Ġcooked	10868
Ġthreads	10867
xsd	10866
Ġsynthesized	10865
ĠSDS	10864
ĠAnne	10863
Ġpret	10862
Ġjunction	10862
Ġinfluences	10862
Ġgym	10862
March	10861
Ġbacked	10861
utable	10860
hbox	10858
ĠMini	10857
fel	10856
Ġ177	10855
artifactId	10854
cg	10853
$),	10853
ĠStatistical	10853
Ġabroad	10852
\](	10851
Ġstocks	10851
MAT	10850
operator	10847
Ġlegacy	10846
ĠAbb	10845
XP	10844
Ġsurveys	10843
219	10842
something	10840
GU	10840
Ġcriterion	10840
ĠBern	10839
ĠDetroit	10836
$-$	10834
Ġpolyp	10832
Ġdir	10830
Ġanalog	10828
ê	10827
TRA	10826
Ġsem	10826
ĠBow	10826
aki	10824
){\	10824
Ġproducers	10824
Ġdx	10824
Ġdiffuse	10824
ĠOntario	10824
ĠÙ	10823
Ġhopefully	10823
ĠKir	10822
dies	10819
Ġautomated	10818
Ns	10816
,.	10815
Ġhepatic	10814
Parse	10812
IAL	10812
das	10810
bj	10809
Proxy	10809
ĠMann	10809
Ġresection	10808
Ġdeciding	10808
ĠArm	10808
uing	10803
Ġwhilst	10803
ender	10800
Ġcritic	10800
driven	10798
Ġdrew	10798
Ġcervical	10796
ĠBlood	10796
Ġcomprised	10795
boot	10794
ific	10792
ĠWright	10792
Ġlanding	10789
ĠLORD	10789
inch	10788
Ġsensory	10788
ska	10787
ĠPN	10787
)]{}	10785
ĠGET	10785
Ġhumor	10784
igen	10783
Ġreleases	10783
stand	10782
Ġqueries	10782
Ġvalidated	10780
Ġtranslated	10780
Ġwrapped	10777
Ġbou	10777
tool	10776
mathop	10776
čĊčĊĠĠĠĠĠĠĠ	10776
iously	10775
Ġutilizing	10775
Ġstake	10775
ĠEPA	10775
ĠCloud	10775
alloc	10774
................	10774
="-	10773
Ġbiopsy	10773
ĠStop	10773
logo	10770
Ġrelax	10770
Ġethics	10769
Ã§	10768
Ġmyocardial	10768
ĠVS	10768
ĠAustin	10768
302	10767
Ġridiculous	10767
hpp	10766
Ġenterprise	10766
Ġbilateral	10766
Ġplotted	10765
groupId	10764
Ġpediatric	10764
Review	10763
ĠAU	10760
rick	10759
ORY	10758
Role	10757
Ġbru	10755
ĠMarc	10755
reflect	10754
Ġtoll	10752
Ġanimation	10752
Ġ156	10751
Ġschema	10750
Ġpolls	10750
enta	10749
iki	10748
-)	10748
ĠRecently	10747
Ġstatutes	10746
ĠHamilton	10746
Ġ---------	10746
Ġpsychiatric	10745
Ġfavourite	10745
Ġhouseholds	10744
dma	10741
testing	10739
ĠDrug	10739
235	10738
Ġacceleration	10738
MV	10737
ĠND	10736
icated	10735
contact	10733
\}}	10733
Gs	10733
Appe	10733
shell	10730
igan	10730
Ġeliminated	10730
Help	10729
Details	10729
Ġsuite	10729
aking	10727
Ġcollecting	10727
Ġshaped	10726
Bon	10725
Ġfractions	10725
Ġunstable	10724
ĠSafety	10724
train	10723
Prov	10723
fed	10722
Ġterrorism	10722
Ġrecon	10720
ĠThompson	10720
ĠComm	10720
ĠOpp	10719
238	10718
Ġconsist	10718
Ġrestored	10717
hire	10716
OPT	10716
Ġhabits	10716
ĠBerg	10716
ĠSweden	10715
Ġns	10713
igr	10710
045	10710
Ġnav	10710
Ġacet	10710
Center	10709
ĠMaterial	10709
rates	10708
Ġhill	10708
0100	10704
maker	10702
Ġharsh	10701
Loader	10699
ĠRB	10699
mand	10697
Ġunto	10697
Ġ.$$	10697
zza	10696
amount	10695
ĠLV	10695
smallcaps	10694
Pat	10693
Ġlane	10693
ĠTree	10693
Nav	10692
icul	10691
ĠPad	10691
ĠDemocrat	10690
hp	10689
uts	10688
:-	10687
live	10685
í	10684
MODE	10684
ĠOtherwise	10684
Ġ148	10683
Timeout	10681
Ġopposing	10681
Ġspare	10678
uj	10677
),$$	10675
fetch	10673
Question	10670
Ġenrichment	10669
talk	10667
Ġmounting	10667
Ġ``	10667
ĠLes	10667
ĠInterest	10666
Ġgrows	10665
Ġgrave	10664
Ġquestioned	10663
Ġaluminum	10663
Ġweighted	10662
bert	10661
Ġcalibration	10661
thing	10660
ILL	10660
ĠRaj	10657
Ġregards	10656
Ġcomedy	10656
ĠDie	10656
ĠDisease	10655
Ġsil	10654
Ġdisruption	10654
ĠCAN	10654
Ġ164	10654
Conclusion	10653
Ġencouraging	10651
Ġdeposited	10650
Ġwars	10649
Ġneg	10649
tage	10648
reli	10648
Ġexploring	10648
Ġholder	10647
Ġdemanding	10647
proxy	10643
Ġchemistry	10643
Ġscandal	10642
ĠFDA	10642
nol	10641
Ġfre	10641
policy	10640
Ġenabling	10640
ĠVis	10639
Ġtunnel	10636
Ġelite	10636
Ġoutputs	10635
Ġdependency	10635
ĠToo	10635
ĠDomin	10635
311	10634
Draw	10632
550	10632
Ġillustrates	10632
Ġfears	10631
ĠDean	10631
Ġrounds	10629
Ġrefugees	10627
Proof	10626
Ġreservoir	10625
Ġmapped	10625
defendant	10623
ĠOlympics	10620
Ġ161	10618
Several	10617
Follow	10617
ĠGuard	10616
rock	10615
Having	10615
Ġprobes	10615
1981	10613
Ġspell	10613
Ġfoam	10613
Ġabandon	10613
ĠGov	10613
storage	10612
Ġremembered	10612
.....	10611
Ġdeploy	10611
yz	10609
Â£	10608
Ġaden	10608
ĠPAR	10608
ater	10604
alert	10604
Tor	10603
Ġequivalence	10601
Ġexamining	10600
classes	10598
Ġ168	10598
ressive	10597
Ġmultic	10597
Ġdisable	10597
Ġcoaches	10597
COL	10595
Ġdining	10594
Ġconscious	10594
components	10593
Ġdemographic	10593
Ġjournalists	10592
Ġconsume	10592
Conf	10591
scroll	10590
Ġassessing	10590
ressed	10589
Private	10587
Ġcasual	10587
complex	10586
Ġmetals	10586
Ġwalks	10585
386	10584
ĠâĨĴ	10584
Ġcoronavirus	10580
ĠSher	10578
ĠVO	10577
between	10576
EY	10574
Ġvas	10574
ĠMarx	10574
generation	10573
Statement	10572
ĠFall	10572
hetic	10571
Ġups	10571
323	10569
Ġexpecting	10569
erred	10568
Ġforcing	10568
Ġanticipated	10567
egr	10566
Ġextensions	10562
ĠAnthony	10562
Ġ162	10562
pret	10561
Ġopponents	10561
arb	10559
Ġimproper	10559
ĠLED	10558
ieve	10557
Ġcrude	10557
ĠArg	10557
^*(	10556
ĠPhil	10556
Ġcumulative	10555
ĠCit	10554
/-	10553
Ġ158	10553
constant	10552
Ġbitcoin	10548
ĠCarter	10547
á	10546
Ġoffenses	10546
ĠRs	10546
Robert	10545
ĠTech	10545
ĠExpl	10544
ĠBull	10542
404	10541
Ġintimate	10541
ubs	10539
Ġchim	10538
oct	10537
,,	10536
collection	10535
Ġchampionship	10535
GD	10533
Des	10533
ĠLady	10533
Ġmechanics	10532
Ġembedding	10532
Ġintern	10531
Ġdri	10531
views	10530
Ġrotate	10529
Mintage	10526
obi	10522
Still	10522
ĠAtlanta	10522
Ð±	10521
244	10520
Ġslower	10518
does	10517
bigr	10517
Ġmountains	10517
Ġedited	10517
ĠTam	10517
created	10516
ĠCounsel	10516
inger	10515
Ġemb	10514
Ġdrum	10514
market	10512
Ġconstitution	10512
ĠHAVE	10510
wei	10509
feature	10505
Native	10504
opo	10503
ĠPK	10503
ĠBarack	10501
parameters	10499
Ġpreceding	10498
repeat	10497
ĠTN	10496
ĠPerson	10496
Ġ163	10496
middle	10495
ĠANOVA	10495
ĠBT	10494
4000	10493
Ġpic	10493
ĠSept	10493
AO	10490
Ġgarage	10490
ĠFourth	10490
ĠEdit	10489
profit	10484
gnu	10483
ĠCos	10483
Ġgeometric	10482
nell	10481
ĠVector	10478
MY	10477
Ġrevision	10477
Ġanalogous	10477
Symbol	10476
Ġeg	10476
ĠCost	10475
Ġantibiotic	10474
Ġallocated	10474
ĠINTO	10474
Ġaxial	10473
ains	10471
Ġsentiment	10471
ĠNic	10471
owa	10470
ĠConst	10470
åħ	10468
question	10468
Area	10467
Ġallies	10466
EU	10465
ĠBeth	10465
wash	10462
Ġhosted	10461
Ġprofession	10460
Moreover	10459
Ġproductive	10459
techn	10458
{$	10456
ĠSupplementary	10456
Vs	10455
410	10455
TOR	10453
ĠRange	10453
Ġ147	10453
Ġ%}	10453
topic	10452
Ġbandwidth	10452
Ġelevation	10450
posed	10449
).\	10449
Ġaccommodation	10449
ĠLan	10449
abilities	10446
ĠLevi	10445
+$	10443
Ġsimplicity	10442
Ġpill	10442
Ġcalc	10442
Ġqualify	10440
ĠIron	10440
Ġpancreatic	10439
Download	10438
Ġnovo	10437
Ġmaximize	10437
words	10436
Ġsitu	10436
*^*	10435
agent	10431
Ġswim	10430
Ġsummarized	10430
Ġbypass	10430
Ġavoiding	10430
ĠFestival	10429
wh	10428
HTTP	10428
Michael	10427
ĠMoscow	10427
ĠRoute	10425
ESS	10423
509	10423
Ġpassengers	10423
ete	10422
Ġhandful	10421
Ġfol	10420
Ġthoroughly	10419
Ġrod	10419
Ġcorners	10419
ĠUT	10419
Ġwhereby	10416
Ġagrees	10416
Ġregulating	10415
Sorry	10413
364	10413
Ġdisposition	10413
vid	10412
Ġattitudes	10411
pect	10410
CAP	10410
Ġpropagation	10410
Ġoverview	10410
ĠEnt	10409
ĠGreece	10408
Ġneutron	10406
ĠGill	10406
ÂĴ	10405
Ġsim	10404
OE	10403
Ġ------------	10403
Ġborders	10402
ĠManchester	10402
ä¸į	10401
hide	10401
Ġhike	10401
))**	10400
Ġtmp	10398
Ġsimpl	10397
ĠPop	10397
gem	10396
042	10396
oms	10395
hill	10394
Ġmalignant	10394
Ġtremendous	10392
ĠCONDITIONS	10392
ĠAbs	10389
dv	10387
Ġcoalition	10387
ĠStaff	10386
ales	10385
ĠRevolution	10385
natural	10384
305	10384
Ġprecedent	10383
asia	10382
Iterator	10382
227	10380
TRUE	10378
mul	10377
Ġoutlined	10377
Domain	10376
Ġcontinuum	10376
correct	10375
Ġsurvived	10374
Ġminim	10374
cover	10373
Adv	10373
ĠPlant	10372
Ġbal	10371
Ġhack	10370
socket	10368
aria	10367
239	10364
ACC	10363
ĠCer	10361
detect	10360
WO	10359
))))	10359
Ġpray	10359
Ġperformances	10359
Ġbenz	10359
toggle	10357
prev	10356
Ġadequately	10356
Xml	10355
Ġbeds	10355
Ġqualitative	10354
Ġcyber	10351
meth	10350
Ġdeadly	10350
special	10348
)},	10348
Ġsensing	10347
ĠWL	10347
pages	10346
Ġsymptom	10345
rell	10343
Ġcran	10343
ĠGraph	10343
quer	10341
Anim	10341
ĠSeven	10340
ĠAK	10340
ĠCondition	10335
Ġproving	10334
Ġlimb	10334
Rob	10333
Ġauthentication	10331
cout	10330
304	10330
Ġluminosity	10330
Der	10329
Ġlean	10329
Ġ[\	10329
ĠCOL	10327
etric	10326
English	10325
Ġinteracting	10324
optional	10323
frequency	10320
Ġquest	10320
Ġbrutal	10320
Ġmed	10318
Price	10317
ĠGil	10316
Ġds	10312
ĠTol	10311
Ġappellee	10310
Ġcritics	10308
Ġorganisation	10305
phenyl	10304
alias	10304
.""	10304
Ġantis	10304
jit	10303
Ġexert	10303
Ġdelta	10303
Ġasync	10302
:"){	10301
Ġdye	10301
ĠCast	10301
protein	10300
Ġcrown	10300
Ġconvey	10299
Ġbubble	10297
ĠNeither	10297
åĲ	10294
Ġrecipient	10292
Ġcampaigns	10291
usa	10290
Ġhighway	10290
Ġdirty	10290
Ġtout	10289
prec	10285
Ġmaintains	10285
Shape	10284
Ġbesides	10284
invoke	10283
bow	10283
Auth	10282
Ġinteractive	10282
Ġcourage	10282
ĠPersonal	10282
Ġnotable	10281
Ġfixing	10280
hab	10279
Ġembrace	10279
ĠLaboratory	10279
Ġproductivity	10278
wen	10277
Ġbeans	10277
pcbi	10275
Ġspecialized	10275
YE	10274
ĠDVD	10274
Ġcontainers	10273
enabled	10271
Ġleuk	10271
Ġcab	10271
})^{	10270
Ġpreferences	10270
yle	10269
third	10269
arrow	10263
Ġquotes	10262
Ġgoverned	10262
WC	10261
Ġcurrents	10261
ĠBASIS	10261
Ġconnectivity	10259
Ġcoe	10259
Ġdeformation	10257
Ġâī¤	10256
Ġsubscription	10256
Ġnuts	10253
ĠDeputy	10253
sea	10252
Meanwhile	10251
coord	10249
Ġaddiction	10248
Ġwinds	10247
Bal	10246
Ġspect	10245
Ġproximity	10244
Ġgrasp	10244
ĠNation	10244
315	10243
Ġconvince	10243
skip	10242
oir	10242
Ã£o	10241
must	10240
Ġcam	10240
="{	10237
ĠFab	10237
Ġreversal	10236
Ġdivers	10236
trial	10234
Ġknock	10234
aws	10233
Ġcomic	10233
mber	10232
esis	10232
know	10229
Ġdf	10229
Ġbeating	10229
236	10228
Âı	10227
Ġrolled	10227
Ġpotentials	10227
ĠAlaska	10226
idence	10223
Ġsubsid	10223
Ġmorph	10221
progress	10219
pkg	10219
Ġelementary	10219
logger	10218
Ġengines	10218
1979	10215
ĠFB	10215
mont	10214
Ġharassment	10212
Ġenriched	10212
tex	10211
antic	10211
Ġjunior	10211
Ġbanking	10211
Ġchampion	10210
fact	10209
Ġexpose	10209
Ġbehave	10208
Ġmeters	10207
Ġ172	10207
ĠPatrick	10206
ĠLicensed	10206
issa	10205
TAG	10204
Ġspite	10204
ĠGh	10204
Ġ230	10203
ĠCould	10202
Ġdevoted	10201
sized	10200
Ġrecruited	10200
TABLE	10199
Ġcute	10199
Ġsituated	10198
Ġgal	10198
Ġburied	10197
ĠWH	10197
Ġperforms	10196
Ġ450	10195
Ġain	10193
}_{-	10192
school	10192
Ġbat	10192
Ġcytokine	10189
ĠFlu	10189
Library	10184
QUE	10183
holder	10182
Ġshoulders	10182
iction	10181
Ġpronounced	10181
Ġindicators	10181
ĠTaiwan	10181
TCH	10180
Ġgaming	10180
EDIT	10179
ÂłĊ	10177
Ġcoup	10177
ĠSize	10177
agg	10176
Instead	10176
Ġlisting	10175
321	10174
ĠNative	10172
ÎºB	10171
052	10169
Ġgoogle	10169
Ġcompiled	10169
'])	10167
Ġextensively	10167
Coord	10166
ĠAmb	10166
GEN	10164
Ġ(+	10164
olar	10163
Ġsaline	10163
ĠWarren	10162
ysis	10161
offs	10160
ÛĮ	10159
Ġsensation	10159
Ġparental	10159
Ġracist	10158
aze	10155
Ġmineral	10155
Ġrestart	10153
Ġpathological	10153
Equ	10152
ĠPot	10150
oxic	10146
Ġceremony	10145
ĠRR	10145
Hz	10144
Ġthemes	10144
Ġdielectric	10144
Ġabnormalities	10144
|_{	10143
istent	10143
Consider	10143
Ġstrikes	10142
Ġapo	10142
ived	10141
Ġministry	10141
jquery	10140
Ġdispatch	10140
Ġalloc	10140
inite	10138
Ġracing	10136
Ġsac	10135
Ġdeployed	10135
het	10134
Ġcomme	10134
Ġcirculation	10134
tg	10133
government	10131
ĠGulf	10131
Nat	10130
ĠFranklin	10130
*{	10129
Ġfiltered	10128
intro	10127
framework	10127
Ġconsult	10127
ached	10126
Ġgirlfriend	10126
ĠEconomic	10126
Ġirrelevant	10125
Ġconceptual	10125
Ġanalytic	10125
ĠRelations	10124
ĠPun	10123
resources	10122
Ġportable	10122
University	10121
dark	10119
Ġtub	10119
ĠLB	10119
due	10118
borne	10118
Ġresponding	10118
ologist	10117
dale	10117
lad	10116
Ġcardio	10115
Ġtouched	10114
symbol	10113
hook	10113
Luc	10113
Ġdepicted	10112
Ġrelay	10111
ĠĠĠĠĠĠĠĠĠĠĊĠ	10110
ĠJose	10109
fort	10107
Ġascending	10105
Cho	10104
rating	10103
Ġarrangements	10103
ĠAtlantic	10102
ishment	10101
gor	10101
Ġtoilet	10100
ĠLarge	10100
oS	10099
ĠWat	10099
ĠObserv	10099
Ġcinema	10098
Ġabused	10098
ĠĠĊĠĠ	10097
HH	10096
Gal	10095
Ġspike	10095
Ġclone	10094
Ġconsequently	10093
Civ	10092
Ġexercises	10092
Ġconv	10091
ante	10090
ridge	10089
itated	10089
bx	10086
Region	10085
Ġspiral	10085
ĠCov	10084
ety	10083
?:	10082
313	10082
Sar	10081
Ġaccepting	10080
Ġ167	10080
Ġranks	10079
Ġmerger	10079
acity	10078
VALUE	10076
ĠSummary	10076
uba	10075
Ġhunting	10075
[]{	10074
Ġkeyboard	10074
ĠMode	10074
Ġreproductive	10073
James	10072
Ġfeaturing	10071
activated	10070
ĠEs	10070
season	10069
qi	10069
eration	10069
Ġprocedural	10068
Ġadhesive	10066
Ġzones	10064
ĠWard	10064
Ken	10062
ĠNMR	10062
ĠContract	10062
ĠINS	10061
Ġroyal	10060
Ġwishes	10059
Ġasymptotic	10059
ToString	10058
Ġtransplant	10057
Ġgaps	10057
Ġgit	10055
ĠFle	10055
Ġoct	10054
country	10052
Metadata	10052
need	10051
conn	10050
RNAs	10048
Ġfil	10047
Ġparadigm	10046
Ġscal	10042
~.	10041
Ġpound	10041
Ġdemanded	10041
Ġblend	10041
Ġtune	10040
Ġtrips	10040
Ġmist	10039
Ġequals	10039
heet	10038
Ġsham	10037
ĠHerm	10037
Ġdecree	10035
QL	10034
Ã¥	10033
IRE	10033
ĠAnimal	10033
aux	10032
direction	10031
Ġgem	10031
iden	10030
generated	10030
Ġforgotten	10030
Ġdeputy	10030
Ġdefeated	10030
Ġ10000	10029
ĠmiRNA	10027
Ġcomp	10027
Notes	10026
Ġbuilder	10026
ĠChem	10026
Could	10024
Ġcompositions	10024
Nor	10023
Ġsophisticated	10023
benz	10022
Bank	10021
Ġgaze	10021
ĠMine	10021
Ġlegend	10020
ĠGreg	10020
ĠRN	10019
ĠLevel	10019
mill	10017
income	10017
food	10017
:$	10016
259	10016
226	10012
Ġalgebraic	10012
arin	10010
ĠAlb	10008
Diff	10006
Ġprom	10006
380	10005
à¤°	10004
Ġbullet	10004
forms	10003
detail	10003
June	10003
Ġshore	10003
uno	10001
ĠConn	10000
looking	9998
Ġastr	9998
Ġspreading	9996
ĠDigital	9995
utt	9994
iatric	9994
aine	9993
aly	9992
Ġsearches	9991
ĠSpect	9991
Ġcontradiction	9990
atin	9989
iste	9988
CALL	9988
eye	9987
ĠNos	9987
ĠLab	9987
ĠMun	9986
?!	9985
ĠReference	9983
Ġbon	9982
holding	9981
Ġbiochemical	9981
Ġidentifier	9980
325	9976
Ġcyclic	9976
Ġ166	9976
iciency	9974
Such	9974
Ġrabbit	9974
Ġinterfaces	9973
hens	9971
Ġsuccessive	9971
Ġhar	9971
ZE	9970
virus	9967
ĠMalaysia	9966
nik	9965
ĠReserve	9964
Ġvoices	9963
statement	9961
ĠTed	9960
ĠSTAT	9960
spl	9958
Ġfaithful	9958
Ġcentered	9958
ĠAx	9957
Ġgenerous	9956
Ġante	9956
ĠRobinson	9955
Ġforecast	9954
apple	9953
Ġboom	9951
syn	9949
primary	9949
instr	9949
ĠChan	9949
Ġarrows	9948
Ġbones	9945
timeout	9944
DG	9939
Ġprohibited	9939
Ġfriction	9939
ĠCountry	9939
Ġaccompanying	9938
Ġclicking	9937
DateTime	9936
Ġassembled	9936
Ġgently	9935
AIN	9934
Ġcalculating	9934
Ġneglect	9932
Ġai	9932
Ġsongs	9927
ä¸º	9926
Ġtick	9926
wal	9925
olution	9925
interest	9924
Ġpuzzle	9924
dem	9923
Ġtemple	9923
ĠBed	9923
hyd	9922
CY	9922
Furthermore	9920
Ġtransplantation	9920
Ġciting	9920
})=	9919
Bus	9918
FN	9917
ently	9916
Attributes	9915
288	9915
Ġpathogenesis	9915
Ġdough	9915
Ġirregular	9914
builder	9913
Ġ{"	9912
Ġinfusion	9912
WD	9910
Ġultrasound	9910
kers	9909
volume	9906
dimen	9906
Ġpressing	9906
Ġloc	9905
ĠAdams	9905
Ġpredominantly	9904
Ġcotton	9904
Design	9903
Ġoutbreak	9903
Ġdeco	9903
ĠMN	9901
electron	9900
Ġ----------	9900
VB	9899
Ġpale	9899
Ġ[âĢ¦]	9898
ĠMort	9898
Ñ	9897
})$,	9896
ĠWARRANTY	9896
nx	9895
pipe	9894
Ġcattle	9894
Ġwaited	9890
Ġadmits	9890
citing	9888
Ġteaspoon	9888
Ġnomination	9888
rypt	9887
ÐµÑĤ	9886
Specific	9885
Ġinsult	9885
ives	9884
Ġsoccer	9884
wick	9883
vest	9883
USER	9883
Ġspill	9883
Ġquantified	9883
hur	9882
ĠDad	9881
Ġ"'	9881
Transaction	9880
Ġrip	9880
Arr	9879
Ġaccord	9879
measure	9878
aps	9877
456	9877
ochemical	9876
Ġportfolio	9876
Ġrevenues	9875
#.	9872
Ġquark	9872
Ġguided	9872
iring	9871
Ġstructured	9871
Ġphotographs	9870
Ġnucleotide	9870
Ġfreeze	9870
lier	9869
ĠBeijing	9869
Ä	9868
265	9868
Ġdiss	9867
oice	9866
ires	9866
IU	9866
LB	9865
Ġimproves	9865
Ġemotion	9858
Ġensemble	9857
ophil	9856
Living	9856
ĠÅ	9856
jb	9855
0012	9855
Ġcorrespondence	9855
Ġadvise	9855
Yet	9854
Ġvapor	9853
ĠPack	9853
boy	9852
SPE	9852
Ġgifts	9852
ĠStatement	9852
Fri	9851
lio	9849
could	9849
QC	9849
ĠKings	9849
Ġwooden	9847
="@	9845
Ġanalyzing	9843
Ġskilled	9842
Ġconsiders	9841
Ġstimulated	9839
Ġpriest	9839
Ġarterial	9838
around	9837
Ġseverely	9837
Ġhomeless	9837
ĠEarly	9837
Condition	9835
ĠClean	9835
ĠAud	9834
Ġmanufactured	9833
FG	9832
Ġurged	9830
Ġspr	9829
Ġsanit	9829
ife	9828
048	9826
contains	9824
attributes	9824
scr	9823
emic	9823
ĠTy	9823
ĠBaker	9823
Ġstrengthen	9822
Ġsoluble	9822
ĠComputer	9822
collect	9819
Ġlogistic	9819
Ġoptimize	9817
Ġcortical	9815
Ġdressed	9813
Ġdarkness	9813
oka	9812
abe	9812
HER	9812
Ġbenchmark	9812
ĠKennedy	9810
Ġ176	9810
Ġinjunction	9808
Ġ--------	9808
hk	9807
Ġoscillator	9806
Ùİ	9805
cine	9804
ĠXI	9804
Ġtweet	9802
Ġantioxidant	9802
resolve	9801
Ġbadly	9801
ãģĮ	9800
Ġregimen	9800
ĠYES	9800
Ġ}$	9799
Ġplasmid	9799
ĠSy	9799
Ġspecialist	9798
ĠSound	9798
Ġathletic	9797
Ġprisoners	9796
Ġ000	9796
Ġranged	9795
Ġgre	9795
kw	9794
049	9794
Ġwallet	9794
Ġspherical	9794
å¾	9793
typ	9793
091	9792
Ġleak	9791
fib	9788
ĠMF	9788
ĠWang	9787
elf	9786
Ġsectors	9785
ĠDead	9785
ĠWR	9784
hips	9783
ĠTGF	9783
Ġproton	9782
Ġbugs	9781
275	9777
,(	9777
Ġpigment	9777
Ġeager	9777
ĠAgent	9777
261	9776
Ġswitched	9776
Ġoutlet	9776
Ġdashed	9776
bet	9775
issue	9774
Gre	9774
370	9774
Ġnod	9774
Ġcollateral	9773
ĠRM	9773
Sym	9772
fmt	9771
Ġputative	9771
Ġ%>	9771
Folder	9768
Ġrestrict	9766
ĠCreek	9766
Human	9765
April	9765
Ġvarieties	9765
!'	9764
services	9763
257	9763
ĠShin	9763
ĠOH	9763
ĠBasic	9761
ĠBreak	9758
403	9757
radio	9756
Ali	9755
Ġacres	9755
ĠDelhi	9755
Hel	9750
Ġpaired	9749
HW	9746
ĠHH	9746
Ġ1971	9745
sten	9744
dL	9744
Ġpleasant	9744
Ġinability	9744
ĠBrand	9744
rst	9743
qt	9743
oba	9743
Notification	9743
ðŁ	9742
period	9742
Ġgig	9742
Ġbladder	9741
Delegate	9740
ĠCox	9738
Ġbucket	9737
nodes	9735
clone	9735
SYS	9735
ĠPap	9735
esp	9732
Ġtwe	9731
ĠHir	9731
pping	9730
ĠKentucky	9730
Ġredistribute	9729
ĠMMP	9727
ĠDeath	9727
angular	9726
Ġrefusal	9726
ĠSie	9726
ĠArthur	9726
Ġ(âĪĴ	9723
Ġflower	9722
ĠMetro	9722
ĠCommerce	9722
functions	9721
MON	9721
Ġembryos	9721
Mem	9720
itch	9718
Ġbite	9718
258	9717
Ġconstituted	9717
FU	9716
Ter	9715
Ġprognostic	9715
Route	9712
usc	9711
friendly	9710
Ġrealm	9710
rier	9708
Ġvein	9708
Ġimprisonment	9707
Ġcontractor	9707
kernel	9704
ĠLL	9704
ĠEstate	9704
Ġtransistor	9703
Ġowe	9703
Enum	9702
ĠTrial	9702
ĠPDF	9702
tap	9700
review	9698
chol	9698
Ġincorporate	9698
azi	9697
pent	9696
Ġtaxi	9696
Ġsulf	9696
Ġster	9695
Ġ$_	9695
520	9694
ĠÂ	9693
Ġfiltering	9693
database	9691
Password	9691
Ġrecurrent	9691
Err	9690
Ġlid	9690
ĠStory	9690
chy	9689
different	9687
Ġoverexpression	9687
555	9686
ĠGraham	9685
ades	9684
Ġuncertain	9684
Ġsplitting	9684
Ġdesigner	9684
acher	9682
Ġaforementioned	9682
ike	9681
NEW	9681
Ġdisregard	9681
Cluster	9678
Ġterminated	9678
Ġsom	9678
ĠRoom	9678
ĠHarvard	9678
Ġsupplemented	9677
ĠVP	9675
Ġpunct	9674
Ġstartup	9672
Ġhalt	9672
Îµ	9671
ORD	9671
Ġexceptional	9671
Ġ(.	9671
501	9670
Ġsubstituted	9669
Ġshear	9669
Ġexpressly	9667
Ġdozens	9667
ĠBattle	9666
Ġlact	9665
ĠHem	9664
Boolean	9663
237	9663
idine	9662
Ġattr	9662
ĠPER	9661
ĠLane	9657
Ġmag	9656
Ġconfigure	9656
ading	9655
Ġraid	9655
Ġmarry	9654
ĠWor	9653
Ġsealed	9652
]$.	9651
science	9650
Ġseized	9650
inary	9647
ĠLib	9644
ĠLamb	9644
Ġdent	9643
ĠMedicare	9643
)}_{	9642
magn	9641
expand	9641
Ġendless	9639
Ġ(_	9639
libs	9638
Ġverbal	9638
054	9637
ĊĠĠĊĠ	9636
ĠFifth	9635
Ġbor	9634
ĠTurkish	9634
Ġjs	9631
ĠEu	9631
ematic	9630
aving	9628
'''	9628
Ġessay	9628
cfg	9626
jam	9625
Ġclamp	9625
XT	9624
iral	9623
........	9623
Ġtwin	9620
Ġbeside	9620
Ġsupervision	9619
dependency	9618
ĠNan	9616
ession	9614
Returns	9614
Ġproximal	9614
ĠPublication	9614
runtime	9613
Ġruntime	9613
Ġorganize	9613
Ġjacket	9612
Ġdefinite	9612
Ġjavax	9611
ĠShare	9611
tem	9610
Runtime	9610
Ġpainting	9610
Ġcleared	9610
ĠJul	9610
BG	9609
("%	9609
Ġdan	9609
WM	9608
pred	9607
Son	9607
Ġmalaria	9607
Ġcompelling	9607
ĠRoll	9607
ĠLink	9607
setup	9606
iber	9606
Ġoptimized	9606
Ġbears	9606
Events	9605
Ġlifted	9605
ĠIRS	9605
Ġcompetent	9604
Stat	9603
Ġ169	9603
Ġwings	9602
ift	9601
Ġscr	9601
384	9600
Ġminus	9599
rav	9597
atom	9597
Ġstochastic	9597
Ġelectromagnetic	9597
ĠHot	9597
Ġ159	9597
Ġpresumably	9595
Ġdilution	9592
ĠSecret	9592
Ġanth	9590
Ġaggregation	9590
Ġproves	9588
ĠTL	9588
ĠBond	9588
Figures	9587
061	9587
Ġmelt	9587
Ġimplicated	9586
ĠTemple	9586
ĠMich	9586
Ġ1968	9585
Ġcoincide	9584
Ġpros	9583
ĠMobile	9581
440	9580
ional	9579
Ġmarine	9579
Team	9577
ĠPie	9577
Ġinterrupt	9576
formed	9575
ĠGFP	9574
ĠBruce	9572
ctive	9571
Ġbuf	9571
Ġdissolved	9570
Ġbust	9570
nds	9569
Weight	9569
ĠHon	9569
Ġplanes	9568
Ġdictionary	9567
=============	9565
Ġspectroscopy	9564
Ġmicrobial	9563
Ġdealt	9563
extension	9562
asy	9561
Pattern	9561
ĠMario	9561
Lab	9560
290	9560
Ġenjoying	9560
[...]
