.	51167920
Ċ	48069550
,	43846936
Ġthe	41293079
Ġof	23448983
Ġand	19929272
Ġto	19280650
-	16023469
Ġa	15549114
Ġin	14209338
_	10013527
Ġis	9736907
Ġ(	8500512
Ġthat	8319609
)	7508722
Ġfor	7489734
:	6984760
Ġwith	5758305
1	5623946
(	5619094
2	5471923
Ġ"	5239221
Ġon	4921246
/	4702619
Ġas	4507965
Ġbe	4389528
Ġwas	4363858
s	4344317
Ġit	4293770
ĠI	4210860
Ġby	3937718
Ġare	3894612
Ġ=	3877905
;	3771943
Ġ-	3564947
ĠThe	3421852
0	3400660
Ġthis	3395345
Ġfrom	3297904
Ġat	3285672
{	3279100
Ġyou	3264243
Ġ$	3264068
âĢĻ	3222625
Ġor	3195144
Ġnot	3157790
*	3152365
Ġ\	3145052
ĉ	3090117
Ġhave	2949798
\	2865660
}	2834579
Ġan	2828931
's	2794505
3	2774479
"	2751656
Ġ0	2589243
>	2541861
ĊĠĠĠ	2482136
Ġ*	2426780
Ġwe	2319525
Ġ	2260235
a	2145356
Ġcan	2132524
Ġwere	2087190
$	2003293
."	1993344
Ġ1	1988919
t	1988500
Ġwhich	1950787
="	1941474
4	1925101
Ġhas	1886242
i	1858434
x	1850763
Ġ+	1810821
Ġ{	1788574
Ġbut	1775631
ĊĠĠĠĠĠĠĠ	1726739
Ġhe	1725157
).	1712845
The	1712566
Ġwill	1706484
?	1700625
A	1694758
5	1672292
n	1664122
Ġall	1659219
d	1655443
B	1648140
ĊĠ	1642795
I	1624733
Ġif	1618562
Ġ2	1582982
Ġhis	1571302
Ġone	1565550
Ġthey	1506917
S	1450360
C	1438893
Âł	1438094
Ġtheir	1404602
Ġmore	1397627
b	1390674
**	1378739
c	1354134
p	1334650
ĠA	1320092
_{	1297624
Ġhad	1279911
ing	1275847
Ġ$\	1270732
Ġbeen	1263631
m	1258727
]	1253115
<	1252556
in	1252336
),	1244351
f	1233804
Ġalso	1227872
Ġyour	1225755
);	1224556
Ġ<	1215421
ĠIn	1184030
'	1176178
Ġabout	1175719
Ġwhen	1163675
Ġwould	1159609
Ġout	1155584
=	1147506
k	1142849
Ġ3	1142209
6	1135864
Ġthere	1130674
Ġtime	1130664
Ġso	1128729
't	1121211
^	1112369
Ġother	1110785
e	1101802
Ġmy	1088574
[	1079463
ĠâĢľ	1078796
Ġwho	1073233
y	1071842
8	1057087
g	1050980
D	1045816
Ġdo	1040533
Ġthan	1040529
Ġ[	1039296
F	1036140
Ġno	1030193
Ġup	1027292
ĠĠ	1017621
ĠS	1014922
7	1009535
ĠC	1009345
Ġ'	1007039
Ġ}	993077
Ġits	982716
Ġinto	974205
ed	971670
R	969794
Ġ&	968603
h	964008
T	959035
P	946818
Ġour	945881
Ġonly	939429
Ġtwo	934875
r	930989
Ġher	930659
M	926560
Ġsaid	925767
Ġ5	919824
ĊĠĠĠĠĠĠĠĠĠĠĠ	911208
Ġwhat	906391
o	906193
Ġlike	901367
Ġany	899138
Ġsome	883135
Ġmay	882676
Ġnew	881262
Ġ4	873663
ĠIt	870517
ĠThis	869855
ĠP	864903
%	862840
v	861017
Ġsuch	847033
ĠB	845602
Ġfirst	844248
E	829123
Ġthese	828268
j	827978
ĠT	822938
9	820201
N	819830
H	818528
ĠM	815893
L	807072
u	803142
Ġget	802291
Ġthem	800191
Ġover	799489
ref	796236
ĠD	787620
+	787268
Ġuse	777673
ĠF	776845
Ġme	774548
Ġthen	774006
Ġjust	773326
10	762976
Ġafter	762661
G	762286
type	759849
Ġbetween	756663
l	746981
ĠWe	736958
z	728394
ĠL	726454
",	720488
Ġused	720026
Ġwhere	715550
Ġcould	715179
Ġv	713117
.,	712346
</	711410
Ġdata	704234
{\	702956
Ġ6	700295
ĊĠĠĠĠĠ	699472
ĠH	697158
Ġp	694164
ĠR	690391
Ġpeople	685053
Ġshe	672905
Ġusing	663005
er	662399
#	659969
Ġbecause	654646
In	649899
Ġ10	642188
ĠN	638338
ĠG	633827
}\	632581
w	630041
K	628248
X	627997
Ġshould	626215
ĊĠĠĠĠĠĠĠĠĠĠĠĠĠĠĠ	624310
!	621010
Ġ[@	614700
Ċĉ	611827
Ġwell	609889
Ġ.	604328
Ġhow	604286
00	603178
Ġi	601426
V	599781
Ġmost	598755
){	596984
Ġeach	590837
12	587894
Ġcase	587150
ĊĊ	584347
Ġhim	583109
Ġclass	581415
Ġ7	580073
Ġ|	579965
on	579962
ĠU	577378
Ġunder	567297
ĠK	566806
is	566090
~	564445
or	562571
Ġm	560486
ĠE	557930
Ġmake	554217
W	553273
al	552518
Ġwork	548053
ĠHe	546320
Ġthrough	543530
Ġ@	539880
Ġ8	538406
Ġsame	537655
Ġway	536355
id	531675
->	529738
Ġeven	527031
Ġsee	524901
11	524346
es	522251
Ġthose	522113
Ġnow	521132
q	521125
Ġyears	519950
Ġvery	519927
frac	517894
Ġboth	516622
Ġknow	515845
Ġset	513485
en	511422
Ġ_	509065
()	506455
Ġbeing	505758
Ġd	502523
Ġdid	502336
Ġneed	500385
Ġmany	499001
ers	497759
?"	496651
}$	495127
Ġbefore	494967
re	493735
Ġnumber	492739
Ġreturn	490267
com	490038
Ġdifferent	489871
](#	489596
âĢī	488792
">	488499
an	488279
Ġright	487966
J	486135
Ġback	485932
right	483775
::	479896
ĠĠĠ	479590
Ġdon	476879
Ġc	473326
Ġhere	472991
01	469644
as	469175
ĠJ	468349
left	465715
Ġus	465300
--	465125
ĊĊĠĠĠ	464685
O	463942
Ġs	461180
âĢĿ	461077
Ġmade	458597
Ġf	458180
Ġvalue	458093
to	457265
Ġt	457101
fig	454789
Ġ\[[@	452581
Ġwhile	451612
ĠV	450315
ĠâĢĵ	450311
://	449717
Ġsystem	447233
Y	446337
the	446194
Ġhigh	445989
Ġn	445266
Ġfound	444247
Ġ**	442948
ly	442370
Ġmuch	436031
Ġb	434676
ĠW	434530
and	433985
end	433540
ic	433361
":	433314
Ġstudy	432159
th	432087
.âĢĿ	430054
Ġfunction	430004
Ġgood	429717
Ġthree	428051
Ġstate	427693
Ġ9	426027
Ġwant	425566
ĠIf	425245
_{\	423216
Ġpatients	423185
Ġpublic	422195
Ġx	420778
Ġ//	419249
Ġwithout	418590
Ġduring	417445
We	416217
ĠFor	416141
ĠLet	414732
Ġcells	413438
Ġname	410016
15	409167
Ġcourt	409042
U	408769
,"	408198
Ġdoes	407996
What	407935
Ġend	407243
16	406755
Ġthink	405589
20	405461
Ġ:	404445
$,	404436
Ġorder	403670
',	403185
13	402624
Ġg	398613
Ġyear	395840
|	395739
Ġpart	394740
000	392196
Ġnon	389567
(\	389142
int	389108
Ġl	388524
Ġgroup	387082
$.	384829
}{	384814
Ġlong	384464
ar	383670
14	382967
Ġagainst	381693
It	381486
get	379544
Ġe	379330
("	378798
if	378181
Ġdown	377825
able	374781
Ġtake	373721
Z	373057
Ġde	372227
Ġmust	371655
Ġstill	371603
at	371423
it	370455
Ġgo	369938
Ġun	369216
Ġlast	368303
//	366517
Ġtype	365547
ĠBut	363038
19	362738
le	361890
ĠO	361516
...	360651
Ġinformation	359928
Ġ12	359271
Ġal	357716
18	357391
Ġh	356793
os	354332
Let	354296
Ġsecond	354073
Ġday	352663
Ġ,	352546
32	349877
mathcal	347513
],	347369
Ġresults	346831
ĠĠĠĠ	346267
();	343593
us	343168
Ġam	343150
ĠAs	342203
Ġfollowing	339998
&	339609
Ġr	339590
^{	339518
This	339295
Ġoff	339257
el	338048
Ġfind	337171
Ċĉĉ	335137
)$	335074
Q	334239
Ġgoing	333853
ate	332522
âĢľ	330448
ĠAnd	330216
am	328977
17	327961
Ġwithin	327890
ation	327782
CR	327604
].	327096
ĠYou	325623
Ġlife	323475
Ġaround	323401
'm	322190
Ġpoint	321575
Ġsince	321381
Ġk	320305
alpha	317695
Ġ20	315772
Ġ*/	315698
Ġmodel	315633
Ġcontrol	314680
Ġanother	314148
,âĢĿ	312764
č	310706
âĢĵ	309191
Ġ</	307649
ia	307392
Ġ#	306298
Ġown	305292
25	305180
Ġexample	304594
Ġshow	303625
et	302614
Ġincluding	302558
]\].	302293
Ġself	302270
Ġet	301841
Ġcell	301537
ĊĊĠ	300751
\]	300290
Ġtest	300270
You	299702
Ġline	299567
Ġtoo	299545
Ġevery	299060
Ġgiven	298122
30	297997
Ġhelp	297705
ĠQ	296364
ĊĠĠ	296084
Ġreally	294674
Ġmight	294501
Ġworld	294381
Ġre	294209
Ġsay	293392
Ġper	293356
Ġresult	292992
ĠHowever	292202
ĊĠĠĠĠ	291452
Ġprocess	291288
Ġform	289807
ĠThey	289755
Ġ{#	289583
Ġfile	288195
Ġ$$\	288168
}}	287931
Ġpresent	286850
Ġbased	285525
Ġ15	285283
st	284489
))	283843
Ġsupport	283293
're	282458
Ġw	281287
Ġy	281236
,\	279408
Ġ\[	278805
ie	277657
Ġbest	277492
Ġanalysis	277455
Ġ18	275658
Ġnext	275065
ĠâĢĶ	274884
name	274452
ĠNo	274157
24	273526
Ġevidence	272067
Ġsomething	271923
Ġleft	270969
Ġhome	270897
Ġmethod	270001
Ġsmall	269998
}(	269955
Ġwhether	269894
Ġchange	268931
ine	267990
ist	267150
ĠX	266918
âĢĶ	266571
ĠNew	264248
)\	263938
ĠWhat	263330
ant	262841
il	262716
Ġplace	261945
Ġint	261543
ĠThere	260985
ch	260809
Ġfact	260726
text	260657
Ġpower	260307
Ġimportant	259669
22	258781
Ġfew	258366
Ġbetter	257635
Ġabove	256689
Ġless	256509
Ġlarge	255794
Ġwater	255266
ol	254513
of	254324
Ġj	254256
Ġlevel	254217
mu	253203
ad	253143
Ġtrue	252733
Ġnever	252417
Ġ11	251936
Ġ{\	251218
label	250671
mathbb	250547
Ġtreatment	248963
Ġleast	248758
Ġlittle	247884
Ġpossible	247698
Ġlow	247245
ated	246018
Ġthings	245945
div	244884
Ġdue	244513
Ġproblem	244482
23	244414
ies	243668
Ġcome	243083
Ġlaw	242746
50	241695
Ġgreat	240764
To	240687
ĠĠĠĠĠ	240464
Ġlook	239857
data	239604
Ġo	238682
21	238131
im	238030
Ġfield	237037
Ġ14	236942
Ġhaving	236296
Ġdays	236139
Ġshown	235636
!"	235371
Ġgive	235187
('	235163
ĠShe	235119
Ġeffect	234320
64	234118
begin	233801
Ġgot	233367
Ġcommon	233362
Ġ16	232839
Ġtrial	232568
um	231425
Ġ/	230957
@	230921
Ġfurther	230382
05	230353
set	230321
Ġ30	229766
Ġcode	229630
Ġ--	228753
Ġsize	228215
Ġhealth	228006
Ġgame	227950
If	227192
ĠTo	227036
Ġexpression	226789
Ġlet	226702
Ġprovide	226198
Ġalways	225785
Ġcurrent	225429
un	225215
Ġagain	224889
Ġ)	224550
Ġfour	224504
Ġgovernment	224467
Ġman	224392
up	224309
\[	224172
est	224063
Ġeither	223741
As	223309
Ġknown	223133
40	223068
em	222693
Ġcalled	222616
man	222566
):	222403
ĊĠĠĠĠĠĠĠĠĠ	221837
ĠThese	221339
ĠState	221328
ĠZ	221312
Ġfree	220968
Ġuntil	220446
ating	220246
Ġavailable	220209
ĠUnited	220100
Ġfamily	219985
Ġu	219926
"}	219606
Name	219524
ian	219083
Ġpost	218987
Ġsingle	218404
Category	218339
Ġelse	217948
aligned	217148
Ġhuman	217069
Ġreal	216878
ĠY	216779
ĊĊĠĠĠĠĠĠĠ	216734
ĠCourt	216688
Ġmeans	216661
Ġaction	216574
ac	216309
Ġlocal	216248
Ġ==	216033
rm	216020
Type	215919
27	215775
Ġside	214960
Ġvalues	214689
ve	214674
Ġcases	213855
}$$	213738
Ġable	213716
Ġchildren	213590
ĊĠĠĠĠĠĠĠĠĠĠĠĠĠĠĠĠĠĠĠ	213566
ĠSt	213383
Ġtimes	213084
Ġlight	212974
Ġmean	212920
ĠSo	212690
Ġseveral	212394
ur	212268
pone	212236
ĠĠĠĠĠĠ	211537
Ġsub	211024
Ġhigher	210458
usepackage	210432
ro	210335
ĠThat	210321
Ġcare	210221
Ġ100	210022
ĠAll	209955
lambda	209711
28	209696
80	209586
Ġarea	209489
Ġstudies	209073
Ġz	208869
Ġteam	208670
ent	208642
ity	208511
li	208482
Ġtop	208325
Ġbody	208320
've	208313
Ġstart	207868
http	207745
Ġput	207744
ot	207668
this	207477
Ġsignificant	207005
ab	206784
26	206622
Ġfull	206492
Ġrate	205991
Ġwhy	205697
ell	205591
Ġerror	205581
Ġ13	205426
Ġtotal	204891
ism	204832
out	204629
For	204422
Ġenergy	203863
Ġrun	203758
ra	203247
import	203141
span	202887
pi	202216
And	201318
ĠStates	201264
org	200937
35	199928
Ġsimilar	199927
Ġopen	199512
Ġalready	199298
Ġdidn	199221
ors	199206
ÃĲ	199063
}_	199027
Ġperson	198567
},	197615
Ġhand	197467
><	197396
Ġassociated	197392
ĠWhen	197366
Ġlot	197288
];	197190
Ġlevels	196900
Ġgeneral	195749
Ġspace	195617
Fig	195599
Ġresponse	195559
Ġfinal	195419
ID	195382
op	194162
ir	194044
_\	193908
ul	193897
Ġcall	193144
Ġquestion	192963
Ġrequired	192548
Ġdone	192411
Ġwomen	192284
'll	191842
mathbf	191786
ĠĠĠĠĠĠĠ	191695
Ġaway	191591
Ġsays	191238
table	190659
Ġissue	190575
Ġ${\	190505
Ġkey	190164
Ġlist	190104
string	189814
one	189596
100	189266
Ġoften	189093
ations	188939
Ġspecific	188632
Ġterms	188084
Ġactivity	187838
Ġfar	187277
Ġ=>	187277
He	187213
33	187042
29	186712
Ġlater	186161
Ġsure	186059
Ġgroups	185975
Ġhowever	185840
ĠOn	185808
Ġamong	185807
Ġreported	185378
pt	185310
Ġthing	185294
Ġ17	184989
Ġ`	184776
om	184637
ized	184464
Ġconst	184438
34	184381
}_{	183969
36	183317
Ċĉĉĉ	183031
beta	182978
Ġenough	182730
Ġcourse	182702
Ġage	182518
Ġtold	182099
Ġ%	181684
Ġthough	181655
ive	181306
Ġread	180963
Ġcompared	180871
sec	180367
Ġalong	179688
Ġhead	179680
Ġprovided	179187
60	179083
sigma	179030
45	178963
^{\	178764
Ġmaking	178758
Ġposition	178439
ak	178336
Ġ24	178278
Ġinclude	178205
return	177873
ment	177864
></	177600
But	177533
ag	177460
Ġworking	177419
Ġvoid	177261
Ġupon	177122
Ġconditions	176801
ap	176363
Ġweek	176348
Ġrisk	176343
Ġ([	176308
Ġold	176292
Ġrole	176205
---	176196
ip	175821
Ġpotential	175630
sum	175542
Ġlower	175180
Ġsection	175069
]).	174713
Ġprogram	174486
Ġincrease	174307
Ġrange	174256
Ġdevelopment	174163
Ġeffects	174154
bar	174020
Ġseen	173874
Ġplay	173860
Ġ25	173481
Ġchanges	173271
Ġdoesn	172914
ings	172337
Ġresearch	172210
}^{	172150
ization	171985
for	171746
Ġ([@	171688
Ġtogether	171453
`	171332
ĠâĢĺ	171201
Ġsource	171017
td	170733
Ġprotein	170572
Ġmoney	170562
Ġproperty	170557
Ġkeep	170450
Ġmain	170316
ins	169969
Ġincreased	169933
Ġbecome	169873
Ġschool	169724
Ġpre	169357
Ġimage	169212
31	169173
Ġfactors	169094
Ġ19	168943
ig	168782
html	168643
Ġaddition	168616
www	168464
38	168425
Ġservice	168417
Ġcannot	168356
Ġobserved	168280
Ġbusiness	168098
ĠĠĠĠĠĠĠĠ	167999
Ġparticular	167803
Ġ50	167387
Ġlove	167378
"}).	167168
Ġtry	166863
ĠUniversity	166767
Ġaccording	166166
Ġmonths	166107
Ġuser	165843
Ġdisease	165620
Ġthird	165594
ĠAn	165271
Ġearly	164949
Ġdoing	164919
ion	164790
io	164537
Ġcreate	164441
Ġview	164001
Ġcountry	163784
he	163432
Ġstructure	162872
Ġadd	162741
Ġdefendant	162637
ER	162566
No	162389
Ġid	162353
37	162291
ĠSee	162244
pm	162135
Ġdescribed	162117
99	162005
mathrm	161857
Ġperiod	161734
age	161618
Ġprivate	161589
Ġmultiple	161480
sqrt	161345
Ġthought	161134
Ġactually	160956
Is	160884
Ġpositive	160881
ĠAt	160690
02	160463
String	160388
Ġpoints	160376
Ġversion	160368
Ġcompany	160350
Ġpast	159884
Ġobject	159816
48	159658
Ġcontent	159287
ne	159121
key	159057
Ġacross	158962
[@	158664
04	158565
Ġothers	158048
Ġreport	158041
Ġhard	157706
There	157693
ut	157514
Ġsurface	157058
Ġrather	156958
Ġonce	156739
gamma	156681
ates	156541
value	156230
Ġstring	156198
Ã©	156189
Data	156153
39	155911
");	155873
Ġshort	155786
Ġbase	155784
ge	155730
code	155707
class	155627
Ġlikely	155509
")	155319
Ġ>	155284
Ġfive	155166
Ġshows	154791
Ġmillion	154654
Ġperformed	154566
Ġshowed	154453
Ġbelow	154369
Ġamount	154345
als	154281
ĠAmerican	154228
delta	154001
Ġmatter	153877
}^	153870
Ġfeel	153813
all	153403
Ġcame	153332
95	153263
Ġbig	153224
Ġterm	153164
Ġsystems	153122
Ġseason	153078
ED	152994
Ġstandard	152865
oc	152863
\_	152781
Ġclear	152516
ĠGod	152469
res	152366
bib	152264
Ġfalse	152199
Ġcause	152093
ĠRe	151887
Ġobtained	151768
.)	151763
Ġsite	151545
Ġtook	151432
Ġmakes	151407
Ġfood	151330
Ġmen	151209
Ġ(*	151111
)(	150796
Ġfactor	150623
Ġsocial	150497
ĠUS	150495
^{-	149997
Ġvarious	149932
Ġapplication	149930
Ġever	149869
44	149711
Ġcancer	149619
Ġexperience	149413
Id	149412
Ġinterest	149321
'd	148759
75	148734
001	148698
Ġwhole	148525
Ġtaken	148499
Ġaccess	148457
Ġconsidered	148115
Ġadded	148052
Ġfuture	148048
Ġq	147964
Ġrelated	147887
Ġtext	147484
ĠOne	147371
ness	147343
Ġyet	146987
)/	146682
Ġbit	146345
ll	146163
de	146153
Ġdefined	146136
rho	145624
Figure	145604
Ġch	145288
Ġbelieve	144863
ĠĠĠĠĠĠĠĠĠ	144741
Ġproject	144724
ter	144587
08	144068
Ġapproach	144010
ator	143961
03	143914
ans	143872
90	143612
ĠThen	143596
ous	143558
partial	143409
Ġsolution	143376
od	143283
Ġcommunity	143154
ĠAfter	143139
Ġblood	142935
ard	142929
Ġ$(	142806
ens	142716
Ġstates	142542
se	142424
%)	142382
Ġwent	142375
Ġminutes	142370
Ġkind	142245
ial	141844
Â°	141519
Ġdecision	141454
ide	141415
So	141305
Ġindividual	141305
phi	140687
ĠĊ	140285
70	140021
Ġdevice	139870
Ġmajor	139707
Ġtrying	139631
Ġincluded	139551
ib	139527
Ġreason	139526
ons	138941
ical	138905
09	138846
On	138820
Ġregion	138742
ES	138607
ay	138535
Ġmembers	138306
Ġtoday	138002
Ġmaterial	137989
theta	137988
Ġrespectively	137953
ah	137945
}{\	137791
ally	137731
ÂĤ	137520
65	137494
Ġclose	137441
Ġclaim	137366
Ġchild	137290
],[@	137188
Ġreceived	137137
Ġ},	136991
Ġcar	136937
Ġwon	136919
ob	136799
ary	136794
Ġadditional	136725
Ġpercent	136596
]{}	136489
time	136473
Ġevent	136468
omega	136408
Ġcity	136337
Ġsignificantly	136171
Ġanything	136165
Ġpatient	136017
old	135957
Ġsimple	135745
Ġnight	135396
Ġcertain	134902
Ġnull	134856
Ġgrowth	134838
ry	134677
Ġface	134604
Ġneeds	134277
Ġanti	134267
Ġasked	134181
ĠCh	134109
ĠSh	134011
line	133687
Ġdeath	133651
ov	133649
Ġreview	133619
size	133521
Ġgetting	133407
Ġhalf	133240
Ġnormal	133226
Ġhistory	133010
ast	133007
Ġ\\	132890
hat	132704
test	132672
Ġproduct	132538
tau	132486
eq	132449
leq	131956
Ġlooking	131896
Table	131853
add	131820
Ġroom	131561
})	131477
Ġdifference	131356
$-	131326
Ġpay	131219
Ġhref	131156
42	131152
Ġmethods	131068
include	131022
Ġseries	130972
Ġparty	130875
based	130750
Ġperformance	130733
âĢ¦	130562
Ġtarget	130556
ĠMr	130516
ING	130499
ĠIs	130494
Ġst	130373
Ġproblems	130372
Ġvia	130333
ite	130189
Ġrecord	130183
Ġmass	129959
Ġair	129862
')	129859
times	129830
Ġco	129787
Ġthus	129770
Ġissues	129494
Ġinvolved	129491
Ġ21	129371
infty	129302
Ġnetwork	129291
Ġalmost	129212
Ġprevious	129017
Ġcost	128984
Ġnothing	128811
Ġhours	128752
Ġservices	128645
by	128643
year	128611
Ġtherefore	128587
min	128523
Ġneeded	128349
Ġexpected	128340
Ġcheck	128332
-\	128218
tr	128115
ce	127897
List	127676
AS	127519
Ġheld	127480
*,	127441
log	127338
Ġconsider	127210
/*	127043
ish	127008
Ġpopulation	126893
red	126888
ri	126880
Ġinstead	126846
Ġpaper	126712
How	126617
Ġ...	126598
ance	126549
Ġcomplex	126546
ĠÂ§	126367
Ġunderstand	126307
Ġcondition	126298
https	126252
AL	126162
55	125945
Ġdesign	125925
ĠĠĠĠĠĠĠĠĠĠ	125738
When	125699
self	125632
Ġrecent	125608
69	125298
cl	125281
sp	125278
Ġtell	125238
Ġlines	125175
Ġseems	125127
47	125109
Ġspecial	124793
Ġgene	124764
07	124717
ST	124574
ps	124537
Ġloss	124508
^\	124493
Ġjob	124477
new	124465
ĠBy	124401
per	124357
var	124204
Â±	124191
Ġidea	124179
View	124150
les	124047
Ġweight	123977
88	123898
Ġstep	123859
Ãĥ	123858
og	123829
Ġpolice	123756
43	123640
Ġstory	123610
Ġmotion	123578
ĠAl	123497
nu	123285
Ġcomes	123203
ics	123174
ĠCo	123169
Ġstudents	123155
Ġtable	123109
Ġ(-	122947
Ġfilm	122843
Ġproduction	122719
Ġ40	122689
Ġhouse	122659
Ġmove	122585
Ġlead	122580
Ġquality	122533
Ġmarket	122365
ling	122099
ĠMy	122074
Ġsomeone	122066
Ġblack	122023
Ġvar	121990
Ġprior	121920
Ġmodels	121842
Value	121824
ure	121733
Ġplan	121570
ists	121486
06	121484
Ġtaking	121467
Ġstarted	121452
Ġpage	121334
IN	121101
ĠYork	121034
ou	120970
te	120969
Ġmedia	120952
Ġprovides	120851
AC	120698
Ġdistribution	120689
Ġstrong	120635
Ġpolicy	120630
ex	120546
Ġitself	120534
Ġ22	120492
co	120373
ĠThus	120367
Ġnecessary	120306
}}\	120178
see	120153
ase	120131
file	120067
77	120044
Ġsignal	120024
That	119517
ĠĠĠĠĠĠĠĠĠĠĠ	119367
Ġaverage	119248
Ġheart	119242
Ġpath	119081
All	119028
Ġlive	118977
Ġ/*	118867
__	118783
](	118748
67	118735
Ġallow	118570
led	118541
Ġsp	118453
are	118412
Ġshall	118395
Ġrights	118313
be	118281
Ġprobably	118091
Ġ||	117984
ĠTrump	117883
ĠNational	117869
Get	117848
define	117838
AP	117755
Ġoriginal	117719
not	117477
94	117322
46	117285
Ġclinical	117225
49	117115
Ġaccount	116949
Delta	116895
ĠTHE	116876
Ġrest	116527
Ġmind	116504
Ġsh	116472
param	116468
Ġfunctions	116285
Ġsimply	116195
Ġproducts	116180
Ãĳ	116159
ore	116007
Ġbook	116006
Ġturn	115914
ions	115903
ĠOF	115893
Ġdis	115892
Ġphase	115788
Ġyoung	115550
Ġespecially	115550
Ġtemperature	115437
av	115410
66	115409
Ġwords	115322
Ġsequence	115155
px	115094
));	115065
Ġcolor	114973
Ġsample	114900
ph	114783
Ġproperties	114750
Ġinput	114697
ms	114613
ise	114458
eta	114249
]\]	114040
ĠWith	114028
ang	114012
Ġlength	114005
ize	113987
Ġ!=	113962
Ġsix	113856
Ġworks	113829
Ġaddress	113660
Ġcomplete	113527
ĠCity	113373
Ġdetermined	113269
Ġpresence	113267
Ġelement	113239
Ġmedical	113134
ley	113132
IC	113071
])	112924
ill	112826
Ġfollow	112731
Ġstatic	112667
Ġevents	112608
Ġgenes	112404
Ġ23	112279
AR	112139
ĠMay	112133
its	112101
ĠInc	112007
Ġpolitical	111954
Ġoutside	111871
čĊĠĠĠ	111832
Ġpressure	111780
$\	111739
Ġsense	111655
Ġarray	111624
sh	111572
ier	111521
Ġfront	111505
AT	111468
Ġdate	111324
Ġeffective	111147
96	111145
no	111096
Ġtypes	111081
iv	111059
Ġsubject	111050
Ġoutput	111000
ĊĠĠĠĠĠĠĠĠĠĠĠĠĠĠĠĠĠĠĠĠĠĠĠ	110998
\\	110993
Ġprimary	110953
con	110817
Ġlanguage	110766
Ġrespect	110683
app	110680
ub	110584
=\	110424
Ġeverything	110361
Ġ&&	110339
Ġbreak	110263
With	109881
Ġbad	109697
Ġla	109663
Ġphysical	109662
Ġfeatures	109634
ĠÂ±	109625
Ġlonger	109598
Ġinter	109512
EN	109468
Ġnear	109273
Ġcl	109234
+\	109208
Ġinside	109197
Ġdetermine	109108
Ġpresented	108872
68	108855
Ġeasy	108810
";	108753
($	108672
{{\	108652
Ġjudgment	108551
Ġquite	108506
cal	108487
Ġidentified	108455
Ġcreated	108442
Ġtax	108424
Ġcross	108418
over	108385
Ġ$$	108312
CT	108281
Ġstop	108271
Ġinitial	108204
ĊĠĠĠĠĠĠ	108203
public	108193
Ġ28	108176
Ġrunning	108131
85	108071
bf	108067
Ġsamples	108033
OR	107948
98	107880
let	107822
Ġbasis	107819
ĠString	107769
ments	107722
Âĥ	107572
Ġwhite	107460
(-	107437
Ġformer	107412
Ġparameters	107381
41	107305
Ġwanted	107253
xi	107137
97	107100
}$,	107069
My	107065
Object	107037
array	107003
Ġstatus	106989
Ġfollows	106971
Ġground	106958
Ġred	106905
Ġstatement	106810
ts	106740
ner	106731
Ġmember	106610
ik	106518
ile	106515
)}	106461
ke	106341
Ġsuper	106295
Ġdef	106230
Ġareas	106228
Ġpersonal	106040
Ġen	105849
yl	105752
Ġisn	105699
53	105527
Ġindex	105494
Ġelements	105447
ĠLicense	105275
Ġweeks	105175
list	105076
Ġdirectly	105064
ative	104997
AN	104844
pl	104816
âĢĲ	104783
Ġquestions	104490
Ġago	104481
IS	104456
art	104353
Ġrelationship	104227
Ġmemory	103907
Ġrequest	103759
Ġforce	103672
ach	103649
Ġsearch	103613
57	103569
Ġnatural	103562
Ġgames	103503
Ġtheory	103365
56	103187
54	103181
Ġpro	103081
Ġtraining	102974
Ġcontext	102896
CC	102640
Ġacid	102628
}(\	102615
ĠAct	102365
Ġ(\[	102349
Ġwrong	102226
ically	102208
rangle	102157
Ġnews	102048
Ġcontinue	101977
ets	101756
ĠDr	101746
ĠDNA	101732
tilde	101561
86	101547
Ġbuilding	101536
ĠCD	101529
Ġbehind	101496
au	101489
}$.	101384
ane	101213
const	101069
Ġgreater	101024
void	100893
Ġapplied	100852
Ġdifficult	100798
qu	100762
width	100662
Ġlimited	100591
field	100583
ma	100539
Ġvideo	100516
Ġmice	100425
Ġmonth	100335
Ġrequire	100296
Ġrelease	100209
Ġdistrict	100177
Ġpreviously	100166
Ġ26	100115
ĠSuppose	100089
ĠĠĠĠĠĠĠĠĠĠĠĠ	100085
Ġdeal	100005
Ġmap	99984
Ġtitle	99933
Ġincludes	99899
Ġreduced	99878
Ġsaw	99875
Ġcut	99845
ĠJohn	99809
cdot	99787
SE	99756
ĠTherefore	99701
".	99637
Ġability	99430
ĠOur	99340
IP	99190
path	99152
Ġbuild	99145
ks	99065
ass	99008
Ġdrug	98978
sub	98915
Ġmessage	98905
ÃĤ	98880
less	98859
Ġstyle	98839
Ġ60	98820
Ġclaims	98739
Ġknowledge	98705
Ġdeveloped	98688
Ġarticle	98546
:**	98457
Ġdirect	98339
Ġflow	98290
Ġlayer	98247
ow	98180
Ġcontact	97985
().	97956
\])	97825
Ġimpact	97719
ful	97700
Ġinvention	97477
from	97306
Ġsoftware	97260
AD	97253
Ġgas	97041
Ġoil	97036
Ġindependent	97005
Ġwrite	97004
Ġhttp	96962
with	96960
ars	96733
Ġblock	96650
52	96638
Ġnumbers	96626
Ġplayers	96602
St	96579
Ġwritten	96579
Ġnational	96571
ĠLe	96455
![	96430
Ġdouble	96370
Ġword	96353
Ġreference	96352
Ġ2012	96329
ĠHis	96276
Ġfollowed	96263
At	96243
Ġcoming	96190
Ġparticularly	96082
ĠPresident	96074
ĠCounty	95991
ĠSince	95752
sc	95693
izing	95693
max	95576
Key	95557
Ġ27	95481
Ġleave	95469
Ġactive	95399
Ġobtain	95363
IT	95359
Ġsecurity	95340
ĠWhile	95276
Ġsc	95242
nd	95154
Ġnegative	94955
ys	94939
Ġunit	94854
Ġpain	94846
Ġdefault	94840
js	94768
her	94682
my	94681
Ġwar	94679
Ġfl	94637
ability	94624
ind	94605
78	94561
Ġcorresponding	94496
Ġ[*	94429
Ġentire	94375
Ġland	94350
..	94283
OS	94263
Ġnature	94091
net	94059
čĊ	94013
Ġspecies	93981
Ġusually	93973
pe	93970
51	93964
ty	93844
Ġrule	93688
Ġrates	93645
ĠDe	93631
Ġdifferences	93628
Ġliving	93446
Ġoffice	93417
Ġalthough	93284
ĠHere	93259
File	93258
Ġanswer	93223
Ġ2013	93207
Ġwhose	93188
ĠIN	93129
Ġnote	93105
Ġact	93073
Ġglobal	93026
off	93000
Ġpractice	92977
ĠWorld	92959
Ġtried	92932
59	92923
Ġargument	92797
Ġbrain	92796
Ġhold	92785
Ġetc	92752
Ġonline	92619
ĠĠĠĠĠĠĠĠĠĠĠĠĠ	92582
Ġ2016	92441
}}$	92411
CH	92350
58	92258
ium	92255
Ġgenerally	92216
Ġlost	92183
Ġforward	92121
Ġrecently	92070
ĠSouth	92063
psi	91971
ai	91939
AM	91861
By	91768
Ġbar	91761
Ġ2014	91714
Ġthemselves	91675
item	91599
str	91588
Ġplaintiff	91564
Ġhope	91563
user	91560
Suppose	91485
Ġanyone	91444
Ġapp	91423
Ġtakes	91337
Ġlate	91283
Ġproposed	91269
Ġcountries	91242
mm	91156
Ġagreement	91121
..."	91053
ĠNot	91041
Ġ?	90951
ue	90821
Set	90809
Ġshare	90709
ĠâĪĴ	90682
Ġsaying	90678
me	90604
87	90593
Ġdensity	90523
Ġle	90435
function	90417
Ġ/>	90413
ud	90382
Ġmet	90290
Ch	90231
Ġtreated	90195
our	90133
ĠII	89963
Ġpass	89931
ĠMarch	89891
br	89865
state	89818
An	89709
Ġhimself	89702
76	89678
Ġse	89592
aw	89554
ĠHouse	89554
Ġlegal	89522
ĠHow	89492
ĠNorth	89482
Ġsituation	89399
iz	89330
Ġpurpose	89183
Ġfederal	89171
Ġenvironment	89107
ff	88943
Ġcenter	88896
Re	88858
ities	88814
Ġ29	88798
Ġbecame	88699
ĠChina	88646
Ġ2015	88593
Ġrelative	88554
ĠAmerica	88548
epsilon	88538
Ġpretty	88519
84	88493
89	88433
ina	88420
Ġways	88313
Ġart	88309
One	88209
like	88015
Ġfailed	87960
ron	87835
Ġpublished	87796
Ġtalk	87750
we	87616
Ġoffer	87595
ĠDepartment	87586
$$	87576
App	87437
Ġmoment	87421
Ġ);	87351
Ġsent	87347
003	87308
varepsilon	87226
Ġhighly	87169
ĊĠĠĠĠĠĠĠĠ	87160
Omega	87155
Ġwoman	87016
Ġcharacter	86955
Ġprice	86945
Ġfindings	86934
Ġcontract	86926
ok	86857
Gamma	86857
Ġallowed	86822
)=	86746
Ġderivative	86739
0000	86654
Ġselected	86631
ĠSome	86619
Ġcharge	86613
Ġlimit	86557
ĠĊĠĠĠĠĠĠĠĠĠĠĠĠĠĠĠ	86510
63	86495
Ġnode	86465
Ġdegree	86447
base	86393
Ġoperation	86355
Ġcomponent	86256
ĠFirst	86113
ĠSystem	86106
Ċĉĉĉĉ	86073
ĠOR	86057
Ġstage	86040
Ġlarger	85998
Ġdesigned	85987
Ġmeasured	85985
Ġgave	85913
that	85908
Ġbring	85872
form	85856
land	85803
Ġjury	85789
Ġmicro	85787
###	85765
Ġconstant	85744
.'	85707
Ġinstance	85687
Ġdetails	85613
72	85592
Ġindividuals	85423
ĠGeneral	85329
val	85272
so	85197
ants	85160
Ġimages	85150
ĊĊĊ	85146
Ġeveryone	85128
Ġcurrently	85051
son	85042
Ġdirection	85030
Ġcaused	85027
Ġfocus	85007
ox	84947
ology	84946
Ġalone	84897
Ġmin	84742
Ġfriends	84728
Ġbackground	84718
Ġlocation	84693
Ġproteins	84630
Ġbehavior	84595
ij	84563
Ġ;	84517
Ġwasn	84504
index	84496
Ġ2011	84496
ĠJune	84451
ĠNow	84417
Ġgives	84392
Ġtrans	84276
ess	84236
Ġcomponents	84222
ick	84193
Ġ[**	84183
ĠAlthough	84172
ax	84164
LE	84136
Ġeyes	84118
Ġask	84102
document	84092
ĠFig	84092
ade	84003
Ġ2010	83997
Ġmatrix	83881
Error	83875
Ġcount	83848
She	83803
Ġchoice	83734
Ġscale	83694
Ġrequires	83692
Ġ:=	83546
Ġattention	83421
Ġfixed	83386
MS	83336
ines	83205
Ġcompanies	83167
Ġbegan	83018
Ġknew	83010
92	82975
ON	82963
way	82910
ĠOr	82787
Ġleading	82729
"><	82720
ix	82676
Ġwin	82671
Ġoptions	82657
Ġled	82647
Ġ2017	82609
74	82593
Ġdisplay	82589
Ġex	82574
Ġmother	82553
Ġseem	82515
PS	82462
Ġ///	82460
Ġfailure	82416
(),	82359
Ġhost	82344
ash	82246
def	82228
)$.	82167
Ġfinancial	82127
Ġmanagement	82122
Ġfrequency	82099
Ġusers	82060
Ġ->	81981
Ġfire	81944
Ġunique	81810
Ġeducation	81782
af	81751
ton	81729
cm	81688
IR	81650
Ġratio	81525
Ġtechnology	81515
čĊĠ	81408
Ġcontains	81381
93	81312
ators	81236
Ġfiles	81202
ler	81164
Ġson	81156
Ġdivided	81090
Ġcompletely	81008
ain	80990
Ġprime	80982
Ġincreasing	80968
Ġgoal	80902
ĊĠĠĠĠĠĠĠĠĠĠĠĠĠ	80858
Ġpattern	80854
Ġcosts	80784
Ġconnection	80778
ĠApp	80768
Text	80748
back	80698
box	80619
IL	80597
Ġparts	80443
Ġlack	80426
Ġoption	80403
CD	80389
Now	80381
Ġapply	80345
term	80323
Ġorg	80311
Ġdi	80296
Ġindustry	80290
Ġparties	80283
lib	80281
ep	80262
Ġsuggest	80251
Ġexpect	80226
ck	80224
ĠJanuary	80217
Ġserver	80192
ĠApril	80080
ised	80075
');	80069
Ġappropriate	79933
Ġchar	79912
Test	79907
Ġearlier	79886
Ġheat	79801
Ġstress	79747
cc	79695
LL	79695
());	79672
ĠĠĠĠĠĠĠĠĠĠĠĠĠĠ	79658
Ġfine	79650
Ġexpressed	79577
ĠJuly	79491
Ġoverall	79478
Ġ\<	79472
Ġdistance	79393
Ġsupported	79274
Ġlink	79234
Ġgenerated	79231
91	79221
varphi	79210
Ġestablished	79104
Ġstated	79095
Ġ31	79090
Ġallows	79041
Ġdevices	78962
}=	78917
83	78916
Ġequal	78887
Ġuseful	78767
Ġeasily	78732
SS	78710
ole	78705
ice	78695
62	78689
ĠCir	78639
Ġstay	78633
ale	78614
From	78607
They	78602
Ġ<<	78567
}_{\	78449
Ġsites	78416
fn	78410
čĊĠĠĠĠĠĠĠ	78391
Ġcontaining	78360
Ġweb	78323
Ġreasons	78315
ber	78242
"/>	78213
Ġfinding	78094
Ġsign	78077
Ġsoon	77915
Ġhighest	77773
Ġmeasure	77768
chi	77752
az	77747
Ġcritical	77741
='	77722
Ġlocated	77721
pp	77711
CA	77669
Ġcopy	77597
Ġ32	77587
Ġparameter	77523
Ġproduced	77507
dev	77453
Ġactivities	77429
Ġeconomic	77383
Ġ!	77366
Ġexcept	77302
Ġcorrect	77241
Ġstaff	77231
ĠĠĠĠĠĠĠĠĠĠĠĠĠĠĠ	77211
Ġfiled	77202
Ġnotice	77138
._	77122
ĠPro	77113
use	77079
Ġreduce	77077
Ġrelevant	77064
|\	77007
82	76970
61	76922
Ġclearly	76913
Ġactual	76845
sim	76793
){#	76777
ong	76770
Ġauthors	76751
Ġfelt	76693
Ġmode	76686
Ġcentral	76623
Ġstore	76590
}^{\	76574
Ġopinion	76539
Ġvariable	76536
Ġappeal	76532
title	76495
Ġsl	76483
\].	76459
Ġhit	76303
ĠWest	76289
ĠAND	76279
map	76186
Ġbox	76163
)$,	76160
ger	76151
Ġ($	76035
Ġwriting	76027
Ġcom	76023
Context	75996
view	75966
top	75918
ĠCon	75917
73	75915
Ġvs	75910
79	75858
Ġwebsite	75800
Ġpresident	75760
Ġboard	75696
Size	75695
\'	75689
^*	75687
Ġinjury	75667
Ġchanged	75651
Ġbrought	75624
Ġcommand	75608
struct	75578
overline	75489
Ġshowing	75464
200	75432
âĢĥ	75360
Ġsmaller	75351
002	75350
Ġreceive	75327
ire	75257
Ġgoes	75251
Ġdoor	75220
ĠId	75220
Ġuses	75212
Ġexperiments	75170
ĠIS	75147
Item	75125
*.	75108
Ġ2008	75089
Ġcon	75086
81	75066
State	75057
Ġlearning	75053
ren	74981
Ġwidth	74974
uk	74959
Ġappears	74954
Ġrules	74923
Path	74906
)*	74887
read	74882
operatorname	74861
Ġitems	74819
langle	74778
Ġfast	74766
Exception	74763
Ġ__	74747
Ġ35	74724
Ġvector	74705
link	74701
['	74682
Ġlooks	74661
Ġbeyond	74650
day	74632
Ġheard	74631
Ġremains	74595
Ġcomputer	74584
static	74583
Ġculture	74583
Ġres	74575
};	74553
':	74468
Ġbuilt	74424
AG	74415
ĠBe	74413
ĠFrom	74325
Ġunderstanding	74257
Ġmatch	74208
Ġhearing	74208
Ġmeet	74128
ver	73991
ats	73978
Ġtumor	73902
Ġlooked	73899
Ġturned	73814
ĠEx	73767
Ġworked	73729
amp	73670
Of	73661
Ġtowards	73659
ĠMar	73647
NA	73636
Ġad	73524
Ġmajority	73455
big	73453
Ġsuccess	73377
ĠTh	73375
ĠUn	73366
ĠSe	73294
SD	73289
Ġones	73289
Ġplease	73245
Ġbinding	73229
Ġspeed	73212
Ġregarding	73202
Ġvariables	73195
Ġinternal	73176
True	73168
Ġproduce	73162
Info	73156
Ġfall	73148
Ġdecided	73134
err	73132
ĠHealth	73100
Ġskin	73057
After	73052
Ġappear	73042
)).	73034
Ġexists	72999
*~	72908
Ġtherapy	72871
II	72868
ii	72858
Ġbenefits	72821
Sh	72779
Ġfully	72771
pro	72678
ĠDistrict	72674
Ġconcentration	72635
row	72628
":"	72597
Ġimprove	72595
Ġpar	72588
AB	72587
Ġtissue	72586
ĠPhys	72555
ĠAugust	72532
Ġparents	72494
)-	72463
Ġreports	72451
Ġbl	72439
Ġmilitary	72419
Ġresulting	72363
ible	72358
Ġ2009	72348
ds	72319
Ġ^	72276
Ġfriend	72266
Ġrandom	72247
)^	72203
IM	72167
Ġcampaign	72140
Ġprevent	72069
Ġexactly	72064
Ġcouple	72005
Ġmon	71917
Ġindicated	71897
ĠAr	71892
bl	71891
Ġcontrast	71866
Ġinfection	71792
Ġfather	71772
ĠOctober	71763
Ġlinear	71722
Cl	71711
Ġsetting	71707
Ġmedium	71698
free	71692
Ġwrote	71676
ence	71618
ting	71574
Ġandroid	71572
Ġinteresting	71566
Ġmorning	71552
ĊĊĠĠĠĠĠĠĠĠĠĠĠ	71487
Ġhands	71474
71	71473
US	71402
Ġlearn	71358
ĠDo	71327
fe	71324
ee	71290
Ġmaterials	71225
Ġreading	71179
Ġvehicle	71139
Ġplayed	71096
Ġfeature	71080
ec	71070
ĠSeptember	71067
Ã¡	71043
Ġscore	70946
Ġerr	70944
nbsp	70868
Ġfun	70846
ĠĠĠĠĠĠĠĠĠĠĠĠĠĠĠĠ	70819
Ġavoid	70812
ĠDecember	70788
Ġqu	70780
}}_	70757
Ġmeeting	70704
Ġgets	70693
vec	70684
Ġseparate	70541
Ġreasonable	70533
Ġdefine	70506
ost	70491
Ġproof	70385
ters	70382
ene	70372
Ġreaction	70309
Ġ2018	70294
Ġplayer	70259
Ġconstruction	70255
Ġextra	70228
Ġfields	70223
Ġheight	70152
Ġapplications	70107
Ġstarting	70103
ich	70090
Ġzero	70058
Ġexist	70051
ru	69952
Sec	69897
Ġmaximum	69877
Ġthroughout	69873
Ġparticipants	69810
Ġvolume	69715
Ġtask	69713
Ġnoted	69711
Ġdamage	69689
Ġprocesses	69673
ĠData	69670
Ġregions	69627
Ġdomain	69616
Ġformation	69590
Ġtransfer	69539
Ġconnected	69538
color	69534
Ġclosed	69460
Ġsafety	69441
ct	69410
Ġpoor	69400
Ġlives	69391
Ġitem	69384
Ġdrive	69357
ana	69354
Ġnor	69319
Ġbecomes	69317
Ġformed	69310
ĠÃĲ	69293
ĠBecause	69290
ality	69282
rightarrow	69260
Ġfit	69232
Ġsources	69209
Ġdes	69171
ath	69162
Ġadministration	69154
input	69133
true	69101
Ġdocument	69096
Ġroad	68969
Ġsafe	68964
Ġrevealed	68925
ose	68912
ĠMore	68879
ug	68878
Ġinternational	68870
Ġinteraction	68859
Class	68783
Ġstd	68783
Ġhospital	68749
PA	68739
EL	68707
ĠSection	68676
]:	68649
Ġvisit	68585
Ġcollection	68509
Ġotherwise	68504
Ġbasic	68484
Ġtests	68467
Ġroot	68453
ĠNovember	68447
Not	68363
RE	68354
java	68339
Ġimmediately	68237
info	68188
Ġstand	68185
Ġequation	68154
ret	68128
ĠMoreover	68070
New	68057
Ġwindow	68041
ns	68009
length	67988
ĠCenter	67968
oy	67957
which	67902
image	67876
ĠIL	67874
Ġtown	67857
Ġreduction	67823
Ġactions	67820
Ġ80	67818
Ġcolumn	67813
Ġreleased	67809
ĠUSA	67757
ort	67716
Ġ(\	67698
ĠWashington	67684
Ġth	67668
Ġopportunity	67616
Ġsex	67608
Ġtoward	67590
Ġpaid	67512
Ġinfluence	67505
Ġmechanism	67481
Ġgiving	67478
^{(	67458
Ġtool	67434
ĠOf	67390
node	67310
Ġwide	67247
Ġ90	67207
Ġret	67149
Ġconsistent	67087
Ġcombination	67085
Ġidentify	67054
Ġfigure	67021
Ġlog	67019
Ġtesting	67001
Ġcomment	66980
Ġdeep	66924
Ġdefense	66920
php	66851
iss	66829
Ġrelatively	66815
group	66812
mer	66769
\,	66723
mathfrak	66721
Ġ/**	66700
Ġensure	66698
Ġsometimes	66690
geq	66667
Ġresources	66588
Ġresistance	66556
Ġforms	66555
Ġstar	66536
False	66498
Ġcover	66466
Ġphone	66459
Ġsolid	66378
Ġquickly	66301
Ġfunctional	66293
Ġclient	66292
case	66231
related	66199
ĠCal	66188
*-	66166
Ġsound	66147
Ġmiddle	66109
Ct	66081
Ġthinking	66077
Ġwall	66046
';	66042
Ġ200	66029
error	65986
ĠPM	65982
Ġchance	65968
ĠPublic	65967
ym	65954
Node	65946
Ġ(**	65909
Ġmyself	65885
version	65852
Ġprocedure	65842
Ġhappen	65811
ino	65782
Ġplant	65735
ĠCl	65713
Ġplaying	65711
Here	65689
ĠTable	65650
Ġnearly	65636
Pro	65586
Ġchoose	65582
Ġremove	65568
ĠSchool	65556
Ġbegin	65539
Ġportion	65506
Ġproviding	65479
Ġmovement	65468
Ġmoved	65444
Ġdetected	65424
Ġten	65416
Ġhappened	65396
Ġagree	65393
Ġconducted	65372
Ġcounsel	65350
Ġdatabase	65348
Ġbottom	65341
SP	65336
act	65330
ung	65317
ĠRed	65257
Ġmoving	65249
Ġexisting	65220
Ġregular	65215
IF	65212
Ġcore	65210
Ġobjects	65190
[^	65099
ĠObama	65075
Ġready	65047
Ġchannel	65023
ng	65007
ification	64983
Ġreach	64972
ational	64938
arg	64884
Ġdaily	64877
Ġsteps	64866
Ex	64860
ĊĊĠĠĠĠĠ	64856
500	64831
Ġcalculated	64808
Ġfacts	64780
els	64772
quad	64766
.\	64749
script	64707
Ġbuy	64680
Ġfinally	64676
Ġanimals	64604
PL	64573
ĠSp	64525
.[	64516
\],	64513
Ġindicate	64483
SC	64472
Ġyourself	64422
Ġattack	64408
ust	64367
body	64349
NS	64298
Ġdemonstrated	64294
Ġnearest	64258
Ġemail	64235
Ġworth	64173
ake	64165
Ġremain	64163
Int	64127
col	63969
Ġserious	63923
Ġunits	63919
%,	63908
Ġrepresent	63892
rs	63890
ĠAlso	63884
ord	63867
Ġdefinition	63864
())	63842
ss	63814
Ġsort	63805
Ġhot	63805
Ġcomments	63802
Ġque	63776
Ġprove	63761
Ġperfect	63694
ĠĠĠĠĠĠĠĠĠĠĠĠĠĠĠĠĠ	63677
Ġupper	63672
ĠNULL	63645
######	63634
ĠID	63633
Ġremember	63578
start	63565
ĠCalifornia	63518
TR	63513
Ġtrade	63503
)**	63466
Ġsum	63453
Ġcapacity	63437
py	63418
ning	63393
ĠSan	63384
čĊč	63374
Ġcarried	63324
Ġsufficient	63316
Ġremoved	63315
oid	63299
ink	63256
Ġplaced	63254
att	63209
Ġborder	63201
Ġseven	63182
Ġsend	63179
oh	63166
Ġprocessing	63158
ml	63097
but	63074
MA	62978
Ġvariety	62955
Ġ37	62906
Ġblue	62902
Ġab	62899
Ġsets	62825
Ġhear	62813
Ġprint	62782
Ġshape	62781
Ġwife	62747
Ġ45	62705
ians	62674
ering	62671
port	62670
Ġscreen	62598
ĠFebruary	62594
Ġoperator	62593
dd	62585
ET	62576
Ġdistributed	62569
Ġbenefit	62565
Time	62501
Al	62496
[]	62482
ious	62439
Ġpackage	62412
Ġselection	62381
Ġmg	62363
Ġ2007	62349
ta	62325
ĠAd	62292
ray	62289
Ġ]	62276
Ġtr	62250
}}(	62233
Ġsuggested	62171
go	62162
Ed	62145
Ġrow	62128
ĠEven	62127
ĠGet	62107
Ġmachine	62098
Ġonto	62030
ĠFigure	61903
","	61867
Ġnamed	61861
Ġrace	61850
PR	61849
,-	61840
]\],	61833
Ġprograms	61791
ĠMan	61768
Index	61762
che	61692
Ġcomparison	61689
Ġconduct	61649
Code	61642
Ġworkers	61637
reg	61624
Color	61610
count	61608
Ġeight	61535
Ġhealthy	61527
Ġincreases	61470
db	61428
Ġmagnetic	61410
mod	61376
ĠEuropean	61365
Ġframe	61321
arm	61301
Ġexposure	61288
ack	61276
Ġpl	61228
ert	61143
Ġpassed	61142
Ġmaybe	61142
Ġletters	61115
ĠWhite	61092
content	61085
ĠSch	61066
ides	61065
Event	61060
Ġplaces	61060
ome	61045
Ġresponsible	61008
Ġmeasures	60990
Ġ\,	60983
ĠIndia	60980
Ġdiscussed	60970
Ġdark	60963
Ġreplacement	60949
Ġem	60928
ae	60883
Ġsave	60854
config	60849
uc	60835
Ġapproximately	60808
Ġ95	60791
Ġpicked	60736
using	60735
Ġhair	60713
Ġletter	60706
Ġcharacteristics	60694
##	60675
Ġincome	60673
Ġsw	60669
Î±	60660
Ġmanner	60659
Ġgreen	60650
ĠAm	60632
ata	60617
ĠBoard	60587
Ġsymptoms	60549
Ġ70	60531
PC	60530
dot	60520
core	60514
Ġinsurance	60511
Ġdevelop	60505
Ġupdate	60490
url	60469
ual	60444
source	60399
ĠCom	60387
Ġload	60363
Ġpick	60350
ified	60312
Ġdrugs	60285
bs	60268
Ġstructures	60256
},\	60250
Ġround	60245
Ġcircuit	60200
Ġtalking	60159
ĠResearch	60157
Ġperform	60108
Ġbeginning	60098
ged	60077
ĠUK	60076
Ġessential	60052
Ġpair	60007
ĠPat	59990
Ġcontinued	59979
"},	59945
ĠWar	59933
SA	59829
Ġmodern	59826
Ġpanel	59812
Ġpress	59772
bm	59753
Ġmale	59741
Ġ~	59739
Ġimport	59732
GL	59701
Ġtestimony	59692
Ġauthor	59678
Ġ36	59678
gl	59671
Ġdead	59668
rom	59645
Ġtransition	59622
ied	59586
Ġeffort	59586
Ġassume	59586
OL	59560
Ġactivation	59552
Ġreturned	59519
)/(-	59509
Ġra	59453
Ġhappy	59425
UN	59390
Ġedge	59387
ĠFurthermore	59343
*)	59332
CL	59304
Oh	59298
Ġdetection	59291
ĠAM	59222
004	59209
Ġstock	59201
Ġpoly	59188
Ġstuff	59176
Ġ});	59145
Ġtree	59125
ĠList	59119
Ġnice	59113
action	59106
Ġinvestigation	59097
Request	59037
ĠHigh	59005
OM	58879
Ġproper	58828
Ġkids	58793
Ġpopular	58771
ely	58667
Ġ48	58619
Ġdescription	58601
ef	58503
\<	58482
ÂŃ	58432
ĠBl	58428
gen	58415
Ġ((	58391
hen	58367
MP	58356
ann	58347
Ġtruth	58340
ĠEnglish	58327
ari	58316
Ġexercise	58307
Map	58305
Un	58255
point	58237
Ġwalk	58228
EM	58141
Ġgl	58141
inter	58126
cap	58125
Ġinterface	58100
Ġmusic	58053
Ġspent	58048
ĠTO	58042
Ġspecifically	58029
ail	58028
object	58025
/(-	58019
Ġdenied	58007
Ġchallenge	57992
Ġplans	57979
ĠMe	57954
ĺ	57949
Ġsurgery	57945
Do	57915
Ġcontain	57898
Ġfamilies	57872
ures	57865
Array	57859
ĠCongress	57850
Ġstrategy	57824
und	57813
do	57772
Ġsolutions	57769
bit	57761
Ġalternative	57734
Ġserve	57729
ĊĠĠĠĠĠĠĠĠĠĠĠĠĠĠĠĠĠĠĠĠĠĠĠĠĠĠĠ	57723
Ġbi	57685
Ġtested	57670
ĠEl	57660
Ġ2000	57603
Ġwait	57602
ging	57592
Ġofficials	57572
Ġcareer	57531
ĠInternational	57509
Ġcouldn	57496
Ġsummary	57485
ĳ	57482
Ġwants	57442
Ġmeaning	57433
Ġmentioned	57428
Ī	57420
âĢ¢	57393
ldots	57342
Ġstrength	57326
Ġelection	57312
Ġ2006	57300
Ġwatch	57265
nt	57259
fully	57225
ĠST	57214
Ġspin	57116
bin	57087
ek	57066
Ġaffect	57055
ht	57039
Ġprepared	57029
tt	57009
ents	57009
ological	56987
Â¾	56986
Ġnil	56981
^[@	56942
Ġofficial	56885
Ġleads	56868
Ġnames	56865
Ġdespite	56862
Ġstudent	56784
Ġunless	56773
Ġagent	56740
ev	56738
Ġfemale	56718
ha	56681
Ġcycle	56680
Ġstudied	56647
Ġmodule	56604
çļĦ	56592
Ġimproved	56573
Ġmid	56521
Ġnuclear	56511
Ġtypically	56478
Ġcombined	56463
Ġha	56433
Ġexplain	56418
Ġmetal	56416
ock	56410
Ġeye	56397
({\	56361
ĠPaul	56355
]^	56343
Ġselect	56322
*(	56309
Ġjudge	56287
ĠYour	56271
Ġbillion	56267
Ġexperimental	56243
Ġclean	56233
ĠĠĠĠĠĠĠĠĠĠĠĠĠĠĠĠĠĠ	56233
Phi	56224
init	56216
Ġshot	56204
Ġgrowing	56204
ric	56203
Ġcontrols	56167
Ġball	56159
Ġplus	56156
Ġbound	56139
Yes	56119
Ġentry	56111
Ġcommunication	56103
Ġ-->	56100
Ġsuccessful	56088
Ġminimum	56084
Ġvote	56064
Ġ("	56063
Ġsurvival	56036
Calculate	55912
Ġconfirmed	55872
OT	55867
005	55846
((	55842
Ġattempt	55838
ory	55834
Ġgun	55807
Ġkilled	55791
Ġhour	55738
pr	55682
api	55653
AA	55645
Ġforeign	55623
ĠDavid	55616
Ġmolecular	55561
Well	55545
Ġguy	55545
**)	55541
Ġcircumstances	55519
Image	55499
Ġinduced	55498
Ġsociety	55497
ĊĊĉ	55489
Ġpiece	55488
eg	55482
Ġperhaps	55445
Ġhttps	55445
EC	55411
Ġagreed	55387
create	55366
Ġ33	55345
Ġraised	55324
na	55307
Ġwave	55299
Ġoperations	55296
CS	55271
Ġanalyzed	55250
github	55230
TH	55228
Ġprofessional	55218
Ġparent	55191
Ġreached	55186
Ġlinks	55181
Ġcounter	55179
ĠTV	55176
Ġwhereas	55150
Ġcalls	55144
Ġaffected	55134
Ġbed	55120
Ġdied	55100
Ġassociation	55061
ays	55060
OP	55057
Ġtools	55053
ĠCode	55053
Ġfeet	55032
Ġvalid	55023
otimes	55006
Ġemployees	55002
Ġofficer	54988
Ġclasses	54987
Ġliquid	54983
Ġhandle	54980
"></	54921
ĠMost	54862
ĠCan	54857
ĠĠĠĠĠĠĠĠĠĠĠĠĠĠĠĠĠĠĠ	54850
Ġval	54819
Ġcauses	54800
FF	54767
Ġsentence	54757
yn	54731
Ġwouldn	54690
¡	54688
ĠNews	54612
Ġprobability	54609
Ġprotect	54591
prime	54527
Ġkept	54523
ĠNote	54503
da	54493
pre	54487
Ġel	54484
RO	54463
.](	54440
Ġ34	54423
Ġstr	54420
']	54403
Ġefforts	54383
Ġsrc	54380
bb	54377
Ġmental	54377
Ġjava	54372
Ġcollected	54362
Ġsleep	54335
Ġtraditional	54274
Ġoccurred	54247
Ġhuge	54237
ĠHer	54217
Ġ(!	54192
boldsymbol	54178
Ġcredit	54152
Ġtrust	54110
Ġintroduced	54082
Ġrelation	54061
Count	54053
head	54042
Service	54023
Ġdiscussion	54006
Add	54004
Ġsuggests	53990
Why	53974
ĠPark	53963
Ġinf	53943
Ġnone	53893
lin	53892
Ġestimated	53884
Ġcertainly	53856
DE	53805
Ġexplained	53801
Ġoccur	53795
Ġstorage	53787
Ġtechniques	53779
Ġstation	53758
ĠLondon	53747
Model	53732
Ġcorrelation	53697
User	53689
Ġdiagnosis	53682
Ġstatute	53613
âĪĴ	53610
Lambda	53601
ģ	53582
Ġremaining	53570
Ġmovie	53551
Ġprotection	53529
Ġsexual	53495
ica	53479
Ġgone	53474
Ġbill	53471
Ġappellant	53451
page	53434
ui	53378
oo	53372
DS	53361
Sigma	53304
ĠBar	53283
Ġforces	53280
ĠDon	53262
Ġcriminal	53259
Ġalgorithm	53258
Big	53248
Ġchain	53239
hip	53205
open	53194
atic	53170
cell	53156
ĠIsrael	53154
ĠRev	53151
ĠGroup	53150
Ġbuffer	53128
Ġrequirements	53115
Ġ2005	53080
der	53075
Ġbiggest	53057
Ġmis	53036
Ġband	53026
Ġvoice	53001
ify	52961
ime	52941
Ġfear	52924
Ġcapital	52890
While	52875
Our	52859
ites	52845
*]{}	52835
fl	52830
Ġabsence	52779
Ġrecords	52774
/**	52757
ening	52751
ara	52735
BC	52729
ives	52652
Ġgeneration	52650
ered	52553
model	52546
ured	52531
Ġpicture	52530
Ġolder	52515
Ġorganization	52495
ĠSub	52473
Ġresponses	52459
Ġmissing	52447
Ġserved	52421
ĠLa	52400
Ġwhom	52398
Ġlaws	52369
ĠEach	52337
Ġadding	52327
ĠEast	52313
Ġbank	52291
Ġoffers	52270
Ġne	52270
Ġoptical	52259
Ġ""	52216
Ġquantum	52182
Ġfloor	52174
)?	52156
Ġtrack	52155
Ġderived	52147
ots	52113
Ġcreating	52110
fs	52084
ĠTexas	52028
Ġscience	52019
Ġsubjects	52018
čĊĉ	52016
ĠĠĠĠĠĠĠĠĠĠĠĠĠĠĠĠĠĠĠĠ	51999
Ġpurposes	51998
Ġ42	51996
ĠJust	51973
Field	51963
Ġwild	51957
ĠCommission	51938
src	51921
Î²	51892
ited	51874
Ġeconomy	51868
ĵ	51859
Ġexternal	51825
Ġassert	51791
Ġanimal	51790
ĠBlack	51781
Ġideas	51731
Ġintended	51702
}-	51689
Ġschools	51685
eth	51676
Date	51629
where	51597
hed	51556
Ġprogress	51532
Ġproperly	51517
Ġrepresents	51462
induced	51433
ith	51421
Ġresolution	51420
gr	51385
Ġextent	51382
itt	51319
ĠBritish	51298
Ġdecreased	51290
Ġdirector	51270
ank	51264
block	51249
izer	51245
mbox	51214
Ġsummer	51212
acy	51190
ĠCar	51186
ĠCH	51170
atory	51117
level	51115
specific	51100
Ġmotor	51098
result	51097
Ġ38	51084
Ġauthority	51041
ĠSupreme	51026
nonumber	50985
Ġmechanisms	50985
vert	50974
Ġport	50959
Ġprotected	50948
ĠRNA	50916
Ġvirus	50903
Ġachieve	50900
ĠEurope	50889
Ġlargest	50886
Ġattorney	50848
ively	50846
Ġmulti	50844
Ġfeeling	50842
Ġnet	50829
CO	50799
pos	50795
IA	50794
Ġinterests	50734
(&	50682
Ġteams	50670
Ġenter	50658
ensuremath	50639
Ġtechnique	50631
Ġmembrane	50626
ham	50602
Ġofficers	50601
istic	50596
Ġcrime	50521
ft	50509
However	50505
ĠGoogle	50505
_.	50502
Ġcontained	50502
aj	50497
ld	50481
Ġref	50475
Ġro	50440
Ġslightly	50439
check	50390
ĠSc	50347
Ġloop	50321
char	50310
Ġmax	50274
Ġarm	50264
0001	50221
Ġnovel	50200
Ġsales	50171
down	50146
Ġfight	50122
Ġdriver	50084
Ġshared	50081
run	50042
Ġconcept	50036
Ġguys	50030
Ġcard	50025
Ġbool	50018
Ġdie	50002
Ġcharged	50000
Or	49978
PP	49974
Ġopening	49948
func	49941
Ġcharacters	49927
ress	49910
}}}	49893
Ġdoubt	49889
Ġlatest	49880
Ġerrors	49873
Ġfoot	49872
Ġprojects	49832
ids	49817
Ġrise	49812
ĠChinese	49806
inal	49773
Ġoffered	49747
Ġconventional	49704
.[@	49692
Ġsevere	49689
Ġholding	49687
Message	49673
ĠĠĠĠĠĠĠĠĠĠĠĠĠĠĠĠĠĠĠĠĠĠĠĠĠĠĠĠĠĠĠĠĠĠĠĠĠĠĠĠĠĠĠĠĠĠĠĠĠĠĠĠĠĠĠĠĠĠĠĠĠĠĠĠ	49660
Ġfresh	49655
Ġcoverage	49646
**]{},	49644
Ġannounced	49624
dir	49594
ĠStreet	49584
ĠCanada	49582
Ġscript	49576
board	49571
rel	49567
ĠPl	49562
trans	49558
ĠFoundation	49555
ances	49534
Ġslow	49532
inc	49531
Ġexchange	49526
ring	49513
ĠTwo	49508
âĢĿ.	49479
Ġcent	49475
Ġdescribe	49465
BS	49453
ls	49446
Ġentered	49443
Ġgain	49399
la	49381
Ġagents	49354
Ġinteractions	49353
ened	49342
ĠCol	49315
ĠFriday	49255
que	49244
CP	49239
Ġsupply	49213
len	49206
Ġformat	49203
order	49176
Ġblog	49144
ven	49127
Ġdecrease	49103
ĠGreen	49059
System	49049
sl	49039
Ġagency	48993
style	48969
ney	48968
Ġgirl	48961
Ġanalyses	48960
See	48939
Ġdose	48936
Ġfilter	48935
Ġdog	48935
ular	48924
Ġprofile	48906
ĠCalculate	48904
Ġconcentrations	48888
({	48840
post	48839
Ġwish	48839
ĠĠĠĠĠĠĠĠĠĠĠĠĠĠĠĠĠĠĠĠĠ	48832
ĠCouncil	48797
ĠPeople	48795
well	48794
Ġoutcome	48789
Ġviews	48769
Ġsoft	48768
material	48761
ĠMc	48727
").	48720
Ġnation	48715
print	48710
ĠJames	48706
summary	48700
âĢĬ	48689
Â½	48684
Ġreceptor	48667
ĠLaw	48656
ight	48654
Ġgenetic	48629
default	48613
čĊĠĠĠĠĠĠĠĠĠĠĠ	48595
Ġcur	48585
dis	48571
ĠSuch	48552
Ġcommercial	48546
Ġexistence	48542
Ġswitch	48538
OD	48536
Ġexpress	48518
Ġpossibility	48508
eb	48500
Ġcold	48500
Ġplants	48477
.*	48465
Ġdrop	48450
Ġ"[	48449
Ġoperating	48446
ĠQu	48442
ĠTr	48441
Ġ+=	48403
Ġdriving	48394
Ġcompleted	48394
IV	48388
Ġexperiment	48385
DA	48355
Ġreturns	48335
bo	48318
ĠMon	48311
Ġpatterns	48299
Ġstars	48290
First	48288
hes	48270
date	48252
Ġinteger	48246
Ġsignals	48236
Ġaren	48234
Ġbeautiful	48220
Ġwhatever	48205
vers	48199
Be	48194
ini	48184
ĠFOR	48160
Ġ2004	48157
Ġidentity	48153
Ġim	48141
Ġheavy	48139
ably	48114
UR	48085
ĠBank	48085
Ġfat	48074
circ	48037
Ġdiseases	48009
rem	48003
Ġinterested	47988
Ġcatch	47986
Ġalleged	47985
ķ	47981
Ġgenerate	47975
ama	47944
ĠInt	47922
Ġhyper	47888
Ġstable	47881
Ġfinite	47878
Ġ${	47872
ÃĹ	47871
Ġbutton	47863
util	47783
Ġequivalent	47783
Ġquery	47782
Ġappeared	47780
Ġ};	47774
Ġequipment	47752
Ġindicates	47751
Ġimportance	47698
ĠService	47697
property	47678
ĠMonday	47667
par	47647
Ġspectrum	47628
eng	47622
Ġradio	47619
ages	47612
ano	47605
Ġprob	47582
Ġcontrolled	47529
Ġmobile	47525
kappa	47502
ros	47500
ĠGu	47495
Ġholds	47451
widetilde	47436
nabla	47414
Ġdemand	47410
Ġpe	47399
Ġconclusion	47398
:"	47395
Ġsequences	47393
dt	47372
Sub	47361
ĠBoth	47361
Ġruns	47358
ĠWestern	47303
Ġfootball	47277
[\	47257
Ġconfiguration	47249
TT	47247
Ġstruct	47233
Ġhappens	47225
Ġgrow	47195
Ġadvantage	47191
Group	47175
Ġparticles	47175
ĠEn	47154
Ġ2019	47153
Ġthrow	47064
main	47057
any	47049
Ġsecondary	47048
Ġdefendants	47044
Ġreality	47037
Ġmouse	47033
ca	47021
})$	47017
Th	46995
Ġrel	46980
Ġfaith	46970
]{	46966
Manager	46953
]),	46937
.</	46922
write	46898
Ġmaintain	46865
ï¼Į	46861
rd	46858
Ġstraight	46854
}}_{	46824
Ġreferred	46818
Ġmeasurements	46802
Ġdigital	46784
ster	46671
Ġring	46611
ĠAccording	46609
Ġsession	46605
Con	46586
Ġcontinuous	46585
ĠInstitute	46570
exp	46550
][	46543
ĠPost	46543
Ġseemed	46514
FA	46500
Ġdeveloping	46467
Ġtravel	46454
PT	46451
°	46397
Ġstatements	46378
Ġaccept	46338
amb	46331
}}{	46319
Ġnoise	46318
Ġlibrary	46282
false	46271
Ġ500	46257
Ġalcohol	46240
Ġspread	46204
Ġar	46193
ont	46174
ĠKing	46144
2015	46142
Ġspeak	46142
has	46132
ĠYes	46086
height	46068
ze	46053
Ġchronic	46035
ĠSmith	46032
lim	46030
ame	46020
Ġbalance	46003
Ġremainder	45994
ases	45985
Ġrepresentation	45985
ĠNOT	45980
Ġleaders	45975
mon	45953
....	45948
ĠSet	45944
Ġchemical	45918
osis	45917
mp	45912
Ġenvironmental	45909
Ġjobs	45906
ĠCompany	45889
Ġcollege	45885
Ġapproved	45872
Ġplatform	45862
Ġshift	45841
Ġdel	45836
++	45824
ark	45812
range	45770
ĠFacebook	45739
Ġcarry	45731
Ġlatter	45721
Ġissued	45681
Ġliver	45670
Property	45664
Ġborn	45599
iting	45592
Ġsquare	45587
ending	45584
Ġextremely	45584
active	45577
ĠCa	45562
Ġclub	45557
Ġspeech	45551
Ġeat	45506
Ġknows	45477
kg	45470
Ġempty	45455
.$$	45443
ĠMichael	45443
Ġauto	45425
ă	45423
ĠSunday	45416
ĠDis	45414
Ġestimate	45403
air	45395
Ł	45386
Ġexamples	45375
Ġleader	45364
Ġabuse	45362
Ġcovered	45358
ram	45356
Cs	45356
Ġcharges	45349
Ġtransmission	45342
Ġinterview	45322
ĠPress	45307
Ġserum	45290
Ġexception	45290
Ġcool	45286
ĠBig	45270
Ġahead	45250
ĠCA	45246
Ġregulation	45234
Ġliterature	45224
ĠJapan	45202
CE	45187
ĠMac	45187
cy	45160
IG	45159
Ġpr	45134
Ġsubstantial	45106
Ġaware	45106
CF	45098
Config	45097
Ġsigned	45089
Ġopened	45079
Ġhusband	45075
Ġfix	45075
apache	45034
Ġimplementation	45027
itation	45024
ĠWhy	45021
Ġ()	45021
Ġscene	44992
Ġfair	44981
Ġguess	44980
Ġfluid	44971
Ġcustomers	44939
ky	44914
Ġchurch	44888
ĊĊĠĠĠĠĠĠ	44868
cd	44849
Ġoccurs	44841
Some	44839
ign	44806
ĠTheorem	44771
Ġgraph	44767
Ġplasma	44755
·	44731
Ġrecorded	44718
lic	44704
Ġdelivery	44696
Ġcompounds	44691
you	44677
DR	44673
num	44657
Ġdecisions	44656
ĠAT	44641
Ġdiscuss	44608
ble	44592
local	44566
Ġextension	44553
Ġreceiving	44529
Ġevaluated	44524
Ġnetworks	44502
PD	44495
pping	44488
HE	44484
Ġvisual	44477
©	44464
Ġinner	44464
Button	44450
Ġallowing	44450
Ġcalling	44448
Ġexact	44439
Ġextended	44437
Ġcarbon	44437
Ġleaves	44419
ĠAmericans	44414
Ġviolence	44385
own	44374
men	44360
Ġsuit	44337
Ġ75	44331
Ġhaven	44330
Ġpercentage	44316
ĠFrench	44316
Ġdigit	44293
ĠUnion	44290
first	44285
Ġoutcomes	44275
Ġestablish	44265
Ġconcerns	44223
Se	44210
Ġassessment	44189
message	44176
Ġsubsequent	44173
endif	44172
Ġleaving	44163
Ġthousands	44158
ĠCommittee	44150
Ġ2003	44131
ENT	44107
Ġtestified	44102
Ġhelped	44100
Ġmm	44098
med	44085
ĠAD	44074
Ġmostly	44072
Ġunderlying	44037
Ġowner	44034
Ġimmune	44017
ĠLeague	44010
Ġbirth	44002
Ġarguments	44000
ĠFinally	43993
Ġkill	43972
ĠCO	43959
Ġsale	43958
ched	43955
\{	43946
ĠTest	43946
Ð¸	43943
Ġefficiency	43936
Ġinstall	43926
ĠDuring	43913
arn	43904
ĠTuesday	43901
aut	43895
ł	43892
Com	43864
Ġmuscle	43839
ĠUnder	43802
Ġrepresented	43765
Ġthank	43738
ĠUsing	43732
Ġcriteria	43722
gg	43703
Ġcentury	43698
ĠEd	43678
Ġraise	43670
Ġdebt	43670
current	43667
ford	43664
ining	43660
)=\	43659
Ġcr	43650
ĠĊĠ	43615
»	43610
Ġgreatest	43589
ĠCT	43578
Ġexamined	43577
ater	43561
ĠChrist	43533
zeta	43525
2013	43521
isation	43505
null	43496
ľ	43481
Ġspecified	43462
Ġlearned	43461
ores	43422
Ġeventually	43408
ĠDay	43405
Ġbooks	43396
)"	43389
ĠOther	43387
Ġbreast	43366
Ġadult	43365
Ġ39	43357
Ġpowerful	43352
Source	43343
Log	43340
ĠNe	43338
Ġrec	43317
Ġevolution	43307
EX	43302
Ġcandidate	43288
į	43275
Ġcurve	43269
Ġtransport	43264
Ġdry	43231
uring	43228
position	43218
Ġdepends	43208
2014	43199
Ġlimitations	43191
2016	43178
ĠMany	43152
Ġpositions	43133
book	43122
Ġlicense	43115
Ġpeak	43091
pc	43087
ĠAS	43064
Ġsm	43061
Ġscheme	43035
df	43029
ient	43025
}+	43019
Ġplane	43015
ĠGermany	42997
ices	42994
Ġ64	42993
ĠJudge	42986
Ġvoltage	42981
font	42979
101	42968
di	42944
ops	42934
Ġstream	42929
ĠâĢ¦	42927
Ġinvestigated	42926
)*(	42914
Ķ	42905
Ġyes	42902
Ġenjoy	42875
'.	42869
Ġche	42867
ĠAdd	42841
Ġachieved	42831
ĠĠĠĠĠĠĠĠĠĠĠĠĠĠĠĠĠĠĠĠĠĠ	42797
FT	42795
ĠScience	42789
ored	42778
Ġtypical	42771
?âĢĿ	42764
ode	42761
ĠIII	42755
ising	42746
000000	42742
Ġpathway	42734
Ġcustom	42727
Ġgoals	42713
Ġpurchase	42708
æ	42704
Ġ${{\	42686
Ġmixed	42685
berg	42674
BA	42668
ĠNone	42661
Ġchanging	42653
Ġpolicies	42635
ĠEq	42635
RT	42632
ĠCollege	42631
Ġglass	42616
Ġweak	42614
Ċĉĉĉĉĉ	42598
Ġcivil	42588
Ġ00	42585
Ġ44	42581
Client	42574
Ġprocedures	42533
Ġstandards	42526
dependent	42515
supplementary	42498
Ļ	42482
Ġrecovery	42480
oss	42475
RS	42474
These	42459
Ġflat	42458
Ġfish	42456
Ġapplicable	42443
ĠAssociation	42442
Le	42440
Ġgranted	42430
Ġcomplaint	42430
Ġspend	42411
Box	42399
Ġfilms	42396
Ġaut	42370
dots	42362
dimensional	42362
Ġ2001	42352
Ġsold	42347
mat	42345
Ġdiet	42332
ined	42328
ĠArt	42312
icon	42290
ĠGovernment	42290
put	42286
erm	42274
Then	42265
Ħ	42257
Ġsu	42231
Ġtrain	42225
xml	42202
Ġacts	42190
Ġisolated	42188
long	42168
Ðµ	42128
Ġfavor	42117
DB	42095
Ġdesired	42085
Ġdelay	42069
ute	42067
Ġformula	42058
ves	42055
Ġevaluation	42041
Ġseeing	42034
parent	42010
lang	41995
,'	41976
Ġeasier	41964
Ġbus	41958
ography	41956
section	41932
Ġsubstrate	41922
ave	41917
BL	41892
json	41889
Ġlabel	41883
Ġmanager	41866
Ġsections	41857
Ġindeed	41845
Ġsurvey	41844
Ġstrongly	41829
Ġrelief	41821
Ġtraffic	41817
Ġdetailed	41798
Ġfunds	41782
ĠMark	41775
Ġinvestment	41760
light	41751
Ġquick	41749
Ġbaby	41748
Ġbroad	41730
Ġfuel	41729
Ġobvious	41716
Ġsk	41714
Ġchosen	41699
eps	41687
Ġfourth	41682
Ġ55	41664
button	41656
$$\	41653
Don	41650
Ġbrief	41649
Ġentitled	41637
Ġ{{\	41634
Ġmaster	41630
FS	41607
ĠChurch	41606
2012	41604
oe	41583
CG	41562
$(	41554
Ġsell	41547
Ġfreedom	41547
Ġcategory	41539
Ġstored	41537
target	41515
ran	41508
RA	41463
Ps	41457
md	41440
Ġcommitted	41437
Ġjoin	41428
}.	41423
ĠCor	41416
ush	41411
Ġant	41398
}=\	41397
Ġdaughter	41397
Ġcluster	41397
Ġmeant	41378
cast	41372
Ġduty	41368
Ġconclude	41359
Ġconsidering	41339
ĠInter	41328
Ġ65	41318
Ref	41316
ĠWhich	41312
bi	41306
Ġdirected	41298
ĠEngland	41276
Ġassay	41270
Ġspot	41269
ĠBr	41245
Ġpayment	41211
ptr	41206
cs	41203
Ġclick	41202
Ġthanks	41200
ĠFlorida	41180
Ġprices	41163
Ġwind	41146
Ġelectron	41124
Ġforced	41103
Ġdocuments	41098
Element	41089
Ġreligious	41082
ĠParty	41069
ency	41048
{{	41035
Ġdistinct	41023
2017	41013
Ĳ	41010
Ġlisted	40994
300	40984
Ġcup	40958
ifying	40941
Ġvictim	40936
context	40923
work	40911
can	40905
Ġdraw	40901
Ġind	40862
ĠThursday	40848
Ġdetermination	40839
Ġapparatus	40838
ĠPer	40837
ĠCopyright	40827
Ġstories	40822
Ġequations	40816
Ġskills	40808
Ġconflict	40801
Ġbr	40798
Ġfocused	40796
MT	40793
Ġimp	40781
¥	40756
Ġdepending	40755
low	40751
Ġplate	40746
Ġ300	40730
Ġwaiting	40712
Ġlose	40699
¤	40694
Ġvirtual	40674
Ġplays	40670
_{{\	40658
Ģ	40652
}}^	40642
ĠWednesday	40635
Ġpush	40633
Ġresulted	40628
Ġ2002	40611
Ġfans	40595
End	40564
Ġmeasurement	40560
Ġuint	40535
Ġrep	40526
ĠPC	40522
Ġconcern	40520
Ġobservations	40519
Ġpossibly	40514
scale	40491
ĠAP	40489
Ġversus	40487
Ġmodified	40468
Ġsmooth	40452
other	40451
status	40447
ural	40445
Ġbelieved	40444
rit	40441
Ġcast	40438
cdots	40421
ĠRussia	40414
"}.	40404
ĠSun	40402
ĠHIV	40381
ĠCI	40379
Ġregard	40378
ĠWell	40369
Ġprotocol	40346
ĠOpen	40330
Content	40325
Ġtreat	40313
ĠTime	40301
Ġexcellent	40299
Ġassuming	40289
ÃŃ	40278
OC	40252
event	40246
Ġneither	40223
Result	40222
UT	40215
Ġnodes	40209
Since	40196
ulation	40191
Ġfees	40183
Ġangle	40181
ĠPh	40180
Ġincident	40168
Ġfloat	40144
vel	40137
Ġoffense	40134
gu	40096
Ġtwice	40095
oma	40084
ĠLord	40078
Ġest	40066
Ġemployed	40062
Ġac	40051
ĠTrans	40047
Ġapproaches	40046
Ġcommunities	40042
Ġtend	40034
CM	40030
Ġdamages	40008
^âĪĴ	39998
inf	39984
urs	39969
Ġtouch	39952
Ġcompare	39949
Ġdetail	39937
ace	39936
SM	39905
ĠFree	39903
ĠAb	39893
Ġstreet	39888
Ġplanning	39881
ils	39863
\*	39860
ŀ	39854
Ġ41	39844
lock	39833
&\	39813
ĠWeb	39805
Ġresource	39799
Ġinvestigate	39796
part	39789
Ġsun	39786
ams	39767
Ġstanding	39765
ues	39761
format	39748
Ġsalt	39746
Ĺ	39736
Ġreplace	39729
ĠRes	39717
oph	39713
lo	39709
rop	39703
Ġdec	39703
Ġscores	39698
ĠWindows	39691
ka	39674
Ġconfidence	39661
Ġaccuracy	39643
Ġ120	39629
Ġfunding	39617
128	39611
Ġhelps	39578
CI	39570
ĠFile	39570
Ġconcerned	39569
¸	39566
gt	39565
]--[@	39562
/\	39548
Ġhousing	39537
Ġefficient	39530
Ġtrials	39521
else	39518
Ġintervention	39487
Ġsensitivity	39478
layout	39461
sk	39459
Ľ	39444
Ġ_{	39440
ĠSuper	39409
ĠEnd	39406
Ġmainly	39400
Ġguilty	39388
Į	39372
Ġbudget	39362
Ġboundary	39360
Ġasking	39353
Ġelectronic	39342
Number	39341
Ġadults	39328
£	39318
Ġrelationships	39318
ĭ	39295
ared	39291
ĠCircuit	39283
Read	39279
ĠSaturday	39250
Sp	39241
ĠJapanese	39239
Ġinvolving	39236
Ġexperienced	39228
was	39220
android	39214
%.	39212
Just	39196
cos	39185
^+^	39183
ãĢĤ	39176
Ġfinished	39171
Ġevaluate	39169
Ġexposed	39148
ki	39140
Ġsn	39131
akes	39118
client	39110
Ġexpansion	39108
Ġcontribution	39103
Ĥ	39088
Which	39085
Ġsignaling	39081
Ġextends	39073
den	39070
sm	39050
itis	39047
Ġadvice	39040
Ġsit	39034
Ġworse	39031
Override	39028
Base	39017
ĠSolve	39004
Ġed	38988
ĠJesus	38966
Ġframework	38960
Can	38956
ĊĠĠĠĠĠĠĠĠĠĠĠĠĠĠĠĠĠ	38956
2000	38945
Ġemployee	38944
"),	38933
aries	38932
Ġcontinues	38917
anc	38908
ĠÃĹ	38903
Ġcapable	38893
2010	38867
Method	38860
**]{}	38849
**(-	38846
2011	38835
ĠPD	38832
Ġcomposition	38826
ces	38814
Ġsettings	38809
ĠFederal	38800
Click	38799
Ġideal	38794
ãĤ	38787
čĊĠĠĠĠĠ	38779
Ġdepartment	38775
Ġassessed	38770
ya	38766
Ġintensity	38766
ĠAustralia	38763
ĠInternet	38735
007	38713
)^{	38705
¬	38689
ull	38674
:\	38673
lt	38666
iter	38662
Ad	38646
201	38645
cent	38639
FC	38637
ĠOffice	38625
Bar	38621
.**	38614
ĠGeorge	38606
aps	38579
END	38575
Ġordered	38575
Ġadvanced	38570
Ġdemonstrate	38567
Ġbiological	38565
ba	38556
Ġguide	38555
Ġgrant	38548
Ġplaintiffs	38546
ently	38538
OK	38518
Ġrelates	38513
Note	38505
rac	38498
006	38471
ville	38469
Ġpeace	38426
Ġmurder	38423
''	38405
´	38403
Ġpersons	38399
De	38389
Ġgold	38371
Ġfirm	38351
Ġcash	38344
SH	38342
²	38338
Ġbrother	38331
Ġscope	38329
Ġstrain	38315
entry	38314
Ġchallenges	38312
Ġpotentially	38306
Ġ49	38306
ĠGood	38301
Ġsecret	38296
Ġsuitable	38294
Ġ47	38288
Ġimaging	38281
mail	38272
Ġ46	38266
module	38258
Ġhumans	38256
Ġvelocity	38252
Tr	38246
ĠPlease	38236
gh	38235
Ġcol	38233
Ĩ	38217
Ġjoint	38211
Ġinterval	38205
Ġconsent	38197
Ġconference	38194
Ġrats	38188
¯	38185
Ġdecide	38183
Ġstopped	38179
Ġfill	38178
Ġstatistical	38135
wood	38134
Ġimprovement	38108
Version	38087
ily	38082
uint	38080
ĠPar	38076
ĠĠĠĠĠĠĠĠĠĠĠĠĠĠĠĠĠĠĠĠĠĠĠĠ	38066
âĢĿ,	38042
rol	38041
Simplify	38020
Ġassess	38015
ĠDefendant	38004
ĠĠĠĠĠĠĠĠĠĠĠĠĠĠĠĠĠĠĠĠĠĠĠ	37993
Ġengine	37991
Ġins	37987
Ġclaimed	37981
Ġremained	37971
Ġthin	37954
Ġ43	37952
ĠNO	37921
Out	37896
Ġspring	37863
Ġended	37861
ĠType	37849
Ġsides	37820
Ġburden	37820
Ġunknown	37813
Ġpartial	37807
Ġduration	37797
Ġchief	37791
ĠUse	37786
Res	37785
Ġreflect	37767
Ġap	37764
Ġecho	37750
Ġsuggesting	37748
¦	37740
Ġran	37737
ĊĠĠĠĠĠĠĠĠĠĠĠĠĠĠĠĠĠĠĠĠĠĠĠĠĠĠĠĠĠĠĠ	37736
ĠRussian	37735
Ġorigin	37714
load	37711
ery	37710
Ġfrequently	37689
Ġpool	37683
ĠHar	37683
iff	37680
Ġdiscovered	37679
ãĥ	37676
Ġhence	37657
Ġund	37650
120	37641
ĠÂ£	37641
¢	37634
Ġdoctor	37627
§	37613
ĠRepublican	37596
>(	37589
Ġbag	37588
Â»	37586
ĠFurther	37557
INT	37553
ĠGen	37544
rad	37541
Ġreverse	37534
Ġargues	37517
ĠRule	37516
cher	37490
)}\	37486
Ġlimits	37465
Ġnine	37460
izes	37448
~~~	37442
Ġnecessarily	37433
Ġ150	37397
ott	37396
ĠGo	37386
kin	37375
oth	37372
ris	37367
Ġarms	37364
According	37348
Ġannual	37338
ĠANY	37300
Line	37291
iles	37283
mg	37272
Ġcourts	37268
2018	37267
Ġseconds	37242
Ġ56	37233
Ġradiation	37223
Ġaxis	37217
Ġvariation	37215
Ġassembly	37206
Ġstability	37191
ME	37190
ext	37185
Ġintent	37175
ado	37166
)]	37144
ĠMinister	37125
select	37121
orn	37119
Ġthread	37119
Ġboy	37119
ĠHence	37117
*/	37109
build	37101
Ġwidely	37087
AV	37076
onic	37047
Ġfail	37035
Ġacute	37034
Ġantibody	37022
Ġthereby	37017
ĠAir	37015
Ġdefinitely	36979
ĠTwitter	36970
Ġthreshold	36967
ato	36965
Ġoral	36955
/(	36942
Ġprovision	36942
Ġice	36922
------	36920
Ġseek	36887
Ġlinked	36884
ı	36882
cor	36881
Ġrich	36866
Ġaspects	36855
ĠJohnson	36852
img	36839
Ġneuro	36814
Ġattacks	36807
ĠSecond	36801
ĠNS	36800
used	36799
Ġkeeping	36795
Ġimplies	36787
Ġnumerous	36784
References	36771
Ġpopulations	36771
ĠFrance	36770
Ġindicating	36751
ĠGerman	36747
Ġcap	36746
Ġrelations	36732
Ġpull	36726
Ġstarts	36724
Page	36715
Ġforth	36711
ĠClass	36694
Ġmixture	36679
ĠJustice	36673
ĠOnce	36663
ĠIT	36661
Ġelectric	36658
Ġidentification	36657
Ġfundamental	36645
ĠPart	36623
Ġopposite	36619
Ġrare	36616
Ġaccepted	36612
ĠChristian	36595
³	36593
Action	36582
Ġes	36572
Ġlung	36562
ĠOnly	36562
NO	36557
ĠĊĠĠĠ	36555
Ġinterpretation	36552
Ġmortality	36546
Ġunable	36544
Ġrev	36530
Ġinstructions	36529
Ġentirely	36525
Ġviolation	36523
Ġmission	36513
std	36512
âĢ²	36504
Ġcoach	36501
Response	36488
ux	36485
([	36483
Ġtruly	36481
En	36475
Ġabsolute	36475
Ġrecognized	36466
Psi	36465
Ġsupposed	36457
Â·	36450
ult	36450
Ġcellular	36432
Ġbone	36425
Ġgonna	36422
\/	36421
ĠSal	36411
abs	36405
ously	36399
msgid	36397
Start	36392
Ġpractices	36389
author	36379
Ġaward	36370
Ġgirls	36364
Ġfraction	36355
"})	36354
side	36337
Ġcontribute	36335
Ġnotes	36334
Ġarrest	36300
ny	36294
Ġparallel	36289
Ġdegrees	36288
met	36285
ĠPR	36280
AND	36275
MC	36273
ĠBay	36272
Ġends	36268
Ġpartner	36260
Status	36250
Ġmassive	36249
ĠBrown	36249
Ġsupporting	36247
Any	36235
last	36234
ĠAny	36229
Filter	36207
msgstr	36206
ī	36195
Ġmouth	36192
xe	36182
ĠTom	36181
ĠSenate	36178
next	36167
Ġaim	36150
png	36140
Ġtrip	36137
sin	36131
Ġresponsibility	36123
ew	36120
¶	36096
})\	36093
request	36087
Ġsigns	36085
$)	36083
Ġbecoming	36082
Ġmiles	36081
Ġemployment	36075
Im	36063
EST	36055
Ġattached	36018
Ġtag	36008
Ġappearance	36002
ĠPe	35997
Ġcamera	35996
Ġtechnical	35970
Solve	35922
Ġdisk	35906
PI	35891
Ġcompound	35888
Ġhole	35884
Ġmanaged	35882
Ġresidents	35879
Ġroute	35876
ĠIndian	35869
MR	35866
ien	35864
ĠGive	35857
Input	35850
Ġdependent	35840
ĠFe	35813
ĠOut	35800
400	35797
Ġvitro	35797
Ġminute	35794
Ġmolecules	35791
Ġmark	35791
Ġcat	35790
widehat	35787
Ġenable	35777
Ġconcluded	35775
ple	35767
Ġdynamic	35765
call	35756
Ġdu	35752
ĠUN	35747
RI	35743
\]).	35735
ĊĠĠĠĠĠĠĠĠĠĠĠĠ	35720
ĠMS	35702
¾	35700
Ġcommonly	35677
Ġamounts	35677
PH	35675
Ġplot	35636
Ġdetect	35613
Ġassigned	35613
option	35612
match	35609
Ġconsideration	35607
BP	35605
Ġlo	35587
media	35574
PE	35563
car	35556
Ġphoto	35555
ĠPre	35531
Ġunderstood	35524
Ġarticles	35520
Ġph	35516
Handler	35514
frame	35512
Ġdynamics	35512
ĠTheir	35510
ett	35490
Ġsought	35488
Ġrequirement	35479
ĠDE	35478
assert	35472
ĠInstead	35463
SU	35461
search	35445
ĠMal	35444
Ġeffectively	35426
Ġaccurate	35410
Ġyield	35409
Ġexpert	35395
Point	35394
IB	35389
output	35387
Ġconnect	35380
oz	35374
query	35349
Ġship	35343
Ġgap	35334
ĠFl	35330
Ġestimates	35320
Ġsem	35313
Ġjurisdiction	35311
du	35310
Ġsensitive	35296
Ġdist	35280
à¸	35278
vent	35272
Ġspaces	35235
Ġtemplate	35233
gs	35229
Ġ52	35222
Ġfilled	35220
ĠAfrica	35209
ique	35208
Ġfeed	35197
server	35187
ĠPlaintiff	35186
**,	35180
}}{\	35179
Ġsplit	35173
Ġquarter	35163
house	35160
¼	35152
ada	35134
cr	35130
Ġdecades	35113
ita	35095
Ġusual	35090
Ġmessages	35082
cre	35081
ijms	35079
xt	35068
FL	35068
ĠThomas	35062
Ġbinary	35057
Ġ51	35054
Ġestate	35050
ĠAPI	35038
TA	35036
Ġoxygen	35030
Ġjustice	35027
Ġspending	35013
Last	35009
Your	35004
Ġles	35002
unt	34988
ĠPCR	34988
#:	34961
Ġseeking	34960
ĠTimes	34934
Ġwww	34926
Ġadmitted	34924
Ġsenior	34908
Co	34895
ĠBill	34895
Ġfavorite	34869
ĠRiver	34867
stream	34807
web	34806
Please	34806
Ġcm	34800
Ġstrategies	34765
ius	34762
ains	34740
ĠEarth	34730
non	34727
Ġobjective	34725
Web	34724
cer	34718
Ġconsumption	34717
ĠTe	34703
++)	34693
Ġsqrt	34688
obj	34674
ries	34671
aff	34670
Ġdepth	34670
Ġ72	34668
star	34663
ĠWill	34657
==========	34655
Ġbroken	34649
è	34645
ination	34643
Ġassistance	34637
prop	34630
ERS	34630
Ġcharacterized	34621
------------------------------------------------	34609
mL	34590
Ġgender	34589
otic	34583
uses	34571
ider	34566
)[	34563
uss	34557
Ġearth	34556
ĥ	34548
Ġnorth	34545
Yeah	34530
Ŀ	34529
ĊĠĠĠĠĠĠĠĠĠĠ	34521
ua	34506
Ġsmallest	34503
ĠAR	34485
LA	34464
Ġcompetition	34463
float	34448
Ġminor	34446
Ġadvance	34438
amine	34437
Ġpredicted	34436
subset	34422
ĉĉ	34420
Ġemission	34413
2008	34410
ĠIndeed	34410
GA	34408
private	34397
Ġtissues	34379
Â¸	34366
Äģ	34363
>>	34353
hand	34346
Ġorders	34331
Create	34316
ĠOver	34316
Ġwitness	34307
fold	34295
Ġbrand	34283
ura	34281
OW	34259
ards	34258
Ġfan	34251
Ġneurons	34231
}/	34230
ĠRobert	34228
ony	34215
Ġ[]	34214
Ġprinciple	34213
Ġscientific	34203
ĠInd	34202
Two	34183
Ġpages	34180
Ġexpensive	34167
Ġmarriage	34157
Ġzone	34140
]{},	34135
dy	34125
ense	34124
ĠFIG	34122
Ġrecommended	34114
ĠMedical	34103
').	34096
Ġsupports	34084
tab	34053
Ġfell	34052
Ð°	34039
ĸ	34037
ern	34033
Ġcustomer	34032
Ġ54	34022
Ġcorner	34019
Ġparticle	34014
ĠIm	34000
;&	33998
Ġpieces	33997
ani	33994
Ġdimension	33955
Ġmanuscript	33947
Ġconfig	33933
ĠHall	33927
rest	33920
2009	33920
Ġwatching	33917
acc	33904
ĠInformation	33901
more	33876
ison	33875
Ġcausing	33832
Ġthreat	33811
Ġsuccessfully	33809
Ġtelevision	33807
Ġmargin	33797
Ġfund	33794
show	33793
ĠIV	33793
Ġchannels	33792
¿	33787
Ġ1999	33771
ĠRef	33768
Ġinfo	33749
split	33739
Ġbaseline	33738
Ġtargets	33728
ĠGe	33690
ella	33679
Ġver	33672
Ġag	33671
rate	33659
Ġsupra	33650
Ġreducing	33648
Ġcrisis	33641
aring	33640
Me	33639
ĠHospital	33633
Ġdisc	33631
Ġpure	33627
ĠSam	33614
Pl	33597
ĠEU	33597
GE	33578
Ġlargely	33560
Ġbattle	33553
"]	33550
Ġunion	33549
Ġimpossible	33547
ĠpH	33542
Ġinhibition	33525
Ġcomp	33525
ĠPA	33519
ico	33513
Ġcomposite	33505
Ġmod	33504
Ġgrand	33488
oon	33487
Ġautomatically	33481
Ġpetition	33473
iation	33464
ĠSD	33460
find	33454
ear	33441
Ġsitting	33438
Ġinstalled	33434
Ġinformed	33433
ĠMath	33430
ips	33425
ļ	33423
Ġer	33394
rap	33391
Ġdiabetes	33386
Ġpromote	33384
Ġauthorities	33383
ump	33381
Ġresearchers	33366
ĠAL	33339
ª	33322
css	33315
Ġsat	33305
SL	33300
Ġstructural	33299
ĠObject	33291
ĠSoftware	33253
Ġdev	33243
Ġexamination	33242
ga	33240
Ġmarried	33239
ĠGL	33233
Check	33230
Ġorganic	33229
ĠField	33226
Ġsector	33221
Ġent	33212
ĠCentral	33209
ĠAss	33200
ħ	33196
Ġcompact	33187
///	33184
och	33179
Ġdisorder	33171
Ġ[[	33167
Ġwaste	33162
Ġrepresentative	33151
ĠSE	33150
ĠTR	33137
ĠIP	33125
ho	33122
root	33102
UL	33102
Ġstrains	33090
ished	33084
Next	33080
Ġorgan	33071
Ġmix	33063
Ġweekend	33055
Ġproportion	33052
Ġseat	33051
Ġputting	33046
Ġvisible	33044
ones	33038
ition	33018
cf	33015
Ã¶	33005
Ġjoined	33005
```	32995
Ġfaster	32991
Ġconcerning	32986
ĠLemma	32985
ĠIran	32965
Ġreplaced	32951
Ġfacilities	32943
Ġobservation	32941
Ġfinish	32939
number	32933
Mr	32933
ĠIts	32933
ĠAfrican	32933
Ġsolve	32931
MD	32925
ĠView	32923
Ġdebate	32919
Ġoffset	32912
Thanks	32906
ĠChicago	32895
Ã¤	32890
ĠGreat	32886
Ġlib	32882
Ġherself	32874
Ġrefer	32832
va	32826
Where	32814
Ġacting	32809
arch	32805
Ġsea	32799
Ġwilling	32798
Ġcitizens	32797
Ġ101	32793
Ġlayers	32780
)/(	32779
Are	32773
Although	32769
Ġmention	32754
ĠAnother	32730
za	32729
Ġsugar	32727
Ġhomes	32723
Ġsouth	32720
arc	32717
Ġantibodies	32711
Ġassumed	32707
Ġdangerous	32699
rt	32696
options	32689
ĠClinton	32689
Ġturns	32685
ATION	32684
Ġprison	32682
Ġcandidates	32675
NAME	32654
Ġinvolves	32643
ĠmRNA	32636
Another	32617
ned	32614
Ġmerely	32610
Ġmatters	32609
Ġcons	32593
Ġemergency	32589
IO	32588
150	32583
Ġurl	32578
ced	32571
ĠLong	32571
ographic	32563
Ġdepend	32562
Label	32549
GF	32549
ĠSecurity	32538
ĊĊĠĠ	32533
append	32524
Ġ1990	32514
ral	32512
Ġcontainer	32509
ends	32502
Ġdifferential	32495
Ġexperiences	32478
Ġperspective	32471
Ġleg	32467
Ġhundreds	32465
Ġhundred	32453
ĠAre	32450
º	32429
Ġ2020	32420
Ġflag	32417
ĠHuman	32416
Ġ*)	32409
Ġwh	32402
Ġpassing	32397
Ġamazing	32396
Ġlowest	32394
Ġexplore	32386
Ġpairs	32384
Ġexecutive	32384
Ġsur	32382
ges	32368
Ġdetermining	32366
Ġrepair	32357
space	32355
equiv	32334
ĠBo	32302
ĠSl	32297
ĠMA	32284
Ġlived	32281
Ã³	32280
ATE	32275
Ġaspect	32261
aged	32260
mit	32259
Ġclosely	32243
Ġbias	32237
Default	32225
word	32212
ĠÃł	32199
]);	32198
Ġproved	32192
ased	32180
mid	32179
Ġextract	32179
Ġdirectory	32175
ubuntu	32173
Ġaid	32168
Ġwrt	32159
Ġouter	32158
Ġmenu	32156
ident	32155
Ġiron	32149
Ġposted	32134
Ġser	32131
Ġnative	32131
Ġwalking	32120
yp	32116
ula	32109
Ġpolitics	32109
Ġformal	32095
Ġconversation	32092
Ġop	32081
Ń	32069
era	32060
Ġliability	32060
Ġsweet	32037
Ġ---	32015
Ġtrees	32000
Ġmilk	32000
Ġargue	31998
hel	31983
Ġprincipal	31969
ond	31955
.-	31941
Ġmonitoring	31937
Ġtelling	31934
Ġprimarily	31930
>,	31925
ĠON	31905
Ġsignificance	31896
Ġblocks	31890
Ġbranch	31881
args	31874
Ġinitially	31870
Ġtrend	31867
uff	31862
Ġloved	31856
ln	31810
URL	31809
enn	31794
Ġvivo	31793
Ġcities	31793
Ġoperators	31789
mb	31779
Ġwonder	31757
Ġrespond	31752
008	31738
ĠGl	31736
Ġphotos	31733
Ġ53	31724
ises	31717
Ġass	31717
Ġlots	31714
description	31712
¹	31711
00000	31704
Ġdollars	31698
Ġinjuries	31682
Ġsecure	31678
Ġfont	31673
Ġeating	31672
Ġvision	31670
ree	31669
Man	31665
method	31664
*^	31661
ups	31651
Ġdelivered	31643
Ġimplemented	31636
Ġmaps	31633
mark	31632
yt	31627
110	31627
Ġdisorders	31614
Ġdrink	31612
Ġwear	31607
160	31598
documentclass	31593
Ġbusinesses	31564
Ġ\{	31552
ĠControl	31532
Ġcontributions	31531
Ġconsists	31529
Ġ99	31529
ç	31521
Ġinjection	31516
pa	31514
Ġgr	31506
oke	31504
SI	31492
minimal	31491
Ġsensor	31484
Ġaccordance	31484
Ġnum	31469
ĠDi	31465
BR	31440
Ġexp	31440
ĠLife	31438
ĠJones	31438
Ġgrown	31434
Ġbigger	31431
ĠÃ	31429
Ġenhanced	31429
Ġ1998	31427
Ġoptimal	31426
==	31424
Ġwarm	31423
Ġcloser	31419
Ġleadership	31416
ĠÎ²	31387
ĠDec	31359
home	31350
mem	31334
Ġbodies	31323
Cell	31300
Ġlabor	31291
Part	31283
Ġrapid	31280
ĠRE	31278
Ar	31270
CIT	31269
Ġlaser	31269
called	31256
ĠProject	31245
ios	31243
BI	31243
ĠĠĠĠĠĠĠĠĠĠĠĠĠĠĠĠĠĠĠĠĠĠĠĠĠĠĠ	31243
Ġterminal	31233
Ġcaught	31233
["	31229
Ġaccounts	31229
Stream	31224
Ġorganizations	31221
Ġtransform	31210
Ġgenome	31207
Ġapparent	31206
ivity	31205
Ġleague	31201
ibility	31200
Ġlocations	31199
jpg	31193
Ġextend	31190
real	31174
Ġte	31170
Ġconsequences	31163
Ġhom	31155
Ġillegal	31152
sup	31149
Ġopportunities	31148
Ġsorry	31146
Ġminimal	31135
DC	31132
Ġelectrical	31131
Layout	31109
ming	31108
ola	31102
buf	31097
Ġcorrectly	31081
Ġdownload	31065
ĠBen	31061
Ġfigures	31049
Ġmaintenance	31044
Ġrepeated	31033
Call	31032
####	31030
1000	31021
Č	31013
)+	31011
Ġarrived	31010
Ġdenote	31006
Ġpp	30994
PRO	30984
Ġfacility	30982
Ġav	30981
opt	30972
Mode	30972
ĠĠĠĠĠĠĠĠĠĠĠĠĠĠĠĠĠĠĠĠĠĠĠĠĠ	30972
Ġthermal	30965
ĠChe	30950
**(	30937
Ġclosest	30926
Ġthoughts	30921
ĠÃĳ	30919
Ġpathways	30913
control	30911
Ġprevalence	30909
UM	30907
Ġden	30900
doc	30897
ired	30884
ĠSH	30884
±	30882
Ġrecommend	30875
Ġaccident	30869
template	30867
lem	30865
only	30853
Ġinternet	30851
Ġev	30850
Ġsyndrome	30843
2006	30838
Before	30809
isc	30791
ĠReg	30790
strong	30788
Ġremoval	30788
rain	30787
^-	30782
®	30776
ough	30766
Buffer	30763
Ġtrouble	30755
Ġpointed	30746
Ġdisplayed	30746
Ġdiv	30745
Format	30742
Ġsurrounding	30741
^+	30734
ĩ	30728
Ġmutations	30714
Ġfruit	30707
ĠName	30698
Ġabsolutely	30686
\]),	30672
Net	30672
Ġpractical	30666
ĠMa	30663
uck	30659
]^.	30659
Ġpark	30659
ĠDemocratic	30649
Ġinstruction	30647
alt	30645
Ġupdated	30640
win	30633
Ġcreation	30628
ĠTH	30616
Ġapparently	30598
Ġintegrated	30584
Ġbacteria	30567
comp	30563
***	30550
msg	30535
ĠCup	30532
Ġclients	30530
Ġstages	30527
More	30504
ero	30470
2007	30466
TC	30460
sw	30457
Ġ1997	30453
Ġhelping	30416
2019	30403
mo	30395
Ġdepression	30395
align	30393
Ġ400	30383
Ġspectra	30380
itch	30377
Ġmedian	30372
Ġevening	30369
Ġemotional	30366
Ġcoupling	30365
Ġscreening	30359
Ġconviction	30356
Ġsounds	30345
Ġimplied	30345
});	30339
Ġ1000	30336
iness	30330
Ġregression	30329
Ġforget	30324
mar	30319
Ġadopted	30316
MM	30306
OH	30302
Ġsubmitted	30297
small	30295
oper	30293
Ġsports	30284
Ġkitchen	30283
ĠAppellant	30282
sensors	30278
host	30278
Ġ58	30275
txt	30272
Ġtight	30265
Ġcommittee	30263
Ġtopic	30221
umb	30206
Ġ96	30199
si	30186
Â¶	30181
Ġneck	30179
Ġbeam	30177
Ġconstructed	30163
Ġ110	30162
ware	30159
ĠPolice	30158
Ġargued	30150
Ġsynthesis	30149
pdf	30144
Ġdescribes	30135
rich	30129
Ñĥ	30125
flow	30122
Ġpictures	30121
Ġclassical	30118
Ġdogs	30105
ias	30104
Ġmine	30101
VE	30091
Ġprovisions	30089
ote	30088
čĊĉĉ	30088
Ġamino	30086
Ġmanage	30083
Ġsolar	30076
oring	30073
Query	30066
Ġ"(	30058
250	30056
Ġimplement	30046
Ġepisode	30046
Form	30024
ĠRT	30002
HS	29995
high	29991
ë	29990
rec	29989
Ġcharacteristic	29989
Ġcounts	29987
ĠSP	29978
Ġconstruct	29977
ĠRead	29974
wise	29968
google	29964
Ġapart	29963
Ġessentially	29960
aker	29959
Ġplastic	29959
Ġsheet	29951
Ġ57	29942
Col	29931
Ġmarked	29920
Ġcopyright	29920
Ġmeat	29917
ĠCall	29914
Factory	29911
under	29891
}{-	29879
}^\	29877
Ġ\>	29877
Ġtasks	29875
Ġtotally	29874
ĠGr	29868
Rev	29862
Ġbright	29849
Ġexplanation	29848
-(	29840
Ġmarkets	29838
Ġremote	29835
125	29819
Ġdiscretion	29819
Ġpan	29815
Ġcategories	29815
center	29814
Ġspatial	29807
tag	29796
Command	29794
ĠIll	29784
ĠOS	29777
Ġtaxes	29775
¨	29772
dr	29771
Ġfeedback	29767
\"	29757
Ġguidelines	29757
ĠĠĠĠĠĠĠĠĠĠĠĠĠĠĠĠĠĠĠĠĠĠĠĠĠĠ	29757
ĠDC	29735
setlength	29727
package	29713
Ġhypothesis	29708
Ġspeaking	29696
Ġdream	29690
Ġmaintained	29685
ours	29672
Ġdesire	29660
ĠAN	29649
Ġapproval	29647
Ġchapter	29642
Ġ1996	29633
here	29626
Ġdeclared	29626
GR	29619
Ġregime	29616
Ġfashion	29615
Ġrecording	29613
Ġsoil	29611
Ġultimately	29587
Ġrat	29587
Ġ"""	29583
Ġ85	29578
}\,	29577
ands	29573
unk	29568
TO	29553
Ġshut	29553
ĠServices	29545
ĠCorp	29543
Ġimmediate	29535
={	29533
È±	29526
ora	29524
iding	29522
DM	29516
Ġoffering	29515
Ġlen	29514
aster	29502
amsmath	29496
ao	29481
ility	29480
pper	29479
Ġ59	29477
SR	29472
header	29466
Ġtells	29443
Ne	29428
bool	29412
ĠBE	29406
Link	29387
Ġreporting	29358
Ġraw	29358
}|	29350
cur	29348
Ġpreparation	29348
Ġidentical	29338
enc	29337
Ġtreatments	29333
ĠHome	29328
Ġguard	29322
Ġtherapeutic	29318
Ġconsole	29317
010	29314
Options	29309
service	29295
ĠSk	29289
=======	29285
Ġregister	29284
Ġlie	29283
Ġdraft	29282
amssymb	29274
Ġfamiliar	29270
NT	29268
MB	29267
Ġclassification	29265
ĠStar	29262
Resource	29253
Ġrealize	29230
ĠDevelopment	29226
][@	29219
Ġtransformation	29216
ĠIR	29210
amsfonts	29207
ML	29207
Ġneutral	29201
ĠMer	29201
Ġmodify	29200
Ġregulations	29197
hi	29196
Ġrecognition	29191
Ġbond	29190
Ġcoffee	29182
Open	29181
Ġsin	29176
Ġexamine	29172
Ġencoding	29157
TE	29155
Ġserving	29148
Ġmat	29148
Ġrespective	29145
Ġcurves	29142
Ġobviously	29141
Results	29140
mathrsfs	29136
Ġrequested	29134
amsbsy	29132
Ġprinciples	29132
upgreek	29131
ĠProgram	29130
ĠMor	29117
2005	29108
CON	29106
Style	29101
ette	29100
Ġspoke	29100
oddsidemargin	29097
aa	29094
ĠCheck	29092
wasysym	29091
Ġbeat	29090
Ġsurgical	29089
ided	29085
Ġincidence	29085
Ġ$(\	29075
Ġdiscovery	29070
fer	29069
Ġfinds	29065
Ġbars	29059
ĠMet	29059
Block	29057
Ġsituations	29057
Length	29052
ĊĠĠĠĠĠĠĠĠĠĠĠĠĠĠ	29045
close	29041
Ġtranscription	29037
Component	29032
ĠMicrosoft	29032
band	29019
ĊĊĊĊ	29018
qquad	29013
Ġhyp	28995
Ġtumors	28993
Ġexcess	28981
vector	28962
(*	28959
Ġtaste	28956
^,	28947
Up	28937
Ġcont	28931
ĠDO	28923
dx	28920
ĠLike	28920
ĠIsland	28920
ĠSecretary	28911
Attribute	28905
Because	28896
Ġworst	28891
Ġposts	28883
Ã¼	28879
RNA	28871
Ġion	28870
SO	28857
ĠAdditionally	28854
sa	28850
Ġlies	28841
Ġrotation	28835
ĠSocial	28829
Ġshooting	28810
ĠApple	28808
ĠText	28801
:(	28797
Ġcrucial	28787
ey	28773
ĠPol	28773
Ġinstant	28764
Ġsegment	28761
ĠMin	28755
ĠÎ±	28752
Ġyouth	28746
xy	28741
aging	28739
raw	28738
Ġcamp	28732
ales	28730
Ġconfirm	28724
Ġclimate	28709
Ġcompliance	28706
ĠAg	28706
Ġbought	28702
ĠDemocrats	28702
Ġhelpful	28700
Ġstem	28688
Find	28676
Ġcognitive	28674
Frame	28663
Ġassets	28657
Ġpulled	28654
ches	28643
Ġloan	28643
Ġder	28642
Ġge	28620
ĠRep	28620
2001	28616
Ġok	28610
atch	28605
Ġbehaviour	28601
neq	28588
eter	28582
Ġsomewhat	28575
Ġrequests	28571
iet	28570
Ġtransaction	28570
Ind	28559
Update	28558
Post	28549
Ġmiss	28549
Ġowners	28547
Ġworry	28531
Ġarrested	28522
mode	28515
Ġcontents	28511
ule	28507
ĠPeter	28501
Ġenforcement	28492
Ġhurt	28483
FE	28481
Ġruling	28475
256	28473
ci	28469
TD	28464
Supplementary	28460
Other	28460
Ġdrawn	28460
uit	28457
imal	28449
after	28449
TS	28447
ĠSociety	28433
Ġ66	28432
Token	28424
Ġteaching	28420
illa	28418
Ġreg	28407
âĢĺ	28396
ration	28388
Ġpreferred	28376
aking	28375
Ġglucose	28375
Ġ],	28364
Ġpossession	28351
Ġhate	28321
Ġhidden	28308
Ġinfected	28306
Ġtube	28283
Ġwood	28278
GG	28277
ĠPower	28273
ĠDes	28272
MO	28267
Ġdeaths	28266
Ġthick	28260
Ġdriven	28251
ĠDirector	28218
Ġlogic	28210
ope	28193
child	28180
Ġenzyme	28180
Ġfighting	28174
Ġapplying	28156
ĠThose	28156
Ġpicking	28145
Ġnormally	28136
ĠIraq	28131
ĠJan	28130
oles	28125
Ġintelligence	28124
%),	28122
Ġvoters	28118
bottom	28116
cont	28108
ĠJournal	28107
Ġnm	28099
Ġcentre	28095
ences	28094
push	28085
ĠRoad	28085
Ġpowers	28060
Control	28056
}^{(	28055
Ġnoticed	28055
]$	28054
Ġweapons	28052
Ġmult	28050
cp	28038
oll	28033
buffer	28025
Controller	28021
Ĭ	28019
)))	28015
Ġcarrying	28010
Ġill	28007
Ġrealized	28006
arr	28002
\|	27998
Ġcounty	27987
Ġlaunch	27986
ving	27975
ira	27972
Ġdivision	27964
rc	27958
Ġpermission	27954
Ġgrade	27953
Ġroles	27951
Ġassumption	27950
update	27949
Ġmechanical	27933
Ġvertical	27932
Ġcontroller	27927
Ġspectral	27926
ĠER	27923
Ġgrid	27921
Ġharm	27913
Ġproliferation	27907
conf	27906
Ġ&\	27899
ball	27895
how	27894
ĠCL	27893
Ġfiber	27887
Ġspirit	27884
ender	27880
Ġreads	27875
Ġphot	27874
eration	27863
}+\	27861
Max	27861
============	27858
ĠLee	27852
Ġourselves	27847
Ġcultural	27843
ÂĢ	27826
ĠAnt	27821
math	27820
filter	27820
None	27817
Ġregistered	27814
Ġvan	27810
molecules	27808
Ġtri	27805
Row	27801
Ġassault	27800
Ġacids	27800
Ġ62	27798
ĠModel	27797
Ġsubstantially	27794
ove	27793
response	27789
Ġattempts	27789
ĠDonald	27789
Ġinfections	27784
FR	27776
ĠEducation	27771
µ	27770
]]	27765
ĠVal	27746
Sc	27738
Ġhappening	27737
Tab	27716
ĠValue	27708
GT	27702
vis	27695
rou	27688
Ġaccused	27677
Ġseed	27670
Ġpet	27665
Ġmillions	27646
Ġexcited	27642
ĠWho	27641
pol	27640
Ġimagine	27637
Ġseparated	27633
)|	27614
ko	27607
ued	27598
Ġexperts	27581
Ġconversion	27577
2004	27567
NC	27557
Ġdiameter	27555
ogenic	27550
/>	27547
Ġpatent	27539
Ġpaying	27535
bound	27533
]\	27532
Ġdropped	27530
Ġpermit	27529
orm	27525
ĠWilliam	27522
iel	27501
Ġuniversity	27500
Ġcorrelated	27484
Ġmedicine	27480
Ġob	27478
GC	27477
ades	27474
ĠPa	27462
Inter	27458
Ġweather	27458
Ġcal	27457
People	27448
ires	27444
Â¼	27439
ĠMs	27431
Ġpo	27428
Ġnan	27424
Ġopposition	27422
Ġconsumer	27420
Ð¾	27418
Ġmetric	27414
Ġplanned	27413
Ġprop	27404
ĠAttorney	27400
Who	27399
Ġgate	27399
Ġlegislation	27397
Ġradius	27393
Ġ63	27386
arian	27384
MI	27367
ills	27366
break	27366
ida	27364
ĠHill	27364
ĠWilliams	27362
hr	27356
Ġstick	27350
Width	27346
ala	27345
ĠKorea	27342
Ġboolean	27337
lu	27335
Ġsister	27332
Ġinstitutions	27318
Ġnarrow	27311
ĠSte	27307
Ġlock	27306
ĊĠĠĠĠĠĠĠĠĠĠĠĠĠĠĠĠĠĠĠĠĠĠĠĠĠĠĠĠĠĠĠĠ	27290
é	27289
Configuration	27287
Ġ>=	27272
ially	27267
Ġpurchased	27252
element	27248
Ġhum	27248
ĠNa	27246
some	27244
Ġsizes	27238
Ġknowing	27233
Right	27224
Ġsmart	27223
Ġsimulation	27218
Ġconstitutional	27213
Ġreactions	27210
Ġfee	27206
Ġdocumentation	27202
Ġcars	27199
Ġfeels	27198
oms	27195
Ġcrystal	27191
AK	27187
DD	27144
UD	27128
rot	27120
water	27117
ict	27111
Ġintroduce	27102
leg	27091
ĠMartin	27090
Ġreliable	27089
ĠVol	27085
OU	27080
Ġalpha	27074
Ġ68	27073
Ġincreasingly	27070
Ġsharing	27063
ract	27061
Ġpromise	27058
(\[	27052
Ġviral	27045
Ġowned	27043
Ġokay	27042
Ġcoll	27040
mathsf	27036
Ġuniform	27031
ĠmM	27025
Ġtransferred	27023
Ġkinds	27016
Ġreligion	27009
Ġdomestic	27009
Ġcomplicated	26986
Ġentity	26980
ÑĢ	26978
ĠWhere	26973
Min	26967
Ġsubstance	26962
Ġconvert	26956
«	26954
fa	26953
Ġanswers	26949
ĠGNU	26945
=(	26933
ĠKe	26933
inated	26932
Ġvictims	26931
Ġrapidly	26924
Ġrecognize	26913
Ġoriginally	26909
ĠDivision	26909
ishing	26907
Ġforming	26907
Qu	26906
ained	26895
Ġsymbol	26887
now	26883
Ġacc	26883
)*(-	26868
Ġsetup	26867
Ġwine	26866
}}^{	26862
Ġrock	26852
Ġbo	26848
Ġslowly	26846
approx	26841
Ġ--------------------------------	26838
Ġbrowser	26830
Ġext	26807
Ġcorporate	26807
files	26803
Ġbio	26799
{-	26788
Ġextensive	26785
Ġacquired	26778
255	26777
Also	26775
Ġanyway	26773
ĠPort	26772
ĠMexico	26765
ĠKey	26762
Ġsa	26759
Ġclock	26752
Ġ1995	26749
Function	26748
Over	26746
Ġtheorem	26740
Ġdust	26740
ĠEvery	26737
law	26735
Ġintegral	26721
ĊĊĠĠĠĠĠĠĠĠĠĠĠĠĠĠĠ	26715
ĠCON	26713
common	26700
Ġinduction	26695
)}{	26693
dim	26683
'$	26682
Ġrestaurant	26674
Pre	26668
Builder	26656
(_	26654
Ġdual	26654
ĠmiR	26651
ward	26649
note	26644
elling	26643
elle	26643
Ġsal	26643
Ġbattery	26643
Ġaddressed	26643
"}),	26642
Ġrisks	26640
Thank	26632
ĠĠĠĠĠĠĠĠĠĠĠĠĠĠĠĠĠĠĠĠĠĠĠĠĠĠĠĠĠ	26632
Ġregulatory	26626
Thread	26621
Ġban	26619
${	26613
step	26609
="#	26603
burg	26587
Ġlay	26587
Ġpayments	26575
Ġreviewed	26566
ital	26565
Ġheader	26565
Ġshell	26564
Ġwinning	26561
ĠDel	26560
Âģ	26559
Ġstatistics	26550
Ġcolumns	26550
Per	26544
ALL	26543
ĠCare	26540
Ġrecall	26539
Ġintegration	26535
Output	26534
Ġpresentation	26533
ĊĊĠĠĠĠĠĠĠĠĠĠĠĠĠĠĠĠĠĠĠĠĠĠĠĠĠĠĠĠĠĠĠĠ	26532
une	26527
room	26526
Ġfairly	26524
Ġshop	26523
Hey	26508
ker	26502
Ġinflammatory	26501
erg	26493
Ġaudience	26488
}},	26487
Ġ67	26484
Ġwire	26482
offset	26472
Ġparticipate	26470
~,	26462
600	26452
Ĵ	26444
Ġbug	26428
TYPE	26413
BE	26413
Ġclusters	26410
ended	26400
Ġmomentum	26400
Ġgoods	26377
ĠAnn	26377
Ġcompensation	26372
Ġbeta	26363
UI	26361
!!	26360
Ġprobe	26359
Ġhotel	26359
mann	26354
Ġfails	26353
Ġindustrial	26351
Ġshock	26342
Ġexpand	26322
ĠCr	26318
ĠCont	26312
uh	26306
Ġconf	26302
Ġwindows	26284
Ġregardless	26279
American	26275
ĠCR	26273
Ġtemperatures	26263
ĠSec	26254
Ġ"\	26248
Ġbrown	26246
des	26241
Ġpursuant	26238
vin	26237
Ġsol	26233
ãģ®	26230
Window	26222
nav	26217
||	26215
Ġwarning	26201
Ġchoices	26200
Ġhydrogen	26196
Ġengaged	26182
Target	26175
Ġtwenty	26175
Ġ1980	26171
Ġvehicles	26167
Ġcomfortable	26166
rie	26159
Ġcook	26158
Ġtour	26154
ĠSC	26153
Ġcapture	26142
ways	26139
PO	26137
Ġsimulations	26136
Ġ:)	26133
ĠMaybe	26129
Ġflux	26128
Ġsurfaces	26125
Ġpublication	26122
Ġadverse	26109
ĠVer	26099
Server	26082
yr	26079
III	26072
ĠOhio	26069
Ġyounger	26064
ĠDoes	26064
po	26063
cat	26057
Ġedges	26054
ĠLake	26053
Ġkilling	26051
)}$	26047
HA	26039
Bl	26036
itz	26035
Ġng	26022
Ġlaboratory	26018
Ġcoupled	26017
Ġhell	26010
double	26009
ĠMrs	26008
Ġoperate	26006
Ġsuffered	25990
&&	25967
Ġscenario	25965
Ġ61	25964
AF	25960
Ġseparation	25959
project	25956
Ġwonderful	25956
ĠChief	25953
Ġstores	25944
Ġaside	25935
Ġfellow	25929
Ġsubsequently	25921
Address	25919
Ġbanks	25918
ĠAppeals	25918
Ġescape	25917
Ġatt	25915
Ġcalculate	25911
ĠReview	25909
rib	25908
erv	25908
month	25906
Ġturning	25903
system	25902
ĠĠĠĠĠĠĠĠĠĠĠĠĠĠĠĠĠĠĠĠĠĠĠĠĠĠĠĠ	25902
empty	25898
Ġvol	25891
Ġinv	25885
Ph	25883
ãģ	25873
ding	25873
ĠVirginia	25869
Ġoverride	25867
Ġ}}	25861
Ġdeliver	25858
ĠVersion	25858
NET	25854
Ġrefused	25851
Project	25848
ĠLos	25847
Ġdependence	25845
}_\	25841
cup	25839
Ġbuildings	25835
Ġalign	25828
Ġodd	25823
Ġattempted	25816
Ġproducing	25814
ĠThree	25812
$_	25809
Ġwriter	25799
ĠMary	25797
Ġcolors	25792
GS	25791
Ġfamous	25789
ĠCanadian	25785
foo	25784
Ġinhibitor	25784
Ġinc	25782
Ġsmoking	25778
Ġsuffering	25773
ĠScott	25755
ĠMo	25749
Ġwalls	25745
Many	25742
Ġproposal	25742
Ġflight	25737
Ġcalculation	25729
Ġstood	25726
Ġdecade	25720
Ġcorresponds	25713
Ġda	25711
Â´	25710
ĠJewish	25705
Ġapoptosis	25697
Ġemployer	25689
Ġschedule	25686
Cor	25685
DL	25683
Ġlab	25679
Ġdischarge	25670
uch	25662
Ġ-\	25659
Ġstack	25658
iers	25653
Ġboys	25653
ĠGame	25652
Ġbelief	25643
HR	25641
>&	25640
Ġstrike	25635
Ġeditor	25635
Ġversions	25634
values	25632
ads	25615
Ġcontributed	25614
ĠRichard	25595
Ġrepresenting	25590
About	25580
Ġplenty	25577
positive	25571
Ġintra	25570
Ġroll	25569
Ġproceedings	25569
Ġbeer	25568
Ġbasically	25562
Ġfacing	25559
ĠMI	25557
009	25534
pass	25527
AGE	25524
Ġexit	25524
Even	25515
PM	25511
ĠAmong	25498
Ġreceptors	25496
ĠRepublicans	25491
Ġtough	25485
make	25481
ih	25479
Ġvillage	25475
Ġ250	25472
00000000	25457
ĠComp	25456
Ġextreme	25455
Ġprogression	25444
play	25442
Ġenhance	25442
Ġmapping	25439
Ġarbitrary	25438
%;	25437
tered	25425
iled	25421
Ġminister	25416
dl	25406
ually	25386
Ġteacher	25381
Ġattribute	25379
čĊĠĠĠĠĠĠĠĠĠĠĠĠĠĠĠ	25368
Ġinvolvement	25367
EE	25364
Ġyellow	25354
Ġmodes	25353
pped	25350
Ġwalked	25348
Ġgrounds	25344
Ġprepare	25343
Ġ1994	25343
La	25340
ature	25335
Ġequally	25335
Ġinflammation	25334
ior	25331
Ġcoefficient	25327
Gen	25325
2003	25323
Ġverdict	25310
Ġthickness	25308
Ġconsumers	25304
Ġisland	25302
Ġopposed	25300
Ġthrows	25296
Ġcircle	25290
ĠCarolina	25284
ĠBush	25284
IST	25282
Ġperforming	25281
Ġstimulation	25280
iated	25272
Ġregional	25269
cb	25265
ĠSer	25256
Ġmoves	25245
itor	25244
ĠPr	25237
Description	25235
Ġobserve	25234
Ġapplies	25232
osh	25230
Ġwinter	25228
Ġpop	25223
rav	25221
Ġplain	25206
Ġelectrode	25204
ĠAccordingly	25200
asm	25196
asing	25191
Def	25190
Ġagencies	25185
Ġfly	25184
ait	25177
Ġdiversity	25177
Ġlit	25176
Ġchamber	25176
;</	25158
Ġdinner	25157
place	25154
Ġcontrary	25149
Ġpregnancy	25133
{"	25128
Ġbacterial	25116
Ġperiods	25111
lets	25105
Ġsatisfied	25105
ĠSw	25105
105	25103
ĠOh	25103
COM	25095
ulated	25092
Ġkeys	25086
BD	25084
Ġstronger	25084
Ġlens	25084
Ġadjacent	25080
before	25078
angle	25078
ĠEX	25075
Ġmoral	25072
ĠUp	25068
Ġmissed	25062
Ġrank	25054
env	25043
Ġrows	25043
ĠGiven	25042
Ġinstrument	25039
),\	25035
Ġcreates	25030
outs	25027
loc	25025
Ġdecline	25022
ister	25020
Ġwherein	25014
Ġdimensions	25014
ĠTop	25014
Ġpy	25010
ĠNetwork	25009
Ġmagnitude	25008
214	25007
Ġtail	25006
Ġmutant	25003
Ġsaved	25002
Ġstatistically	24998
Header	24997
det	24968
ĠĠĠĠĠĠĠĠĠĠĠĠĠĠĠĠĠĠĠĠĠĠĠĠĠĠĠĠĠĠĠĠĠĠĠĠĠĠĠĠĠĠĠĠĠĠĠĠĠĠĠĠĠĠĠĠĠĠĠĠĠĠĠĠĠĠĠĠĠĠĠĠĠĠĠĠĠĠĠĠĠĠĠĠĠĠĠĠĠĠĠĠĠĠĠĠ	24962
ima	24961
Ġshares	24961
ĠUser	24958
Ġbegins	24956
Ġpermanent	24953
attr	24951
.âĢĻ	24949
Ġprofiles	24944
Ġongoing	24941
Ġthereof	24935
Ġmoderate	24934
Ġ===	24930
ifies	24927
.$	24926
ĠYet	24924
ĠAmendment	24917
Ġcoefficients	24914
================================	24913
dist	24901
Ġmarkers	24900
Ġdecreasing	24900
ancy	24899
015	24888
ĠWater	24882
Ġexcluded	24879
Ġbringing	24876
Ġstands	24875
Expand	24873
two	24862
Ġnewly	24855
Ġconnections	24854
Go	24852
Ġreform	24848
Ġtip	24842
Use	24840
cpp	24834
ĠTim	24825
ĠSm	24820
har	24809
Ġsymmetry	24799
Good	24790
Ġmigration	24779
Ġefficacy	24778
Ġteachers	24772
Ġanxiety	24771
Ġvictory	24767
Ġrepeat	24760
Ãħ	24759
Ġfraud	24747
Ġconsequence	24745
Ġ$|	24745
mathscr	24740
Ġsubset	24739
Ġrequiring	24735
ows	24728
Ġreader	24728
Ġlosing	24726
Ġmask	24724
Ġ\-	24721
Ġcards	24701
Ġmanufacturing	24700
Ġselling	24698
atal	24695
replace	24675
ude	24674
Ġcomplications	24673
Did	24671
HT	24668
olic	24663
Ġadequate	24662
Ġextracted	24659
Ġrecover	24658
ĠNext	24657
Ġlisten	24655
Ġtargeted	24653
jo	24651
Ġsick	24650
Location	24648
"}](	24642
weight	24639
Ġintermediate	24633
example	24627
Supp	24619
Ab	24619
ares	24617
inn	24613
Ġsemi	24608
Ġplanet	24607
VER	24605
Ġlesions	24603
Ġfoods	24603
Ġinjured	24599
Ġdelete	24583
sf	24582
Ġdealing	24579
Ġuniverse	24577
ĠSimilarly	24572
Ġtra	24561
Ġpredict	24560
Ġsuspect	24551
Instance	24547
ĠWh	24538
display	24536
ten	24533
ĠAnalysis	24525
ĠMat	24523
Ġtrained	24517
ND	24516
1999	24508
Ġrender	24495
His	24494
Local	24493
Trans	24475
zz	24472
inate	24469
Ġdiagnostic	24467
pan	24456
Ġmal	24453
ape	24448
ĠBi	24445
Ġca	24432
Ġ),	24428
{(	24427
cut	24426
Ġ{}	24423
Ġmutation	24422
Ġ77	24413
ctx	24406
Ġusage	24406
2002	24400
ĠRec	24395
ĠNon	24392
Ġcomputed	24384
Reg	24374
LS	24374
ese	24372
Ġinstances	24369
Ġbrings	24368
ĠĠĠĠĠĠĠĠĠĠĠĠĠĠĠĠĠĠĠĠĠĠĠĠĠĠĠĠĠĠĠ	24363
ĠBoston	24350
Ġwearing	24349
Ġshouldn	24345
180	24342
Ġmoments	24340
ĠArmy	24337
normal	24331
Ġdiagram	24330
Ġprotest	24325
Ġreserved	24308
ulate	24288
Â²	24283
Ġfaces	24279
ĠBlue	24278
Change	24277
Ġcalculations	24276
Ġactivated	24259
Ġsuperior	24255
Ġtruck	24254
Ġrational	24253
External	24251
address	24250
Ġtechnologies	24247
anger	24244
ĠAtt	24232
ĠFROM	24225
Ġapartment	24221
112	24220
Ġreviews	24215
ĠSim	24204
bed	24202
Ġrely	24201
Ġkernel	24199
ĠDespite	24199
Most	24184
103	24181
Ġsight	24180
internal	24171
Ġdecay	24171
mt	24161
ĠME	24159
ĠGold	24158
Ġ<=	24140
Top	24136
Vert	24134
inner	24130
dom	24126
Ġlip	24125
020	24116
when	24107
Ġpin	24103
Ġdifferentiation	24099
ĠOrder	24098
½	24095
Ġcardiac	24095
Like	24094
800	24092
olog	24091
Ġ::	24091
Ġallegations	24087
Ġ1993	24084
zo	24076
Ġunsigned	24076
Ġalgebra	24072
process	24068
Ġ69	24060
ately	24057
Ġelected	24056
including	24054
;\	24054
Ġchicken	24053
Ġcloud	24048
ĠBased	24037
ĠMike	24036
Ġdedicated	24035
limits	24033
Ġchecked	24032
alk	24029
Ġ1992	24029
iol	24023
ask	24022
Ġclassified	24017
Spec	24010
Ġsatisfy	24010
pack	24008
Column	24004
Ġchose	24004
ARD	23999
Ġseriously	23995
Ġordinary	23991
Ġrenal	23989
Ġsurprise	23987
Ġprefer	23987
Build	23982
ĠFind	23973
foot	23972
Ġrevenue	23970
Ġvary	23968
Ġfed	23964
ĠTrue	23964
Ġdistributions	23959
Ġinvolve	23956
Ġbits	23954
Ġ<-	23953
Ċĉĉĉĉĉĉ	23946
ĠÃ©	23942
Ġmes	23942
.^[@	23940
ĠRob	23940
Ġgalaxies	23937
king	23935
Ġaged	23931
Fe	23930
Ġhistorical	23927
Tex	23922
Ġanywhere	23921
Ġsnow	23913
IE	23909
ried	23904
cul	23902
ili	23891
aining	23890
namespace	23884
ĠGrand	23879
Ġ&=	23877
Application	23873
Ġcorrection	23871
ound	23870
Ġcutting	23866
ĠFed	23864
ĠChristmas	23864
Ġpresents	23855
Ġmatches	23853
ION	23842
ena	23839
device	23839
ĠWall	23839
ĠRight	23838
what	23831
Ġtheoretical	23827
Ġwarrant	23821
stein	23813
etic	23806
Ġvaluable	23803
Ġperfectly	23802
Ġpartners	23787
Ġsi	23784
Ġbreath	23784
rb	23780
ART	23777
ĠIns	23775
ĠMake	23766
Ġlattice	23760
wide	23759
Ġdiagnosed	23757
Ġtab	23749
ressed	23742
Ġillness	23741
Ġmetabolic	23739
Ġtoken	23730
Ġprediction	23730
ĠTeam	23730
Ġmom	23729
raz	23724
LD	23722
ĠFire	23716
Ġlaunched	23710
}\\	23702
Ġtheme	23695
Ġil	23684
axis	23682
rey	23681
Ġincubated	23677
,$	23675
Ġdataset	23670
Ġdiffer	23667
eric	23661
pose	23659
orb	23658
full	23655
nm	23653
Ġbytes	23648
Ġcarefully	23641
asp	23636
Ġimmun	23633
Ġacademic	23629
Ġchest	23626
menu	23621
Ġtranslation	23617
Ġstatutory	23613
ĠImage	23613
Ġ84	23613
Ġrem	23601
Ġmail	23600
Ġbridge	23598
ĠFrank	23598
Ġ78	23593
Val	23591
ĠYOU	23587
ĠThanks	23579
]"	23578
Ġexecution	23576
Ġboost	23575
Ġgauge	23573
}-\	23564
ĠÐ	23556
Ġafternoon	23554
BM	23546
Ġstaining	23542
Dr	23532
Ġà¤	23530
click	23523
ĠParis	23522
Ġride	23520
ĠClub	23513
Ġmeta	23510
Ġthousand	23509
izations	23502
Core	23502
Ġgift	23500
ĠCharles	23499
ĠAngeles	23496
oids	23489
Ġinfrastructure	23489
Ġbreaking	23485
Ġwelcome	23482
oxy	23476
Ġ74	23473
Ġeducational	23469
Ġyesterday	23468
THE	23464
Ġrounded	23458
ĠĠĠĠĠĠĠĠĠĠĠĠĠĠĠĠĠĠĠĠĠĠĠĠĠĠĠĠĠĠ	23457
ĠEm	23454
ĠĠĠĠĠĠĠĠĠĠĠĠĠĠĠĠĠĠĠĠĠĠĠĠĠĠĠĠĠĠĠĠĠĠĠĠĠĠĠĠĠĠĠĠĠĠĠĠĠĠĠĠĠĠĠĠĠĠĠĠĠĠĠĠĠĠĠĠĠĠĠĠĠĠĠĠĠĠĠĠĠĠĠĠĠĠĠĠĠĠĠĠĠĠĠĠĠĠĠĠĠĠĠĠĠĠĠĠĠĠĠĠĠĠĠĠĠĠĠĠĠĠĠĠĠĠĠĠ	23451
Ġhardware	23448
ĠSpecial	23446
ws	23442
ometric	23437
Ġmonitor	23435
zy	23430
ĠError	23423
Ġmetabolism	23418
Ġinsulin	23418
Ġdomains	23417
remove	23416
ĠReal	23416
During	23403
Ġloaded	23399
Ġdrinking	23394
Ġ180	23392
Ġreferences	23385
Ġsufficiently	23381
Ġ88	23379
ĠMD	23376
Ġurban	23374
Ġcontends	23374
illing	23369
location	23364
ĠBefore	23364
ĠNov	23360
Ġ98	23357
Ġroutine	23356
Ġintake	23355
Ġcarrier	23352
Ġcomplexity	23346
Ġpartially	23342
Ġimposed	23336
Ġneighborhood	23334
Ġinform	23322
102	23308
ĊĠĠĠĠĠĠĠĠĠĠĠĠĠĠĠĠ	23304
ja	23287
Ġdisclosed	23287
Ġ97	23279
Ġconservative	23273
Ġsomewhere	23272
Ġengage	23268
product	23261
Ġyields	23259
Mar	23255
Ġtables	23243
Ġcontrolling	23241
123	23230
ITY	23229
ĠOld	23227
Num	23226
ĠWomen	23208
Level	23205
Ġnumerical	23203
ĠBur	23201
icks	23187
Ġcomparable	23187
Ġreveal	23184
Ġinduce	23184
Ġbelieves	23181
Ġfore	23180
mediated	23175
Ġresolve	23175
Ġstroke	23173
ĠFr	23168
then	23158
Ġjourney	23151
Ġdanger	23150
tmp	23146
Ġconstraints	23139
}[	23123
Ġcomprehensive	23121
Ġcommit	23120
Ġbehalf	23112
ĠLog	23103
inger	23093
Ġadmission	23093
Ġwest	23090
ĠBritain	23090
Pi	23074
Ġnorm	23072
Ġmarketing	23068
Ġbutter	23065
Tree	23061
eds	23047
Ġserves	23047
Ġintroduction	23042
ĠCorporation	23041
}({\	23037
Ġtrigger	23036
such	23033
Connection	23031
Ġcollect	23030
meta	23020
iously	23015
Ġcache	23013
ĠURL	23012
ables	23006
Url	23005
'),	23003
Ġdiscrimination	23000
á»	22997
Ġdet	22997
Ġdem	22997
Ã©s	22996
Ġuniversal	22995
rows	22992
Ġinclusion	22990
Ġune	22978
uri	22968
Ġpassword	22968
Ġhandling	22961
rog	22958
ĠLand	22954
Ġdivide	22948
Range	22946
Ġsand	22944
Ġcor	22943
Ġexplicitly	22938
Ġchallenging	22925
ĠBusiness	22924
Task	22920
textbf	22918
aud	22917
Ġsampling	22911
Ġevil	22911
Ġtherm	22909
Char	22908
Ġgrew	22897
Ġcited	22893
ĠAustralian	22877
Ġsimultaneously	22867
Ġsteel	22866
lam	22864
ologic	22860
)$$	22854
ĠBel	22851
ÑĤ	22845
Ġcomm	22845
params	22844
130	22843
Ġalive	22840
QU	22838
ĠConstitution	22826
should	22824
Ġprofit	22816
Ġmales	22811
Finally	22801
ĊČ	22801
FP	22797
Ġneural	22797
DIR	22796
Ġclassic	22779
Ġdenominator	22767
ĠCell	22767
ĠToday	22766
Ġvariations	22765
ĠLi	22764
yes	22754
Ġhealthcare	22753
Ġgreatly	22745
ĠTechnology	22739
just	22732
ogen	22720
store	22712
Ġresponded	22702
Ġprovider	22693
Ġfarm	22692
Ġamplitude	22685
]{}]{}	22684
quot	22683
ifier	22676
auth	22675
Ġeast	22670
Ġcopies	22668
Ġimproving	22664
ĠJack	22660
}]	22654
Ġquantity	22654
Reference	22653
ANT	22652
Ġafford	22637
prod	22632
377	22631
Ġingredients	22631
Ġlymph	22630
BO	22629
----------------------------------------------------------------	22627
Ġfewer	22626
ICE	22624
%).	22623
ĠHR	22607
014	22604
Ġpenalty	22603
uation	22600
Select	22590
Ġmarker	22589
aching	22587
years	22582
ĠMiddle	22580
known	22570
ĠPage	22563
ĠOK	22563
Ġapproximation	22562
eller	22558
ĠFox	22552
card	22549
lex	22542
Ġsky	22540
Ġ76	22538
Ġpulse	22534
Ġpot	22534
Ġcohort	22530
ĠHTML	22526
Ð	22525
Ġsending	22525
Ġmovies	22525
Ġelevated	22525
ĠJr	22525
Ġdrivers	22518
ĠPut	22516
they	22514
ĠDetermine	22513
stat	22510
API	22510
addr	22503
Ġcodes	22498
Ġnamely	22496
onal	22483
LC	22483
icity	22481
Ġomitted	22476
byte	22475
Ġrooms	22474
)),	22472
Ġ**(	22472
itive	22469
rent	22465
Ġnearby	22465
Ġvast	22464
ĠSQL	22464
aves	22462
usion	22452
rim	22444
Ġcomparing	22444
Current	22440
Ġdifficulty	22440
Ġsharp	22437
Ġsignature	22436
Ġpapers	22426
ĠJoe	22426
imes	22421
ĠIllinois	22416
El	22412
Ġrejected	22410
Ġvariance	22407
ĠBest	22401
ĠJava	22399
ĠJackson	22395
Does	22384
Ġmed	22377
ĠNY	22375
Ġcommitment	22373
sey	22370
Ġleaf	22366
Ġheter	22363
PCR	22360
Ġprecisely	22353
ĠLocal	22349
ĠHam	22346
Ġfifth	22337
à¤	22334
ĠMedia	22334
Ġobj	22333
column	22331
Ġinequality	22318
Ġarg	22307
ĠIF	22306
Ġexplicit	22302
Ptr	22301
ĠCivil	22299
parse	22291
Ġ71	22287
ĠWork	22282
ĠFund	22282
111	22281
Ġinvestors	22278
ĠValley	22278
Red	22272
Ġmachines	22272
VM	22269
ĠItaly	22265
Ġhasn	22262
Ġbear	22260
wh	22255
Ġatoms	22250
Ãł	22247
Ġscientists	22242
Ġmatching	22240
<\	22233
Ġmar	22232
Ġbuying	22229
Ġfemales	22219
Ġpos	22213
Ġsemiconductor	22211
,$$	22202
|^	22197
ĠForce	22197
ying	22194
Ġnaturally	22194
ĠEnergy	22191
ĠYear	22187
ĠCons	22186
oor	22183
aver	22182
ĠNA	22182
iner	22181
Back	22180
Ġbusy	22179
mic	22178
Ġdoctors	22177
Ġaudio	22171
ĠMichigan	22170
ĊĠĠĠĠĠĠĠĠĠĠĠĠĠĠĠĠĠĠĠĠĠĠĠĠĠĠĠĠĠĠĠĠĠĠĠĠĠĠĠĠĠĠĠĠĠĠĠĠĠĠĠĠĠĠĠĠĠĠĠĠĠĠĠĠ	22170
ĠAsia	22163
DI	22157
background	22155
!âĢĿ	22147
Ġ73	22134
Ġbroke	22133
Ġadministrative	22130
aka	22129
fi	22126
ool	22114
\^	22114
wing	22110
Ġ$\{	22109
Ġ++	22105
Ġjump	22104
round	22103
Once	22092
ì	22086
Ġscored	22077
Ġelections	22076
Ġmeasuring	22074
Ġ130	22066
rum	22063
Ġargs	22063
Ġrestricted	22062
Ġcoordinates	22059
aks	22057
erson	22053
blue	22052
ĠResults	22051
Ġcert	22048
eless	22045
ĠCP	22043
104	22040
Ġcareful	22038
ĠBY	22038
Ġenabled	22037
ĠMed	22032
ential	22031
ĠForm	22030
mi	22029
Ġperipheral	22026
Ġsurprised	22024
pon	22023
site	22016
Ġprivacy	22014
Ġstrict	22011
Ġreduces	22011
Ġpres	22011
Ġmodification	22010
ĠCatholic	22010
Ġriver	22009
Ġadjusted	22006
ĠBack	22002
Fl	21998
ĠAmazon	21981
Ġproven	21978
NP	21974
Ġscheduled	21971
Ġparticipation	21970
final	21967
Offset	21959
vm	21957
hal	21956
Ġdiverse	21956
Non	21953
urn	21946
Ġnotion	21946
ĠTrust	21945
week	21941
Ġ94	21940
018	21936
about	21935
life	21934
Ġcomposed	21934
Ġbulk	21932
ĠMass	21932
will	21931
Ġabsorption	21927
Ġfeelings	21924
Ġindependently	21923
ocks	21917
}^{-	21916
docs	21910
ook	21897
WE	21893
Cal	21892
ille	21890
Ste	21889
ji	21886
Ġtrace	21878
matrix	21870
ĠDem	21869
}})	21867
there	21865
Ġmistake	21863
Ġera	21863
ĠWood	21853
Ġcovering	21847
Ġanymore	21847
email	21844
Ġarmy	21838
Ġunt	21833
Ġcontinuing	21833
Ġequ	21828
ĠDescription	21828
Ġkinase	21823
ĠLast	21823
Ġpresidential	21819
Ġtiming	21817
sys	21815
Ġcable	21815
Ġsettlement	21814
ester	21808
ĠKim	21795
master	21791
Ġcheap	21789
osing	21786
Ġheads	21774
Come	21772
Ġloading	21772
ĠCEO	21768
Ġadds	21767
BB	21763
Ġcommission	21763
Height	21762
Ġlipid	21758
Ġlists	21755
materials	21753
ift	21750
Position	21738
usr	21731
Ġprogramming	21724
Ġcrimes	21724
pat	21722
ĠPet	21716
Ġtalked	21715
erman	21713
Ġcommunications	21709
Ġkid	21708
dep	21707
oun	21705
\}$	21695
fire	21694
ĠDavis	21694
Ġaircraft	21691
Ġclosing	21690
ĠPS	21687
Left	21686
ĠCreate	21673
John	21672
Ġgenerating	21668
Ġherein	21665
Provider	21658
Only	21658
stone	21650
Entry	21648
Ġopinions	21644
ĠChapter	21640
ocytes	21638
ĠDate	21638
ĠSource	21637
ĠHE	21637
ĠMax	21631
Ġyards	21626
Ġreceiver	21626
ĠManagement	21623
Ġexecuted	21612
ision	21601
Ġexhibit	21596
Ġprecise	21595
Gu	21594
ĠRo	21588
Ġpriority	21581
ĠNumber	21581
Ġwealth	21580
verse	21578
ĠPrime	21576
kins	21575
Ġpetitioner	21573
white	21568
.;	21568
Ġquiet	21565
ĠSyria	21563
hy	21560
Ġvectors	21560
Ġlocally	21555
Ġwaves	21554
>\	21553
Ġinsert	21542
ĠSi	21538
Ġafraid	21537
Ġlegs	21535
Ġradical	21526
Ġcomfort	21526
','	21525
fd	21517
ĠLight	21514
ĠYoung	21508
Ġserial	21504
Ġgarden	21500
Ġfailing	21499
Ġpolymer	21495
Ġrefers	21493
Ġdeclare	21491
Ġchair	21489
Ġwhenever	21485
Ġ{{	21482
graph	21481
Ġattend	21481
ĠChris	21479
Ġsuddenly	21476
Ġbin	21473
Ġos	21466
Ġcuts	21461
Ġcrazy	21445
KE	21444
ĠSO	21443
Ġfrequent	21442
Ġbet	21437
Ġhouses	21434
017	21431
Ġaimed	21428
ĠAng	21423
Ġmo	21419
Ġfr	21411
ĠIC	21411
UP	21409
,{\	21405
Ġ1991	21403
Ġinhibitors	21394
Ã¢	21393
Ġtaught	21387
Ġtemporary	21381
dp	21376
born	21372
ĠFA	21372
GB	21371
ERROR	21364
rr	21363
Ġforum	21360
rab	21357
Ġmut	21357
front	21356
ĠApplication	21351
ĠAction	21349
Phys	21346
Ġexpenses	21343
ni	21341
117	21337
Ġcultures	21335
cache	21333
ĠFar	21333
Ġfunc	21331
ĠSpace	21325
Entity	21324
Using	21317
ĠPlan	21316
ĠSur	21315
Ġweapon	21310
tra	21308
inv	21308
Car	21307
igh	21306
Module	21304
Ġsuppose	21304
Debug	21299
Ġdominant	21298
Ġproduces	21292
áĢ	21284
Ġencourage	21284
ĠProposition	21283
Ġ79	21282
×	21280
types	21280
unit	21278
illed	21278
Ġstrange	21276
Ġupdates	21272
å	21269
VA	21268
ocal	21265
Att	21264
ĠPo	21260
debug	21251
ĠCross	21245
Ġalert	21242
have	21241
ĠSM	21240
Ġteeth	21234
Ġwatched	21230
Ġwestern	21228
Ġrad	21219
Okay	21209
bers	21207
Ġ}\	21207
Ġattributes	21202
Ġproviders	21195
Ġplurality	21195
ĠRights	21195
elt	21192
ĠMel	21192
iver	21184
Search	21181
Ġreasonably	21180
utes	21178
PER	21177
rid	21176
Ġpur	21175
Ġ83	21170
inst	21167
ĠThank	21167
Ġshoulder	21164
Ġorientation	21164
Ġhydro	21162
NE	21161
Ġfrequencies	21159
Ġ>>	21158
Ġignore	21157
she	21148
Ġstreets	21147
ded	21146
Mon	21146
Ġvertex	21146
ĠPolicy	21145
Ġprocessed	21140
ĠDan	21138
Ġtrading	21137
Ġ125	21134
Ġking	21132
Ġnerve	21125
ĠCount	21125
Ġ\"	21124
ums	21120
Port	21119
Ġinteract	21119
Equal	21118
119	21118
Sch	21116
Rec	21116
Ġmess	21116
ect	21115
Ġawareness	21110
():	21097
Ġlosses	21092
iro	21080
Ġtiny	21076
uous	21075
Ġ87	21074
<!--	21070
vs	21068
ami	21067
lor	21060
world	21051
Dis	21044
Section	21043
Ġsilver	21042
Op	21037
Collect	21037
Ġwitnesses	21037
Ġtract	21037
Ġassist	21037
oral	21033
Parameter	21033
Ġvalve	21023
Under	21020
Ġimprovements	21020
fill	21007
Ġplates	21003
Ġsomehow	20998
ĠUV	20998
107	20994
ĠMod	20973
bre	20969
}.$$	20965
Ġgeneric	20963
Ġ82	20963
Ġmarks	20959
ĠReport	20958
Ġvascular	20956
ĠGlobal	20951
Tag	20948
127	20947
Ġcolour	20947
ipe	20939
Ġtalks	20937
Ġtank	20934
Ġlawyer	20933
Ġhist	20933
Ð»	20932
Ġexplains	20931
ĊĠĠĠĠĠĠĠĠĠĠĠĠĠĠĠĠĠĠĠĠĠ	20925
Ġfluorescence	20923
Ġ93	20913
Ġholes	20909
itude	20905
fr	20905
ames	20905
Ġtea	20905
Ġdivisor	20903
Ġlayout	20899
ĠLow	20898
Ġ89	20894
FD	20892
Ġ($\	20888
Ġantigen	20887
handle	20882
days	20878
Ġorganized	20875
Ġvideos	20874
Ġstruggle	20873
231	20872
Ġsuffer	20869
Ġgoverning	20869
Ġreturning	20867
oot	20859
mean	20852
Script	20851
Ext	20847
Â¿	20843
Ġmanufacturer	20835
Dir	20834
ĠRock	20832
OUT	20826
Ġpersonnel	20813
access	20811
Ġax	20809
Ġrent	20808
'_	20801
idd	20800
Ġweren	20798
Ġrespiratory	20798
ĠWilson	20798
ĠFood	20796
inder	20792
Ġunlikely	20791
Ġcrowd	20787
Ġroughly	20783
Ġ})	20779
omy	20774
Ġgang	20771
ĊĠĠĠĠĊĠĠĠ	20771
217	20765
Ġchart	20764
Ġbind	20761
Â®	20755
Ġpermitted	20755
016	20742
Ġarchitecture	20742
BU	20739
iction	20736
Ġdirections	20736
Î	20733
232	20733
who	20728
Ġpassage	20728
ACK	20723
Ġ115	20718
astic	20717
}"	20715
Ġmodules	20713
tree	20709
Ġcooking	20706
Ġrecipe	20705
family	20704
Ġchecks	20704
Ġuncertainty	20698
Second	20692
rated	20691
Ġearn	20690
Ġ92	20687
Ġelsewhere	20686
Ġdb	20683
Theta	20680
Ġaff	20675
ĠHel	20674
ĠShow	20651
ĠRepublic	20651
Ġcovers	20646
Ġscan	20645
Ġsubmit	20642
Ġmeal	20641
Ġrestriction	20639
Ġgeometry	20637
uel	20634
sd	20634
Ġparking	20631
Ġ86	20630
Ġdeviation	20629
Ġcart	20629
Case	20628
OB	20624
Ġovercome	20624
ÃĹÂ	20618
Ġwet	20618
Ġ"/	20618
Ġbounded	20616
ners	20610
Dec	20608
Ġce	20606
?'	20604
Ġsoul	20597
Ġve	20595
ĠIsraeli	20595
Ġsodium	20593
linear	20591
Ġconsisting	20586
Ġcompute	20586
Ġfolder	20584
Activity	20582
ĠMuslim	20574
mut	20572
Ġcycles	20570
ifications	20569
thread	20568
Ġpoll	20568
ĠGal	20563
osa	20560
Ġplea	20554
Ġextraction	20552
ethyl	20544
Ġkeeps	20544
140	20542
Ġutility	20541
Ġpaths	20534
Ã¨	20532
ĠMiller	20528
Ġ1970	20526
1998	20519
Ġboat	20519
Ġear	20516
Ġcontracts	20516
Ġdisability	20514
Ġmarijuana	20513
Ġseasons	20512
activity	20503
Ġalgorithms	20497
Ġ..	20497
icate	20495
Title	20491
Ġaffects	20491
Ġconclusions	20488
Write	20487
thm	20486
uro	20480
Ġdiff	20478
Î³	20468
Ġcolon	20465
Ġgiant	20460
Ġmild	20454
power	20452
).$$	20439
UC	20437
copy	20434
Ġ119	20433
Ġcleaning	20428
pace	20427
Ġpeptide	20422
Ġtheories	20421
rect	20418
ager	20418
vo	20414
Ġmedication	20413
send	20411
ĠNor	20409
dict	20408
Ġconverted	20407
ĠPL	20406
ĠCommunity	20406
ĠSu	20400
Ġconsiderable	20395
ste	20392
Put	20385
Ġflash	20384
Ġreaders	20383
eline	20382
Ġbyte	20381
ingly	20376
Ġpat	20367
Ġgay	20365
ĠCook	20361
Ġavailability	20356
Ġonset	20354
Ġ91	20352
Ġ$[	20349
Ġdispute	20341
Ġlunch	20340
textrm	20338
Ġrobust	20332
Ġinvalid	20332
108	20331
making	20327
bt	20325
DNA	20325
Ca	20322
Ġshoot	20321
Ġpowder	20321
Ġsong	20315
ali	20313
Ġresolved	20313
atter	20311
Ġviewed	20302
care	20300
layer	20293
Ġfault	20293
dc	20289
ESS	20287
Ġmaintaining	20285
ĠUI	20282
Ġbowl	20278
ĠDR	20270
Ġpushed	20267
ĠPakistan	20265
rin	20261
Ġpersonally	20257
Ġ111	20251
ĠLine	20247
ĠPres	20242
Fs	20237
Ġprevention	20237
comment	20234
don	20232
export	20231
vi	20226
Ġcompletion	20224
Ġentries	20222
ĠAc	20222
odes	20218
ĠMain	20216
Par	20214
Ġstrings	20212
Ġ((-	20207
enter	20203
Ġconvicted	20203
Ġadvantages	20194
ault	20192
Gl	20191
hash	20190
Ġappreciate	20190
Ġcream	20189
Document	20188
ĠOfficer	20188
ship	20182
Ġrural	20182
MAX	20181
Ġpaint	20178
Ġguarantee	20173
Types	20172
Ġfired	20167
orted	20166
Ġdress	20156
Ġbarrier	20156
aling	20148
dec	20147
roll	20146
Ġdysfunction	20145
iser	20136
ĠNE	20136
Step	20134
Ġownership	20134
Ġdiscussions	20134
ĠWT	20126
Comp	20125
Ġsequencing	20125
ĠVan	20122
ails	20120
Ġscattering	20117
km	20115
Ġhousehold	20113
Ġphenomenon	20098
Ġteach	20084
Ġbread	20084
Ġfiling	20083
Ġ\|	20079
draw	20074
PG	20070
Ġ(âĢľ	20067
Ġregularly	20063
Ġtape	20061
Ġreact	20058
ĠPH	20057
ĠSupp	20056
Ġcompeting	20042
ĠSouthern	20040
'\	20038
aur	20034
Ġì	20033
Ġoperated	20025
Ġatmosphere	20013
itions	20008
install	20006
change	20000
FI	19999
Ġrice	19998
ĠWITHOUT	19997
Ġmac	19995
Ġgel	19993
Ġcomprising	19987
stack	19984
sql	19980
Unit	19975
Total	19970
wa	19969
ĠItalian	19969
Ġquantitative	19967
Ġcenters	19965
Ġboot	19965
Ġcouncil	19961
Ġthinks	19956
Ġma	19956
del	19948
ĠRem	19946
ras	19938
Ac	19934
Ġpour	19931
Ġentering	19927
May	19926
DP	19924
uf	19920
Ms	19919
ĠHenry	19919
ez	19917
black	19916
war	19912
Ġsystematic	19911
ĠCentre	19906
total	19903
^{-\	19903
nn	19902
fc	19900
Ġverify	19900
unsigned	19899
kt	19899
ĠLA	19892
Impl	19889
Ġegg	19884
ories	19883
Ġnamespace	19878
+^	19876
Ġworker	19876
ĠSpanish	19876
Ġsustained	19869
Ġgovernments	19865
container	19864
SIZE	19864
Am	19864
Ġsatisfies	19856
Ġsport	19855
Ġaccumulation	19855
Ġfalling	19854
Long	19852
CB	19847
ĠMiss	19845
Ġcaptured	19841
}}$.	19839
Ġtelephone	19837
Make	19836
}}}\	19834
wedge	19826
Ġvacuum	19826
ork	19821
ĠWhether	19818
ACE	19810
Template	19808
ike	19803
Ġreaching	19801
Ġexpanded	19797
Ġdemands	19792
Listener	19791
Ġinterventions	19790
ved	19789
security	19789
Ġremoving	19780
Ġblind	19779
Ġcolleagues	19777
Http	19776
Ġdismissed	19773
Ġcrew	19773
Ġhorizontal	19771
ĠStandard	19766
igned	19764
Ġrecommendations	19760
Ġcry	19752
Ġtomorrow	19736
ĠExt	19732
Ġuns	19731
Ġdegradation	19727
han	19726
Ġqualified	19725
Ġnervous	19722
ĠÂ°	19719
Ġinvasion	19715
Ġportions	19711
Te	19707
ĠServer	19705
Ġfalls	19703
<?	19702
Ġprofessor	19702
Ġincorporated	19699
Ġproud	19698
Ġpump	19693
Ġexclusive	19693
bon	19685
Ġbundle	19685
Ġ81	19684
Ġcoding	19682
isa	19681
Ġhide	19681
HC	19678
grade	19676
Ġpsychological	19676
zero	19673
Ġ140	19673
ĠDep	19667
ache	19665
}}}}	19661
Ġaffirm	19661
lement	19659
URE	19656
ĠFrancisco	19654
Ġworldwide	19652
ĠNFL	19652
Ġdismiss	19650
his	19646
Ġpackages	19643
Ġ1989	19642
Ġpen	19640
Ġmem	19638
ye	19637
Ġli	19636
ĠJersey	19636
eral	19635
Ġmasses	19630
Ġkidney	19629
Ġdestination	19625
Ġpack	19624
Ġgradient	19623
Ġdep	19620
Â	19618
domain	19618
Ġstations	19617
Ġcompetitive	19615
treated	19612
Ġadministered	19604
ĠDid	19604
ĠGa	19600
Ġsizeof	19599
Ġfaced	19593
Ġ\;	19585
Ġassays	19583
ĠDefendants	19583
ĠRad	19578
Ġhonor	19576
subseteq	19571
Ġ113	19568
ken	19567
amed	19567
omer	19566
works	19559
echo	19559
Ġscales	19558
Rep	19557
âĢĭ	19555
Ġstone	19547
ĠMen	19545
Ġseparately	19536
Ġancient	19536
ĠApache	19534
Ġinterference	19531
Ġeggs	19528
images	19524
Ġfolks	19521
Ġwheel	19519
Ġbra	19515
actions	19513
Ġconcrete	19508
Tool	19506
Ġdecreases	19506
Container	19505
task	19494
gy	19493
imate	19481
Ġ112	19480
"))	19479
Ġphysics	19479
Ġstuck	19478
defined	19477
ĠFL	19476
GET	19472
IVE	19471
Ġroof	19468
Ġpred	19467
ĠPan	19466
Ġ1988	19466
Ġfe	19464
Ġrose	19460
ĠStudies	19460
Ġvotes	19459
Ġintervals	19459
Ġmounted	19455
antly	19451
Ġfriendly	19451
stop	19447
lect	19446
su	19440
amin	19440
ĠSen	19432
asc	19426
ĠPRO	19424
Ġir	19422
Ġgod	19419
tx	19418
ĠAsian	19414
ody	19411
Ġ114	19408
_{(	19406
Ġtargeting	19406
lines	19405
itting	19400
OG	19400
ĊĠĠĠĠĠĠĠĠĠĠĠĠĠĠĠĠĠĠĠĠĠĠĠĠĠĠĠĠĠĠĠĠĠĠĠ	19399
elled	19398
Ġaddresses	19398
ava	19393
associated	19392
Ġgut	19388
Access	19384
Ġtele	19381
Ġpilot	19379
awa	19377
ĠGeorgia	19376
ĊĊĠĠĠĠ	19376
Ġprote	19370
ume	19356
Ġprofessionals	19354
}}}$	19353
ĠCase	19344
=-	19343
green	19340
ĠLouis	19336
ĠConference	19334
Ġcreative	19332
Ġinterior	19331
Ġgen	19331
ĠBob	19331
ĠHa	19330
bp	19329
Ġ(%)	19327
ĠDaniel	19326
ĠRam	19323
aste	19321
.]	19320
Ġroots	19320
*]{},	19315
Ġkit	19314
Pr	19311
ĠDM	19310
mission	19309
Ġvariants	19309
Ġburn	19309
Ġpromoter	19308
KEY	19300
106	19297
bc	19296
ĠAbout	19286
ĠPT	19281
Store	19280
Order	19280
Ġappointed	19271
High	19270
Ġtoxic	19270
Ġappeals	19268
Ġrising	19267
Ġhonest	19264
>.	19261
Ġanalyze	19261
ĠAnal	19255
Ġ----------------------------------------------------------------	19255
Ġheavily	19248
late	19244
insert	19243
Ġflexible	19241
setminus	19238
Ġconstitute	19237
rep	19236
Ġhash	19234
Ġpasses	19232
Ġexpressions	19232
Ġdrawing	19229
Ġprotective	19225
ĠRoyal	19223
Ġlikelihood	19222
Ġreflected	19216
Ġseverity	19214
wo	19211
Ġexpectations	19210
ĠTotal	19207
arrow	19204
points	19203
)_	19198
Ġcorrespond	19198
ulating	19197
ĠMO	19197
Ġinsufficient	19196
ĠMcC	19196
Ġconsecutive	19194
ctions	19193
izz	19189
Ġpara	19183
Ġbeach	19183
Ġabstract	19179
connect	19175
Ġtw	19174
Ġtensor	19171
Ġalignment	19161
Ġpor	19155
Work	19150
Ġratios	19146
Ġlimitation	19141
ĠBra	19141
Ġmovements	19138
Ġinfinite	19138
ĠPatients	19136
Ġyeah	19135
Ġsolely	19134
Ġsoldiers	19133
most	19132
Settings	19132
âĢ	19131
LO	19130
Ġsimilarly	19124
spec	19122
ĠDist	19119
Ġvaccine	19116
Ġadvertising	19113
Ġrelating	19110
Ġconstantly	19107
Ġfinger	19099
ĠRet	19095
plus	19094
Ġbands	19093
Ġseeds	19087
Ġinit	19087
xc	19086
game	19086
Ġhospitals	19086
pect	19085
Ġadmit	19082
Ġenzymes	19077
ĠALL	19077
Ġdr	19074
command	19072
second	19068
Ġchip	19064
Ġbeauty	19057
Ġawarded	19057
Ġfoundation	19056
ĠBal	19054
lying	19053
Ġ$-	19053
Ġsees	19052
Ġoffensive	19052
Ġanswered	19052
ibly	19048
MENT	19043
Ġrestrictions	19042
Ġglad	19033
Ġengineering	19028
Ġblow	19025
cmd	19024
ĠJoseph	19019
ĠLett	19015
Ġ('	19014
Ġsubjected	19011
ĠAcademy	19009
Ġjudicial	19007
Ġbike	19007
ĠSN	19007
Ġabsent	19006
Ġmeetings	19003
Ġ104	19002
ailed	18998
ĠAge	18998
Ġmanual	18991
Ġcomprises	18983
urt	18980
Ġsupplied	18978
ĠAndroid	18971
ĠAv	18969
ãĢģ	18965
Ġtemporal	18965
ĠTaylor	18963
Ġ160	18961
global	18957
icated	18956
iant	18954
Ġintention	18954
åı	18949
Ġvarying	18948
ĠBook	18947
amm	18946
248	18944
Ġhoping	18944
Ġprojection	18943
ĠNorthern	18940
AE	18937
je	18933
hour	18930
168	18929
van	18925
ĠPlay	18922
window	18921
ĠAcc	18920
Ġproceed	18918
loop	18916
ĠTake	18912
ipping	18911
pin	18908
token	18907
Str	18907
Ġalter	18907
Cache	18906
Ø	18902
GO	18901
Ġproceeding	18901
ocation	18899
Ġvice	18897
ijerph	18896
Ġenjoyed	18892
Ġnations	18891
desc	18890
ĠPath	18889
Ġelectro	18886
Ġgu	18884
WS	18883
Ġimmunity	18883
ild	18881
Ġimplications	18881
bind	18880
ĊĊĉĉ	18877
Ġforest	18876
very	18875
`,	18875
Ġphysician	18874
Ġcheese	18873
----	18870
Ġaccessible	18865
Ġpixel	18861
Ġcoordinate	18861
Ġvalidation	18856
Ġexecute	18856
Run	18855
ĠPlaintiffs	18854
Ġ['	18844
Ġste	18840
ĠTax	18840
ading	18833
ashed	18825
Ġcarcinoma	18824
ocyte	18822
binding	18816
ĠGO	18815
ĠDesign	18815
ĠIslamic	18814
}}$,	18808
SELECT	18803
Ġacquisition	18803
ocket	18802
Ġages	18801
Main	18797
Ġpartition	18795
application	18792
ĠFollowing	18784
BT	18783
iate	18779
ental	18778
Edit	18773
ĠWal	18772
tw	18764
ONE	18763
orph	18755
ĠDev	18754
ĠFBI	18752
Ġ"$	18744
Ġlaid	18740
Ġrain	18739
Ġlights	18737
ĠPennsylvania	18737
ĠOff	18729
Ġclothes	18727
âĢħ	18726
Ġcalcium	18725
Ġpatch	18715
Grid	18709
Ġbonds	18702
Ġabundance	18699
lower	18697
Ġdefines	18696
ĠArab	18694
Ġsauce	18691
Ġfeeding	18688
support	18677
012	18677
Ġheating	18677
Ġbeneficial	18676
Sort	18668
bot	18661
Ġpal	18656
ĠBeach	18649
Ġ102	18646
ĠMicro	18643
Ġcorporation	18640
Ġkm	18639
ĠMatt	18639
Ġartery	18634
ĠLinux	18634
ension	18632
Ġfusion	18628
hor	18625
Ġâī¥	18619
Ġprim	18616
ĠMag	18615
Ġ117	18609
Ġdestroyed	18606
Ġdestroy	18604
ĠâĢ¢	18602
Ġranging	18602
ĠIndex	18601
Ġspecify	18600
orts	18595
Ġbur	18591
Ġinstallation	18584
Ġvitamin	18575
\>	18572
rig	18567
Ġassignment	18567
connection	18557
Ġexport	18552
Ġimmigration	18549
Ġdevelopers	18543
Ġcre	18538
ĠRyan	18538
equal	18537
Ġdesirable	18537
}}(\	18526
ĠHy	18524
ĠFour	18523
EG	18521
ĠAlex	18517
xx	18516
Ġ![	18515
]{.	18514
Ġpm	18511
ĠTHIS	18509
rant	18502
Ġpadding	18500
Ġerred	18499
Ġspan	18497
Ġarmed	18492
git	18490
0002	18489
Ġinsight	18488
Ġunusual	18485
Ġaltered	18484
Å	18481
ĠNevertheless	18481
Ġdys	18479
ĠAdministration	18478
Ġacceptable	18475
ression	18471
Ġeffectiveness	18471
join	18470
UE	18468
Ġbreach	18467
Ġeligible	18465
dagger	18464
Ġearned	18459
310	18457
Ġluck	18457
İ	18453
Ġpreliminary	18452
Look	18451
Ġautomatic	18449
ando	18443
Ġstruck	18442
sy	18441
oses	18440
ori	18434
Ġconsistently	18431
uv	18429
underline	18413
ĠPatent	18411
}}_{\	18407
Ġsessions	18406
ĠMaster	18405
Ġoccurrence	18402
Ġwound	18401
Ġbunch	18399
operative	18394
Device	18394
Ġvisited	18393
Ġmatrices	18393
ĠLtd	18391
Ġvoting	18387
Ġunclear	18383
è¯	18380
Ġguidance	18378
Ñı	18376
Ġrid	18374
Ġhorse	18372
Interface	18371
115	18371
.),	18371
eness	18360
Ġho	18359
Ġfacilitate	18354
Ġnormalized	18349
ĊĉĠĠĠ	18348
Ġinline	18340
Ġperceived	18339
ĠColorado	18338
Ġsmile	18332
Ġending	18332
Ġtracking	18329
Ġpacket	18327
wrap	18324
ser	18324
ERT	18324
Ġmolecule	18323
Ġwake	18321
Vector	18317
Ġarrangement	18315
Ġeverybody	18313
ometer	18310
rer	18306
iring	18306
ĠPython	18305
cle	18299
Ġangular	18298
Ġ\#	18298
sch	18297
help	18297
bra	18295
ĠPoint	18295
ĠSteve	18291
Ġliberal	18290
Ġviolent	18283
Ġspiritual	18272
Ġatom	18268
ipp	18264
Ġshit	18263
izable	18258
Ġskill	18256
ĠJim	18255
ito	18253
Ġshopping	18252
Ġhadn	18252
NF	18251
Ġsad	18251
Ġ600	18251
ached	18246
Ġalt	18236
Ġidentifying	18235
Ġsubt	18232
Ġcomplexes	18232
'}	18231
gov	18226
ctor	18225
Ġrarely	18222
Ġease	18221
Ġruled	18220
Ġrandomly	18219
Us	18218
-*	18216
Ġtreating	18215
ĠUnfortunately	18209
Ġattended	18208
ĠFamily	18208
plot	18206
Ġbelong	18205
ĠĊĠĠĠĠĠĠĠ	18199
enum	18198
116	18196
Ġpromising	18195
ĠIreland	18195
ogenesis	18191
Ġprecision	18190
person	18189
Ġvital	18187
ples	18186
Ġchildhood	18184
cells	18182
ĠOct	18179
Ġpoliticians	18177
Ġdesigns	18177
Ġshorter	18176
ĠJews	18173
Ġaging	18165
Ġinstitution	18157
Ġ109	18151
Ġintegrity	18148
zer	18147
rying	18147
ction	18147
Ġtransportation	18142
Ġtips	18141
interface	18137
channel	18134
kl	18133
ĠTown	18132
Ġbath	18131
ĠDef	18131
ival	18125
Ġultimate	18124
VC	18122
Ġchemotherapy	18122
STR	18121
Ġtall	18120
019	18119
Ġdeposition	18118
ĠSA	18118
Ġpointer	18117
Ġ105	18117
OF	18115
1996	18114
ĠØ	18112
Ġwashed	18111
Ġsole	18110
ĠArizona	18106
Ġadapt	18102
Ġoxide	18101
Ġdeeply	18100
Ġpregnant	18097
Ġclause	18096
Ġbirds	18086
Cont	18084
Ġlifetime	18084
Ġ+/-	18082
IX	18080
Ġcollective	18077
Ġsteady	18076
Ġjoy	18074
Ġconcepts	18074
Ġ=\	18074
Dialog	18069
ĠJSON	18066
Ġsentencing	18065
Ġharder	18061
HD	18059
EXT	18053
ĠMedicine	18046
iling	18042
req	18037
Ġbid	18037
even	18032
ĠSeveral	18031
Ġeverywhere	18028
\_[	18026
Ġ<!--	18026
Ġsurvive	18023
Ġresidues	18013
Ġforever	18013
Utils	18008
Ġlabels	18007
iveness	18006
ĠSol	18004
ĠAccess	18002
Ġjson	17998
SET	17997
Ġamended	17997
Ġ118	17997
Ġsqu	17994
iller	17992
Ġallegedly	17984
Ġkn	17982
Ġstat	17981
methyl	17975
Ġhybrid	17974
Ġphases	17973
Ġ["	17973
cit	17962
Ġdisabled	17958
ĠIntroduction	17958
ĠĠĠĠĠĠĠĠĠĠĠĠĠĠĠĠĠĠĠĠĠĠĠĠĠĠĠĠĠĠĠĠ	17950
Ġ128	17949
čĊĉĉĉ	17945
pers	17944
Ġpsych	17942
Ġsyn	17941
auto	17939
ĠRoman	17933
Ġ1983	17933
ologist	17925
ĠCard	17923
Ġpig	17920
Ġdoctrine	17909
ĠCOM	17907
good	17906
1997	17906
unch	17902
Ġnewspaper	17902
ĠMR	17902
ria	17898
FB	17892
away	17890
Ġcampus	17890
Ġcomputing	17889
none	17885
mes	17882
TER	17882
vol	17881
Three	17877
ĠSeries	17876
zone	17875
Ġorth	17873
ĠHistory	17872
Ġfabric	17871
reference	17870
Ġfunny	17870
Ġcurrency	17866
flags	17861
analysis	17861
ĠMad	17857
atin	17856
Ġ106	17855
ĠRun	17854
\}	17852
Ġmonthly	17848
ĠRest	17847
Show	17846
MOESM	17844
Ġdoors	17841
erc	17839
stra	17838
Ġ116	17838
Ġsymmetric	17837
upp	17836
TV	17835
Ġcrash	17833
Ġutilized	17830
Ġrepeatedly	17829
ĠMap	17828
ĠCancer	17826
ÂĹ	17825
hspace	17818
aled	17816
Ġadopt	17812
Body	17810
Ġec	17810
Ġwrites	17807
Ġpol	17802
Ġflavor	17801
ĠMP	17796
Pol	17794
Ġaccompanied	17782
ĠSU	17781
Ġmixing	17780
aws	17774
Ġenemy	17774
posed	17768
Ġexhibited	17768
Ġbankruptcy	17768
iii	17756
Ġreporter	17752
Ġviolated	17751
ĠOl	17751
Ġlying	17749
Ġarranged	17749
ĠSign	17742
otype	17738
aki	17735
sn	17734
Ġopt	17734
ener	17733
Ġsmoke	17724
disc	17721
Ġpulmonary	17716
Ġscalar	17714
Ġvessel	17712
Ġenvironments	17711
Ġchecking	17711
Ġmere	17710
REG	17704
ights	17699
adi	17695
Ġjet	17695
Ġresidence	17692
Ġarc	17692
ĠCur	17690
Ġ(@	17689
ĠSpain	17685
ees	17678
hem	17677
/.	17677
CN	17674
Ġoccurring	17670
Ġmitochondrial	17669
FILE	17666
Ġsurveillance	17664
Ġlanguages	17662
Ġhall	17657
bd	17656
ĠHo	17652
ĠStudy	17651
Ġreveals	17650
Rect	17644
Ġhang	17641
aming	17637
Ġsed	17637
Sl	17635
Ġtopics	17633
Ġstudying	17633
Ġtens	17631
ĠLook	17630
apped	17625
:=	17625
Ġphilosophy	17623
pool	17618
Ġdisagree	17617
Ġvoted	17613
Ġreadily	17613
Ġtranscript	17612
ĠCS	17607
Ġjail	17606
Ġdeclined	17605
Ãª	17604
fast	17602
Ġ×	17596
Ġrecovered	17596
por	17593
Ġperception	17592
Ġdad	17592
gn	17591
member	17589
Have	17589
ĠÑģ	17588
Ġadjust	17588
ĠGar	17586
ÎĶ	17584
Ġ1986	17584
Ġsupporters	17582
enable	17573
blog	17573
ĠEastern	17573
Ġorbit	17571
fields	17569
component	17567
hetic	17563
Ġpanels	17559
Ġreversed	17558
Ġprov	17555
135	17552
cons	17546
ĠSpring	17546
ĠAgain	17543
Ġsil	17542
Ġkick	17540
Ġderivatives	17540
ĠDue	17534
Expression	17527
Menu	17520
ĠIslam	17519
Ġlegislative	17517
Ġdefects	17514
Ġdoses	17513
language	17510
ologically	17509
Ġembedded	17509
aving	17508
Ġinterpreted	17508
queue	17506
Ġmock	17504
Ġtransactions	17495
ĠMethods	17495
Ġcorrelations	17494
ila	17491
Ġdiscover	17485
ials	17478
Ġputs	17455
Ġtroops	17450
Ġliked	17447
ĠÂĹ	17446
Ass	17444
Ġstellar	17444
Ġbottle	17444
ĠCu	17440
Ġtrail	17437
Ġunlike	17431
Ø§	17430
Ġmirror	17429
Ġresist	17427
Ġfibers	17427
ĠChildren	17424
ĠTw	17420
ĠThough	17402
Ġwireless	17400
Ġcholesterol	17400
Ġprinted	17393
Ġduties	17391
Init	17390
Ġcrack	17386
cept	17384
Ġsystemic	17384
ĉĉĉ	17382
fin	17378
Ġprominent	17377
'>	17376
Ġprosecutor	17369
Ġpolar	17367
Ġ1987	17363
Ġvis	17360
Ġlabeled	17358
Ġrating	17354
Ġarise	17352
1995	17351
Ġcooling	17349
Hello	17346
Ġexciting	17344
Ġauthorized	17338
ange	17336
Ġpropose	17334
Ġparse	17330
Ġactor	17323
ĠGR	17323
Ġbroadcast	17318
gers	17317
negative	17312
Ġexpressing	17312
Ġplug	17308
javascript	17305
Ġinfluenced	17305
ever	17303
Ġillustrated	17302
ĠWARRANTIES	17297
Ġassociations	17296
Ġsouthern	17295
Ġmountain	17294
clear	17293
session	17292
osp	17291
Ġtone	17287
ĠWil	17285
olar	17283
Ġcourses	17282
pen	17281
tbl	17275
Ġgained	17275
Ġprinting	17271
ulf	17256
ĠBer	17246
ĠLo	17245
Ġgra	17244
Ġpending	17243
"));	17239
Ġraising	17234
ĠBell	17234
Ġattitude	17231
NG	17230
Ġdiscrete	17230
Ġloans	17227
ĠHand	17227
ĠImages	17224
Ġrear	17221
Windows	17220
ĠStart	17215
Ġconnecting	17212
Ġknee	17207
Ġinspired	17207
supp	17206
Ġtension	17205
Ġvalidity	17204
EP	17200
ova	17199
cases	17197
Ġspl	17190
ĠTer	17189
Ġsuicide	17185
Ġstupid	17181
Ġnorthern	17179
Ġgalaxy	17165
Ġicon	17164
ĠThird	17163
ĠPacific	17162
(){	17161
Ġpitch	17158
Ġcoast	17151
Ġhopes	17150
ĠFair	17150
aria	17147
Hi	17147
124	17144
LR	17143
Ġregistration	17142
CK	17140
scope	17139
category	17139
Ġprosecution	17138
109	17137
anda	17136
Ġsomebody	17136
Ġphenotype	17135
Ġignored	17135
Each	17132
Ġinvariant	17129
~*	17126
Ġcontacts	17122
Mac	17121
profile	17118
formed	17109
Ġguest	17109
Ġresonance	17108
ulin	17107
unc	17105
349	17104
013	17101
ĠKingdom	17098
TP	17096
Ġisolation	17094
Ġspec	17093
Ð²	17092
ĠWithout	17090
Tra	17088
Font	17087
.*]{}	17084
Ġdenotes	17084
plugin	17082
yst	17081
ĠHD	17080
ested	17079
because	17075
border	17073
Integer	17062
rag	17061
Ġpreventing	17061
vy	17058
Ġcardiovascular	17057
Ġrub	17056
iber	17048
ĠAgency	17047
RR	17043
Host	17039
Load	17038
bert	17036
Ġhtml	17036
mask	17035
Ð½	17034
Ġtransmitted	17033
*~*	17029
licenses	17023
Ġliterally	17022
Ġequilibrium	17020
ĠAgreement	17018
Ġgross	17017
Ġ"#	17016
mac	17015
itter	17011
ĠLie	17007
à®	17006
ishes	17004
Ġexcessive	17002
ĠPal	17001
Ġhero	16998
Ġcomputation	16998
ĠBre	16997
iment	16996
Ġdiffusion	16993
Ġevident	16992
diff	16991
United	16990
Ġprospective	16990
ĠHave	16989
Ġpounds	16988
Ġfa	16988
Ġembodiment	16988
Ġeliminate	16985
ĠHol	16985
Ġfactory	16978
ĠÂ¶	16977
!)	16976
Ġdish	16976
uth	16973
---------------	16973
ĠED	16968
INE	16967
Ġextrem	16965
ĠLove	16965
ĠBR	16963
Has	16961
Ġswitching	16960
anes	16957
aux	16954
011	16954
race	16953
Ġpublicly	16950
Ġgravity	16946
save	16944
ĠGames	16943
Ġedit	16942
Ġdefensive	16932
bal	16927
Reader	16924
Ġflour	16924
Ġphosphorylation	16918
Ġelectricity	16916
Pa	16912
PV	16911
being	16908
Ġregulated	16908
Ġworried	16907
Ġtonight	16904
Ġphysically	16902
Ġobesity	16902
ĠAnderson	16900
Ġep	16897
Process	16896
oplus	16895
ĠBitcoin	16893
Ġamendment	16891
short	16889
ander	16887
Ġdifficulties	16885
Ġdefect	16885
Null	16884
ĠĠĠĠĠĠĠĠĠĠĠĠĠĠĠĠĠĠĠĠĠĠĠĠĠĠĠĠĠĠĠĠĠĠĠ	16877
Ġcombine	16876
ĠStat	16876
Ġdestruction	16874
Ġdelayed	16873
Ġboxes	16873
Ġspecificity	16871
SW	16866
Ġattractive	16866
omb	16862
Ġdenial	16860
ston	16858
Ġip	16857
Ġassumptions	16856
-------------	16854
ports	16851
perp	16851
Ġstorm	16850
Ġepisodes	16850
Ġcoli	16842
Ġovernight	16841
.(	16839
Ġast	16836
HL	16835
ĠZealand	16834
126	16831
Ġfounded	16829
Ġpoverty	16827
ground	16821
ĠConsequently	16813
equ	16812
Ġsearching	16807
Ġattributed	16803
ĠĠĠĠĠĠĠĠĠĠĠĠĠĠĠĠĠĠĠĠĠĠĠĠĠĠĠĠĠĠĠĠĠĠ	16798
super	16796
Ġsim	16795
Ġtill	16782
Ġhardly	16779
ĠPerhaps	16779
Ġsing	16773
Ġdisplays	16770
hers	16762
\[[@	16761
ĠBase	16758
ĠTra	16756
Ġpace	16754
Ag	16749
Ġbatch	16749
_{-	16747
Ġblocked	16745
Ġabortion	16744
Ġradi	16742
ution	16740
\,\	16739
Ġhits	16736
Ġcycl	16735
pg	16731
Ġacknowledge	16731
ĠWITH	16725
Ġgenuine	16718
Ġflags	16715
Convert	16713
Ġbomb	16711
ĠDu	16711
JS	16710
114	16709
xs	16701
-----	16701
Ġframes	16701
Mark	16700
Ġur	16697
Ġcompatible	16697
Ġbeliefs	16696
Ġ1985	16695
Ġmel	16676
Ġoven	16675
igen	16672
ĠCas	16669
Ġpermissions	16668
Ġdefend	16668
face	16666
Ġ103	16663
ĠÐ²	16662
čĊĠĠĠĠ	16661
Ġml	16659
_,	16657
Ġpartnership	16657
ĠHead	16657
umin	16655
Ġbow	16650
Ġenables	16646
Ġvisits	16643
Ġobtaining	16638
Ġlift	16638
Session	16636
Ġretain	16635
Ġaffecting	16635
sign	16632
human	16632
shape	16631
ĠAdditional	16630
sex	16627
Ġmagnet	16626
uan	16621
Ġgenerator	16621
jar	16620
Ġ108	16617
Ġpepper	16616
áĥ	16614
ching	16614
olds	16613
Ġ{@	16613
[[	16609
Ġgotten	16609
ĠMah	16606
aven	16604
Ġmagic	16601
ĠSir	16598
Ġguns	16596
Values	16590
022	16586
ĠSpecifically	16584
Ġdifferently	16583
Ġcoal	16583
^)	16578
ĠRA	16576
Ġmaximal	16574
delete	16572
Ġann	16572
Ġtradition	16570
Ġweights	16568
Ġawesome	16567
ashing	16566
Ġdescribing	16563
Ġbehaviors	16562
aved	16552
Free	16551
ĠRel	16550
Ġfits	16548
bad	16546
ĠTitle	16546
Ġreflects	16545
Ġ01	16538
Maybe	16529
Ġcontest	16529
ĠMinistry	16526
Ġasks	16525
Ġfunctionality	16522
resource	16521
Items	16520
elf	16518
alloc	16514
Ġbearing	16514
Ġfilling	16512
ĠIowa	16512
Ġdesignated	16511
Ġdemocracy	16510
Ġdeals	16510
iot	16508
Ġcommands	16508
sur	16504
Widget	16504
Ġink	16501
Ġcallback	16501
Ġclinic	16500
Ġaud	16495
Ġunderwent	16493
1994	16484
dat	16483
ĠMethod	16483
ĠFord	16483
Ġtrends	16482
**.	16480
Ġpredictions	16480
also	16476
Ġinvestigations	16476
icular	16474
ÑģÑĤ	16473
Ã©e	16472
Ġequality	16472
Ġselective	16471
Ġinterviews	16470
Ġhem	16469
Ġbas	16469
192	16468
Additional	16467
ĠRather	16465
NN	16462
Record	16460
ĠOp	16458
ORT	16452
ERR	16451
Bs	16434
Ġmill	16433
ĠArray	16432
Ġtor	16431
fil	16430
Ġcord	16430
Product	16429
Ġblame	16426
Ġshoes	16424
\.	16423
Ġtexture	16417
Ġbreaks	16410
Ġretail	16405
Ġrough	16402
Ġprogressive	16401
023	16400
Ġfitness	16399
ilt	16397
ĠAward	16395
Ġprogramme	16394
energy	16393
Ġsegments	16393
ĠFalse	16390
Ġarch	16389
opy	16387
$^{-	16386
figure	16381
rule	16380
Ġlistening	16373
Ġmit	16372
rees	16370
Ġweird	16370
Ġgear	16370
++;	16369
omas	16365
aint	16363
Ġweekly	16362
Ġms	16357
Ñģ	16344
instance	16344
ĠPrior	16344
ĠCore	16344
Med	16338
Ġfarmers	16336
ologists	16335
Ġvariant	16335
ĠdÃ©	16335
Ġdetector	16335
Collection	16331
random	16329
âĢ¯	16325
Ġconspiracy	16323
ĠSon	16321
translation	16320
ention	16318
700	16318
Ġxmlns	16318
ĠJordan	16318
ĠArticle	16317
--------------	16314
Ġcombat	16314
printf	16313
Ġconsciousness	16309
ibr	16307
Ġfocusing	16307
Ġhypertension	16302
Ġsynthetic	16298
Ġinserted	16297
Ġboundaries	16296
urb	16294
ARY	16292
Ġpython	16292
backs	16287
umber	16280
Ġpipe	16276
Ġintellectual	16271
ĠPy	16271
ĠStill	16269
Ġattempting	16268
Ġcomplement	16267
apt	16266
ARE	16266
ĠSciences	16266
------------	16264
CV	16260
area	16258
}'	16256
Ġangry	16248
Author	16246
Ġvertices	16244
Ġ1984	16237
ĠNick	16235
Ġfavorable	16229
Ġcomputers	16226
Ġindices	16222
^{*	16211
Ġ135	16210
Ġadapted	16207
Ġconfident	16206
Ġapps	16206
Ñĭ	16200
ĠAC	16198
Ġrendered	16196
while	16195
Ġphysicians	16191
Ġregulate	16190
Ġvaried	16187
ĠGreek	16187
derived	16183
ulations	16182
113	16178
Ġfitting	16175
WR	16172
Ġmath	16171
ader	16169
Operation	16169
Ġattract	16168
Ġconvenient	16166
opic	16165
modules	16162
Ġfatty	16162
aine	16158
found	16157
ĠGrant	16157
hu	16156
ĠRay	16155
Ġcombinations	16154
Ġaims	16152
Ġpolynomial	16151
Ġintracellular	16151
Ġdeeper	16151
Ġreflection	16149
Ġedition	16147
ause	16146
Ġ$.	16143
Ġinverse	16139
erate	16133
Ġcos	16132
Ġsettled	16129
ĠCPU	16129
Ġfragment	16123
ĠSanta	16121
Ġfunded	16118
Ġ132	16113
Ġstretch	16111
news	16110
Ġnegligence	16110
Ġdates	16108
âĢ²-	16107
etc	16105
Ġrestaurants	16105
Ġlateral	16104
forall	16102
Ġterrible	16102
Ġdim	16102
Ġprof	16100
Ġintense	16098
register	16097
Ġrail	16095
*(-	16093
Params	16092
Ġpeaks	16092
Ġdoc	16089
Ġsuspension	16088
ĠColumbia	16086
Ġmatched	16085
Ġlimiting	16084
Ġretirement	16076
Ġdisclosure	16075
ĠChar	16075
Ġmood	16074
Ġcollapse	16069
Handle	16066
Ġquantities	16064
Ġepithelial	16064
Ġ"<	16064
hold	16063
Ġsatisfying	16061
Ġmagazine	16056
Ġdeb	16054
exec	16049
Ġdans	16048
Parent	16047
ACT	16043
Ġimm	16043
Ġtransparent	16041
Ġsucceed	16040
ĠRound	16037
ĠCF	16037
ĠPBS	16035
.:	16033
Ġslight	16029
party	16022
ema	16022
Ġscoring	16022
Child	16021
ĠÐ¿	16020
()->	16017
Ġproposition	16017
Ġjuice	16017
$]{}	16014
GP	16010
Ġbreakfast	16010
keys	16009
Ġbro	16008
move	16007
ional	16006
1990	16006
ĠKar	16005
priv	16004
emia	16004
Ġpeer	16003
Ġconsensus	16003
Ġfingers	16001
Ġpotent	15998
Ġchoosing	15996
iders	15994
Ġbat	15989
ĠBC	15989
Ġmortgage	15987
Ġvulnerable	15985
simeq	15984
ĠProfessor	15984
Ġscaling	15982
Ġlawsuit	15981
kind	15978
Ġchains	15978
ĠFull	15978
ĠLy	15977
Ġmanually	15975
abel	15973
Ġpreferably	15967
Ġdamaged	15966
ĠPE	15960
Ġdollar	15959
1993	15958
Ge	15957
rial	15955
lev	15955
cted	15953
Ġpharmac	15951
.).	15949
icle	15948
ols	15946
Ġlikes	15943
Ġstrictly	15942
Ġ+\	15942
Ġrepresentations	15940
Ġtied	15937
plan	15933
Ġphysiological	15927
Ġholiday	15927
stand	15925
ĠAut	15919
ati	15917
Ġretro	15915
ĠCommonwealth	15912
Ġdeveloper	15911
Ġsupplies	15909
Her	15906
Ġshots	15905
čĊĠĠ	15905
Ġwondering	15902
ĠProperty	15898
ĠPen	15898
ĠPlace	15897
your	15894
ĠBrazil	15890
bibr	15889
atives	15887
ĠNC	15887
zen	15882
Ġisolates	15876
_+	15874
Ġtolerance	15870
ĠHor	15868
Ġbounds	15866
gar	15862
âĢĻ.	15857
}$$\	15856
Ġmini	15856
hood	15846
ĠCap	15845
terminal	15842
Ġpushing	15842
NR	15838
ĠPI	15838
Ġhal	15837
anal	15834
Ġaggressive	15834
Ġions	15831
Ġcraft	15831
had	15830
Ġvisitors	15828
password	15826
Ġentities	15825
Ġmsg	15820
ĠĠĠĠĠĠĠĠĠĠĠĠĠĠĠĠĠĠĠĠĠĠĠĠĠĠĠĠĠĠĠĠĠ	15818
Ġdat	15817
ounds	15816
anging	15815
Ġquote	15815
ĠNF	15815
ipped	15813
ĠAdam	15813
;">	15812
Param	15811
Ġqui	15810
Ġobjection	15809
Ġlogical	15809
ĠMajor	15809
Ġenc	15805
ĠTurkey	15803
220	15802
Ġtemp	15802
Ġbills	15801
Ġviruses	15797
items	15796
Ġlos	15796
Ġdil	15791
-$	15789
CODE	15788
Ġparam	15786
ĠCC	15779
eting	15778
ĠSR	15776
Ġnucle	15773
Ġresidual	15771
Ġsir	15770
Ġgrass	15770
Despite	15768
Aut	15767
~)	15766
hl	15761
,\,	15759
wall	15758
Ġâ	15758
Ø±	15757
Ġassistant	15756
Mc	15755
Panel	15753
ĠBible	15753
\!	15750
ĊĠĠĠĠĠĠĠĠĠĠĠĠĠĠĠĠĠĠĠĠ	15746
made	15745
jection	15740
admin	15739
ĠĠĠĠĠĠĠĠĠĠĠĠĠĠĠĠĠĠĠĠĠĠĠĠĠĠĠĠĠĠĠĠĠĠĠĠĠĠĠ	15739
ĠPay	15737
NULL	15734
ĠWE	15726
Ġbaseball	15724
seq	15720
Ġblank	15720
ĠPur	15718
Ġnucleus	15714
Ġemerging	15713
ãĤĴ	15712
Ġreferring	15711
ped	15710
Ġequipped	15710
users	15705
oul	15697
ĠGaussian	15696
ĠAssembly	15695
Ġinquiry	15694
chain	15691
widget	15689
Ġna	15689
ĠSW	15689
Ð´	15685
_>	15681
Ser	15679
ests	15678
145	15676
utils	15675
Â³	15671
Today	15670
names	15669
Ġmembership	15667
Ġcavity	15666
aches	15665
ĠUnless	15663
TEST	15662
Ġpocket	15662
Ġdeficiency	15662
ĠMAP	15662
Ġ***	15662
regulated	15658
phase	15656
Ġsensors	15656
ĠParliament	15656
æĺ¯	15651
Ġterritory	15651
}}}_	15647
Br	15647
Ġtoxicity	15647
aked	15641
duct	15639
ĠHarris	15639
Ġplatforms	15638
ĠYeah	15637
ĠCam	15637
ota	15636
ĠAndrew	15635
grid	15633
Ġinvited	15630
una	15626
Ġvessels	15622
Ġbirths	15622
Ġpromised	15619
Ġter	15618
Json	15617
EV	15613
ĠDet	15611
Ġtrick	15610
Ġtired	15610
ĠCoast	15609
iva	15607
Ġsaving	15607
Ġextending	15606
Ġmuscles	15603
Ġdeny	15602
Ġdefining	15602
ĠMinnesota	15602
Ġhealing	15599
Ġodds	15596
Ġpipeline	15594
inity	15590
Ġparticipated	15590
Ġjournal	15589
Ġmodeling	15588
Ġagreements	15588
129	15586
wt	15584
Return	15574
selected	15573
ĠSand	15566
Ġobligation	15563
Ġdance	15562
ĠHamiltonian	15562
ĠFisher	15561
omic	15559
Ġstomach	15559
ĠRa	15554
ĠIndiana	15553
ĠDaily	15553
doi	15551
Ġ|\	15551
ĠSy	15550
oto	15548
Ġinjected	15548
SQL	15547
[**	15545
ĠFin	15544
Ġaccurately	15543
ĠWin	15542
Ġtre	15538
Ġestimation	15538
ĠIM	15535
tes	15534
gi	15534
Ġbehavioral	15534
Ġencounter	15531
account	15529
Sim	15528
ologies	15527
Chapter	15527
each	15523
cing	15522
Ġsuspected	15521
LP	15518
Ġpreserve	15516
Ġfil	15516
Ġinflation	15515
ãģ«	15514
Ġnobody	15514
ãģĦ	15513
VD	15513
Ġestablishment	15512
ĠAfghanistan	15507
Ġmeaningful	15506
Ġregarded	15503
Mod	15500
uns	15499
Ġcertificate	15499
Har	15496
Ġcortex	15495
rier	15494
Ġtort	15494
Ġbird	15494
Ġwedding	15492
Ġimpressive	15491
""	15490
region	15487
Ġtalent	15486
Ġphrase	15485
Ġlease	15485
DF	15483
ĠHaw	15482
Ġplugin	15481
Ġdeemed	15481
FO	15479
colon	15478
Ġconform	15476
Ġsuspended	15473
Ġarrive	15473
Ġfer	15467
rend	15466
ensive	15464
python	15462
ĠTNF	15459
condition	15458
ĠPass	15456
ĠKorean	15456
ĠFather	15456
Ġresistant	15455
ĠToronto	15454
ĠPHP	15452
ĠLittle	15452
Ġstayed	15451
Ġoxidative	15451
ific	15449
Ġresident	15446
acher	15445
Ġreliability	15445
Ġ''	15443
ĠQueen	15440
Ġpromoting	15436
Ã§	15434
ĠmL	15434
Ġarising	15431
century	15428
Ġbench	15426
240	15423
Ġexpense	15422
ĠSupport	15418
280	15416
Ġindication	15416
Ġcomparisons	15416
Di	15415
Ġelectrons	15415
oking	15412
Ġ----------------	15412
roph	15410
Ġpossess	15410
Ġassign	15409
Ġmicroscopy	15408
ĠLibrary	15406
Ġelderly	15400
Ġendothelial	15399
sample	15398
Ġadjustment	15397
raction	15393
)</	15392
Ġ-------	15390
mass	15389
ower	15387
Ver	15385
Ġartificial	15378
rug	15377
ere	15377
Ġenergies	15375
Ġpersonality	15371
ĠHouston	15370
ags	15369
RL	15369
views	15365
Round	15363
Ġdemonstrates	15362
LY	15358
Ġbranches	15355
idx	15354
bigg	15353
lers	15352
Ġmanifest	15347
Ġlifestyle	15347
Ġspots	15345
Î¼	15343
ĠSystems	15341
ĠRegister	15341
plic	15340
CHAR	15339
Ġfin	15339
Ġexisted	15337
GM	15336
175	15334
Ġinputs	15334
Ġdistances	15333
ube	15331
encing	15330
Ġthreats	15329
ĠÎ	15328
Ġ107	15328
Ġdefinitions	15327
FIG	15324
Ġsuppression	15323
ĠSpirit	15323
article	15322
Ġdefeat	15321
hs	15320
Ġengagement	15320
Ġposterior	15319
VF	15311
Ġinhibited	15311
ĠDefense	15308
Ġvariability	15305
ication	15301
Rule	15301
Ġpointing	15300
Ġnose	15300
iance	15299
Ġvisiting	15298
Ġ1981	15296
Ġdocumented	15295
Ġham	15291
Ġgenomic	15291
itors	15288
Ġ&=&	15288
Ġawait	15286
ĠHim	15286
)_{	15285
Option	15283
ĠIFN	15280
Ġreply	15279
ĠBL	15279
Ġtends	15274
people	15273
Ġranges	15272
Ġtrauma	15271
Ġfac	15271
otes	15269
Ġbull	15266
edu	15265
standing	15262
agen	15262
Ġwarranty	15259
2020	15257
Ġlibraries	15254
ĠCambridge	15249
ĠSaudi	15247
ĠBro	15247
Ġhandler	15246
ronic	15245
Ġminority	15241
Ġparagraph	15231
asts	15230
ĠMoore	15230
ayer	15228
Ġpunishment	15227
Ġclosure	15227
Discussion	15223
132	15223
Ġyeast	15222
Ġcomplaints	15218
165	15217
136	15217
Ġcapabilities	15215
Ġheaded	15214
dk	15209
Ġdistinguish	15208
ĠEgypt	15206
Ġchocolate	15204
},$$	15201
ĠLewis	15201
Ġ1960	15200
Ġrevolution	15199
ĠEric	15199
?)	15198
Ġuptake	15189
Ġhighlight	15186
Root	15185
)}(	15185
ĠAp	15181
ĠEst	15179
Ġfinance	15176
Ġthirty	15175
Ġalongside	15174
ĠFort	15174
ĠEvent	15169
roid	15166
pop	15166
ĠChristians	15166
CONFIG	15163
vc	15161
hard	15156
AY	15156
Ġemerged	15155
Ġopens	15152
ifiers	15150
License	15149
oad	15146
Ġsurprising	15146
Ġsuggestions	15145
Ġdenying	15145
Ġwing	15141
Ġsatisfaction	15141
ĠSa	15140
Ġspray	15139
Ġ255	15135
SY	15132
1992	15132
ĠLatin	15132
phone	15130
Ġupset	15125
118	15123
Ġtim	15122
ĠInterestingly	15121
âĸ	15117
Ġnitrogen	15117
ela	15116
Ġdental	15115
Ġpassion	15113
force	15108
Ġstrip	15107
watch	15106
Ġparticipant	15102
uz	15099
'],	15098
Ġbasketball	15097
753	15096
release	15095
Abstract	15095
Ġhy	15084
ĊĠĠĠĠĠĠĠĠĠĠĠĠĠĠĠĠĠĠĠĠĠĠĠĠĠĠĠĠĠĠĠĠĠĠĠĠĠĠĠ	15083
Ġfaculty	15081
Ġpreparing	15079
ĠShould	15075
Active	15073
ĠHz	15073
Act	15072
ĠNode	15072
oud	15070
Ġinduces	15069
Ġxe	15062
General	15061
`.	15060
Des	15060
Ġfold	15060
ĠTre	15058
Ġdense	15054
uer	15053
lat	15051
ĠNations	15050
custom	15049
Ġoccasion	15049
hot	15042
ABLE	15041
ĠMart	15041
Ġtransformed	15038
Ġwinner	15035
Ġheading	15029
Ġvirtually	15024
[$	15020
147	15020
Ġhosts	15019
Ġanger	15019
Ġbases	15017
stage	15014
Identifier	15012
wd	15011
|-	15008
allow	15003
Ġexc	14999
itable	14993
hep	14993
Ġhar	14990
1991	14986
nam	14984
gal	14984
anti	14977
Ġclaiming	14976
mM	14975
POST	14974
degree	14973
Ġwelfare	14973
946	14969
Ġconstraint	14969
aid	14968
Based	14965
uted	14962
Ġasset	14959
apping	14958
Introduction	14958
Ġreceives	14956
Ġblocking	14953
Ġrespondents	14949
nutrients	14945
Ġcoronary	14945
================================================================	14944
Ġminim	14942
ĠBa	14942
Ġwaters	14939
rank	14938
Ġprobable	14938
Ġticket	14936
Properties	14934
Ġlocked	14931
btn	14928
Ġconfusion	14925
ĠKn	14925
Ġ).	14925
Full	14923
ason	14921
Ġfake	14921
ĠGC	14915
rell	14912
ĠSea	14905
Ġnp	14900
ĠĠĠĠĠĠĠĠĠĠĠĠĠĠĠĠĠĠĠĠĠĠĠĠĠĠĠĠĠĠĠĠĠĠĠĠĠ	14900
Ġri	14899
hex	14896
ception	14895
Ġgovernor	14895
Pos	14893
ÃĲÂµÃĲ	14892
ais	14890
Ġcommunicate	14890
Ġaffirmed	14889
Ġchances	14887
Ġprotocols	14883
hab	14881
Ġ133	14879
ĠSS	14878
edge	14875
Ġoptimization	14875
ĠJo	14875
Ġagenda	14870
Ġconstants	14867
idine	14866
Ġreset	14866
ĠIgG	14865
ĠCommissioner	14865
Take	14864
pton	14863
Ġdecomposition	14861
0005	14857
Ġhat	14857
Mo	14856
Ã	14854
ĊĠĠĠĠĠĠĠĠĠĠĠĠĠĠĠĠĠĠĠĠĠĠĠĠĠ	14854
ĠHas	14853
ĠÎĶ	14852
ĠMil	14849
ĠSilver	14847
Ġwavelength	14844
Custom	14843
Ġsubgroup	14843
Ġcultured	14843
plain	14837
illi	14836
ĠConf	14836
Ġeq	14835
Ġshortly	14834
Ġparams	14834
Ġinterpret	14832
agn	14831
atively	14830
Ġappreciated	14826
iah	14825
Ġpleasure	14825
Ġfrozen	14824
ante	14822
sort	14820
Ġshaft	14818
Ġdetermines	14818
Ġtimely	14817
Ġcircular	14815
sem	14814
144	14813
World	14808
ĠÂ»	14808
Ġsudden	14808
Ġorange	14807
Ġjustify	14806
Ġdistinction	14806
Ġdonor	14802
CTION	14798
Ġsolved	14798
Ġgrain	14797
Ðº	14796
<<	14796
forming	14795
Ġappointment	14795
à¬	14793
Ġtracks	14793
Ġsilicon	14792
ĠCNN	14791
)\,	14788
Display	14787
AX	14786
``	14782
ĠTem	14782
EF	14781
margin	14777
mal	14776
Ġbleeding	14776
ĠTHAT	14775
Ġcookies	14773
Ġefficiently	14767
Ġmutants	14765
rack	14764
ĠMarket	14763
Ġ134	14763
Ġsecured	14761
Ġthrown	14757
Ġlocalization	14757
Ġexclusion	14757
ross	14756
gathered	14755
204	14755
./	14755
Ġcriticism	14755
ĠMill	14752
ä¸	14751
cript	14751
ĠĠĠĠĠĠĠĠĠĠĠĠĠĠĠĠĠĠĠĠĠĠĠĠĠĠĠĠĠĠĠĠĠĠĠĠ	14751
825	14742
Ġtags	14742
ĠBon	14740
134	14739
yz	14737
Both	14736
Ġreputation	14736
iving	14735
Down	14734
Ġnavigation	14733
ifer	14731
Ġthreatened	14730
GFP	14729
ĠChild	14729
Ġreward	14728
rist	14723
Ġmemories	14719
Ġcustody	14719
Ġupload	14718
ĠOUT	14715
fb	14714
Ġstimulus	14708
eman	14706
Ġple	14701
ĠSports	14701
wait	14700
Ġsilent	14699
ĠRos	14695
Ġ{"	14694
Ġstriking	14694
Ä±	14693
Ġoptional	14693
CU	14692
Ġreplication	14690
BF	14689
fo	14688
Ġsuppress	14688
ĠFeb	14685
ald	14683
MAP	14683
Ġanybody	14676
Ġquant	14674
inct	14672
Ġcancers	14671
ĠÃĹÂ	14669
ĠSn	14669
ĠInsurance	14668
ĠSort	14667
Ġcircuits	14661
Ġinstruments	14660
ĠImmun	14660
Ġprejudice	14659
ĠMean	14656
Definition	14655
ĠStephen	14655
fect	14652
Ġflying	14651
Ġhistoric	14646
Ġwins	14645
TL	14644
Ġ1982	14643
ĠMont	14641
pid	14635
ĠTri	14631
yg	14630
tools	14630
Ġliable	14625
ĠHoly	14625
Ġchallenged	14624
Thus	14623
hips	14621
Ġtraits	14618
ount	14617
Ġnonlinear	14617
Ġmature	14606
RNAs	14605
models	14604
Ġtries	14604
ience	14603
Ġconserved	14603
temp	14602
Ġeveryday	14599
utions	14597
ĠWisconsin	14595
Ñĩ	14592
Ġrh	14592
Ġfactual	14590
ĠEM	14588
Ġrescue	14587
Ġdecimal	14586
settings	14583
Ġacted	14582
$).	14577
fall	14576
Ġinches	14575
FONT	14574
ĠException	14574
Ġcalm	14571
Ġgray	14569
Ġbelongs	14568
Ġdried	14567
1986	14566
Ġvegetables	14565
yan	14556
Ġstained	14554
Parameters	14551
yer	14548
screen	14547
Ġ800	14546
wp	14545
ĠDocument	14540
Ġresidential	14538
TM	14536
ÃĦ	14535
Ġsatellite	14534
Ġlitigation	14534
ĠMid	14534
ĠLeg	14533
Ġqueue	14531
Ġmining	14531
iral	14529
Ġrot	14524
Ġflex	14524
ĠFR	14524
oped	14518
.\[[@	14518
170	14516
fit	14515
elli	14515
čĊčĊĠĠĠ	14513
ĠReturns	14512
inflammatory	14511
ket	14510
ĠÎ¼g	14510
Ġgraphs	14510
Ġfilters	14510
ĠProcess	14508
,_	14505
Ġmi	14505
Ġexclusively	14504
ĠSometimes	14504
Ġseats	14503
aced	14502
155	14502
ted	14499
)^{\	14499
Ġgradually	14496
Ġflows	14494
Ġtech	14493
ĠâĤ¬	14490
Ġbedroom	14490
cho	14488
Ġprevented	14488
Ġperpet	14486
forms	14485
lands	14483
ury	14482
hbar	14482
attribute	14477
Ġchem	14477
record	14475
pres	14475
Ġsentenced	14475
Ġimpairment	14472
four	14471
Ġwage	14470
engine	14468
court	14468
zi	14466
sky	14466
Ġflowers	14466
lation	14464
Background	14463
ĠKelly	14463
Ġ<?	14462
NOT	14459
Enabled	14458
Ġwidespread	14456
WH	14455
Ġrespondent	14455
Ġgeneralized	14455
Ġestablishing	14455
Ġsimilarity	14454
Ġconvergence	14453
cha	14451
Ġconfused	14450
Ġactors	14448
irt	14445
Ġmothers	14444
ĠKen	14444
isk	14443
Ġartist	14437
abl	14436
Ġresin	14436
Cons	14433
Ġstating	14432
bury	14429
Ġnotation	14429
Ġxml	14428
Ġ^{	14425
nl	14424
ĠSoviet	14422
Ġroads	14420
Ġcam	14419
ĠXML	14417
pling	14410
ĠES	14410
Ġindependence	14407
Ġdescending	14405
Ġcompression	14405
Ġpas	14404
Ġreplied	14401
Ġminds	14401
Ġintersection	14399
ject	14398
Ġjoining	14397
zip	14393
ech	14392
standard	14390
Ġbarely	14390
erve	14382
Callback	14378
'(	14377
ims	14375
rl	14373
nie	14373
ti	14372
norm	14372
Ġseeks	14371
ĠKansas	14370
Ġscenes	14369
Ġmol	14369
Ġatomic	14369
Pe	14368
ĠSem	14367
through	14366
Ġsymbols	14366
Ġrestore	14365
Ġpolarization	14361
BIT	14360
Bytes	14359
Ġmotions	14359
Ġmethylation	14359
arks	14358
Ġguests	14356
cles	14355
Ġsquad	14354
Ġhook	14353
akers	14352
Ġlady	14352
Ġviewing	14344
Ġexhaust	14344
Ġsalary	14343
Ġ'\	14342
hw	14341
sect	14339
Ġbold	14338
rypt	14337
anks	14335
Ġquestionnaire	14334
Async	14333
122	14333
Ġpreference	14333
ifdef	14332
Ġtrivial	14328
Ġemploy	14327
Ġprocessor	14325
ĠAG	14325
edit	14322
Every	14321
Ġenhancement	14318
Ġcapability	14317
Ġ136	14317
may	14316
Ġfiscal	14313
Ġprescribed	14310
rained	14302
Ġincredible	14302
ĠĠĠĠĠĠĠĠĠĠĠĠĠĠĠĠĠĠĠĠĠĠĠĠĠĠĠĠĠĠĠĠĠĠĠĠĠĠĠĠĠ	14299
Ġje	14297
Ġairport	14297
Day	14295
pad	14284
ulator	14280
"};	14277
ĠCG	14275
ĠWild	14274
Ġdating	14271
ĠRadio	14270
nb	14269
Ġmanaging	14267
Ġunfair	14266
Ġattorneys	14266
Ġacceptance	14262
Names	14259
ĠDown	14259
205	14258
LED	14254
ĠMassachusetts	14254
Ġshed	14253
craft	14252
Ġunf	14252
Ġbriefly	14251
filename	14247
à¥į	14245
Ġpub	14244
riv	14241
ĠUpdate	14239
Ġanterior	14237
ĠNature	14233
tk	14231
&#	14227
Ġattachment	14225
Ġlegitimate	14223
Ġstyles	14222
================	14221
ood	14220
Ġcocaine	14218
Ġoste	14217
Ġacknowledged	14214
Ġviolations	14211
ĠScale	14208
Graph	14207
Ġflu	14207
Ġemissions	14205
impl	14204
$_{	14199
Ġpeptides	14196
ather	14194
Ġdramatic	14190
DO	14189
TX	14187
Ġpartly	14187
ĠMus	14187
lab	14183
Ġsurely	14181
berry	14179
Ġcontention	14178
)}}	14176
Ġcharacterization	14174
Ġoffices	14173
ield	14171
Ġdietary	14167
iqu	14165
.",	14165
sv	14160
interest	14160
Ġoh	14160
Ġprotecting	14158
ĠClinical	14154
)^{-	14150
Ġparticipating	14150
Ġrandomized	14147
133	14146
track	14145
Will	14144
Ġsavings	14144
ĠLC	14142
ĠAug	14142
{}	14141
Ġinvestigating	14141
Ġhex	14141
aser	14137
DATA	14133
toString	14131
augh	14130
Ġprovince	14130
Ġmaternal	14130
Ġfelony	14128
ĠKevin	14128
Adapter	14127
Ġknife	14125
imp	14123
linux	14122
Ġsigning	14122
Ġlandscape	14122
ĠDisc	14122
ĠGOP	14120
ĠLE	14118
Ġunnecessary	14116
ĠĠĠĠĠĠĠĠĠĠĠĠĠĠĠĠĠĠĠĠĠĠĠĠĠĠĠĠĠĠĠĠĠĠĠĠĠĠ	14113
Ġdig	14111
Ġracial	14110
Wh	14109
)*-	14106
Ġmethyl	14106
Ġseal	14101
Ġperiodic	14100
SF	14096
Ġadvised	14093
025	14092
Ġmediated	14090
Ġletting	14087
Ġfuck	14087
âĢĻ,	14083
Book	14081
ski	14079
Ġrepresentatives	14079
ORY	14076
Sign	14074
Ġquasi	14073
Changed	14072
ĠDB	14071
iy	14070
imer	14070
Icon	14069
isms	14066
ione	14065
Four	14063
Ġpad	14062
VI	14060
Ġproportional	14060
Ġconservation	14059
ĠStation	14059
dem	14058
ĠOs	14058
direct	14057
kn	14056
cam	14053
Ġloves	14053
pgen	14052
ĠABC	14050
ubs	14049
Ġshadow	14049
Ġmodifications	14047
iat	14044
å¤	14043
121	14040
Ġcritic	14037
lie	14035
ona	14034
ĠScotland	14031
ido	14028
Var	14028
čĊčĊ	14025
ady	14024
Super	14015
Ġpa	14013
Ġmembranes	14013
Ġremarkable	14012
ju	14011
Ġplots	14010
Ġlovely	14009
ĠKong	14002
Flags	14000
Public	13998
!!!	13995
Ġuna	13994
Rel	13990
Ġcoating	13988
Ġwarned	13985
Ġsentences	13985
Ġpurified	13984
Ġrs	13981
ĠNatural	13980
ĠIrish	13978
Ġ------------------------------------------------	13978
Ġemotions	13975
ogram	13974
Assert	13974
Ġconfigured	13974
ĠCommon	13974
ĠCM	13974
Ġtherein	13973
schema	13972
ĠFunction	13971
ĠCHECK	13971
ÃĲÂµ	13969
ĠTen	13969
Ġelectrodes	13968
ea	13967
Ġimpaired	13964
Ġrect	13963
Ġenforce	13963
Ġcooperation	13958
Cap	13955
Ġsec	13955
ĠJeff	13955
ĠConsider	13954
ĠAssert	13951
transform	13950
ready	13949
ĠPlus	13948
Ġlucky	13941
Ġnursing	13940
Ġactively	13938
Ġconstructor	13937
Ġdrove	13933
ql	13932
138	13932
Ġoutstanding	13929
Ġdict	13928
ĠUkraine	13928
Ġsake	13927
Ġcontroversial	13927
shaped	13926
iest	13925
Ġcop	13925
ASS	13924
Ġgather	13923
156	13922
Ġdebut	13922
ÑĮ	13921
iana	13921
450	13915
Ġfo	13910
&=	13908
ressive	13905
ĠTE	13905
ĠInclude	13904
onia	13903
Ġarrow	13903
Global	13899
Exp	13895
Ġaccomplished	13895
Ġoverlap	13892
áº	13888
ĠUnit	13887
Ġrings	13886
ĠStr	13885
fix	13883
IND	13883
Ġshipping	13883
Ġrelate	13881
Ġradial	13880
Ġhip	13880
Ġcontra	13878
137	13877
Ġprospect	13877
Ġpixels	13877
aya	13874
Ġrein	13874
ĠBrian	13874
Helper	13870
Common	13866
Ġencouraged	13866
Ġdiscloses	13857
ĠWatch	13853
Ġshield	13850
Ġintestinal	13850
Ġinitiated	13849
wn	13845
0004	13845
Ġinfants	13845
Ġwider	13844
Ġrelies	13840
Ġboss	13840
aph	13838
Ġutil	13837
Ġrobot	13837
Example	13836
itted	13835
Ġdisaster	13834
Ġmacro	13833
Ð¾Ð²	13831
Ġslide	13830
Ġinst	13829
Editor	13828
uting	13827
Ġprivilege	13827
Ġtub	13825
Writer	13818
210	13818
Ġfranchise	13818
Ġmoon	13817
Ġlaugh	13817
ĠOb	13816
stit	13814
XF	13811
mc	13810
Cr	13810
Ġsecretary	13809
Ġcircles	13809
Ġtur	13808
Ġpositively	13808
à¤¾	13807
-------	13807
Ġgenerations	13807
mapsto	13805
ä»	13803
lessly	13803
Ġintrinsic	13797
Ġke	13796
Ġbre	13794
Ġfunctioning	13789
Ġcopper	13787
UV	13786
Ġexplored	13786
Ġstops	13785
ping	13782
lan	13775
displaystyle	13775
Ġdominated	13775
ĠRen	13771
fish	13769
utter	13768
flu	13767
RES	13764
Ġgraft	13762
ĠÐ¸	13761
Ġsilence	13761
amide	13760
Ġimportantly	13760
ĠWeek	13757
Space	13756
Ns	13754
Ġcrossing	13752
ĠAB	13750
oked	13749
wiki	13742
Photo	13740
Ġpermits	13739
Ġ137	13737
Ġdot	13735
println	13734
pmatrix	13730
ĠGM	13730
Ġbathroom	13727
Ġlands	13722
ĠWas	13721
ĠDar	13720
Ġattacked	13715
ĠMaryland	13712
Ġbrothers	13711
Ġreasoning	13710
Ġfirms	13708
ĠBMI	13708
Ġemb	13707
ĊĠĠĠĠĠĠĠĠĠĠĠĠĠĠĠĠĠĠ	13707
PRE	13706
Ġcorruption	13703
Ġchat	13703
Ġrape	13702
Ġcontinuously	13700
LICENSE	13699
sen	13698
ules	13697
Ġarrival	13697
Ġinfant	13695
Ġfantastic	13695
-----------	13693
Print	13691
Ġupcoming	13690
Ġgains	13690
Ġcompete	13687
ĠLu	13685
ĠEC	13684
READ	13683
Ġconflicts	13676
ĠATP	13676
History	13675
Ġproxy	13674
hol	13673
ĠRose	13673
Ġquoted	13671
----------	13668
Ġdownstream	13668
Ġannouncement	13667
ĠSearch	13667
*=	13665
Ġprofits	13665
ĠBBC	13663
Ġconvinced	13662
))/(	13660
Ġimpose	13660
ĠSix	13659
Ġ",	13659
abstract	13655
Ġcomputational	13650
ĠNothing	13644
actic	13642
Ġexpertise	13642
gin	13640
metadata	13639
ĠNavy	13638
1989	13635
oli	13634
Ġpursue	13633
Ġcas	13631
ĠAvenue	13630
ĠMuseum	13629
ĠAllen	13628
Ġ138	13625
chan	13624
0003	13619
Ġretained	13619
night	13617
Ġdatasets	13617
åĪ	13613
Ġped	13611
Ġwebsites	13610
Ġfluctuations	13610
ĠSL	13603
Ġreject	13601
Ġfeatured	13600
bus	13598
Ġbags	13596
ĠHaving	13596
Close	13595
Ġgrateful	13595
Ġscanning	13594
ĠSanders	13594
ĠHTTP	13594
ĠOregon	13593
Ġgraduate	13592
Ġ1979	13592
xf	13591
Ġrelied	13590
Ġgerm	13590
1988	13589
Ġcanonical	13589
mov	13586
half	13585
Ġediting	13574
[(	13572
urg	13571
Ġguaranteed	13571
Ġmad	13568
1985	13564
Ġemphasis	13563
Ġdrives	13556
Ġbu	13553
ĠHart	13553
Ġcontemporary	13547
Ġcomply	13545
Given	13544
ptic	13541
iler	13539
Ġgathered	13538
quality	13537
five	13535
Ġtie	13532
Ġrecurrence	13532
Ġmutual	13532
Ġconsistency	13532
oint	13531
ĠPerson	13531
Ġindicator	13528
Ġdrag	13528
Ġcytokines	13527
results	13526
Ġstimuli	13526
itated	13524
ĠHong	13524
fered	13522
Ġchromosome	13522
OCK	13519
Ġmor	13519
Ġcorn	13517
ems	13516
obs	13515
INFO	13515
Ġeigen	13511
Ġinstitutional	13509
ĠClick	13505
require	13501
prefix	13499
ĠTor	13496
Ġaffinity	13494
XX	13489
Ġpublish	13489
Ġwriters	13486
Ġsyntax	13486
Ġexceed	13484
Ġdimensional	13479
Ġstrategic	13478
Ġfiring	13472
Ġmacrophages	13471
anna	13470
Ġreaches	13468
Ġum	13467
Ġought	13467
Methods	13466
West	13461
({{\	13461
Ġmanifold	13461
Ġinhibit	13458
}}=	13455
Ġaccounting	13455
Ġexpectation	13452
Ġconsisted	13451
Ġburning	13450
Ġclothing	13449
Ġtransient	13445
awn	13443
Ġlacking	13443
Ġsolvent	13441
ĠExp	13439
Ġ09	13439
ĠNet	13433
190	13431
ÐµÑĢ	13429
Ġunexpected	13429
wave	13427
Ġmount	13427
ĠHarry	13427
Eq	13425
mol	13424
è®	13422
expected	13421
ament	13419
ĠWay	13419
ĠArea	13416
Ġgenerates	13411
Ġstudio	13410
Ġsanctions	13409
three	13408
Ġstruggling	13407
Ġstaying	13402
sun	13396
Ġoper	13396
osomes	13395
ĠâĢ	13395
Ġdecent	13391
ĠRelated	13390
ĠPhil	13388
would	13387
ĠLabor	13385
ĠSat	13381
Ġretired	13379
Ġmedications	13373
Ġdebug	13373
Ġsubstances	13371
Enter	13370
Ġtobacco	13365
Ġhoney	13365
leton	13364
ĠMuslims	13360
Import	13359
Ġcorrected	13359
Ġcarries	13359
ĠHillary	13359
çĶ¨	13358
nel	13358
ĠDefault	13358
ĠBox	13353
fp	13352
Ġwash	13352
ĠĠĠĠĠĠĠĠĠĠĠĠĠĠĠĠĠĠĠĠĠĠĠĠĠĠĠĠĠĠĠĠĠĠĠĠĠĠĠĠ	13352
:</	13350
Ġ127	13348
hole	13347
ety	13347
anced	13345
Ġcollaboration	13345
eqn	13344
valid	13343
ATED	13343
ĠSelect	13342
vt	13341
uls	13340
lig	13339
1984	13339
ĠKIND	13337
Ġservers	13336
Na	13333
Star	13330
Microsoft	13326
ĠLeft	13326
square	13325
Ġreplacing	13325
cker	13321
ORE	13320
===========	13318
IES	13317
ĠReturn	13317
Ġterrorist	13316
Ġble	13316
Ġau	13315
Ġminimize	13313
Ġslot	13311
clean	13310
kit	13309
Ġolig	13308
hest	13305
Ġfragments	13302
Inst	13301
Ġcollision	13301
ĠScientific	13300
Â»Â	13299
cess	13299
Ġentrance	13299
Ġderive	13298
Ben	13296
))/	13292
Ġdrama	13291
raft	13287
Ġpredictive	13285
Ġelastic	13284
Ġreporters	13283
containing	13276
ĠHollywood	13275
Ġethnic	13269
video	13266
Ġ1977	13266
Ġspinal	13265
ĠMB	13265
ĠColor	13265
pd	13264
ĠÐº	13264
Ġentropy	13263
Ġloose	13262
Ġlongitudinal	13262
Network	13260
TG	13259
Ġroutes	13259
Ġslope	13256
Ġnut	13256
Ġexceptions	13255
VERSION	13253
Ġcake	13253
HTML	13250
="/	13249
Ġfort	13245
157	13244
Ġcontributing	13244
Ġscenarios	13243
oting	13242
ĠUbuntu	13240
icket	13237
Ġentertainment	13236
Ġinitiative	13233
ĠTry	13232
Ġimpression	13230
Ġtooth	13227
Ġdreams	13226
ĠBio	13225
eling	13223
Ġgastric	13220
Ġ170	13219
risk	13218
cost	13218
children	13218
utf	13217
opathy	13209
Ġshifts	13209
MAN	13208
ĠTask	13208
Life	13206
Ċĉĉĉĉĉĉĉĉ	13200
izers	13196
opes	13193
Ġelect	13193
ĠMiami	13193
Ġschemes	13192
acon	13189
ILL	13187
Ġstraightforward	13187
Ġinhibitory	13185
Ġtendency	13183
Ġing	13183
PK	13182
Del	13181
Ġabnormal	13181
ĠAlabama	13181
Ġpossibilities	13178
Ġburst	13178
Ġbroader	13169
chen	13168
999	13168
Ġplacement	13168
)}{\	13166
Ġhired	13166
Ġlicensed	13163
Ġchlor	13163
ĠBas	13162
Share	13161
Empty	13160
Ġpoorly	13159
rew	13157
abb	13157
ï¼ļ	13155
Ġ$${\	13155
Files	13154
ĠEdward	13154
Ġguilt	13153
ĠSimilar	13147
Ġpresenting	13145
Ġbegun	13145
}}^{\	13144
Ġallele	13141
Ġneighbors	13136
Ġfitted	13136
Gr	13135
Ġdetecting	13135
via	13133
ĠJean	13132
ĠCells	13131
ĊĊĊĊĊ	13128
350	13125
Ġmerit	13125
Ġlawyers	13124
Ġspokesman	13123
Ġencountered	13123
Ġsys	13120
ago	13119
Ġ1978	13112
ther	13111
Ġplacebo	13111
iological	13110
mas	13108
Ġships	13108
ITE	13107
Ġpersistent	13102
Ġnoting	13101
ĠCommand	13101
ĠLuc	13100
ĠPhiladelphia	13098
ĠIr	13098
Ġordering	13095
Ġincubation	13090
ĠGene	13087
ĠFive	13086
Ġwanting	13085
Ġequity	13085
Ġanalysed	13085
Ġreconstruction	13082
Ġlesion	13082
Ġcro	13082
ello	13079
Ġdebtor	13078
Ġinvest	13077
Ġindividually	13076
Ġmanagers	13075
ika	13074
WA	13074
Ġneuronal	13074
Ġtro	13072
Ġwithdraw	13071
Ġaligned	13070
Ġsphere	13069
ĠJavaScript	13069
Ġfishing	13068
ĠOverall	13068
cond	13065
Ġoccupied	13064
Ċĉĉĉĉĉĉĉ	13064
cert	13062
Game	13061
report	13059
Ġmeals	13059
rence	13058
Ġprot	13053
146	13052
ĠTB	13050
cong	13044
Ġethanol	13043
opl	13040
Account	13039
Ġstolen	13035
Ã¡Âº	13033
ĠWord	13029
Ġraises	13028
Ġassociate	13028
Appellant	13023
139	13023
ishment	13021
organ	13020
ĠStudent	13020
Ġ123	13020
Platform	13019
Ġchemicals	13019
Ġundefined	13017
Ġdelicious	13015
Ġbelt	13015
}}}(	13013
Ġgolf	13012
030	13011
Ġaf	13010
ĠDiego	13009
ĠBow	13009
Ġdont	13006
ĠAuthor	13004
ĠSmall	13002
ĠCSS	12999
ĠExecutive	12998
ĠÂł	12995
Ġaffairs	12995
cloud	12993
Ġspecimens	12992
ICK	12991
Ġinspection	12988
worth	12986
Ġ(<	12985
202	12984
shift	12981
Ġneg	12981
nes	12979
Ġtriple	12977
PF	12975
Ġlogin	12972
Ġsurrounded	12970
Ġpositioned	12969
Ġoptim	12966
ĠAk	12966
Ġloud	12964
present	12963
Ġcou	12961
ĠMars	12961
Ġlocalized	12960
ĠSeattle	12960
ĠÂ«	12959
Ġcitizen	12959
čĊĠĠĠĠĠĠĠĠĠĠĠĠĠĠĠĠĠĠĠ	12959
Ġformulation	12958
Ġaddressing	12957
Rest	12956
Ġpromotion	12955
Ġmile	12953
ĠAli	12952
198	12950
Ġhandled	12950
ĠChen	12950
Ġalien	12949
callback	12947
Media	12940
bytes	12937
Express	12937
Ġarises	12937
Video	12935
ĠMom	12935
speed	12931
acet	12930
Ġadm	12930
ords	12929
antic	12929
Obj	12928
Ġnegotiations	12928
ĠOklahoma	12928
Ġ-------------	12928
Ġbirthday	12927
ĠEqu	12926
Mat	12925
ĠOil	12922
iny	12920
God	12920
apply	12919
minute	12916
imb	12914
Ġbeings	12914
ĠFootball	12914
properties	12913
ĠARE	12913
ĠChange	12912
springframework	12909
Ġgrace	12909
Ġmeth	12906
uid	12905
154	12905
owner	12904
Real	12904
eh	12900
umps	12898
Ġquit	12893
ĠBureau	12893
DT	12891
Ġgrants	12889
Ġurine	12886
Engine	12882
ĠFC	12880
omet	12878
Ġexclude	12878
"],	12875
Ġlets	12873
),$$	12871
Ġcorporations	12871
ĠNR	12871
ĠLLC	12871
1987	12868
Ġtermination	12867
padding	12865
ĠForeign	12863
Ġverified	12862
wan	12853
omes	12851
Args	12849
ĠNation	12849
ÙĦ	12844
Ġorgans	12841
ĠManager	12841
gly	12838
230	12831
fx	12828
Ġdispersion	12828
Ġhearts	12827
ĠLabour	12827
Ġconsiderations	12826
acing	12821
Ġalloc	12819
Ġpod	12818
Ġgro	12816
Ġtransl	12813
Ġrolling	12812
claim	12811
Ġhighlighted	12810
ĠEp	12810
Ġclubs	12808
XML	12806
âĢ©	12803
Delete	12801
Ġchairman	12801
Ġcarriers	12801
ĠSyrian	12796
Ġlim	12793
Ġfatal	12793
het	12792
Ġsheets	12791
ĠInvention	12791
share	12787
gan	12786
ĠPhoto	12786
Ġprostate	12782
Ġindictment	12778
å®	12774
EQ	12774
depth	12772
Stop	12772
Ġoccasionally	12768
ĠInv	12767
Ġinsights	12763
Ġsimulated	12762
Ġimplements	12757
Ġkiss	12755
shared	12754
Ġexpanding	12754
Ġengaging	12754
Ġsuggestion	12749
Ġbarriers	12749
Directory	12748
Ġshapes	12748
Ġphoton	12748
ĠArm	12748
erry	12746
Ġflexibility	12745
Ġkg	12742
ppat	12741
iced	12741
Ġprescription	12738
ĠCurrent	12738
Dem	12737
pert	12734
ĠJon	12731
Ġapproached	12728
rev	12727
encies	12725
Ġdistricts	12723
render	12722
ĠMi	12722
unct	12720
ĠÎ¼M	12720
Ġbreathing	12719
bling	12718
ĠSelf	12717
sr	12716
Ġremarks	12715
Layer	12714
np	12711
--------------------	12711
ĠRoss	12708
isting	12707
Ġrealistic	12707
Ġmonitored	12704
Ġtournament	12703
=>	12702
Ġtitles	12702
*\	12701
}{{\	12700
ylation	12699
network	12696
Ġinconsistent	12696
wards	12693
Ġangles	12693
æľ	12692
Ġvolumes	12691
Ġdishes	12690
ĠTour	12690
ĠJacob	12690
ĠKat	12689
$^{	12688
ĠForest	12688
Factor	12687
Ġincredibly	12687
Ġvolunteers	12686
ses	12681
Hash	12681
iterator	12679
Ġdevelopmental	12678
Â§	12675
Â¤	12674
>;	12674
Ġdeleted	12674
Ġ-----------	12674
Doc	12672
Che	12671
Ġimpacts	12671
USE	12665
Ġinference	12662
hh	12658
]}	12656
Ġdistant	12655
JSON	12654
Ġlin	12654
Ġsleeping	12653
Ġ1975	12652
Ġpostoperative	12651
Ġmathematical	12651
ĠAsh	12651
Ġyours	12650
Ġ'/	12649
ĠPrince	12648
ĠCV	12648
Ġarrays	12647
Ġmodulation	12646
Ġasthma	12645
Ġsolving	12642
âĦ¢	12641
amer	12641
Ġconversations	12639
both	12637
---------	12636
ĠÃħ	12636
ĠOxford	12636
Ġautom	12633
Kind	12630
Ġencoded	12629
Ġdisposed	12629
ĠHard	12629
Ġ05	12626
Ġmandatory	12625
Ġabandoned	12624
ĠOnline	12624
ĠMarc	12624
Ġmorph	12622
ĠML	12622
WT	12621
Ġdeclaration	12621
åľ¨	12618
IGHT	12618
Ġdying	12618
ĠVisual	12617
Ġthr	12615
Ġneedle	12615
ivers	12614
Ġsens	12614
Ġcho	12613
AH	12612
ĠContent	12612
Ġslice	12610
254	12609
Ġimply	12609
library	12607
PORT	12607
without	12606
Ġsmell	12606
brief	12601
ACH	12601
amps	12599
&=&	12598
Ġpurely	12598
Ġextracts	12598
.....	12597
Ġsuppressed	12597
Ġbalanced	12594
Ġtranslate	12592
Ġfilename	12592
ä¹	12590
bn	12588
Ġdiscount	12588
Ġ\*	12588
job	12587
switch	12586
Wait	12585
Ġspoken	12585
ĠPrice	12584
burn	12581
}$-	12580
Ġdialog	12577
ĠEL	12577
ĠThrough	12575
AMP	12573
ĠFuture	12572
ĠAff	12572
rat	12566
ĠUs	12566
GH	12565
Ġhitting	12562
SV	12559
Ġsubstitute	12555
Ġrib	12552
xim	12551
ĠSym	12549
Ġproceeds	12548
Ġsecretion	12546
than	12543
*\<	12541
Ġmotivation	12538
thing	12531
Ġfocuses	12531
Ġupgrade	12530
Ġnutrition	12530
Ġligand	12530
PATH	12529
Ġaccordingly	12529
âĢ¦.	12528
Ġcontroversy	12527
ĠTheory	12527
Ġsixth	12526
Ġinnovation	12525
Ġappend	12524
Ġpleased	12523
ocon	12522
)/((-	12522
Ġpromoted	12522
ĠMissouri	12520
returns	12517
Ġremedy	12512
Ġpulling	12512
Ġconcur	12512
price	12511
nc	12510
Ġtransitions	12510
yard	12509
ĠDen	12509
udd	12508
Ġconsiderably	12507
Ġarguing	12506
illy	12504
Ġmerge	12503
Ð¿	12502
oni	12502
Ġcyt	12500
--------	12499
Ġoperational	12496
PAR	12495
Ġdozen	12494
Ġanalytical	12492
proof	12491
ãģ¯	12490
Ġexplaining	12489
Ġexhibits	12488
ĠHotel	12488
Ġmag	12484
DEBUG	12483
ĠCE	12483
racy	12481
Ġtranscripts	12479
oney	12478
Ġintact	12476
}})$	12475
Ġmorphology	12475
024	12474
Email	12473
Ġethical	12473
âĢĿ)	12470
ĠâĢĭ	12469
neg	12468
Ġgarlic	12460
ĠBoy	12459
Ġtmp	12458
Ġmobility	12458
Evaluate	12453
arily	12452
(!	12452
Ġenum	12451
ĠSav	12449
Ġrum	12447
BY	12443
Ġč	12438
Ġcure	12436
Ġ,\	12426
done	12420
Ġterror	12418
}:	12417
vision	12417
Ġties	12416
="../	12415
iac	12414
IDE	12414
Ġ350	12414
actor	12411
iso	12410
ĠNBA	12410
inline	12407
Ġconducting	12407
Ġevaluating	12405
ĠWithin	12405
Ġfounder	12404
206	12402
ĠĠĠĠĠĠĠĠĠĠĠĠĠĠĠĠĠĠĠĠĠĠĠĠĠĠĠĠĠĠĠĠĠĠĠĠĠĠĠĠĠĠ	12402
atum	12400
Ġreviewing	12399
ĠMount	12399
success	12398
ĠROS	12398
uts	12397
uate	12396
icy	12396
166	12394
ĊĉĠ	12390
Users	12389
Ġnarrative	12389
ĠBul	12389
Ġprefix	12387
Ġfate	12387
Ġreserve	12386
Ġphones	12386
ĠBuild	12386
LOG	12383
Ġton	12383
ĠJe	12383
Ġenemies	12381
ĠMessage	12381
oved	12379
Trump	12375
,âĢĻ	12375
aken	12372
ĠArch	12371
Ġreportedly	12370
(:	12368
Ġinnocent	12368
Ġang	12366
Ġmaxim	12363
Ġcannabis	12362
Ġ1976	12362
pic	12361
ĠâĢĻ	12360
coll	12359
Art	12359
Lock	12357
Ret	12354
ĠCle	12352
Ġconvenience	12351
ife	12350
Ġlegally	12350
Channel	12347
Ġposting	12347
Ġprayer	12346
Ġplacing	12345
ĠDirect	12344
Ġswing	12342
Ġimplementing	12342
Ġ02	12342
ĠInf	12341
Ãº	12339
Ġofficially	12339
143	12336
Those	12334
ĠLib	12334
$;	12332
ĠCt	12332
Si	12330
ĠSky	12330
\|_{	12327
aga	12326
Ġhomogeneous	12322
Ġnurse	12319
ĠMur	12319
Ġcurvature	12318
Stack	12316
Ġhormone	12315
Ġsustainable	12313
quant	12312
Ġballs	12312
protected	12308
ĠRapids	12308
Ġvaries	12306
Ġoutdoor	12304
ĠFred	12303
ĠOP	12302
AST	12300
Ġthrew	12299
Ġasserted	12299
Pool	12298
Ġcounting	12298
ĠFactor	12297
187	12296
Pal	12292
Ġheaven	12291
Ġ------	12291
Ġrecruitment	12290
Ð¼	12288
idity	12287
Ġgar	12287
ĠTan	12284
sing	12283
ĠGovernor	12281
ĠFinal	12281
grad	12275
driver	12275
.[]{	12268
Ġocean	12268
ĠBUT	12266
Age	12263
regulation	12262
Ġconstitutes	12261
illary	12259
ĠMotion	12259
ĠRF	12254
Storage	12252
Ġfever	12252
Ġscroll	12251
Ġtraveling	12250
para	12249
Ġcow	12248
äº	12247
âĤ¬	12247
ĠDallas	12243
anch	12241
Ġolive	12241
Ev	12240
Ġmethodology	12238
agent	12237
ĠEs	12236
Åį	12235
Ġacquire	12232
ĠMY	12232
integer	12228
plane	12223
Ġtender	12223
ĊĠĠĠĠĠĠĠĠĠĠĠĠĠĠĠĠĠĠĠĠĠĠ	12221
platform	12220
TF	12220
ĠGolden	12220
Ġdenoted	12219
ells	12218
177	12218
>::	12216
Ġshifted	12213
Ġlessons	12212
ĠPalestinian	12212
900	12211
ĠTarget	12211
Ġ[$	12210
Ġcoat	12207
inos	12206
aze	12205
Edge	12204
Ġnuclei	12203
wed	12202
Ġnav	12202
Ġappellate	12201
ĠSF	12201
otherapy	12200
Ġtears	12199
Ġ"%	12199
Ġextracellular	12195
Ġvalidate	12194
Ġprobation	12194
bor	12193
Ġmetastasis	12193
ĠKit	12192
Ġenv	12191
ĠFinancial	12190
ĠCOURT	12189
148	12187
Ġbiology	12187
Ġ121	12186
Ġpollution	12180
bullet	12178
Ġcups	12177
ĠAlexander	12176
Ġappearing	12175
Ġlesser	12174
Ġsusceptibility	12170
185	12169
Ġraces	12169
Ġwages	12168
Ġsubstrates	12166
Ġcod	12166
ĠRequest	12165
ANG	12164
\*\*	12163
Ġindirect	12163
News	12162
ATA	12156
Ġhanging	12155
Ġimmigrants	12154
parameter	12152
ĠSil	12152
_;	12151
Ġ"-	12151
ĠUpon	12150
ĠWould	12149
Invalid	12148
ĠBall	12147
aces	12145
Ġconfigurations	12143
ype	12141
Ġspeaker	12141
Ġrally	12138
Ġobjectives	12138
Ġviable	12137
Ġgamma	12137
Ġorganisms	12134
Policy	12133
Ġstepped	12131
~\	12130
ĠDim	12130
look	12129
Ġmerits	12127
ears	12126
ĠEr	12124
ĠRules	12121
Ġclip	12120
ĠTur	12120
Ġdiscussing	12117
bro	12114
Ġabilities	12114
Ġdramatically	12112
^{+	12111
Byte	12111
Ġbelonging	12109
Ġasserts	12109
ĠMother	12107
ĠHamilton	12107
Ġpseud	12105
ĠMC	12103
ĠSingapore	12102
Ġfallen	12100
Sur	12098
hidden	12096
Ġinvestigators	12096
ived	12095
Ġdevelopments	12094
Ġdrops	12093
lay	12092
Ġcharging	12092
opol	12091
Ġwrap	12091
original	12090
Ġhighlights	12090
gate	12089
ĠCarl	12089
)\\	12088
tern	12087
ĠTennessee	12086
classes	12085
Ġrobbery	12085
ä¸Ń	12084
equals	12083
gel	12082
Term	12082
ĠAdv	12080
ÃĲÂµÃĳ	12079
ĠWars	12078
167	12073
Ġsy	12073
ĠUSE	12073
ĠChannel	12071
Ġ---------	12071
ĠTony	12070
Ġproducer	12069
Ġprompt	12068
pred	12067
Ġtrim	12067
twitter	12066
Ġinnovative	12066
Ġlengths	12065
]=	12063
Ġnecessity	12063
Ġ--------------	12063
208	12062
Ġtopological	12060
Release	12057
Ġadoption	12057
ĠRome	12056
Ġblot	12054
Ġ----------	12054
Ġriding	12053
Ġmic	12051
Ġsingular	12050
Ġpink	12050
gra	12049
131	12047
delim	12046
ĠHan	12044
SON	12043
Ġdip	12043
Ġoperates	12041
ride	12039
Ġexcitation	12039
ben	12036
195	12033
FLAGS	12032
Ġhumanity	12032
ĠOrganization	12032
cross	12031
225	12030
conv	12029
375	12027
Ġfluorescent	12026
oted	12025
cas	12022
Ġcredibility	12022
ĠRon	12022
Ġassertion	12020
ĠMRI	12018
Ġfreely	12014
Ġgrab	12013
Ġoxidation	12012
Ġprevents	12011
ĠEditor	12011
188	12010
Ġsafely	12010
omatic	12009
Win	12009
tri	12008
Ġpacked	12007
ror	12006
oi	12005
FOR	12005
opp	12004
Ġconvex	12004
ĠNight	12004
Âµ	12002
ĠCapital	12001
gif	12000
1980	12000
Ġwisdom	12000
Det	11999
Ġbol	11999
Ġconsult	11998
hom	11996
Ġio	11995
Ġincorrect	11995
Ġmesh	11994
ĠClark	11994
Ġmil	11990
_(	11989
Ġprojected	11989
Ġaffordable	11988
reed	11986
piece	11986
Matrix	11986
Ġwid	11986
caps	11985
Ġwheat	11984
ĠBad	11984
Ġstopping	11982
Ġinvasive	11981
Ġattending	11981
Ġtriggered	11980
sized	11979
Ġfucking	11979
Ġalterations	11979
)$-	11978
Ġmodest	11978
Ġlighting	11978
ĠDam	11978
inch	11977
fra	11975
ael	11975
Ġdonors	11975
ĠVis	11972
typedef	11966
Ġunity	11964
Ġë	11963
ĠGi	11963
atching	11962
ĠLanguage	11960
Ġadaptation	11959
ĠBridge	11959
extern	11958
Ġpromises	11958
ĠBit	11958
ĠYouTube	11954
Ġcatalyst	11953
Ġasync	11948
Ġapt	11948
Mask	11946
Ġconfirmation	11945
Api	11944
ãģ¨	11941
uy	11941
ĠKh	11941
>();	11937
ĠProtection	11937
Ġpill	11936
Ġmeets	11934
Ġcombining	11933
ĠDIS	11930
}$)	11928
Ġbother	11927
ĠExpression	11927
ĠChampionship	11926
Ġnurses	11925
â	11924
Ġshame	11923
Ġcameras	11923
exists	11921
Ġwa	11919
Ġutilize	11918
Float	11916
inating	11915
Math	11915
Ġresort	11915
Ġrelaxation	11915
ĠĠĊ	11914
Ġinherent	11913
ĠRoy	11912
ĠSarah	11911
Ġathletes	11909
ĠFarm	11909
Ġdesc	11907
ĠJason	11907
David	11905
Card	11905
ĠMeanwhile	11904
Ġprec	11900
Ġconcert	11900
Âĩ	11899
ulsion	11899
Ġbud	11899
ĠPURPOSE	11898
Ġdeficit	11897
Ġdensities	11893
Ġconditional	11893
esh	11891
Ġmetrics	11891
Bit	11883
ĠSK	11883
walk	11881
ques	11881
ĠWHERE	11879
tests	11878
deg	11878
Pointer	11876
Ġoccasions	11873
ĠAuto	11871
Ġretention	11866
Ġinvestments	11866
Ġhanded	11865
Ġartists	11865
Ġ08	11865
Ġ------------	11864
ĠStock	11861
username	11859
spin	11858
Ġanalog	11857
ĠExpress	11856
ĠBerlin	11856
Ġarbitration	11852
bel	11851
ĠAuthority	11849
infected	11847
ĠTex	11847
Ġtet	11845
Ġprotests	11845
Ġfoo	11843
ĠCost	11840
Ke	11839
360	11834
Ùħ	11832
distance	11832
\#	11831
Ġanimation	11831
utor	11830
Ġtestify	11825
ĠCat	11825
Copy	11824
UTF	11823
Ġgolden	11822
Ġinsured	11820
ĠAccount	11820
224	11817
MIN	11814
Ġmistakes	11811
Ġjudges	11810
Transform	11809
Ġfloating	11805
Ġdiagonal	11805
coming	11804
Ġcompiler	11802
Selected	11801
Ġdatabases	11800
prom	11798
arts	11795
linked	11793
istent	11793
'))	11793
ĠLicensed	11790
ĠHoward	11790
![](	11789
ĠExample	11789
Ġsocket	11788
Ġstri	11787
Ġmotivated	11786
mult	11785
Ġcru	11785
Rem	11784
clusion	11783
Ġensuring	11783
ÙĪ	11782
Ġdated	11781
Ġenormous	11773
iki	11772
Ġremand	11771
ĠStore	11771
pot	11770
Ġbaking	11770
Ġ175	11770
164	11769
osed	11768
Queue	11766
Ah	11766
ASH	11765
Ġsupers	11764
Ġactivists	11764
ĠStudio	11763
weet	11758
Ġyard	11757
Ġearnings	11754
agon	11749
Ġeff	11749
esis	11748
Ġintr	11748
ĠĠĠĠĠĠĠĠĠĠĠĠĠĠĠĠĠĠĠĠĠĠĠĠĠĠĠĠĠĠĠĠĠĠĠĠĠĠĠĠĠĠĠĠĠĠĠĠĠĠĠĠĠĠĠĠĠĠĠĠĠĠĠĠĠĠĠĠĠĠĠĠĠĠĠĠĠĠĠĠĠĠĠĠĠĠĠĠĠĠĠĠĠĠĠĠĠĠĠĠĠĠĠĠĠĠĠĠĠĠĠĠĠĠĠĠĠĠĠĠĠĠĠĠĠĠĠĠĠĠĠĠĠĠĠĠĠĠĠĠĠĠĠĠĠĠĠĠĠĠĠĠĠĠĠĠĠĠĠĠĠĠĠĠĠĠĠĠĠĠĠĠĠĠĠĠĠĠĠĠĠĠĠĠĠĠĠĠĠĠĠĠĠĠĠĠĠĠĠĠĠĠĠĠĠĠĠĠĠĠĠĠĠĠĠĠĠĠĠĠĠĠĠĠĠĠĠĠĠĠĠĠĠĠĠĠĠĠĠĠĠĠĠĠĠĠĠĠĠĠĠĠĠĠĠĠ	11748
Ġpremises	11745
Ġamongst	11744
Ġ139	11744
OUR	11743
Ġlegislature	11742
Ġcrop	11742
Ġinitiation	11740
Ġsav	11739
~-	11738
ĠPsych	11738
Ġbare	11736
ĠTreatment	11736
mn	11735
Ġboards	11734
operation	11733
Ġlat	11732
UG	11731
ĊĠĠĠĠĠĠĠĠĠĠĠĠĠĠĠĠĠĠĠĠĠĠĠĠĠĠĠĠĠ	11731
sters	11730
Ġthrowing	11730
arly	11726
Ġprognosis	11726
Ġdowntown	11726
})$.	11723
expression	11723
ĠDark	11723
gram	11722
à´	11721
ĠSummer	11721
ĠVery	11720
required	11717
Ġtherapies	11714
ancing	11712
ĠNi	11712
Ġinsertion	11710
Ġads	11710
Ġshops	11709
jet	11708
Try	11706
Double	11705
ĠSenator	11704
ENCE	11701
ĠNK	11700
ĠEv	11700
Ġultra	11696
sym	11693
176	11693
Ġhire	11693
Ġ]{}	11693
Ġindustries	11690
Sw	11687
Ġfib	11685
_-	11684
Ġrepository	11683
Ġ240	11683
mel	11679
ÐµÐ	11676
Ġjustified	11674
Contact	11673
Ġchopped	11673
ĠSEC	11672
Unc	11670
Ġspeaks	11669
Ġdistribute	11668
Ġ"",	11667
Ġconvention	11664
Report	11663
OLD	11661
shell	11660
Ġuniversities	11660
Ġbasal	11659
\)	11658
Ġredirect	11657
Ġdeploy	11657
Ġpassenger	11655
Ġmanufacturers	11655
charge	11654
ĠWalker	11654
Ġcond	11652
Ġ04	11652
Ġreactive	11650
oured	11647
handler	11647
ANK	11646
mk	11645
ĠMorgan	11645
sel	11642
Fi	11640
ĠĠĠĠĠĠĠĠĠĠĠĠĠĠĠĠĠĠĠĠĠĠĠĠĠĠĠĠĠĠĠĠĠĠĠĠĠĠĠĠĠĠĠ	11640
ÙĬ	11639
[:	11639
))?	11638
ĠcDNA	11637
Ġantibiotics	11636
Member	11634
Ġcats	11634
Ġobligations	11633
bits	11632
Ġtent	11630
ribution	11629
ĊĊĠĠĠĠĠĠĠĠĠĠĠĠĠĠĠĠĠĠĠ	11628
Ġemails	11627
Ġbackup	11627
ĠPARTICULAR	11627
264	11625
Ġaveraged	11623
Ġempirical	11621
209	11618
,[	11617
ifndef	11616
Ġsupplement	11613
ĠTrade	11612
ĠTurn	11611
ONG	11608
Ġavoided	11608
Subject	11606
Ġfought	11606
Ġfruits	11604
ĠÐ´	11603
Ġveteran	11602
arth	11599
Ġpackaging	11597
clock	11594
alls	11593
ĠBlock	11593
xsl	11592
1983	11592
plate	11591
ieve	11589
Ġmainstream	11589
Ġdistress	11588
Ġarts	11587
ĠCOVID	11587
Ġdeserve	11586
Ġratings	11585
Ġduct	11585
dfrac	11584
Ġholder	11583
ãģ§	11582
Ġchips	11581
ĠElizabeth	11581
virtual	11576
eld	11576
azz	11575
Ġpreserved	11575
Ġexperiencing	11575
ograph	11574
Ġgenotype	11574
since	11573
irm	11571
Ġdesk	11570
ders	11568
Equ	11568
Ġcancel	11567
Ġalternatives	11565
Ġmayor	11564
ĠKeep	11563
Ġ1950	11563
Job	11561
Ġblockchain	11561
ĠSquare	11561
ãĥ³	11560
Ġiter	11558
Ġacqu	11558
odot	11557
oder	11554
Ġgranting	11554
Ġadvances	11549
lee	11547
ĠWales	11546
Ġflood	11545
Black	11543
Ġsearched	11543
Ġapproximate	11542
osition	11541
ĠMoon	11541
184	11540
Ġrefuse	11537
Ġcatal	11537
Parser	11533
1982	11533
Ġaccomplish	11533
uda	11532
formation	11532
Ġvoluntary	11532
sg	11531
oidal	11531
ĠAF	11528
Ġhappiness	11525
Ġdump	11524
ĠâĢľ[	11523
Ġpole	11523
inking	11522
Ġmus	11522
ĠDisney	11520
ĠInteger	11517
Ġadhesion	11516
ĠBesides	11515
Ġupstream	11512
Summary	11506
isions	11503
ools	11501
try	11500
Ġeastern	11500
ogra	11499
]-[@	11499
ĠFITNESS	11499
eff	11497
Ġintensive	11497
Ġresidue	11496
ĠLater	11495
ĠMember	11494
ĠCredit	11494
174	11493
Ġhabit	11493
ï	11492
Ġ$|\	11491
Ġrevised	11490
ĠCollection	11489
ppers	11488
Ġaden	11486
ĠUSB	11486
Kit	11483
Ġevolutionary	11481
ĠBlood	11481
)+\	11479
Ġps	11478
ĠRick	11478
Ã´	11477
abilities	11477
Sm	11477
ĠRow	11477
ĠBu	11476
Ġbuttons	11475
Ġcompile	11473
ĠCruz	11473
Ġshirt	11471
Ġselecting	11471
ĠVector	11471
Ġpaste	11468
uma	11466
fore	11466
$:	11466
Ġut	11464
identifier	11463
Ġtumour	11462
Ġclinically	11460
ĠUtah	11458
mond	11457
153	11449
Ġdivorce	11448
Ġloc	11447
_*	11445
ĠDutch	11445
Ġpseudo	11444
Player	11443
ĠNat	11441
stock	11439
ĠHA	11439
Ġ1973	11439
Health	11438
ĠAI	11437
Ġ124	11437
}}}_{	11436
Ġstationary	11436
ĠNotice	11436
Ġviability	11433
âĪ	11432
oxic	11432
Ġinfluenza	11432
Ġconsumed	11432
Ġdeck	11431
Ġprimers	11430
ĠHal	11429
Ġrival	11428
ĠStep	11427
osome	11425
159	11424
Ġloads	11423
ĠCaptain	11422
tp	11421
mitted	11420
Ġillustrate	11420
Ġexponential	11419
alling	11418
Ġranked	11418
ĠResponse	11418
Ġsusceptible	11417
Ġrecipes	11417
Ġ``	11417
inson	11413
aus	11413
onomy	11411
[]{	11410
VR	11410
Ġcounted	11409
ĠVietnam	11409
Ġrelevance	11407
ector	11403
Ġthereafter	11403
Ġpremium	11401
Ġsom	11400
Ġpainful	11400
did	11399
028	11398
Ġdisclose	11398
ĠLive	11398
initial	11397
Ġagricultural	11391
except	11390
Ġmusical	11390
uated	11388
quoting	11387
oster	11386
amic	11385
emon	11380
flag	11379
ulatory	11375
emat	11374
Ġallocation	11372
IZ	11370
ĊĠĠĠĠĠĠĠĠĠĠĠĠĠĠĠĠĠĠĠĠĠĠĠĠ	11365
UST	11364
Ġappellants	11364
ĠTal	11362
vee	11361
ÙĨ	11359
ĠZe	11359
Ġfigured	11358
ĠĊĊ	11358
ç»	11350
Play	11348
Ġintroducing	11347
oving	11346
Ġtap	11346
=\"	11345
ĠJul	11345
Binding	11344
ĠGET	11344
Ġfetal	11343
Ġcenturies	11343
program	11341
Ġpredetermined	11341
ĠOtherwise	11341
{$	11337
Ġskip	11337
tf	11336
ĊĠĠĠĠĠĠĠĠĊĠĠĠĠĠĠĠ	11334
alg	11332
Ġtickets	11331
ĠFrancis	11331
ĠHad	11330
Ant	11326
|_{	11324
olin	11323
Ġaffidavit	11322
press	11318
ĠMcG	11318
anny	11316
Ġbeef	11315
ĠLouisiana	11315
Ġprolonged	11314
æľī	11313
Ġgraphics	11312
cycl	11311
Register	11311
Further	11307
040	11307
Ġincidents	11307
were	11305
Ġcalendar	11303
ĠPK	11302
Ġcrossed	11301
Sal	11300
Ġamplification	11299
irk	11298
Ġfurniture	11298
igg	11296
Ġtransit	11295
ĠSab	11295
Ġdx	11291
ĠLind	11291
Met	11290
ĠPhysics	11289
ĠJane	11286
ĠArts	11286
^](#	11284
Ġ1972	11284
ĠGP	11283
[-	11279
ĠFilm	11279
Ġfur	11278
ĠCamp	11278
Ġtackle	11276
Ġconjunction	11276
ĠNASA	11272
207	11269
Ġinfectious	11269
ViewController	11268
fileID	11267
come	11266
LINE	11266
controller	11265
Ġwrit	11263
Ġseemingly	11263
Ġopp	11263
Save	11261
Ġcorrections	11260
uster	11259
erred	11258
Ġventricular	11258
Security	11257
Ġcertified	11255
Ġlake	11252
olves	11248
Ġrecommendation	11244
iable	11243
skip	11242
ĠDA	11241
Ġrelax	11240
Ġcarb	11240
rick	11239
reset	11238
).\	11238
Ġevolved	11235
LV	11233
ĠMess	11233
resh	11230
Texture	11226
Ġ360	11226
Ġbon	11223
Ġdismissal	11221
asis	11220
Em	11217
Ġcone	11217
ĠBP	11215
ĠAffairs	11215
ĠNetherlands	11214
Ġemployers	11213
ference	11211
Ġbrands	11211
Short	11209
ipl	11208
eval	11208
arXiv	11208
Ġcontamination	11208
Ġregret	11207
Ġexec	11202
Ġrotating	11199
Ġundergoing	11198
ĠCustom	11198
à²	11193
512	11193
Ġcurious	11193
Ġ.$$	11193
027	11192
SB	11191
026	11190
Ġawards	11190
Util	11189
Ġdynamical	11189
ĠET	11188
Ġdemonstrating	11186
ĠUnlike	11186
Sample	11185
Ġmarginal	11183
ĠMERCHANTABILITY	11183
comm	11178
ĠEll	11177
ĠDrug	11177
Av	11174
Ġtwelve	11174
Ġorbital	11174
Ġ--------	11173
Ġgrey	11168
Ġ201	11168
ĠSenior	11167
ĠRecently	11167
ĠProte	11166
ĠBM	11166
iph	11161
Ġsubtle	11160
Ġcorrupt	11157
Ang	11155
162	11153
ĠDouble	11153
cin	11152
Ġtransverse	11152
Ġdrain	11152
Ġeng	11151
Ga	11150
)->	11150
Ġtongue	11150
Ġcouples	11150
ĠMayor	11150
execute	11149
Ġsettle	11149
rous	11146
idence	11146
enny	11146
pattern	11145
Ġfeasible	11144
INS	11143
asy	11141
Ġdir	11141
iques	11139
Ġpublications	11138
Ġachieving	11137
ä¸Ģ	11136
Ġâī¤	11136
Ġhorses	11136
Ġ126	11135
aden	11133
bas	11131
BV	11130
ouch	11129
contin	11129
Ġtear	11129
react	11126
Ġtopology	11125
)-\	11123
Ġpressed	11122
abe	11121
Direct	11120
ĠFront	11120
ĠJay	11119
ĠTokyo	11118
ĠAppendix	11117
Ġlips	11115
iments	11114
Ġsorts	11114
ĠSOFTWARE	11113
ĠResources	11113
Ġhill	11112
Ġenrolled	11112
TEXT	11111
Ġdent	11111
ige	11110
Ġcylinder	11110
203	11107
___	11104
Ġwise	11104
Ġlesson	11103
Ġdialogue	11103
Â£	11102
Ġhoped	11101
Ġexcuse	11095
Ġcov	11095
ocy	11091
Ġrigid	11091
Ġpit	11090
ĠHay	11088
ĠWHO	11087
Ġspontaneous	11086
Ġabdominal	11085
ĠEngineering	11085
ĠBeing	11083
ĠLPS	11080
Home	11079
Ġasc	11079
Ġ1974	11078
Ġswimming	11077
ĠAddress	11077
ensions	11075
Ġoutputs	11075
osc	11074
Ġcontacted	11074
ĠMountain	11074
eno	11071
à¦	11067
cale	11065
Ġtubes	11065
Ġblade	11064
ĠTa	11064
ĠSurvey	11064
)](#	11062
ĠLO	11062
overs	11060
general	11060
Ġactivate	11059
Ġlemma	11057
Ġcollabor	11056
ÃŃa	11055
lg	11055
Ġunemployment	11055
Ġphenomena	11055
Ġeth	11054
Comment	11053
Ġvon	11053
Obv	11047
Enum	11046
Ġdeletion	11046
ogs	11045
../	11044
Ġmanufacture	11044
Ġgall	11044
oice	11040
Ġdisplacement	11040
Ġ122	11039
Ġ"âĻª	11038
Ġmot	11037
Ġconvictions	11037
bx	11036
uzz	11035
drop	11034
'-	11034
ĠNeither	11034
Ġmicroscope	11031
ĠMaterial	11031
Therefore	11029
ÂĮ	11028
olt	11025
Information	11025
ĠMusic	11025
Effect	11024
Ġtheft	11024
Ġsends	11021
Ġhint	11021
Ġtrap	11019
Ġpromotes	11019
Ġord	11017
ressing	11016
Ġcerebral	11016
245	11015
ĠNH	11015
Loc	11013
ĠÎ¼m	11012
Ġthreads	11012
Ġcontributes	11012
Ġbail	11012
ĠLat	11012
owski	11008
Ġscared	11008
Ġtons	11007
Ġbabies	11006
Ġspecification	11004
ĠAssistant	11004
MY	11002
umes	11000
tim	11000
Ġundergo	10999
Ġneighbor	10999
scan	10998
Ġrig	10998
Ġfluor	10998
Ġrental	10996
tor	10994
UX	10994
ISH	10994
etal	10993
$),	10993
lections	10992
Light	10992
ĠDisease	10992
Ġloops	10990
\{\	10989
ĠBackground	10982
activated	10978
Ġpose	10978
ĠSafety	10978
rict	10976
Bean	10976
Ġlemon	10973
Ġextensions	10972
Ġcmd	10972
ĠCy	10970
ĠPers	10969
into	10968
Ġspark	10968
Ġsheep	10968
aneous	10967
Ġoccupation	10966
ĠJerusalem	10962
ocom	10961
))$	10961
acity	10960
ĠFourier	10960
hydro	10958
variant	10956
Ġaqueous	10956
ĠSummary	10955
uter	10954
Ġadventure	10954
ĠShort	10954
Lib	10953
Ġpap	10953
olf	10952
Ġproposals	10951
Ġinstruct	10951
Ġrack	10950
information	10949
Ġinstability	10947
ĠMonte	10946
Ġserv	10945
ributed	10942
ĠĠĠĠĠĠĠĠĠĠĠĠĠĠĠĠĠĠĠĠĠĠĠĠĠĠĠĠĠĠĠĠĠĠĠĠĠĠĠĠĠĠĠĠ	10942
Ġextraordinary	10941
ĠWright	10941
Remove	10938
Ð·	10936
usions	10936
download	10935
Ġconcentrated	10932
olution	10930
Ġsustain	10930
Ġ(âĪĴ	10930
sha	10929
Ġsnap	10928
arp	10925
ĠDetroit	10924
Rad	10923
Memory	10923
ĠCIA	10923
clusive	10922
ĠHeart	10920
Ġbeneath	10917
ĠEV	10917
ĠHot	10916
ĠCB	10916
roy	10915
Ġweighted	10915
Ġuniformly	10915
Ġdistal	10915
Ġdemocratic	10914
comb	10913
Ġdistinguished	10913
Package	10912
Ġlif	10912
rip	10911
Ġinstructed	10911
yy	10908
ĠInput	10908
Should	10907
ĠMas	10907
Ġdirectors	10906
Ġdrinks	10905
words	10904
ĠAbs	10904
ĠOntario	10903
ĠMg	10903
editor	10902
Ġtransfected	10902
-->	10901
=$	10900
Ġheated	10900
vey	10897
Ġspect	10897
ĠLab	10897
inks	10896
Ġbuf	10896
Ġ03	10896
NM	10895
Ġlegacy	10895
Flow	10893
Ġfacial	10893
__(	10892
\](	10892
ĠMT	10891
Â¡	10890
Ġtrailer	10890
months	10889
anth	10889
ucks	10888
Ġendogenous	10887
Ġanonymous	10887
ailing	10886
ĠRaj	10885
Following	10884
ĠOpp	10883
Ġclustering	10882
player	10880
Ġineffective	10880
Ġnegatively	10879
Ġwrapped	10877
Ġjunction	10877
Arg	10876
Tom	10875
White	10874
ĠSaint	10874
forward	10872
Ġrecon	10872
Ġcooked	10872
037	10870
uj	10869
Ġqueries	10868
Ġsynthesized	10867
Ġstocks	10867
ĠLoc	10866
artifactId	10865
abc	10865
Auto	10865
Ġinfluences	10865
Ġcaution	10865
imm	10864
ĠWH	10864
pal	10863
Ġgre	10863
resistant	10861
ĠEnt	10861
events	10860
emphasis	10859
ĠBuilding	10857
ĠKal	10854
Ġbacked	10853
ĠThompson	10853
ĠDer	10853
Ġdesert	10851
Ġtranslated	10850
Ġabroad	10849
Ġsurveys	10848
claimed	10847
Ġsons	10847
ĠGuide	10846
fun	10843
VP	10843
ĠĠĠĠĠĠĠĠĠĠĠĠĠĠĠĠĠĠĠĠĠĠĠĠĠĠĠĠĠĠĠĠĠĠĠĠĠĠĠĠĠĠĠĠĠ	10842
ulates	10841
role	10841
mouse	10841
ĠProm	10841
ĠProv	10839
design	10838
Ġdefence	10838
Ġautomated	10838
ĠSweden	10838
ĠFound	10837
ĠâĨĴ	10836
Ġmyth	10833
Ġhopefully	10833
Ġproducers	10832
))\	10831
Ġwithdrawal	10831
Ġnom	10831
Ġdeciding	10829
ĠInterest	10828
radius	10826
pu	10826
xsd	10825
athe	10824
disp	10820
ĠSum	10819
dh	10818
Ġexploration	10818
asion	10817
Ġhepatic	10817
lm	10816
cz	10816
ĠAustin	10815
Ġcriterion	10814
bigl	10812
Ġtick	10812
Ġdependency	10812
ĠJud	10812
Ġty	10809
alle	10806
Ġwhilst	10806
Ġharmful	10806
Ġreleases	10805
Ġdf	10805
ĠAnthony	10805
Ġvalidated	10804
Ġstatutes	10804
ĠAA	10804
their	10801
okes	10799
{{{\	10798
Ġfasc	10797
[*	10796
Pass	10796
152	10795
Ġcomprised	10795
Ġsensory	10794
Ġcervical	10793
ĠSimon	10793
Ġdrew	10792
uing	10791
Ġremind	10789
Ġenterprise	10789
rons	10788
Bundle	10788
rh	10782
ĠrÃ©	10782
Ġrubber	10782
ĠLED	10782
Ġwashing	10781
Ġutilizing	10778
ĠDor	10777
uce	10776
Ġmyocardial	10776
ê	10775
-,	10774
SK	10771
Scale	10770
Auth	10770
Ġtoll	10769
Ġethics	10769
Ġplotted	10768
pled	10766
hpp	10764
ĠCro	10763
Ġfn	10761
mock	10759
Ġ'<	10759
xF	10756
Ġrevision	10755
Ġquad	10754
Ġou	10754
Ġhouseholds	10754
Ġ07	10751
dm	10749
Ġdiscipline	10749
URI	10748
Ġconv	10748
Ġantenna	10748
ancer	10746
ĠVice	10746
Ġshower	10745
Ġphosphate	10743
andra	10742
Ġunstable	10742
Ġheaders	10742
Ġ129	10742
305	10741
Ġcollecting	10739
atus	10738
??	10738
*),	10738
Ġeliminated	10738
wal	10736
loss	10736
best	10736
Ġrendering	10735
bing	10734
ĊĊĠĠĠĠĠĠĠĠĠ	10733
Ġrestored	10732
Ġhub	10732
Ġshaped	10731
subject	10730
Ġfractions	10730
ument	10729
Ġsitu	10729
SN	10728
itary	10727
Ġvacation	10725
ĠSar	10725
props	10724
Bi	10724
Ġterrorism	10724
ĠLORD	10723
Ġ256	10722
Ġrecombinant	10719
Ġhabits	10719
Ġcompromise	10719
Ġ700	10719
Ġinterrupt	10717
Ġcharacterize	10717
212	10716
Ġsink	10716
Ġpsychiatric	10716
ĠDemocrat	10716
Ġmapped	10715
Ġconsist	10715
ometry	10714
hbox	10714
aco	10712
Leg	10712
driven	10711
Program	10710
IK	10708
cn	10706
;"	10706
pay	10703
dest	10703
atur	10702
Proxy	10699
234	10699
ĠSTR	10698
smallcaps	10697
Ġears	10696
wx	10694
ashi	10693
Ġopposing	10693
nan	10692
ĠAnti	10692
ĠFourth	10691
OPT	10689
cel	10688
Ġprom	10688
Ġgravitational	10687
ĠInst	10685
ede	10684
Simple	10684
wind	10683
){\	10683
Ġcelebrate	10682
ĠConst	10681
Ġprimer	10680
Ġleuk	10678
ilization	10676
Ġquestioned	10674
$^	10671
Ġgrows	10671
otor	10670
Ġbrush	10670
Ġlocus	10668
ridge	10667
158	10667
ĠFDA	10666
Ġsubjective	10664
wer	10662
groupId	10662
DH	10662
BER	10662
Ġhi	10662
ĠMM	10662
======================	10661
)~	10660
Ġdeposited	10658
Ġdemanding	10658
Ġcomedy	10658
ĠCulture	10657
Ġregards	10656
Ġencouraging	10656
aro	10654
Ġtranscriptional	10654
Ġaluminum	10654
Ġenabling	10653
ĠSept	10653
149	10651
Ġexploring	10651
Ġrounds	10650
Ġchemistry	10650
missions	10647
ĠStone	10647
Ġgit	10646
ĠVideo	10644
een	10643
Ġessence	10642
ĠEarly	10642
Sam	10640
ORD	10637
ĠMexican	10637
ĠKan	10637
Ġillustrates	10636
Ġactin	10635
ĠOlympics	10635
uto	10632
Ġreservoir	10632
Ġfavour	10632
293	10631
annotation	10629
Ġoffenses	10629
Ġrefugees	10627
ĠGuard	10627
verted	10626
ĠEPA	10626
Ġpride	10624
IGN	10622
Ġremembered	10622
Ġelite	10621
Ġsubsection	10620
Ġprobes	10619
Ġdesktop	10616
ĠEN	10616
Ġkinetic	10614
ĠDal	10613
ĠEss	10612
Ġpi	10611
ADD	10610
Ġexamining	10610
Ġunders	10606
Descriptor	10605
Ġconscious	10605
ĠStaff	10605
ĠMarx	10604
ĠTech	10603
Ġassessing	10601
independent	10600
Ġcoaches	10598
ĠFlu	10598
Ġdining	10596
ĠWrite	10596
ĠSher	10596
Ġhind	10595
Ġwalks	10593
Ġjournalists	10593
Ġimproper	10590
osity	10589
Ġmetals	10589
ĠCounsel	10588
Selection	10587
Db	10585
ĠCould	10585
DIS	10584
Ġmas	10584
ĠEND	10581
ply	10580
kes	10580
Ġexpecting	10579
Ġanticipated	10579
Ġsteam	10578
Ġdamn	10578
iology	10577
icted	10576
Ġbiopsy	10573
ĠEmpire	10572
abil	10571
Ġwars	10569
í	10568
rock	10567
ĊĉĊ	10566
Ġopponents	10563
Ġns	10563
ĠINTO	10562
ĠAtlanta	10560
ĠĊĠĠĠĠĠĠĠĠĠĠĠ	10560
marks	10558
Ġpassive	10558
ĠGraph	10558
ÐµÑĤ	10557
ĠDeputy	10555
rine	10554
olved	10554
Bo	10554
anol	10553
airs	10553
Ġedited	10553
inding	10552
ĠCN	10552
Ġallocated	10551
Ġmounting	10550
Ġhol	10549
Ġfetch	10549
ĠBarack	10547
á	10546
season	10546
tc	10545
exe	10545
ĠPO	10543
olo	10542
ashes	10542
Ġwx	10542
ĠSant	10541
Ġmechanics	10536
Ġchampionship	10536
Li	10534
0010	10534
Ġdecor	10534
qq	10533
169	10533
Ġscholars	10532
ĠNic	10531
Ġpreceding	10529
boot	10527
APP	10527
197	10527
Mintage	10526
ĠManchester	10525
testing	10524
reat	10521
.""	10520
Ġslower	10520
Ġoz	10519
ĠBowl	10517
ĠAK	10517
ĠRelations	10516
ĠCart	10509
omers	10506
Ġmountains	10506
ĠGreece	10503
Ġbandwidth	10502
ĠSTAT	10500
ĠMoscow	10500
ĠExchange	10500
Ġlane	10497
ĠSY	10497
Ġnod	10496
idi	10495
Ġbul	10495
ĠINT	10494
Ġgeometric	10493
ĠIl	10493
Ġcab	10492
ĠCast	10492
Hz	10491
Ġforcing	10491
emic	10490
Func	10490
Ġcausal	10489
Ġalarm	10489
ĠLaboratory	10488
ĠSupplementary	10485
ĠRemove	10485
ograms	10483
Ġdisposition	10482
Ġcontainers	10480
Ins	10476
033	10476
Ġpret	10476
Ġhosted	10476
Ġantibiotic	10476
ĠBO	10476
Ġgoogle	10475
---|---|---|---|---|---|---	10474
Ġqualify	10474
acks	10469
Msg	10469
åħ	10468
manager	10468
Ġallies	10468
Ġbypass	10467
Ġauthentication	10467
ĠLevel	10467
Screen	10466
Cur	10465
Ġpic	10465
Ġdeparture	10465
rus	10462
erated	10461
bat	10461
Ġdeposit	10459
Ġtowns	10458
Ġpancreatic	10455
Ġavoiding	10455
Ġadaptive	10453
Ġdiabetic	10448
Ġthroat	10447
199	10446
Ġsimplicity	10446
rf	10445
pur	10445
*^*	10445
ĠHon	10445
ĠCONDITIONS	10445
303	10443
Timeout	10442
ĠMult	10441
Ġsummarized	10440
Ġswim	10439
itative	10438
parallel	10437
atar	10436
Ġpassengers	10435
Ġ\+	10432
Ġregulating	10431
Ġborders	10431
Ġthoroughly	10429
ince	10427
bigr	10426
Ġsymptom	10426
ĠLady	10426
formula	10423
Ġagrees	10423
ĠDoctor	10422
Ġwhereby	10421
agan	10420
Ġfiltered	10419
dam	10418
Ġworship	10418
Ġadequately	10415
ird	10414
Ġattitudes	10414
ĠPatrick	10414
Sen	10413
320	10412
čĊčĊĠĠĠĠĠĠĠ	10412
Ġclearance	10411
ĠDuke	10411
ĊĠĠĠĠĠĠĠĠĠĠĠĠĠĠĠĠĠĠĠĠĠĠĠĠĠĠĠĠĠĠĠĠĠĠĠĠĠĠĠĠĠĠĠ	10411
ĠCarter	10410
Ġcaptain	10409
ĠSpe	10409
Ġoutlined	10408
fly	10407
ÂĴ	10405
WORD	10405
ä¸į	10401
ĠAud	10400
ĠCountry	10399
Ġrecipient	10397
Ġnights	10396
Details	10394
Ġsurvived	10394
Schema	10391
)));	10391
}^*	10387
yle	10384
ĠStatus	10384
ĠNM	10384
ĠFre	10384
oker	10383
Ġdirty	10381
Proof	10379
ĠServ	10377
Ġrejection	10376
exception	10373
ois	10371
Ġhandful	10370
Ġperformances	10369
Ġenrichment	10368
ĠSize	10368
icing	10367
ĠTy	10366
Ġmalignant	10364
Ġreproduce	10363
Ġhyd	10363
limit	10362
Øª	10359
Ġdeadly	10359
Ġcant	10358
Ġhack	10357
offs	10354
ANCE	10354
386	10354
Ġproving	10354
oro	10353
ĠLim	10350
RC	10349
Ġcontinuum	10349
entity	10348
counter	10348
Ġqualitative	10347
Ġhorror	10347
boolean	10346
bank	10346
Ġquest	10346
ĠAst	10345
Ġluminosity	10344
Ġsensing	10343
Ġlys	10343
142	10342
+)	10342
ĠHum	10342
="-	10341
270	10340
Ġjoke	10340
Ġcock	10340
Ã©t	10338
ighter	10336
ĠPas	10336
Ġamb	10334
Ġappellee	10332
oned	10331
login	10328
Ġinteracting	10325
closed	10324
inite	10320
Ġcra	10320
Ġonc	10317
Ġhighway	10316
Ġpreferences	10314
character	10313
Ġdear	10313
Ġsoci	10311
ĠSpect	10311
EDIT	10310
Ġvirtue	10310
ĠGA	10310
istics	10309
gets	10309
Ġcritics	10308
ĠJun	10308
MEM	10306
hd	10305
Ġexert	10305
typename	10304
Internal	10304
Ġschema	10304
rical	10302
MODE	10302
:"){	10302
Ġquotes	10302
Conclusion	10301
Ġfre	10301
Ġmaintains	10298
Ġcursor	10298
Ġcampaigns	10298
Ġforeach	10296
åĲ	10294
Ġrod	10294
faces	10293
1981	10293
Ġdeployment	10293
Ġspecialized	10292
iden	10288
Ġbesides	10288
Ġ?>	10288
contact	10287
Acc	10287
ĠUt	10287
ĠBern	10287
Ġproductivity	10285
ĠBASIS	10284
Ġpropagation	10283
Off	10282
Ġconnectivity	10282
Ġcourage	10281
ĠTaiwan	10281
Ġclone	10280
ĠSeason	10280
resp	10278
Ġdemographic	10278
ivation	10277
Ġgoverned	10277
simple	10276
Plugin	10276
Ġlob	10274
Ġnie	10273
ĠContract	10273
--------------------------------------------------------------------------------	10272
Ġcompiled	10271
).](	10269
ĠRelease	10268
itations	10265
Unknown	10264
sets	10261
ĠDVD	10261
Ġproximity	10260
216	10259
Ġ06	10259
lection	10256
Ġacceleration	10256
Normal	10255
pcbi	10252
ĠWarren	10250
ĠAnimal	10250
Ġlisting	10249
iÃ³n	10248
Ġengines	10248
pn	10246
QL	10246
ĠÅ	10244
Ġcurrents	10244
Ġslip	10242
Ġreass	10241
ĠRom	10241
Ġcumulative	10240
ĠSite	10240
ĠSV	10239
ĠHAVE	10239
Ġrolled	10236
Ġelementary	10236
Sem	10235
222	10235
aning	10231
Ġautomobile	10231
Ġidentifier	10230
Great	10228
Âı	10227
Ġharassment	10227
Ġpotentials	10226
STATE	10224
rans	10223
Ġtower	10222
Ġmeters	10222
ĠAz	10222
Valid	10221
ACC	10221
amount	10220
Ġequals	10220
Ġbanking	10219
omics	10217
Related	10216
Ġenriched	10216
Ġsituated	10215
Ġquarterback	10215
tech	10214
Ġvent	10212
Ġoct	10212
ĠDigital	10211
mount	10210
Ġperforms	10210
ĠDa	10210
quin	10208
ĠMich	10207
Ġ"_	10207
Ġrecruited	10204
Ġdevoted	10204
196	10203
aim	10202
Ġspite	10202
Ġburied	10202
Sorry	10201
Ġstake	10201
frequency	10200
Ġbeans	10199
Ġdisable	10198
HH	10197
ĠStatistical	10197
cv	10196
xff	10195
ington	10195
akh	10194
Google	10194
Person	10193
Ġdefeated	10193
ĠRod	10193
oding	10192
important	10192
Paul	10192
Ġamid	10192
Ġindicators	10191
Ġpronounced	10189
Ġcatheter	10189
ĠJose	10189
auer	10188
Ġflip	10188
MAT	10187
141	10187
ties	10186
Inv	10186
Ġalkyl	10186
ĠFranklin	10186
ĠDun	10186
books	10184
something	10182
ĠGas	10182
UID	10181
Ġshoulders	10181
ĠMort	10181
large	10180
Ġgaming	10180
aton	10179
Ġblend	10176
Scroll	10174
HO	10174
Ġgym	10174
boy	10173
asting	10173
Ġpediatric	10173
ĠiPhone	10170
Ġextensively	10170
ĠRevolution	10170
ĠGulf	10170
rand	10169
oj	10167
Xml	10167
Ġshelter	10167
Ġdelta	10167
ĠOrgan	10167
Ġ[$\	10166
ĠIron	10166
ĠStory	10165
safe	10164
Ġlam	10163
Ġ220	10161
ÎºB	10160
ÛĮ	10159
Ġcoronavirus	10158
igs	10157
Ġsaline	10157
Mock	10156
ĠCloud	10156
Ġthemes	10153
ĠDeath	10152
INGS	10151
HP	10151
Ġdeployed	10151
ĠBody	10151
special	10149
arding	10148
ĠmiRNA	10148
Ġirrelevant	10146
Ġabnormalities	10146
Ġtunnel	10145
Ġceremony	10145
ĠNative	10145
Ġtouched	10144
Ġracing	10144
Ġcalibration	10144
Ġstrikes	10143
Ġministry	10143
Ġfra	10143
Ġcytokine	10143
ĠNT	10142
ĠGov	10139
Ġascending	10138
ĠGre	10137
ĠĠĠĠĠĠĠĠĠĠĠĠĠĠĠĠĠĠĠĠĠĠĠĠĠĠĠĠĠĠĠĠĠĠĠĠĠĠĠĠĠĠĠĠĠĠĠ	10137
Cast	10136
ession	10135
beat	10133
Dep	10133
Ġbrilliant	10133
ĠRh	10132
inary	10130
Ġintegr	10129
Best	10128
Ġtem	10128
Ġresponding	10128
}{(	10126
Ġabused	10126
247	10124
memory	10123
Seq	10123
citing	10121
aught	10121
ĠAtlantic	10121
relation	10120
345	10119
ĠPred	10118
Ġdepicted	10117
Ġabandon	10117
Ġarrangements	10116
(__	10115
Ġoverview	10114
Ġmob	10113
Ġanchor	10113
istically	10112
Ġparental	10112
unique	10110
otted	10110
Ġresection	10110
Ġconsequently	10110
otion	10109
304	10107
+(	10107
Standard	10106
ĠPremier	10105
ĠBan	10105
Ġfatigue	10104
exit	10103
Still	10102
Send	10101
Ġnovo	10099
external	10098
Ġscreens	10098
Ġfixing	10098
Ġbullet	10098
ĠEconomic	10098
Ġexercises	10096
364	10094
Ġzones	10093
throw	10092
vention	10090
Ġaccepting	10088
arma	10087
Ġfears	10087
Ġranks	10086
components	10085
Conf	10084
ĠEnter	10084
Ġtransmit	10080
Ġemotion	10079
ĠIranian	10079
Ġfeaturing	10078
ĠANOVA	10078
Native	10076
Ġsulf	10076
Ġhunting	10075
ĊĠĠĠĠĠĠĠĠĠĠĠĠĠĠĠĠĠĠĠĠĠĠĠĠĠĠ	10074
imated	10071
Ġinterfaces	10071
228	10070
Ġrestrict	10070
Ġabundant	10069
Meanwhile	10067
Ġaccommodate	10067
308	10066
Ġwishes	10066
Ġ164	10065
middle	10063
Loader	10062
>>>	10061
Ġgaps	10061
ĠJS	10061
plicit	10059
Ġmineral	10059
Ġinadequate	10059
Miss	10057
ĠAdams	10057
Ġinvent	10056
bu	10054
ĠFT	10054
Ġdemanded	10053
Ġportable	10052
1979	10050
Ġtrips	10049
National	10048
Ġtit	10048
Ġnotable	10048
Ġacet	10048
ĠEffect	10048
ĠLas	10047
goto	10044
between	10044
Ġvit	10044
lier	10042
0006	10038
Ġnotification	10036
Ġdisrupt	10036
ĠBab	10036
ToString	10035
=====================	10035
Ġforgotten	10035
osomal	10033
Ġsophisticated	10032
Ġdeputy	10031
jquery	10030
211	10030
Ġcompositions	10029
Ã¥	10028
panel	10028
221	10026
178	10025
icking	10024
ORS	10024
Ġjournalist	10024
emb	10022
Ġrabbit	10021
ĠOk	10020
oration	10018
ĠFestival	10017
tv	10015
third	10015
Ġlabour	10015
ĠGall	10015
404	10014
ĠTed	10014
ignment	10013
borne	10013
Ġprintf	10013
ĠEvidence	10013
509	10012
mers	10011
arity	10011
utable	10008
Ġsearches	10008
384	10007
ĠProcedure	10007
:[	10006
ĠFifth	10006
pair	10005
WD	10005
à¤°	10003
BASE	10003
Ġpharmaceutical	10003
ĠGra	10002
Ġcentered	9996
Several	9995
Po	9995
Ġspreading	9995
him	9994
Pop	9994
Ġloving	9994
GD	9992
ENC	9990
Ġarr	9990
lik	9989
Gs	9989
complex	9988
dig	9985
UB	9985
Ġproductive	9985
Sum	9983
ĠPhot	9983
})=	9981
vere	9980
cpu	9980
194	9979
Ġbones	9978
ĠBeijing	9978
Ġpension	9977
owed	9976
ĠDead	9976
oven	9975
Ġcirculation	9975
factor	9974
Ġvoices	9971
Ġbubble	9971
312	9970
!\	9970
Ġprohibited	9969
Ġarrows	9969
ĠVA	9969
ergic	9967
Stat	9967
Ã£o	9966
Court	9965
Ġnons	9964
uments	9963
Ġinvoke	9963
Ġaccompanying	9962
ĠActive	9962
hn	9961
ario	9958
bold	9957
Library	9957
Ġcalculating	9957
ĠRobinson	9956
tic	9953
ĠÂ	9953
ĠChem	9953
181	9952
ĠCooper	9952
Ġclicking	9949
ĠWARRANTY	9949
ĠâĪ	9947
}_{-	9946
ician	9944
Ġaccord	9943
hydroxy	9941
ĠArabia	9941
Ġciting	9940
Ġassembled	9940
ĠFall	9940
ĠArthur	9940
Ġvo	9939
rian	9938
Ġneglect	9936
Ġgently	9935
ega	9934
rix	9933
SCs	9932
Ġye	9932
looking	9931
ĠTGF	9931
Move	9929
storage	9928
Ġadmits	9928
ä¸º	9926
Ġsql	9926
mate	9925
Ġclarify	9923
}>	9922
Database	9922
LF	9920
Ġcoin	9920
Sn	9919
English	9919
Ġpathogenesis	9919
260	9917
ĠYES	9917
ĠProduct	9917
})$,	9913
Ġ##	9913
171	9911
NY	9910
Ġgathering	9909
ĠWang	9909
Ġcrude	9908
Ġincomplete	9907
ĠFab	9907
Ġ192	9907
aman	9904
Ġpredominantly	9904
Ġimplicit	9904
ĠReact	9904
Ġoutbreak	9902
^*$	9901
PIN	9901
Ġtemple	9901
ients	9898
Ġteaspoon	9897
Ġwaited	9896
Ġ131	9895
Ġsongs	9894
}_{{\	9893
Ġrestart	9892
Ġnucleotide	9892
Ġlanding	9892
Ġov	9891
cks	9890
Ñ	9889
235	9888
Ġcattle	9887
Ġrevenues	9886
Ġquantified	9886
ĠCox	9886
tem	9885
Support	9885
Ġguided	9885
Ġirregular	9884
10000	9883
Ġstructured	9880
Ġsoccer	9880
Ġdough	9880
Ġflesh	9878
oa	9877
Ġphotographs	9877
Draw	9876
vest	9875
Ġquark	9874
Single	9873
Nav	9871
Ġfol	9871
ĠLegend	9871
Ġimproves	9869
Ġsteep	9868
ochemical	9865
ĠĠĠĠĠĠĠĠĠĠĠĠĠĠĠĠĠĠĠĠĠĠĠĠĠĠĠĠĠĠĠĠĠĠĠĠĠĠĠĠĠĠĠĠĠĠ	9865
*:	9861
ĠDave	9861
Ġglyc	9860
ĠReference	9860
.");	9856
Ġwooden	9856
Ġconsiders	9856
ĠNMR	9856
Download	9855
Ġju	9855
pet	9854
phys	9853
Ġanalyzing	9853
="@	9852
Ġinjunction	9852
)",	9850
Ġpressing	9849
Ġskilled	9848
ĠEuro	9848
Ġpriest	9846
AI	9845
Ġgifts	9845
213	9844
/-	9844
Ġgener	9844
ĠLD	9843
Ġmanufactured	9842
variable	9841
ĠCommerce	9841
Ġstimulated	9840
Ġseverely	9840
Ġhomeless	9840
Hand	9839
inator	9838
Green	9838
Ġinch	9838
ĠSimple	9836
Ġtypename	9835
gb	9834
school	9833
Metadata	9832
Ġurged	9832
Ġnit	9832
income	9830
ĠKentucky	9830
Ġpolls	9829
ĠRO	9829
029	9827
ayers	9825
ĠEXPECT	9825
ĠMobile	9822
ban	9821
ĠDelhi	9819
olve	9818
Ġoutlet	9818
Ġinteractive	9818
Ġdressed	9818
iano	9816
Ġdarkness	9816
189	9815
ĠUP	9815
ĠAV	9814
chn	9813
nic	9812
fact	9812
Ġorthogonal	9812
ĠTM	9810
Ġjavax	9808
rx	9807
193	9807
Ġhorizon	9807
RD	9806
Ùİ	9805
Ġantioxidant	9805
Ġreproductive	9804
Ġbadly	9803
Ġranged	9802
ĠMot	9802
oprotein	9801
Ġprisoners	9801
ĠTag	9801
ãģĮ	9800
="{	9800
Ġplasmid	9800
Ġterminated	9799
Ġbuck	9798
exper	9797
ATH	9797
Ġpun	9797
pler	9796
ĉĉĉĉ	9794
å¾	9793
Ġesc	9793
ĠProp	9792
iger	9790
Ġspecialist	9788
Ġarterial	9788
Ġswitched	9786
fixed	9785
Follow	9785
Ġsectors	9785
TRUE	9784
Ġreception	9784
Ġeager	9784
Ġcortical	9784
ĠMatthew	9784
structure	9783
Ġcontend	9783
Ġbugs	9783
Ġdashed	9782
Ä	9780
Ġfulfill	9780
Ġdictionary	9779
Ġcotton	9778
Ġanalytic	9775
ĠDifferent	9773
Ġ144	9773
asted	9772
South	9772
Ġsoluble	9770
score	9769
amped	9769
Ġpaired	9769
Ġdielectric	9769
Ġacres	9769
ĠPrint	9769
ĠLem	9769
rene	9768
Ġvarieties	9768
Ġ1971	9768
Ġwaiver	9767
Ġgrasp	9765
ĠTraining	9765
Ġsealed	9764
opts	9762
rite	9759
oes	9758
>)	9758
Ġ145	9758
ceptions	9756
Ġinability	9756
ĠVI	9756
035	9755
Ġgal	9755
Ġintelligent	9754
Ġimprisonment	9754
Ġbuilder	9754
Ġproton	9753
ĠMut	9752
urch	9751
Ġ[âĢ¦]	9751
ĠINC	9749
ĠBart	9749
ĠPi	9748
Ġprep	9747
ĠRs	9747
Ġ---------------	9747
Ġcontractor	9744
ĠTurkish	9744
lick	9743
Ġconstituted	9743
Ġbal	9743
ĠCut	9742
ĠHT	9741
bur	9740
nal	9739
arer	9738
365	9736
theme	9734
Place	9733
ĠKennedy	9733
Ġinappropriate	9732
Ġmanipulation	9731
Ġcoil	9731
}$]{}	9730
Iterator	9730
179	9727
ardo	9726
igan	9724
Ġpray	9724
ither	9723
ĠEverything	9723
iri	9722
ĠItem	9722
Ġexpressly	9721
ordinate	9719
Power	9719
ĠHarvard	9719
rays	9718
Attributes	9718
Ġunw	9718
Ġfiltering	9717
Ġembryos	9715
Having	9712
ĠMedicare	9711
ANS	9710
=============	9710
Ġrecurrent	9708
306	9707
Es	9705
Ġtransistor	9704
Ġsoup	9704
ĠVir	9704
crete	9700
Ġincorporate	9699
ĊĠĠĠĠĠĠĠĠĠĠĠĠĠĠĠĠĠĠĠĠĠĠĠĠĠĠĠĠ	9699
igration	9697
Ġtransplantation	9695
ĠChi	9694
Tim	9693
Ġaforementioned	9691
Ġuncertain	9690
405	9689
Ġequivalence	9689
ĠACC	9689
;;	9688
uke	9687
Len	9685
Ġlogo	9684
created	9683
apse	9682
Ġsupplemented	9682
Ġdesigner	9682
Ġsubstituted	9680
Ġgarage	9679
jud	9678
Ġpie	9678
same	9677
hook	9674
appe	9674
Ġpunct	9673
Ġoverexpression	9672
nil	9671
Ø¯	9670
Ġmetadata	9669
Ġdozens	9669
ĠLearning	9669
policy	9668
generated	9668
Mal	9668
Ġseized	9668
tax	9667
Variable	9666
LI	9666
038	9665
ilities	9661
ĠLin	9660
license	9659
Notes	9659
333	9659
Character	9657
Ġphosph	9657
Ġapple	9656
COMP	9654
Ġruntime	9653
Ġ%}	9653
acle	9652
Os	9652
ĠCreek	9652
Ġexceptional	9651
Ġbilateral	9650
ĠPetitioner	9650
ĠCondition	9650
Vs	9648
ĠCos	9647
oscopy	9646
ĠWat	9644
Could	9642
ĠSEM	9640
Îµ	9639
enders	9639
tags	9638
ĠRab	9638
ĠGFP	9638
ĠBeck	9638
ĠHS	9637
Ġreversal	9636
Ġ1968	9636
ðŁ	9635
Ġscrew	9635
Match	9634
Dev	9634
Âª	9633
(-\	9632
ĠBol	9632
Ġoptimized	9631
ission	9630
Statement	9629
Ġsupervision	9629
Ġcompelling	9629
Ġleak	9627
Ġcleared	9627
ĠGraham	9625
ĠEle	9624
otypes	9623
Ġpainting	9622
Ġox	9620
Ġbeside	9620
Ġultrasound	9619
Ġmold	9619
Ġconstitution	9619
Ġlifted	9616
tex	9615
Ġputative	9614
ĠIRS	9614
163	9613
Ġsimpl	9612
ĠTree	9607
Ġpresumably	9606
Ġcookie	9605
Ġwings	9604
Ġensures	9603
ĠRepresentative	9603
cop	9602
ĠDenver	9600
does	9597
Ġbears	9597
friendly	9596
idal	9595
Ġtimeout	9595
Ġimplicated	9595
Ġbeating	9595
Ġthumb	9592
Ġproves	9592
groups	9591
angular	9591
Ok	9591
arded	9589
orth	9587
ĠRich	9587
Ġlean	9586
Ġcoalition	9586
ĠFollow	9586
henyl	9584
ĠGordon	9584
racted	9582
enabled	9582
sig	9581
ĠTu	9580
Living	9579
ĠMic	9578
Ġrush	9577
Ġplanes	9575
Ġdissolved	9575
ĠProtein	9575
country	9574
Ġenvelope	9574
ĠNelson	9572
Ġinspiration	9570
]$.	9569
guard	9568
Ġclaimant	9568
Ð°Ð	9567
Ġ450	9567
Ġassumes	9565
Ġspectroscopy	9564
Ġsignatures	9564
Ġretrieve	9564
Ġessay	9564
pec	9563
Ġpathological	9563
Ġdest	9563
alo	9562
Socket	9562
Ġenjoying	9561
Ġbite	9561
Meta	9560
ĠEP	9559
prov	9558
Ġvaccination	9558
Ġminus	9558
Ġceiling	9558
ĠSydney	9558
Figures	9556
151	9556
ĠRemember	9556
viruses	9555
050	9551
syn	9549
San	9548
Ġdealt	9548
usted	9547
Ġunfortunately	9547
ormal	9545
ĠSET	9544
Ġvec	9543
Ġbis	9543
Ġactress	9543
sensitive	9541
Ġconc	9540
Ġbiochemical	9540
Ġ(_	9540
dimen	9539
oom	9538
ĠMem	9535
ĠBat	9535
ĠInternal	9533
aba	9532
itness	9531
Ġthreatening	9531
ista	9530
Pat	9529
ĠLink	9529
natural	9528
dark	9528
ĠTX	9528
Ġdocumentary	9527
Ġhierarchy	9526
Ġnullptr	9525
Ġmandate	9525
Ġaggregate	9524
Ġbreakdown	9523
Ġcyber	9522
Ġports	9521
Ġwarnings	9520
Ġdischarged	9519
Ġagriculture	9519
ĠâĢĿ	9516
ĠDiv	9516
Ġcolored	9515
=""	9513
Ġanalogous	9512
Ġadolescents	9512
Ð¾Ð´	9511
ĠRomney	9511
mand	9510
omin	9509
submit	9507
161	9504
Ġmicrobial	9504
visible	9503
Ġphen	9503
186	9501
ĠEng	9501
Ġvein	9500
single	9499
Rob	9498
Ġalternate	9495
Rearrange	9494
#.	9493
Ġjunior	9493
idden	9491
Ġbot	9491
cmp	9490
lon	9487
spring	9486
rust	9486
Ġnanoparticles	9486
ĠjQuery	9486
tar	9485
Ġcoherent	9483
olding	9482
Ġforecast	9482
ĠSNPs	9482
Ġknock	9481
ĠBaltimore	9480
ĠSche	9479
Ġharsh	9478
Ġrefusal	9477
ĠResource	9477
sheet	9475
Scope	9475
pkg	9474
Christ	9474
ĠTele	9474
ĠStewart	9473
Ġleather	9472
anted	9468
Ġsuspicion	9468
ferences	9466
stitution	9465
iotic	9464
named	9463
TIME	9463
Ġstadium	9463
Ġintend	9463
Ġsalad	9462
Ġconfigure	9462
hyd	9461
:#	9461
lesssim	9460
Ġprev	9460
oded	9459
batch	9458
Center	9457
Ġ"^	9457
Ġuntreated	9456
ĠRat	9456
decl	9454
ATT	9452
cod	9449
asi	9449
fection	9448
aping	9447
Ġviolate	9446
March	9445
rome	9444
lif	9444
Ġctx	9444
Ġconce	9443
Ġkin	9442
dependency	9441
ĠEnvironmental	9441
Ġgenus	9440
Ġattracted	9439
resources	9438
contains	9438
Ġunreasonable	9436
Ġmarrow	9434
LT	9433
Ġfibrosis	9433
ĠCharlie	9433
heat	9429
........	9428
Boolean	9427
Ġbladder	9427
complete	9426
ĠWhit	9424
ĠRussell	9424
ĠLincoln	9424
Ġgrip	9423
Ġblast	9423
Ġendpoint	9422
ĠBoolean	9420
enger	9419
Ġmetabolites	9419
ĠStadium	9415
brain	9414
Sk	9413
Ġdependencies	9413
ĠReserve	9413
ĠPER	9413
Ġdisadvantage	9412
DateTime	9411
Ġopponent	9411
Ġdelivering	9410
Ġurinary	9409
ĠArg	9409
INK	9408
anded	9405
Ġisomorphism	9405
Ġpremature	9403
ĠWL	9402
Ġlogging	9401
parser	9399
Ġiteration	9398
Ġthorough	9397
Ġhockey	9397
ĠNHL	9396
vd	9394
rex	9394
)'	9394
Ep	9392
sz	9390
health	9390
erved	9390
ku	9389
Ġsits	9389
Ġpeaceful	9389
Ġhemat	9389
USER	9387
ĠLegislature	9386
ĠCriminal	9386
atomic	9385
Ġbp	9385
ĠPAR	9385
owned	9384
framework	9382
Ġoverflow	9382
illo	9379
Multi	9379
asty	9378
Yet	9377
Ġnevertheless	9376
could	9375
Help	9375
team	9374
andy	9374
ĠVictoria	9371
ĠMississippi	9371
ĠInvest	9371
Events	9369
("%	9369
Ill	9368
Ġrelatives	9368
ĠNik	9367
obe	9366
Ap	9366
ensor	9365
Ġchromatography	9364
sb	9363
Ġfocal	9361
Ġdy	9360
}}({\	9359
isters	9358
longrightarrow	9357
=[	9356
Ġtwist	9356
ĠPack	9355
ventional	9354
Ġkeyboard	9354
NH	9353
Ġhon	9352
Ġcrops	9351
ĠBroad	9350
Password	9348
ĠiOS	9348
Ġcomplementary	9348
Struct	9346
Runtime	9346
Ġsubsets	9345
ĠDean	9345
Ġmisconduct	9343
===============	9340
ĠIde	9340
Ġadjusting	9339
Ġfool	9338
ĠDoc	9338
ĠChairman	9338
Ġalleges	9337
ĠSteven	9337
Prop	9336
.<	9336
Ġsubmission	9336
Ġregulator	9336
Private	9335
324	9335
Ġsle	9334
Ġovarian	9334
ilation	9333
ĠFlow	9333
Ġbanned	9331
Ġrehabilitation	9330
Ġchurches	9330
ĠBruce	9330
Ġprost	9329
Ġconstrued	9329
Î´	9328
0008	9328
Ġdelays	9328
ĠCurrently	9328
tool	9327
Ġdisappeared	9327
ĠCent	9326
Xi	9325
Ġcoordination	9324
ĠAlaska	9324
though	9323
Ġster	9323
asures	9322
ĠGer	9320
Ġconductive	9317
1977	9316
ĠBasic	9316
è¡Į	9314
Ġelectromagnetic	9313
parameters	9310
Ġslices	9310
Ġformally	9308
ajax	9307
Ġutilization	9306
EA	9305
Ġmer	9304
]^,	9303
reported	9302
1978	9302
Ġprognostic	9300
Ġmuseum	9298
172	9297
Ġhr	9295
webkit	9294
Ġuh	9294
Ġconvince	9294
Ġsour	9293
Low	9292
Ġunlawful	9292
288	9291
ĠAntonio	9291
Ġinterfere	9290
Ġdepartments	9289
ĠEth	9288
rics	9287
Ġoldest	9286
Ġstraw	9285
Ġoverwhelming	9285
Word	9283
Ġaddiction	9283
uration	9282
Ġwhis	9282
Ġfailures	9282
ĠEveryone	9282
issue	9281
sil	9280
question	9280
ĠHi	9280
ĠDick	9280
Ġghost	9279
Ġdt	9278
Ġdiss	9277
Ġnat	9276
ĠDS	9276
Ġpopularity	9275
scroll	9273
Ġtun	9273
oir	9272
Parse	9272
ĠJonathan	9272
Delegate	9271
ĠRES	9268
Ġmotiv	9267
localhost	9265
à¥	9264
functions	9264
Coll	9264
controlled	9263
Ġfavourite	9261
ĠConn	9261
vartheta	9260
oves	9260
Ġreflecting	9259
ĠStop	9259
ĠWind	9258
Ġretrospective	9257
ivities	9256
...)	9256
know	9254
Ġachievement	9252
ĠBed	9251
ytic	9250
Ġbonus	9250
Ġvenue	9249
Ġsimpler	9249
ĠmiRNAs	9249
Ġcombustion	9249
omen	9248
Ġcompetent	9247
Ġattach	9246
Ġconsultation	9245
ĠKa	9243
Ġroyal	9242
Ġconvey	9242
Ġcirculating	9242
lated	9240
bg	9240
Ġmetastatic	9240
Ġmu	9239
tl	9238
Ġsurprisingly	9238
Ġracist	9238
Ġunchanged	9236
Ġphotons	9236
Ġkiller	9236
jury	9235
182	9235
Ġwr	9235
Ġnowhere	9235
ĠShare	9235
ĠModern	9235
Const	9234
ĠComputer	9231
bes	9230
ĠTemple	9228
commit	9227
Ġtrajectory	9227
runtime	9226
nut	9225
Michael	9225
Ġdefinite	9224
Ġforegoing	9223
ĠGary	9222
ican	9221
STATUS	9221
Ġproximal	9221
shadow	9219
kk	9219
Ġmist	9219
Ġcomb	9218
eclipse	9217
Ġ({\	9217
idate	9214
Ġoriented	9214
ĠMann	9214
must	9213
Pattern	9213
Ġdye	9213
ĠHen	9213
rod	9211
Ġusername	9211
Ġmalaria	9211
Ġcorrespondence	9211
Ġreb	9210
Ġuncon	9208
Ġjumped	9208
say	9207
'])	9207
compare	9206
Fields	9206
ĠsiRNA	9206
Ġassessments	9206
252	9205
Ġ\~	9205
ounce	9204
229	9204
ensis	9203
Ġburned	9202
ĠMu	9200
ĠMotor	9199
ĠGun	9199
ÐµÐ½	9198
erator	9197
Ġtrains	9197
stick	9195
prototype	9195
ĠRecent	9193
ĠEvans	9193
Ġ404	9193
Ġcompanion	9192
Consider	9191
****	9191
Ġds	9191
Serial	9190
Ġowns	9186
Ġfantasy	9186
Fr	9185
Ġclarity	9184
ĠScottish	9184
Ġborrow	9183
ĠCleveland	9183
ĠSingle	9181
Ġisot	9180
ĠTro	9180
DEF	9179
Ġcredits	9176
VID	9175
294	9175
Ġdeadline	9175
Symbol	9174
ĠOlympic	9174
Ġluxury	9172
238	9170
Ġcheaper	9170
Ġaggregation	9169
Rs	9168
Ġfestival	9167
ifi	9166
statement	9164
ĠassertEquals	9164
toggle	9163
Ġstreams	9163
BACK	9162
ĠBlog	9162
dog	9161
Ġexam	9161
actin	9160
pages	9157
atable	9156
ruby	9154
Though	9152
Ġannually	9152
ĠFix	9152
**:	9151
WO	9150
Ġstir	9150
Ġchampion	9149
elect	9148
Ġorganisation	9148
Ġgrams	9148
ĠĠĠĠĠĠĠĠĠĠĠĠĠĠĠĠĠĠĠĠĠĠĠĠĠĠĠĠĠĠĠĠĠĠĠĠĠĠĠĠĠĠĠĠĠĠĠĠ	9148
writer	9146
services	9146
aper	9146
President	9146
city	9144
ATCH	9144
Ġscripts	9143
Ġinventory	9143
Ġquestioning	9142
Ġfinishing	9141
ĠPP	9141
Ġ157	9140
Ġheterogeneity	9139
ãĤĭ	9137
Ġsubstitution	9137
ateral	9136
alf	9136
Ġsac	9136
Ġridiculous	9136
Ġbuff	9136
isted	9135
urer	9134
Ġincoming	9134
SSL	9130
ĠAirport	9130
Ġsorted	9129
acs	9128
Ġstochastic	9128
Ġpsychology	9128
Ġsplitting	9126
ĠBor	9125
ĠAlan	9124
Ġ!==	9124
IAL	9123
Ġunrelated	9123
Ġlaptop	9123
Î¿	9122
generation	9122
Ġflower	9122
ĠAle	9122
Resources	9121
Ġinfer	9121
western	9120
Ġappearances	9120
leqslant	9118
gent	9118
Plan	9118
checked	9117
Year	9117
Area	9115
Ġlogs	9115
Ġdisruption	9114
ĠNP	9113
Ġliberty	9112
Ġtrapped	9111
Ġpathogen	9111
Ġsender	9110
Ġcomic	9110
ĠScal	9110
Ġfifty	9108
Ġstoring	9107
ĠLes	9106
Ġexpects	9104
Bank	9103
Ġsmiled	9103
Ġconfined	9102
ĠPhase	9102
ĠMagn	9102
TABLE	9101
around	9100
Ġspeeds	9100
ĠPot	9100
Ġzinc	9099
atically	9098
CHECK	9098
307	9098
Ġgirlfriend	9098
3000	9095
Ġpurchasing	9095
Ġnested	9093
Ġeigenvalues	9092
story	9091
ĠLam	9090
sectional	9089
once	9089
attributes	9089
Ġadmin	9087
ĠRegional	9087
omat	9085
]+	9083
Ġcave	9083
BN	9081
Ġaccessed	9081
empt	9080
ĠÂ§Â§	9080
olid	9077
ĠSin	9076
Mem	9073
Ġspeakers	9073
Ġfracture	9073
Ġ|=	9072
ĠKam	9072
ĠACT	9070
Ġ_{\	9069
Domain	9068
Ġpathogens	9068
Ġconfront	9068
raph	9066
comes	9065
Ġclouds	9065
omo	9064
Ġ$,	9064
Ġpackets	9062
Ġcomprise	9062
ĠMand	9059
journal	9058
ivo	9058
Ġapproaching	9058
Ġswe	9057
Ġ210	9056
holding	9055
different	9055
Ġrefund	9055
ĠProof	9055
tail	9054
\}$.	9054
Ġ1969	9054
Ġislands	9053
ogg	9051
fat	9051
oning	9049
earing	9049
cause	9048
FN	9048
>"	9048
jected	9047
Ġritual	9047
Watch	9046
igo	9044
bmatrix	9044
feed	9042
plant	9041
Ġunions	9041
Perhaps	9040
1976	9040
abor	9039
275	9039
ĠQuality	9038
Ġens	9037
ionic	9036
market	9035
agram	9035
Ġresponsibilities	9034
food	9033
Ġpressures	9033
ĠLiving	9032
Ġventure	9030
ĠCohen	9030
Ġrecipients	9029
tre	9028
ĠLabel	9028
ĠBetween	9028
Ġcute	9027
Ġbreed	9026
ĠÐ¾	9025
Ġprocedural	9025
Ġinferior	9025
primary	9024
750	9023
Ġlinking	9022
Ġintegrate	9022
]{}\	9021
ĠÙ	9020
Ġeconomics	9020
Ġ-----	9020
government	9019
Ġroller	9019
rob	9018
ĠLane	9016
ĠUnivers	9015
ĠUC	9015
think	9014
)}_{	9014
period	9013
Ġcoaching	9013
Ġimpressed	9012
Ġpathology	9011
ĠFreedom	9011
itÃ©	9007
Selector	9006
Mill	9006
Ġcolony	9006
Ġdirt	9005
ĠBet	9005
;}	9004
ĠCre	9004
å®ļ	9003
Ġvac	9003
čĊĠĠĠĠĠĠĠĠĠ	9002
Shape	9001
Ġlobby	9001
Visible	9000
ĠRu	9000
ĠCommun	9000
ogan	8999
Ġprecursor	8998
Ġcollateral	8998
ĠÐ¿ÑĢ	8997
ĠTechnologies	8996
dn	8995
apple	8995
æī	8994
scriptscriptstyle	8994
^{{\	8994
Div	8993
Ġparliament	8993
phy	8989
Ġsuits	8989
ĠSwitzerland	8989
kb	8988
HI	8988
maker	8987
Ġhereby	8986
eping	8984
Instead	8984
244	8984
sid	8982
oat	8982
microsoft	8980
inations	8980
Ġkil	8980
Ġdies	8979
rection	8978
Ġlacks	8978
Ġappropriately	8978
ream	8977
iaz	8977
density	8977
/"	8976
downarrow	8974
Ġsexually	8974
ĠWolf	8974
àº	8971
Ġundertaken	8969
Ġspine	8968
})^	8967
hide	8967
ĠBrexit	8967
Price	8966
holder	8965
Ġrated	8964
301	8963
Ġlawmakers	8963
ĠDatabase	8961
327	8960
Ġtrafficking	8960
ĠNav	8959
Ġsimultaneous	8956
Ġnutritional	8956
configuration	8955
Ġscar	8955
Ġmonetary	8953
Ġdisplaying	8950
irl	8949
Ġreminded	8949
../../	8948
Ġ$_	8948
Ġsupp	8947
ĠNever	8943
University	8940
Ġscal	8938
Ġenters	8938
cluster	8937
June	8937
|{\	8936
North	8935
Ġinspect	8935
ief	8934
ĠSoc	8934
ption	8933
Ġengineer	8931
æł	8930
Ġreceipt	8930
genes	8929
Ġdisappointed	8929
Initial	8927
Among	8925
sol	8924
bridge	8924
Ġassured	8924
Ġgrains	8923
Ġcharity	8922
ĠNewton	8922
ĠCass	8920
timeout	8919
Ġaccounted	8919
Ġordinance	8918
Ġchrom	8918
Ġinn	8917
Ġinterviewed	8916
ĠCAN	8915
Ġpertinent	8914
aders	8913
Ġdra	8913
dump	8912
]{}.	8912
Ġmarch	8912
Err	8911
ĠMembers	8911
effect	8910
Ġcoated	8910
ĠCarol	8910
ĠAngel	8910
wick	8909
ĠWorks	8909
ĠFore	8909
}),	8907
ĠMoh	8907
Ġwondered	8905
ĠSure	8905
Ġtaxpayer	8904
icul	8903
ĠCorn	8903
Ġstra	8900
Ġtrusted	8899
Ġchunk	8897
Ġcabinet	8895
Ð±	8891
Ġnuts	8890
Ġcalc	8890
Ġloci	8889
issues	8888
ĠVM	8887
Ġproblematic	8886
Ġfinancing	8885
Ġemploying	8885
Ġannotation	8885
Ġspherical	8883
loaded	8882
Ġerroneous	8882
ĠHREF	8882
Ġ1967	8882
ãģĹ	8881
Ġsquares	8881
Ġasymptotic	8881
xd	8880
alty	8879
ĠHttp	8879
ĠPeace	8878
resolution	8876
Ġstays	8876
Ġcostly	8876
gmail	8875
imation	8874
Gal	8874
Ġinsisted	8874
Ġexplosion	8873
Dim	8872
Ġmoisture	8872
Ġstrongest	8871
Ġ$^{	8870
Ġlas	8869
Ġamplified	8869
states	8868
RP	8867
alth	8864
Ġtorn	8863
Ġworn	8862
ĠFer	8862
pub	8861
eded	8861
anged	8861
Ġsecurities	8861
cluding	8860
DES	8860
Ġlaughed	8859
Ġguards	8859
basic	8858
Ġram	8858
cover	8857
heart	8856
Ġlag	8856
Ġintegers	8855
Ġelevation	8855
ĠOFF	8854
Ġrac	8853
olly	8852
Ġreq	8852
idad	8851
Sun	8851
Ġski	8851
Ñİ	8850
jk	8850
Ġcommerce	8850
ĠPope	8850
ãģª	8847
ARCH	8847
Ġprofound	8847
ĠMos	8847
xa	8846
Ġviewers	8846
dynamic	8844
Ġarthritis	8844
Ġexon	8840
Ġ165	8840
}.\	8839
ĠConvention	8839
proxy	8838
265	8838
Ġballot	8838
Ġmetallic	8836
Ġwheels	8835
Ġstandardized	8835
cfg	8834
ĠYang	8832
[...]
