.	51286089
,	43934530
Ġthe	41254599
Ġof	23432001
Ġand	19903457
Ġto	19232477
-	16228539
ĊĊ	15690843
Ġa	15403941
Ġin	14117356
Ċ	14063170
_	10050913
Ġis	9671833
s	8457541
Ġthat	8312495
Ġ(	8177121
)	7487830
Ġfor	7394835
:	7010335
1	6168150
(	5897215
2	5852692
Ġwith	5744038
Ġon	4901647
Ġ"	4694478
/	4688424
Ġas	4477612
Ġbe	4355720
0	4353057
Ġwas	4352485
Ġit	4273636
*	4029598
ĠI	3976706
Ġby	3928116
Ġare	3890436
;	3798968
Ġ=	3787436
{	3575802
}	3493904
Ġ-	3396267
\	3395151
Ġthis	3318619
Ġfrom	3286313
Ġyou	3259130
Ġat	3245938
"	3243591
ĠThe	3229952
âĢĻ	3217346
Ġor	3184283
Ġnot	3146485
ĠĠĠĠĠĠĠĠĠĠĠĠĠĠĠĠ	3136740
3	3107280
Ġ$	3049391
Ġhave	2948859
's	2806266
Ġan	2789102
Ġ\	2730807
a	2576682
>	2504290
ĊĠĠĠĠ	2479945
Ġwe	2308529
e	2209245
4	2208911
$	2194781
t	2169028
d	2127001
Ġcan	2113488
Ġwere	2086400
Ġ0	1988571
."	1975170
Ġwhich	1948462
<	1925907
="	1914208
5	1907484
The	1884628
i	1881556
Ġhas	1874716
n	1828318
Ġ+	1775278
Ġbut	1769076
x	1765989
A	1748904
ĊĠĠĠĠĠĠĠĠ	1744836
Ġ1	1742211
Ġwill	1701358
ĠĠ	1694034
).	1691159
?	1682636
Ġhe	1678566
Ġall	1643054
I	1631430
ing	1596751
ĊĠĠ	1590553
Ġhis	1569793
Ġone	1565528
Ġ*	1509982
Ġthey	1506214
Ġ{	1487882
**	1458481
Ġ2	1415267
S	1414814
Ġtheir	1404050
Ġmore	1397418
ĊĠĠĠĠĠĠĠĠĠĠĠĠĠĠĠ	1393074
y	1386520
6	1349608
Âł	1345340
C	1330915
_{	1295551
B	1292533
Ġif	1283367
ed	1278718
Ġhad	1273433
Ġbeen	1263221
);	1239170
Ġ$\	1237787
m	1231181
Ġalso	1227349
Ġyour	1225811
p	1223633
=	1220477
),	1220346
8	1201739
r	1193270
'	1186438
]	1185365
Ġabout	1175182
[	1165258
Ġwhen	1159412
Ġwould	1157951
c	1156225
7	1147032
Ġtime	1130840
't	1128655
Ġthere	1127779
Ġout	1125921
b	1124674
Ġso	1120155
^	1108295
Ġother	1108088
o	1080177
Ġwho	1075319
ĠâĢľ	1071334
Ġmy	1069094
ĠĠĠ	1066324
k	1064213
ĠIn	1063260
Ġthan	1038864
in	1025827
Ġdo	1023265
Ġno	1021109
Ġ3	1020827
Ġup	1016712
9	1016489
Ġits	981847
Ġinto	976663
f	972172
ĠA	952541
</	952087
Ġour	945336
g	941119
Ġonly	938497
er	934970
Ġtwo	934728
h	926265
Ġsaid	925595
Ġher	922049
ĊĠĠĠĠĠĠĠĠĠĠĠĠ	916995
----------------	910034
Ġ[	907698
Ġwhat	905963
Ġ&	905226
Ġlike	904579
R	900466
D	899585
Ġany	895539
Ġsome	882552
Ġmay	879655
E	878454
%	869397
ĊĠ	863562
Ġnew	860694
Ġ'	853121
Ċĉ	850613
ĠIt	848780
Ġsuch	845833
Ġfirst	841638
Ġthese	828761
ĠThis	827552
ly	816372
l	811277
T	807080
#	799678
Ġthem	798163
type	787801
P	787566
ref	786476
Ġget	786215
Ġuse	772692
Ġthen	771696
Ġ4	768274
Ġme	765523
Ġjust	765485
F	761978
Ġafter	760336
Ġover	756820
Ġbetween	756219
{\	750546
+	747209
ĠĠĠĠĠ	734000
Ġused	719178
Ġcould	713992
Ġwhere	712190
.,	711059
u	707902
Ġ5	705847
",	693720
Ġdata	692701
ĊĠĠĠĠĠĠ	692656
ĠWe	687211
Ġpeople	684900
L	681905
N	674056
Ġshe	667843
//	667647
10	666030
v	664775
Ġbecause	653897
Ġusing	653700
In	652734
M	646873
if	629183
Ġshould	623852
j	620180
Ġ[@	610078
Ġwell	609540
X	607291
}\	606101
Ġhow	603835
Ġmost	598498
!	596666
Ġeach	590118
){	588851
Ġhim	582713
Ġv	582367
z	576011
ĠĠĠĠ	574450
Ġi	573857
H	557768
Ġclass	554064
Ġmake	552474
Ġunder	551164
Ġ10	543923
Ġthrough	543393
Ċĉĉ	540530
es	539981
Ġwork	538359
Ġcase	538005
Ġsame	537691
Ġway	536069
Ġ<	534168
->	532622
al	532208
on	526675
~	526340
Ġsee	526225
Ġeven	524535
Ġthose	521876
Ġnow	520596
Ġvery	519799
Ġyears	519732
frac	519444
ĠHe	517290
Ġboth	516288
Ġknow	515529
Ġbeing	505469
Ġdid	501695
Ġ.	501434
Ġmany	498673
Ġneed	497424
G	496433
Ġbefore	491942
Ġnumber	490617
âĢī	490404
?"	490223
Ġdifferent	488638
Ġset	486687
--	486578
](#	486064
Ġright	484614
to	482198
right	482157
()	480173
}$	480102
q	477692
return	477418
Ġdon	474890
Ġhere	474870
Ġback	474252
::	469713
left	469061
">	468480
ĊĊĠĠĠĠ	466262
Ġ|	465168
fig	464186
12	461835
âĢĿ	461625
Ġus	461268
Ġmade	458425
or	456523
the	455660
|	455575
Ġ_	454117
://	449282
ĠâĢĵ	447565
Ġvalue	447014
V	446608
Ġ\[[@	445380
Ġ@	444987
We	444876
ĉ	444214
Ġsystem	444185
Ġhigh	442171
Ġfound	441230
Ġ6	440732
Ġmuch	435955
com	435374
Ġwhile	434837
11	433098
Ġstudy	432157
Ġgood	429272
Ġthree	428818
ĠS	428120
ĠU	427802
.âĢĿ	426937
":	426854
Ġwant	425127
w	424675
Ġstate	424214
K	423587
Ġpatients	423122
O	422435
Ġwithout	417714
Ġduring	417103
_{\	415683
Ġfunction	413903
What	413478
Ġcells	413263
ĠLet	411847
Ġcourt	409602
Ġdoes	407354
Ġthink	403109
ĠC	402936
,"	402901
It	402624
Q	402167
Ġp	402155
Ġorder	399380
id	398510
$,	398356
ĠFor	398342
ĠIf	397754
Ġyear	395312
Y	394707
is	390425
Ġname	389317
Ġpart	388395
end	387602
Ġgroup	384038
This	381904
Ġagainst	381323
and	381007
',	380082
Ġnon	379177
&	378978
$.	378936
Ġx	377109
th	375475
Ġgo	374199
Ġlong	372936
Ġtake	372821
Ġdown	371907
Ġstill	371506
Ġmust	370682
int	369879
ic	369238
}{	366843
Ġlast	365112
00	364577
("	363104
get	362282
Ġinformation	360487
(\	360255
],	357759
W	354022
Ġsecond	353059
Let	352987
ĠBut	352840
...	352207
Ġday	351446
Ġend	350499
Ġ7	349531
ĠĠĠĠĠĠĠĠĠ	348335
mathcal	347542
Ġtype	345882
Ġresults	345643
Ġ:	344482
J	341774
();	341261
Ġfollowing	339922
^{	339321
ĠĠĠĠĠĠ	337049
ation	336838
âĢľ	335765
Ġgoing	334281
ĠĊ	333901
Ġoff	332323
Ġ8	331658
Z	331398
Ġfind	331074
Ġ**	330963
@	329176
Ġwithin	327632
'm	327308
Ġlife	326901
an	324637
en	323865
U	323292
Ġaround	323288
Ġ,	322768
].	321829
Ġsince	319979
ĠAnd	319741
alpha	318729
Ġpoint	317743
)$	316854
Ċĉĉĉ	316701
ĠĠĠĠĠĠĠ	315877
ĠYou	315138
ĠF	314924
le	314713
20	314645
Ġcontrol	314187
Ġanother	313781
âĢĵ	311939
You	311799
Ġmodel	311390
15	311055
16	310841
Ġal	310580
,âĢĿ	310001
ĠAs	308875
Ġam	308284
000	307781
Ġown	305156
Ġexample	303987
ers	302684
]\].	302392
Ġincluding	302215
name	300529
Ġtoo	300097
Ġline	299340
ĊĊĠĠ	298633
Ġevery	298511
Ġe	298055
re	297836
Ġgiven	297507
ĠB	297348
čĊ	296358
Ġreally	294622
able	294540
Ġmight	294315
13	293928
Ġhelp	293797
Ġet	293258
Ġshow	293085
Ġsay	292390
Ġcell	292335
Ġworld	291200
Ġprocess	289064
Ġpresent	286223
ĠThey	286115
Ġ{#	286020
},	285869
ĠT	285738
ĠHowever	285720
're	285647
Ġbased	285137
this	284659
public	284364
Ġ$$\	284231
Ġsupport	282788
ĠJ	282617
us	282222
Ġde	281290
Ġresult	280417
Ġm	280373
ĠM	279004
Ġfile	278684
Ġ12	278304
CR	277991
Ġtest	277853
ĠP	277297
Ġanalysis	277263
Ġbest	276930
Ġform	276171
14	274942
Ġn	274271
ate	274019
ĠâĢĶ	273500
ĊĠĠĠĠĠ	272751
Ġsomething	271931
Ġnext	271891
Ġevidence	271197
,\	271186
ity	270740
Ġhome	270333
Ġchange	269882
Ġsmall	269639
Ġwhether	269200
\]	269071
ĠR	268848
Ġ\[	267704
ĠNo	266804
Ġmethod	266696
32	266608
Ġ20	266314
ĠĠĠĠĠĠĠĠ	266118
text	264836
}(	264497
Ġleft	263603
To	261983
data	261847
âĢĶ	260212
Ġplace	260036
Ġimportant	259673
Ġpower	259202
Ġless	258447
Ġfew	257955
Ġbetter	257885
ĠL	257581
Ġfact	257040
Ġabove	256364
ĠD	256299
Ġlarge	256117
label	256106
ĠN	255526
ĠWhat	255515
If	255188
Ġd	254414
Ġlevel	254335
ĠE	252612
ĠThere	252393
Ġnever	252351
mu	252234
ĠNew	251918
Ġwater	251917
div	251860
Ġtrue	250963
mathbb	250551
Ġ9	249530
Ġper	249453
ĊĠĠĠ	249299
Ġtreatment	248842
Ġdue	248756
Ġleast	248640
Ġlittle	248151
Ġpossible	247481
Ġpublic	246271
Ġc	246257
Ġthings	245850
Ġproblem	245316
ll	245130
18	244950
Ġcome	244447
Ġlow	244114
)\	243528
Ġt	243414
for	242958
Ġs	242940
ve	240369
it	239346
Ġlook	239147
Ġlaw	238669
Ġgreat	238523
Ġh	237728
begin	237056
))	236979
Ġhaving	236107
Ġgive	236077
01	235866
Ġdays	235788
Ġshown	235590
Ġfield	235196
rm	234558
Ġgot	233888
!"	233696
Ġtrial	232725
Ġcommon	232561
Ġeffect	232197
17	231782
Ġ{\	231102
Ġgame	230711
Ġy	230698
Ġfurther	230599
Ġself	230102
ĠH	229556
ĠTo	228308
Ġ}	227997
Ġhealth	227807
Ġ15	227263
Ġcode	227156
19	227136
Ġprovide	226747
Ġexpression	226181
('	225499
Ġalways	225469
of	225228
Ġagain	224759
Ġgovernment	224113
Ġ11	224044
ia	223704
Ġfour	223556
Ġeither	223360
ĠSo	223226
Ġknown	222994
Ġk	222759
Ġcalled	222256
Ġfree	221873
ĊĠĠĠĠĠĠĠĠĠĠ	221567
Ġcurrent	221275
For	221221
ĠShe	220863
http	220619
Ġuntil	220555
30	219904
Ġfamily	219740
Ġavailable	219714
Category	219704
Ġsingle	219641
Ġhuman	219430
Ġsize	219167
ĠState	219149
as	218727
ĠThese	217879
set	217870
25	217869
Ġb	217148
Ġman	216756
et	216544
Ġmeans	216479
ĠCourt	216045
ĊĊĠĠĠĠĠĠĠĠ	216021
aligned	215890
Ġr	215736
Ġg	215720
Ġ/	215599
Ġside	215248
Ġ==	215076
ĠĠĠĠĠĠĠĠĠĠ	214994
at	213905
Ġable	213785
ĠX	213783
ĠĠĠĠĠĠĠĠĠĠĠĠĠ	213782
Ġmean	213723
\[	213654
ĠUnited	213623
As	213602
Ġcases	213597
Ġf	213198
pi	213144
Ġseveral	212963
Type	212885
Ġvalues	212849
import	212688
Ġchildren	212337
Ġlight	212221
Ġaction	211568
li	210883
pone	210747
lambda	210639
Ġ30	210634
usepackage	210434
Ġhigher	210368
nt	210312
Ġarea	209833
Ġtimes	209318
"}	209257
Ġstudies	209049
Ġreal	209012
've	208664
Ġteam	208464
Ġlocal	208427
ion	208325
Ġcare	207626
st	207142
var	206973
Ġsignificant	206898
ĠThat	206720
Ġrate	206475
Name	206463
}$$	206237
Ġput	206088
---	205958
Ġwhy	205697
Ġbody	205335
Ġfull	204909
And	204215
Ġtop	204180
):	203818
Ġenergy	203663
Ġpost	203327
table	202357
He	202289
span	202220
man	201643
Ġtotal	201358
ĠStates	200715
Ġerror	200225
Ġsimilar	199878
21	199765
ÃĲ	199562
Ġdidn	199187
Ġalready	199073
Ġrun	198566
Ġstart	198043
================	197944
Fig	197478
Ġlot	197333
up	197218
Ġassociated	197140
Ġlevels	196819
ĠAll	196323
Ġspace	196085
Ġ100	195924
ĠĠĠĠĠĠĠĠĠĠĠ	195914
}_	195071
self	194898
Ġopen	194843
];	194772
Ġ--	194558
string	194001
ies	193114
><	192979
Ġperson	192941
Ġgeneral	192938
Ġwomen	192655
Ġlet	192638
ar	192555
Ġissue	192539
Ġquestion	192297
'll	191866
mathbf	191788
Ġresponse	191752
Ġaway	191533
Ġreturn	191401
Ġsays	191214
Ġoften	189982
Ġdone	189880
/*	189869
Ġrequired	189858
org	189694
ĠWhen	188880
Ġhand	188628
Ġspecific	188185
No	188094
Ġterms	187844
el	187790
Ġ${\	187605
Ġl	187547
Ġactivity	187387
Ġsure	186910
ĊĊĊ	185858
Ġamong	185702
Ġgroups	185616
Ġhowever	185560
Ġfar	185497
Ġcall	185430
Ġreported	185311
Ġthing	185154
ĠK	185044
}}	184927
24	184924
beta	183726
_\	183673
Ġlater	183649
*/	183540
Ġu	183279
ĠG	183141
Ġage	182803
22	182752
Ġenough	182732
Ġcourse	182608
Ġlist	182551
Ġkey	182476
ĠV	182166
Ġtold	182010
Ġthough	181568
But	181017
Ġcompared	180836
Ġ16	180162
te	180160
sigma	179827
Ġ)	179747
Ġmaking	178973
Ġworking	178911
Ġprovided	178695
Ġalong	178341
ist	178322
05	177888
sum	177609
}_{	176890
Ġupon	176860
Ġconditions	176443
Ġrisk	176284
Ġfinal	176045
Ġrole	175753
Ġpotential	175517
Ġread	175422
Ġ14	175311
ĠĠĠĠĠĠĠĠĠĠĠĠ	174988
Ġold	174987
Ġlower	174981
Ġinclude	174902
50	174817
Ġrange	174636
Ġincrease	174248
String	174115
Ġeffects	174055
Ġresearch	173985
Ġseen	173735
`	173637
Ġdevelopment	173169
Ġplay	173111
^{\	173032
Ġchanges	172958
Ġweek	172945
Ġdoesn	172932
Ġhead	172883
ng	172842
]).	172705
Ġ=>	172258
Ġprogram	172008
sec	171847
Ġsection	171594
Ġ#	171516
Ġmoney	171450
Ġtogether	171327
const	170974
ine	170697
Ġposition	170652
Ġprotein	170373
Ġ([	170293
ĊĊĉ	170236
Ċĉĉĉĉ	170019
Ġ([@	169983
ĠâĢĺ	169913
Ġincreased	169895
Ġbecome	169777
Ġ`	169418
Ġservice	169350
Ġkeep	169267
www	169205
Ġfactors	168928
bar	168757
Ġ13	168700
html	168500
Ġaddition	168452
Ġobserved	168183
Ġlove	168108
Ġcannot	168045
Ġelse	167868
Ġbusiness	167841
Ġparticular	167762
ĠOn	167631
There	167602
Ġdisease	167544
Ġproperty	167387
Ġschool	167203
Ġthird	167100
td	167069
></	166998
value	166908
"}).	166675
Ġ*/	166672
Ġimage	166566
phi	166476
Ġmain	166308
Ġaccording	166059
class	166034
Ġmonths	165907
ĠUniversity	165577
ness	165435
Ġdoing	165183
Ġsource	164867
Ġearly	164844
Ġmultiple	164674
ĠZ	164416
ne	164264
Ġcountry	163273
log	163101
23	162986
os	162595
Ġstructure	162564
So	162268
Ġz	162114
Ġdescribed	161918
mathrm	161854
Ġdefendant	161752
sqrt	161306
ie	161302
um	161282
Ġcreate	161144
time	160988
ch	160937
Ġactually	160837
out	160820
Ġpositive	160722
Ġcompany	160175
Ġ18	160105
Ġuser	160063
Ġthought	159925
rs	159763
Ġint	159608
Ġpoints	159590
}^{	159107
ss	159008
pm	159005
Ġacross	158899
[@	158736
Ġview	158693
Ġothers	157978
\_	157936
Ġj	157567
gamma	157499
ment	157136
ive	157131
Ġreport	157085
Ġversion	156756
Ġrather	156722
Ġsurface	156674
ĠO	156662
Ġonce	156624
Ġobject	156409
delta	156204
code	155841
Ġperiod	155704
Ġfive	155450
Ġlikely	155444
Ġmen	155296
Ġbase	155261
'd	155239
Id	155200
Ġ50	154968
Ġshows	154871
64	154752
ce	154580
Ġmillion	154568
Ġperformed	154492
On	154486
Ġshowed	154416
Ġhard	154180
Ġbelow	154154
Is	154095
Ġfeel	153820
Ġamount	153719
Ġmatter	153697
Ġ24	153526
Ġcame	153494
ĠAmerican	153400
Ġbig	153356
Ġun	153160
Ġsystems	153098
Ġw	153022
bib	152435
Ġstandard	152404
Ġclear	152208
Ġsite	152205
Ġo	152144
.)	152060
Ġcause	151985
Ġ%	151923
Ġobtained	151663
Ġtook	151388
Ġmakes	151319
Ġfactor	151310
Ġadd	150958
Ġpast	150825
Data	150745
ID	150685
nd	150283
Ġfalse	150239
Ġever	150073
Ġfood	150056
Ġvarious	149804
ry	149740
ĠGod	149698
Ġcancer	149586
ĠAt	149434
Ġexperience	149369
Ġsocial	149179
Ġinterest	149120
Ġwhole	149050
Ġapplication	148641
ns	148639
ti	148601
line	148570
Ġtaken	148396
test	148138
)(	148066
Ġconsidered	147927
Ġfuture	147802
Ġ>	147792
Ġadded	147686
Ġrelated	147552
Ġshort	147460
Ġterm	146947
Ġyet	146932
Ġid	146781
Ġ(*	146771
ated	146670
Ġseason	146489
ent	146341
Ġvoid	146025
Figure	145920
Ġaccess	145684
Ġcontent	145543
key	145490
Ġdefined	145481
rho	145060
xi	144980
Ġbelieve	144919
40	144900
one	144806
ĠOne	144609
Ġtry	144566
de	144552
ant	144377
^{-	144196
Ġ25	144159
Ġapproach	143957
partial	143467
ization	143273
Ġsolution	143219
");	143080
Ġcommunity	143053
%)	142684
Ġanti	142560
Ġwent	142337
Ġminutes	142314
Ġstates	142276
")	142248
nu	141893
Ġstring	141668
ĠThen	141660
Â°	141638
ĠĠĠĠĠĠĠĠĠĠĠĠĠĠ	141572
Ġdecision	141085
ĠĠĠĠĠĠĠĠĠĠĠĠĠĠĠ	141051
}^	140976
Ġblood	140611
Ġproject	140329
27	140214
size	140150
Ġq	139945
Ġmajor	139870
100	139718
Ġbit	139672
Ġtrying	139554
Ġkind	139320
Ġincluded	139276
ta	139274
Ġreason	139052
new	138962
io	138953
)/	138820
Ġdevice	138748
Ġindividual	138714
ĠUS	138563
theta	138504
Ġtoday	138409
Ġsub	138299
Ġre	138133
Ġmembers	138028
Ġrespectively	137893
ized	137709
Ġwon	137619
Ġmaterial	137588
ÂĤ	137520
Ġclose	137335
Ġregion	137286
],[@	137187
Ġreceived	136799
am	136750
Ġadditional	136370
omega	136327
Ġsignificantly	136145
Ġanything	136085
Ġcity	136009
28	135983
Ġpatient	135898
Ġpercent	135608
Ġcertain	135425
ĠW	135377
Ġface	135159
001	135049
times	134980
ating	134899
Ġgrowth	134807
Ġhalf	134780
Ġchild	134658
80	134652
ĠAfter	134552
Ġvia	134514
include	134437
no	134430
Ġnormal	134405
ĠY	134311
Ġclaim	134299
ism	134201
When	134186
Ġasked	134104
Ġneeds	134093
tau	133875
eq	133832
Ġdeath	133562
Ġgetting	133338
}{\	133199
ĠSee	133034
Ġnight	132977
Ġnull	132961
Ġevent	132843
Ġsimple	132836
26	132694
Ġhistory	132596
leq	132436
Table	132247
Ġ$(	131877
Ġlooking	131834
ter	131644
Ġroom	131352
How	131257
Ġdifference	131257
Ġproduct	131149
$-	130960
based	130917
Ġparty	130713
Ġreview	130584
Ġseries	130543
Ġperformance	130527
Ġmethods	130380
Ġproblems	130267
def	130090
pt	130069
Ġ17	129832
void	129822
List	129749
Ġthus	129637
Ġinvolved	129369
Ġissues	129287
year	129203
ĠMr	129198
02	129167
Ġhref	129162
Ġalmost	129161
https	128947
Ġnetwork	128808
Ġnothing	128807
infty	128657
Ġhours	128572
Ġprevious	128477
âĢ¦	128444
Ġtherefore	128346
Ġneeded	128211
tt	128200
Ġpay	128093
]{}	128073
Ġservices	128047
That	127791
Ġpolice	127660
Ġheld	127329
Ġconsider	127116
Ġpopulation	126860
Ġpaper	126712
Ġinstead	126584
31	126553
Ġmass	126538
$\	126343
Ġexpected	126306
Ġtarget	126296
Ġtext	126267
ian	126061
Ġrecord	125947
Ġtell	125907
Ġidea	125832
Ġcost	125576
Ġrecent	125533
Ġseems	125090
Â±	125014
Ġunderstand	124949
ts	124896
Ġgene	124727
Ġlines	124486
Ġcomplex	124442
/**	124089
Ġstep	124088
Ġloss	123940
ge	123721
add	123659
Ġcomes	123278
Ġmotion	123271
Ġprior	123266
Ġstudents	123082
Ġjob	123044
Ġweight	122994
ĠAn	122993
Ġfilm	122967
Ġhouse	122672
min	122668
Ġproduction	122615
ĠÂ§	122598
Ġmedia	122516
Ġ(-	122500
Ġlead	122470
hat	122450
Ġquality	122392
Ġsomeone	122305
All	121908
Ġ---------------	121884
Ġtaking	121756
Ġmove	121665
Ãĥ	121655
Ġair	121652
Ġmarket	121644
35	121618
Ġmodels	121582
Ġcar	121432
ĠYork	121322
Ġstarted	121310
define	121279
Ġpage	121201
file	121102
by	121094
Ġblack	121089
ra	120957
Ġcondition	120783
29	120757
Ġprovides	120645
Ġdesign	120540
Ġstrong	120472
Ġitself	120397
Ġ\\	120370
Ġcheck	120346
Ġdistribution	120310
Ġplan	120277
Get	120268
Ġtable	120250
Ġpolicy	120189
Ġsignal	120147
Ġnecessary	120133
ĠIs	120093
33	119995
Ġlive	119441
Ġaverage	119148
ĠInc	118688
co	118621
see	118567
param	118430
ĠĊĠĠĠĠĠĠĠĠĠĠĠ	118374
Ġrights	118229
ĠĠĊ	118176
ĠCo	118115
Ġprobably	118013
Ġoriginal	117971
ĠTrump	117936
eta	117702
Delta	117547
Ġstory	117473
ell	117471
ĠBy	117449
Ġphase	117427
Ġspecial	117282
Ġclinical	117195
Ġheart	117003
Ġshall	116945
*,	116858
Ġ21	116687
ĠNational	116632
est	116582
^\	116579
ĠThus	116544
ĠMy	116383
03	116353
Ġpre	116293
ĠĊĊ	116136
Ġsimply	116115
Ġsample	116113
Ġproducts	115969
Ġfunctions	115873
case	115694
Ġsequence	115560
Ġespecially	115489
Ġtemperature	115275
Ġworks	115262
Ġoutside	115237
Ġwords	115014
ling	114829
Ġ19	114825
Ġlength	114763
ĠOF	114753
ma	114710
-\	114530
Ãĳ	114466
Ġturn	114419
With	114357
tr	114219
Value	114200
04	113982
Ġ!=	113795
width	113774
Ġmind	113741
list	113719
my	113658
Ġallow	113650
Ġnear	113432
Ġpressure	113423
Ġpresence	113420
Ġyoung	113405
Ġsix	113403
Ġcomplete	113396
));	113252
Ġdetermined	113101
Ġproperties	113084
Ġmedical	113033
ee	113017
Ġaccount	113005
Ġsense	112751
px	112744
na	112719
ĠCity	112656
čĊĠĠĠĠ	112624
Ġbook	112607
ĠQ	112602
Ġaddress	112598
](	112433
My	112422
Ġ...	112406
Ġgenes	112374
do	112306
la	112269
08	111934
Ġpolitical	111894
Ġevents	111894
lu	111657
array	111618
09	111505
age	111496
///	111454
âĪĴ	111396
}}\	111240
Ġeffective	110975
Ġla	110917
45	110895
Ġconst	110875
ous	110760
ĠWith	110612
')	110452
Ġtypes	110365
Ġwhite	110338
Ġeverything	110326
Ġlanguage	110149
Ġprimary	110048
Ġfollow	109965
])	109855
Ġinside	109757
]\]	109699
Ġstop	109643
Ġsubject	109540
Ġlonger	109536
Ġphysical	109505
Ġinput	109505
ĠTHE	109307
Ġfeatures	109255
from	109178
Ġdetermine	109092
Ġdate	109069
less	108916
Ġeasy	108779
with	108769
Ġpresented	108719
ĠÂ±	108572
Ġquite	108521
($	108516
path	108505
Ġidentified	108379
Ġ40	108286
ey	108160
ĠDr	108133
Ġjudgment	108075
ke	108072
Ġbad	108047
60	108038
Ġrunning	107832
Ġpath	107812
Ġsamples	107788
Ġbasis	107646
Ġformer	107622
Ġcross	107581
Ġ||	107570
Ġcreated	107551
Ġisn	107400
View	107387
__	107206
Ġwanted	107178
ol	106983
Ġ//	106980
Ġelement	106893
Ġfollows	106877
=\	106717
36	106601
Object	106460
Âĥ	106353
Ġpersonal	106242
Ġstatement	106228
Ġareas	106203
Ġparameters	106183
Ġmember	106108
Ġago	106031
ĠMay	105951
Ġ22	105840
Ġfront	105810
34	105746
Ġrespect	105740
Ġarray	105454
Ġweeks	105131
Ġdirectly	104932
Ġelements	104925
Ġoutput	104876
si	104696
Ġstatus	104677
ĠLicense	104559
Ġinitial	104372
Ġquestions	104338
private	104263
Ġred	104240
})	104162
function	104161
Ġground	104143
ĊĊĠĠĠĠĠĠĠĠĠĠĠĠĠĠ	104109
Ġrelationship	104077
Ġnatural	104068
da	103932
Ġcolor	103784
ck	103597
Ġtraining	103550
Ġgames	103448
cal	103400
Ġtheory	103321
At	103306
Ġforce	103257
bf	103206
Ġmemory	103150
+\	103082
Ġmice	102926
Ġsearch	102856
âĢĲ	102812
Ġrest	102751
di	102706
all	102690
..	102674
Ġvideo	102529
Ġ&&	102408
Ġ(\[	102295
}$,	102271
rangle	102150
ial	101890
not	101845
tilde	101674
Ġbehind	101448
let	101409
Ġbuilding	101407
Ġnews	101266
\\	101130
Ġdeal	101096
ĠDNA	101012
ĊĠĠĠĠĠĠĠ	100969
Ġdifficult	100770
Ġapplied	100721
Ġgreater	100718
Ġacid	100674
Ġlimited	100468
ize	100431
}(\	100181
Ġrequest	100087
Ġpreviously	100058
ĠSuppose	100038
Ġsaw	100015
";	99971
Ġmonth	99869
Ġreduced	99791
Ġgas	99752
Ġindex	99748
Ġincludes	99698
Ġdistrict	99598
Ġrelease	99558
Ġdrug	99548
ro	99489
il	99399
Ġability	99357
Ġco	99343
Ġinvention	99289
psi	99153
mm	99033
ÃĤ	98890
hi	98866
Ġknowledge	98693
Ġdeveloped	98663
ator	98592
cdot	98538
\])	98492
Ġclaims	98422
Ġarticle	98334
Ġoil	98333
Ġlayer	98176
Ġindependent	98160
Ġwrong	98116
ĠCD	97957
Ġ	97844
ff	97819
Ġrequire	97789
ul	97730
ĠTherefore	97688
ei	97574
Ġcharacter	97562
ton	97561
Ġcontact	97506
".	97414
max	97383
Ġflow	97364
Ġcontinue	97241
Ġsoftware	97121
ble	97083
42	96993
Ġunit	96979
Ġ$$	96964
ĠOur	96853
ĠJohn	96742
Ġnegative	96615
ĠPresident	96589
Ġplayers	96539
Ġcontext	96433
Ġnumbers	96392
Ġcoming	96361
old	96328
Ġwritten	96306
().	96209
Ġfollowed	96182
Ġbuild	96065
File	96059
Ġparticularly	96039
Ġleave	95970
Ġstyle	95959
:**	95941
Ġreference	95731
chi	95730
son	95723
}$.	95710
Ġstatic	95644
ĠCounty	95638
Ġimpact	95620
Set	95437
Ġdirect	95364
![	95361
38	95322
Ġetc	95317
Ġtax	95304
Ġ23	95272
Ġobtain	95240
};	95225
Ġword	95173
sub	95161
Ġ2012	95059
sa	95017
js	94974
Ġsecurity	94928
Ġnature	94867
like	94837
Ġmap	94728
06	94714
ot	94679
Ġactive	94623
static	94476
Ġmessage	94468
07	94440
Ġentire	94336
Ġwrite	94223
Ġtitle	94213
)}	93983
Ġspecies	93933
Ġusually	93921
that	93767
Ġnote	93760
mb	93714
Ġrates	93610
Ġdifferences	93595
ED	93503
Ġliving	93470
Ġoffice	93328
{{\	93280
field	93238
Ġalthough	93237
ĠHis	93153
item	93099
Ġwhose	93053
top	92995
Ġanswer	92955
Ġrule	92936
Ġpractice	92922
ĠSince	92896
Ġtried	92884
Ġhold	92857
Ġ[*	92849
Ġcut	92807
One	92689
val	92668
ĠAct	92644
Ġonline	92601
se	92587
ur	92582
Ġlate	92581
ec	92509
ER	92463
Ġbar	92459
By	92395
tion	92391
Ġargument	92275
Ġprivate	92211
Suppose	92190
ĠWorld	92167
Ġcorresponding	92131
Ġgenerally	92122
Ġlost	92109
Ġrecently	92041
net	92030
Ġ2013	91970
(-	91804
ĠSt	91776
sh	91761
ase	91665
nc	91632
Ġthemselves	91627
Ġanyone	91467
Ġ2016	91412
Ġhope	91403
base	91388
Ġplaintiff	91323
Ġsaying	91290
ĠWhile	91288
else	91254
Ġtakes	91238
ĠII	91237
Ġcountries	91201
Ġproposed	91144
tic	90896
Ġagreement	90895
Ġpurpose	90892
Ġpain	90835
ĠHouse	90768
user	90714
ĠHere	90667
Ġ28	90565
Ġsituation	90528
Ġ60	90516
Ġ2014	90496
Ġshare	90488
Ġdensity	90434
ĠSouth	90412
Ġbrain	90270
Ġtreated	90147
rd	90118
Ġnational	90085
ĠMarch	90035
ea	89987
$$	89959
See	89943
Ġhimself	89806
39	89654
Ġforward	89611
Ġcenter	89518
Ġwar	89509
44	89464
per	89438
Ġblock	89401
She	89263
Key	89183
Ġglobal	89173
Ġfederal	89024
document	89003
go	88974
..."	88962
ĠChina	88960
Ġbecame	88662
epsilon	88649
Ġcharge	88635
Ġenvironment	88608
ĠAmerica	88485
ha	88432
dd	88380
Ġpretty	88351
Ġways	88319
Ã©	88281
37	88265
Ġrelative	88164
48	88117
Error	88111
lo	88019
ary	87828
Ġoffer	87799
Ġtalk	87729
Ġprice	87622
Ġfailed	87575
Ġpublished	87527
Ġ2015	87359
ĠDepartment	87332
Ġlegal	87327
Omega	87286
varepsilon	87269
Gamma	87158
Ġwoman	87143
Ġhighly	87136
ĠString	87105
state	87103
ĊĊĊĊ	87036
43	87012
Ġlimit	86963
Ġfocus	86940
Ġact	86905
Ġfindings	86833
Ġ/>	86829
Ġderivative	86790
95	86690
ty	86545
ting	86473
Ġland	86453
Ġallowed	86334
me	86329
Ġdegree	86311
ance	86294
za	86193
Ġgave	86145
ĠNorth	86110
Ġcontract	86068
red	86043
over	86036
Ġlarger	85976
Ġmeasured	85942
Ġdouble	85922
Ġdesigned	85920
ĠSome	85828
Ġbring	85818
Ġstage	85634
Ġjury	85609
69	85594
ps	85414
Ġconstant	85371
em	85353
Ġindividuals	85353
index	85334
Ġdefault	85299
Ġwasn	85280
Ġeveryone	85275
Ġdetails	85266
he	85255
Ġselected	85043
ally	85008
41	84982
Ġcurrently	84977
Ġoperation	84969
Ġalone	84960
ĠHow	84959
Ġcaused	84945
Ġmoment	84754
Ġfriends	84653
Ġproteins	84621
ka	84556
Ġimages	84515
Ġinstance	84485
ĠGeneral	84443
Ġcomponent	84422
ki	84391
un	84368
Ġgives	84306
Ġeyes	84224
Ġbehavior	84179
Ġask	84143
title	84032
Test	83995
Ġattention	83948
ĠFig	83830
Ġcomponents	83734
Ġdirection	83698
.'	83620
Ġ2011	83580
ĠJune	83540
Ġchoice	83475
Ġprime	83379
Ġrequires	83295
53	83180
Ġsent	83178
Ġappropriate	83171
be	83123
Ġcompanies	83114
Ġmatrix	83102
Ġ2010	83074
lib	83070
###	83053
Ġhttp	82996
Ġbegan	82993
Ġknew	82981
Ġ:=	82968
ms	82951
}}$	82947
Ġlocation	82929
mp	82907
Ġfixed	82871
op	82861
75	82850
ir	82821
fn	82760
ĠNow	82717
Ġscale	82696
Ġleading	82633
so	82589
90	82484
ĠFirst	82447
ca	82381
Ġmother	82322
They	82279
Ġnode	82172
Ġmanagement	82149
ga	82085
Ġfinancial	82072
Now	82009
Ġfrequency	82001
Ġ26	81929
Ġ[**	81926
Ġfailure	81887
Ġeducation	81830
Ġ?	81802
color	81742
čĊĠĠ	81723
Ġ2017	81716
Ġratio	81582
Ġusers	81568
Ġunique	81525
Ġtechnology	81487
From	81458
Ġson	81284
Ġdivided	81074
Ġcontains	80981
gl	80971
Ġcompletely	80956
Ġheat	80955
Ġincreasing	80932
Ġbreak	80930
(),	80921
tor	80909
ad	80812
py	80811
ley	80809
Ġcosts	80724
ip	80695
Ġlack	80677
use	80518
)=	80489
Ġseem	80483
Exception	80475
ĠNot	80360
ĉĉ	80275
Ġwin	80235
Ġindustry	80227
Ġparts	80208
ING	80186
Text	80123
Ġsuggest	80062
Ġparties	80044
Ġfine	80006
Ġled	80005
free	79915
ful	79854
Ġearlier	79843
app	79811
ure	79800
Ġdistance	79656
Ġfiles	79645
After	79618
Ġequal	79547
Ġexpressed	79503
Ġuseful	79502
Ġart	79495
ĠAlthough	79336
Ġoverall	79314
Ġpass	79299
Ġoption	79269
varphi	79247
ĠJanuary	79242
ĠApril	79235
Ġconnection	79214
ep	79207
An	79128
Ġinter	79003
70	78998
Ġstated	78984
Ġgenerated	78973
Ġestablished	78967
Ġsupported	78951
Ġallows	78941
ĠOR	78926
Size	78907
Ġdevices	78849
Ġcentral	78783
55	78766
Ġeasily	78704
struct	78650
čĊĠĠĠĠĠĠĠĠ	78633
Ġstay	78624
ĊĠĠĠĠĠĠĠĠĠĠĠĠĠĠ	78618
ba	78616
ner	78558
Ċĉĉĉĉĉ	78491
ĠJuly	78435
Ġorg	78389
Ġen	78372
Ġsites	78371
Ġoptions	78349
map	78302
Ġreasons	78167
hr	78161
AL	78132
Ġcontaining	78114
Ġapply	78039
='	77987
());	77962
Ġfinding	77948
App	77939
Ġsoon	77935
Info	77908
Ġreduce	77875
ya	77861
land	77829
Ġhighest	77687
Ġcritical	77677
Ġmeasure	77654
Ġserver	77642
Ġlocated	77635
99	77588
Ġproduced	77448
Ġstress	77376
term	77361
Ġeconomic	77354
Ġactivities	77342
ĠCir	77167
Ġfelt	77077
"><	77049
49	77040
Ġfiled	76992
ĠWest	76935
Ġrelevant	76914
Of	76910
Ġclearly	76809
Ġvs	76755
){#	76749
Do	76715
)$.	76699
Ġhit	76681
Ġauthors	76680
res	76593
ast	76504
Ġcopy	76504
ĠDo	76502
ĊĠĠĠĠĠĠĠĠĠ	76452
Ġopinion	76383
Ġ27	76374
der	76361
._	76344
Ġappeal	76260
cm	76259
day	76244
bb	76195
Ġactual	76174
ct	76157
51	76059
ists	76050
sim	76043
59	75967
back	75962
Ġwriting	75904
Ġshowing	75831
Ġvariable	75813
\<	75812
Ġsign	75809
Ġgoal	75774
Ġwebsite	75727
Ġpresident	75716
Ġweb	75714
link	75711
Ġlink	75576
Ġbrought	75568
\].	75557
Ġinjury	75551
Ġmode	75514
}_{\	75485
Ġunderstanding	75473
overline	75451
sm	75432
Ġ($	75419
Ġpattern	75363
Ġsmaller	75314
Ġchanged	75241
Ġgoes	75227
Ġboard	75227
Ġexperiments	75164
47	75147
lt	75134
Ġlearning	75134
Ġreceive	75130
led	75059
});	75043
Ġhands	75035
ler	74987
langle	74986
"/>	74975
Ġcorrect	74973
Ġappears	74879
operatorname	74861
Ġparameter	74839
ab	74814
Ġcount	74797
True	74698
Ġuses	74696
Ġnotice	74677
Ġlooks	74623
Ġheard	74596
Ġ;	74571
Ġstore	74562
Ġremains	74554
Ġbeyond	74534
Ġculture	74505
Ġrules	74458
['	74401
Ġfast	74306
Ġhost	74215
va	74208
Ġcouple	74189
Ġplease	74177
Ġbuilt	74158
Ġ2008	74143
off	74130
Ġmeet	74101
ted	74027
Ġhearing	74006
Ġ90	73906
NS	73877
Ġlooked	73873
*.	73861
Ġtumor	73854
node	73818
Ġturned	73788
46	73755
input	73715
State	73710
dev	73705
Ġworked	73703
assert	73701
)^	73622
Ġtowards	73613
Ġ->	73591
Context	73569
Path	73511
Ġcampaign	73456
ĠSystem	73435
Ġmajority	73421
Item	73388
Ġones	73316
rt	73283
');	73264
ĠAND	73250
Ġappear	73208
Ġvector	73171
Ġdecided	73094
ĠOr	73085
003	73072
Ġproduce	73056
Ġitems	73047
Ġ<<	73034
52	72981
ise	72978
Ġregarding	72893
ical	72892
Ġ29	72891
Ġbinding	72887
Ġtherapy	72867
Ġvariables	72849
ĠIS	72797
image	72796
Ġlearn	72746
Ġstaff	72745
Ġdisplay	72734
ko	72733
Ġfully	72708
Ġbenefits	72706
Ġimprove	72704
java	72660
Ġexcept	72658
Ġspeed	72625
Ġconcentration	72613
Ġtissue	72567
Ġexists	72552
\'	72535
}^{\	72474
Ġcomputer	72428
Ġparents	72394
Ġmilitary	72390
Ġreports	72383
true	72306
ĠHealth	72241
Ġresulting	72223
android	72153
Ġtransfer	72092
Ġwide	72069
Ġfather	72069
ĠDistrict	72046
Ġexactly	72013
Ġfire	72000
vec	71940
ĊĊĠĠĠĠĠĠĠĠĠĠĠĠ	71939
Ġskin	71912
New	71868
Ġprevent	71868
':	71844
sc	71840
Ġindicated	71813
Ġinfection	71789
ui	71692
.\	71648
Ġwrote	71646
yl	71619
Ġ2009	71610
Ġnor	71599
Ġmedium	71599
Ġinteresting	71544
Ġmorning	71506
ĠAugust	71493
graph	71467
Ġdoor	71403
Ġvolume	71356
ĠFrom	71354
)).	71350
Ġsetting	71346
86	71240
Ġapp	71148
Ġmaterials	71080
Ġ31	71079
Ġreading	71072
Ġplayed	71069
ap	71024
content	71023
Ġadministration	71023
way	71018
Ġvehicle	70964
view	70922
Ġbox	70919
nbsp	70893
ĠOctober	70846
Ġzero	70759
Ġavoid	70738
IN	70737
Ġgets	70727
group	70715
Ġmeeting	70640
length	70604
Here	70567
ative	70560
Ġfeature	70504
Ġseparate	70500
which	70478
Not	70438
ĠAl	70425
Sec	70415
ĠData	70304
Ġreaction	70274
Ġproof	70222
Ġextra	70192
56	70174
ĠSeptember	70160
Ġreasonable	70156
Ġconstruction	70147
ĠTO	70113
Ġvisit	70101
ac	70054
Ġapplications	70034
Ġinternal	70029
Ġfit	70016
ĠDecember	69988
Ġstarting	69912
54	69903
ite	69896
error	69891
Ġ);	69887
Ġlives	69852
Ġthroughout	69842
Ġmatch	69831
Ġparticipants	69782
}=	69738
fi	69691
Ġnoted	69650
Ġexist	69646
info	69617
Ġprocesses	69611
Ġdamage	69605
Ġformation	69583
Ġregions	69563
box	69545
Ġdrive	69539
Ġmaximum	69503
Ġpoor	69462
ĠPhys	69441
Ġsafety	69420
Ġmin	69418
big	69411
ni	69385
Ġlinear	69370
)*	69367
Ġfields	69294
Ġformed	69292
Ġcontrast	69281
Ġ2018	69242
Ġ</	69229
Ġconnected	69216
Ġbecomes	69208
Ġclosed	69203
Ġplayer	69196
Ġinternational	69181
Ġcommand	68996
izing	68971
ĠLe	68954
Ġsources	68947
Ġdomain	68929
Ġrevealed	68910
ci	68902
Ġfriend	68854
Ġmet	68841
":"	68834
ish	68824
Ġinteraction	68810
ĠUSA	68731
Ġphone	68720
Ġsex	68685
****************	68679
ide	68674
Ġbackground	68614
Ġinfluence	68609
Ġ80	68596
les	68550
ue	68527
Ġfall	68508
Ġtests	68454
ĠPM	68442
65	68407
Ġ^	68377
ze	68372
Ġle	68237
Ġfunctional	68190
Ġequation	68172
Ġbasic	68157
Ġimmediately	68130
Ġtask	68092
ĠCenter	68085
Ġotherwise	68077
ON	68002
ut	67948
Ġcollection	67939
str	67813
57	67806
Ġreleased	67755
Ġreduction	67729
Time	67636
Ġresistance	67593
ĠNovember	67564
Ġtoward	67551
Ġopportunity	67517
Ġdefense	67509
False	67499
Ġerr	67461
Ġpaid	67452
Ġmechanism	67435
Ġgiving	67434
ors	67411
Ġscore	67382
ins	67353
mer	67348
we	67343
php	67318
Ġcombination	67310
Ġrandom	67305
ay	67277
Ġ!	67244
Ġ32	67223
om	67205
ping	67170
ities	67160
83	67149
Ct	67108
*)	67108
rightarrow	67103
ĠMore	67046
Ġchance	67017
Ġhospital	67016
Ġ95	67012
84	67008
Ġidentify	67007
Ġconsistent	67004
ĠWashington	66987
Ġactions	66974
Ġdefine	66917
Ġfigure	66909
)$,	66827
Ġsuccess	66799
Ġrelatively	66798
Ġdeep	66751
Ġtesting	66731
mathfrak	66726
Ġten	66705
but	66695
ĠÃĲ	66693
Ġsometimes	66660
Ġmicro	66585
Ġforms	66578
geq	66562
}}_	66497
Ġsolid	66492
Ġquickly	66292
Ġensure	66232
Ġwall	66228
Ġplant	66221
ĠOf	66112
^{(	66099
Ġthinking	66079
Ġmiddle	66041
Ġprove	66033
Ġcolumn	66031
Ġchoose	66030
ĠMoreover	66025
*-	65997
)-	65982
Ġresources	65918
Ġmyself	65879
ile	65840
79	65790
gen	65740
Node	65732
Ġ(**	65696
Ġroot	65690
Ġplaying	65678
ier	65652
Ġnearly	65618
82	65596
ks	65588
db	65525
Ġbenefit	65519
Ġonto	65509
Ġportion	65451
Ġmovement	65425
ĠSection	65407
Ġproviding	65403
mo	65389
related	65372
Ġdetected	65371
Ġhappened	65355
Ġmoved	65353
Ġconducted	65323
Ġitem	65316
Ġagree	65312
ĠIL	65288
Ġready	65247
ĠObama	65225
form	65222
Class	65213
Ġsafe	65212
Ġmoving	65164
ability	65153
Ġcore	65137
Ġregular	65109
ĠId	65076
ĠIN	65018
Ġstand	64983
Ġhappen	64983
Ġexisting	64977
ĠSchool	64975
Ġcounsel	64972
ĠBecause	64971
Ġobjects	64939
ĊĊĠĠĠĠĠĠ	64936
Ġreach	64932
Ġprocedure	64914
Ġdaily	64859
Ġcover	64791
]:	64745
Ġcalculated	64731
##	64717
read	64669
[]	64664
*~	64663
Ġdatabase	64634
Ġbuy	64623
Ġsteps	64618
Ġanimals	64584
Ġfacts	64578
Ġremove	64568
######	64546
ence	64545
ĠSan	64506
Ġchannel	64495
ĠTable	64472
Ġwindow	64463
|\	64449
ĠCalifornia	64444
ĠWar	64429
Ġindicate	64419
Ġyourself	64417
style	64413
())	64406
74	64392
Ġtown	64373
ret	64359
II	64329
Ġattack	64320
Ġfun	64287
Ġblue	64282
Ġdemonstrated	64263
Ġupper	64248
Ġnearest	64223
ex	64214
her	64194
den	64175
Ġrace	64175
$(	64158
ii	64139
quad	64059
url	64056
Ġsuper	64052
čĊĠĠĠĠĠĠĠĠĠĠĠĠĠ	63929
ĠApp	63899
ons	63860
Ġ__	63846
Ġbottom	63783
Ġremain	63725
Ġunits	63721
Ġtool	63703
Ġexpect	63687
Ġperfect	63666
%,	63635
Ġtrade	63603
Ġdefinition	63593
Ġroad	63583
Ġcomments	63545
men	63542
Ġfinally	63503
ls	63497
Ġremember	63490
ard	63467
ĠÂł	63433
Ġsort	63389
.[	63356
Ġseven	63342
Ġcarried	63294
\],	63269
Ġcapacity	63263
ĠGo	63257
TA	63254
CH	63252
Ġplaced	63188
Yes	63181
body	63167
Ġsufficient	63161
Ġmg	63154
source	63144
Ġprocessing	63130
93	63125
Ġremoved	63115
result	63091
script	63079
Ġmachine	63026
ver	62989
ĠWhite	62941
Ġvariety	62938
Ġclient	62938
ST	62912
Ġwife	62813
,-	62808
Ġrepresent	62794
Ġsets	62777
Ġhear	62755
Ã¡	62753
Ġmagnetic	62749
Ġsound	62729
Color	62697
Index	62690
Ġshape	62686
67	62651
Ġ(\	62524
Ġstar	62461
[^	62438
ĠAlso	62347
';	62315
ds	62300
\,	62224
br	62209
Int	62200
SS	62190
core	62096
Ġhot	62094
]\],	62083
Ġsuggested	62079
500	62078
Ġdocument	61978
Ġselection	61918
ology	61853
ĠFigure	61839
La	61838
Ġoperator	61755
ĠFebruary	61744
Ġprograms	61737
Ġwidth	61730
config	61728
58	61710
dot	61669
Ġ2007	61623
Ġnamed	61595
ĠBoard	61529
Ġworkers	61524
Ġhealthy	61507
start	61506
using	61458
Ġincreases	61439
002	61434
Ġcomparison	61432
len	61376
Ġworth	61296
Ġdistributed	61273
Ġsend	61260
ped	61245
Ġexposure	61242
bm	61231
Ġcomment	61211
Ġgreen	61210
Ġserious	61189
ĠPublic	61185
MS	61106
ĠNULL	61076
Ġletters	61057
Ġpassed	60996
Ġplaces	60991
Ġdark	60977
Ġscreen	60968
Ġmaybe	60966
ĠEuropean	60955
Ġmeasures	60948
73	60947
Ġresponsible	60934
Ġhair	60933
Ġdiscussed	60929
94	60918
Ġdrugs	60885
Ġsave	60862
Ġdevelop	60830
Ġradio	60803
Ġreplacement	60785
Ġmanner	60751
ml	60745
Ġapproximately	60739
Ġdes	60713
Ġpicked	60698
Ġactivation	60677
Ġcharacteristics	60611
ĠIndia	60605
Ġincome	60588
Ġinsurance	60581
Ġsymptoms	60543
Ġletter	60500
Ġemail	60478
68	60465
cc	60464
Ġ200	60427
count	60356
Ġnice	60351
Ġ35	60303
ĠResearch	60275
Ġcircuit	60263
ĠEven	60235
Ġedge	60226
Ġstructures	60198
OR	60166
ations	60165
Ġmodern	60155
Ġtalking	60139
Map	60126
)**	60094
ina	60078
Ġchallenge	60078
Ġframe	60076
Ġheight	60046
GA	60044
Ġbeginning	60036
Ġessential	59994
Ġmale	59978
Code	59971
Ġ\<	59948
Ġcontinued	59916
Ed	59885
Oh	59871
Ġauto	59812
Ġcom	59769
System	59765
im	59756
čĊĉ	59666
63	59626
ĠUK	59616
Ġinvestigation	59606
Ġchar	59602
72	59570
Ġassume	59567
89	59564
Ġeffort	59557
row	59514
Ġtestimony	59451
Ġhappy	59424
Ġpanel	59422
cap	59371
ĠPat	59348
api	59343
Î±	59278
Ġstuff	59242
Ġdetection	59222
Ġreturned	59200
)/(-	59131
Sh	59085
Ġpick	59077
print	59065
Ġstock	59041
62	59007
mi	58876
"},	58833
Ġpopular	58820
Ġkids	58779
Ġque	58775
AP	58766
Ġeye	58758
Ġproper	58735
Image	58643
Ġtruth	58620
Ġtree	58608
object	58567
Ġexercise	58541
ĠGet	58537
Ġrow	58510
Ġpair	58495
/(-	58398
IC	58376
96	58346
66	58295
Ġwait	58243
Ġcouldn	58211
AS	58210
ĠFurthermore	58196
Ġmusic	58188
88	58152
Ġwalk	58083
Event	58054
ten	58032
Ġ70	58028
Ġspent	58023
ible	57971
ĠEnglish	57959
point	57950
Ġplans	57943
Ġspecifically	57940
Ġsurgery	57930
Ġtransition	57908
ÂŃ	57907
ev	57900
ĠLa	57893
default	57876
Date	57871
Ġfamilies	57852
Ġdenied	57847
61	57796
Ġserve	57764
Ġsolutions	57741
sp	57718
Ġplus	57707
err	57703
Ġ2000	57692
model	57654
Ġperform	57632
char	57630
Ġround	57626
Ġalternative	57619
Ġtested	57616
}}(	57615
Ġstrategy	57599
Ġcareer	57571
Ġofficials	57559
Ġcycle	57543
Ġ\,	57493
RA	57492
ana	57491
","	57480
Ġdead	57465
Ġwants	57430
std	57425
Ġspin	57403
Ġmentioned	57389
âĢ¢	57385
dy	57361
ldots	57342
CC	57334
Ġupdate	57312
Ġstrength	57288
Ġeight	57288
Ġelection	57264
Ġinterface	57244
ĠID	57165
Ġmid	57120
ĠInternational	57080
Add	57070
Â¾	56994
However	56988
vi	56943
Ġsleep	56943
Phi	56941
Ġprepared	56930
Ġload	56929
------	56915
Ġaffect	56910
Well	56900
While	56889
005	56884
ĠRed	56881
Ġleads	56854
Ġdespite	56847
Calculate	56844
src	56831
Ġofficial	56825
ĊĉĠ	56810
((	56792
200	56790
Ġbegin	56755
]^	56738
ph	56716
Ġ~	56709
create	56707
Ġmulti	56706
0000	56672
ĠRev	56653
Ġstudied	56639
Or	56634
81	56632
Ġfemale	56627
Ġ2006	56619
Ġsummary	56615
Ġimproved	56542
Ġstudent	56525
ĠBe	56519
Ġnuclear	56460
Ġtypically	56444
91	56437
Ġmetal	56422
ĠCI	56410
ess	56386
**)	56379
Ġexplain	56366
prime	56363
SE	56362
ĠCode	56354
Our	56343
Ġcombined	56335
98	56325
Ġprotect	56291
Ġnone	56282
height	56248
Ġsurvival	56233
init	56224
Ġsuccessful	56209
break	56203
85	56200
Ġgrowing	56188
Ġexperimental	56180
IT	56129
Ġconduct	56123
Ġmeaning	56070
Ġcommunication	56066
Ġdis	56058
Ġcontrols	56048
page	56041
Ġvote	56037
Ġwatch	56024
Ġagent	55999
Ġunless	55978
Ġbound	55939
Ġoccur	55933
where	55913
Ġex	55867
Ġconfirmed	55828
Ġpress	55817
Ġattempt	55792
ĠNews	55787
Ġpiece	55778
Ġkilled	55763
ny	55721
Ġminimum	55717
version	55686
ĠYour	55676
Why	55665
Ġshot	55658
ised	55640
Model	55615
que	55593
71	55579
Ġguy	55569
Ġhour	55554
Ġmolecular	55548
Ġdi	55494
Ġsociety	55490
ĠHer	55475
Ġinduced	55437
num	55433
Ġforeign	55424
Ġperhaps	55423
Ġwouldn	55421
Ġball	55391
76	55383
font	55377
github	55373
Ġcontain	55369
func	55362
ber	55329
Ġagreed	55315
wa	55295
IP	55276
Ġraised	55234
Ġanalyzed	55232
Ġcircumstances	55224
},\	55222
Service	55222
Ġprofessional	55178
Ġassociation	55164
Ġcalls	55143
Ġreached	55129
Ġwhereas	55125
Ġ75	55125
ĠTV	55117
Ġbillion	55111
Ġjudge	55106
pe	55104
Ġoperations	55103
Ġsum	55073
Ġaffected	55057
Ġchain	55051
Ġdied	55048
Ġfeet	55035
ĠCongress	55029
cs	55027
Ġliquid	55011
Array	54991
ĠDavid	54966
otimes	54942
97	54932
has	54901
Ġlinks	54887
Ġofficer	54869
Ġbill	54858
Ġemployees	54827
Request	54817
ai	54796
rc	54783
Ġpackage	54770
Ġnil	54769
Ġcauses	54750
Ġclasses	54720
Ġtools	54708
RE	54704
ĠCal	54701
SA	54599
Ġentry	54588
Ġnames	54556
Ġprobability	54509
Ġkept	54488
Ġjava	54488
ĠMan	54483
sl	54478
Ġ(!	54442
Ġmental	54430
pa	54420
Be	54419
Ġcredit	54400
Ġefforts	54367
Ġhuge	54352
tan	54325
LL	54322
Ġcriminal	54313
Ġcollected	54310
Ġsentence	54280
Ġtraditional	54258
NT	54205
boldsymbol	54182
IS	54170
Ġoccurred	54141
Ġvoice	54140
nce	54109
Ġcorrelation	54088
ĠPaul	54043
NA	54041
Ġintroduced	54034
nn	53984
Ġsuggests	53969
87	53967
Ġdiscussion	53947
Lambda	53913
Ġrelation	53853
Ġcertainly	53832
Ġestimated	53801
Ġparent	53789
Ġtechniques	53771
ND	53770
ĠPark	53769
Ġexplained	53735
CD	53734
Ġdiagnosis	53669
Sigma	53605
Ġgone	53586
^[@	53564
Ġgeneration	53564
Ġmovie	53561
ĠDe	53547
level	53508
Ġabsence	53498
ĠLondon	53456
Ġprotection	53454
Ġsexual	53447
ĠNote	53422
Ġstatute	53401
lin	53399
Ġsummer	53398
ĠMost	53342
Ġremaining	53338
Ġappellant	53315
Ġstorage	53275
Ġforces	53262
Ġwhom	53260
ĠCan	53257
specific	53249
down	53183
ging	53169
pp	53126
Ġhandle	53122
ice	53081
Ġalgorithm	53070
Ġbiggest	53034
Î²	53009
uint	52985
ĊĊĉĉ	52976
Ġlog	52954
Ġrequirements	52892
Field	52853
Ġbed	52802
Ġrecords	52789
Ġmodule	52785
Ġ((	52731
Ġband	52714
User	52698
Ġgun	52685
gg	52679
({\	52594
Ġclean	52571
']	52564
Ġolder	52530
ky	52520
ef	52514
Ġhttps	52469
Ġ2005	52396
Ġlaws	52369
92	52360
Ġserved	52345
Ġpicture	52335
ft	52322
ĠDon	52318
are	52310
St	52306
ĠAM	52301
Ġ45	52298
Ġbuffer	52264
Ġadding	52257
Ġdescription	52250
ere	52247
Ġoptical	52231
Ġorganization	52224
Ġmissing	52213
Ġextent	52205
Ġoffers	52186
Ġcapital	52185
Ġquantum	52161
çļĦ	52136
cell	52104
.](	52086
Ġwild	52059
Ġcreating	52007
Ġscience	51999
check	51965
Ġsubjects	51963
ja	51959
ĠEast	51951
First	51912
date	51897
Ġeconomy	51865
Ġpurposes	51860
Ġanimal	51800
Ġderived	51796
Ġresponses	51763
Ġexternal	51735
Ġideas	51723
Count	51681
Ġschools	51677
*(	51655
action	51640
ĠGroup	51640
ES	51609
Ġenter	51603
Ġintended	51581
ane	51564
77	51529
Ġ("	51519
ĠTexas	51505
local	51458
"></	51457
ified	51433
main	51427
Ġproperly	51389
Ġrepresents	51384
bit	51381
ĠStreet	51346
EL	51345
induced	51310
tri	51303
Ġdecreased	51284
TE	51279
ae	51259
Ġresolution	51252
)?	51237
Ġdirector	51230
Ġwave	51203
rr	51185
Ġstation	51185
Big	51180
Ġachieve	51163
dir	51135
Ġselect	51131
mbox	51120
ĠIsrael	51083
Ġ37	51045
Ġ-->	50998
nonumber	50991
78	50985
ĠBritish	50971
Ġmechanisms	50963
Ġauthor	50961
Ġrise	50957
Ġtrack	50943
ow	50937
ho	50935
Ġvirus	50935
*]{}	50886
Ġauthority	50884
Ġfeeling	50845
Ġarm	50845
Ġlargest	50829
ĠSupreme	50829
2015	50805
Ġnovel	50792
ĠEach	50775
CE	50758
ak	50725
Ġcold	50701
property	50688
ium	50684
Ġteams	50676
Ġattorney	50669
Ġinterests	50656
ĠEurope	50641
ensuremath	50640
Ġmembrane	50632
ri	50613
Ġsrc	50604
Ġtechnique	50599
čĊčĊ	50554
Ġ""	50523
Ġofficers	50507
Ġcrime	50498
Ġdie	50420
Ġslightly	50413
PS	50403
ģ	50398
ug	50390
Ġcontained	50376
fs	50374
Ġprofile	50360
block	50288
ĠHigh	50278
Ġtrans	50253
_.	50175
Message	50146
RI	50139
ĠFoundation	50130
OS	50108
Ġfight	50079
amp	50060
ĠAm	50058
ĠCouncil	50056
Ġsales	50054
Ġcoverage	50054
Ġguys	50023
ij	49941
LE	49933
ino	49916
Ġfloor	49907
Ġcharged	49893
Ġopening	49878
har	49872
ah	49833
ĠCommission	49829
Ġcharacters	49804
AD	49791
Ġvalid	49783
Ġsevere	49779
head	49774
Ġconventional	49758
Ġdose	49746
Ġborder	49706
Ġlatest	49705
(&	49699
ĠPeople	49697
Ġprojects	49695
Ġoffered	49691
Ġ/*	49667
**]{},	49664
summary	49642
Ġloop	49635
Ġphoto	49620
Ġholding	49615
gn	49614
Ġannounced	49609
Ġimport	49598
}-	49573
Dr	49567
sin	49564
ĠCalculate	49562
Ġfear	49530
xe	49507
Ġshared	49487
Ġnet	49472
ect	49465
ĠCanada	49460
004	49439
write	49419
ĠChinese	49410
ĠGoogle	49401
material	49392
ĠRNA	49367
Ġexchange	49366
ek	49358
AA	49358
CA	49325
Ġgain	49322
Ġinteractions	49314
Ġbank	49309
Ġfresh	49308
Ġentered	49305
Ġagents	49302
Ġpro	49299
Ġtrust	49270
can	49268
âĢĿ.	49262
čĊĠĠĠĠĠĠĠĠĠĠĠ	49232
Ġerrors	49224
tu	49219
Ġ48	49206
Some	49201
Ġsupply	49180
Ġformat	49159
Ġdecrease	49077
Ī	49067
util	49067
Ġdriver	49066
.[@	49012
Bar	48983
Ġdog	48982
ning	48971
RT	48965
message	48952
Ġanalyses	48952
SC	48918
Ġwish	48886
Ġconcentrations	48884
({	48877
Ġagency	48848
ĠFriday	48846
.$$	48807
ain	48803
kappa	48799
port	48784
Â½	48780
Ġblog	48773
Ġcounter	48772
Ġoutcome	48716
dt	48702
Ġgenetic	48686
Ġexistence	48646
Ġreceptor	48632
Ġdigital	48624
Ġviews	48619
circ	48614
tat	48611
you	48596
dr	48593
Ġstable	48562
false	48551
Ġfinite	48512
bin	48506
ification	48484
Ġplants	48475
ł	48468
Ġpossibility	48464
Ġstars	48463
Ġequipment	48455
ĠGreen	48438
Ġdoubt	48392
Ġdriving	48391
Ġoperating	48388
han	48368
Ra	48357
lla	48337
Ġgirl	48334
long	48322
Ġbeautiful	48295
PA	48257
MA	48250
SD	48238
Ġpatterns	48209
Ġwhatever	48186
Ġheavy	48180
Ġsignals	48161
Ġcompleted	48158
ates	48149
Ġliver	48114
Ġdiseases	48003
ĠTwo	48000
ĠNi	47966
dl	47955
Ġinterested	47955
Ġmobile	47937
:"	47917
Co	47911
Re	47906
Ġidentity	47901
Ġalleged	47856
ĠJames	47840
ĠNa	47832
eg	47803
Ġreturns	47786
era	47758
ĠBlack	47749
Ġappeared	47748
Ġequivalent	47717
Ġimportance	47712
AC	47711
Ġaren	47688
ray	47659
ĠJust	47659
Ġindicates	47648
cos	47642
Manager	47632
ĠBank	47624
Ġspectrum	47601
well	47594
âĢĬ	47591
post	47584
Ġmaintain	47580
ĠSuch	47563
ĠMe	47543
Ġ()	47542
ĠUn	47539
ron	47532
ĠTi	47496
0001	47494
Ġconcept	47481
Ġ2004	47467
ĊĊĠ	47455
xml	47451
widetilde	47434
Ġhappens	47434
Ġ36	47431
Ġcontrolled	47427
Ġdemand	47366
Ġgenerate	47364
Ġ+=	47357
Ġruns	47348
Ġsequences	47337
Ġinner	47331
Ġholds	47330
Ġtravel	47320
Ġconclusion	47318
Ġstraight	47288
Ġabuse	47274
Ġ"[	47243
nabla	47226
tc	47220
Ġparticles	47134
zo	47092
Ġconfiguration	47049
ĠST	47046
ĠService	47036
Ġfilter	47031
Ġreality	47024
open	47007
our	46976
End	46967
ĠWestern	46950
ĠBl	46929
Ġcard	46919
Ġdefendants	46907
Ġbalance	46866
ore	46832
Ġplasma	46822
").	46815
Ġsecondary	46800
Ġmeasurements	46784
ĠMonday	46780
Ġreferred	46769
Ġmotor	46757
Ġmouse	46743
first	46701
ĠTheorem	46700
Ġring	46692
Ġnoise	46687
Ġinteger	46679
ĠPC	46679
context	46674
ĠGa	46660
ding	46648
format	46629
Group	46619
Ġchronic	46612
ind	46576
endif	46552
bo	46548
IL	46543
ĠInstitute	46539
AT	46524
ï¼Į	46519
DA	46518
Ġrepresentation	46510
2016	46508
Ġcontinuous	46508
Ġseemed	46506
Ġempty	46480
Ġ2019	46478
bool	46470
ĠList	46450
Ġdeveloping	46446
exp	46435
bi	46403
ku	46383
Ġdescribe	46381
Pi	46345
Ġcommercial	46329
Ġel	46327
eb	46313
Ġshift	46309
^*	46306
Ġremainder	46273
NC	46268
Ġspeak	46242
Ġadvantage	46237
ĠLaw	46220
Ġsoft	46216
These	46211
ĠCa	46203
]),	46184
Ġnation	46160
2013	46145
run	46126
Ġstatements	46119
Ġfat	46111
TI	46067
eu	46065
ĠBoth	46013
2014	46008
null	46007
Ġdrop	46001
art	45999
Ġquery	45990
Ġexperiment	45980
Ġleaders	45968
Ġhaven	45959
Ġexpress	45943
gs	45935
Ġjobs	45930
Ġliterature	45928
Ġadult	45910
Ġbutton	45906
Ġenvironmental	45899
Ġchemical	45889
Ġcollege	45859
Ġstd	45808
Ġapproved	45792
\{	45744
ger	45737
ĠSmith	45729
Ġlatter	45724
Ġslow	45651
Ġcarry	45621
Ġlibrary	45603
Ġissued	45601
ker	45599
ĠCompany	45590
ĳ	45586
Ġclub	45571
Ġextremely	45569
]{	45537
tra	45536
range	45509
Ġmm	45497
ĠFOR	45496
Ġspeech	45473
Ġborn	45473
Ġplatform	45460
Ġknows	45458
ĠCommittee	45407
Ch	45398
ĠGu	45381
Ġestimate	45365
ĠArt	45351
ĠFacebook	45350
Ġ00	45330
Ġleader	45325
Ġbooks	45314
Ġ500	45304
Ġcovered	45301
Ġtransmission	45291
ern	45289
Ġcharges	45282
CO	45277
ji	45266
Ġserum	45264
Ġahead	45235
Ġaccept	45228
006	45200
vert	45176
Ġexamples	45170
2012	45159
Ġregulation	45149
ĠMichael	45132
apache	45097
Ġport	45076
Ġaware	45072
AR	45055
ĠRe	45053
Ġhusband	45051
ĠUnion	45036
Ġprob	45024
Ġopened	44987
FA	44964
Ġguess	44954
float	44941
NO	44923
Ġsubstantial	44923
Ġfluid	44919
NG	44898
Ġchurch	44881
ĠJapan	44875
Ġcustomers	44866
Ġoccurs	44811
ring	44787
ĠBig	44774
Ġsigned	44773
Ġscene	44754
Ġfish	44749
Ġ42	44726
Ġfootball	44725
ĠLeague	44723
Ġexception	44719
007	44715
ĠMac	44707
current	44690
Ġcompounds	44690
Ġgrow	44669
Source	44649
ĊĊĠĠĠĠĠĠĠ	44624
Ġrecorded	44613
Ġdiscuss	44608
Ġsession	44605
Ġdelivery	44597
Ġdecisions	44581
ĠAccording	44579
Ġ33	44550
Ġexact	44524
kg	44521
TR	44509
Ġcalling	44503
čĊĉĉ	44496
Ġret	44487
Ġeat	44479
Ġreceiving	44477
Ġpowerful	44474
Ġevaluated	44470
Ġdiet	44463
US	44462
Ġallowing	44405
120	44401
)*(	44400
Ġviolence	44394
ix	44384
event	44374
Ġfair	44357
Ġtransport	44353
Ġnetworks	44353
Then	44350
ĠAmericans	44334
Ġinterview	44324
lang	44322
Ġleaves	44321
IA	44319
Go	44319
ster	44282
cl	44272
Ġpeak	44268
Ġimplementation	44267
Ġextended	44263
Ġoutcomes	44257
.</	44256
Ġ72	44252
Ġextension	44248
Cl	44214
reg	44205
Ġpercentage	44198
order	44197
Ġconcerns	44191
Ġestablish	44171
Ġsale	44168
ig	44158
Ġleaving	44153
Button	44134
Ġthousands	44133
Ġbirth	44128
Ġsubsequent	44116
Ġassessment	44116
&\	44107
Ġhelped	44089
ĠSunday	44089
Ġfaith	44079
md	44062
Ġmuscle	44061
Ġmostly	44056
ĠFrench	44049
Ġimmune	44035
Ġse	44034
ular	44015
Un	44003
Ġevolution	44000
button	43998
Ġtestified	43992
2000	43989
Ġad	43985
dimensional	43962
ĠEl	43950
Ġ},	43932
Ġpoly	43924
ĠIP	43923
Ġunderlying	43920
arg	43908
Ġefficiency	43907
Ġprogress	43870
Ġfix	43868
'.	43846
ĠCollege	43846
Don	43835
zeta	43783
po	43776
CT	43744
du	43730
Ġ2003	43720
pre	43711
Ġcentury	43703
Ġrepresented	43682
Ġformula	43678
Ġtraffic	43669
ĠFree	43634
Property	43630
ua	43628
ĺ	43606
}}_{	43578
Ġgreatest	43578
Ġexamined	43556
Ġbaby	43545
Ġcriteria	43532
,'	43517
ĠHar	43510
target	43500
json	43497
2017	43475
}}^	43472
dependent	43460
Ġthank	43451
module	43450
Ġlearned	43429
Sub	43407
Ġarguments	43407
status	43401
Ġcatch	43393
Ex	43388
ĠWhy	43385
oid	43366
Ġeventually	43364
ĠGovernment	43356
gu	43342
ĠSub	43337
Ġowner	43335
Ġsquare	43330
°	43316
Ġalcohol	43316
Ġplane	43313
ham	43294
dots	43279
ĠAssociation	43263
ĠĊĠĠ	43229
ĠNOT	43222
ld	43201
Ġhyper	43177
GL	43163
ĠCO	43155
ĠKing	43147
non	43141
Ġcandidate	43137
Ġvisual	43135
Since	43121
Ġspecified	43115
scale	43109
Ġcurve	43105
ans	43104
ĠPost	43097
Ġbreast	43093
ĠSch	43083
au	43074
Element	43072
ĠPress	43069
Ģ	43068
Ġscheme	43056
?âĢĿ	43042
ions	43011
Ġworse	43011
tro	42995
Ġvoltage	42975
)"	42974
Ġpositions	42973
parent	42962
Ġsurvey	42948
Client	42933
ĠCA	42933
Ref	42931
Ġinvestigated	42919
aa	42886
Ġcool	42883
}}{	42881
auto	42865
ĠNO	42846
Ġscript	42841
....	42837
ĠTuesday	42824
Ġachieved	42818
)=\	42804
Ġenjoy	42777
Ġtypical	42764
Ġdepends	42754
][	42744
Ġpathway	42727
Ġspread	42713
Ġgoals	42703
mod	42698
ens	42697
Can	42674
ĠGermany	42671
Ġsmooth	42640
ĠScience	42639
Ġgraph	42637
Number	42636
Ġbio	42634
Ġlicense	42631
Ġchanging	42620
Ġglass	42586
Ġspend	42581
ĠDay	42576
Ġpurchase	42574
Ġpolicies	42568
})$	42564
ĠEq	42560
Ġmaster	42553
Ġ64	42529
Ġfilms	42518
ara	42506
Ġprocedures	42504
supplementary	42501
Ġ34	42494
Ġstandards	42487
Ġ65	42464
ĠUsing	42457
Ġdigit	42445
Ġtrip	42438
ĠâĢ¦	42436
MP	42432
su	42423
Ġmixed	42422
Ġrecovery	42384
ious	42383
wi	42372
ĥ	42358
----	42327
Ġapplicable	42321
Ġgranted	42312
Ġcivil	42296
Ġcomplaint	42288
ĠEx	42287
client	42261
EA	42250
ă	42244
Ġ${{\	42228
ert	42210
TH	42196
gi	42187
zi	42163
Ġisolated	42149
Ġcarbon	42149
128	42148
request	42141
Ġquick	42140
final	42128
Ġmax	42094
Ġ2001	42088
Ġlimitations	42082
.*	42075
Ġangle	42067
Ġacts	42055
ĠJudge	42052
ĠDi	42051
Page	42049
Ġseeing	42029
sb	42027
Ġsalt	42026
last	42010
Ġdesired	41972
ĠMany	41965
Ġeasier	41952
Ġevaluation	41941
fa	41936
Ġsubstrate	41910
Ġyes	41902
Ġ]	41883
Ġ${	41883
col	41879
Ġcup	41876
ws	41854
ĠMar	41844
Ġindeed	41809
Ġstrongly	41795
Ġcustom	41790
Ġsections	41774
Ġdetailed	41739
Mo	41738
Ġinvestment	41730
Ġrelief	41727
EC	41720
Ġfunds	41718
ĠFinally	41716
Ġinvestigate	41713
Ġjoin	41707
Ġobvious	41699
101	41690
ora	41649
car	41642
Ġfourth	41623
ied	41589
Ġflat	41589
Ġchosen	41589
}.	41554
ano	41554
Ġfreedom	41540
ĠDuring	41523
media	41518
Ġentitled	41512
Ġsell	41504
ĠRec	41499
2011	41493
Ġweak	41483
ax	41479
Ġkill	41458
ĠMS	41441
df	41440
ĠMo	41432
300	41411
"}.	41392
Ġdaughter	41375
ĠTh	41369
Ġmeant	41357
++	41353
Ġstored	41338
LA	41314
}+	41312
cast	41312
mid	41302
Ġconsidering	41289
2010	41278
Ġassay	41272
Ġduty	41258
Ġconclude	41255
Content	41252
Ġsc	41246
Ġcommitted	41237
output	41229
ĠWhich	41229
Ġdirected	41224
Na	41205
layout	41200
Ġinstall	41193
ĠEngland	41188
ĠAdd	41175
[\	41167
Ġskills	41152
Ġprices	41130
Note	41109
Ġthanks	41086
ica	41076
Ġreligious	41067
Ġvictim	41066
board	41041
Ġforced	41035
Hi	41001
ĠParty	40990
Ġab	40983
cy	40981
Ġdebt	40975
Ġintervention	40973
Ġspot	40961
Ġdocuments	40961
Ġstream	40950
Ġlisted	40940
ĠFlorida	40939
Ġpayment	40930
Ġplays	40901
king	40895
EN	40889
ĠOther	40871
sta	40843
ĠUnder	40842
Ġapparatus	40840
ĠCT	40825
Ġcluster	40819
load	40818
ĠIII	40810
try	40808
Result	40808
lic	40802
Ġequations	40786
Ġstories	40783
Ġconflict	40783
Just	40758
Ġplate	40739
Ġfocused	40723
Ġlose	40715
Ġdepending	40712
call	40710
rec	40701
hu	40701
Ġdetermination	40698
Ġconcern	40674
Ġsold	40664
ĠCH	40661
Ġcategory	40634
Ġexcellent	40618
ov	40605
Ġcash	40602
tab	40599
Ġfans	40593
Ġresulted	40583
ach	40576
Ġwaiting	40573
ĠSolve	40564
Ġprint	40514
Ġmeasurement	40503
ĠChrist	40499
ene	40498
Ġobservations	40479
Ġclick	40467
Ġpossibly	40456
cat	40451
ĠAir	40424
cdots	40421
Ġbelieved	40410
ptr	40392
Ġfuel	40367
Ġtreat	40364
ĠRussia	40364
008	40347
SP	40343
Ġregard	40324
)]	40319
Ġ300	40318
Ġswitch	40314
ĠChurch	40297
Ġ2002	40278
Ġassuming	40277
ĠTest	40213
Ġhousing	40199
mail	40190
%.	40183
Ġversus	40180
\*	40160
ological	40152
Ġneither	40151
Ġsuit	40120
uk	40115
Ġfees	40104
Ġmodified	40080
Ġtwice	40064
Click	40043
Ġapproaches	40038
Ġdistinct	40036
Ġcommunities	40036
Ġemployed	40024
Override	40012
ľ	40004
Config	39992
Ġdry	39985
prop	39980
ĠThursday	39963
Method	39958
Ġtouch	39956
ĠHIV	39956
ĠTime	39954
ĠOffice	39937
Ġoffense	39920
ĠAT	39910
Ġprotocol	39907
show	39906
NE	39888
ĠOS	39869
Ġplanning	39867
Ġ38	39859
Di	39847
ĠCircuit	39842
hip	39841
ĠNone	39804
Version	39798
Which	39794
Ġdamages	39794
Ġconfidence	39790
IR	39721
Ġstanding	39714
gt	39692
Ġref	39690
2018	39685
}}}	39680
og	39677
ral	39674
ĠWell	39651
}=\	39642
Ġfunding	39640
Ġcompare	39639
Ġdetail	39637
ĠWednesday	39633
mg	39631
Ġnodes	39615
img	39604
ĠAr	39602
Ġpush	39597
Ġstreet	39588
Ġhelps	39583
Box	39582
Ġmis	39572
]--[@	39562
ĠSuper	39559
Ġconcerned	39540
Ġscores	39538
Fe	39528
ĠAS	39512
Ġaccuracy	39510
Ġefficient	39506
Ġtrials	39486
fe	39482
**]{}	39449
HA	39416
Ġtrain	39412
Ġadvice	39411
ĠSp	39410
tar	39409
Ġscope	39404
Ġsensitivity	39399
Ġmainly	39391
Ġfoot	39390
Ġstrain	39384
ĠSaturday	39383
According	39377
Ġmanager	39367
([	39346
next	39341
Ġbudget	39334
Ġasking	39334
bs	39316
Ġelectronic	39314
Ġadults	39310
Ġ85	39297
Base	39289
Ġrelationships	39287
mon	39284
select	39269
ĠWindows	39251
house	39230
Ġboundary	39229
Ġguilty	39226
Ġfirm	39214
Ġexperienced	39210
ify	39198
Ġinvolving	39184
ãĢĤ	39176
ĠIT	39173
ata	39147
Ġelectron	39145
template	39127
ulation	39108
Ġexposed	39101
AM	39100
ĠGeorge	39095
Ġsignaling	39087
ru	39084
book	39069
Ġburden	39069
Ġevaluate	39066
Ġexpansion	39061
Ġfan	39056
Ġcontribution	39025
Ġthin	39013
ĠSet	39008
sha	38967
ĠJapanese	38948
Ġcapable	38943
ĠYes	38939
Ġresource	38936
Ġrich	38921
ĠJesus	38914
Ġdelay	38903
Ġideal	38902
Ġcontinues	38898
Ġacute	38897
Ġfinished	38882
ĠBa	38869
**(-	38867
Ġframework	38835
ĠMinister	38827
inc	38818
wood	38805
Ġreverse	38786
Ġcomposition	38781
Ġassessed	38757
ĠCon	38746
Ċĉĉĉĉĉĉ	38736
)^{	38725
Ġintensity	38704
Ġdepartment	38703
Ġsides	38700
Ġ{{\	38678
Ġbus	38675
Ġemployee	38657
Ġguide	38623
LI	38584
Ġbroad	38572
was	38571
Ġbiological	38536
package	38519
Ġdemonstrate	38514
âĢĿ,	38509
ĠFederal	38509
Ġice	38499
ĠBay	38498
Ġdecide	38496
Ġrelates	38494
Ġincident	38487
Ġadvanced	38483
ĠPA	38475
Ġplaintiffs	38459
ĠWeb	38458
ĠAustralia	38458
author	38442
Ġraise	38433
Ġgrant	38426
Ġordered	38415
ĠInternet	38407
isation	38405
Ġuns	38404
ries	38402
Response	38401
Cs	38397
Ġpull	38397
PP	38394
Ġassess	38392
/\	38388
ĠSun	38381
Ġbrief	38380
Ġmurder	38375
Ġran	38365
Ġextends	38342
Ġgold	38330
\/	38320
match	38317
ose	38313
Ġbrother	38309
background	38299
ĠNe	38293
Ġimaging	38288
pl	38287
Ġpersons	38287
Ġpotentially	38275
Ġpar	38271
Ġchallenges	38263
Ġsuitable	38262
Psi	38257
DB	38257
Ġhumans	38248
ĠMark	38248
ini	38234
Bo	38224
Ġrats	38189
Ġjoint	38189
Ġconference	38177
position	38160
Simplify	38137
Ġvelocity	38130
description	38124
Ġchief	38120
Ġstatistical	38117
ĠAD	38117
Ġstopped	38114
"),	38102
Ġimprovement	38078
Ġidentification	38072
Ġdoctor	38065
.**	38054
kin	38049
Ġintent	38037
Ġsit	38028
BC	38022
ĠĊĠĠĠĠ	38016
CI	38011
Ġrare	38008
Solve	38001
ET	37993
Ġdraw	37988
Ġ_{	37987
/(	37976
Line	37975
ĠMA	37973
Ġcourts	37948
^âĪĴ	37947
Ġremained	37947
ĠBill	37946
Ġclaimed	37944
Ġinterval	37933
ress	37919
she	37918
Ġda	37918
Log	37916
Ġdel	37914
oe	37913
cha	37899
Ġopposite	37898
Ġcm	37877
Ġsettings	37876
:\	37871
uri	37870
Ġended	37838
Ġlung	37836
ķ	37815
jo	37777
Action	37752
Ġsuggesting	37746
Ġspring	37736
-----	37735
$)	37729
Ġparallel	37716
IO	37703
Ġ68	37696
Ġha	37681
FF	37674
Ġfavor	37670
Ġfrequently	37666
ĠPD	37666
Ġ99	37637
ĠOpen	37631
Ġradiation	37627
Ħ	37626
Although	37626
Ġhence	37624
Ġdiscovered	37614
Ġnine	37591
ĠTom	37551
ĠFe	37544
Ġengine	37538
Ġreflect	37536
af	37513
ĠBrown	37509
ĠRussian	37502
Ġpartial	37491
pr	37478
icon	37459
Ġbone	37456
section	37453
Ġunknown	37450
ĠRepublican	37443
Read	37437
Ġargues	37424
Man	37419
Ġsun	37419
ĠSl	37417
Ġorigin	37412
web	37406
DE	37391
Ġarms	37382
Ġnecessarily	37374
work	37355
ĠIC	37350
Al	37349
ĠDC	37323
Ġwind	37317
tur	37315
Ġlimits	37312
ona	37307
Ġannual	37303
Ġreplace	37285
ass	37282
Ġgap	37280
vo	37270
double	37270
Â·	37259
lli	37250
hl	37244
Ġduration	37237
obj	37218
©	37217
eri	37204
light	37201
ĊČ	37191
Ġstability	37181
build	37174
ĠOver	37168
ings	37164
Ġvariation	37155
Ġfill	37154
References	37147
400	37140
ĠÂ£	37128
Ġlabel	37115
ĠUse	37115
čĊĠĠĠĠĠĠ	37096
ati	37085
Ġwidely	37074
Ġseconds	37071
Ġdependent	37058
Your	37038
_{{\	37028
ĠRule	37025
009	37012
Ġantibody	36998
Ġthereby	36993
ª	36991
Ġoral	36979
ĠANY	36977
ĠLord	36976
Ġgender	36965
Ġdefinitely	36962
Ġassembly	36960
bil	36959
Me	36955
ĠSC	36949
istic	36942
Ġdu	36915
png	36890
pc	36881
Ġforth	36868
ĠTwitter	36854
ĠUN	36850
¢	36842
Ġaspects	36834
ĠGerman	36828
nk	36821
Ġpeace	36815
Ġthreshold	36813
options	36806
TC	36805
Ġattacks	36799
Ġlinked	36788
NI	36786
Ġnumerous	36782
Ġkeeping	36780
Ġabsolute	36773
Ġpopulations	36770
Ġ96	36763
Ġelectric	36754
\-	36747
ĠÃĹ	36739
Ġseek	36737
Ġsea	36719
Ġindicating	36708
DC	36706
Ġsupra	36703
Ġstarts	36703
ĠHence	36702
Out	36696
Ġuna	36691
Ġrelations	36689
Two	36685
)}\	36681
Please	36677
ud	36676
ford	36670
ĠPlease	36670
Ġimplies	36669
rn	36668
ĠBE	36656
Ġmixture	36655
Ġroute	36631
Ġfundamental	36628
Le	36623
ĠMI	36620
}})	36604
split	36593
MC	36592
į	36590
Ġres	36568
msgid	36558
iv	36552
Ġmortality	36543
doc	36520
Ġinterpretation	36516
Ġcoach	36515
Ġconsent	36510
Ġcent	36510
Ġentirely	36504
Ġunable	36500
Ġaccepted	36500
Ġsecret	36497
ĠJohnson	36496
ext	36484
CS	36484
Ġmission	36471
Ĳ	36451
Ġtruly	36449
number	36447
Ġsupposed	36435
ĠGive	36432
Ġgonna	36424
Ġends	36416
od	36413
AN	36405
Ġcellular	36398
Ġtend	36395
Ġrecognized	36394
msgstr	36391
150	36391
ĠFrance	36389
any	36369
Ġhole	36368
Ġcontribute	36367
Ġpractices	36366
frame	36362
Ġgirls	36361
Ġsl	36353
Ġinstructions	36328
ĠFurther	36327
Ġviolation	36326
Ġcamera	36324
Ġaward	36310
Sp	36308
Ġaxis	36308
Ġmassive	36282
Ġstruct	36279
Ġ150	36278
ĠChristian	36266
Ġaim	36257
Ġdegrees	36255
ub	36252
SI	36249
"})	36232
ĠJustice	36228
mat	36212
¸	36207
Ġsupporting	36202
$$\	36191
Ġpartner	36187
++)	36170
BA	36164
oni	36151
Ļ	36146
Ġnotes	36139
Ġfraction	36124
mL	36116
Point	36114
ants	36093
<!--	36091
ln	36080
Ġemployment	36076
Ġbecoming	36073
ome	36069
Ġsigns	36065
ĠHo	36057
Ġ81	36057
Ġresponsibility	36056
Ġmiles	36054
Any	36003
Ġvitro	35988
Ġthread	35981
gh	35975
ĠSenate	35975
¡	35971
Ġtechnical	35945
Ġminute	35924
SM	35923
lim	35920
mar	35912
Input	35908
nes	35899
Ġattached	35899
Ġappearance	35888
Start	35883
win	35878
Ġsensitive	35877
Ġresidents	35874
Ġlo	35862
ĠTimes	35849
des	35847
¤	35840
ual	35814
widehat	35787
Ca	35784
Ġmolecules	35783
Ġmanaged	35767
Ġenable	35767
Ġboy	35766
Ġconcluded	35694
Web	35691
Ġwear	35682
âĢ²	35670
Ġcommonly	35663
fl	35645
Ġamounts	35640
Ġdisk	35637
option	35636
query	35626
^+^	35607
Mr	35605
SO	35583
***	35566
pos	35563
Ġpp	35555
Ġ84	35555
Ġassigned	35522
ĠIndian	35517
Ġconsideration	35506
Du	35502
~~~	35491
Ġ120	35487
Ġunderstood	35484
Ġdynamics	35474
ĠAR	35472
Ġarticles	35466
ĠOnly	35458
Ġdynamic	35456
Ġfell	35454
ĠGood	35450
fold	35446
Ġandroid	35443
Ne	35436
ĠOnce	35436
ĠHall	35435
Ġsought	35429
2008	35428
its	35420
ox	35419
Ġbag	35406
ĠAPI	35403
\]).	35401
Ġeffectively	35398
Ġaccurate	35379
Ġprinciple	35376
Ð¸	35366
Ġexpert	35354
ĠEU	35341
012	35312
ĠLife	35306
Ġestimates	35300
Ġrequirement	35289
ĠAfrica	35243
LD	35226
RS	35224
DI	35209
atic	35196
Ġoxygen	35193
Ġspaces	35183
Ġfilled	35158
Ġ66	35148
Ġ83	35129
Ġjurisdiction	35119
ĠPar	35118
Ġearth	35113
Ġdecades	35110
side	35102
Ġusual	35102
Ġcast	35096
Ġhomes	35091
tes	35090
Ġbl	35090
ĠPS	35089
active	35079
ijms	35071
Filter	35065
ĠSecond	35065
Status	35061
DS	35060
ĠJa	35058
ĠTheir	35033
Ġspending	35020
Ġjustice	34996
root	34989
server	34988
Next	34981
Ġestate	34978
ĠSam	34967
ale	34953
Ġsenior	34904
2009	34892
Ġseeking	34889
Ġplot	34888
ala	34876
space	34850
Ġfavorite	34845
Mode	34838
Ġsugar	34837
#:	34835
Ġsplit	34834
>(	34830
Ġdef	34828
Ġconsumption	34820
Ġsweet	34802
ĠSP	34802
Ġzone	34801
ali	34799
Ġtelevision	34789
ĠAny	34782
ÃĹ	34778
Ġ[]	34742
Ġbaseline	34739
Ġstrategies	34736
ĠEarth	34728
method	34711
ĠType	34710
})\	34708
ĠThomas	34695
ĵ	34687
ĠâĪĴ	34681
Ġobjective	34678
ĠRT	34676
OK	34674
ĠSE	34670
Yeah	34667
Ġ79	34658
Ġmessages	34633
Create	34624
Buffer	34614
Â¶	34612
"""	34612
Ġbroken	34612
Ġcharacterized	34608
Ġsqrt	34607
UN	34605
Rev	34603
ators	34602
Ġassistance	34591
Handler	34590
ĠEn	34588
home	34585
rb	34575
Label	34571
Format	34566
Ġrel	34565
âĢĥ	34560
Ba	34556
ĠBar	34554
Ġlabor	34553
ĠLi	34536
Ġwww	34517
ĠRes	34517
Ġorganic	34511
tag	34501
subset	34499
--------	34495
Ġoptimal	34481
Ġna	34479
Ġamino	34477
ĠPer	34471
CP	34464
GE	34458
ged	34449
Ġcompetition	34435
Ġsmallest	34425
Where	34421
Ġfail	34413
ik	34387
Ġprincipal	34387
Ġemission	34381
Ġminor	34380
Ġtissues	34378
¥	34377
Â¸	34374
Ġcompact	34370
Ġpredicted	34368
ram	34351
IF	34351
ok	34350
ĠDec	34338
Ġbinary	34336
PR	34328
Last	34328
Ġdepth	34327
Ġamazing	34323
Ġdangerous	34320
```	34314
Ġmouth	34313
/>	34297
Ġexpensive	34289
Ĥ	34280
ĠRi	34276
star	34270
ĠInstead	34270
ics	34240
ĠSe	34240
Ġpool	34236
Ġship	34230
ĠLemma	34226
Ġneurons	34222
Ġorders	34218
Ġmilk	34201
§	34171
entry	34156
Ġscientific	34154
search	34140
Ġfund	34130
Ġmarriage	34128
cd	34127
ĠPR	34116
Ġprovision	34110
Ġnative	34102
ĠKe	34091
UI	34081
Ġ41	34075
ĠHuman	34063
oc	34062
010	34060
Ġrecommended	34058
ĠHa	34055
Ad	34045
Į	34021
ĠFIG	34017
Äģ	34007
Ł	33991
Ġ82	33983
ĠCopyright	33974
ire	33972
ĠDa	33970
Ġsupports	33968
ĠMal	33964
ĠĊĠ	33964
Ġpieces	33958
Ġmanuscript	33943
Ġinhibition	33917
Thanks	33915
Ġwatching	33914
ani	33892
Ġparticle	33890
;&	33872
Ġpages	33869
ĠPi	33866
Min	33860
Ġinfo	33821
==========	33814
Ġcausing	33804
oa	33803
trans	33802
Ġ73	33798
rate	33793
css	33791
Ġthreat	33785
Ġcustomer	33770
Ġsuccessfully	33769
Ġarrest	33756
Ġwaste	33755
¶	33721
equiv	33712
Ġcompound	33710
Ġsat	33700
]}	33680
ĠHospital	33666
ĠPh	33656
find	33648
Open	33647
Ġcrisis	33647
Ġchannels	33641
Default	33635
ĠMedical	33635
Ġreducing	33633
Ġquarter	33627
cke	33617
£	33613
["	33608
Ġcomposite	33601
Ġ39	33584
echo	33583
Ġtargets	33573
Ġsitting	33552
Another	33546
TT	33543
Ġlargely	33542
ME	33539
Ġimpossible	33539
mal	33536
tin	33531
lock	33530
ĠRobert	33524
ĠClinton	33498
Ġrepresentative	33493
Ġpure	33489
ĠInformation	33486
Ġ74	33477
ĠpH	33463
Ġnorth	33454
fo	33446
Ġem	33443
1000	33430
160	33421
msg	33417
Ġmine	33417
Ġfinish	33403
ION	33396
GO	33395
Ġinformed	33385
hy	33376
Ġresearchers	33370
Ġdiabetes	33366
Ġauthorities	33350
Ġinstalled	33348
Ġautomatically	33343
ight	33341
Ġpromote	33338
real	33336
don	33329
Ġouter	33324
ĠWill	33318
Ġstructural	33317
ĠIndeed	33306
osis	33304
Ġbool	33302
Ġconstitutional	33300
Ġpetition	33293
Ġ*)	33288
Ġthrow	33286
)[	33279
"]	33275
VE	33269
ĠRa	33268
Ġbattle	33263
Ġsolve	33262
response	33260
Ġmark	33256
Ġrespond	33248
ĠDefendant	33238
Ġsector	33223
Ġdisorder	33223
Because	33221
Ġ1999	33214
ĠRA	33204
Ġmarried	33197
ising	33181
Ġder	33176
ato	33171
Ġseat	33164
Ġexamination	33162
Ġdebate	33157
Are	33143
Ġ88	33133
Ġconversation	33108
MI	33101
while	33097
ĠCentral	33090
Ġstrains	33086
more	33080
Ġweekend	33079
Ġputting	33038
Ġturns	33021
sk	33018
Ġbias	33011
¾	33007
Ń	33000
uring	33000
TS	32994
Ġfaster	32983
tre	32973
Before	32961
Ġjoined	32954
Ġunion	32941
Ġ44	32919
Ġfacilities	32906
Ġprotected	32898
ade	32895
Ġconcerning	32895
ĠEnd	32894
Ġ78	32888
Ġdetect	32887
Ġherself	32873
Ġreplaced	32863
other	32857
Update	32824
buffer	32802
Ġwilling	32795
some	32793
ĠSoftware	32784
ĠAfrican	32780
ĠChicago	32778
CIT	32773
Ġ69	32772
Ġiso	32771
Ġacting	32765
Ġargue	32753
Ġvisible	32741
ĠIts	32741
Ġ55	32739
¦	32729
Ġcitizens	32724
gan	32714
ĠBen	32710
»	32707
args	32707
Ġantibodies	32707
ang	32699
Ġmention	32698
ĠMP	32698
Ġillegal	32688
control	32683
DD	32669
Ġassumed	32664
sis	32651
Ġadvance	32651
ĊĊĊĊĊ	32649
)))	32645
Ġprison	32642
Ġcorner	32642
ĠHi	32638
Ġ67	32635
More	32633
Ġ76	32628
Ġ87	32621
Ġinvolves	32617
xa	32607
ition	32604
Cell	32599
ĠMath	32598
del	32597
Ġrefer	32581
Ġcandidates	32564
Ġmatters	32563
DR	32561
ĠmRNA	32560
ĠInt	32559
Ġser	32556
Ġadmitted	32551
Ġmerely	32550
ĠGreat	32550
put	32545
}/	32526
Ġsi	32517
Ġemergency	32517
conf	32514
oh	32513
Ġlayers	32512
Ġ91	32507
Ġ89	32491
Ġdifferential	32477
center	32475
Ġexperiences	32466
Ġtag	32463
None	32460
Ġhundreds	32460
update	32455
Ġobservation	32451
rad	32449
cf	32448
ht	32447
Ġyield	32439
Ġhundred	32432
ĠCup	32422
Ġperspective	32416
display	32403
Ġvar	32399
Ġsecure	32395
Ġpassing	32393
''	32382
Ġexecutive	32382
ĠAd	32371
Ġlowest	32355
Ġexplore	32348
103	32344
Mar	32340
ĠNS	32339
]);	32337
Check	32331
ĠStar	32327
Ġpairs	32304
ĠPCR	32300
ou	32299
ĠProject	32293
meta	32285
Ġlived	32275
Ġcap	32274
ĠRiver	32269
Ġdetermining	32263
Ġclosely	32233
011	32225
iz	32204
PT	32199
El	32199
Ġneuro	32186
Ġaspect	32182
Ķ	32171
Ġproved	32159
ĠRef	32156
Ġ1990	32153
Ġwrt	32152
Ġprop	32146
**,	32145
>>	32142
ĠÃł	32136
omp	32129
').	32123
Ġvan	32108
Ġaid	32105
ĠCS	32102
Ġpolitics	32101
Ġtelling	32099
Ġposted	32094
Ġsignificance	32088
Ġwalking	32081
015	32071
ĠSecurity	32068
sup	32066
append	32065
Ġscreening	32061
||	32049
ura	32048
NAME	32041
Ġvivo	32038
Ġwitness	32033
Ġtrees	32027
Ġ2020	32018
Ga	32016
ĠSi	31997
ĠFA	31977
111	31955
Ġrapid	31946
Ġliability	31941
*^	31940
Ha	31938
¬	31918
Ġwarm	31907
125	31906
ĠWa	31906
ville	31904
Ġterminal	31902
Ġprimarily	31899
Ġmonitoring	31882
google	31861
ick	31858
Ġloved	31852
Ġtube	31847
Ġdirectory	31837
Ġinitially	31833
Ġextract	31832
minimal	31821
ĠSD	31812
ĠField	31810
FE	31803
Ġsn	31803
016	31799
2007	31796
Ġsemi	31791
Layout	31789
ĠMc	31786
tal	31784
ĠAnother	31783
ĠFile	31778
oma	31776
Ġne	31774
kl	31771
ĠTA	31770
sen	31759
Ġbrand	31759
Ġoperators	31750
Ġmenu	31745
Ġcities	31742
Ġblocks	31731
arr	31730
Ġtrend	31723
PC	31721
Ã³	31717
shi	31717
Ġlots	31715
element	31709
Ġ98	31705
Ġsports	31685
ode	31683
Ġ93	31683
Ġrec	31682
Ġregression	31679
only	31678
INT	31678
Ġdollars	31674
Ġbeam	31669
Ġeating	31668
Ġvision	31654
´	31647
Ġinjuries	31642
Ġleague	31636
ĠLike	31634
ded	31630
.-	31616
Ġmaps	31611
Ġdelivered	31609
Ġdisorders	31608
ĠCR	31605
Ġmedian	31602
ĠQu	31597
documentclass	31593
Ġgrown	31590
Ġbranch	31590
Ġclassical	31585
txt	31581
Ġcloser	31573
ĠDA	31568
Ġvirtual	31563
Ġcon	31558
Ġbusinesses	31551
SH	31545
Ġimplemented	31541
Gr	31536
ĠBo	31524
Ġminimal	31521
OP	31510
Ġinjection	31502
Ġcontributions	31500
yo	31497
ort	31480
Ġconsists	31479
Ġdimension	31474
Â»	31473
ets	31469
Ġphotos	31469
2006	31466
lia	31435
Ġaccordance	31427
ĠChi	31424
ven	31423
Ġval	31423
Ġsensor	31421
low	31414
Ġleadership	31409
020	31404
Ġbigger	31400
ĠClass	31390
sch	31384
Am	31382
{{	31377
Ġremoval	31372
jpg	31371
Ġconnect	31370
called	31362
AB	31351
Ġenhanced	31344
ĠAre	31340
Ġsouth	31322
Ġlaser	31317
Bi	31315
Ġprevalence	31308
Ġbodies	31302
inf	31301
čĊĠ	31296
000000	31290
ĠON	31285
PI	31273
ĠIV	31269
inter	31256
ĠPlaintiff	31256
ez	31249
Ġ86	31242
Ġextend	31230
buf	31213
Ġgrand	31205
header	31204
Ġorganizations	31204
&&	31203
\"	31199
Ġcaught	31196
border	31194
ĠLong	31190
ĠJones	31190
Ġgenome	31187
ĠPa	31176
Ġsynthesis	31169
Ġ77	31164
Ġaccounts	31148
Ġapparent	31147
Ġrecommend	31146
-(	31145
mode	31144
Ĺ	31140
ĠIran	31137
Ġconsequences	31134
Ġopportunities	31132
Stream	31121
Ġelectrical	31118
Ġsorry	31110
ably	31109
Ġapproval	31096
Ps	31077
Ġfruit	31075
Ġlocations	31072
Ġcontainer	31072
Ġthermal	31061
env	31060
Ġ1998	31047
Ġdepression	31042
child	31039
Ġfigures	31033
Ġlib	31025
Ġcorrectly	31025
ula	31022
vector	31020
Ġoffset	31010
hs	31006
ĠJan	31006
Ġiron	31005
Ġ\{	30990
Ã¤	30983
Ġmaintenance	30980
Ġarrived	30973
ath	30968
mark	30961
CF	30960
ÃŃ	30956
=======	30954
]]	30950
Ġthoughts	30924
Ġinternet	30923
ĠSha	30916
Ġpathways	30913
Ġles	30909
²	30906
Ġfacility	30906
Ġ43	30899
>,	30896
super	30890
Per	30886
ĠAP	30881
pdf	30876
ĠME	30872
sf	30869
Ġsyndrome	30851
Ġclosest	30838
URL	30835
bl	30831
ı	30828
-------	30826
ļ	30819
Ġdenote	30818
}}{\	30810
ĠÃĳ	30807
PD	30804
ys	30757
Ġproportion	30755
Ŀ	30753
bottom	30753
ned	30748
ĠBi	30748
Ġtrouble	30744
push	30735
Net	30726
ĠEC	30719
Ġpointed	30718
Ġaccident	30715
Ľ	30712
EM	30709
Ġsurrounding	30709
ord	30707
Ġ92	30703
]^.	30689
102	30678
Ġcharacteristic	30677
Ġabsolutely	30676
Ġdisplayed	30671
Ðµ	30669
Ġmutations	30669
je	30655
ari	30654
Ġpractical	30647
Ġpark	30635
Ġrepeated	30626
Ġbacteria	30626
Control	30623
yn	30610
Ġposts	30605
Ġmiss	30597
Ġdepend	30596
Ġsin	30592
)/(	30591
ĠLee	30590
ŀ	30586
che	30582
ĠLu	30581
Ġ51	30579
Ġapparently	30572
ivity	30569
Ġemotional	30569
Ġ101	30569
attr	30562
Ġintegrated	30561
ult	30544
Ġdownload	30525
AF	30501
ĠDemocratic	30497
Ġhelping	30495
Ġcreation	30493
Ġtea	30488
Ġhypothesis	30484
tz	30473
Ġstages	30452
Ġinstruction	30439
Ġsoil	30435
eh	30429
rep	30426
Sa	30415
Ġclients	30402
Ġspectra	30396
Ġ97	30395
ju	30391
ash	30375
ĠApple	30360
ĠGL	30358
105	30357
Ġcoupling	30357
Ġcommittee	30357
ĠDel	30352
¨	30351
sensors	30334
{}	30332
Ġevening	30332
013	30331
Ġincidence	30323
ag	30319
Ġsounds	30318
Ġfashion	30318
ĠÎ²	30310
Ġtherapeutic	30306
Ġlaunch	30300
Ġforget	30295
Ġadopted	30288
\}	30280
Ġsw	30274
Ġkitchen	30273
\]),	30263
Ġstr	30261
Ġimplied	30260
à¸	30254
protected	30254
Ġrepair	30248
Ġfloat	30237
after	30227
Ġsubmitted	30221
110	30205
Ġdomestic	30199
Ġsolar	30194
Ġconviction	30193
Up	30185
ĠSM	30185
Ġmeat	30183
ĠLA	30182
Ġch	30177
ĠSc	30176
Ġsheet	30174
Ġmix	30171
Ġremote	30166
BL	30161
Ġuni	30139
Ġdogs	30129
Ġconstructed	30124
ĠRep	30123
Ġdescribes	30109
hand	30107
018	30104
Ġpictures	30093
Ġ1997	30090
Ġargued	30085
project	30074
part	30074
HI	30072
Ġcoffee	30061
ola	30058
Ġplastic	30056
berg	30054
Ġupdated	30048
ĠMartin	30045
EE	30038
disc	30037
ib	30029
Ġepisode	30028
Ġtransformation	30026
Factory	30018
ĉĉĉ	30017
strong	30016
2005	30014
Ġclimate	30013
Ġ"(	30008
dis	29992
Ġimplement	29990
foo	29984
pu	29983
Ġfeed	29981
Ġtopic	29978
2001	29970
nm	29968
Style	29964
Ġprovisions	29959
stream	29957
Ġapart	29957
}{-	29948
Ġ400	29939
017	29929
Ġmarkets	29925
Options	29924
Ġessentially	29924
Tab	29912
BE	29898
hn	29876
BR	29875
Rec	29867
ole	29866
filter	29865
Ġtotally	29863
Ġ49	29863
ĠRo	29858
ĠHome	29854
Ġmarked	29838
rg	29824
lan	29824
Query	29817
TYPE	29810
¼	29805
PL	29799
Ġcounts	29789
Ġexplanation	29788
pro	29777
Ġ52	29766
ĠCP	29765
ĠGA	29763
Ġtaste	29761
service	29756
Ġspatial	29744
setlength	29734
]{},	29731
ĠAL	29727
014	29724
Ġ94	29721
Ġtaxes	29714
Ġguidelines	29713
Ġfeedback	29699
Ġ47	29692
Ġspeaking	29690
]\	29689
ÃĹÂ	29686
âĢĺ	29684
ĠMa	29671
ich	29668
ĠControl	29663
Ġmaintained	29653
align	29647
Ġdesire	29630
Ġdiscretion	29628
ments	29626
tle	29615
Length	29614
Ġregime	29610
Ġdrink	29602
={	29599
ĩ	29593
ĠPolice	29591
close	29586
Ġcategories	29575
:(	29572
din	29559
Ġchapter	29559
Ġst	29552
Ġrecording	29549
Ġdeclared	29545
¯	29544
Ġultimately	29543
ĠSea	29534
Ġfamiliar	29529
È±	29526
Ġcognitive	29518
Ġimmediate	29516
Results	29515
Ġhate	29512
eps	29506
Ġoffering	29505
]$	29503
amsmath	29497
Ġ46	29475
Ġac	29472
ew	29466
Ġ1000	29462
margin	29457
ote	29456
ute	29449
Ġwonder	29444
Ġ56	29435
Ġtells	29429
Ġtasks	29427
####	29412
ney	29397
ĸ	29373
.$	29363
LO	29360
Ġgrade	29351
Ġrat	29337
Ġtreatments	29332
Ġrealize	29332
Ġrecognition	29331
Ġpreparation	29325
Ġreporting	29317
ĠOut	29313
Ġ1996	29311
ĠJo	29301
Ġmeta	29298
Block	29296
Ġidentical	29293
Ko	29292
ĠMs	29286
ĠServices	29280
Ġfiber	29279
amssymb	29276
Ġ}}	29266
123	29263
Ġwine	29263
Right	29253
ĠCorp	29246
Ġclassification	29233
Ġmo	29228
][@	29225
Ġest	29223
Use	29210
amsfonts	29208
Ġhelpful	29204
PE	29187
when	29185
Ġpermit	29174
+-	29172
Ġ{}	29170
ĠUp	29156
Ġspoke	29151
'}	29150
Ġ110	29146
Ġrespective	29145
mathrsfs	29141
TO	29138
Ġexamine	29137
Ġbars	29136
Ġfinds	29133
amsbsy	29132
Ġregulations	29132
upgreek	29131
Resource	29131
neq	29130
cra	29121
Ġcurves	29115
Ġlogic	29114
Ġobviously	29112
Ġserving	29111
Inter	29107
Ġprinciples	29098
oddsidemargin	29097
Ġcamp	29097
Ġbond	29093
wasysym	29091
ĠPro	29088
GC	29081
ĠSal	29077
Ĭ	29076
Ġsurgical	29073
Ġ71	29073
Controller	29065
Ġpe	29063
Ĩ	29059
Component	29052
ĠBC	29045
itis	29044
Ġsituations	29036
ĠDevelopment	29036
how	29012
Pr	29011
qquad	29010
Ġmoral	29010
xc	29007
Ġencoding	29003
Ġtumors	28996
Ġ===	28996
CL	28988
Ġleg	28975
Ġdiscovery	28974
pass	28971
Ti	28955
RC	28950
ĠCheck	28945
Ġraw	28941
Ġrequested	28928
logic	28921
Token	28915
van	28914
Ġcat	28907
Ġ[[	28907
ĠSh	28900
ser	28895
Row	28895
two	28889
atory	28887
Ġworst	28865
256	28842
Command	28834
dx	28831
ĠIsland	28830
END	28824
Ġbeat	28823
Pa	28821
ory	28817
Ġlies	28812
Ġintra	28811
small	28809
Other	28807
ĠFa	28806
Server	28798
---------	28788
kh	28783
Ġcrucial	28780
ĠWho	28778
Ġshooting	28776
Ġbug	28771
ĠSecretary	28764
==	28753
ĠPower	28737
ĠBio	28737
2019	28729
IE	28727
ĠHill	28714
(*	28713
ĠKa	28713
internal	28708
ĠDu	28701
ĠInd	28697
Ġbought	28693
MM	28691
cp	28690
Ġurl	28690
Ġcompliance	28680
lm	28677
Find	28669
ĠInter	28669
ĊĠĠĠĠĠĠĠĠĠĠĠ	28667
Ġshop	28660
Ġloan	28656
Ġpulled	28639
Ac	28636
104	28626
Ġpet	28625
make	28623
Ġhappening	28600
¿	28599
ĠSO	28599
ĠDemocrats	28585
ack	28583
Ġmodify	28575
dp	28571
Ta	28569
±	28566
People	28553
Ġsomewhat	28549
sn	28543
Ġgu	28541
Ġconfig	28539
unsigned	28535
IV	28532
Ġpatent	28529
vs	28525
Ġassets	28523
Ġbehaviour	28516
Max	28515
Ġtranscription	28515
2004	28514
**(	28510
Ġowners	28508
ĊĠĠâĢĥ	28508
Ġspectral	28507
ĠSta	28505
ĠER	28501
ĠGen	28491
Ġarrested	28490
Ñĥ	28488
BO	28486
Supplementary	28482
Ġ$(\	28480
Ġhurt	28479
Ġgate	28472
Post	28458
Also	28458
Ġneck	28458
ĠDonald	28444
SL	28441
Ġruling	28427
Ġdrawn	28421
ĠPart	28420
ĠJournal	28410
Ġteaching	28409
Ġenforcement	28405
Ġimagine	28393
Ġcentre	28388
Ġune	28381
µ	28375
ĠPo	28368
cb	28364
Ġglucose	28362
ĠSociety	28358
ming	28354
Res	28354
Ġworry	28343
Ġpo	28340
Ġpicking	28325
Ġintelligence	28323
Ġinfected	28297
OL	28295
Ġdeaths	28277
ĠDirector	28272
VI	28271
ĠPI	28269
ĠMicrosoft	28268
----------	28265
OM	28253
Ġpreferred	28251
ĠRead	28249
Ġdriven	28245
THE	28242
600	28236
Ġlen	28236
RD	28227
Configuration	28218
ĠPe	28215
Ġpossession	28206
Ġrequests	28200
^-	28187
Ġweather	28180
Ġfa	28175
Ġfighting	28170
Ġdev	28163
before	28156
ĠName	28155
Description	28152
Ġenzyme	28133
Ġcontents	28128
ĠPeter	28122
Ġformal	28121
Ġconfirm	28117
Builder	28116
Ġvoters	28109
Ġnormally	28109
Ġapplying	28107
ĠÎ±	28105
rich	28101
Ġunc	28087
und	28075
iso	28073
ving	28065
Ġnoticed	28038
high	28034
Ġpowers	28034
Ġproliferation	28023
Ġweapons	28020
mic	28019
Ab	28016
Ġhidden	28014
Ġth	28000
Ġrealized	27999
ĠView	27993
ĠIll	27992
Ġwood	27991
Ġinstant	27988
ĠAdditionally	27988
molecules	27986
dom	27971
Ġcarrying	27969
ĭ	27963
zed	27960
Ġpara	27952
čĊĉĉĉ	27949
ids	27942
Ð°	27941
DO	27931
Ġmechanical	27919
Ġassumption	27916
Ġalpha	27916
Ġtough	27915
Ġdivision	27915
ado	27907
Ġcounty	27906
Ġ59	27894
(_	27893
HE	27887
Ġintegral	27881
ĠRoad	27876
Ġcultural	27866
Tr	27865
Ġreads	27851
Ġden	27844
system	27843
Ġourselves	27843
------------	27842
Ġtemplate	27829
CG	27826
Ġtransaction	27813
Ġro	27810
Ġregister	27809
Ġroles	27807
Ġacids	27801
ÂĢ	27799
Car	27796
ĠSen	27788
è	27785
Ġharm	27784
Ġinfections	27781
Ġseparation	27776
offset	27773
Ġbeta	27771
ves	27752
%),	27745
Ġrotation	27739
ĠPl	27737
Ġsubstantially	27736
qu	27730
Ġattempts	27727
Width	27725
Ġsetup	27722
00000	27717
fd	27713
fc	27708
Ġdraft	27704
Ġng	27699
Ġtri	27676
112	27672
host	27645
Ġmillions	27643
Ġaccused	27643
Ġexcited	27634
Cor	27632
Ġregistered	27621
ĊĠĠĠĠĠĠĠĠĠĠĠĠĠ	27619
Ġmanage	27616
wn	27612
Even	27610
ĠThose	27595
Ni	27586
Ġseparated	27586
ĠProgram	27580
Ġ:)	27569
Ġexperts	27566
Ġpermission	27564
ĠPT	27556
life	27554
mt	27553
ĠIns	27552
ĠKorea	27550
namespace	27548
Ġmoderate	27544
Ġlegislation	27538
Ġpaying	27521
Ġbrown	27512
Ġconstruct	27511
Ġconversion	27504
ĠCC	27500
Ġmedicine	27498
Ġintegration	27496
RR	27491
Ġuniversity	27485
Ġdropped	27485
yr	27477
Ġdiameter	27476
RO	27475
De	27469
pen	27468
rem	27466
Ġcorrelated	27463
-----------	27454
Â¼	27449
dg	27446
Ġviral	27444
Ġseed	27429
ãĤ	27422
Ġmetric	27416
Ġopposition	27410
Ġflag	27408
Who	27405
About	27403
ĠLos	27403
Ġplanned	27402
ĠIR	27393
wise	27390
Ġbright	27390
ĠmM	27389
km	27382
ape	27375
Call	27365
Ġintroduce	27346
values	27339
Ġsister	27327
Ġfee	27319
mor	27315
140	27314
Ġorgan	27310
}\,	27308
Ġinstitutions	27307
lem	27299
menu	27298
Ġrecognize	27298
common	27290
ĠDivision	27282
ero	27277
ħ	27267
³	27261
sd	27261
)+	27256
Ġneutral	27256
Location	27254
nic	27253
============	27249
130	27244
Ġ>=	27241
cor	27226
Ġpurchased	27218
American	27215
Ġcars	27213
ĠObject	27213
ç	27209
Ġreactions	27198
Ġknowing	27195
Ġfeels	27193
Ġconsumer	27185
Ġsmart	27178
Local	27175
Ġsimulation	27170
ori	27169
Ġplain	27167
Ġcorporate	27165
Ġradius	27160
$_	27159
ĠSA	27159
Output	27153
ĠEducation	27152
ye	27148
Ġsizes	27144
act	27142
FS	27141
bound	27138
Ġcrystal	27136
Ġwinning	27130
Te	27126
word	27125
pan	27124
ĠVan	27121
Thank	27117
ĠSocial	27112
}+\	27108
Ġdream	27105
ubuntu	27101
Ġreligion	27094
lat	27092
ung	27090
ĠWilliams	27075
Ġincreasingly	27070
Ġreliable	27069
Hey	27058
180	27051
ĠEd	27050
ett	27039
mathsf	27037
Ġokay	27028
Ġkinds	27003
Ġsharing	26991
Ġcontroller	26983
Ã¼	26978
SU	26976
Many	26975
Ġcomplicated	26975
Ġindustrial	26970
Ġowned	26966
ĠLand	26966
Ġtransferred	26965
ĠUI	26953
Ġvictims	26918
Ġrapidly	26914
Ġdecade	26910
Ġforming	26895
dh	26894
Ġtransform	26890
Ġcopyright	26887
Frame	26883
Ġsubstance	26883
Ġoriginally	26881
ened	26876
Ġpromise	26862
)*(-	26860
Ġdual	26857
021	26854
Ġok	26852
sys	26850
approx	26850
nit	26849
Ġanswers	26842
Ġslowly	26836
Ġextensive	26817
Ġ63	26814
ĠAttorney	26790
Th	26784
Ġanyway	26756
Ġacquired	26754
{(	26751
Ġtheorem	26744
Ġgrid	26738
Ġlie	26724
Ph	26722
yt	26720
Ġvertical	26715
}^{(	26714
}]	26710
tmp	26708
Ġinduction	26678
ĠLake	26675
Ġuniform	26645
Lo	26643
]"	26629
Ġdisc	26624
Ġrestaurant	26623
Ġrisks	26621
ball	26619
ĠMexico	26613
Ġaddressed	26611
ĠIraq	26607
ĠCh	26601
Ġpresentation	26591
Ġregulatory	26586
Ġion	26582
Ġbattery	26579
Ġwinter	26576
121	26573
}^\	26568
His	26558
Hu	26555
Ġnm	26527
Ġflu	26517
Ġfairly	26514
example	26508
Ġreviewed	26508
Ġera	26505
·	26503
ĠReg	26502
Ġ54	26498
ĠMaybe	26496
oo	26494
Ġfails	26488
Ġill	26486
vis	26484
ĠCl	26484
Ġinflammatory	26483
Ġstatistics	26480
month	26475
lar	26473
Like	26472
Ġpayments	26470
Ġaudience	26468
Ġprobe	26465
Ġdependence	26463
Window	26459
FC	26452
Ġparticipate	26448
isa	26447
Ġresolve	26447
Ġhydrogen	26446
Ġcompensation	26446
2003	26433
Ġtip	26416
250	26412
Ġsuffering	26401
Ġmomentum	26399
~,	26397
nav	26397
192	26394
zy	26388
ong	26381
Ġcircle	26376
CK	26373
^,	26368
Ġclusters	26367
Ġexcess	26366
ĠModel	26365
)}{	26364
Li	26362
xy	26357
TG	26355
Ġconvert	26347
Ġ\>	26343
ement	26336
Ġ1995	26333
ĠWilliam	26326
Ġwindows	26325
ĠDan	26316
address	26315
comp	26313
EP	26313
Ġgoods	26309
Ġhotel	26305
KE	26298
Ġrecover	26295
Ġflux	26294
Ġbrowser	26286
ĠDM	26272
MB	26271
Ġclock	26268
uc	26261
Ġtemperatures	26261
Ġdocumentation	26258
Ġkeys	26241
Ġtwenty	26232
Ġregardless	26232
ãģ®	26230
-------------	26228
note	26218
ĠGame	26209
Ġmigration	26208
tree	26205
=(	26205
Ġ53	26204
Ġstem	26203
RNA	26189
ery	26182
Ġsegment	26176
ĠWall	26174
Ġcomfortable	26173
ĠComp	26172
ob	26171
ware	26165
Total	26157
231	26157
Ġuniverse	26157
Fa	26156
Project	26140
Ġengaged	26140
ĠSu	26139
Ġvehicles	26134
gr	26133
Ġregional	26130
Ġsimulations	26125
Address	26123
ĠTra	26119
DIR	26115
"}),	26115
Ġbanks	26115
Ġthick	26105
Ġsurfaces	26105
Ġadverse	26105
ĠCar	26104
Ġwire	26100
ĠAI	26098
Ġpublication	26084
uct	26076
ĠVirginia	26072
Ġyounger	26062
Ġpursuant	26062
Ġchoices	26059
Ġshell	26049
cup	26048
Ġ1980	26047
ians	26043
ĠmiR	26041
opt	26040
Ġwonderful	26039
ĠKo	26038
Ġkilling	26036
Ġaside	26034
ĠTri	26031
pol	26029
Ġexpand	26028
ĠAppellant	26024
Pe	26009
Comp	26008
Ġil	26008
Ġlaboratory	26006
handle	26002
Ġreform	25996
Ġsymbol	25984
Ġcoupled	25977
Range	25976
Ġdeliver	25970
Ġ102	25968
Ġrock	25964
ĠSte	25963
ĠMon	25963
Section	25959
)}}	25959
Ġprogression	25953
Ġoperate	25953
Ġsuffered	25942
Ġuint	25933
Ġturning	25929
Ġka	25912
ĠScott	25906
Ġstores	25903
Ġlisten	25892
ĠFi	25889
Ġodd	25886
Ġheads	25883
IM	25875
Ġscenario	25874
Ġsubsequently	25868
byte	25857
Ġsky	25848
Ġedges	25845
Ġmutation	25844
Ġ104	25840
Ġrows	25835
Ġelectrode	25830
Good	25829
Ġescape	25822
Ġrefused	25821
Ġbuildings	25810
ĠWhere	25807
Ġhell	25797
ĠOhio	25796
106	25794
step	25792
Ġproducing	25792
Ġwarning	25791
During	25790
Ġcapture	25784
ĠGNU	25784
Ġfamous	25782
his	25781
Bl	25779
Ġ01	25779
Ġcolumns	25778
Ġcalculation	25777
Ġinhibitor	25775
ĠTR	25774
Ho	25770
Ġsmoking	25770
Ġfoods	25768
ont	25761
ĠAli	25758
107	25757
Ġsh	25757
Ġgrounds	25751
Ġwalls	25750
Ġstimulation	25750
Ġattempted	25748
ria	25747
ward	25746
ake	25742
}|	25740
Ġcalculate	25726
Ġstood	25723
Ġstrike	25722
Pro	25721
ĠAppeals	25721
Â´	25715
mit	25715
Ġfl	25706
dim	25703
Most	25698
Ġvillage	25694
108	25693
ĠBra	25688
Ġentity	25687
Ġapoptosis	25685
ĠBO	25685
Ġflight	25671
Ġdischarge	25666
ĠMrs	25664
vin	25663
Ġcorresponds	25659
DM	25656
019	25654
Ġproposal	25652
Ġboys	25645
ĠJewish	25644
Ġfarm	25639
<?	25634
zz	25630
109	25629
Ġshock	25625
Ġfacing	25624
Ġbelief	25622
Ġstands	25620
ĠChief	25615
2002	25611
NET	25605
Âģ	25592
Ġcontributed	25590
wide	25588
ĠCu	25585
ĠMake	25584
Ġlay	25578
Ġplenty	25574
ĠCanadian	25573
BB	25572
Ġbeer	25572
dc	25566
Ġemployer	25566
,$	25556
ĠBush	25549
Ġrepresenting	25543
Ġbasically	25542
Ġroll	25532
Ġinvolvement	25529
hal	25522
ĠCarolina	25518
Change	25510
Ġschedule	25505
Ġminister	25504
Ġinflammation	25504
Ġsuperior	25501
ime	25498
Op	25498
Ġversions	25497
Ġextreme	25497
will	25496
Ġreceptors	25495
OD	25471
%;	25471
Ġed	25463
Ġproceedings	25461
Ġma	25460
Expand	25452
layer	25436
ĠRepublicans	25427
--------------	25411
Ġchamber	25408
ĠMary	25401
Function	25392
Ġarbitrary	25380
Ġcolors	25378
Ġyellow	25361
ĠLo	25360
ĠOh	25358
then	25357
Ġteacher	25353
ran	25349
Ġqui	25349
ĠVersion	25341
now	25340
Ġwalked	25336
ĠValue	25331
Ġequally	25321
ĠSI	25314
Ġfellow	25313
dec	25312
Ġsp	25311
Ġmodes	25306
Reference	25305
Ġgauge	25297
\;	25295
ĠVer	25294
Ġexecution	25292
ĠReview	25292
Ġconsumers	25288
Ġcoefficient	25283
Ġqu	25280
Ġopposed	25280
there	25278
Ġthickness	25275
Ġisland	25272
als	25268
ĠTH	25261
Ġ<-	25257
Ġassault	25255
ÑĤ	25252
EX	25249
Ġperforming	25246
ĠKey	25238
Ġbacterial	25234
Ġjourney	25230
Ġverdict	25226
total	25224
Ġtab	25221
Ġmoves	25214
air	25212
Ġbi	25209
law	25208
Top	25188
800	25184
Red	25176
ĠMiddle	25174
Target	25162
Ġdiversity	25162
Ġagencies	25158
Ġapplies	25152
ĠMor	25152
bc	25149
full	25147
Ġfly	25139
ĠGC	25135
Ġdinner	25133
replace	25131
Ġadjacent	25131
ĠWE	25127
Ġpregnancy	25124
expect	25121
Ġop	25118
Ġrepeat	25115
params	25108
MT	25103
MO	25102
Gu	25102
>&	25098
Ġdecline	25098
device	25096
Ġinduce	25096
Header	25088
'$	25088
Ġbra	25087
Ġcontrary	25086
Ġstronger	25083
Gi	25080
Ġperiods	25079
ening	25078
Finally	25077
}}}}	25075
ENT	25075
Ġobserve	25075
Ġ1994	25072
Ġplanet	25071
Ġsatisfied	25067
Ġprepare	25062
Ġsharp	25061
osa	25058
Ġmissed	25053
ĠHR	25053
rat	25038
Ġshut	25031
Ġmapping	25029
0002	25006
ĠAmong	25001
Ġstatistically	24996
Ġmutant	24996
;</	24991
022	24982
ĠCF	24979
Ġwherein	24976
Ġmagnitude	24973
Ġpermanent	24971
Ġcreates	24969
ĠVol	24967
Ġban	24961
Case	24960
iss	24956
cer	24949
Ġcards	24945
ric	24944
)}$	24940
Ġbegins	24940
ĠWi	24935
Ġintake	24934
Val	24926
Ġongoing	24923
files	24919
Ġshares	24918
Attribute	24914
white	24909
ĠThree	24909
such	24901
Ġthereof	24897
ux	24895
Ġspirit	24892
ibility	24888
"))	24888
Ġdecreasing	24888
ĠNA	24887
Ġdimensions	24885
External	24880
Ġcoefficients	24880
Ġnarrow	24874
ĠAss	24873
Instance	24871
Ġtheme	24864
Ġbringing	24864
Qu	24862
ĠDO	24855
cpp	24854
Ġprofiles	24854
Ġcutting	24853
Ġstack	24847
Pl	24841
Form	24841
Ġ$|	24839
HR	24834
Ġacademic	24834
uv	24833
Ġnewly	24832
\|	24827
Ġdivide	24825
Ġconnections	24823
Ġmarkers	24819
site	24818
ĠAmendment	24807
Ġevil	24801
via	24800
Ãħ	24794
Ĵ	24794
Ġrank	24790
cin	24789
.âĢĻ	24789
Char	24783
Ġexcluded	24777
Ġefficacy	24775
ama	24772
Ġsymmetry	24772
Ġcomprehensive	24771
ctx	24769
Ġteachers	24768
Ġdust	24765
Ġanxiety	24765
Link	24758
(\[	24757
Ġvictory	24756
ĠRichard	24755
Edit	24754
rel	24750
Ġim	24745
mathscr	24740
Ġap	24726
Ġconsequence	24725
positive	24722
Ġsick	24722
Ġaudio	24722
Ġlosing	24720
Ġchose	24712
ĠMike	24709
Ġintermediate	24698
pin	24696
Ġshouldn	24696
gar	24695
ena	24685
Ġselling	24683
119	24679
Ġrequiring	24679
Ġcol	24679
fully	24675
Ġmanufacturing	24675
TD	24673
ĠSer	24667
Ġcomplications	24666
ĠNC	24659
Ġsaved	24656
UR	24653
Search	24651
master	24647
John	24639
EF	24635
Ġsubset	24632
Ġextracted	24622
Ġtargeted	24620
Ġadequate	24614
location	24609
Ġlesions	24603
Ġ250	24599
Core	24597
Ġdiagnostic	24597
1999	24581
izer	24574
Ġinjured	24571
Ġdealing	24568
"}](	24566
eth	24559
Ġpan	24559
ique	24549
Ġ62	24549
Ġusage	24548
con	24542
BS	24539
ĠYet	24539
mc	24536
Ġsuspect	24533
ĠNE	24533
ple	24528
column	24527
Connection	24525
nar	24513
sy	24502
Ġtrained	24501
Column	24493
Ġalign	24488
what	24485
ĠMD	24473
HO	24470
Ġinfrastructure	24468
ĠAnn	24466
par	24463
ination	24432
AND	24431
AI	24431
Ġstrange	24429
Ġmetabolic	24429
lc	24419
Ġtour	24416
Ġpredict	24413
ĠNetwork	24413
ĠHA	24412
Ġvaluable	24406
including	24395
Ġfi	24394
½	24379
bu	24376
lp	24375
LC	24373
Ġafternoon	24373
ĊĊĊĠĠĠĠĠĠĠ	24372
Ġbrings	24367
Con	24362
Impl	24361
III	24355
Dir	24346
Ġtight	24345
Ġ105	24340
Ġwearing	24339
Ġconservative	24337
Â²	24334
ĊĊĠĠĠ	24330
should	24328
Ġmoments	24328
parse	24322
Vert	24319
cript	24318
Ġprefer	24314
Ġni	24307
Ġfaces	24289
empty	24285
{"	24282
ĠBur	24281
Tex	24277
Si	24276
Application	24276
,$$	24273
ĠArmy	24273
np	24265
Ġcalculations	24256
Ġdifferentiation	24254
127	24253
Ġtape	24253
limits	24250
ĠGiven	24241
Ġtechnologies	24240
214	24227
Ġdiagram	24223
Ġactivated	24215
Ġtruck	24211
Ġreviews	24210
ech	24208
ĠGe	24202
Ġinstances	24199
Ġapartment	24186
Ġattribute	24185
Ġrecall	24184
Ġrely	24181
Ġbridge	24181
LS	24174
rv	24171
Cu	24165
ĠFire	24165
Ġbits	24163
ĠWater	24155
unit	24149
Ġreserved	24145
ao	24138
fu	24132
Ġecho	24127
Ġyouth	24123
ĠOrder	24119
Ag	24116
Str	24109
Ġbear	24107
esc	24106
ĠBoston	24106
ita	24105
Ġchicken	24104
Ġheader	24093
ãĥ	24088
ĠChristmas	24086
Ġ<=	24075
Ġelected	24057
water	24049
Ġcardiac	24040
WA	24036
ĠAC	24034
Ġrenal	24031
Ġimp	24025
ĠPort	24023
Ġallegations	24022
Ġcloud	24021
iation	24020
Ġcomputed	24019
flow	24013
Ġintroduction	24005
blue	24004
ered	24003
Ġho	24002
Ġclassified	23998
Port	23996
+^	23996
band	23993
Ġseriously	23984
Ġsurprise	23980
Ġdedicated	23978
Url	23974
ĠCare	23966
OH	23962
kt	23961
ĠYa	23959
Ġsatisfy	23956
ĠGar	23956
ĊĠĠĠĠĊĠĠĠ	23955
ĠCall	23953
Ġrational	23952
Ġordinary	23949
Ġdistributions	23946
Ġrevenue	23944
sw	23939
bp	23939
Ġgalaxies	23931
ĠCorporation	23929
Ġaged	23925
Ġcook	23922
ĠFind	23922
Ġoverride	23916
Ġpi	23914
Ġhistorical	23910
Ġcha	23907
Ġvary	23900
ame	23895
Ġ103	23893
math	23886
Current	23884
Ġ106	23877
Ġcons	23875
Ġsemiconductor	23872
Ġsteel	23869
Ġsnow	23864
~*	23857
sing	23857
TP	23848
weight	23846
ĠRE	23835
Ġgift	23832
ĠKar	23831
Ġpresents	23829
Ġ$\{	23824
>.	23818
Ġcorrection	23818
Ġtheoretical	23817
ĠDes	23812
ĠDR	23805
.^[@	23802
Ġkit	23802
process	23798
Ġboolean	23796
Ġperfectly	23793
ĠFo	23793
Ġreader	23792
.]	23780
just	23779
rin	23778
fr	23777
Ġpartners	23776
Ġeditor	23776
rk	23775
export	23765
Ġinvolve	23765
Ġbreath	23765
rar	23762
Ã©r	23761
ering	23758
Ġlattice	23757
ĠVal	23756
Ġdiagnosed	23750
RP	23743
Ġstaining	23743
ĠVa	23741
Ġ1993	23739
quot	23737
Ġchecked	23737
Ġpot	23736
ĠSimilarly	23732
Ġillness	23730
product	23729
Ġanywhere	23726
tl	23725
Ġguard	23720
Ġ1992	23720
ĠReal	23718
ĠClub	23697
ĠBlue	23693
Ġlaunched	23686
MR	23682
Ġincubated	23677
Task	23668
ĠParis	23667
Ġche	23662
ĠTE	23658
Ġdiffer	23657
Ġchest	23657
send	23648
Ġmetabolism	23643
nb	23642
=>	23636
Ġprediction	23636
Ġcarefully	23628
Ġeducational	23607
ĠAnalysis	23606
det	23600
WE	23592
®	23588
Ka	23582
Ġyesterday	23582
Ġurban	23575
Ġdiv	23572
Ġstrict	23570
Sch	23567
click	23558
ros	23554
ĠCM	23552
ĠSec	23543
els	23539
ĠGi	23538
Main	23535
255	23527
imi	23526
Ġmatches	23524
dist	23512
Ġinsulin	23510
Select	23507
Introduction	23505
Ġbreaking	23499
GS	23498
Level	23497
Ġfraud	23490
ĠAngeles	23488
lam	23486
Ġlens	23483
Ġgi	23481
Ġthousand	23480
Ġstatutory	23480
Ġride	23473
Ġcl	23465
ĠShow	23455
kr	23445
United	23445
global	23444
Does	23440
ĠMedia	23431
="#	23423
Ġhardware	23423
Over	23418
ĠYOU	23417
Ġwelcome	23416
Come	23412
}'	23407
Fi	23393
Ġdrinking	23388
Ġwriter	23387
Ġrounded	23387
ĠVo	23386
cur	23383
---------------	23380
ĠEvery	23380
Ġstick	23376
uni	23351
Ġdomains	23346
lor	23345
Ġsufficiently	23345
loc	23344
ĠGrand	23342
ace	23335
Once	23335
Ġcomplexity	23332
Ġroutine	23330
Ġpartially	23326
Ġcarrier	23325
una	23323
Ġpseudo	23317
Ġneighborhood	23317
Ġcontends	23313
Ġpl	23312
ĠPE	23308
Ġdataset	23304
hash	23294
ĠDespite	23290
Ġwest	23278
Ġdisclosed	23277
ĠKi	23273
Ġcomparable	23271
ĠDetermine	23271
Ġsomewhere	23270
ĠDis	23265
115	23263
they	23262
Ġmonitor	23260
ĠTop	23258
Ġreferences	23256
Ġkernel	23247
materials	23240
ĠMen	23236
Ġloaded	23233
Ġlock	23232
Ġuniversal	23230
Ġimposed	23227
docs	23225
remove	23213
erg	23209
Ġcontrolling	23206
Ġpin	23205
late	23201
Ġyields	23201
Order	23199
Ma	23199
Ġcrowd	23199
orm	23196
ren	23194
Ġdenominator	23192
Tra	23188
ese	23185
Ġnumerical	23182
Ġbelieves	23173
Ġstroke	23167
700	23163
Ġtranslation	23160
}-\	23157
Ġĉ	23142
ĠMass	23138
who	23136
ĠJava	23136
illa	23135
!!	23133
ink	23131
Ġjump	23130
mediated	23122
Ġdiscrimination	23120
cache	23119
ĠSpecial	23115
Ġthrows	23114
Dec	23111
FD	23104
Ġreveal	23098
Ġsampling	23093
Write	23089
ost	23076
Ġbehalf	23075
Ġsight	23073
Ġ58	23070
ket	23058
Ġtables	23058
Ġcommit	23056
ĠConstitution	23056
Ġperipheral	23054
Ġadmission	23050
Ġmarketing	23044
ĠBritain	23044
}"	23039
Ġbytes	23037
ĠIF	23034
Col	23033
}},	23029
Her	23028
Provider	23016
Ġserves	23014
Ġ180	23013
Ġmini	23009
[[	23001
ĠFar	23000
cr	22993
HS	22993
Ġgeneric	22992
Ġeast	22985
113	22983
ily	22982
Left	22980
sit	22972
mem	22972
Ġwa	22969
Ġcache	22969
ĠFed	22968
117	22960
Ġinclusion	22956
116	22955
normal	22947
Ġhandling	22939
Ġkid	22934
Ġchallenging	22928
dan	22927
textbf	22918
store	22917
ĠCor	22913
container	22912
ĠHE	22912
ĠSpace	22910
232	22906
ĠCharles	22906
Ġgrew	22899
ill	22896
)),	22896
ĠTrue	22892
Ġconstraints	22891
ule	22888
?'	22880
Ġexplicitly	22864
Ġcited	22862
ĠCat	22845
Ġsimultaneously	22843
Ġalive	22839
lb	22837
cent	22828
Ġrep	22827
years	22824
}_\	22821
AG	22819
Ġra	22817
Ġenhance	22812
Ġalgebra	22811
lit	22806
Ġmales	22806
)|	22804
}[	22800
types	22796
Ġtiming	22790
ĠAccordingly	22789
Ġproven	22787
Ġclassic	22786
GR	22785
ĠNext	22778
ĠForce	22777
Ġneural	22769
sel	22766
Ġ-\	22764
debug	22762
ĠSN	22757
Ġsand	22755
LT	22754
Ġhealthcare	22748
Ġvariations	22747
move	22746
Ġgreatly	22738
Ġ"\	22734
email	22733
ĠTrans	22728
Ġ111	22722
iter	22718
inv	22718
Ġquiet	22717
ĠFox	22716
prod	22713
ĠRight	22711
ĠBased	22711
under	22698
ĠJoe	22697
ign	22696
ĠHTML	22691
ĠMC	22685
Ġresponded	22683
ĠPP	22682
care	22676
wl	22662
Ġamplitude	22661
Ġver	22659
have	22656
Ġimproving	22654
ĠAsia	22650
Ġcovering	22644
ĠGl	22643
ĠTeam	22638
switch	22636
ĠAustralian	22636
Ġpulse	22634
ĠNon	22625
Ġvast	22624
Ġfewer	22623
Under	22621
Ġingredients	22620
gy	22615
Step	22612
MD	22608
377	22604
Using	22599
nan	22598
ĠOld	22594
used	22593
SELECT	22593
${	22589
ĠWomen	22584
ĠTechnology	22577
temp	22574
ela	22563
san	22561
ĠThanks	22559
ĠRI	22557
ĠJr	22557
Ġpenalty	22551
ĠWT	22550
Height	22549
Ġapproximation	22545
cut	22542
ĠSw	22540
114	22537
Ġchair	22530
Ġbutter	22529
ved	22528
ĠMatt	22526
ĠBusiness	22524
ĠDoes	22523
Ġelevated	22517
Ġadministrative	22516
Ġ57	22515
had	22514
Ġcohort	22514
OC	22513
Ġgarden	22507
Ġhasn	22497
ĠUV	22484
ĠYoung	22483
Ġloading	22480
Ġsending	22475
nz	22473
Ġmovies	22473
ĠURL	22473
Ġnamely	22469
Ġrooms	22459
Ġnearby	22455
task	22449
}\\	22443
ident	22442
hin	22438
GT	22438
ĠUser	22438
oi	22432
Ġmill	22432
Ġgl	22426
Ġcopies	22426
Ġmatching	22424
Ġfailing	22419
Ġcomparing	22418
Ġtrigger	22412
Ġquantity	22410
Ġpapers	22410
Ġdrivers	22410
Ġdifficulty	22408
BP	22406
window	22405
Thread	22403
Ġcodes	22401
Lu	22397
iness	22393
ĠValley	22388
ust	22384
met	22378
Ġdec	22378
about	22376
ĠSS	22373
Ġtoken	22369
PH	22365
Supp	22364
Ġomitted	22362
Ġ61	22362
game	22361
command	22358
Ġrejected	22357
Ġcommitment	22355
ĠIsraeli	22351
Ġprecisely	22345
UP	22344
Ġfrequent	22338
310	22333
nat	22331
ĠDar	22329
fire	22324
Ptr	22322
Non	22322
tw	22319
Ġfifth	22317
ĠLocal	22314
Ġinequality	22312
axis	22304
ĠHO	22304
Ġvariance	22296
________________	22287
Ms	22286
Ġovercome	22276
copy	22273
Ġinvestors	22271
Ġlunch	22270
Ġcollect	22268
Ġ128	22265
ĠOK	22262
Document	22259
Title	22255
122	22250
Ġprovider	22247
Ġdivisor	22247
Ġnotion	22240
xs	22239
Ġscientists	22239
Ġabsorption	22238
Ġmachines	22236
Ġexhibit	22231
Ġund	22230
oxy	22227
Ge	22226
Ġbuying	22222
Ġatoms	22222
ĠFund	22219
ĠMO	22217
'),	22213
ĠÃ	22210
Ġbulk	22207
Ġfemales	22205
methyl	22202
ĠLove	22199
Ġcompetitive	22187
Ġbusy	22186
Ġnaturally	22185
Se	22184
hen	22182
May	22178
cmd	22177
}}^{	22171
Ġprofit	22170
Ġdiverse	22170
Ġdoctors	22166
Ġwet	22162
ĠIllinois	22162
«	22153
Ġph	22153
yes	22152
Sc	22152
Ġes	22137
VA	22133
usr	22123
ito	22123
ĠPlan	22122
Ġclosing	22118
med	22116
ĠCha	22114
Ġcareful	22113
ĠJack	22111
Ġscan	22110
ĠJackson	22107
Ġsignature	22105
ĠGold	22104
NN	22099
ĠKu	22087
Offset	22086
ĠCivil	22086
ĠDavis	22081
week	22077
Ġparticipation	22077
Ġmarker	22077
Ġinf	22075
Position	22074
170	22074
Ġcuts	22074
%).	22073
ĠCho	22073
Ġelections	22068
application	22066
aries	22065
Ġmeasuring	22065
Ġscored	22064
Ġsubmit	22061
ĠRoyal	22057
Ġcheese	22056
Ġbowl	22056
ĠES	22056
Ġos	22053
Ġcream	22049
|-	22047
Ġengage	22043
ĠChapter	22041
ĠToday	22035
ĠCur	22035
iti	22034
known	22032
ī	22031
Ġ108	22031
Ġsur	22029
!âĢĿ	22026
ĠKim	22026
Ġsurprised	22021
Ġflash	22019
Entry	22016
ĠMichigan	22013
Ġreduces	22004
En	21999
ken	21996
Ġriver	21991
Ġrestricted	21989
Br	21980
}^{-	21976
ship	21971
clear	21971
191	21965
Ġnum	21960
Ġadjusted	21959
Ġyards	21955
rit	21953
Ro	21950
tom	21948
Ġcable	21945
Ġprivacy	21939
LY	21936
UC	21930
ĠAmazon	21930
Ġexit	21927
ĠCatholic	21925
Ġsha	21924
Ġfeelings	21920
dn	21919
ĠItaly	21917
Ġscheduled	21912
throw	21911
Unit	21911
FI	21911
Ġindependently	21905
Def	21904
Ġcomposed	21904
Ġleaf	21903
Ġtelephone	21898
////////////////	21897
Ġsuffer	21897
Ġcoordinates	21894
Ġ\;	21892
Ġpop	21888
ĠHu	21883
OT	21874
Ġdominant	21859
Ġadds	21857
ĠOs	21850
Ġarmy	21847
ĠSm	21847
Ġanymore	21836
Ġpresidential	21835
ĠText	21833
Ġmistake	21832
Template	21828
Ġkinase	21821
Ġsuppose	21818
|^	21817
ĠCEO	21817
Ġcontinuing	21812
ĠImage	21812
Ġdecay	21809
ĠSH	21809
)_	21802
ĠSyria	21786
Ġsilver	21784
cho	21781
equal	21780
FR	21780
Ġrear	21776
ĠPut	21756
here	21754
ĠFrank	21752
Ġteeth	21750
ĠGal	21750
Ġsettlement	21749
ĠReport	21747
190	21746
Ġlipid	21746
wo	21739
Ġear	21738
Ind	21737
ĠError	21733
Ġmodification	21730
Ġtail	21728
Parameter	21723
world	21722
loop	21722
ĠTe	21719
030	21713
Ġwarrant	21712
{-	21709
Ġcrimes	21707
Ġtalked	21706
ius	21704
ĠPrime	21704
Ġboat	21703
ĠEnergy	21700
ota	21697
Ġprogramming	21692
aka	21687
Ġelectro	21686
Ġcommunications	21682
Ġcommission	21681
Ġaircraft	21678
thm	21676
Ġherein	21667
ĠCE	21666
Ġimmuno	21664
Cache	21663
Ġbroke	21663
ĠEr	21663
¹	21661
ĠIM	21660
ĠChris	21658
Ġcoll	21653
ami	21650
Ġprecise	21646
ĠResults	21645
Ġgenerating	21637
Module	21632
Collect	21632
addr	21628
pers	21621
Ġafford	21618
ĠBest	21618
Ġopinions	21617
124	21614
ris	21612
Ġpassword	21601
ĠVi	21599
fer	21590
133	21588
Ġje	21579
Ġwealth	21576
Ġind	21571
desc	21567
inal	21564
Ġlegs	21563
Long	21562
Okay	21561
Ġlists	21556
ym	21552
ĠRock	21543
Ġshoulder	21541
º	21539
bat	21538
Did	21536
Ġya	21536
ici	21534
Ġwaves	21534
Ġlocally	21534
Ġ**(	21534
Ġafraid	21532
Ġexecuted	21530
Ġvectors	21528
Ġdanger	21524
Ġradical	21520
ography	21518
Ġrepr	21518
tx	21517
ĠNY	21513
Ġinstrument	21511
gue	21506
Ġ125	21505
cher	21502
Ġce	21500
bd	21498
Ġdelete	21498
Ġreceiver	21493
Ġpour	21492
Tag	21491
Ġmom	21485
Ġcrazy	21485
Ġhash	21483
Ġextraction	21473
ada	21472
CM	21472
ĠYear	21469
Ã¢	21468
Ġsuddenly	21466
Ġpetitioner	21465
.;	21464
LP	21463
padding	21462
Ġtrace	21462
Free	21456
Ġrefers	21455
Device	21446
PM	21442
Cr	21442
Ġhonor	21440
ĠHam	21437
Ġhouses	21436
Ġaimed	21427
power	21425
nis	21420
alo	21415
ĠItalian	21412
sql	21398
Ġinhibitors	21395
Ġmild	21393
Ġ112	21390
Ġtaught	21384
ĠDE	21378
Ġwhenever	21374
API	21373
ERROR	21372
making	21368
\}$	21368
High	21362
session	21361
Ġmon	21357
Ġ130	21357
Ã¶	21356
support	21356
Ġmask	21348
Ġstreets	21347
Ġattend	21344
ĠOP	21342
ĠBY	21338
ĠGeorgia	21337
Ġcultures	21333
Ġorientation	21320
ĠPet	21317
Ġenabled	21314
ĠAb	21297
Ð»	21292
Win	21291
Spec	21291
Ġexpenses	21291
nl	21289
Ġencourage	21288
ĠPen	21287
Ġtemporary	21279
Ġpriority	21276
Ġplea	21272
git	21271
Ġpassage	21271
dict	21270
Entity	21263
Put	21262
Ġweapon	21261
\>	21249
kk	21245
ĠProposition	21237
mann	21236
Ġmail	21235
Ġexplicit	21232
ĠVI	21230
ĠManagement	21225
Ġatmosphere	21221
Ġwestern	21219
virtual	21215
pic	21211
Ġwatched	21211
ĠCross	21211
unc	21208
SF	21208
UL	21204
126	21202
TM	21199
ĠAnti	21198
ĠBefore	21197
Ġupdates	21196
delete	21195
Ġplurality	21194
urg	21193
ĠTen	21191
Ġproduces	21189
Ġnerve	21179
,{\	21174
Ġ1991	21174
)$$	21172
ĠRights	21171
Tree	21169
;\	21168
war	21163
Ġappreciate	21161
ĠED	21157
nf	21150
most	21149
eed	21149
Ġfrequencies	21148
ĠHD	21143
ĠDB	21143
Ġ::	21142
Ġvalve	21141
Ġsoul	21137
ĠLE	21137
token	21136
Ġtrading	21132
ĠWork	21126
ĠBre	21115
Listener	21106
Ġpsychological	21099
Ġawareness	21099
ĠPolicy	21094
Ġtiny	21091
():	21088
132	21087
Ġreasonably	21086
Ġrain	21083
Ġsubs	21077
0005	21074
ond	21072
Ġanalyze	21072
ĠCell	21063
ĠĠĠĊĠ	21061
Ġassist	21057
FL	21041
lines	21040
green	21036
Ġ}\	21035
023	21032
Gl	21028
Ġpipe	21026
help	21021
Ġrender	21021
Ġlosses	21021
Ġlawyer	21020
Ġplates	21019
Ġpersonnel	21016
\[[@	21015
ĠSR	21013
wrap	21012
','	21011
Ġprocessed	21011
otic	21005
Ġimprovements	21003
ĠBell	21001
IB	20999
Ġsole	20990
ĠTake	20987
Ġsomehow	20985
ĠPhoto	20983
ail	20981
Po	20978
ĠFE	20973
mine	20967
ila	20964
Ġwitnesses	20960
ML	20957
Ġstruggle	20954
gov	20953
Ġweren	20953
lation	20952
ĠTim	20951
mol	20939
ille	20938
Sort	20933
Ġtalks	20933
ĠGO	20933
Ġdeclare	20931
conv	20929
Ġproviders	20923
Ġtank	20918
Ġexplains	20918
Ġvascular	20917
ĠBack	20916
Ġholes	20905
Ġfluorescence	20904
Ġvideos	20902
scope	20896
play	20895
zero	20890
tp	20887
Ġtemporal	20874
),\	20871
Ġorganized	20867
Ġmarks	20866
ĠGlobal	20859
Ġcolour	20855
ars	20849
Theta	20840
Ġgoverning	20840
Â¿	20828
ops	20828
ski	20814
hed	20811
PO	20809
ines	20806
Store	20804
\^	20802
Ġstone	20802
Ġreturning	20801
Ġmanufacturer	20797
Ġ>>	20793
Ġcolon	20789
Ġrespiratory	20783
Ġroughly	20778
Ġ};	20776
FT	20775
Ġunlikely	20769
born	20762
Â®	20760
Ġinterior	20758
ĠLC	20757
-*	20748
Ġcreative	20748
Ġ&\	20747
Ġgel	20744
change	20743
Part	20742
Î³	20737
tm	20733
Ġinteract	20730
ĠAN	20721
>\	20719
Ġnervous	20713
Script	20710
Ġcooking	20709
place	20708
Ġbin	20703
Ġdirections	20702
HC	20700
Ġ($\	20693
Ġpermitted	20691
Ġuncertainty	20688
ĠFR	20682
Ġ(%)	20682
Ġrecipe	20681
Ġarchitecture	20679
ĠThank	20675
1998	20673
ĠMiller	20672
Ġelsewhere	20671
acy	20670
Assert	20668
raw	20664
ele	20661
ĠWilson	20643
Ġmeal	20641
bri	20639
Ġcovers	20638
Ġignore	20637
vol	20635
eur	20632
Ġfoundation	20631
ĠCentre	20620
Os	20617
Ġunre	20614
ĠSa	20612
Ġparking	20609
ĠFC	20606
âĢĭ	20604
Ġdeviation	20599
Ġvertex	20597
131	20594
Ġsystematic	20594
Tri	20591
Ġbounded	20587
Ġcleaning	20585
stra	20573
Ġmono	20570
Build	20569
Ġrestriction	20568
ĠAg	20563
mes	20561
/.	20556
Ġpolymer	20552
Ġnu	20546
Ġkeeps	20537
Dis	20536
Ġpatch	20531
Ġconsisting	20530
Ġcycles	20527
Ġsodium	20526
ĠRepublic	20526
Ġinvasion	20524
Ġcompletion	20524
0003	20520
wing	20510
Ġrose	20503
Ġseasons	20502
'_	20501
PCR	20498
Ġfed	20494
Ġchecks	20494
ĠPO	20494
BI	20493
ĠMax	20491
ĠMuslim	20490
Container	20489
Ġci	20488
Ġutility	20482
ĠGM	20475
Back	20474
Ġmarijuana	20474
Show	20472
Ġaffects	20470
Ġcontracts	20466
abs	20464
Ġattributes	20459
ĠAction	20459
Ġalgorithms	20458
spe	20457
Ġgiant	20456
Debug	20454
Ġdisability	20454
Ġconclusions	20451
Ġpeptide	20443
Ġbike	20442
Ġoffensive	20436
129	20431
Ġ1970	20429
Ġchip	20418
Ġconcrete	20416
xf	20414
Ġscattering	20410
Ġtheories	20408
Ġrice	20405
uch	20403
Ġwake	20403
Gen	20401
Da	20399
135	20396
Ġmedication	20393
Ġgay	20389
hood	20388
Ġconsiderable	20386
ĠDS	20380
instance	20378
Ġaccumulation	20369
Ġprotest	20368
ĠPan	20368
ties	20366
Ġreaders	20363
ther	20356
Ġfolder	20354
ĠLett	20353
Only	20347
Ġonset	20343
access	20340
textrm	20338
SIZE	20336
none	20329
DF	20325
language	20321
Ġpowder	20314
TER	20310
Ġrobust	20309
Ġdispute	20306
ĠMain	20303
Ġfra	20297
./	20295
Ġrural	20291
Ġgeometry	20291
Ġavailability	20289
Ġcur	20282
Ġconverted	20282
ĠAA	20281
Ġmodules	20279
Ġviewed	20275
Ġmaintaining	20275
bro	20272
linear	20270
Ġprevention	20270
Ġep	20269
Ġhorse	20262
rov	20261
ĠÃ©	20257
Ġpushed	20256
Ġbread	20254
ĠJersey	20246
anti	20243
matrix	20242
oli	20240
pd	20239
ĠMer	20238
Ġcoli	20232
Ġpilot	20229
Ġpersonally	20229
Ġsong	20225
Ġfault	20222
Ġca	20218
ĠCB	20213
ĠTC	20210
second	20206
ĠRam	20206
ient	20205
Ġ((-	20202
uit	20197
Ġadvantages	20191
ĠPH	20183
118	20182
Ġking	20180
ĠCreate	20173
'\	20169
profile	20168
lf	20167
Ġcompute	20167
ĠFla	20166
ë	20159
Ġphenomenon	20159
ĠFROM	20158
Ġ107	20147
sed	20146
Ġresolved	20146
Ġar	20146
Ċĉĉĉĉĉĉĉ	20146
á»	20145
Par	20144
Ġconvicted	20144
CB	20142
Ġguarantee	20141
black	20139
ĠTM	20139
Ġfired	20131
ĠLast	20126
168	20125
Ġdiscussions	20125
Ġinterference	20123
ĠNI	20123
comment	20118
Ġteach	20118
ĠBA	20118
ĠDI	20117
ĠčĊ	20113
Ġsequencing	20111
Ġpy	20111
Ce	20110
enter	20109
Ġmirror	20107
Ġsm	20097
Ġending	20097
ĠFood	20095
ima	20092
Ġprec	20092
Ġhousehold	20092
queue	20091
images	20078
Ġbarrier	20078
ĠZe	20072
Ġvacuum	20070
uti	20061
save	20060
PER	20052
Ġregularly	20051
Ġkm	20049
Ġownership	20044
ĠSource	20038
JS	20035
ĠPre	20035
Ġmargin	20033
Ġcompeting	20032
Ġ123	20025
Ġpaths	20024
ĠMicro	20020
Ġfiling	20019
ĠKh	20019
Ġsir	20017
Ġeggs	20016
zer	20011
ĠSouthern	20007
Ġfinger	20006
217	19998
Ġoperated	19997
ĠLine	19996
Ġexclusive	19988
cing	19987
Ġcrew	19987
Ġcomprising	19984
lab	19983
Ben	19983
ĠBel	19983
ĠDen	19980
ĠSQL	19977
Ġprofessor	19976
Ġspiritual	19974
une	19971
ĠWood	19968
PRO	19963
ĠEM	19960
Ġthinks	19956
Ġcenters	19955
Ġcouncil	19949
member	19947
ĠApplication	19946
Ġentries	19945
equ	19943
ural	19942
lie	19941
ĠCommunity	19941
Ġdep	19937
ĠAG	19936
rl	19927
Ste	19927
Ġquantitative	19922
Ġliberal	19921
disp	19916
Run	19911
room	19909
Ġ(âĢľ	19906
204	19901
Ġentering	19901
fb	19895
Ġfusion	19894
ĠDescription	19875
ility	19870
248	19867
Ġancient	19866
enum	19865
treated	19863
Ġstrings	19861
Ġgovernments	19858
Ġdegradation	19857
Ġjudicial	19855
Ġfalling	19847
para	19841
Ġproud	19838
ban	19836
Ġsustained	19828
Ġmar	19828
vm	19824
family	19823
Ġtomorrow	19818
Ġease	19818
Ġms	19817
Ġ109	19815
ATION	19810
ĠHS	19805
Ġflavor	19801
ĠCL	19800
}}}\	19798
rop	19798
Ġcaptured	19798
insert	19796
join	19787
Ġreaching	19787
Ġcomfort	19785
Ġsatisfies	19784
Ġdemands	19782
220	19779
Ġknee	19776
Ġinterventions	19776
ĠMB	19774
rp	19773
Ġcolleagues	19772
Ġdia	19770
Ġvice	19752
Ġrecommendations	19748
Bio	19747
Ġfont	19746
Ġremoving	19744
fp	19730
Ġcoding	19730
Ġer	19727
Ki	19716
pack	19714
Ġext	19714
Ġcoast	19714
Ġ115	19713
Ġadmit	19711
Ġ$[	19711
ĠSpanish	19710
Ġbundle	19708
rest	19705
ÑĢ	19704
Ġhorizontal	19703
ĠCe	19701
\.	19700
ffe	19699
fill	19696
SN	19695
Ġdismissed	19695
Ġinc	19694
Ġfalls	19689
Ġbid	19686
ĠTer	19686
adi	19685
ĠShi	19685
Ġportions	19679
Ġincorporated	19679
console	19678
Ġroots	19677
ĠConference	19675
Ġexpanded	19665
imp	19661
Num	19659
Ġqualified	19655
175	19646
Ġworldwide	19646
ĠCont	19645
Session	19641
GB	19640
Ġmasses	19632
fields	19629
Ġbottle	19629
tain	19622
ĠMel	19622
áĢ	19617
DL	19614
Ġkidney	19614
sil	19613
Ġobj	19612
FILE	19611
GI	19607
Ġnorm	19597
Ġstations	19595
Ġspan	19594
144	19592
ĠÂ°	19591
Ġfaced	19591
ĠOfficer	19587
Ġadministered	19586
ĠUC	19585
Ġassays	19582
ĠPL	19581
arm	19579
ĠFrancisco	19576
Ġob	19572
oy	19571
subseteq	19569
stop	19549
Expression	19532
face	19526
Ġreg	19524
mel	19523
Ġdoors	19522
Ġfolks	19521
Has	19518
ĠNFL	19512
Ġresidence	19505
Ġseparately	19501
GG	19495
Ġstuck	19493
Ġdecreases	19493
Ġcheap	19492
component	19488
Ġscales	19488
associated	19485
ĠEm	19480
Ġglad	19473
GH	19471
edit	19467
Make	19466
Ġworker	19464
Ġroof	19464
ĠPakistan	19464
ith	19463
Access	19457
ĠApache	19455
hon	19452
License	19452
ones	19448
ĠServer	19448
ĠHenry	19448
Age	19446
Ġboost	19446
asm	19444
}({\	19436
oon	19434
Ġpackages	19433
Ġintervals	19431
*]{},	19430
UT	19425
Vector	19421
Ġvotes	19418
mean	19416
draw	19415
Ġsmoke	19415
Ġfriendly	19410
Ġcla	19407
Ġprotective	19404
NP	19402
Ġphysics	19402
Ġtoxic	19401
ked	19400
ĠTrust	19400
Ġ1989	19400
ril	19398
Ġtargeting	19395
omb	19394
domain	19391
Ġgradient	19391
Ġbunch	19386
Ġegg	19381
zu	19379
Mor	19372
interface	19366
ĠGI	19366
Ġbeach	19361
155	19354
Ġprofessionals	19354
ically	19353
ĠLie	19353
Ġshit	19350
Interface	19340
Have	19331
Ġmounted	19330
pool	19325
ico	19325
Ġforum	19324
}}}$	19314
Ġpromoter	19308
Su	19305
Ġrising	19294
aging	19286
Record	19275
cit	19274
Ġvariants	19272
Ġaddresses	19263
Ġbands	19259
transform	19255
Ġhonest	19255
Ġag	19251
Ġdad	19249
Ġconf	19245
Ġargs	19242
Ġappointed	19242
Ġheavily	19240
Ġflexible	19240
setminus	19239
ĠNov	19239
Ġvital	19235
Ġhide	19234
Ġfo	19234
defined	19233
Ġscalar	19233
Ġbreach	19231
nh	19229
Ġpump	19229
Ġ"/	19227
activity	19221
ĠAc	19221
conc	19216
even	19212
Ġpasses	19211
mask	19210
ead	19206
ĠDate	19204
gui	19203
Ġreflected	19203
DP	19201
Ġconstitute	19200
kar	19199
Ġlikelihood	19198
Reg	19195
Ġabsent	19193
ĠDor	19193
Ġ1988	19190
hour	19189
Ġju	19188
ĠAsian	19188
Ġdress	19187
Ġdb	19186
Ġappeals	19186
binding	19184
Ġexpectations	19181
ĠMah	19177
Ð¾	19175
Ġblind	19173
ration	19172
ĠĠĠĊ	19171
reference	19170
Ġconsecutive	19168
Ġlip	19167
ison	19157
fin	19157
Ġpace	19157
Ġja	19154
ups	19151
Ġinsufficient	19151
dra	19150
aw	19148
Ġratios	19140
ĠBob	19132
Ġsoldiers	19128
Â»Â	19125
sto	19125
Ġmovements	19123
Ġvalidation	19121
Ġdismiss	19121
Ġexpressions	19120
ĠStudies	19120
Ġdrawing	19117
Ġpm	19116
Ġseeds	19115
Ġvaccine	19112
Ġinfinite	19111
elo	19110
Ġjo	19110
Ġyeah	19105
Ġsolely	19104
Ġnamespace	19104
Ġlimitation	19103
Ġdish	19103
_{(	19102
Ġseverity	19102
ĠBR	19102
Ġconstantly	19101
gate	19095
Ġcarcinoma	19092
Ġsimilarly	19091
ĠLouis	19091
Ġsees	19087
ĠEP	19087
Ġhospitals	19081
Ġadvertising	19079
Ġstupid	19076
Ġjoy	19075
Ġenzymes	19073
sol	19072
dep	19068
Ġrelating	19068
stack	19066
Ġbeauty	19059
gon	19057
^+	19051
ĠInv	19049
ĠSir	19048
ĠRun	19043
Ġ\"	19041
FP	19040
153	19037
ida	19034
MAX	19031
hw	19030
Ġanswered	19030
Ġ140	19026
Ġengineering	19025
short	19024
ĠTaylor	19022
ĠYu	19020
Phys	19019
ĠBeach	19017
rot	19015
Ġtensor	19014
Ġdestination	19006
ĠBL	19006
Ġrestrictions	19005
Ġawarded	19005
Ġsubjected	19003
Ġfeeding	19003
Ġsal	19001
wp	19000
onic	19000
ĠExp	19000
Ġmeetings	18990
Ġforest	18989
Ġalignment	18985
Three	18984
Ġcomprises	18982
:=	18977
GET	18974
ĠTB	18973
Ġblow	18971
ĠDaniel	18969
ãĢģ	18965
och	18961
ĠAcademy	18960
channel	18957
Ġjail	18953
Ġcoordinate	18948
Ġbeneficial	18945
Ġhoping	18938
kn	18934
iva	18931
card	18930
Ġsupplied	18928
ĠMiss	18928
ÎĶ	18927
Ġbind	18926
ĠPage	18923
vel	18922
ĠALL	18914
rid	18905
ijerph	18896
Ġnations	18893
Î	18890
Ġenjoyed	18890
ining	18888
ĠPatent	18886
tools	18884
Ġvarying	18884
Ġmanual	18884
ĠMedicine	18879
145	18876
Ġimplications	18876
ifying	18873
})}	18872
Ġprosecution	18870
screen	18868
Ġprojection	18868
Ġlights	18866
Ġproceed	18860
good	18857
foot	18857
hol	18854
Ġedit	18851
Ġphysician	18848
Ġcombat	18845
Ġ113	18843
hm	18836
Ġimmunity	18836
Ġaccessible	18834
Ġwheel	18824
Ġclothes	18824
ĠNor	18821
Ġchart	18819
Ġalter	18817
toc	18814
Ġass	18800
Ġacquisition	18795
Http	18792
Ġages	18791
Ġproceeding	18789
]{}]{}	18785
ĠAndroid	18783
Ġsmile	18782
ĠWITHOUT	18782
ĠSol	18782
Ġdance	18780
ĠIslamic	18779
Ġmaximal	18778
nie	18777
ĠNF	18775
cells	18768
shape	18765
die	18765
ĠLight	18761
141	18753
Ġsuicide	18750
ĠMT	18745
ĠNorthern	18743
Settings	18741
Ġlaid	18739
ĠJe	18739
ĠFBI	18739
ĠRu	18731
emb	18727
ĠPennsylvania	18727
Ġcalm	18722
Ġ186	18712
âĢħ	18705
Ġbonds	18704
RM	18700
).$$	18700
Ġabundance	18697
enc	18684
Ġheating	18682
Each	18676
Ġcalcium	18673
underline	18665
xt	18664
ĠForm	18659
ĠJoseph	18654
ĠĊĠĠĠĠĠĠĠĠ	18652
Ġtips	18650
ogenic	18649
Ġ189	18649
ters	18648
Ġjet	18645
SR	18644
ĠEA	18644
kes	18643
ĠSL	18643
Ġpixel	18642
Fr	18637
Ġsizeof	18637
hes	18634
Ġartery	18634
ĠTax	18631
ency	18627
Sw	18626
ĠRoman	18626
<<	18622
Ġpack	18619
ures	18613
æ	18609
rus	18605
SET	18605
Ġvitamin	18605
Ġranging	18599
Look	18592
ira	18587
Activity	18580
Ġimmigration	18576
Ġcorporation	18576
Ġdefensive	18574
}}$.	18573
nia	18571
ĊĊĉĉĉ	18568
mut	18567
Ġtr	18567
bre	18566
Ġdestroyed	18565
[**	18563
Ġautomatic	18561
Ġlymph	18560
Ġadopt	18560
Ġko	18551
Ġdesirable	18547
Ġabstract	18545
Ġev	18542
}.$$	18539
bio	18539
ulate	18538
ides	18534
Ġaffirm	18527
Ġinstallation	18524
ĠMR	18524
ĠRyan	18522
Ġdevelopers	18521
.(	18519
Ġink	18513
zing	18512
Ġfunc	18512
ĠWhether	18511
ĠEli	18511
ĠAdministration	18501
Ġmod	18500
Ġcollective	18498
Ġeligible	18484
Ġdefines	18484
Ġunusual	18479
Ġspecify	18477
Ġarmed	18476
.),	18473
Ġluck	18468
ifier	18467
Types	18467
Ġeffectiveness	18467
Ġ\|	18467
Thus	18466
Ġ114	18466
136	18463
Ġaltered	18460
Ġvi	18459
ĠLinux	18459
Ġpartition	18457
Ġacceptable	18457
*\	18453
bot	18452
ark	18445
Ġearned	18443
ĠLtd	18442
Ġpres	18439
ĠTI	18437
printf	18436
Ġerred	18436
Ġlateral	18433
nom	18431
dagger	18425
205	18425
Ġassignment	18424
Work	18423
Ġstruck	18423
pal	18422
-$	18422
Ġshoot	18416
Ġattractive	18415
Ġconsistently	18414
ĠNumber	18414
Ġexp	18410
Ġpreliminary	18409
Ġsport	18406
Ġunclear	18402
ĠPatients	18398
Ġwound	18393
Ġguidance	18392
each	18391
Background	18390
Body	18387
arch	18381
ĠMM	18378
ĠHead	18378
ĠAge	18376
Ġhom	18375
Ġvoting	18373
bol	18372
yan	18370
een	18368
Ġoccurrence	18367
ĠSteve	18362
vari	18359
ĠâĢ	18358
Ġhadn	18353
Ġmatrices	18350
Ġfacilitate	18345
edu	18344
Ġsessions	18344
Ġverify	18336
Ġintention	18335
Ġrid	18325
Ġperceived	18322
ĠFour	18322
1996	18318
ĠSanta	18318
Ġ&=	18317
unt	18316
Ġsa	18316
Ġeverybody	18316
Ġloose	18314
Ġboot	18311
Ġmolecule	18310
qua	18307
Ġpoll	18304
**.	18301
UE	18298
yc	18297
Ġarrangement	18291
Ġdestroy	18290
Utils	18288
Ġantigen	18284
Ġviolent	18283
Ġsauce	18281
ĠBer	18278
kind	18277
Ġnormalized	18275
Ġtone	18271
Menu	18264
Ġpepper	18263
spo	18260
Ġtracking	18257
phase	18250
amine	18248
ĠAuto	18248
Ke	18247
!\	18244
Ġsystemic	18242
uce	18239
cli	18239
ĠOl	18238
ave	18236
Ġvisited	18236
ĠDue	18236
Ġshopping	18232
Ġcomplexes	18232
EB	18229
flags	18228
Ġexecute	18228
Ġsteady	18225
Ġidentifying	18223
Ġbirds	18219
Ġrarely	18217
Ġlab	18216
Ġbroadcast	18212
news	18209
Ġruled	18209
ĠBP	18209
Ġrev	18208
ulated	18207
Ġprecision	18207
Ġrandomly	18204
tone	18201
Ġregistration	18199
Ġtreating	18198
Ġpromising	18196
Ġmountain	18194
Ġattended	18193
Ġdesigns	18187
ĠMaster	18187
DNA	18186
Ġsad	18184
Ġchildhood	18181
Ġshorter	18180
Ġpoliticians	18177
Pre	18174
diff	18172
ĠJews	18172
Ġcry	18169
ĠColorado	18169
ĠIreland	18168
Ġaging	18167
Ġtransportation	18162
Ġà¤	18156
Ġmat	18152
ĠBase	18148
210	18146
ĠWei	18145
Ġhi	18142
Ġultimate	18141
rie	18139
ction	18139
Ds	18131
ĠSon	18130
negative	18129
Handle	18128
Ġchemotherapy	18117
Ġwashed	18111
Ġ600	18111
Ġconsole	18110
ĠTown	18109
HD	18107
Hello	18106
Ġoxide	18105
ĠJim	18105
ĠRob	18103
ĠPra	18101
Ġpregnant	18097
Ġdeeply	18092
ĊĉĠĠĠĠ	18083
ette	18081
category	18080
="../../../../	18079
tbl	18077
Ġinsert	18077
0004	18072
Ġmagic	18072
Photo	18071
Ġblame	18069
Ġintegrity	18067
rio	18066
Ġharder	18064
Ġcorrespond	18064
Ġconcepts	18063
Ġlifetime	18056
}}_{\	18055
EXT	18054
ock	18053
0010	18051
ĠStandard	18047
ĠArizona	18047
OUT	18046
Ġearn	18045
av	18043
ision	18041
1997	18040
ĠPython	18039
Take	18035
Ġ"$	18035
sv	18032
NULL	18027
lip	18026
ben	18025
ĠSupport	18023
inline	18022
Ġsurvive	18022
Ġclause	18021
Ġeverywhere	18020
itive	18017
Ġ160	18017
ĠKl	18016
KEY	18015
======	18011
Ġdenial	18011
Ġresidues	18008
Ġ121	18007
Ġvol	18002
Ġforever	18001
aro	17999
gel	17996
Ġserial	17989
grid	17986
ĠAgreement	17984
Font	17982
Dialog	17981
ree	17978
Ġdefect	17975
Ġdefend	17974
watch	17961
Ġmixing	17961
VER	17954
Ġallegedly	17953
Ġmere	17946
Ġphases	17945
ĠNevertheless	17945
Ġangular	17944
ĠBI	17941
Ġprogressive	17936
items	17934
Ġhydro	17933
wedge	17929
Ġamended	17927
ĠPath	17927
ĊČĠĠĠĠĠĠ	17925
exc	17924
Ġfunny	17919
Ġdemo	17914
Ġ{{	17913
front	17911
FO	17911
jan	17910
Ġskill	17910
Convert	17902
Ġinstitution	17902
Ġretain	17900
$]{}	17895
Ġsol	17895
oper	17894
Ġsentencing	17893
ste	17889
cre	17889
pb	17888
Ġ+/-	17887
ĠGR	17885
Ġnewspaper	17880
Ġcampus	17879
ĠDefendants	17879
CN	17875
Ġcomputing	17870
because	17868
ĠTHIS	17868
<\	17866
eas	17864
Ġcrash	17863
Ġdoctrine	17859
ĠUnfortunately	17859
Ġunt	17858
Ġ190	17846
yd	17844
MOESM	17844
hspace	17843
ĠOct	17836
ĠET	17836
čĊčĊĠĠĠ	17835
Ġutilized	17826
ĠEp	17826
ĠCN	17825
ĠGrant	17820
}}(\	17818
Ġexport	17815
ĠÐ	17814
Ġsymmetric	17812
Ġpeer	17811
cop	17810
Ġì	17803
Ġ1983	17803
Ġrepeatedly	17798
Ġmonthly	17796
Ġte	17794
Ġhybrid	17792
Ġwrites	17790
tf	17787
^)	17785
ĠChe	17779
Ġlegislative	17774
Ġintellectual	17774
Ġhang	17774
zone	17771
DT	17771
Ġcollapse	17770
BU	17766
Ġoven	17764
stat	17762
Ġexhibited	17762
Ġaccompanied	17762
Ð²	17760
Ru	17755
Return	17747
ĠSeries	17746
Ġlying	17745
Ġ++	17744
xx	17741
}}$,	17740
sample	17740
Ġarranged	17739
ĠdÃ©	17734
Ġalt	17730
Ġdiscover	17727
gm	17724
resource	17723
osition	17718
person	17715
bus	17711
Ġenemy	17706
à¤	17699
typedef	17698
olo	17696
Ġpulmonary	17696
ICE	17694
Ġmes	17692
Exp	17691
Ġvessel	17689
Ġviolated	17686
Ġfitting	17679
Ġtract	17677
Ġsurveillance	17676
Ġmut	17676
password	17674
Ġmitochondrial	17673
Ġreporter	17667
ĠPu	17667
Ġenvironments	17665
Ãł	17663
Ġbankruptcy	17663
Windows	17662
Ġoccurring	17662
ĠCount	17658
Ġdiscrete	17651
ĠBan	17651
Ġdisagree	17648
Ġdysfunction	17642
Ġchecking	17641
ĠBitcoin	17640
Ġreveals	17637
Ġ('	17634
Ġultra	17631
Ġstudying	17629
]{.	17626
perp	17624
Ġphilosophy	17622
Ġcurrency	17622
ught	17621
Second	17621
ĠFollowing	17621
Rep	17619
Ġnano	17617
Ġ127	17616
ĠWin	17613
\,\	17612
los	17608
DATA	17608
GP	17605
040	17601
Ġreadily	17597
Ġvoted	17595
Ġdeclined	17595
ĠHave	17593
Ġlayout	17591
ĠCancer	17591
random	17590
Ġpropose	17590
'>	17589
Ġpaint	17585
analysis	17584
Ġsupporters	17583
240	17580
Ġæ	17580
Ġperception	17580
Ġtopics	17574
Ġbyte	17574
Ġ(@	17571
Ġlanguages	17570
mate	17569
143	17567
Ġrecovered	17566
pop	17564
Ġunlike	17562
cn	17561
bed	17561
]=	17558
.*]{}	17555
CU	17545
ios	17543
Ġpanels	17543
1995	17541
Ġfabric	17540
tol	17539
ĠStra	17539
nec	17534
Ġgli	17532
Host	17531
IG	17528
Ġderivatives	17527
ĠRay	17523
ĠGP	17523
ÂĹ	17521
ĠCi	17519
ĠCPU	17519
ĠPoint	17518
FB	17517
TF	17515
Ġparse	17515
CV	17514
Ġdoses	17512
Ġreversed	17498
burg	17497
ĠRel	17496
Ġdefects	17492
Ġcorrelations	17491
ras	17490
Auto	17490
ĠKingdom	17490
Ġtroops	17486
Ġtrauma	17480
las	17478
Ġadjust	17476
\_[	17474
alt	17473
ĠFO	17473
plugin	17470
Ġsouthern	17470
ĠHI	17470
Ġatom	17466
HP	17465
Ġinterpreted	17463
Ġstellar	17461
Reader	17458
ĠTS	17458
Ġenc	17453
Ġlift	17452
ĠEX	17449
Mac	17447
iro	17445
ĠMed	17445
ĠFair	17445
ĠAbout	17445
Ġliked	17443
Ġ1986	17442
LOG	17439
hep	17436
ĠSpain	17435
Ġfibers	17429
Ġml	17428
Ġpen	17426
!)	17425
ĠSeveral	17422
made	17413
ĠFamily	17413
Ġcholesterol	17411
Ġchi	17410
round	17408
Ġtransactions	17407
Ġwedding	17404
Ġpacket	17404
Ġtill	17403
Ġrent	17399
134	17393
Ġembedded	17393
being	17392
Ġwireless	17392
NR	17391
ĠIndex	17391
Ġpsycho	17389
Ġarise	17388
čĊĉĉĉĉ	17384
fit	17382
Ġquasi	17381
Es	17380
Ġdisabled	17378
Ġav	17374
security	17372
bt	17372
Ġtexture	17372
Ġprominent	17370
Ġ187	17368
Process	17363
Ġprinted	17363
aring	17362
Ġduties	17360
147	17351
ĠEastern	17350
javascript	17349
Ġcooling	17346
Ġlabeled	17345
ĠCap	17345
RES	17344
Ġexciting	17343
Ġfilling	17339
Ġ116	17336
ype	17333
ĠWil	17333
Ġphysiological	17332
Ġprinting	17331
Ġnorthern	17328
Ġevident	17325
register	17321
Ġdiffusion	17319
ĠÂĹ	17315
Ġpointer	17310
Ġcombine	17310
TEST	17309
Product	17307
031	17307
Ġexpressing	17306
gal	17305
ĠDesign	17302
Mi	17300
Ġinfluenced	17300
Ġillustrated	17299
ĠMethods	17299
bind	17296
ĠÑģ	17296
lon	17295
Ġprosecutor	17295
fix	17293
ĠFL	17292
Grid	17291
ĠDid	17287
Ġtens	17286
iii	17285
iel	17285
Ġwage	17284
Ġarg	17284
Ġdefeat	17283
ĠStudy	17282
Appellant	17281
Ġassociations	17280
ĠYe	17272
Ġgained	17271
ĠSk	17265
uous	17264
spec	17254
349	17251
Ġcourses	17250
Ġphenotype	17247
your	17246
ĠAsh	17245
../	17241
Ġgenomic	17241
Ġisolation	17235
jar	17232
Ġrating	17227
Ġmess	17227
ĠPlaintiffs	17227
Report	17226
Ġtension	17222
Ġraising	17222
Ġloans	17220
kit	17219
Ġattitude	17219
BD	17218
ĠMcC	17216
Tool	17215
REG	17214
Ġauthorized	17213
Ġgear	17212
ais	17203
Ar	17200
Ġinspired	17200
Ġactor	17197
Ã©e	17195
human	17194
025	17191
translation	17189
Ġconnecting	17186
ĠVe	17182
Ġsu	17181
×	17180
angle	17175
cu	17173
Ġreact	17173
Operation	17171
Ġvalidity	17170
?)	17169
TV	17167
Ġ1987	17167
Fl	17165
Ġexcessive	17162
Ġgalaxy	17160
ited	17159
esi	17159
oz	17156
*~*	17156
Ġhopes	17152
Ġ\#	17149
Va	17142
bigg	17141
bra	17139
ĠAng	17139
Ãª	17136
ĠMi	17136
ĠProp	17135
Ġsomebody	17134
)_{	17131
(){	17131
Ġli	17127
ĠCol	17122
pat	17121
dm	17121
figure	17116
Ġgod	17116
Ġawesome	17114
ĠWARRANTIES	17114
Ð¼	17109
req	17106
hem	17106
Maybe	17104
Ġresonance	17101
Wi	17098
etc	17084
ential	17080
usion	17079
Cons	17079
ĠImages	17079
Ġguest	17078
ĠNu	17076
mM	17075
also	17070
ĠAccess	17069
thread	17067
Ġcontacts	17060
Ġphosphorylation	17058
ĠKorean	17055
Ġpitch	17054
ĠAgain	17054
Ġcardiovascular	17053
Ġinvariant	17050
Ġpreventing	17049
Parent	17045
acc	17044
licenses	17043
ĠPacific	17041
ĠTro	17039
Ġequilibrium	17037
lig	17035
GM	17035
ĠHistory	17033
Em	17032
ĠSto	17031
Ġtolerance	17027
Ġignored	17024
Ġtransmitted	17016
Ġliterally	17014
Ġestimation	17013
ĠJSON	17011
ĠZealand	17008
ites	17005
Ġ188	17004
iated	17001
pad	16998
vc	16997
Ġinvalid	16993
Ġoste	16990
Ġembodiment	16988
-->	16983
ĠGames	16981
Ġpounds	16980
uta	16979
sr	16979
Ġkick	16979
ulo	16973
âĢ²-	16971
impl	16971
Ġprospective	16967
Ġeliminate	16966
Ġswitching	16965
ĠAgency	16965
Ø	16963
Ġguns	16957
Full	16949
Additional	16945
Ġpublicly	16939
Ġdestruction	16934
Ġtonight	16931
Ġovernight	16931
Ġgenuine	16929
ĠAF	16927
Ġwi	16926
Ġstretch	16926
Ġorbit	16925
Ġrem	16924
ĠChildren	16924
ĠAv	16922
Ġpending	16919
Rs	16916
ĠMad	16910
Ġelectricity	16909
court	16907
Ġworried	16903
Ġobesity	16899
Ġdenotes	16899
Ġgut	16896
cons	16895
Ġregulated	16895
ĠThough	16893
ĠML	16893
Ġnose	16891
ĠHan	16888
Ġmal	16879
tn	16878
vr	16873
Ġdifficulties	16872
EG	16866
Ġâī¥	16865
ĠFu	16864
modules	16863
Ġaggressive	16860
Ġ122	16855
Ġspecificity	16847
Ġassumptions	16846
ĠMap	16846
Ġphysically	16845
2020	16844
HT	16843
phone	16842
Ġepisodes	16840
ĠGri	16839
Ġ185	16839
OF	16835
Ġdelayed	16835
Ġamendment	16830
ĠHamiltonian	16830
Ġpoverty	16824
Ġ02	16819
ĠSW	16811
142	16810
Ġstorm	16810
Ġfounded	16809
Ġsearching	16806
Ġgravity	16801
Sl	16800
Integer	16799
Star	16797
ĠDep	16795
SQL	16794
ĠMu	16794
Ġlabels	16793
oplus	16782
Ġattributed	16781
ĠCook	16779
General	16777
Ġ132	16773
Ġ),	16773
Ġhardly	16772
bn	16766
ĠTa	16764
ĠAnderson	16763
)}(	16762
İ	16757
Ġ'\	16755
Ġcommunicate	16754
Ġretail	16753
Ġdisplays	16753
ĠGas	16751
Ġacknowledge	16747
demo	16746
Ġsynthetic	16746
ĠLS	16746
=-	16743
dor	16742
Ġabortion	16741
^{-\	16740
Ġclinic	16736
ĠStart	16736
ĠRegister	16736
Ġweird	16735
Ġtranscript	16735
Ġbath	16735
ĠRF	16733
Public	16729
town	16721
Ġwing	16718
Ġcompete	16717
Ġboxes	16717
âĶ	16714
Ġga	16713
oss	16708
ĠPlay	16705
Ġshoes	16704
âĢĻ.	16703
Ġopt	16699
Ġinform	16698
Ġhits	16696
Ġrevolution	16695
Abstract	16693
plot	16692
energy	16692
Ġbeliefs	16692
Ġbet	16690
Ġbull	16689
Fu	16683
Despite	16679
Ġblocked	16677
isi	16676
Ġcompatible	16673
ĠHas	16673
SW	16670
ĠIowa	16670
Ġpunishment	16664
Tu	16659
nal	16652
Ġmature	16652
Ġchat	16650
Ġpleasure	16645
edge	16644
Ġpartnership	16642
Ġtele	16637
bly	16634
Ġpr	16631
Ġenables	16631
Trans	16628
193	16627
Ġaffecting	16627
Ġreset	16625
Ġsec	16624
ĠIr	16624
1994	16623
cia	16622
Ġpotent	16618
Ġcoal	16618
ĠRadio	16616
}}}_	16613
ĠÐ²	16612
sort	16611
Ġgotten	16610
1993	16609
Ġtrends	16608
Ġinverse	16606
Child	16604
Ġvisits	16602
Ġmeaningful	16602
ĠRet	16600
Today	16596
Ġobtaining	16593
Mon	16591
Ġdist	16591
ĠProfessor	16591
Ð´	16589
Inc	16587
Ġ..	16585
Ġcord	16578
ĠBu	16578
ĠGer	16577
zen	16575
ĠSF	16574
ĠLog	16569
ĠÂ¶	16567
Ġengagement	16567
Ġdifferently	16567
Ġfore	16564
spin	16559
Ġframes	16553
yu	16552
Ġtradition	16550
Ġ117	16550
Ġdiff	16548
ĠWITH	16544
Rule	16543
PG	16543
Ġpolar	16542
Ġdense	16542
Ġdescribing	16540
Ġyeast	16539
ĠHC	16538
Ġbehaviors	16535
mn	16529
Ġreflects	16528
erl	16527
Ġpermissions	16526
Ġdemocracy	16520
Ġcontest	16517
Ġasks	16516
done	16515
Ġ1985	16512
BT	16511
Ġxe	16509
Ġdeals	16504
degree	16502
ĠThird	16499
terminal	16494
doi	16494
Param	16494
Ġbearing	16491
Ġfits	16488
Ġunderwent	16486
ĠSaudi	16483
ĠWithout	16482
Ġselective	16480
~)	16479
Ġfunctionality	16479
btn	16477
hard	16476
Ġagenda	16476
ĠStill	16476
Ġinterviews	16473
Ġjuice	16471
Ġfake	16471
ĠFord	16470
Ġinvestigations	16468
Ret	16464
Ġdesignated	16462
Ġfactual	16454
ĠPBS	16454
ĠDisc	16450
ĠmL	16449
Ġjson	16449
Ġ['	16448
Ġanger	16447
derived	16444
ĠLy	16443
Unc	16441
ĠØ	16432
Ã³n	16428
assertEquals	16428
Ġpolynomial	16428
ĠRO	16428
152	16427
$^{-	16425
_*	16423
ĠPerhaps	16423
280	16422
ĠColumbia	16422
wt	16418
render	16416
ĠSn	16415
driver	16413
ulin	16411
ĠSat	16409
Ġburn	16408
ĠPur	16406
Ġemphasis	16405
pher	16401
Ġfitness	16400
Ġmock	16399
Ġprogramme	16397
Ġorange	16392
ĠCarl	16390
away	16387
Ser	16387
ien	16382
Ġbreaks	16378
forall	16376
Ġpredictions	16375
ĠTitle	16368
Both	16360
drop	16358
Callback	16355
Chapter	16354
mas	16353
Ġretirement	16351
050	16350
202	16348
ĠJordan	16341
Ġlistening	16340
ĠNP	16339
ĠMinistry	16338
Ġ124	16335
Ġfarmers	16332
Ġweekly	16331
Ġapps	16329
""	16326
chain	16324
âĢ¯	16323
Ġmortgage	16323
Ġcommands	16322
ĠAward	16318
Ġequality	16315
ĠFort	16313
COM	16311
ĠLI	16307
Ġconsciousness	16303
1990	16302
dar	16300
Ġproportional	16299
Ġhypertension	16299
Ġfocusing	16299
Ġau	16297
rated	16296
four	16296
Ġsegments	16294
Ñĭ	16293
sun	16291
Global	16290
scripts	16286
Based	16286
ifies	16283
Ġdetector	16283
Ġconspiracy	16278
189	16274
Ġgenerator	16271
Ġfactory	16271
ĠWA	16270
ished	16268
ĠNT	16268
Down	16265
ĠSciences	16265
Ġcart	16263
ĠConsequently	16262
Ġputs	16261
ĠPres	16258
999	16257
ground	16254
Init	16254
Ġboundaries	16253
roc	16252
Ġoptimization	16252
Ġtrivial	16242
Identifier	16241
Ġweights	16240
Ġinserted	16240
ĠBS	16239
Ġattempting	16238
Ġangry	16238
Ġfavorable	16232
Ġtrail	16229
ĠRound	16229
Ġstrip	16227
ĠGaussian	16226
Import	16222
ĠHor	16220
138	16217
Ġcomputers	16215
release	16213
Ġscaling	16213
az	16212
auth	16211
Ġtie	16206
attribute	16205
ĠIslam	16205
Ġclip	16201
callback	16199
ĠNick	16198
cases	16197
Ġslight	16196
Ġadapted	16194
colon	16193
Ġcal	16192
ĠAB	16191
Ġregulate	16186
Sign	16185
Ġterrible	16184
Ã©s	16183
Ġvaried	16183
ĠBible	16183
ĠBal	16181
212	16180
Ġphysicians	16178
Ġinsight	16177
Ġintracellular	16176
ĠTor	16176
Ġaff	16175
people	16174
Ġrescue	16174
party	16168
Mark	16167
Ġphrase	16167
Ġimpressive	16167
MIN	16166
Ġunf	16166
151	16163
ĠAcc	16161
Ġchocolate	16160
widget	16159
install	16157
Ġconvenient	16157
Ġaims	16154
Ġroads	16150
Ġdeeper	16150
ces	16146
ĠAdditional	16145
Json	16143
137	16143
ĠFin	16141
rim	16132
Ġfatty	16132
Ġintense	16130
Root	16129
ella	16122
Ġnp	16118
Ġedition	16116
Ġsettled	16113
ĠPlace	16113
Ġfunded	16112
185	16111
Ext	16109
Ġ1984	16108
xp	16102
Ġvariant	16102
Ġrestaurants	16102
Ġreflection	16102
Ġexclusion	16102
Ġcombinations	16102
admin	16097
ĠSpirit	16094
Super	16091
video	16088
Ġracial	16085
Ġpor	16083
dit	16081
Ġmacro	16081
exec	16080
Ġheading	16080
Ġrendered	16077
Ġsuspension	16076
Ġpeaks	16076
Params	16074
eon	16070
xb	16068
146	16068
Ġmood	16067
Ġchains	16067
uer	16065
Ġlimiting	16065
Ġperi	16062
Ġnegligence	16060
pn	16059
Active	16055
Ġdates	16055
Ġfingers	16054
CODE	16051
Ġmagazine	16050
Ġquantities	16049
Ġdrama	16049
Pos	16047
metric	16042
165	16041
filename	16038
Ġscoring	16036
ĠIA	16036
171	16035
ĠGreek	16032
ĠSand	16030
Ġdisclosure	16028
Ġepithelial	16027
Ġassert	16026
fast	16024
Ð	16022
ĠWas	16018
Cal	16014
ĠTar	16013
eno	16011
Ja	16010
Ġ|\	16001
Ġdans	16000
Ġprejudice	15995
RN	15994
)^{-	15994
|}	15993
Ġsatisfying	15992
Ġmath	15992
Ġconsensus	15992
Ġvulnerable	15985
simeq	15984
Ġvertices	15984
Ġchoosing	15983
ages	15978
UM	15974
ĠTF	15973
ression	15970
_{-	15970
Discussion	15968
Ġhem	15968
att	15967
Ġlawsuit	15967
Ġconfident	15967
ĠAdam	15967
eli	15966
bad	15966
Ġmi	15966
Ġou	15964
Ġbatch	15964
Ġ135	15963
stage	15962
Ġdollar	15961
Ġwondering	15960
bibr	15953
.).	15951
Ġdamaged	15951
Ġpreferably	15950
ĠEric	15949
Ġmanually	15948
Ġquit	15944
ĠEst	15944
Ġprep	15941
Ġ129	15941
ĠRad	15940
Ġtall	15938
Ġexc	15937
ĠâĢ¢	15936
ĠInf	15935
ĠSur	15934
python	15933
CAT	15931
Ġmu	15928
OO	15925
Ġtied	15925
è¯	15924
Helper	15923
Ġlikes	15920
Ġmatched	15918
Ġholiday	15916
Ġtransparent	15915
Ġstrictly	15914
Ġrepresentations	15911
Ġflags	15909
aca	15908
Ġrs	15908
hot	15905
Ġsupplies	15905
ĠMat	15905
450	15904
ĠRose	15903
Values	15902
iet	15896
Ġshots	15893
Ġbelong	15892
"));	15889
Ġequ	15887
Ġpython	15884
ĠJA	15883
Ġdeveloper	15877
Jo	15876
Ins	15875
Ġisolates	15875
Ġindices	15875
Mc	15870
Ġlegitimate	15869
ured	15868
ĠCoast	15864
Collection	15863
ĠTu	15861
'))	15857
Ġ118	15852
Ġio	15847
Ġ{@	15841
Ġpushing	15838
;">	15835
Delete	15833
Ġbehavioral	15833
ĠLT	15833
230	15832
utils	15830
Ġions	15830
ede	15828
ĠBook	15826
ido	15824
ĠColor	15824
Ġbreakfast	15823
JA	15821
ĠTP	15821
Ġvisitors	15819
Share	15817
Close	15815
mac	15812
Ġbills	15811
SB	15810
Ġcont	15807
Ġdeposition	15806
Im	15801
Parameters	15799
aco	15798
Ġviruses	15796
Ġreputation	15794
Float	15792
rea	15790
Round	15785
fish	15777
Ġresidual	15774
_(	15769
()->	15767
ĠLittle	15767
elli	15765
Ġtort	15765
Ġobjection	15761
ĠSpecifically	15761
rig	15760
Ġgrass	15758
ĠParliament	15756
ĠAk	15756
Display	15748
ĠMajor	15746
genic	15741
fall	15741
Ã¨	15737
Ġassistant	15737
ior	15733
181	15732
Ġ119	15732
lg	15730
Ġins	15727
too	15721
ĠMinnesota	15721
Ġbaseball	15720
ying	15716
eva	15716
Ġemerging	15715
gas	15714
ĠSoviet	15713
Space	15709
Ġgray	15709
ova	15707
Ġhealing	15706
Ġreferring	15702
bon	15700
Ġequipped	15698
Ġentities	15698
Ġnucleus	15697
Multi	15693
Ġrh	15693
ĠCON	15693
San	15692
Ah	15692
Ġham	15690
Ġbirths	15689
connection	15684
Ġum	15680
Ġquote	15680
asi	15679
Ġfragment	15678
Ġposterior	15676
zh	15671
idx	15670
Ġ131	15666
Ġcavity	15665
ĠKan	15665
grade	15664
uf	15663
Â³	15661
Ġicon	15660
Ġreply	15650
ĠSupp	15650
ĠAV	15649
Ġtoxicity	15646
Ġinquiry	15646
187	15645
Ġpocket	15645
Ġdeficiency	15644
154	15643
320	15641
ses	15638
188	15638
ĠTurkey	15638
stone	15637
RF	15637
Load	15637
Ġsensors	15637
148	15633
Ġterritory	15632
Ġoxidative	15631
ĠFisher	15629
Ġcomplement	15628
expected	15624
lv	15622
gp	15621
Sm	15620
Ġvessels	15618
1992	15611
Den	15610
ĠSho	15610
Ġstomach	15609
Ġpromised	15609
++;	15607
Ġmembership	15607
Ġarrive	15607
Ġtired	15606
Kr	15603
Ġinvited	15602
ĠFS	15597
Ġtetra	15596
Ġpreserve	15596
ĠInclude	15596
AE	15594
Ġmodeling	15590
Ġextending	15590
ĠPHP	15589
iol	15586
Ġsaving	15585
Ġmuscles	15585
Ġmoon	15578
ĠCambridge	15578
.:	15577
rf	15576
hor	15574
Ġdefining	15574
}$$\	15571
rom	15567
Ġparticipated	15566
Ġps	15564
Ġodds	15560
ann	15559
Ġagreements	15558
Ġrestore	15556
Ġinflation	15556
Ġbounds	15552
Cy	15548
cation	15547
Ġcertificate	15545
Ġfu	15543
points	15541
Ġdeny	15540
Ġinjected	15537
Ġ126	15537
idi	15536
_>	15536
ias	15533
ĠRather	15533
awa	15531
Ġpointing	15530
Ġaccurately	15529
wiki	15528
Ġlogical	15524
World	15523
FIG	15523
PF	15522
Ass	15519
Ġencounter	15517
Ġsuspected	15516
041	15515
ĠAna	15515
ãģ«	15514
Ġplatforms	15514
ĠAssembly	15514
ãģĦ	15513
Ġadapt	15509
ĠHarris	15508
pur	15505
Ġnobody	15503
Har	15502
Ġgrateful	15501
################	15500
enable	15499
1991	15499
Ġobligation	15499
ĠCase	15499
ees	15497
'(	15496
Ġestablishment	15496
Ġcortex	15496
ĠDist	15495
ĠYeah	15492
Ġdip	15491
Mu	15489
ALL	15488
Ġregarded	15485
Ġtalent	15483
156	15482
VC	15474
ĠVA	15474
OW	15469
ĠMoore	15468
INFO	15466
Ġtransit	15466
Ġexpense	15466
ĠAfghanistan	15463
Ġresistant	15457
Del	15452
keys	15450
days	15448
chan	15446
Ġpipeline	15446
Ġlease	15446
"\	15445
sie	15444
Ġdeemed	15444
ĠLewis	15442
Ġstayed	15441
ĠCG	15441
century	15440
account	15440
RY	15440
Ġunsigned	15438
Ġsuspended	15436
ĠFalse	15436
Media	15434
Ġ''	15432
Icon	15431
Ġbird	15430
ĠPG	15430
Ġpromoting	15428
Copyright	15427
xF	15419
Ġsuppress	15416
Ġcomply	15416
Ġelectrons	15413
ĠToronto	15413
wait	15411
thi	15410
Ġreliability	15409
Ġcomparisons	15408
ald	15407
Ġmicroscopy	15407
wall	15401
Ġpossess	15401
Ġhighlight	15401
ĠBrazil	15400
Properties	15399
Ġelderly	15399
through	15398
ges	15398
Ġresident	15396
gra	15394
Ġindication	15391
Ġendothelial	15387
Inv	15383
ĠOp	15377
Ġ133	15376
Ġlas	15374
Ġtrick	15373
Ġhoney	15372
ĠKal	15372
Ġunw	15371
Prop	15369
Ġartificial	15368
ĠJS	15368
Ġcert	15367
Ġenergies	15365
ĠCommonwealth	15363
sz	15362
Ġpersonality	15356
Ġlifestyle	15355
Ġalert	15355
Ġsuppression	15353
Ġdemonstrates	15349
lets	15347
Ġspots	15346
350	15345
Che	15342
Ġreplication	15339
MAP	15338
vers	15337
ÃĲÂµÃĲ	15335
selected	15335
ĠSel	15335
Ġgrain	15334
Ġadjustment	15334
ody	15333
Ġarising	15331
rev	15329
NF	15329
nutrients	15328
Ġ09	15328
iding	15327
Ġuptake	15327
sex	15325
Ci	15325
Ġthreats	15325
ĠBridge	15323
KA	15322
asp	15320
Ġticket	15319
itation	15317
Ġarrival	15316
schema	15314
Ġexisted	15311
ĠScale	15310
_,	15307
Ġinhibited	15306
Ġrape	15305
Ġvariability	15301
ĠLin	15301
apply	15299
plane	15294
Ġvisiting	15292
ĠCra	15290
`,	15288
Ġbases	15288
Ġdocumented	15287
ĠAndrew	15286
ÑĮ	15284
Ġlocalization	15281
Items	15280
Ġdistances	15277
ĠIndiana	15276
ĠIFN	15276
etic	15275
ĠFather	15275
Ġ=\	15273
ĠHTTP	15272
EQ	15271
Ġopens	15271
ĠDef	15269
wave	15262
Ġdefinitions	15262
Common	15260
Ġtends	15260
aid	15258
Ġ1981	15258
Ġ255	15255
ĠSin	15249
ents	15247
region	15244
gene	15244
043	15243
ĠBro	15242
825	15241
require	15240
Ġsatisfaction	15240
Math	15239
Ġrail	15239
Ġpolarization	15232
ãĤĴ	15231
Ġminority	15231
ĠSystems	15231
ĠHouston	15231
Ġnavigation	15228
Ġdistinguish	15228
ĠUnit	15222
Ġrough	15221
ĠPy	15221
lis	15220
ense	15211
Ġmanifest	15211
Ġheaded	15211
Ġfinance	15210
ĠSports	15210
Ġbranches	15208
é	15207
MU	15205
ĠTotal	15205
Ġwash	15203
ĠTrade	15197
Ġgeo	15196
Ġconfusion	15193
Ġcomplaints	15190
cycle	15189
Ġnitrogen	15183
&=	15181
Ġparagraph	15181
Ġ["	15180
Real	15179
record	15178
Ġclosure	15178
[$	15177
uation	15172
+)	15171
Ġalongside	15169
ĠLen	15168
ĠException	15168
CONFIG	15167
=====	15167
512	15164
00000000	15164
Ġwarranty	15164
ĠLibrary	15164
ĠKr	15164
ĠDaily	15164
Ġcre	15163
ĠDefense	15163
ĠBM	15159
VF	15158
expression	15154
Ġcu	15154
Ġthirty	15153
Ġdental	15153
Ġemerged	15152
Ġranges	15151
Ġlibraries	15150
ĠChristians	15150
Every	15149
Ġmit	15148
ih	15145
Ġsurprising	15144
Ġhtml	15142
mia	15141
Ġcrack	15132
EV	15131
Rect	15130
$_{	15124
ĠArticle	15124
Ġupset	15122
ographic	15121
Ġ1960	15121
ĠQueen	15114
Factor	15113
Ġrein	15113
_+	15111
Ġunders	15109
urs	15108
ĠSort	15108
network	15107
ĠIE	15104
Aw	15103
burn	15101
Author	15101
POST	15099
Ġplugin	15096
area	15093
Day	15091
cle	15090
Ġdenying	15090
hd	15089
Ġbasketball	15087
prefix	15085
Ġfaculty	15081
ĠNations	15080
craft	15079
INE	15077
ĠInterestingly	15076
Ġperiodic	15072
Ġsuggestions	15070
lot	15069
TB	15069
Ġpreparing	15067
println	15066
prom	15064
coll	15061
Will	15060
rib	15059
Ġparticipant	15056
>)	15055
Ġ×	15055
models	15054
sic	15053
Ġcapabilities	15050
Ġta	15045
ĠHz	15043
Definition	15042
Cont	15042
bla	15041
foreach	15040
ĠMonte	15036
Ġoccasion	15031
settings	15028
Ġlandscape	15028
ika	15027
Ġcollaboration	15026
ibly	15023
cz	15023
Ġminimize	15020
Ġbench	15017
ĠMulti	15017
Ġvirtually	15013
wd	15012
161	15003
Stop	15001
iff	15000
bal	14999
ĠBol	14999
WS	14997
à®	14996
Pu	14995
Ġsigning	14992
Ġ05	14992
cus	14991
Ġinduces	14989
exe	14986
Editor	14985
Bu	14983
Ġwinner	14982
ĠCV	14978
'],	14975
Ġdecimal	14975
Ġinit	14972
Ġmagnet	14971
Ġwelfare	14969
mr	14968
results	14963
UA	14963
ĠHad	14963
deg	14960
News	14960
162	14958
Ġclaiming	14953
ĠWeek	14953
ĠMet	14953
PB	14949
ĠLP	14947
MENT	14940
MAN	14940
Ġrespondents	14937
ĠHim	14936
Ġ"#	14934
RU	14929
Ġhosts	14925
Ġfiscal	14924
Ġprobable	14923
*(-	14922
Ðº	14918
Ġcoronary	14918
mov	14914
946	14914
Ġreceives	14914
poly	14910
ĠSilver	14908
fan	14907
Ġ03	14907
linux	14905
pf	14903
Ġnotation	14902
Ġgross	14900
Given	14899
APP	14899
139	14899
ĠMcG	14899
Ġbleeding	14898
ĠPass	14894
ĠAla	14891
Ġlongitudinal	14889
ĠCt	14889
Ġchances	14888
Ġinterpret	14887
Ġenv	14887
Ġ184	14885
ĠFM	14884
Ġgovernor	14883
Ġblocking	14881
ĠUP	14880
gin	14877
Ġfrozen	14876
184	14875
Ġrecurrence	14874
connect	14872
ĠProperty	14870
Panel	14869
Ġprotocols	14866
Ġasc	14865
ean	14864
KI	14862
Fs	14855
Xi	14853
\)	14849
166	14848
Ġaffirmed	14848
Ġcultured	14843
Ġfold	14840
Ġwavelength	14838
Ġlocked	14837
Ġdecomposition	14836
ĠPRO	14834
Graph	14831
fluor	14829
Ġnonlinear	14829
Ġsudden	14828
Ġsteam	14828
900	14827
til	14826
XF	14826
Ġatomic	14825
Ġshortly	14824
Ġbomb	14822
Ġhistoric	14819
SV	14818
Ġshaft	14818
Ġtherm	14817
Ġtransformed	14815
ĠDiv	14814
tv	14812
report	14812
ĠColl	14812
ĠTD	14807
amo	14805
ĊĊĠĠĠĠĠ	14800
hing	14797
ĠArray	14797
Ġdistinction	14795
Ġ134	14791
Ġsilicon	14790
174	14782
igo	14778
ĠEL	14777
Ġbold	14776
ono	14775
zip	14773
Ġcompression	14773
Ġbacks	14772
emia	14771
Ġdonor	14770
Ġsolved	14769
Ġdetermines	14769
Var	14767
Ġwins	14766
Ġtimely	14766
Ġcircular	14766
Ġmutants	14765
Ġtracks	14764
gathered	14763
Ġefficiently	14762
Ġarc	14762
did	14760
ĠRen	14760
Ġappreciated	14755
Enter	14753
pid	14751
Ġclo	14751
ĠCommissioner	14751
xd	14750
Ġcriticism	14750
ĠTHAT	14750
ĠNat	14749
ĠUr	14748
Ġappointment	14747
Ġpursue	14741
Layer	14740
Ġconstraint	14740
ĠIgG	14740
Ġtin	14736
rum	14735
*=	14735
Ġconstants	14734
Lib	14732
Ġip	14730
ĠCre	14730
Ġsecured	14725
186	14724
Ġrot	14723
Option	14719
ats	14717
three	14713
BM	14713
Ġneo	14713
Ġmemories	14713
Ġassign	14713
Ġ"<	14711
ĠStation	14707
Ġcallback	14706
Ġstimulus	14704
RB	14703
Ñı	14698
NOT	14698
Ġthreatened	14698
Ġ[$	14697
TL	14696
ASSERT	14695
Enabled	14694
Ġstriking	14691
ĠCas	14690
=""	14689
Ġthrown	14689
Ġinputs	14689
Ġdem	14685
ĠMarket	14681
Ġcookies	14677
Ġabnormal	14675
Ġsubgroup	14674
ogram	14673
Ġcancers	14672
182	14669
Ġcustody	14668
Life	14665
Ġanybody	14663
Wait	14660
Ġreward	14659
Ġmothers	14658
TU	14657
}}}(	14656
ĠSB	14656
ĠBall	14655
Ġinstruments	14654
Ġasset	14654
Ġflying	14652
Ġ800	14650
Ġcircuits	14649
Ġtech	14648
Ġfantastic	14647
Ġsilence	14644
ĠCNN	14643
Ġspa	14641
IX	14639
seq	14638
Ġqueue	14638
Ä±	14632
Network	14632
Bre	14632
eff	14627
Async	14627
Ġtriple	14625
rule	14623
203	14618
properties	14614
ĠGra	14614
ĠWild	14607
proc	14606
}:	14604
Ġeveryday	14603
Ñĩ	14602
Ġdoc	14602
Er	14600
ĠTT	14598
ĠHoly	14596
ĠTan	14595
$^	14594
custom	14589
Ġchallenged	14589
ĠIO	14589
nder	14588
Ġentrance	14588
hbar	14586
ĠArab	14585
Ġtries	14584
Ġliable	14584
uo	14582
ĠHM	14582
iate	14581
Ġmerit	14581
,_	14580
Ġsilent	14579
Ġ1982	14579
QU	14578
Ġlitigation	14577
handler	14576
Ġ04	14576
157	14573
ĠSim	14573
ifdef	14572
âĢ	14571
ĊĉĉĠ	14569
PU	14567
Ġinches	14567
Ġdispersion	14566
ĠWatch	14565
Ġdried	14564
Ġvegetables	14563
ĠFeb	14561
Ġacted	14558
Ġmathematical	14555
Ġdrove	14554
Ġstained	14553
ÃĦ	14552
epi	14552
JO	14552
Home	14552
vt	14551
Ġcorn	14551
~\	14549
RG	14549
æĺ¯	14547
Ġconvergence	14547
ĠMin	14544
ĠAug	14543
ĠSky	14541
Ġresidential	14540
Ġflows	14540
360	14538
ĠIm	14538
Writer	14536
)^{\	14536
Ġblank	14536
ĠInsurance	14534
Ġartist	14532
)\,	14531
ĠDown	14531
ĠAllen	14530
multi	14528
Ġtu	14528
eqn	14527
History	14526
Ġsatellite	14525
enti	14523
Wa	14523
Rel	14522
Ġviewing	14522
Ġmining	14521
names	14520
itude	14520
Ġphoton	14518
Print	14516
ĠFra	14516
West	14512
Ġconserved	14512
}}=	14511
Ġminds	14510
Ġresin	14508
ever	14507
Example	14505
Equal	14505
.\[[@	14505
nr	14503
sg	14501
rey	14501
metadata	14501
Ġseats	14501
ĠÎ¼g	14498
Ġtraits	14498
Ġasthma	14498
Ġreconstruction	14497
fun	14493
Ġgradually	14490
ĠJu	14489
abstract	14487
Nu	14487
Ġoh	14487
ĠLO	14487
Ġexclusively	14486
ĠWisconsin	14478
Ġgraphs	14476
inflammatory	14473
Ġbedroom	14472
ĠConf	14472
Pen	14471
cis	14469
abi	14469
Î¼	14468
ĠAlex	14466
ington	14465
Ġlady	14465
Ġsmell	14464
Ġflowers	14464
Ġprevented	14460
mis	14459
exit	14459
eng	14456
children	14452
ĠHP	14452
Ġwidespread	14451
nv	14450
Ġimpairment	14449
ĠAtt	14448
Adapter	14446
Ġconfused	14441
Ġing	14439
ĠLook	14438
Ġmaternal	14436
ĠCons	14436
Ġgeneralized	14432
Ġsimilarity	14429
Ġactors	14427
ĠBarr	14426
176	14425
Ġestablishing	14420
ĠĠĠĠĠĠĠĠĠĠĠĊĠ	14420
Ġmotivation	14415
ĠImp	14415
Ġindependence	14413
164	14410
026	14410
rant	14409
Au	14409
Ġsubstitute	14409
SK	14404
Ġjoining	14403
Ġstating	14401
Ġmethylation	14399
ĠGE	14399
osing	14396
Ġknife	14396
Ġ136	14394
Ġslot	14393
ider	14391
Ġreplied	14391
Men	14390
Ġrespondent	14390
`.	14388
Ġbarely	14385
Ġsentenced	14384
Ġdescending	14383
ĠCOM	14378
********	14377
Ġscenes	14373
inn	14372
Ġspec	14372
limit	14369
Video	14369
ĠNet	14367
Meta	14366
Ġacceptance	14366
Hash	14365
753	14365
Ġve	14361
ĠShould	14358
ipe	14353
Ġguests	14353
press	14352
Ġloves	14352
čĊĠĠĠ	14352
Ġseeks	14350
_-	14349
Ġsquad	14349
sal	14346
Ġanterior	14346
hydroxy	14334
Ġrealistic	14331
Ġquestionnaire	14329
jm	14327
cv	14325
uth	14320
Ġsake	14319
Ġdin	14318
would	14314
Ġmotions	14314
Ġintersection	14311
Bytes	14307
PATH	14305
Ġjournal	14303
179	14302
Ġtam	14302
Ġeq	14302
Ġincredible	14300
Save	14298
ĠKelly	14297
âĢĿ)	14296
rap	14295
033	14294
ĠSpring	14294
Fo	14293
Ġdot	14293
213	14291
Ġpersistent	14290
Ġcrop	14289
mock	14287
OA	14285
Ġprescribed	14284
Ġcomputation	14284
Ġdramatic	14283
ĠJean	14283
Ġmad	14282
Ġairport	14280
apa	14278
Ġenhancement	14278
Ġcapability	14276
Ġpreference	14275
Ġdating	14275
ĠSar	14274
Ġsalary	14268
Ġsymbols	14264
iri	14261
$).	14259
Ġcontroversial	14259
uli	14257
ĠKansas	14249
ĠCam	14248
Ġmanaging	14247
à¥į	14245
yard	14244
Ġcanonical	14243
eat	14242
Ġbriefly	14240
ĠLuc	14239
cont	14238
Ġ&=&	14237
âĢĻ,	14236
spi	14232
Ġtemp	14232
Ġ08	14227
wan	14226
ĠGT	14226
toString	14223
Ġattorneys	14218
users	14217
Ġmethyl	14217
"};	14210
Ġ+\	14208
stein	14204
028	14204
ĠLatin	14202
Flags	14199
Ġpeptides	14196
lr	14195
Ġemissions	14195
library	14194
Ġfilters	14194
Ġplacement	14193
Ġ144	14191
ĠKra	14189
225	14188
ĠConsider	14188
aci	14183
Ġacknowledged	14183
pot	14182
Ġpartly	14182
Ġprocessor	14181
mus	14180
bling	14177
Ġloud	14176
Ġsurely	14175
Ġethnic	14170
ĠNature	14170
Ġindictment	14168
(:	14166
Ġoffices	14166
Ġgrace	14165
ĠLow	14163
original	14161
Ġdietary	14161
Ġviolations	14160
Ġ^{	14160
===	14159
1986	14158
rh	14155
Ġhook	14155
vic	14153
Ġcontention	14151
$^{	14150
Ġprotecting	14150
Ġletting	14147
ĠSometimes	14147
bytes	14142
024	14142
Ġattachment	14137
ĠSanders	14135
Mal	14133
bank	14131
Ġinvestigating	14130
Ġsavings	14128
Ġcocaine	14127
Lock	14125
Ġseal	14124
Card	14122
Ġparticipating	14122
Ġconservation	14122
Ġhall	14119
ĠMassachusetts	14118
ĠABC	14118
Ġacquire	14115
ĠNode	14115
plus	14114
found	14111
Ġrandomized	14110
Ġgastro	14110
177	14107
jk	14103
Ġscrap	14102
ener	14101
Ġprovince	14100
Ġemploy	14098
)</	14097
integer	14096
Ġunnecessary	14095
ffi	14094
pgen	14092
Ġpad	14092
Demo	14090
Ġmediated	14089
ĠBrian	14089
172	14088
Ġhandler	14088
itz	14086
ega	14086
Microsoft	14086
cond	14082
Job	14082
Ġsupers	14078
ĠOrganization	14078
Ġgolf	14077
ĠMuseum	14076
price	14075
kb	14075
ĠMid	14074
ĠSyrian	14073
ĠRem	14066
Ġdys	14063
Ġadvised	14062
kan	14060
aba	14060
dw	14058
Custom	14058
ĠRon	14058
ÃŃa	14057
NM	14056
Ġtherein	14056
Ġpu	14056
Ġrepresentatives	14055
ĠGOP	14054
five	14052
ils	14051
AV	14050
Ġdim	14050
BF	14047
ĠChild	14046
sync	14045
âĤ¬	14042
mass	14042
Ġbelongs	14042
Ġfranchise	14041
Ġfelony	14037
priv	14028
uto	14027
ACT	14027
Ġmodifications	14027
Ġjustify	14024
Ir	14020
Register	14019
Ġintrinsic	14018
Ġstyles	14015
White	14014
Ġmembranes	14012
USE	14011
Ġarch	14011
Ġremarkable	14009
Ġlovely	14008
Ġplots	14007
WH	14005
Game	14005
ĠPlus	14005
Ġpassion	14004
Ġcopper	14004
Ġconditional	14001
Ġoutstanding	14000
Rest	13999
ĠFF	13994
square	13992
gb	13991
Ġcooperation	13991
job	13990
1989	13989
than	13987
required	13987
Sample	13987
Ġpur	13987
__(	13986
Ġcoating	13986
ĠFI	13984
half	13983
cost	13982
Sal	13982
standard	13981
Ġpurified	13981
ĠKong	13981
ĠKam	13981
Ġwarned	13980
ĠBor	13980
Changed	13979
uff	13978
Ġ]{}	13977
Ġelectrodes	13976
.",	13975
ĠXML	13973
ĠBad	13973
211	13972
ĠFri	13972
Ts	13971
Ġinfant	13967
gif	13966
Ġemotions	13965
Arg	13964
Ġcos	13963
uel	13961
,[	13957
Ġton	13954
Å	13953
pg	13950
HM	13949
ĠScotland	13948
Ġ).	13946
lap	13945
Ġimpaired	13945
ĠDirect	13942
216	13939
Ġlucky	13939
ĠChange	13939
0008	13936
Ġnursing	13936
ĠUnless	13935
ãģ	13933
Ġactively	13932
iers	13931
Ġdebut	13923
hom	13922
Ġconfigured	13920
Ġsta	13918
ava	13913
``	13913
dal	13911
speed	13909
Ġsecretion	13908
'-	13907
Ġbri	13903
LICENSE	13898
Ġtro	13898
ĠGS	13896
jp	13894
ĠNR	13893
shaped	13892
Bro	13891
Ġcyclo	13891
ĠCore	13890
Ġsentences	13887
Ġaccomplished	13886
ĠIrish	13885
Ġrings	13879
Ġgrip	13876
Ġradial	13874
Ġfatal	13872
ĠAvenue	13872
Ġrelate	13871
Ġpit	13868
Ġdecent	13867
Ġhex	13865
Ġwider	13864
hou	13861
Ġ$-	13861
Ġencouraged	13857
Ġoverlap	13856
Ġdiscloses	13855
oll	13853
bg	13853
phy	13852
Ġslip	13852
Ġintestinal	13852
ĠUkraine	13850
Ġolive	13848
controller	13846
+(	13844
Ġinfants	13843
Ġ-------	13838
Ġcorruption	13837
ANT	13834
Ġdisaster	13834
ĠNar	13830
ĠNatural	13829
Ġrelies	13828
ĠKevin	13828
Ġinitiated	13827
UD	13825
erb	13823
ĠRC	13821
ĠAff	13821
ĠHotel	13816
Ġmutual	13812
Ġpaste	13811
ĠTre	13808
à¤¾	13807
Ġprivilege	13805
Ġpositively	13805
mapsto	13804
Ġsecretary	13804
Ġgenerations	13804
Ġfiring	13803
Ġaudit	13803
ister	13802
Remove	13797
sym	13792
Ġreasoning	13791
Ġfunctioning	13791
Ġposting	13790
Ann	13789
Ġlaugh	13789
Ġcircles	13789
Cra	13788
Ġovers	13788
Four	13787
Ġfe	13785
Ġboss	13785
\#	13782
Ġexplored	13782
ĠSpe	13781
emo	13777
Ġbirthday	13777
Ġshipping	13776
esh	13775
displaystyle	13775
Ġdominated	13773
share	13770
Release	13769
South	13768
Edge	13768
Normal	13765
Ġuncon	13763
Ġstudio	13760
ĠStat	13758
lac	13757
Ġimportantly	13755
âĸ	13754
)})	13754
Ġstops	13754
Ġaccomplish	13750
Channel	13748
Ġcrossing	13747
AK	13746
)*-	13744
ĠBon	13742
Ġlands	13741
ĠFull	13741
sky	13740
Ġshame	13740
Ġarrow	13739
Ġpos	13730
Ġmicros	13730
sign	13728
Ġcure	13725
Ġdimensional	13724
pmatrix	13723
Ġshadow	13723
ĠIl	13721
ĠMur	13719
uss	13717
Ġpixels	13717
Ġbrothers	13713
ĠSix	13713
Ġpermits	13712
ĠPrior	13711
Engine	13710
Ġattacked	13707
rod	13706
Ġfirms	13706
Ġbathroom	13706
Ġinstitutional	13705
pres	13704
ĠManager	13702
ĠJeff	13702
ĠDT	13702
ĠHy	13699
tk	13698
Ġcontinuously	13694
Ġlesion	13692
Ġimpose	13692
Ġethical	13692
Ġcop	13690
ĠPF	13688
FOR	13687
ĠMom	13686
Ġ183	13684
cid	13676
Cap	13675
0020	13674
Ġgains	13674
159	13672
Ġupcoming	13671
role	13669
Ġflo	13669
ĠKn	13668
gd	13666
LV	13660
cyt	13659
+}	13655
Ġslope	13655
Ġent	13655
ott	13651
Ġprofits	13651
ĠSab	13651
Ġtags	13650
Ġconvinced	13650
uns	13649
aged	13649
Ġmesh	13648
Ġconflicts	13647
Ver	13646
Ġcomputational	13644
except	13642
Ġtooth	13640
Methods	13639
Binding	13638
Ġmayor	13638
JSON	13637
ĠEgypt	13637
Ġexpertise	13635
Ġannouncement	13629
Ġslide	13622
ĠNavy	13622
ĠGene	13621
wr	13618
)'	13614
Gro	13611
Ġfluctuations	13610
Ġwebsites	13607
dam	13606
God	13605
Ġresist	13602
158	13601
Ġscratch	13601
Ġdownstream	13600
Pop	13598
Ġbags	13597
izable	13595
imm	13595
goto	13594
ĠBBC	13590
Ġretained	13589
Ġgraduate	13589
Len	13588
boolean	13587
ĠLabor	13587
ĠOUT	13585
ĠMaryland	13583
ĠGovernor	13583
Ġproposition	13582
Ġpas	13582
neg	13580
Ġbis	13580
Ġburning	13578
ĠEt	13575
iling	13573
ĠKit	13573
178	13570
Ġscanning	13570
Ġethanol	13570
Ġquoted	13568
0000000000000000	13565
tti	13563
Ġfeatured	13563
ĠATP	13563
PK	13562
Screen	13561
nel	13560
ound	13557
ĠCarr	13556
chem	13554
Widget	13554
Eq	13553
ĠSEC	13551
183	13550
rog	13549
Ġdrives	13549
Ġdevelopmental	13549
Ġstrategic	13548
Ġguaranteed	13548
force	13544
Ġrelied	13542
Ġir	13539
Ġaf	13538
Ġ07	13538
Ġcontemporary	13537
Ġinhibit	13536
Ġterrorist	13531
Ġtopological	13530
Ġgathered	13530
=[	13528
Ġstimuli	13528
Ġeu	13528
Ġcytokines	13527
bor	13525
163	13524
Ġbelt	13524
regulated	13523
lay	13521
containing	13520
without	13517
Ġdatasets	13517
alis	13516
Ġincubation	13515
ĠBowl	13514
Ġconsistency	13511
ĠÎĶ	13509
Ġtit	13509
ois	13507
Ġmsg	13507
OG	13505
roll	13502
Ġediting	13501
ĠWal	13497
UB	13496
Ġmodulation	13496
Ġtobacco	13495
ĠSummer	13494
ĠRest	13493
ĠAdv	13492
risk	13488
Ġchromosome	13486
Ġ1979	13485
Ġinline	13482
;"	13481
8000	13480
Ø±	13478
Ġfate	13478
Ġcave	13478
Ġaccounting	13478
ĠEV	13478
221	13476
Ġwriters	13476
Ġaffinity	13476
Ġmacrophages	13471
both	13470
ĠWI	13470
orn	13463
ĠOregon	13463
ĠDD	13463
quality	13462
Ã	13460
Art	13460
ĠProcess	13459
oids	13458
Ġought	13457
Ġreaches	13456
Defendant	13455
Ġordering	13455
Ġcake	13455
ĠAu	13455
Ġcr	13453
yst	13451
Ġindicator	13451
Ġclothing	13450
ĠGro	13450
Ġmanifold	13449
Ġdeposit	13449
Ġconsisted	13449
Ġbackup	13446
Ġsettle	13443
Ġinnocent	13435
~-	13431
({{\	13431
Ġlacking	13431
Ġentertainment	13431
ĠTNF	13429
lower	13424
Ġoptional	13423
complete	13422
Files	13421
Ġfort	13421
Ġexpectation	13420
ĠFre	13416
pha	13415
Ġsolvent	13414
ĠClinical	13414
Ġ![	13413
Av	13411
149	13411
Ġstruggling	13409
Disc	13407
ude	13406
ĠGuide	13403
))/(	13402
ĠArch	13400
icate	13397
Ġsanctions	13397
sur	13396
ÐµÑĢ	13395
Ġstaying	13395
cht	13389
Ġgenerates	13389
iterator	13385
Account	13385
ĠFuture	13382
PIN	13380
asing	13378
Ġunexpected	13378
="/	13377
!!!	13376
ĠHong	13375
ĠGun	13375
ĠTask	13373
Ġretired	13370
ĠOil	13369
Ġtackle	13368
lands	13367
Ġtermination	13363
ĠPr	13362
Email	13361
Ġmedications	13361
ĠTs	13361
pir	13358
038	13353
Ġsubstances	13353
Ġpredictive	13353
Ġmerge	13353
Ġdear	13353
Ġenormous	13351
Ġcor	13348
pose	13345
Dan	13345
Ġhypo	13345
Ġblast	13345
ĠMuslims	13344
*}	13343
ĠPrince	13341
Ev	13340
oke	13336
Ġcorrected	13335
Ġ350	13335
micro	13334
Ġflour	13333
ĠRoss	13333
cam	13324
ĠTru	13324
Empty	13323
Ġcarries	13321
ways	13315
NK	13314
xff	13312
Ġwh	13312
Ġdistant	13308
Ġge	13305
Player	13304
1985	13304
Ġreplacing	13301
outs	13299
War	13299
ivo	13298
VERSION	13298
Effect	13298
Ġolig	13298
Ġappend	13296
HTML	13295
yer	13293
pto	13292
vy	13288
Ġpublish	13287
ĠExecutive	13287
Ġspinal	13286
Ġdreams	13281
Ġderive	13281
utf	13279
Ġ170	13279
(!	13273
ĠScientific	13272
Ġresort	13271
Ġplacebo	13264
Ġservers	13262
ĠKIND	13262
LF	13261
ĠClark	13261
Ġtap	13260
URI	13257
cloud	13256
Â§	13254
AH	13254
OB	13253
Ġpainful	13253
ì	13252
ĠNeuro	13252
oqu	13250
WT	13250
Ġfragments	13250
Ġcollision	13249
Ġreporters	13248
xl	13247
mers	13247
Ġ06	13243
ĠÐº	13242
sig	13241
ĠUbuntu	13240
ĠRS	13238
hit	13236
ĠArea	13231
Ġscenarios	13230
Ġcontributing	13228
ĠHat	13227
Ġnurse	13226
Ġentropy	13226
Pool	13225
&#	13223
Ġinitiative	13223
Ġimpression	13217
Single	13216
ĠHillary	13216
aha	13213
037	13212
fy	13211
Ġchlor	13208
night	13206
Ġgastric	13206
1984	13205
ĠCommand	13203
very	13198
ĠHollywood	13198
Ġshifts	13195
ĠStephen	13195
)}{\	13194
Ġships	13194
Ġnie	13192
\(	13187
Ġsweat	13187
shared	13185
rect	13184
Ġstraightforward	13181
ĠHarry	13180
sat	13179
sC	13179
Ġexceptions	13179
Ġreject	13178
Ġinhibitory	13178
kins	13176
Ġxml	13174
Ġtendency	13173
Ġpossibilities	13171
David	13167
)&	13164
032	13163
Ġhip	13162
ĠBri	13162
Ġbroader	13160
Ġnucle	13158
ĠOb	13158
Api	13157
Ġpoorly	13157
Ġschemes	13156
Ġguilt	13156
Ġ1977	13150
ĠCommon	13149
Ġhired	13148
Ġhero	13148
Hol	13147
ĠCla	13144
Ġawait	13142
Ġ$${\	13141
ield	13138
Ġlicensed	13137
Ġbegun	13137
Ġallele	13137
sor	13135
Ġfitted	13133
Ġsyntax	13132
ĠTal	13126
Ġspokesman	13125
Ġpresenting	13125
blog	13122
Ġpig	13120
READ	13117
Ġlawyers	13116
Obj	13115
Ġchairman	13113
ĠMil	13113
ĠLas	13112
Ġneighbors	13111
Ġhire	13111
ĠClick	13111
Ġ202	13111
Ġthi	13109
Ġdetecting	13108
Directory	13107
may	13104
ĠCredit	13104
amino	13102
Ok	13102
Ġpa	13100
Ġnoting	13099
Ġdeck	13099
Ġmile	13096
167	13094
Platform	13093
Ġinvest	13093
Ġana	13092
Ġ138	13092
iar	13091
Ġneuronal	13091
Ġencountered	13091
ĠUpdate	13091
valid	13085
ONE	13085
ige	13084
Ġanalysed	13084
minute	13083
ĠAlabama	13083
VO	13082
Ġwanting	13081
Ġcrypto	13081
ĠLLC	13081
ĠFP	13081
yy	13080
Ġcurvature	13079
060	13078
0006	13076
ution	13075
returns	13075
Ġinvasive	13075
Ġconc	13075
Pal	13072
Ġequity	13070
ĠMiami	13070
ĠOklahoma	13069
ĠARE	13069
Cat	13068
Ġ137	13067
osi	13062
depth	13062
Ġfishing	13059
ĠPhiladelphia	13059
ĠNothing	13058
Ġindividually	13057
ĊĉĊ	13057
arc	13054
Ġmanagers	13054
Ġste	13051
Ġdebtor	13051
Ġwise	13050
IST	13046
Ġoccupied	13044
Therefore	13042
ĠWay	13042
Ġlogin	13041
Ġmeals	13036
Ġinconsistent	13036
Ġdiagonal	13036
Ġcru	13035
ologic	13032
Package	13032
027	13032
Ġkg	13030
Ġstolen	13029
ational	13026
}))	13024
Ġhearts	13024
Ñģ	13023
1988	13021
ĠSimon	13021
ĠOk	13020
react	13019
berry	13019
Ġinterfere	13019
Ġchemicals	13018
ĠCells	13018
ĠBMI	13014
Ġdelicious	13013
shift	13012
Ġassociate	13012
gc	13010
Ġexcuse	13009
ĉĉĉĉ	13009
SEC	13007
scan	13004
Ġworship	13001
Ġgenotype	12999
Ġaligned	12999
simple	12998
Ġroutes	12998
Ġ145	12995
yg	12994
COMP	12994
Ġsphere	12994
Ġ1978	12991
Ġspecimens	12989
ĠSU	12988
Ġaffairs	12987
[*	12986
224	12985
206	12983
ĠCSS	12983
execute	12980
ĠGeo	12979
AY	12978
Vo	12977
ĠBox	12977
ometer	12976
^{*}	12975
Pur	12974
Ġhomogeneous	12974
Ġesp	12974
Ġshr	12973
Ġcro	12973
Ġ182	12973
Ġinspection	12971
ection	12967
^{+	12966
Ġsurrounded	12966
1987	12963
Ġfever	12963
ĠPoly	12962
Pin	12961
Ġpositioned	12961
ĠDiego	12960
Ġurine	12956
Ġalien	12956
Ġformulation	12954
Ġdont	12954
ĠROS	12954
ĠMU	12954
ĠĠĠĠĠĊĠ	12954
come	12950
ï¼ļ	12949
ĊĊĉĉĉĉ	12949
Ġenforce	12946
Ep	12944
Ġcitizen	12943
Ġwaters	12942
:</	12941
ancy	12937
Ġraises	12934
Ġlegislature	12934
cross	12933
iles	12932
Ġoperational	12932
169	12931
Ġlocalized	12931
Ġarises	12930
251	12929
270	12928
iga	12926
oph	12924
ĠEN	12924
single	12922
catch	12922
ĠChar	12921
hole	12917
ĠJavaScript	12917
Ġaddressing	12916
Ġbeings	12915
ĠAz	12915
ĠBureau	12914
vent	12913
distance	12911
Ġprostate	12911
Ġnegotiations	12910
springframework	12909
dent	12909
LR	12909
Ġpromotion	12906
Ġproto	12904
ĠSimilar	12904
ĠForest	12904
Trump	12901
TX	12897
ĠJun	12896
meter	12895
Those	12895
Matrix	12894
222	12894
ĠMeta	12894
>'	12893
adv	12889
Ġorth	12889
tid	12888
ĠMethod	12888
LINE	12885
Ġhandled	12885
ĠRP	12884
ĠInvention	12884
Ġdistribute	12882
NH	12879
Kind	12879
ĠAnt	12879
LU	12877
ĠLabour	12875
Ġfur	12874
Ġcompiler	12873
dst	12871
bel	12871
Ġlets	12871
Ġgrants	12871
ĠTry	12868
Ġallocation	12864
ĠMusic	12864
pace	12862
flag	12862
bie	12862
âĶĢâĶĢâĶĢâĶĢ	12858
ises	12858
Ġhat	12857
Ġgerm	12857
![](	12854
ĠAle	12850
Ġcorporations	12849
username	12848
Tom	12847
ĠNight	12846
track	12845
STR	12845
ĠÂ«	12845
Ġsocket	12841
Evaluate	12838
Ġorgans	12838
Pointer	12837
ĠCapital	12837
ĠTur	12835
ĠCamp	12833
ĠFive	12829
))/	12827
Ġconvenience	12827
ulator	12825
Ġdesk	12825
paper	12824
Ġintensive	12824
ĠSeattle	12824
ĠLanguage	12824
iest	12823
ego	12822
}&	12821
ues	12821
Ġproc	12820
Chi	12817
Ap	12812
ibilities	12811
calc	12809
Ġclubs	12809
Ġverified	12806
Ġrolling	12805
âĢ¦.	12804
Ġconsiderations	12804
ĠMoon	12804
âĢ©	12803
\!	12802
Ġss	12800
Ġski	12793
Ġplug	12793
odi	12791
Ġlips	12791
Ġ181	12790
\|_{	12787
Ġfibr	12787
}}^{\	12785
Ġcarriers	12784
Ġsheets	12782
}})$	12779
Ġshapes	12778
Ġhighlighted	12778
Ġblot	12776
ogen	12773
Black	12773
301	12773
Temp	12771
ppat	12768
omi	12768
ĠÎ¼m	12763
Ġdrain	12761
hidden	12760
Ġoccasionally	12759
Ġinsights	12759
Ġtransient	12758
DEBUG	12754
ĠDun	12751
Ġexpanding	12749
Ġtrim	12748
Ġmac	12748
ĠDam	12747
cker	12746
ĠÎ¼M	12745
Ġbarriers	12745
Ġengaging	12744
ival	12742
Ġsimulated	12740
ĠDP	12737
Ġflexibility	12735
Ġcraft	12731
ĠEdward	12731
Ġ(<	12731
ĠBh	12727
ined	12725
Ġyours	12721
parameter	12720
ĠAh	12719
ear	12716
AST	12716
Ġdistress	12716
player	12715
Ġpie	12715
ĠWS	12714
Ġdeb	12713
Ġbreathing	12711
Ġdistricts	12710
Ġtender	12709
vd	12708
Health	12707
080	12707
Ġsuggestion	12707
ĠMotion	12707
Ġprescription	12705
ĠEditor	12705
FONT	12704
Ġdig	12704
Ġapproached	12704
ĊĉĉĠĠĠ	12702
nos	12700
NL	12700
Ġtournament	12700
Ġundefined	12699
ĠCAR	12699
Ġfavour	12697
ĠHaving	12697
ĠâĤ¬	12695
Ġskip	12692
Ġremarks	12691
worth	12689
Ġneedle	12689
Ġlit	12689
Ġhub	12689
Ġaccommodate	12689
Queue	12688
Ġur	12688
bullet	12686
Ġdishes	12686
identifier	12684
Fla	12684
Ġincredibly	12684
ĠPrice	12684
Ġ$.	12684
lag	12683
ĠFootball	12681
Ġvolunteers	12680
Null	12679
Ġmonitored	12678
SY	12677
clock	12676
Â¤	12675
brief	12673
===========	12671
eria	12670
Met	12670
Ġremedy	12670
Ġangles	12670
*\<	12667
Ġimpacts	12667
ĠPV	12661
Ġdrag	12660
ases	12658
Ġtrap	12656
ĠForeign	12656
abc	12652
à¬	12651
Ġtongue	12649
Ġterror	12648
ĠEuro	12647
Ġpostoperative	12646
Ġsleeping	12645
Ġradi	12645
Great	12643
âĦ¢	12641
Ġbro	12641
ĠJon	12641
Ġsolving	12640
ĠStone	12635
Ġtitles	12634
cil	12631
/)	12631
tests	12630
}$)	12628
Double	12626
Ġpat	12624
SHA	12623
>>>	12623
izes	12621
Ð½Ð¾	12619
Ġhetero	12619
Ġdying	12619
åľ¨	12618
Ġgarlic	12618
tip	12615
209	12614
ĠSil	12613
ece	12612
Ġdisposed	12612
Ġinference	12611
delim	12609
North	12609
215	12607
Ġabandoned	12607
mos	12606
Ġts	12606
uid	12605
234	12605
oro	12604
Ġjoke	12602
ĠÃħ	12601
Ġarrays	12601
Ġimply	12599
Ġextracts	12599
fm	12598
ERS	12597
Ġconstructor	12597
ĠMAP	12594
Ġpurely	12593
Ġfounder	12592
Ġconversations	12592
ĠStudent	12591
ĠChannel	12591
[(	12589
ÃĲÂµ	12587
Ġslice	12587
Ġbalanced	12585
Ġcoin	12583
Ġadhesion	12583
ĠUs	12582
ĠNH	12582
223	12581
Ġspoken	12579
Ġsuppressed	12578
cong	12576
420	12575
Ġlemma	12574
ĠRome	12574
Sam	12570
Ġfilename	12566
into	12563
Ġligand	12563
Ġlemon	12563
ĠMol	12561
Ġhitting	12560
ÂłÂłÂłÂłÂłÂłÂłÂł	12558
Ġpod	12553
Ġ1975	12553
Ġcoat	12549
Try	12548
vp	12543
Users	12543
Mod	12542
Ġble	12542
ĠÂ»	12541
Further	12540
035	12540
variant	12539
STA	12537
ĠOxford	12534
Ġapproximate	12529
Ġfocuses	12528
Ġinnovation	12527
hex	12525
Ġvalidate	12524
URE	12521
ĠJane	12520
Ġsixth	12517
Ġke	12517
Ġpulling	12515
Ġpleased	12515
Ġmandatory	12513
Ġcontroversy	12513
Ġupgrade	12511
Ġproceeds	12511
___	12509
$;	12508
Ġeff	12507
alg	12506
IVE	12499
Ġpromoted	12499
Ġdozen	12498
Ġconsiderably	12498
ocytes	12496
Ġtransitions	12496
Ġnarrative	12496
ĠHeart	12496
iu	12494
udi	12493
Ġaccordingly	12493
Ġ139	12493
ãģ¯	12490
Ġdeleted	12490
plan	12489
Ġanalytical	12489
Ġarguing	12487
cpu	12485
Ġdisplacement	12484
bh	12483
Ġ'/	12480
Send	12476
ĠSmall	12476
Term	12473
Ġexhibits	12472
Ġmorphology	12471
Ġexplaining	12471
ĠLeft	12470
ĠJP	12470
Ġtranscripts	12469
Ġintact	12469
Ġconcur	12469
Short	12468
ĠHT	12468
yi	12467
Ġferr	12467
}$-	12466
ĠDisney	12466
ston	12461
ĠFactor	12461
article	12459
unk	12458
platform	12458
theme	12456
take	12454
ĠHard	12454
Ġec	12452
Ġmobility	12449
eto	12446
isc	12444
ĠÎ	12440
264	12438
Ġindirect	12438
ĠTheory	12438
logo	12435
Ġdeclaration	12435
mond	12433
cluster	12432
]+	12432
333	12431
ĠMessage	12431
ĠVisual	12429
Mat	12426
Ġcompromise	12421
ĠMissouri	12419
Ġ220	12419
large	12416
Ġconfirmation	12415
="../	12414
'"	12412
ĠOverall	12411
ĠNBA	12411
Ġanonymous	12408
Ġadoption	12408
233	12405
Ġencoded	12402
Ġmanufacture	12400
pay	12399
Invalid	12398
Ġties	12398
Ġevaluating	12393
Ġvolumes	12390
Ġconducting	12389
AU	12387
Ġplacing	12387
Ġhanging	12386
Ġ240	12386
ĠSign	12385
3000	12383
resp	12380
Summary	12378
ĠOnline	12378
ĠKeep	12378
Ġphones	12376
Ġba	12376
chr	12375
cale	12374
ĠVM	12370
Ġreportedly	12369
,âĢĻ	12365
parallel	12364
Ġasserted	12363
editor	12362
Ġexclude	12361
Ġcannabis	12361
330	12359
Ġrelaxation	12359
Ġrecruitment	12359
čĊĠĠĠĠĠ	12356
Ġ360	12354
Ãº	12353
Copy	12351
Ġenemies	12350
Subject	12349
Ġchips	12346
Ġatt	12346
Ġreserve	12344
Ġprayer	12343
rent	12342
ĠMot	12342
Ġreviewing	12341
ĠRapids	12341
TIME	12338
Ġballs	12338
bell	12337
Ġofficially	12337
success	12333
Mask	12333
Policy	12330
====	12328
))$	12328
fen	12325
Ġblockchain	12325
extern	12323
Ġpink	12323
ĠSurvey	12323
Miss	12322
Ġimplementing	12321
Ġlegally	12320
XC	12317
Ġhormone	12317
Ala	12316
>;	12311
gie	12310
Ġsustainable	12309
Ġimplements	12306
ĊĉĠĠ	12305
iner	12304
thr	12302
Ġocean	12302
ĠRelated	12301
Ġsubsection	12300
Ġvaries	12299
PRE	12295
Watch	12294
Ġcounting	12293
Ġbare	12292
Ġriding	12291
equals	12290
commit	12290
ERR	12289
Ġthrew	12288
Ġoutdoor	12287
Names	12286
ĠSquare	12286
Ã¡Âº	12285
Ġmas	12283
Ġtranslate	12279
Ġfetch	12278
ners	12275
ĠâĢĻ	12273
kel	12272
Ġ1976	12269
norm	12268
ĠWolf	12266
}^*	12264
ĠYouTube	12263
typename	12260
ulating	12259
dz	12259
oring	12258
Ġinst	12257
Ġspark	12254
bits	12253
engine	12252
Contact	12252
ĠWord	12252
Ġsubt	12248
wx	12246
>()	12245
ĠTw	12244
ĠFrancis	12243
Ġtraveling	12241
wire	12236
ĠThrough	12236
Ġpollution	12234
Ġmethodology	12234
WI	12233
Standard	12232
Ġgen	12231
tech	12230
Ġgamma	12227
Ġconstitutes	12224
xsl	12221
Ġanchor	12221
ĠEver	12221
city	12219
Ġshower	12218
Ġmetastasis	12218
PORT	12216
Ġproxy	12214
Ġdenoted	12213
ĠMont	12213
Ġnuclei	12210
Ġflip	12210
Stack	12209
Ġtears	12208
Ġlessons	12206
ĠDin	12206
ĉĊ	12202
expl	12198
Ġtar	12195
Ġshifted	12195
anc	12194
Åį	12193
Scale	12193
ĠMRI	12193
Ġventure	12189
ĠGolden	12189
Ġpred	12188
Ġbiology	12185
ĠSoc	12183
Member	12181
Ġnons	12180
ĠOC	12179
Light	12177
Ġlesser	12177
Ġinnovative	12177
ĠPalestinian	12176
were	12174
Sen	12173
Ġren	12173
Ġtear	12172
Ġreb	12171
0011	12170
Ġappearing	12168
Ġsusceptibility	12166
Ġsubstrates	12166
Ġraces	12165
pub	12164
ots	12164
exists	12164
Ġfuck	12164
ĠSearch	12163
Ġcalendar	12162
Ġcurious	12160
NB	12159
ITY	12159
Ġdrops	12158
Ġreproduce	12157
260	12155
Db	12154
.[]{	12154
Year	12153
Ġimmigrants	12151
ĠGy	12150
Ġwages	12148
ĠLam	12148
twitter	12147
Ġlengths	12147
Ġcups	12147
Sim	12146
Ġwheat	12146
Ġextracellular	12145
formula	12144
Ġpole	12144
ĠBUT	12144
uma	12142
proto	12136
Ġorganisms	12136
Ġbasal	12136
Ġviable	12134
ĠHand	12133
Ġattract	12132
)/((-	12129
Ġstepped	12128
Ġrally	12128
Ġprobation	12126
Ġobjectives	12126
Ġcancel	12125
ĠPin	12124
ume	12123
Ġoxidation	12122
Storage	12121
Ġcaptain	12120
Ġappellate	12120
â	12118
173	12118
Ġram	12118
Court	12117
Ġ700	12117
Transform	12116
Pol	12116
Ġspeaker	12116
ĠWithin	12111
Ġdramatically	12110
Ġdiscussing	12110
Ġ155	12110
perm	12109
[:	12109
Ġabilities	12109
Ġfallen	12106
Ġconfigurations	12106
Off	12105
čĊĠĠĠĠĠĠĠĠĠ	12105
standing	12104
VM	12104
XX	12102
Support	12102
Ġinfluenza	12102
Ġ204	12101
Ġsubtle	12100
>"	12099
ĠMill	12098
mouse	12097
Program	12096
Ġmerits	12095
Ġbelonging	12095
Express	12093
Ġdevelopments	12093
rol	12092
Ġupload	12091
Ġinvestigators	12090
rian	12089
Ð¿	12088
ims	12088
Ġvacation	12088
Ġ157	12088
Ġpra	12087
Ġcyto	12085
ĠrÃ©	12083
Ġhighlights	12082
Selected	12080
Ġcharging	12078
Ġwithdrawal	12076
avi	12075
ĠDallas	12075
vor	12074
hydro	12074
RL	12073
Ġprefix	12073
Ġasserts	12069
Information	12068
Ġcone	12068
Ġwrap	12067
Following	12064
Ġgather	12064
Ġsustain	12062
Ġtransverse	12061
ĠReturns	12058
Ġpose	12057
ĠCy	12057
}),	12056
Ġwisdom	12054
Ð¾Ð²	12053
Ġ",	12051
Ġredirect	12050
Ġnecessity	12050
ĠFarm	12049
Ġ});	12048
Ġparams	12048
mission	12045
Ġfluorescent	12043
Sn	12041
>::	12041
TY	12040
Ġrobbery	12039
Ġgrab	12039
Ġconvex	12039
1980	12038
Ġscroll	12037
Ġexcitation	12036
ĠFilm	12035
Match	12033
Ġdialogue	12033
029	12032
ĠBerlin	12031
Ġattending	12030
program	12029
Ġhumanity	12029
yb	12028
rans	12028
Ġnutrition	12028
ĠPal	12027
subject	12023
Ġ179	12022
sci	12020
pet	12017
ĠNotice	12015
LIB	12014
Ġdefence	12014
hc	12012
cad	12012
Ġmount	12012
Ġbp	12011
Ġoperates	12010
Ġmodest	12010
Ġsingular	12009
ĠRules	12008
metry	12005
,\,	12004
\+	12002
kov	12000
Ġsafely	12000
ĠFinancial	11999
erge	11998
_;	11997
Ã©t	11995
Ã¡n	11995
Sat	11994
Ġprevents	11994
reset	11992
ored	11992
ĠSingapore	11992
iant	11991
ĠUSE	11991
ĠBoy	11990
pattern	11989
dro	11986
Ġlighting	11984
Ġaffordable	11984
Ġshake	11983
ĠHelp	11981
Ġproducer	11979
Ġfucking	11979
ĊĉĠĠĠĠĠ	11979
ĠOff	11977
ĠFunction	11977
Dim	11976
Ġcredibility	11976
Ġstopping	11975
Ġassertion	11975
Ġ151	11975
Ġdonors	11972
Ġprojected	11971
Ġfreely	11970
Ġalterations	11970
Ġadaptation	11969
extra	11968
Ġhanded	11967
ili	11965
Ġhorror	11965
Ġmate	11964
Ġalternate	11964
ago	11962
FROM	11960
ĠTennessee	11959
Ġ175	11959
252	11957
Ġunity	11957
Ġunfair	11957
linked	11956
Ġti	11953
mil	11952
Ġpassive	11952
Ġpacked	11951
PAR	11950
Ġincorrect	11950
ĠAlexander	11949
Ġutilize	11948
CON	11944
ĠWu	11944
1983	11943
ĠBlock	11941
ĠProtection	11940
ĠStore	11937
ĠDev	11935
Ġcatalyst	11934
ĠSelect	11932
0007	11931
Ġgolden	11931
Ġbother	11931
Move	11929
Ġcombining	11928
Ze	11926
Ġbow	11926
Ġrect	11925
Ġnurses	11925
053	11923
ĠWo	11923
Ġmeets	11921
vee	11920
Ġmeth	11917
Ġcameras	11915
Ġamplification	11914
ĠTony	11913
ĠChampionship	11912
ĠMorgan	11911
Ġtriggered	11910
Ġathletes	11909
Ġjam	11907
ĠOm	11907
Ġxmlns	11906
Ġ"%	11904
ĠMexican	11903
National	11901
Ġinherent	11901
ĠFinal	11900
Âĩ	11899
Ġine	11899
miR	11898
Ġremand	11898
Ġ143	11898
ital	11897
Ġretention	11897
=&	11896
Ġdeficit	11895
208	11894
Ġdensities	11894
Ber	11891
1982	11891
Hon	11890
ĠPURPOSE	11890
---|---|---	11887
since	11885
)~	11885
Ġinsertion	11884
Ġineffective	11882
Ġ142	11878
Ġarbitration	11875
ĠSelf	11873
Ġpri	11872
Security	11870
tags	11869
Ġâ	11869
rows	11868
Argument	11868
Ġinitiation	11868
hra	11866
ĠAy	11865
Ġinvestments	11864
Flow	11863
ĠWalker	11863
Ġreass	11860
Ùħ	11859
ĠMY	11857
>();	11856
Ġoccasions	11856
Ġ---	11856
once	11855
ively	11855
Ġpromises	11854
lass	11853
jun	11853
Ġclimb	11852
UTF	11851
Power	11850
Ġinfer	11848
Ġprotests	11847
Ġartists	11847
Ġrobot	11846
ĠPremier	11846
Simple	11844
401	11841
Ġ\*	11839
Ġfence	11838
events	11837
ĠOT	11835
Mean	11832
036	11831
å¤	11830
Ġpub	11830
Doc	11829
Ġinspiration	11829
ĠCulture	11829
DU	11826
ĠKen	11826
allow	11825
Ġdemocratic	11825
LM	11823
Ġdamn	11823
ĠHal	11823
ibi	11820
Ġë	11818
ĠWould	11818
ĠRelease	11816
ĠLive	11814
Ġdivorce	11813
ĠGall	11813
tel	11812
tax	11812
EXPECT	11811
Ġmistakes	11810
Book	11809
AGE	11809
ĠSG	11809
Ġ?>	11809
present	11807
228	11806
;;	11805
Ġjudges	11805
ÙĪ	11804
Ġye	11804
pref	11801
ĠAuthority	11800
jc	11799
Spe	11799
bec	11798
Paul	11794
Ġgall	11793
Place	11791
Bra	11790
Ġcoil	11790
Ġads	11789
Ġinsured	11787
ĠDark	11787
Ġ210	11787
nil	11786
)",	11786
Green	11785
ÃĲÂµÃĳ	11783
Ġtestify	11783
ĠImmun	11781
Ġmotivated	11778
Eu	11774
ectomy	11772
Ġbaking	11772
Ġensuring	11771
manager	11770
Ġhabit	11769
Ġapt	11768
Ġdatabases	11765
race	11764
props	11764
Rate	11764
Ġactivists	11762
Util	11761
ÙĨ	11758
Ġfacial	11757
Func	11756
Ġsav	11756
convert	11752
ĠDefault	11752
ĠAnal	11751
counter	11750
Ġdated	11750
Ġabundant	11750
Ġ153	11749
ĠCome	11748
umb	11744
ĠStudio	11744
Ġearnings	11742
Ġboards	11741
tun	11739
Ġamongst	11738
itr	11736
entity	11736
)$-	11736
Ġspray	11735
EY	11734
CHECK	11734
ĠRD	11734
Texture	11733
Ang	11733
ĠArabia	11730
cause	11729
Ġwrit	11729
Ġ165	11728
ABLE	11727
Ġdeparture	11727
Ġdowntown	11726
Ġ-------------	11726
Ġprognosis	11725
continue	11724
---|---|---|---|	11724
Ġthrowing	11723
ĠVice	11723
Ġpremises	11722
ĠExpression	11722
à´	11721
ĠMeanwhile	11721
ĠSarah	11720
hb	11716
ump	11715
Ġhist	11715
ĠVE	11715
Ġtherapies	11714
ĠHoward	11714
ifndef	11713
ĠHay	11713
tb	11708
caps	11708
Ġ})	11706
Ġcompile	11706
ĠWis	11706
=\"	11705
Anti	11704
icular	11703
variable	11702
Gene	11702
got	11701
fx	11701
panel	11700
^](#	11700
Ġshops	11699
Google	11693
245	11692
oso	11691
ĠMother	11690
ĠJason	11690
inity	11688
Mer	11688
ĠĠĠĠĠĠĠĠĠĠĠĠĠĠĊĠ	11688
Ġreactive	11687
hold	11686
Ġdeployment	11686
Ġlos	11685
lect	11683
Ġscrew	11683
Ġwo	11679
Ġcats	11678
Plugin	11677
KO	11676
Parser	11675
ĠTreatment	11675
Ġ,\	11675
expr	11673
Ġchopped	11673
Ġindustries	11672
Ġapi	11670
ĠNM	11668
cas	11666
ĠVar	11665
Ġshed	11664
Ġrum	11664
ĠCro	11664
Ġspeaks	11662
ĠMas	11661
rac	11660
actor	11658
Ġuniversities	11658
Ġrush	11656
Ġrespons	11656
ÙĬ	11655
sph	11655
Bundle	11654
$:	11654
Ġom	11654
Ġlag	11654
Ġjustified	11654
Ġgrey	11645
Ġsoup	11643
Ġmanufacturers	11643
Acc	11639
Ġcurl	11639
Ġzip	11635
Ġmusical	11634
Ġantibiotics	11634
flo	11633
090	11633
Ġpassenger	11633
Ġrefuse	11630
}{(	11629
})$.	11627
zan	11627
ĠCruz	11627
writer	11626
Ġfloating	11626
aj	11625
:[	11624
ĠCut	11623
ogra	11621
ilo	11621
DH	11619
ĠCou	11619
ĠLater	11618
ĠCOURT	11616
fat	11614
Ġemails	11614
ĠNK	11614
ĠAnna	11614
Ġarts	11612
ĠBuilding	11609
Far	11608
ĠIranian	11608
ender	11607
Ġaveraged	11607
Ġfought	11606
Ġempirical	11606
ĠSenator	11606
Should	11605
Ġveteran	11604
ĠBee	11604
cci	11603
ĠLD	11603
Render	11602
Ġpackaging	11601
Ġmainstream	11601
Ġgro	11601
ĠVen	11601
omic	11600
Ġtower	11600
ĠMart	11600
Ġgang	11599
ando	11598
VS	11598
BIT	11598
Ġavoided	11597
Us	11596
ĠcDNA	11595
ĠÃĹÂ	11594
Ġdeserve	11594
ĠDick	11593
ĠPARTICULAR	11591
BASE	11589
dfrac	11588
Ġobligations	11588
Ġmicroscope	11588
Ġcausal	11588
general	11586
rand	11584
)+\	11584
ĠFat	11584
ĠCom	11584
ĠBU	11584
Ġfruits	11582
ĠSK	11582
PV	11577
Ġdismissal	11577
ãģ§	11576
Ġratings	11576
Ġconvention	11576
Ġalarm	11574
Ġthroat	11573
Ġexperiencing	11573
Ġcaution	11569
ĠBit	11567
:'	11562
jet	11561
download	11559
[-	11559
eral	11558
Ġ141	11558
ĠMayor	11556
Ġsupplement	11555
Ġter	11552
ĠCHECK	11552
Ġmarginal	11550
ĠCaptain	11549
ĠCOVID	11549
STATE	11547
obs	11546
Ġhorizon	11546
forward	11545
===============	11545
Internal	11544
Ġsteep	11544
team	11541
Ġpreserved	11541
ĠMountain	11540
Ġadvances	11539
207	11538
osome	11537
Ġbrilliant	11536
ĠMount	11536
Ġsnap	11535
Ġalternatives	11535
Ġintelligent	11532
Inf	11531
Ġagricultural	11531
ĠUSB	11531
Ġadventure	11529
ĠDutch	11529
Bean	11528
Ġlabour	11526
submit	11525
environment	11524
Ġshirt	11523
Ġhappiness	11523
Memory	11522
Ec	11522
Ġ1950	11521
opic	11520
312	11518
NY	11516
batch	11513
ĠNL	11512
Ġrubber	11511
Ġcaps	11509
Ġtrait	11507
Ġgranting	11507
Ġexploration	11507
ĠRemove	11507
ĠLegend	11507
inst	11504
Ġsocio	11504
Ġsearched	11504
Scope	11503
]-[@	11499
ĠWales	11499
Ġregret	11497
Ġmetrics	11495
Ġeastern	11494
Ġparam	11493
kill	11492
ĠAuthor	11491
Cur	11490
Ġvoluntary	11488
Ġ....	11487
Ã´	11485
Ġexceed	11484
Ġcontamination	11483
Comment	11480
Ġevolutionary	11480
Ġbrains	11479
Ġsusceptible	11477
Ġsubjective	11477
loss	11474
ĠElizabeth	11473
0009	11471
EST	11469
unique	11466
ĠBru	11466
Ġresidue	11464
Though	11463
ĠâĢĭ	11463
Ġrevised	11460
Ġ256	11460
750	11457
Ġclinically	11457
ifer	11455
Ġclarify	11455
iac	11454
Ġdistal	11454
wer	11453
Ġswap	11452
Ġdiabetic	11452
))?	11451
Ġshelter	11451
Ġloads	11451
iot	11449
ller	11448
HB	11448
Ġselecting	11448
Ġdrift	11447
geo	11440
mot	11439
ĠDouble	11437
thy	11436
Ġbell	11436
quet	11435
051	11435
Ġtumour	11434
Pass	11433
rx	11432
Ġviability	11432
IAL	11430
Ġprimers	11430
ĠGB	11430
-,	11429
Ġ146	11429
ĠDeb	11425
Ġstationary	11424
Ġyard	11423
Ġped	11423
*),	11422
Ġupstream	11421
trace	11420
Ġpride	11420
ÂłÂł	11419
Ġillustrate	11419
ĠCU	11419
Ġ152	11419
quoting	11417
Ġ178	11417
Keep	11416
same	11413
ĠBesides	11413
Ġvon	11412
Ġdisclose	11411
Tre	11409
own	11407
eld	11406
Ġranked	11406
aga	11405
218	11403
ĠArts	11403
Ġket	11401
Ġstat	11400
Ġfork	11400
Ġconsumed	11400
Ġexponential	11398
Py	11397
Ġintend	11397
uda	11396
ĠExpress	11396
Ġ1973	11395
ĠSenior	11394
Ġcounted	11393
Ġtre	11391
Ġrecipes	11389
ĠFD	11388
Ġpremium	11387
Ġrelevance	11386
ĠAve	11384
hop	11381
}$]{}	11380
Ġbot	11380
Ġtranscriptional	11379
bert	11378
BN	11378
Ġdesktop	11375
&=&	11374
Was	11371
Ġthereafter	11371
yme	11369
basic	11369
Ġwaiver	11369
ĠIntel	11369
USA	11368
Ġpeaceful	11368
ĠHart	11365
ĠThr	11364
owner	11360
gram	11358
ĠKin	11357
ĠAma	11357
)\\	11356
Ġfigured	11356
ĠMis	11356
lex	11355
Ġthumb	11353
Ġouts	11352
Ġendogenous	11352
ĠContent	11352
Ġlu	11351
ards	11349
Cast	11347
their	11346
login	11345
Ġphosphate	11342
ĠTG	11340
ĠEvent	11339
olin	11338
Ġpredetermined	11338
Ġcenturies	11338
ĠUtah	11338
Ġintroducing	11336
Ġlake	11335
ĠVietnam	11335
ä»	11334
Ġsucceed	11332
FM	11331
ĠShort	11331
cca	11329
0015	11327
Sol	11325
Ġ$|\	11325
Ġincomplete	11323
cks	11322
ĠReturn	11322
Low	11321
Ġpharmac	11319
Ġstereo	11318
ĠJay	11318
Ġbeef	11317
parser	11316
asc	11316
Ġtickets	11316
Ġabsorb	11315
ĠLM	11315
çĶ¨	11312
Ġyo	11312
Ġprolonged	11312
Ġfetal	11312
iving	11311
ĠRequest	11309
044	11307
ĠBuck	11307
osed	11306
Ġfoo	11306
arian	11305
Ġfurniture	11305
Ġappellants	11304
Ġreception	11302
Related	11299
ache	11296
Args	11296
Ġincidents	11295
Ġblade	11294
Ġcrossed	11293
Ġprimer	11290
ĠMars	11290
*:	11288
Ġaffidavit	11287
ĠMos	11287
SG	11285
)->	11284
ush	11282
Ġorbital	11282
pri	11276
Ġinfectious	11274
ĠAE	11274
oting	11273
ĠMari	11272
ience	11271
pec	11270
Ġclearance	11270
opa	11269
5000	11269
ĠKy	11269
Ġpanic	11268
Ġprospect	11266
ĠDuke	11266
=$	11262
Descriptor	11261
ĠLouisiana	11259
Ġ1972	11259
Ġseemingly	11256
Ġventricular	11254
ĠUpon	11254
\{\	11253
Ġelastic	11253
odot	11252
ĠTurn	11252
itt	11247
ĠDem	11247
Ġ-----------	11245
fileID	11244
Ġexhaust	11243
Ġcorrections	11243
ĠAlt	11241
operation	11240
ĠRich	11240
far	11238
Ġacc	11237
Ġhorses	11236
Obv	11235
Ġevolved	11235
ĠCurrent	11235
iw	11234
MF	11234
Ġsheep	11232
ĠWHO	11230
iza	11229
Desc	11228
Ġrepository	11228
ĠRy	11222
Ġcertified	11221
Ve	11220
Selection	11219
Schema	11218
)-\	11218
Ġrecommendation	11216
Ġlocus	11215
Ġhalo	11215
Ġbrands	11212
arXiv	11211
Ġprof	11210
ĠAffairs	11210
Rad	11209
JP	11209
Ġabdominal	11209
,*	11205
ĠFITNESS	11205
Ċĉĉĉĉĉĉĉĉ	11204
Best	11203
Ġsing	11202
Ġ225	11200
erm	11198
WR	11197
Ġundergoing	11195
Ġgravitational	11195
independent	11194
à²	11193
Ġemployers	11193
Geo	11191
Ġ149	11191
ql	11190
Mock	11188
Ġdynamical	11187
ĠSav	11187
Ġrotating	11185
Ġdesert	11185
Ġber	11184
ĠTr	11183
mv	11182
Msg	11182
Ġawards	11182
ĠTea	11180
ĠFan	11180
Ġ".	11178
Java	11177
Ġorthogonal	11177
President	11176
Ġtwelve	11174
raise	11172
design	11171
XML	11171
Ġdemonstrating	11171
ĠNASA	11171
Ġrigid	11170
ĠOA	11170
ĠiPhone	11167
ĠVery	11167
ĠLPS	11166
Ġattach	11164
ĠPhysics	11162
ĠRow	11156
540	11153
Ġ\}	11153
GF	11150
ĠVC	11150
Ġcouples	11147
Ġvir	11145
ĠProc	11144
ĠInfo	11144
ĠÐ¸	11143
ĠSeason	11143
ĠâĢľ[	11142
Ġfeasible	11141
Ġamb	11141
Scroll	11140
Ġtowns	11140
Ġrecombinant	11140
293	11139
ĠReact	11139
034	11138
radius	11137
ä¸Ģ	11136
Ð½	11136
}}}_{	11136
ĠPri	11136
Ġsync	11135
ĠOD	11135
))\	11134
Ġfool	11134
Ġachieving	11134
Ġlamin	11130
Ã©n	11129
}{{\	11127
uz	11127
factor	11127
Ġjournalist	11127
months	11126
Ġactin	11126
guard	11125
070	11125
Ġrendering	11124
Phil	11122
ĠAssistant	11122
MEM	11121
Ġnights	11121
GFP	11117
vet	11116
ature	11115
best	11114
Ġbuttons	11113
ĠNeed	11111
Ġutil	11110
ĠAddress	11110
ĠNetherlands	11109
Ġconjunction	11108
ĠHF	11108
Plaintiff	11107
Ġenrolled	11107
ĠTarget	11107
Ġpublications	11106
Ġsorts	11105
Ġ"-	11104
score	11103
Ġhoped	11101
ĠAstr	11101
Limit	11099
Ġburst	11097
Ø§	11096
ssl	11093
Ġlesson	11092
ĠLou	11092
Ġgraphics	11089
å	11088
ank	11086
Coll	11086
Tw	11082
iment	11081
Ġspontaneous	11081
ĠExample	11081
ĠsiRNA	11080
ĠBin	11078
inner	11077
direction	11077
Ġ------	11077
Sum	11075
Ġpressed	11075
ĠCIA	11074
Ġphenomena	11068
à¦	11067
resistant	11066
Ġsubd	11066
)](#	11065
Ġtubes	11065
Ġcontacted	11065
edi	11064
ĠRod	11064
ĠBeing	11063
Profile	11062
Div	11062
Ġswimming	11062
ĠDave	11062
ĠConv	11062
Ġsys	11060
Ġmold	11060
Ġ171	11060
(__	11057
bis	11049
EU	11049
TN	11048
Ġtopology	11048
stic	11046
ViewController	11046
Ġunemployment	11046
Ġdeletion	11044
ĠAri	11043
ict	11042
Med	11041
bold	11039
Ġ205	11038
external	11035
Ġcylinder	11035
ĠTokyo	11035
ĠPac	11032
Ġinappropriate	11031
Ġsto	11030
annotation	11029
ÂĮ	11028
cycl	11026
idine	11025
angi	11025
Ġcarb	11025
/"	11024
Ġcerebral	11024
Ġears	11023
Ġdirectors	11021
Ġretro	11017
Ġ1974	11017
ĠTour	11016
ĠEngineering	11014
inte	11012
Sun	11012
bigl	11011
oop	11010
Ġpromotes	11010
Ġprima	11010
Ġcontributes	11010
ĠInteger	11010
Ġtheft	11009
ĠStr	11009
Ġsends	11008
Ġfatigue	11008
},$$	11007
Ġscared	11005
æľī	11003
tage	11003
Ġundergo	11003
Ġtons	11003
Ġbabies	11003
Ġwashing	11002
ĠAppendix	11001
ĠStep	10999
dump	10996
ols	10995
Ġloving	10995
Ġessence	10995
ĠSingle	10994
HL	10992
ĠUnlike	10992
Ġvaccination	10991
Ġadaptive	10990
leg	10989
emphasis	10989
Ġfoster	10989
ĠSaint	10989
Ġspine	10988
Ġ"âĻª	10988
nov	10987
ĠMut	10987
ication	10985
exception	10982
uted	10981
Ġrib	10981
Ġrental	10981
Ġ--------------	10981
)>	10980
Ġretrieve	10979
Ġflesh	10979
ĠMember	10979
ĠJerusalem	10975
ĠHB	10974
Gar	10973
Chan	10973
$}}	10973
say	10972
Ġ"",	10971
}>	10970
Ġneighbor	10970
Ġkinetic	10970
ĠPle	10970
|$	10967
ĠLat	10966
fail	10965
Ġloops	10964
Ġ154	10964
icit	10962
Ġisomorphism	10961
Ġconvictions	10961
ocyte	10960
rob	10959
Ġcant	10959
375	10958
Ġantenna	10958
Ġaqueous	10956
ÙĦ	10955
shell	10955
mk	10950
Socket	10950
243	10950
uction	10946
IES	10945
Ġspecification	10944
Ol	10943
;}	10943
Blue	10940
Ġinstability	10939
Ġclustering	10939
Ġactivate	10938
ads	10935
ĊĊĠĠĠĠĠĠĠĠĠĠ	10931
dat	10930
ĠFourier	10930
-.	10929
Ġtrailer	10928
Ġmol	10927
Ġconcentrated	10927
ĠSOFTWARE	10926
247	10924
Ġrejection	10924
ĠHell	10924
Ġproposals	10922
Ġextraordinary	10916
Ġharmful	10915
UG	10914
Ġlogo	10914
wei	10913
Ġbeneath	10913
ĠJacob	10912
Variable	10911
Ġpharmaceutical	10911
ĠMand	10909
pon	10907
Ġuniformly	10907
Ġinch	10903
Ġtransfected	10902
Â¡	10900
Ġtra	10898
Ġdrinks	10895
Ġdistinguished	10894
Ġalkyl	10892
Ġinstructed	10890
Ġsons	10888
ĠSci	10888
303	10887
ĠMus	10887
inct	10886
Ġheated	10886
ĠExchange	10886
Pan	10884
{%	10883
Ġmus	10883
Ġoz	10882
ĠEmpire	10878
Unknown	10877
Att	10877
039	10877
Ġnegatively	10877
ĠCollection	10876
ope	10875
ĠResources	10873
Ġinadequate	10872
Ġapple	10872
Ġcooked	10868
Ġcheer	10868
xsd	10867
ained	10866
Ġthreads	10866
Ġdialog	10866
Ġsynthesized	10865
operator	10863
ĠMini	10863
ury	10862
Ġjunction	10862
Ġinfluences	10862
Ġgym	10862
memory	10861
March	10861
Ġbacked	10861
topic	10857
KS	10856
254	10855
Ġ177	10855
artifactId	10854
ĠStatistical	10853
Ġabroad	10852
Ġstocks	10851
ĠHol	10851
Ġ---------	10850
\](	10848
Ġlegacy	10846
Ġsurveys	10843
Ly	10840
Ġcriterion	10840
ifi	10839
,.	10839
ĠDetroit	10836
ĠKat	10835
hbox	10834
something	10831
vl	10829
Ġanalog	10828
ĠBow	10826
Ġproducers	10824
Ġdx	10824
Ġdiffuse	10824
ĠOntario	10824
ĠÙ	10823
Ġhopefully	10823
fact	10821
Parse	10820
Imp	10820
lio	10819
ĠDH	10819
Ġautomated	10818
Proxy	10817
Ġrack	10816
Ġhepatic	10814
$),	10813
ĠArm	10812
ĠMann	10810
ĠHU	10810
ĠBlood	10809
Ġresection	10808
Ġdeciding	10808
Ġcra	10805
Ġwhilst	10803
){\	10800
Ġdir	10800
Ġdrew	10798
Ġcervical	10796
Ġcomprised	10795
driven	10794
inated	10793
safe	10792
ĠWright	10792
cro	10789
Ġlanding	10789
ĠLORD	10789
pk	10788
opy	10788
Ġsensory	10788
gf	10787
UV	10785
Ġhumor	10784
Ġreleases	10783
tool	10782
Ġqueries	10782
Ġvalidated	10780
Ġtranslated	10779
Ġwrapped	10777
maker	10776
ĠCloud	10776
čĊčĊĠĠĠĠĠĠĠ	10776
$-$	10775
Ġutilizing	10775
Ġstake	10775
ĠGET	10775
ĠEPA	10775
="-	10773
................	10773
Ġbiopsy	10773
ĠStop	10773
Ġrelax	10770
ĠVS	10770
Ġethics	10769
Ã§	10768
Ġmyocardial	10768
ĠAustin	10768
DV	10767
Ġridiculous	10767
Ġenterprise	10766
Ġbilateral	10766
Ġplotted	10765
groupId	10764
Ġpediatric	10764
ĠLar	10762
{{{\	10761
viruses	10758
hpp	10758
Ġoccupation	10758
Role	10756
ĠFT	10756
Ġbru	10755
ĠMarc	10755
\}}	10752
Ġtoll	10752
Ġ156	10751
Ġschema	10750
Ġpolls	10750
Ġanimation	10750
ĠHamilton	10748
ĠRecently	10747
eye	10746
dog	10746
Ġstatutes	10746
Ġpsychiatric	10745
Ġfavourite	10745
cou	10744
Ġhouseholds	10744
ĠDrug	10744
Kit	10742
Ġdiscipline	10742
ĠPB	10740
train	10739
obi	10739
Ġcann	10738
Ġacceleration	10738
testing	10737
roid	10737
Yo	10736
ĠND	10734
ait	10731
abe	10731
MODE	10730
Help	10730
Ġeliminated	10730
dk	10728
bid	10727
Join	10726
Ġshaped	10726
Ġcollecting	10726
Ġfractions	10725
operative	10724
Ġunstable	10724
ĠSafety	10724
ogy	10723
ĠEnc	10723
Ġterrorism	10722
Ġrecon	10720
ĠThompson	10720
ĠComm	10720
Han	10719
ĠCle	10719
Prov	10718
Ġconsist	10718
Ġrestored	10717
ĠSweden	10717
Ġhabits	10716
ĠLV	10716
bj	10715
aya	10714
Details	10714
Ġcharacterize	10714
aching	10712
contact	10711
Bon	10710
Ġhill	10708
ĠMaterial	10708
nas	10707
ĠRB	10704
Ġns	10703
Private	10702
Ġharsh	10701
oth	10698
Database	10697
Ġunto	10697
Ġ.$$	10696
smallcaps	10694
amount	10694
Nav	10694
Ġlane	10693
ĠTree	10692
ĠPad	10691
Pat	10690
242	10690
ĠDemocrat	10690
rank	10688
340	10685
í	10684
talk	10684
ĠOtherwise	10684
Ġ148	10683
Ġmem	10682
Ġcelebrate	10682
pair	10681
Ġopposing	10681
live	10679
eric	10678
direct	10677
480	10673
elle	10672
ĠBou	10671
ete	10670
ART	10670
Ġenrichment	10669
:-	10668
ĠLes	10668
Ġmounting	10667
Ġ``	10667
ĠInterest	10666
Ġgrows	10665
Center	10664
Ġgrave	10664
uing	10663
Ġquestioned	10663
Ġaluminum	10663
Ġweighted	10662
Ġcalibration	10661
Ġbeg	10661
ethyl	10660
ĠDisease	10660
CHAR	10658
ĠSus	10657
ĠRaj	10657
Ġregards	10656
Ġcomedy	10656
ĠDie	10656
Ġ164	10655
Ġsil	10654
Ġdisruption	10654
ĠCAN	10654
ĠTele	10652
Conclusion	10651
Ġencouraging	10651
skip	10650
oto	10650
ometric	10650
Ġdeposited	10650
alert	10649
Ġwars	10649
Ġholder	10649
Ġexploring	10648
Ġdemanding	10647
Ġchemistry	10643
inger	10642
Ġscandal	10642
ĠFDA	10642
aff	10640
Ġenabling	10640
yp	10639
proxy	10638
Ġbur	10638
ĠVis	10638
ĠToo	10637
policy	10636
Ġtunnel	10636
Ġelite	10636
Ġdependency	10636
Ġoutputs	10635
Ġillustrates	10632
1981	10631
Ġfears	10631
ĠDean	10631
Ġrounds	10629
XP	10627
Ġrefugees	10627
Proof	10626
uh	10625
),$$	10625
Ġquant	10625
Ġmapped	10625
groups	10624
235	10624
ĠOlympics	10620
fetch	10619
Ġ161	10619
Several	10617
Ns	10617
Ġthromb	10617
ĠGuard	10616
storage	10615
Ġprobes	10615
ĠGov	10614
Ġfoam	10613
Having	10612
Ġremembered	10612
Draw	10608
Ġaden	10608
Â£	10607
omer	10605
Follow	10604
241	10604
Ġsed	10604
uck	10603
arin	10602
Ġequivalence	10601
Ġexamining	10600
Ġ168	10598
Ġpc	10597
Ġcoaches	10597
pel	10594
Ġdisable	10594
Ġdining	10594
Ġconscious	10594
Ġven	10593
Ġdemographic	10593
Ġjournalists	10592
components	10591
Ġassessing	10590
Ġflex	10588
Ġcasual	10587
)]{}	10586
Ġmetals	10586
229	10585
Ġwalks	10585
ĠâĨĴ	10584
,,	10581
endo	10580
0100	10580
Ġcoronavirus	10580
tors	10579
between	10578
oct	10577
ĠFall	10575
Ġvas	10574
Ġenvelope	10574
ĠVO	10574
Tor	10573
Ġups	10571
ogenesis	10570
MV	10570
ocal	10569
Ġexpecting	10569
Ġforcing	10568
311	10567
Ġanticipated	10567
iam	10566
Ġ162	10564
TOR	10563
Ġextensions	10562
ĠAnthony	10562
Ġopponents	10561
scroll	10560
Ġimproper	10559
Ġcrude	10557
ĠLED	10557
ĠPhil	10556
Ġcumulative	10555
Statement	10554
Ġ158	10554
Ġbitcoin	10548
ĠCarter	10547
Ġoffenses	10546
ĠTech	10546
ĠRs	10546
ĠExpl	10546
mand	10545
Conf	10545
Stra	10543
Robert	10543
gnu	10542
Ġintimate	10541
ATE	10536
Ġchampionship	10535
rine	10534
inate	10534
ĠLady	10534
Ġmechanics	10532
194	10531
Ġintern	10531
045	10530
HF	10529
wh	10526
Mintage	10526
Ġ------------	10526
omo	10524
ired	10524
Ġbrush	10523
ĠAtlanta	10522
]*	10519
created	10518
Still	10518
Ġslower	10518
Ġsink	10518
Ġscar	10518
Ġann	10518
ĠTam	10518
ĠCounsel	10518
Ġmountains	10517
Ġedited	10517
ĠPU	10517
bigr	10516
Ġemb	10514
Ġconstitution	10512
ĠHAVE	10510
ĠTN	10507
ĠPK	10504
parameters	10501
ĠBarack	10501
feature	10499
Symbol	10499
ĠANOVA	10499
Ġpreceding	10498
ĠSept	10498
ĠPerson	10498
Ġ163	10498
ĠBT	10497
ĠExt	10496
Ġpic	10493
ĠFourth	10493
middle	10492
Cou	10492
ĠStock	10491
Ġgarage	10490
ĠMag	10490
ĠMarine	10489
rell	10488
Native	10488
market	10483
ĠCos	10483
Ġgeometric	10482
ska	10481
Ġdump	10480
ĠVector	10478
302	10477
Ġrevision	10477
Ġanalogous	10477
meth	10475
Ġdr	10475
ĠINTO	10475
Ġantibiotic	10474
Ġallocated	10474
pit	10473
Ġaxial	10473
Connect	10470
ĠConst	10470
åħ	10468
question	10467
Area	10467
Ġbump	10467
Ġallies	10466
ĠBeth	10466
Ġvis	10462
Ġhosted	10461
Moreover	10459
Ġproductive	10459
ĠSupplementary	10458
ĠGor	10455
Ġ147	10453
Ġ%}	10453
Ġvirtue	10452
Ġbandwidth	10452
aps	10450
Ġelevation	10450
386	10448
ĠCr	10448
aria	10447
ORT	10447
boot	10445
Ġcalc	10443
Ġsimplicity	10442
Ġqualify	10440
ĠIron	10440
Ġpancreatic	10439
suppl	10438
*^*	10437
Ġsitu	10437
Ġnovo	10437
Ġmaximize	10437
PN	10432
.....	10432
Ġamid	10431
ĠVideo	10431
Ġswim	10430
Ġsummarized	10430
Ġbypass	10430
Ġavoiding	10430
ĠFestival	10429
ony	10428
Michael	10428
Ġtor	10428
ĠWO	10428
ĠMoscow	10427
agent	10425
ĠRoute	10425
Ġpassengers	10423
Ġhandful	10421
ĠUT	10421
Ġfol	10420
Ġthoroughly	10419
Ġrod	10419
Ġcorners	10419
Ġwhereby	10416
Ġagrees	10416
Ġregulating	10415
repeat	10414
720	10414
ĠAp	10414
enh	10413
Sorry	10413
Ġdisposition	10413
Ġfin	10412
ĠSpa	10412
Ġattitudes	10411
244	10410
Ġpropagation	10410
Ġoverview	10410
ĠEnt	10409
ĠGreece	10408
ĠGill	10407
ÂĴ	10405
Ġsqu	10404
ĠSV	10404
Ġborders	10402
ĠManchester	10402
ä¸į	10401
ances	10401
Download	10401
).\	10400
219	10399
ĠPop	10397
MY	10394
HTTP	10394
Ġmalignant	10394
Ġtremendous	10392
ĠCONDITIONS	10392
TRUE	10390
Ġtmp	10390
natural	10389
Iterator	10387
Ġcoalition	10387
inch	10385
HU	10384
Ġprecedent	10383
Ġoutlined	10377
chen	10376
Ġcontinuum	10376
Ġsurvived	10374
Domain	10373
Ġgru	10372
Adv	10366
generation	10365
Ġarr	10363
Ġbenz	10360
toggle	10359
Ġpray	10359
Ġperformances	10358
TABLE	10357
550	10357
Ġadequately	10356
áĥ	10355
236	10355
Ġbeds	10355
Ġqualitative	10354
Ġcyber	10351
Ġdeadly	10350
prev	10347
Ġsensing	10347
ĠWL	10347
))))	10346
Ġsymptom	10345
Xml	10343
ĠGraph	10343
special	10341
ows	10341
ĠCondition	10341
oral	10338
Ġ[\	10338
)},	10337
Rob	10336
Bit	10336
Ġproving	10334
Ġlimb	10334
ĠChen	10333
Ġluminosity	10331
Ġauthentication	10330
ĠCOL	10330
Ġlean	10329
hide	10328
cout	10327
optional	10325
304	10324
Ġinteracting	10324
frequency	10321
English	10321
Ġquest	10320
Ġmel	10320
tick	10319
364	10319
404	10317
Ġmed	10317
ĠGil	10317
ĠDur	10316
ĠRid	10315
Ġâī¤	10314
Der	10312
ESS	10310
Ġappellee	10310
Ġcritics	10308
Ġds	10306
ĠCast	10306
genes	10304
Price	10304
.""	10304
Ġorganisation	10304
sey	10301
:"){	10301
Ġdye	10301
alias	10300
Ġcrown	10300
Ġasync	10299
ĠNeither	10298
Ġdelta	10297
Ġbubble	10297
logger	10292
Ġrecipient	10292
Ġcampaigns	10291
{$	10290
Ġhighway	10290
das	10288
^*$	10288
Ġdirty	10288
olic	10286
AX	10286
ĠPay	10286
Ġmaintains	10285
invoke	10284
Ġbesides	10284
Ġinteractive	10282
Ġcourage	10282
Ġnotable	10281
ĠLaboratory	10281
Ġfixing	10280
Ġembrace	10279
410	10278
Ġproductivity	10278
Ġbeans	10277
Ġspecialized	10275
TRA	10274
ĠDVD	10274
Ġcontainers	10273
ĠEss	10272
prec	10270
iona	10270
Ġpreferences	10270
259	10268
ĠĠĠĠĠĠĠĠĊĠ	10266
Kl	10265
ĠDoctor	10264
third	10263
pcbi	10263
enabled	10262
"],	10262
Ġquotes	10262
Ġgoverned	10262
Ġcurrents	10261
ĠBASIS	10261
esp	10260
Ġconnectivity	10259
Ġcoe	10259
trial	10257
bury	10255
uts	10254
Ġnuts	10253
ĠDeputy	10253
Meanwhile	10251
LIN	10250
must	10248
Ġaddiction	10248
Ġwinds	10247
bes	10246
-)	10245
Ġproximity	10244
Ġgrasp	10244
ĠNation	10244
Ġconvince	10243
Ã£o	10241
TAG	10241
Ġcam	10241
Bal	10240
him	10239
="{	10238
Ġhum	10238
hel	10236
Ġreversal	10236
phenyl	10235
Byte	10234
Ġknock	10234
Ġcomic	10233
Shape	10232
kat	10230
Ġbeating	10229
Ġdf	10228
Âı	10227
ching	10227
Ġrolled	10227
Ġpotentials	10227
ĠAlaska	10227
dest	10225
OE	10225
Ġelementary	10224
know	10223
progress	10222
Ġmorph	10221
pkg	10218
Ġengines	10218
vas	10217
ĠFB	10216
ift	10215
Gs	10215
Ġquarterback	10215
Ġautomobile	10215
Ġharassment	10212
Ġenriched	10212
Ġjunior	10211
Ġbanking	10211
Ġchampion	10210
ĠRick	10210
Ġ172	10208
Ġmeters	10207
ĠPatrick	10206
ĠLicensed	10206
Ġspite	10204
ĠGh	10204
Ġ230	10204
ĠCould	10203
238	10202
1979	10202
piece	10201
Ġdevoted	10201
Ġrecruited	10200
license	10199
Ġcute	10199
ĠFlu	10199
Bs	10198
Ġsituated	10198
ĠWH	10198
Ġburied	10197
Ġperforms	10196
ĠSpr	10196
Ġ450	10195
}_{-	10193
Ġain	10193
Ġbat	10192
Ġpunch	10190
Ġcytokine	10189
Ġcatheter	10186
ĠNative	10185
atin	10184
sea	10183
ressive	10183
Ġshoulders	10182
ĠTaiwan	10182
dv	10181
Ġpronounced	10181
Ġindicators	10181
ĠBat	10181
Ġgaming	10180
ĠSize	10180
clean	10179
cel	10178
Seq	10178
Library	10177
EDIT	10177
Instead	10176
4000	10176
ires	10175
Ġlisting	10175
ĠĠĠĠĠĠĠĠĠĠĊĠ	10175
holder	10174
gro	10174
ÎºB	10171
042	10171
Ġgoogle	10169
Ġconform	10169
Ġcompiled	10169
Ġtransmit	10168
ä¸	10167
Ġextensively	10167
encing	10166
nol	10164
tg	10163
Ġsaline	10162
ĠWarren	10162
305	10161
323	10160
ÛĮ	10159
proof	10159
Ġparental	10159
Ġracist	10158
ĠResponse	10158
'])	10157
sized	10156
fort	10156
052	10155
Ġmineral	10155
Ill	10154
ĠPot	10154
Ġrestart	10153
Ġpathological	10153
Equ	10152
Ġvolunteer	10151
ĠProv	10151
ĠRR	10146
edia	10145
Ġceremony	10145
Ġthemes	10144
Ġdielectric	10144
Ġabnormalities	10144
Ġstrikes	10142
Ġapo	10142
Ġministry	10141
jquery	10140
Hz	10139
ĠPol	10139
ided	10138
Consider	10136
Ġracing	10136
Ġalloc	10136
Ġsac	10135
Ġdeployed	10135
sam	10134
Ġcirculation	10134
ĠEconomic	10133
509	10132
ĠGulf	10131
ĠFranklin	10130
Nat	10129
Ġfiltered	10127
Ġconsult	10127
Ġgirlfriend	10126
framework	10125
Ġirrelevant	10125
Ġconceptual	10125
Ġanalytic	10125
Ġportable	10122
ĠLB	10120
Ġtub	10119
Ġresponding	10118
resources	10115
Ġcardio	10115
dark	10114
Luc	10114
Ġtouched	10114
ĠDU	10114
ĠĠĠĠĠĠĠĠĠĊĠ	10114
Ġdepicted	10112
isp	10111
Vs	10111
AO	10111
Ġrelay	10111
ĠMode	10111
omy	10110
ĠJose	10109
University	10107
ĠLarge	10106
Ġascending	10105
lier	10103
227	10103
Ġarrangements	10103
ĠAtlantic	10102
ĠĠĊĠĠ	10101
zin	10100
315	10099
Ġcinema	10098
Ġabused	10098
arrow	10096
Ġprote	10096
mf	10093
Ġconsequently	10093
Ġclone	10093
Cho	10092
Ġexercises	10092
239	10091
ced	10090
aux	10090
VALUE	10090
due	10089
Ġconv	10089
Gal	10088
Ġkiss	10087
Proc	10086
ull	10085
Ġspiral	10085
Ġcho	10084
protein	10081
Ġaccepting	10080
Ġ167	10080
Ġranks	10079
|_{	10076
?:	10076
ĠSummary	10076
Ġhunting	10075
ĠDocument	10075
Ġkeyboard	10074
ĠEs	10074
Ġreproductive	10073
James	10072
Ġfeaturing	10071
syn	10068
hp	10068
Ġprocedural	10068
ĠWard	10068
Ġadhesive	10066
Ġzones	10064
Ġisot	10063
ACC	10062
ĠNMR	10062
ĠContract	10062
Ġroyal	10060
Ġwishes	10059
Ġasymptotic	10059
Ġtransplant	10057
Ġgaps	10057
country	10055
Ġoct	10054
iser	10053
Ġgit	10052
ĠLevel	10052
pine	10049
nell	10049
raph	10047
Ġfil	10047
Ġeigen	10047
ĠWars	10047
qi	10046
Ġparadigm	10046
Metadata	10044
Ġpound	10041
Ġdemanded	10041
Ġblend	10041
Region	10040
Ġtune	10040
Ġtrips	10040
Ġmist	10039
Ġheaven	10039
Ġequals	10038
ĠCooper	10038
Ġsham	10037
ĠAnimal	10037
Ġdecree	10035
Ã¥	10033
generated	10032
vn	10030
iciency	10030
Ġforgotten	10030
Ġdeputy	10030
Ġdefeated	10030
ĠChem	10029
conn	10027
ĠmiRNA	10027
Notes	10026
wal	10024
Ġcompositions	10024
Ġcomp	10024
Could	10023
Ġsophisticated	10023
modal	10022
ĠMine	10022
Ġgaze	10021
ĠBus	10021
income	10020
QL	10020
ĠGreg	10020
ĠRN	10018
YA	10016
Character	10016
ĠAlb	10016
Nor	10015
Conv	10014
*{	10012
Ġalgebraic	10012
ocation	10010
ely	10010
Ġprom	10006
à¤°	10004
Ġic	10004
Ġbullet	10004
Ġdro	10003
Ġ----------	10003
June	10002
looking	10000
Cas	10000
Ġastr	9999
pent	9998
detail	9998
Ġspreading	9996
ĠDigital	9995
cru	9992
Ġsearches	9991
ĠLab	9991
Ġcontradiction	9990
season	9989
ĠNos	9987
vir	9986
ĠMun	9986
igen	9985
esse	9985
?!	9984
uan	9981
Diff	9981
Ġbiochemical	9981
Ġidentifier	9979
Ġ166	9978
Ġcyclic	9976
apple	9975
olution	9974
Ġrabbit	9974
ä¸Ń	9973
Such	9973
Ġinterfaces	9973
Ġpension	9971
ĠSTAT	9967
ĠReserve	9965
Ġvoices	9963
uy	9962
uro	9960
Ġfaithful	9958
Ġcentered	9958
views	9956
ough	9956
Ġgenerous	9956
Ġdiscount	9956
Ġante	9956
ĠRobinson	9955
~.	9953
ï	9951
Ġboom	9951
ĠChan	9950
Ġarrows	9948
Ġbones	9945
timeout	9942
Bus	9941
ĠCountry	9941
school	9939
Ġprohibited	9939
Ġfriction	9939
Ġaccompanying	9938
gent	9937
Ġclicking	9937
Ġbail	9936
Ġassembled	9936
Ġgently	9935
Ġlap	9934
Ġcalculating	9934
sts	9933
dale	9933
CALL	9932
Ġneglect	9932
opathy	9929
Plan	9928
FN	9928
Ġsongs	9927
ä¸º	9926
321	9926
DIS	9924
Ġtick	9924
Ġtemple	9923
ĠDal	9923
primary	9921
Furthermore	9920
Ġtransplantation	9920
Ġciting	9920
dad	9919
Ġpathogenesis	9915
Ġdough	9915
Ġirregular	9914
gem	9913
GD	9913
Ġinfusion	9912
ĠĠĠĠĠĠĠĊĠ	9911
mont	9910
Ġultrasound	9910
look	9909
dimen	9908
Ġ{"	9908
Ġpressing	9906
Ġgathering	9905
ĠAdams	9905
Ġpredominantly	9904
Ġcotton	9904
volume	9903
Ġoutbreak	9903
Ġdeco	9903
ĠMN	9902
Ġpale	9899
Ġ[âĢ¦]	9898
Ñ	9897
boy	9897
0012	9896
ĠWARRANTY	9896
ending	9895
Ġ--------	9895
Ġcattle	9894
Ġwaited	9890
Ġadmits	9890
citing	9888
Ġteaspoon	9888
ÐµÑĤ	9886
`)	9886
Ġsoccer	9884
intestinal	9883
actions	9883
Ġspill	9883
Ġquantified	9883
Ġ"'	9882
ĠDad	9881
#.	9880
Ġrip	9879
heat	9876
Ġportfolio	9876
091	9874
Ġrevenues	9874
Ġprompt	9873
ĠBeijing	9873
Ġunde	9872
Ġquark	9872
Ġguided	9872
Ġstructured	9871
Ġphotographs	9870
Ġnucleotide	9870
Ġfreeze	9870
})=	9868
Ġimm	9868
ĠProcedure	9868
Ġdet	9867
Ġimproves	9865
UND	9863
asia	9862
iya	9860
})$,	9859
rav	9859
Ġpun	9859
vid	9858
Ġemotion	9858
ĠPack	9858
ĠÅ	9856
Ġensemble	9856
Ġcorrespondence	9855
Ġadvise	9855
Yet	9854
Ġvapor	9853
rick	9852
Ġgifts	9852
ĠStatement	9852
ĠRat	9851
could	9850
Living	9850
Ġtwist	9850
226	9848
Ġwooden	9847
spl	9846
pages	9846
ĠEarly	9846
="@	9845
Ġanalyzing	9843
Ġskilled	9842
Ġconsiders	9841
Ġstimulated	9839
Ġpriest	9839
Ġarterial	9839
ĠClean	9839
Ġseverely	9837
DateTime	9835
HH	9834
Ġru	9834
ĠAud	9834
around	9833
Ġmanufactured	9833
ĠWhit	9832
cert	9830
FG	9830
Ġurged	9830
Ġspr	9829
attributes	9828
Sea	9827
contains	9824
aws	9824
ĠTy	9824
ĠBaker	9823
Design	9822
Ġstrengthen	9822
Ġsoluble	9822
ĠComputer	9822
USER	9821
ĠDL	9821
osit	9820
iance	9819
Ġlogistic	9819
Transaction	9818
456	9818
atom	9815
Ġcortical	9815
åı	9813
Ġdressed	9813
Ġdarkness	9813
Ġ176	9811
bx	9810
anal	9810
ĠKennedy	9810
IU	9809
Ġinjunction	9808
iah	9807
Ùİ	9805
ĠXI	9805
hh	9803
Ġantioxidant	9802
ĠYES	9802
Ġtweet	9801
Ġbadly	9801
Ġ000	9801
ãģĮ	9800
Ġregimen	9800
Ġ}$	9799
Ġplasmid	9799
builder	9798
Ġspecialist	9798
character	9797
Ġprisoners	9796
Ġranged	9795
Ġwallet	9794
Ġspherical	9794
mill	9791
bach	9791
Ġleak	9791
fmt	9790
LB	9789
ĠMF	9789
resolve	9788
erson	9788
ĠWang	9788
por	9787
(.	9787
ĠWR	9786
ĠTGF	9786
Ġsectors	9785
ĠDead	9785
288	9784
049	9784
Ġovert	9783
Ġproton	9782
Ġbugs	9781
wb	9779
ĠĠĠĠĠĠĊĠ	9778
ĠRM	9777
Ġswitched	9776
Ġoutlet	9776
Ġdashed	9776
Gre	9775
database	9773
Ġcollateral	9773
kernel	9772
Ġputative	9772
Ġnod	9772
Ġ%>	9770
Ġrestrict	9767
ĠCreek	9766
Sym	9765
Ġvarieties	9765
ĠOH	9765
!'	9764
ĠShin	9764
ĠBasic	9764
April	9761
313	9761
kers	9755
dL	9755
Ġacres	9755
ĠDelhi	9755
bing	9754
oint	9753
MON	9753
Ġpaired	9749
ĠINC	9749
ĠHH	9749
dos	9747
ĠSite	9747
GEN	9746
Folder	9746
tap	9745
Ġvo	9745
Ġswing	9745
Ġ1971	9745
Ali	9744
Ġpleasant	9744
Ġinability	9744
ĠBrand	9743
HER	9741
Ġbladder	9741
,(	9740
period	9739
Notification	9739
ĠPap	9739
ĠCox	9738
nodes	9736
ĠDeath	9736
amide	9733
SYS	9733
functions	9732
Delegate	9732
ĠMMP	9731
ĠKentucky	9730
Ġredistribute	9729
enta	9728
quer	9727
bet	9727
Ġrefusal	9726
ĠSie	9726
ĠArthur	9726
Human	9725
oom	9724
Ġ(âĪĴ	9724
ĠMetro	9723
ĠCommerce	9723
Ġflower	9722
urn	9721
Ġembryos	9721
Ġmanipulation	9720
issue	9718
Ġbite	9718
Ġconstituted	9717
DG	9715
Ġprognostic	9715
ante	9713
Timeout	9712
friendly	9711
Ġbitter	9711
257	9709
Ġvein	9708
Ġrealm	9708
compare	9707
ches	9707
Ġimprisonment	9707
Ġcontractor	9707
ĠRh	9707
bab	9706
ĠBeck	9706
Ġcow	9705
ĠEstate	9704
380	9703
Ġtransistor	9703
Enum	9702
ĠPDF	9702
ended	9700
Ġincorporate	9698
Ter	9696
Ġsulf	9696
NEW	9695
Ġster	9695
ĠHel	9695
Password	9694
Ġ$_	9694
ĠÂ	9693
Ġfiltering	9693
Ġrecurrent	9692
walk	9690
Ġlid	9690
ĠStory	9690
Ġoverexpression	9687
ĠEB	9687
Route	9686
ĠGraham	9686
258	9684
Ġuncertain	9684
Ġsplitting	9684
Ġdesigner	9684
aining	9681
Ġaforementioned	9681
ĠRoom	9680
Ġfen	9679
Ġsom	9678
ĠHarvard	9678
Ġsupplemented	9677
ĠVP	9677
ĠHem	9676
ĠCard	9675
chlor	9674
Ġterminated	9674
Ġentr	9673
mun	9672
Îµ	9671
angular	9671
Ġexceptional	9671
Err	9670
Ġsubstituted	9669
Ġshear	9669
Ġ(.	9669
Mem	9668
Ġza	9667
Ġexpressly	9667
Ġdozens	9667
265	9666
ĠBattle	9666
Ġpt	9665
Ġlact	9665
ĠEF	9663
different	9661
ĠPER	9661
ĠMean	9660
assign	9659
ĠBD	9659
ĠLane	9657
qt	9656
]$.	9656
SSL	9656
Ġmag	9656
Ġconfigure	9656
odo	9655
information	9655
Ġmarry	9654
Ġsealed	9652
Runtime	9651
Ġseized	9650
ĠLib	9649
virus	9648
dem	9648
UTE	9648
)}_{	9648
uria	9647
Boolean	9647
alc	9646
325	9645
ĠMedicare	9644
Ġdent	9643
ĠShar	9643
libs	9640
Ġendless	9639
Ġverbal	9638
Ġ(_	9637
501	9636
ĠFifth	9636
ĠTurkish	9634
ochemical	9633
ĠEu	9633
Ġjs	9629
ubs	9628
Ġessay	9628
jn	9627
aly	9625
ĠKer	9623
ĠLim	9622
ĊĠĠĊĠ	9622
Ġtwin	9620
Ġnut	9620
Ġbeside	9620
ously	9619
Ġsupervision	9619
ices	9617
dependency	9617
ĠNan	9616
Ġproximal	9614
runtime	9613
Returns	9613
Ġruntime	9613
Ġjavax	9612
Ġjacket	9612
Ġdefinite	9612
zel	9611
oj	9611
ĠShare	9611
ĠJul	9611
cfg	9610
Ġpainting	9610
gio	9609
Ġdan	9609
Ġcleared	9609
pred	9607
Events	9607
=============	9607
Ġmalaria	9607
Ġcompelling	9607
ĠRoll	9607
ĠLink	9607
Son	9606
Ġoptimized	9606
Ġbears	9606
Ġlifted	9605
ĠIRS	9605
Ġcompetent	9604
tha	9603
Ġwings	9602
Ġ169	9602
Play	9601
setup	9600
Stat	9599
Ġminus	9599
ĠHot	9598
Ġstochastic	9597
Ġelectromagnetic	9597
Ġ159	9597
Ġpresumably	9595
icated	9594
ĠSecret	9593
Ġdilution	9592
Ġdece	9592
048	9590
Ġanth	9590
Ġaggregation	9590
Ġproves	9588
ITE	9587
Figures	9587
Ġmelt	9587
Ġdict	9587
ĠMich	9587
275	9586
Ġimplicated	9586
ĠTemple	9586
mur	9585
Ġ1968	9585
ologist	9584
Ġcoincide	9584
Ġpros	9583
=".	9581
ĠMobile	9581
ĠGFP	9580
Ġmarine	9579
403	9578
Ġinterrupt	9576
ĠTL	9576
wick	9575
ĠDra	9574
Team	9572
ĠBruce	9572
ount	9570
Ġdissolved	9570
Ġbust	9570
ĠHon	9569
237	9568
Ġplanes	9568
neo	9567
Ġdictionary	9567
|^{	9565
extension	9565
Ġspectroscopy	9564
Ġmicrobial	9564
Pattern	9563
Ġdealt	9563
pes	9562
ĠVisit	9562
collect	9561
Ġenjoying	9560
ĠTraining	9560
review	9559
Ġbuf	9559
ĠFred	9559
Ġod	9558
Ġtechnological	9557
cot	9555
Ġcatal	9555
ĠIraqi	9555
ĠAirport	9555
Ġ173	9555
Ġki	9554
ĠMatthew	9553
Ġze	9552
Ġ'<	9552
structure	9551
Fer	9550
Attributes	9550
Drop	9548
noun	9547
Ġbay	9547
ĠFast	9546
async	9544
Ġunreasonable	9544
ĠRepresentative	9544
'''	9543
Ġnotification	9543
Ġfocal	9543
comb	9542
("%	9542
Ġceiling	9542
Ġsignatures	9541
ãģ¨	9540
secret	9540
Ġunfortunately	9540
Ġgraft	9537
ĠLegislature	9537
Ġthreatening	9535
Ġamend	9535
Ġwithdraw	9534
Ġroster	9534
Ġhol	9534
ĠArg	9534
ades	9532
sten	9531
Ġii	9531
focus	9530
Ġassumes	9530
INSERT	9528
Ġhar	9528
ĠRomney	9528
ĠIntroduction	9527
Weight	9521
.<	9521
Ġirre	9521
Ġuh	9519
Ġdocumentary	9517
Ġcolored	9517
forms	9516
Ġmandate	9516
Ġbreakdown	9515
Ġensures	9513
Ġagriculture	9513
eight	9512
ĠGordon	9511
Ġadolescents	9510
ĠNelson	9510
amic	9508
Ġdischarged	9507
Ġhierarchy	9506
ĠSydney	9506
ĠSep	9506
ĠNav	9506
prototype	9505
Ġ***	9505
ĠJO	9504
YE	9502
Rearrange	9502
ĠMERCHANTABILITY	9502
Ġot	9501
Ġjuvenile	9501
XT	9500
Ġfare	9499
ĠDN	9499
ĠBas	9499
Ġleather	9497
sensitive	9496
chy	9496
261	9493
links	9492
Progress	9491
AIN	9491
Ġclaimant	9491
ĠAccount	9491
ĠBB	9490
ĠOd	9488
phys	9487
ĠModi	9487
Ġsalad	9485
Ġinde	9484
ĠInput	9484
Ġnanoparticles	9482
ĠXi	9482
ĠClose	9482
tail	9480
Cluster	9480
ĠEvans	9479
Ġ"^	9479
ensive	9478
ĠEverything	9478
Ġ900	9478
Ġcoherent	9476
Ġhemat	9475
native	9473
Feature	9473
azi	9472
:#	9471
520	9471
opp	9469
Word	9468
plain	9466
eter	9465
ĠDenver	9465
ento	9462
cept	9462
ĠPAC	9462
ĠLincoln	9462
lesssim	9460
Ġnutritional	9460
Ġdt	9460
ĠSri	9460
ĠLearning	9459
Î´	9457
erc	9456
aris	9455
Ġduct	9455
ĠIng	9455
Ġsuspicion	9453
Ġentre	9453
Ġamp	9453
ĠSEM	9453
termin	9452
achi	9452
Ġuntreated	9452
Ġstadium	9452
ĠSNPs	9452
Et	9451
Ġparliament	9451
health	9450
Sync	9450
Ġgranul	9449
Ġsor	9448
webkit	9446
Ġplum	9446
ĠInternal	9445
Ġbo	9444
Valid	9441
Ġgenus	9441
Ġcontend	9441
edo	9440
Install	9440
Ġattracted	9440
ToString	9439
ror	9438
ories	9437
ĠWy	9437
oS	9436
Ġworkplace	9436
Ġbreathe	9435
Ġmarrow	9434
Ġwafer	9432
gly	9428
CAP	9428
Ġfibrosis	9428
Ġ[$\	9428
Sem	9427
ĠWinter	9425
eclipse	9423
ĠSide	9423
ĠRemember	9423
Ġviolate	9421
Among	9420
ĠCharlie	9420
gun	9419
Ġmetabolites	9419
ĠEv	9419
olar	9417
384	9417
061	9417
Sequence	9415
Loc	9415
Lat	9415
ĠCriminal	9415
Fields	9414
Ġcookie	9414
ĠWM	9414
circle	9413
ĠBand	9413
svg	9412
ajax	9411
Serial	9411
Rh	9411
Ġtrash	9409
Ġgy	9409
370	9408
Ġ404	9408
boost	9407
Ġdisadvantage	9407
iological	9406
Ġdelivering	9406
Ġaggregate	9406
ĠSimple	9406
ĠâĢĿ	9405
Ren	9404
Language	9404
ĠÑĤ	9404
Perhaps	9402
ĠFun	9402
290	9401
Ġpremature	9401
ĠEvidence	9401
Ġharmonic	9400
Ġurinary	9398
Ġopponent	9397
})^	9396
Ġpolymerase	9396
Ġthorough	9395
Ġhockey	9395
Ġate	9395
ĠStadium	9395
Ġconductive	9392
ruby	9391
profit	9391
ĠVit	9390
ĠAPP	9389
Expl	9387
ĠBuy	9386
nut	9385
tie	9384
stri	9384
Ġprize	9384
offs	9383
ĠMess	9383
ĠCli	9383
ĠBaltimore	9383
ĠACC	9383
Ġsits	9382
ĠPope	9381
BACK	9380
1001	9379
lies	9377
0025	9377
Ġmyth	9377
ĠAntonio	9373
Ġnullptr	9372
Logger	9371
Ġpizza	9370
ĠChairman	9370
ĠStewart	9367
ç»	9366
Ġrelatives	9366
upt	9364
ĠDh	9363
Ġchromatography	9362
ĠRegion	9362
ĠAH	9362
occ	9359
Ġimplicit	9359
Ġconcentrate	9359
flex	9357
Kar	9357
Ġutilization	9357
ĠPrint	9357
owned	9356
iver	9356
inge	9352
ĠCOR	9352
infected	9351
HW	9351
**:	9350
localhost	9349
Sur	9349
ĠMississippi	9348
Ġrehabilitation	9347
Ġ'.	9347
regulation	9346
anth	9346
Nothing	9346
GU	9346
Dep	9345
beat	9344
Ġcrops	9344
10000	9343
+$	9343
Ġnail	9343
Ġfasc	9343
longrightarrow	9341
).](	9341
ĠNHL	9341
ĠMerc	9341
PAGE	9339
201	9339
054	9339
Ġcoordination	9338
Ġcomplementary	9337
tex	9336
Welcome	9336
Ġsubsets	9336
Ġadjusting	9336
ĠMaria	9336
UPDATE	9335
444	9332
Ġhr	9332
Ġ\~	9332
Ġsurvivors	9330
Ġspeeds	9330
Ġcursor	9330
ĠActive	9330
ĠVR	9329
MN	9328
FU	9327
Ġsho	9327
Ġovarian	9327
Whether	9326
1978	9326
Ġunlawful	9326
Ġrub	9326
Ġregulator	9326
Ġhint	9326
Ġchurches	9325
ĠMachine	9325
1002	9324
Ġsci	9324
Ġdisappeared	9324
Ġbanned	9324
ĠPref	9324
resolution	9323
coe	9323
Ġnevertheless	9320
ĠRussell	9320
ĠAlan	9319
.}	9318
Ġdelays	9318
ĠCand	9317
chart	9316
Ġretrospective	9316
Ġiteration	9316
Ty	9315
ĠÐ´	9315
Ġalleges	9315
ĠPel	9315
ĠKon	9315
roy	9314
fg	9314
CONT	9314
Ġliteral	9314
ĠAngel	9313
aker	9312
Ġobstruction	9312
hang	9308
Act	9308
Ġrival	9308
ente	9307
RK	9307
hall	9306
ĠDer	9306
]^,	9305
440	9305
~/	9304
Accordingly	9304
social	9301
signal	9301
journal	9301
STATUS	9301
Ġformally	9301
Ġconstrued	9300
oul	9299
Ġmisconduct	9299
stan	9297
route	9295
kw	9295
ulf	9293
Ġpursuit	9293
Ġang	9293
062	9292
ĠVictoria	9292
ĠNik	9289
Special	9288
ĠEnvironmental	9287
ght	9286
chat	9286
Ġsubmission	9282
ĠFix	9282
Ġslices	9281
fw	9279
Ġmeter	9279
acon	9278
Ġtimeout	9278
Ġdebug	9278
aze	9277
Direct	9277
Ġdepartments	9277
QC	9276
ĠKO	9276
ĠDrive	9276
ĠCole	9276
%"	9274
Resources	9273
322	9273
Ġoverwhelming	9273
Ġsubstitution	9272
Ġpopularity	9272
imer	9271
Ġmuseum	9270
Ġshield	9269
Ġawful	9267
ĠTag	9266
ĠGram	9264
bow	9263
Ġcombustion	9263
ĠMAC	9263
configuration	9262
Ġoldest	9262
ĠRecord	9262
vartheta	9260
Ġwarnings	9260
hk	9258
\}\	9257
Ġportal	9257
uate	9255
1977	9254
266	9253
Ġreflecting	9253
Ġcontributor	9253
ables	9252
yon	9251
Ġromantic	9251
ĠLip	9251
Yu	9250
Ġachievement	9250
))*	9249
Ġflood	9249
ĠFermi	9249
Ġdispens	9247
Ġsimpler	9246
ĠSure	9246
ĠEqu	9246
ention	9245
July	9243
Ġple	9242
ĠiOS	9242
NSString	9241
272	9241
Ð¹	9240
Ġnowhere	9240
Ġconsultation	9240
flat	9239
Ġmetastatic	9239
ĠMit	9239
ĠmiRNAs	9238
ĠWHERE	9238
services	9237
Ġhunt	9237
Ġthyroid	9236
Ġsurprisingly	9236
bridge	9235
bundle	9234
Ġlocate	9234
mysql	9233
Ġphotons	9231
fixed	9230
Ġcirculating	9228
physical	9227
??	9227
Ġkiller	9227
Ġfantasy	9227
Ġdivine	9227
Ġkin	9225
Ġnom	9223
Self	9222
Ġvenue	9222
Ġbonus	9222
Ġ174	9221
Uns	9220
Ġtrajectory	9219
ĠPhase	9219
sectional	9217
Ġpraise	9217
Ġoriented	9216
ĠBody	9216
Ġowns	9215
Ġunchanged	9213
Ġgentle	9212
NV	9211
Ġmer	9211
Ġlogs	9211
Ġhonour	9210
ĠHen	9209
046	9208
Ġfailures	9206
Ġquestioning	9205
ĠBrexit	9205
uu	9204
many	9203
anda	9203
Ġtrains	9203
Ġjumped	9203
ĠWAS	9203
]'	9201
Ġrob	9201
Sk	9200
Ġburned	9199
density	9198
Ġutter	9198
ĠGray	9198
ĊĉĉĉĠĠĠ	9198
Ġassessments	9196
ĠMG	9196
Ġproblematic	9195
.'"	9194
ĠEng	9194
ĠSave	9193
HN	9192
ĠRegional	9192
ĠRas	9192
matic	9189
Ġtau	9187
lers	9183
Ġforegoing	9182
going	9181
Ġconn	9181
ĠRio	9181
ums	9180
ĠFreedom	9180
Ġlaptop	9179
extend	9177
Ġclarity	9176
controlled	9175
lad	9174
elif	9172
Ġsender	9172
365	9171
Ġluxury	9171
Ġcheaper	9171
DN	9170
Fire	9169
Ġstir	9168
initial	9167
047	9167
ĠDouglas	9167
mul	9166
ERA	9166
\}$.	9165
Ġfestival	9165
ĠVillage	9165
ĠIndependent	9165
Ġfinishing	9163
uting	9161
ĠVari	9161
262	9160
Ju	9159
Inst	9158
Ġmud	9158
ĠStre	9158
ãĥ³	9157
aus	9157
ĠSor	9157
249	9156
Ġcatalytic	9156
protocol	9155
itch	9154
Ġfifteen	9153
itÃ©	9150
inator	9150
Ġzu	9150
ĠMod	9149
Ġballot	9146
errors	9145
ãĤĭ	9142
ĠSY	9142
Ġinferior	9140
pie	9139
orb	9138
east	9138
Ġheterogeneity	9138
Ġchill	9138
ĠBlog	9137
Kat	9136
308	9136
Ġcease	9136
ĠEveryone	9136
Ġdeadline	9135
supp	9134
Poly	9134
285	9134
ĠPers	9134
Uh	9132
Ġclouds	9132
socket	9131
Ġrig	9131
Ġannually	9131
choice	9130
Ġcruise	9130
Ġkingdom	9129
Î¿	9128
jj	9128
Ġexon	9127
though	9125
oidal	9125
carbon	9125
Ġcredits	9125
Ġpsychology	9124
ĠAsp	9124
Basic	9123
Ġjar	9123
Ġ203	9123
Elect	9121
Ġheaders	9121
Ġpile	9120
ĠBart	9120
Ġcharter	9119
ĠRV	9119
ĠOlympic	9119
oka	9118
ĠHER	9118
Ġramp	9117
Ġcomo	9117
ĠCleveland	9117
average	9116
Ġgrams	9116
Ġ!==	9116
ECT	9114
Ġcrap	9114
Î¼m	9113
imal	9113
Ġappearances	9113
COL	9112
Ġstreams	9112
uj	9111
leqslant	9111
ĠLR	9111
Ġtrapped	9110
Department	9107
Kn	9103
Ġsmiled	9103
1976	9102
Ġports	9101
iable	9100
Ġunrelated	9100
Ġpel	9100
Ġliberty	9100
Ġdive	9099
transition	9098
Ġstoring	9098
ĠScottish	9098
mix	9096
Master	9096
Ġfifty	9096
ĠGarden	9096
0030	9093
Ġrenewable	9093
Anal	9092
usa	9091
Const	9091
Ġincoming	9090
argument	9088
Ġconfined	9087
Ġpreg	9086
<!	9085
Ġpurchasing	9085
Ġsch	9082
shire	9080
Visible	9080
aster	9079
ĠJonathan	9078
ĠSteven	9076
ĠFerr	9076
Loop	9075
ĠKhan	9075
ĠModern	9074
ĠIG	9074
Rem	9072
Ġdropping	9072
ĠMem	9072
Ġscripts	9069
ĠIB	9069
asa	9068
Ġpathogens	9068
Extension	9067
onia	9066
INC	9066
China	9066
Ġfracture	9066
Ġwanna	9065
Ġzinc	9064
origin	9063
closed	9063
Ġspeakers	9063
Ġcomprise	9063
ĠMagn	9062
273	9061
ĠBoolean	9061
Ġdirt	9060
ĠMotor	9058
spring	9057
Ġeigenvalues	9057
sus	9056
Ġaccessed	9056
Ġendpoint	9055
650	9053
Ġcompanion	9053
Ġcmd	9053
ĠTRA	9053
Success	9052
Ġapproaching	9052
åĪ	9051
Ġislands	9051
Ġ|=	9047
bmatrix	9046
Unfortunately	9046
irect	9045
Ġexpects	9045
onc	9043
oda	9043
patch	9042
Keys	9041
oca	9040
Ġspo	9040
ĠGlu	9040
conduct	9037
253	9035
Ġunions	9035
ĠTX	9035
430	9034
'_{	9034
[...]
