.	51150160
,	43798278
Ġthe	41288741
Ġof	23444972
Ġand	19925060
Ġto	19263121
-	15965139
ĊĊ	15747746
Ġa	15590207
Ċ	14981132
Ġin	14277635
_	9983225
Ġis	9720916
Ġ(	8513788
Ġthat	8318875
)	7683194
Ġfor	7489160
:	6967021
1	6028068
Ġwith	5757642
(	5586113
2	5580672
Ġ	5381952
Ġ"	5232596
Ġon	4918809
/	4666702
Ġas	4498335
Ġbe	4393478
Ġwas	4359271
Ġit	4289870
ĠI	4249236
Ġby	3931454
Ġare	3892680
Ġ=	3866908
0	3790131
ĠĠĠĠĠĠĠĠĠĠĠĠĠĠĠĠ	3789780
;	3735145
s	3696626
Ġ-	3572546
Ġthis	3395073
ĠThe	3359106
Ġfrom	3296687
Ġ$	3281450
Ġat	3281354
Ġyou	3262882
{	3221891
âĢĻ	3220275
Ġor	3186803
Ġnot	3150214
Ġ\	3146109
*	3141344
}	3056270
Ġhave	2949935
\	2871547
's	2859807
3	2820477
Ġan	2813969
"	2726265
ĊĠĠĠ	2667790
Ġ0	2559620
>	2531726
Ġ*	2428128
Ġ1	2381511
Ġwe	2316849
Ġcan	2120356
Ġwere	2085727
."	1979499
$	1958268
Ġwhich	1950800
="	1939613
4	1936378
Ġhas	1878804
t	1853502
ĊĠĠĠĠĠĠĠ	1825981
Ġ+	1803400
Ġ{	1778665
Ġbut	1771277
The	1758107
Ġhe	1712649
Ġwill	1703217
?	1701426
x	1684319
5	1679061
).	1674214
Ġ2	1672082
A	1670011
Ġall	1651720
a	1636340
Ġif	1611908
ĊĠ	1599224
I	1588729
Ġhis	1571185
Ġone	1566658
d	1557078
B	1524213
Ġthey	1506744
n	1475461
S	1464446
ĠA	1460101
C	1430019
Ġtheir	1404615
Ġmore	1397560
**	1352667
i	1349880
Âł	1331689
_{	1292345
Ġhad	1278435
]	1272409
Ġ$\	1264834
Ġbeen	1263522
ĠS	1258621
<	1241807
p	1228762
Ġalso	1227894
Ġyour	1225694
'	1222158
Ġ<	1211891
),	1203928
ĠIn	1194151
);	1194094
b	1192698
ĠC	1191370
c	1188717
Ġabout	1175660
Ġ3	1173851
Ġwhen	1161885
Ġwould	1159603
=	1152895
Ġout	1141010
Ġtime	1139818
6	1133499
Ġso	1132489
Ġthere	1130400
't	1111759
m	1111147
Ġother	1110795
^	1108011
Ġmy	1086661
ĠâĢľ	1076206
Ġwho	1071409
f	1057625
8	1055767
[	1042320
Ġthan	1040372
Ġno	1037334
Ġup	1034282
Ġdo	1034020
Ġ[	1023551
----------------	1020135
ĠĠ	1002576
7	996058
D	992124
Ġits	982553
Ġinto	974242
Ġ'	966068
Ġ&	965303
ĊĠĠĠĠĠĠĠĠĠĠĠ	962935
Ġ}	960813
ĠP	951944
Ġour	945770
Ġonly	939417
in	939146
Ċĉ	936463
Ġtwo	935042
T	933918
Ġsaid	925693
Ġher	922843
e	922126
k	914085
ĠM	905160
Ġwhat	904404
Ġlike	901692
F	901134
Ġany	898607
R	892793
P	888273
ĠB	884342
Ġsome	884077
Ġmay	881629
Ġ4	881141
Ġnew	879624
g	874918
ĠIt	866795
ĠT	866039
ĠThis	859213
%	852627
Ġsuch	846929
Ġ5	846817
Ġfirst	844238
M	839123
Ġthese	828247
E	828126
9	822395
ĊĠĠĠĠĠĠĠĠĠĠĠĠĠĠĠ	808107
Ġthem	796022
Ġget	794838
Ġp	793400
ĠD	793242
Ġover	791718
r	790845
Ġme	790457
ref	789136
Ġuse	777933
Ġthen	772764
Ġjust	772114
type	765664
Ġafter	761815
j	761249
N	758023
+	757782
Ġbetween	756700
h	756308
ĠF	756000
L	750368
H	746072
ĠL	735074
ĠWe	725096
ĠR	720945
Ġused	719901
Ġwhere	715549
Ġv	715431
Ġcould	715169
Ġdata	710931
ĊĠĠĠĠĠ	709609
.,	709360
",	707867
ĠH	700135
v	692305
</	689503
Ġs	686617
Ġpeople	685167
In	680624
Ġshe	669059
Ġusing	662344
G	661734
#	659012
Ġbecause	654672
ĠG	649947
10	645397
ĠN	640035
Ġm	635897
{\	633891
Ġi	626675
Ġshould	626212
Ġ[@	614577
!	612926
Ġwell	608198
}\	605752
Ġhow	603233
Ġc	601173
Ġmost	598064
ĠE	597342
Ġ.	595033
y	594105
u	591286
Ġ10	591267
Ġeach	590831
){	590155
Ġcase	586394
Ġhim	582729
Ġd	581863
Ġclass	579682
Ġ6	574869
Ġ|	574508
Ċĉĉ	571300
Ġunder	570504
l	565757
~	557474
Ġmake	556002
ĠU	550411
Ġwork	548854
X	548427
ĠĠĠ	548002
ĠHe	547893
Ġthrough	543562
Ġsame	537650
Ġ@	537579
Ġway	536427
K	534645
Ġt	531636
Ġsee	528667
Ġeven	527082
Ġthose	522122
->	520655
Ġyears	519950
ing	519937
Ġvery	519920
frac	519552
Ġnow	518882
Ġboth	518212
Ġknow	515448
z	513784
w	512867
Ġset	511559
W	508096
ĠK	506398
Ġ7	506194
Ġbeing	505756
Ġf	502318
Ġdid	501331
Ġb	501282
Ġ_	500602
Ġmany	498996
Ġneed	498607
Ġbefore	494985
Ġnumber	492762
?"	490919
Ġreturn	490563
Ġdifferent	489655
Ġright	487481
com	487250
()	487214
](#	487183
right	483525
}$	482094
Ġback	481514
q	480931
âĢī	479644
Ġ8	478264
00	474738
ĊĊĠĠĠ	472348
Ġhere	471753
J	471723
12	471033
Ġdon	469962
::	468464
left	466987
to	465557
">	464498
--	463078
Ġmade	458578
Ġvalue	458305
Ġus	454925
âĢĿ	452898
Ġ\[[@	452581
ĠJ	452355
V	452246
fig	451937
Ġwhile	451641
ĠâĢĵ	450248
Ġn	449391
Ġsystem	446524
://	446144
Ġfound	444115
Q	443443
Ġhigh	442723
Ġde	441090
Ġmuch	435113
o	433756
":	433696
Ġ**	433635
the	433191
Ġstudy	432163
11	432082
Ġre	432069
.âĢĿ	431836
Ġe	431622
Ġfunction	431171
re	428451
Ġthree	428431
Ġstate	428229
Ġgood	428031
Ġwant	424028
Ġpatients	423177
Ġh	422628
Ġpublic	421486
ĠIf	421316
ĠW	420641
ĠV	420345
Ġwithout	418581
ĠFor	417817
th	417699
Ġduring	417445
We	415533
Ġcells	413423
Ġname	412948
ĠLet	411345
_{\	410533
What	410035
,"	410035
Ġr	409353
Ġcourt	409128
Ġdoes	407990
ĠĠĠĠ	407460
Ġg	404733
Ġorder	403497
Ġthink	401346
Ġ//	400736
Ġl	400066
Ġ:	399735
Ġx	399494
$,	398985
',	396448
ĉ	396443
Ġyear	394380
Ġend	394145
end	389771
Ġnon	388809
Ġpart	386467
Ġgroup	386248
It	385521
ly	384210
Ġagainst	381689
Ġdown	380667
id	380433
Ġun	379944
Ġlong	378092
//	375427
Ġtake	373701
$.	373498
("	370850
Ġstill	370787
}{	369425
get	369044
O	368839
Ġmust	368211
Ġlast	368025
ĠĊ	366838
Ġtype	366746
Ġgo	365484
ed	364309
|	363906
Z	361785
(\	361172
U	360798
Ġinformation	359887
ĠBut	358550
čĊ	354826
Ġsecond	353633
Let	352814
Ġday	351683
This	350038
Ġ9	347931
Ġ,	347896
mathcal	347531
Ġresults	346826
...	346297
Ġal	346067
ĊĠĠĠĠ	343536
int	343522
and	342699
ĠO	342218
ĠAs	341116
();	340587
Ġfollowing	339993
Ġoff	339141
^{	337585
Ġgoing	333849
âĢľ	333103
Ċĉĉĉ	332421
16	332215
Ġfind	332080
],	331495
if	330680
Ġlife	329032
Ġwithin	327867
'm	325656
ĠYou	324549
&	323390
Ġaround	323341
Ġpoint	322181
Ġsince	321447
20	321381
].	320512
Y	320127
ĠAnd	319844
alpha	318385
000	316537
is	315766
,âĢĿ	315219
Ġcontrol	314812
15	314658
Ġmodel	314619
Ġ*/	314573
Ġanother	314141
Ġam	313048
)$	312998
13	310849
or	310121
Ġ12	309375
Ġ</	306986
âĢĵ	306617
ĠĠĠĠĠ	306170
Ġown	305278
Ġexample	304609
Ġincluding	302556
Ġself	302219
ĊĠĠ	301752
You	301722
CR	301605
]\].	301474
Ġline	301037
Ġtoo	300836
Ġevery	298800
14	298466
Ġcell	298232
ĊĊĠ	298211
Ġgiven	298112
Ġtest	297769
Ġshow	297497
Ġhelp	297358
Ġk	296577
Ġreally	294666
Ġmight	294496
Ġworld	294337
Ġsay	293053
Ġresult	293011
\]	292890
ĠHowever	292101
Ġet	291527
Ġw	291459
Ġprocess	289646
Ġ{#	289557
Ġfile	289542
ĠThey	289447
Ġ#	289373
Ġ20	289284
32	287947
18	287251
19	286922
Ġform	286910
01	286759
're	286566
Ġbased	285195
Ġ$$\	283687
Ġsupport	283294
Ġpresent	283231
ĠNo	281633
name	278478
Ġanalysis	277456
Ġper	276578
Ġnext	275071
Ġhome	274910
ĠâĢĶ	274280
Ġbest	274158
Ġ\[	273328
Ġevidence	272073
Ġsomething	271929
Ġleft	271129
Ġchange	270295
Ġsmall	269961
Ġmethod	269960
Ġwhether	269896
ĠĠĠĠĠĠ	268425
Ġy	266837
mu	266309
âĢĶ	266059
17	264562
}(	263574
Ġplace	261889
text	261872
Ġfact	261473
Ġ15	260917
Ġpower	260106
ĠThere	258601
Ġimportant	258567
,\	258455
ĠWhat	257943
Ġfew	257512
Ġbetter	257452
Ġ11	257077
ĠNew	256949
Ġabove	256745
Ġlarge	255736
ĠX	255473
data	253728
Ġless	253492
Ġtrue	253431
Ġwater	252497
Ġnever	252487
label	251845
Ġlevel	251742
Ġint	251528
mathbb	250409
able	250109
Ġtreatment	248965
Ġleast	248753
Ġlittle	248218
Ġpossible	247704
Ġ{\	247409
To	246769
al	246511
ĠĠĠĠĠĠĠ	246070
Ġthings	245943
Ġdue	244560
Ġcome	244033
div	243670
Ġproblem	243348
set	243276
Ġlow	242602
Ġlaw	242430
}}	242402
Ġgreat	240103
ĊĠĠĠĠĠĠĠĠĠ	239104
ĠTo	239096
Ġlook	239068
of	237970
Ġ--	237659
Ġ18	237258
Ġfield	237044
Ġhaving	236298
Ġdays	236049
Ġshown	235606
Ġgive	234542
)\	234540
Ġeffect	234300
begin	234095
Ġu	233990
Ġcommon	233958
Ġgot	233097
30	232897
Ġ/	232786
Ġtrial	232414
))	232173
Ġfurther	230820
!"	230549
If	229092
ĠSo	228421
Ġlet	228304
Ġsize	228270
Ġgame	228112
@	227988
Ġhealth	227978
Ġj	227084
Ġexpression	226713
Ġprovide	226293
Ġcode	226262
Ġalways	225789
Ġcurrent	225424
as	225283
As	225052
Ġagain	224668
Ġgovernment	224470
Ġ30	224282
Ġeither	223741
Ġfour	223647
Ġknown	223038
Ġcalled	222612
le	221586
21	221371
ĠState	221144
ĠThese	220913
Ġfree	220671
ĊĊĠĠĠĠĠĠĠ	220510
Ġuntil	220438
Ġavailable	220209
('	220208
Ġfamily	220031
ĠUnited	219892
\[	219461
Ġsingle	219456
Category	219297
table	218618
rm	218162
Name	218082
Ġelse	217925
ĠShe	217546
Ġhuman	217539
aligned	217493
Ġmeans	216635
ation	216588
Ġaction	216532
ĠĠĠĠĠĠĠĠ	216349
ĠCourt	216069
en	215355
Ġ==	214895
li	214861
Type	214693
Ġvalues	214675
Ġman	214470
Ġreal	214446
Ġo	214278
Ġcases	213839
Ġable	213786
pi	213621
Ġchildren	213587
Ġlocal	213529
Ġlight	213330
Ġmean	213191
):	213044
ĠZ	212881
pone	212807
Ġside	212760
Ġseveral	212372
Ġ16	212351
"}	211234
Ġpost	210608
lambda	210538
Ġhigher	210455
usepackage	210436
ĠThat	209926
For	209642
this	209593
Ġarea	209575
ĠY	209516
've	209372
st	209274
up	209258
Ġstudies	209076
25	208950
}$$	208619
24	208533
Ġbody	208377
Ġtop	208064
http	207215
Ġtimes	207147
Ġsignificant	206972
Ġstart	206362
Ġput	206327
Ġteam	206250
Ġerror	205819
span	205768
import	205748
Ġwhy	205666
Ġ)	205466
Ġrate	205461
22	204982
Ġfull	204802
Ġcare	204797
er	204749
ĠRe	204092
Ġenergy	203860
on	203299
tr	203075
Ġrun	202203
ĠStates	201154
Ġtotal	201077
us	200988
================	200216
Ġsimilar	200018
Ġopen	200001
Ġ14	199876
Ġalready	199297
Ġdidn	199182
org	198521
ĠAll	198435
Ġspace	198411
ÃĲ	198349
}_	197865
And	197486
Ġassociated	197388
Ġlevels	196888
Ġperson	196359
Ġsub	196076
><	196069
Ġresponse	195574
05	195553
Ġlot	195538
Ġ100	195351
Ġhand	195145
Fig	195099
ĠWhen	195040
ĊĊĊ	194963
Ġgeneral	194507
---	194495
Ġfinal	194038
Ġ13	193721
ĠĠĠĠĠĠĠĠĠ	193513
Ġquestion	192885
Ġrequired	192534
Ġwomen	192275
'll	192198
Ġdone	192083
Ġkey	192046
];	191819
mathbf	191772
_\	191770
Ġaway	191583
man	191384
Ġissue	191228
Ġsays	191226
23	190675
string	190109
Ġcall	190061
Ġoften	190034
Ġ${\	189882
He	189528
Ġspecific	188646
Ġlist	188475
at	188373
ism	188365
Ġterms	188086
Ġactivity	187837
sum	187314
ers	186941
Ġco	186883
Ġz	186685
Ġ=>	186532
ĠSt	186506
},	186484
Ġgroups	185869
Ġhowever	185840
Ġamong	185799
sec	185513
Ġreported	185377
Ġthing	184723
ate	184570
Ġfar	184520
Ġsure	184446
Ġlater	184209
beta	183996
it	183675
ve	183670
for	183221
ization	183080
ant	182862
Ġcourse	182782
Ġenough	182735
Ġage	182467
ia	182444
Ġtold	182097
Ġ`	182039
Ġthough	181682
es	181582
sigma	181334
am	180962
ist	180955
Ġcompared	180871
ĠOn	180314
un	179706
Ġalong	179688
Ġread	179582
Ġprovided	179180
Ġmaking	179108
out	179035
></	178714
return	178495
Ġposition	178423
Ċĉĉĉĉ	178252
Ġinclude	178107
Ġhead	178021
Ġworking	177417
Ġconst	177294
ic	177203
Ġupon	177119
Ġconditions	176802
ized	176655
Ġpre	176516
Ġweek	176383
Ġrole	176236
But	175918
Ġpotential	175625
Ġ%	175204
Ġlower	175117
27	174910
64	174772
Ġprogram	174485
}_{	174375
Ġincrease	174321
Ġrange	174316
Ġvoid	174294
Ġdevelopment	174159
Ġeffects	174155
Ġseen	173863
Ġplay	173781
Ġrisk	173632
Ġold	173617
]).	173574
de	173453
Ġdoesn	172914
Ġchanges	172535
Ġresearch	172182
Ġ([@	171686
`	171673
Ġsection	171632
26	171620
td	171601
Ġtogether	171397
ating	171384
ĊĊĉ	171342
Ġsource	171063
Ġmoney	170758
Ġprotein	170565
Ġproperty	170555
ĠâĢĺ	170515
}^{	170030
Ġincreased	169930
Ġbecome	169884
28	169852
co	169839
Ġschool	169789
Ġservice	169731
bar	169639
Ġkeep	169635
Ġmain	169353
Ġ17	169213
www	169163
Ġfactors	169085
Ġimage	169042
Ġ([	168760
Ġaddition	168629
^{\	168543
Ġcannot	168350
No	168294
html	168272
Ġobserved	168262
Ġ24	168158
Ġbusiness	168114
os	167950
Ġparticular	167949
Ġlove	167732
ID	167070
ĠUniversity	166584
Ġuser	166524
Ġaccording	166163
Ġmonths	166112
"}).	166042
Ġdisease	165632
Ġthird	165594
Ġtry	165541
Ġearly	164948
Ġdoing	164920
Ġ50	164731
Ġcreate	164229
Ġview	164061
Ġcountry	163700
ĠĠĠĠĠĠĠĠĠĠ	163538
Ġstructure	162860
Ġdefendant	162634
Ġdescribed	162115
mathrm	161859
\_	161652
Ġprivate	161548
Ġmultiple	161516
sqrt	161447
Ġ25	161282
Ġthought	161125
Ġactually	160955
Ġpositive	160888
code	160695
31	160495
ĠSee	160375
Ġpoints	160352
Ġcompany	160346
ĠĠĠĠĠĠĠĠĠĠĠ	160271
Ġperiod	159993
There	159821
Ġversion	159557
Ġobject	159514
Ġadd	159371
pm	159307
Ġacross	158973
Data	158969
io	158844
gamma	158333
Ġid	158236
Is	158233
Ġcontent	158201
Ġothers	158052
Ġreport	158033
key	157820
class	157645
value	157463
Ġsurface	157089
Ġrather	156957
Ġshort	156943
50	156917
Ġbase	156823
Ġonce	156735
");	156577
delta	156047
String	156024
Ġstring	155643
Ġlikely	155508
ated	155226
Ġfive	155207
time	154994
Ġanti	154876
Ġshows	154775
ĠAn	154764
Ġmillion	154648
Ġperformed	154565
ian	154516
ĠAt	154492
Ġshowed	154452
Ġbelow	154348
Ġamount	154336
ul	153993
Ġhard	153952
Ġmatter	153797
ĠCo	153785
Ġ19	153516
ĠAmerican	153430
Ġcame	153350
Ġfeel	153340
'd	153290
Ġsystems	153123
Ġpast	152983
Ġstandard	152807
Ġclear	152732
ell	152539
no	152209
Ġfalse	152160
Ġcause	152086
Ġsite	152015
bib	151870
Ġobtained	151767
Ġbig	151749
ts	151540
ac	151512
Ġtook	151405
.)	151396
Ġterm	151182
Ġinterest	150957
}^	150624
)(	150551
Ġwhole	150356
Ġever	150055
Ġmakes	150010
Ġapplication	149934
Ġfood	149720
Ġcancer	149626
ness	149604
Ġexperience	149414
[@	149263
size	149124
Ġ(*	149053
Ġvarious	148847
Ġseason	148670
Ġtaken	148489
29	148452
Ġsocial	148434
001	148364
Ġconsidered	148113
rho	148078
Ġfuture	148048
Ġadded	148048
Ġfactor	147899
Ġrelated	147864
40	147854
")	147712
Id	147661
Ġ>	147524
02	147496
phi	147351
Ġmen	147170
il	147003
Ġaccess	146889
Ġyet	146877
ĠGod	146762
Re	146682
Ġq	146578
Ġdefined	146130
ĠOne	145668
Figure	145640
/*	145007
Ġbelieve	144989
Ġproject	144693
test	144232
ĠQ	144077
Ġapproach	144008
ch	143593
So	143570
)/	143568
ĠThen	143470
100	143438
Ġsolution	143375
Ġcommunity	143150
ine	143122
Ġbit	143068
line	142411
Ġminutes	142358
Ġwent	142356
partial	142240
Ġstates	142233
ĠAfter	141707
eq	141584
Ġtext	141535
Â°	141518
Ġdecision	141454
Ġindividual	141308
Ġblood	140961
Ġkind	140954
^{-	140891
%)	140781
On	140665
ity	140316
Ġdevice	139976
times	139786
Ġtrying	139628
Ġreason	139530
Ġincluded	139520
Ġch	139447
omega	139373
nu	139349
35	139326
Ġmajor	139112
theta	138873
Ġregion	138656
ak	138602
ĠUS	138476
Ġ$(	138445
Ġmembers	138292
ations	138002
Ġtoday	137999
Ġrespectively	137953
Ġclose	137622
ÂĤ	137520
Ġclaim	137345
Ġchild	137282
],[@	137191
Ġmaterial	137134
Ġreceived	137122
Ġwon	136809
Ġadditional	136712
Ġpercent	136580
Ġcar	136438
34	136306
Ġcity	136242
Ġsignificantly	136171
Ġanything	136165
Ã©	136043
Ġpatient	135988
Ġ},	135863
36	135840
Ġevent	135753
ies	135551
tau	135419
38	135194
log	135072
ad	135027
an	134514
Ġgrowth	134431
Ġcertain	134423
var	134410
Ġface	134343
Ġnull	134280
ĠĠĠĠĠĠĠĠĠĠĠĠ	134272
Ġneeds	134259
Ġasked	134180
Ġen	133993
one	133956
include	133788
Ġdeath	133690
Ġreview	133619
Ġnight	133577
Ġgetting	133404
Ġsimple	133186
by	133130
ĠĊĊ	133058
Ġnormal	133031
Ġhalf	133011
Ġhistory	132999
Ġ21	132712
Ġproduct	132498
leq	132216
Ġst	132186
}{\	132120
ar	132069
Ġlooking	131887
33	131886
Ġdifference	131366
Ġhref	131101
Ġmethods	131067
ors	131034
ne	131022
Ġroom	130978
Ġseries	130971
Ġperformance	130736
Ġvia	130578
$-	130565
âĢ¦	130476
pt	130445
Ġproblems	130360
Table	130273
ĊĠĠĠĠĠĠ	130271
based	129921
um	129895
Ġparty	129891
self	129836
ĠMr	129791
Ġthus	129769
Ġtarget	129738
Ġ\\	129731
Ġissues	129491
Ġinvolved	129487
infty	129330
Ġnetwork	129248
Ġalmost	129205
Ġprevious	129024
Ġnothing	128810
Ġhours	128745
Ġcheck	128691
Ġservices	128626
Ġtherefore	128587
year	128524
Ġneeded	128347
Ġexpected	128195
Ġgene	128067
List	127822
When	127758
Ġmass	127748
Ġpay	127740
ir	127453
Ġheld	127451
Ġconsider	127280
How	127224
03	127142
Ġcost	127067
45	127000
Ġrecord	126999
ĠĠĠĠĠĠĠĠĠĠĠĠĠ	126907
Ġpopulation	126897
Ġinstead	126846
ie	126648
Ġpaper	126565
Ġunderstand	126432
ĠÂ§	126353
https	126336
Ġcomplex	126292
Ġcondition	126291
ĊĠĠĠĠĠĠĠĠ	126031
ĠIs	125996
Ġdesign	125992
ling	125915
Ãĥ	125845
Ġrecent	125370
Ġair	125311
ĠDe	125261
file	125183
Ġseems	125130
ll	124889
est	124869
ai	124824
el	124812
*,	124781
new	124779
Ġidea	124724
Ġlines	124703
et	124270
ally	124209
Â±	124191
Ġloss	123993
čĊĠĠĠ	123944
Ġjob	123758
Ġpolice	123754
Ġfilm	123744
Ġstep	123642
Ġpolicy	123633
Ġstory	123593
Ġcomes	123196
Ġstudents	122893
Ġhouse	122889
Ġmotion	122871
Ġdi	122813
add	122765
Ġproduction	122732
Ġweight	122715
Ġmove	122533
Ġquality	122532
Ġvar	122452
Ġtell	122240
min	122197
Ġlead	122165
Ġ...	122081
Ġplan	122072
Ġsomeone	122070
Ġtable	121973
Ġmodels	121839
Ġpage	121807
Ġprior	121786
hat	121726
Ġtaking	121466
Ġstarted	121451
Ġ(-	121439
Ġ22	121359
Ġspecial	121328
ĠYork	121294
Ġblack	121226
Ġmedia	121110
Ġcon	121096
Ġprovides	120850
Value	120847
Ġstrong	120627
Ġitself	120548
xi	120501
ĠThus	120338
Ġnecessary	120306
ab	120253
Ġmarket	120170
Ġpath	120130
Ġdistribution	119734
see	119557
Ġlive	119469
Ġaverage	119348
That	119317
em	119152
ment	119145
80	119044
04	119044
Ġ40	118806
ion	118797
Get	118690
define	118589
Ġallow	118569
px	118466
ĠBy	118414
list	118405
Ġrights	118359
Ġshall	118303
au	118290
Ġsignal	118187
Ġprobably	118089
ED	118052
all	117863
eta	117710
ĠTrump	117516
Delta	117398
ING	117389
ex	117251
Ġclinical	117183
Ġaccount	116958
99	116673
ĠNational	116647
Ġoriginal	116621
param	116561
Ġfunctions	116278
ley	116221
Ġsimply	116189
Ġproducts	116180
Ġturn	116168
Ġbook	116035
Ġ||	116034
Ġla	115902
^\	115864
Ġphase	115823
Ġlength	115789
All	115597
Ġespecially	115550
));	115548
Ġyoung	115548
ive	115545
Ġtemperature	115438
Ġsequence	115309
Ġsample	115274
Ġwords	115268
Ġheart	115197
39	115008
')	114853
Ġproperties	114750
Ġinput	114617
Ġsix	114599
ĠMy	114570
ĠĠĊ	114483
Ãĳ	114416
09	114325
ĠOF	114318
ĠTHE	114268
08	113901
]{}	113878
Ġ!=	113831
Ġcolor	113816
Ġaddress	113718
Ġcomplete	113518
not	113449
Ġmind	113386
ĠWith	113274
Ġpresence	113270
ĠĠĠĠĠĠĠĠĠĠĠĠĠĠ	113242
ĠAl	113141
Ġdetermined	113140
ĠCity	113096
Ġmedical	113046
old	112777
Ġstatic	112614
Ġevents	112586
Ġpolitical	111946
Ġoutside	111881
ins	111852
Ġpressure	111780
ists	111746
Ġarray	111684
View	111647
Ġsense	111618
Ġdate	111511
AS	111486
With	111478
ner	111472
Ġworks	111354
Ġeffective	111165
}}\	111090
Ġsubject	111048
im	110967
Ġoutput	110967
Ġprimary	110939
42	110897
ĠĠĠĠĠĠĠĠĠĠĠĠĠĠĠ	110837
Ġfront	110805
Ġlanguage	110784
Ġgenes	110768
Ġrespect	110656
Ġfollow	110500
Ġeverything	110358
ĠSh	110353
op	110247
Ġ$$	110157
be	110069
led	110022
Ġwhite	109875
Ġtypes	109778
Ġelement	109708
ĠÂ±	109625
Ġfeatures	109609
Ġlonger	109599
Ġnear	109533
Ġinside	109246
Ġbad	109150
Ġstop	109138
Ġ23	109119
Ġdetermine	109108
Ġphysical	109006
Ġpresented	108872
";	108855
Ġeasy	108801
ĠInc	108795
Ġjudgment	108551
Ġquite	108510
net	108479
Ġidentified	108455
-\	108436
Ġcreated	108377
]\]	108376
br	108334
Ġsuper	108146
Ġrunning	108133
Ġsamples	108011
bf	107957
Ġcross	107840
Ġbasis	107828
Âĥ	107572
Ġmember	107513
Ġ&&	107500
Ġformer	107412
Ġ28	107395
field	107378
Ġparameters	107370
ap	107328
res	107312
Ġwanted	107250
array	107171
Ġbreak	107119
ĠDr	107078
Ġtax	107049
Ġstatus	106985
Ġfollows	106981
my	106904
ting	106834
ary	106815
Ġstatement	106810
Ġinitial	106676
ĠMay	106454
](	106247
Ġareas	106224
âĢĲ	105945
ĠString	105903
ise	105886
Ġpersonal	105762
Ġdis	105668
($	105601
so	105534
Ġago	105503
Ġisn	105463
Ġelements	105442
Object	105388
ĠLicense	105264
public	105233
Ġweeks	105171
95	105099
Ġdirectly	105064
My	105051
ro	104931
Ġindex	104929
ee	104922
Ġground	104748
..	104507
Ġquestions	104482
son	104467
\\	104247
Ġrelationship	104229
Ġnatural	104148
als	104121
Ġsearch	104077
Ġsh	103919
Ġmemory	103895
__	103866
Ġrest	103776
Ġrequest	103740
Ġforce	103714
37	103569
}$,	103549
Ġgames	103416
Ġtheory	103360
rangle	103275
sp	103102
Ġcontext	103023
Ġtraining	102981
60	102955
Ġnews	102891
tilde	102861
te	102707
(-	102464
44	102379
Ġvideo	102228
less	102164
}(\	102111
ator	102082
Ġcontinue	101972
str	101940
48	101939
])	101937
over	101738
Ġ(\[	101554
Ġbuilding	101538
Ġbehind	101491
43	101319
ens	101279
ge	101272
69	101160
Ġcharacter	101156
})	101146
Ġ/*	101130
Ġbuild	101103
Ġgreater	101023
path	100855
Ġapplied	100852
ance	100824
Ġdifficult	100801
sh	100770
Ġwrong	100736
Ġex	100696
Ġlimited	100557
Ġacid	100501
Ġmice	100425
ÃĤ	100412
void	100412
app	100347
Ġmonth	100305
Ġrelease	100238
Ġdeal	100234
Ġdistrict	100178
Ġpreviously	100166
ĠDNA	100159
ĠCh	100125
ĠSuppose	100049
Ġtitle	99911
Ġincludes	99887
Ġreduced	99874
ah	99862
max	99855
Ġpro	99765
ĠTherefore	99694
Ġrequire	99658
const	99599
cdot	99579
ty	99573
Ġability	99430
Ġred	99300
Ġdrug	99242
Ġdirect	99166
ĠJohn	99062
Ġsp	99024
width	99015
Ġmessage	98966
age	98961
Ġknowledge	98837
Ġstyle	98827
ans	98816
Ġclaims	98736
Ġdeveloped	98688
Ġarticle	98522
from	98372
ĊĠĠĠĠĠĠĠĠĠĠĠĠĠ	98353
with	98291
Ġlayer	98235
ings	98216
".	98215
ĠOur	98132
Ġ60	97898
ates	97749
Ġsaw	97739
Ġcontact	97676
ful	97589
Ġsoftware	97571
Ġinvention	97468
sub	97337
Ġwrite	97282
Ġ26	97085
41	97032
ra	97015
Ġindependent	96951
Ġmap	96790
At	96787
Ġnumbers	96603
Ġgas	96603
Ġplayers	96592
Ġwritten	96580
().	96576
Ġhttp	96572
+\	96467
Ġoil	96392
:**	96386
psi	96381
Ġreference	96363
ig	96343
\])	96277
Ġfollowed	96262
si	96236
Ġcoming	96177
47	96174
Ġ2012	96165
07	96138
Ġparticularly	96082
Ġinter	95971
Key	95942
ĠCounty	95939
Ġflow	95932
Ġleave	95929
state	95895
js	95867
con	95772
di	95728
Ġact	95674
izing	95661
Ġactive	95533
Ġcut	95475
)}	95436
An	95390
Ġsecurity	95339
06	95285
Ġobtain	95277
ĠSince	95260
Ġimpact	95149
Ġdef	95067
ĠPresident	95047
ish	95016
Ġnegative	95016
Ġdefault	94960
Ġnote	94853
Ġunit	94816
off	94717
ĠAct	94689
}$.	94648
ability	94611
ments	94575
ĠWhile	94423
Ġentire	94372
Ġdouble	94275
File	94215
he	94199
Ġ[*	94053
ĠHis	94014
Ġspecies	93983
70	93976
Ġusually	93973
Ġnature	93908
![	93778
Ġrule	93765
Ġrates	93636
se	93623
Ġdifferences	93622
Ġ27	93603
Ġliving	93446
lo	93422
Ġoffice	93422
Ġword	93348
Ġalthough	93288
Ġnational	93284
65	93206
Ġwhose	93189
Ġhope	93115
let	93079
ize	93074
$\	93045
Ġmulti	93022
Ġ2013	93007
Ġpractice	92996
Ġglobal	92954
Ġtried	92922
ical	92901
Ġanswer	92880
ĠHere	92771
ĠWorld	92670
Ġonline	92654
Ġetc	92596
Ġhold	92581
=\	92526
Ġland	92472
user	92459
Ġse	92407
Ġcorresponding	92280
Ġ2016	92241
AC	92237
Ġgenerally	92214
Ġlost	92143
Ġfl	92140
Ġforward	92123
Ġargument	92102
Ġrecently	92067
ĠSouth	92020
like	91988
Ġpain	91884
AN	91838
we	91781
Ġwar	91728
function	91716
Ġbrain	91688
Ġthemselves	91679
Ġcom	91668
Ġplaintiff	91573
St	91542
Suppose	91525
land	91519
Ġbar	91497
Ġfederal	91450
Ġanyone	91447
Ġ2014	91441
Ġtakes	91329
Ġproposed	91266
Ġcountries	91248
Ġlate	91225
By	91139
Ġagreement	91120
Ġpurpose	90936
ane	90894
ur	90725
Set	90683
Ġsaying	90677
Ġdensity	90523
Ġshare	90489
epsilon	90410
ĠâĪĴ	90354
item	90284
Ġtreated	90195
ut	90003
Ġhimself	89851
Ġart	89839
One	89716
Gamma	89598
Ġblock	89584
75	89552
Ġlegal	89504
ei	89496
ea	89384
Omega	89370
Ġsituation	89356
ĠChina	89309
ĠHouse	89265
pr	89223
ĠMarch	89207
Ġenvironment	89104
ase	88982
ĠII	88935
Ġcenter	88916
base	88874
lib	88869
Ġbecame	88702
om	88669
ĠMa	88637
Ġrelative	88608
Ġpretty	88517
ĠAmerica	88485
len	88389
Ġ2015	88341
me	88269
Ġprice	88174
ĠNorth	88087
Ġfailed	87958
Ġways	87856
Ġ29	87852
Ġpublished	87792
ag	87735
Error	87697
Ġoffer	87667
88	87629
les	87611
ti	87574
ĠDepartment	87533
ĠLe	87501
way	87349
AR	87308
Ġ/>	87290
varepsilon	87271
Ġ?	87256
Ġhighly	87169
Ġwoman	87076
Ġpass	87064
ics	87036
Ġ);	87015
003	87008
Ġfindings	86937
ms	86860
Ġallowed	86821
that	86776
Ġderivative	86730
Ġnode	86711
Ġcharge	86710
Ġtalk	86680
oo	86674
Ġselected	86617
ca	86604
Ġcontract	86603
Ġdegree	86454
EN	86360
49	86342
ĠSome	86266
..."	86093
Ġlimit	86087
top	86054
Ġcomponent	86035
Ġlarger	85995
Ġstage	85986
Ġmeasured	85983
Ġgave	85947
Ġdesigned	85942
ĠSystem	85935
la	85924
Ġsent	85898
Ġoperation	85893
Ġjury	85805
Ġbring	85804
Ġinstance	85749
IN	85748
term	85714
ĠDo	85622
link	85603
Ġdetails	85600
94	85512
ent	85461
Ġindividuals	85421
ĠFirst	85410
Ġmoment	85343
Ċĉĉĉĉĉ	85333
ite	85235
Ġconstant	85221
Ġeveryone	85130
Ġcurrently	85051
Ġcaused	85026
Ġimages	85025
Ġdirection	85025
Ġfocus	85012
Ġalone	84995
ĠCD	84974
ĠGeneral	84962
Ġbackground	84759
Ġfriends	84734
Ġlocation	84688
###	84674
ĠNot	84652
Ġproteins	84629
Ġbehavior	84594
Ġwasn	84503
ering	84486
ry	84478
cal	84474
ip	84462
index	84443
Ġgives	84386
ĠJune	84354
Ġ2011	84350
čĊĠĠĠĠĠĠĠ	84314
Ġcomponents	84212
ions	84211
cl	84125
Ġask	84021
Ġwin	83973
ĠAlthough	83899
Ġ2010	83890
Ġmatrix	83880
Ġchoice	83874
ure	83840
Ġscale	83792
Ġrequires	83690
mm	83550
ĠFig	83418
Ġ:=	83386
Ġcompanies	83170
chi	83099
Ġbegan	83000
Ġknew	82995
document	82895
46	82848
Ġfixed	82793
Ġleading	82727
ĠHow	82664
ol	82648
Ġratio	82630
Ġoptions	82627
čĊĠ	82585
Ġmother	82559
Ġdisplay	82534
Ġ;	82521
Ġ///	82511
Ġeyes	82460
ĠCon	82436
Ġfailure	82416
ae	82400
Ġ2017	82387
Ġ[**	82329
}}$	82328
script	82226
Ġfinancial	82124
Ġmanagement	82123
Ġfrequency	82102
(),	82026
77	81895
dev	81878
90	81837
ĠNow	81784
"><	81743
');	81724
)=	81720
Ġunique	81683
Ġ->	81682
fn	81639
Ġattention	81633
Ġeducation	81626
po	81595
Ġusers	81563
map	81548
Ġtechnology	81522
ha	81495
ta	81476
Ġappropriate	81448
ĠCir	81444
ous	81442
Ġcontains	81381
Ġmicro	81361
Ġ31	81335
go	81310
{{\	81291
97	81182
Ġdivided	81063
Ġcompletely	81007
Ġincreasing	80967
Ġled	80961
Ġpattern	80877
ide	80831
box	80817
ana	80778
Ġcosts	80776
Ġorg	80764
Ġconnection	80740
ĠÂł	80728
Ġprime	80686
ets	80620
Ġapp	80607
Ġparts	80439
());	80405
Ġseem	80384
Ġexpect	80359
ative	80351
Ġapply	80325
Now	80320
Ġindustry	80284
Ġparties	80283
Ġsuggest	80252
Ġmode	80177
Ġoption	80175
Ġle	80174
55	80168
yl	80132
67	80110
Ġfiles	80102
Ġserver	80089
ĠJanuary	80066
Ġgoal	80056
sim	79977
ial	79952
Ġearlier	79897
Ġfine	79876
ier	79857
ina	79821
AL	79801
ĠApril	79792
Ġpr	79770
cr	79714
._	79714
She	79688
From	79648
Test	79633
title	79597
Ġexpressed	79575
Ġlack	79574
Text	79449
Ġcount	79448
Ġdistance	79399
varphi	79317
ĠJuly	79312
day	79305
ph	79277
Ġsupported	79272
Ġgenerated	79223
Exception	79173
Ġoverall	79146
Ġ\<	79128
Ġestablished	79104
Ġstated	79070
back	79045
Ġallows	79044
Ġdevices	78930
They	78898
cm	78806
ĠBe	78786
Ġuseful	78767
Ġeasily	78732
Ġcopy	78669
Ġlink	78668
Ġmet	78657
Ġstay	78565
ĠCa	78508
Ġheat	78439
ĊĊĠĠĠĠĠĠĠĠĠĠĠ	78408
Ġsites	78387
ob	78379
.'	78366
Ġcontaining	78358
AT	78342
Ġreasons	78311
Ġmin	78289
002	78096
Ġfinding	78089
Ġequal	78058
Ġfire	78045
AP	78017
Ġ32	77963
App	77923
Ġsoon	77921
)$.	77808
Ġhighest	77771
"/>	77766
Ġmeasure	77714
Ġlocated	77713
ek	77702
ats	77698
)-	77667
form	77583
Ġparameter	77538
Ġproduced	77504
Ġstress	77469
Ġactivities	77431
Ġhost	77301
Ġexcept	77298
Ġeconomic	77270
Ġnotice	77145
IC	77134
PA	77112
ce	77106
Ġreduce	77094
Ġrelevant	77066
Ġfiled	77049
ton	77048
)^	77023
ons	76967
Ġcritical	76947
Ġclearly	76913
Ġweb	76905
){#	76778
Ġsign	76726
Ġ<<	76641
Ġfelt	76604
sc	76601
Ġappeal	76585
Ġvariable	76554
Ġopinion	76429
OS	76340
Ġcentral	76323
Size	76247
Ġcorrect	76242
Ġson	76078
*.	76059
Ġstore	76049
}_{\	76042
Ġhit	76038
Context	76033
bo	76028
Ġwriting	76026
Ġstaff	75993
Ġdoor	75828
Ġwebsite	75818
ast	75764
Ġpresident	75748
Ġbox	75731
static	75730
}^{\	75690
Ġinjury	75672
IP	75667
Ġchanged	75632
Ġbrought	75623
Ġvs	75575
overline	75546
Ġactual	75537
ĉĉ	75528
Ġtr	75525
Ġ__	75515
ec	75500
CA	75479
Ġshowing	75464
ĠAND	75451
State	75397
Ġreceive	75387
ĠIN	75370
ĠId	75356
Ġsmaller	75351
big	75316
ox	75282
Ġgoes	75252
ST	75210
Ġuses	75187
98	75172
Ġexperiments	75167
*-	75087
ara	75050
Ġlearning	75049
};	74995
Ġ2008	74988
Ġauthors	74966
Ġwidth	74962
Ġappears	74954
Ġvector	74919
our	74915
ĊĊĊĊ	74899
)).	74868
operatorname	74862
langle	74849
Ġitems	74808
Path	74767
Ġcommand	74693
ou	74669
Ġbeyond	74658
Ġlooks	74650
Ġrules	74608
Ġheard	74605
Ġremains	74594
Ġcomputer	74585
Ġculture	74475
After	74442
ĠOR	74437
Ġbuilt	74436
are	74337
struct	74292
true	74284
Ġboard	74212
Ġhearing	74205
93	74189
Item	74175
Ġunderstanding	74130
Ġmeet	74093
Ch	74048
$$	74041
Ġmatch	73962
Ġlooked	73898
Ġskin	73885
Ġturned	73813
Ġworked	73729
sa	73705
its	73673
Ġtowards	73662
py	73659
def	73630
group	73615
ui	73571
66	73549
Ġcampaign	73504
Ġtrans	73498
Ġmajority	73455
\].	73408
53	73381
Ġtumor	73372
Info	73351
True	73323
ised	73302
Ġsuccess	73284
ri	73260
Ġplease	73249
Ġbinding	73230
Ġproduce	73229
}=	73220
ii	73218
Ġregarding	73201
Ġvariables	73187
Ġappear	73180
Ġinternal	73152
Ġdecided	73129
per	73126
ma	73095
Ġ!	73077
ities	73056
Ġchar	73053
ically	73045
':	73043
Ġones	73039
Ġexists	72998
ĠWest	72963
color	72932
mo	72885
Ġtherapy	72870
Ġspeed	72870
pl	72865
Ġbenefits	72816
Ġfall	72791
Ġfully	72769
De	72732
ĠHealth	72717
ard	72679
Ġfast	72666
ĠFrom	72657
Ġconcentration	72636
ĠDistrict	72636
Ġimprove	72605
Ġtissue	72591
Ġ($	72536
Ġparents	72494
Ġreports	72455
Ġmilitary	72419
ĠPhys	72386
iv	72350
ĠAugust	72345
Ġresulting	72344
ĠSe	72310
Ġ2009	72252
Ġfriend	72242
Ġrandom	72226
ino	72217
Ġnor	72217
96	72084
)$,	72067
Ġexactly	72064
free	71939
vec	71911
['	71900
Ġindicated	71895
Ġprevent	71890
Of	71885
ter	71878
ns	71877
use	71850
Ġandroid	71840
":"	71826
SA	71813
Ġinfection	71793
Ġcouple	71790
Ġfather	71768
Ġsetting	71706
Ġwrote	71681
OR	71661
ĠOctober	71622
MS	71589
Ġmorning	71552
ĠMe	71523
na	71431
node	71419
dis	71396
Ġmaterials	71226
Ġreading	71175
Ġvehicle	71157
view	71130
='	71129
Ġzero	71124
Ġplayed	71096
nbsp	71076
Ġextra	71036
Ġhands	71033
Ġ35	70935
ĠSeptember	70923
Ġlearn	70905
Ġfeature	70895
Ġavoid	70815
Ġsc	70792
Ġmeeting	70707
Ġseparate	70678
500	70670
ĠDecember	70669
Ġgets	70597
Ġbi	70595
Ġreasonable	70536
Ġfit	70528
Ġproof	70392
]:	70372
Ġdefine	70343
ler	70342
Ġmedium	70334
ants	70313
ality	70305
Ġreaction	70294
Ġplayer	70288
ĊĊĠĠĠĠĠ	70285
Ġth	70275
ĠOr	70255
Ġfields	70220
ill	70165
Ġheight	70139
Ġconstruction	70137
iz	70115
Ġstarting	70101
Ġapplications	70097
ning	70089
Ġ2018	70064
Ã¡	70002
do	69991
Ġcontrast	69932
Ġvolume	69912
Ġthroughout	69874
Ġinteresting	69850
Ġparticipants	69810
Ġtask	69806
IS	69711
Ġnoted	69705
Ġdamage	69698
ade	69676
Ġprocesses	69676
Ġmaximum	69673
Sec	69658
Ġregions	69623
Ġdrive	69617
Ġformation	69590
Ġtransfer	69582
lu	69561
Ġconnected	69534
Ġlinear	69530
info	69524
Ġlives	69499
Ġsafety	69461
Ġpoor	69402
case	69378
ij	69364
Ġclosed	69343
Ġbecomes	69314
Ġformed	69310
image	69305
Ġitem	69296
input	69255
Ġdomain	69233
Ġinternational	69231
ĠData	69193
Ġsources	69192
****************	69158
Ġadministration	69155
Ġad	69153
ĠBecause	69114
rightarrow	69049
Ġdocument	69046
length	69036
Ġscore	69025
Ġsafe	69004
New	68993
ray	68937
Ġrevealed	68925
\,	68879
Ġroad	68862
eb	68837
ars	68779
java	68738
Ġhospital	68679
af	68661
db	68653
Ġinteraction	68650
Ġstar	68646
uk	68583
og	68569
Ġotherwise	68510
Ġcollection	68507
ĠSection	68460
Ġfun	68440
)*	68422
Ġbasic	68409
Ġtests	68373
200	68352
CC	68343
Ġinfluence	68339
ĠNovember	68297
Ġimmediately	68236
Ġvisit	68229
dr	68192
Class	68171
Ġequation	68151
Ġstand	68083
ĠMoreover	68060
ps	68037
Ġcolumn	68008
ran	67983
SE	67957
[^	67950
ĠCenter	67948
which	67940
*~	67923
ĠOf	67912
ore	67853
source	67819
Ġreduction	67815
Ġreleased	67806
Ġactions	67803
Ġque	67748
ĠĠĠĠĠĠĠĠĠĠĠĠĠĠĊĠ	67706
';	67665
Ġ^	67646
Ġopportunity	67616
ators	67587
Ġtoward	67585
Ġwide	67564
Ġdefense	67553
Ġpaid	67511
ev	67494
Ġmechanism	67478
Ġgiving	67478
Ġexist	67475
Ġwindow	67459
ĠMar	67457
Ġseven	67445
ĠUSA	67437
read	67363
Ġcombination	67360
ĠWashington	67315
Ġ80	67284
php	67279
II	67178
Ġerr	67138
su	67124
err	67102
Ġidentify	67057
Ġtown	67044
Ġconsistent	67044
ĠÃĲ	67036
Ġfigure	67009
Ġtesting	67002
ep	66978
Ġdeep	66970
Ġcover	66921
Ġten	66863
Ġroot	66863
pa	66837
Ġrelatively	66815
ES	66788
pre	66774
Ġpar	66774
mathfrak	66726
Node	66699
Ġensure	66699
Ġsometimes	66689
}}_	66679
Ġphone	66653
Ġ90	66649
Ġcounsel	66636
False	66612
geq	66605
Ġresources	66570
Ġresistance	66558
Ġforms	66550
ok	66537
Ġchance	66468
Ġcl	66464
Ġsex	66370
Not	66357
CH	66333
Ġquickly	66301
Here	66266
Ġmiddle	66236
related	66226
error	66170
body	66166
Ġclient	66124
version	66096
Ġhear	66078
Ġthinking	66076
ĠApp	66068
Ġmyself	65896
85	65891
Un	65854
Ġprocedure	65842
Ġhappen	65829
Ġsolid	65769
Ġhot	65766
dot	65762
Ġcomment	65716
51	65712
Ġplaying	65708
Ġchoose	65675
.\	65657
Ġnearly	65635
Ġsound	65630
cs	65605
ĠLa	65598
^{(	65558
Ġremove	65538
rs	65502
Ġproviding	65481
Ġmovement	65467
Ġstr	65441
Ġmoved	65435
ĠSchool	65431
Ġportion	65430
Ġdetected	65424
Ġchannel	65424
Ġagree	65416
ĠSan	65415
Ġhappened	65392
Ġdatabase	65379
Ġconducted	65372
63	65294
ĠEx	65239
Ġexisting	65220
ĠAr	65211
Ġobjects	65198
ef	65188
Ġ(**	65188
Ġmoving	65184
mi	65145
Ġready	65121
Ġmis	65119
TC	65115
gen	65085
%,	65011
ik	64994
Ġreach	64982
ica	64975
Ġstd	64971
Ġdaily	64916
ĠObama	64882
Ġbottom	64876
ology	64820
Ġcalculated	64803
ible	64763
Ġfacts	64725
Ġscreen	64716
Ġfunctional	64713
ren	64703
ĠCalifornia	64699
Ġbuy	64682
78	64681
Ġfinally	64675
######	64668
Color	64645
Ġsteps	64616
Ct	64599
Ġanimals	64597
57	64587
ach	64575
bm	64543
Ġindicate	64465
Ex	64452
ale	64449
Ġyourself	64428
\],	64422
Ġattack	64413
Ġlog	64411
^*	64405
.[	64355
ano	64340
Ġupper	64330
Ġregular	64316
Ġdemonstrated	64294
Do	64265
Ġnearest	64250
Ġim	64248
PR	64156
Ġblue	64152
CO	64137
Ġres	64123
start	64113
Ġworth	64113
Ġwall	64110
hi	64080
dy	64075
IT	64059
ines	64004
Ġremain	63963
ĠAlso	63907
Ġunits	63906
CD	63882
Time	63869
Ġdefinition	63862
ĠTable	63862
Ġtrade	63861
86	63845
Ġcomments	63784
Ġprove	63764
Ġcore	63760
RA	63757
av	63750
nd	63732
ĠPa	63691
ĠNULL	63629
Ġremember	63599
Ġrepresent	63571
amp	63495
Ġcapacity	63436
Ġ200	63397
Ġshape	63384
())	63361
","	63339
Ġcarried	63324
ĠMore	63320
Ġsufficient	63317
Ġremoved	63309
ĊĠĠĠĠĠĠĠĠĠĠĠĠ	63305
0000	63256
Ġplaced	63247
oc	63242
Ġborder	63201
quad	63178
ification	63172
Ġprocessing	63158
54	63146
Ġ/**	63115
ĠPublic	63093
od	63087
61	63068
*)	63055
ero	63052
Ġvariety	62957
pro	62910
Ġbegin	62880
Ġframe	62877
Ġwife	62842
den	62829
els	62784
56	62754
val	62638
port	62635
Ġsets	62632
ĠIL	62632
52	62620
Ġoperator	62608
ham	62603
ĠIS	62587
Ġbenefit	62570
eh	62561
Ġdistributed	62557
,-	62550
lin	62516
ĠFebruary	62423
ru	62357
row	62354
Ġsend	62334
Ġselection	62333
Ġmachine	62333
tu	62324
ence	62280
Ġ2007	62249
Ġ37	62232
Ġsuggested	62171
SP	62125
]\],	62121
Ġmg	62101
Ġsl	62048
Ġonto	62040
Ġplant	62028
Ġpoly	61972
68	61966
Ed	61937
da	61919
ĠFigure	61870
Ġperfect	61839
Ġnamed	61814
Index	61786
Ġprograms	61777
Ġsum	61700
Ġcomparison	61690
AD	61688
Event	61646
Ġworkers	61635
gr	61626
red	61605
US	61575
SD	61560
but	61532
ER	61529
Ġhealthy	61526
Ġeight	61509
ung	61503
ax	61495
url	61487
point	61485
Ġincreases	61472
ov	61447
Ġmagnetic	61398
Ġauto	61372
bin	61371
Ġsort	61348
Ġexposure	61292
Ġserious	61248
SC	61228
ĠEuropean	61220
ron	61212
Ġtool	61163
Ġpassed	61140
Ġmaybe	61137
Ġletters	61107
ĠWhite	61091
Ġrace	61082
Ġemail	61070
Ġplaces	61056
Ġgreen	61043
Ġresponsible	61008
##	60993
Ġmeasures	60991
Ġdiscussed	60970
Ġreplacement	60946
Ġ(\	60905
content	60863
ho	60843
ĠIndia	60824
ĠGet	60820
Ġsave	60811
Ġapproximately	60808
Ġdevelop	60788
gl	60759
Ġpicked	60731
ĠWar	60713
Î±	60676
Ġcharacteristics	60676
Ġprint	60672
Ġincome	60669
Ġmanner	60659
Code	60629
TS	60607
Ġupdate	60582
ĠResearch	60562
Ġsymptoms	60549
Ġ45	60534
Ġinsurance	60513
cap	60468
ĠEven	60425
84	60403
Phi	60376
Ġcircuit	60342
Ġrow	60316
Ġdrugs	60281
ĠBr	60270
config	60268
Ġdark	60268
ĠBoard	60266
Ġstructures	60255
Ġbl	60202
core	60197
Ġtalking	60159
ĠPM	60152
Ġmale	60145
PC	60131
ĠUn	60108
Ġbeginning	60098
api	60081
ene	60069
ya	60013
ni	60006
Ġeye	59989
Ġpair	59983
Ġcontinued	59976
ml	59930
ening	59860
Ġ95	59851
well	59760
Ġhair	59746
using	59733
Ġletter	59707
Ġtestimony	59692
Ġload	59658
num	59635
ib	59620
bb	59616
čĊčĊ	59600
Ġeffort	59586
Ġassume	59576
Ġactivation	59552
Cl	59540
bit	59532
Ġedge	59525
Ġreturned	59519
Ġdead	59462
Ġ70	59449
Ġhappy	59432
"},	59430
Ġqu	59366
Ġtree	59363
MA	59335
ĠFurthermore	59334
čĊĉ	59300
Ġpanel	59296
Ġdetection	59291
side	59230
ĠUK	59185
Ġmodern	59147
)/(-	59119
Ġnice	59116
Ġinvestigation	59094
Ġconduct	59078
Ġ});	59059
page	59049
Ġauthor	59010
Ġstrength	58879
\<	58850
82	58843
dt	58833
Ġkids	58783
\{	58667
LE	58667
dir	58658
Ġtruth	58629
ba	58623
Ġtransition	58615
Al	58609
Ġgr	58609
Ġdescription	58562
Ġproper	58559
ÂŃ	58438
ĠTh	58437
Ġessential	58425
PS	58397
ters	58390
NS	58330
Ġexercise	58315
Ġstuff	58299
Ġmusic	58267
ĠEnglish	58260
Oh	58231
Ġinterface	58104
[]	58083
reg	58067
Ġspecifically	58029
Ġspent	58025
Ġdenied	58007
Ġchallenge	57991
/(-	57990
Ġplans	57970
dd	57952
ĺ	57949
Ġsurgery	57948
ice	57945
Ġ48	57933
Array	57917
ue	57911
DS	57911
fully	57907
pe	57876
Ġfamilies	57874
({\	57824
Ġstrategy	57824
count	57821
Ġclean	57791
Ġpopular	57782
ata	57770
Ġsolutions	57769
char	57748
Ġalternative	57748
Â¾	57709
Ġtested	57670
Ġstock	57667
Map	57656
Ġmeaning	57645
ash	57619
Ġcr	57614
TR	57594
Ġofficials	57574
âĢ¢	57558
59	57557
Ġserve	57554
Ġcareer	57538
ĠCongress	57534
ci	57518
Ġwait	57509
Ġcouldn	57503
att	57492
ix	57489
ĠHigh	57486
Ġsummary	57478
oid	57467
col	57465
Ġperform	57463
Ġwants	57441
down	57430
Ġmentioned	57427
Ġ36	57421
ship	57380
ĠInternational	57363
]^	57352
ldots	57344
sin	57320
Ġ\,	57311
}}(	57310
action	57252
bi	57203
Ġ2006	57186
Ġwatch	57157
Ġ2000	57157
RE	57144
Ġelection	57082
Ġround	57063
91	57058
Ġaffect	57054
ay	57045
Ġprepared	57026
Ġstudent	56995
.](	56964
rin	56951
qu	56943
CT	56923
**)	56900
92	56897
Ġofficial	56874
IL	56867
Ġdespite	56860
Ġleads	56840
ĠMc	56815
open	56801
Ġfemale	56783
Ġunless	56777
)**	56727
ĠTO	56726
Ġcycle	56688
Ġagent	56673
object	56658
Ġstudied	56647
az	56622
Ġmetal	56606
çļĦ	56592
Ġimproved	56570
Image	56555
ĠHer	56485
ĠTr	56482
Ġtypically	56478
Ġcombined	56451
Ġjudge	56424
Ġnuclear	56422
Ġnil	56360
sk	56285
ÃĹ	56280
AM	56259
Ġbillion	56256
ls	56241
Ġselect	56231
Ġexperimental	56231
Yes	56201
Ġgrowing	56194
Ġpick	56192
Ġimport	56188
Ġbound	56180
Ġplus	56177
Ġcontrols	56166
Ġ((	56153
Ġsuccessful	56134
EL	56107
Ġcommunication	56105
Ġexplain	56100
Ġvote	56073
specific	56065
Ġentry	56064
Calculate	56034
Ġsurvival	56034
Service	56026
Ġpackage	55984
Ġmodule	55962
_.	55957
PL	55938
Ġattempt	55920
58	55885
ĠEl	55884
Ġ-->	55880
Ġconfirmed	55872
ke	55865
men	55847
mer	55844
Ġparent	55829
Int	55828
ified	55787
Ġkilled	55787
/**	55774
Con	55771
lang	55725
Ġminimum	55723
Ðµ	55721
ĠYour	55711
Ġhour	55709
},\	55707
Ġshot	55681
72	55672
prime	55657
Lambda	55646
create	55640
Ġcontain	55607
Ġmolecular	55590
Ġpress	55568
ang	55563
Ġjava	55525
Ġcircumstances	55517
pos	55513
Ġguy	55511
Ġsociety	55502
Ġinduced	55498
Ġpiece	55489
Ġ~	55478
Ġperhaps	55459
ng	55450
Ġwalk	55446
ĠPr	55439
Co	55430
ama	55415
Ġagreed	55382
Request	55368
Ġhttps	55333
Ġraised	55323
Ġoperations	55293
github	55266
Ġanalyzed	55249
lan	55221
Ġprofessional	55217
ake	55200
Ġreached	55185
ong	55153
Ġwhereas	55152
Well	55144
Why	55127
Ġaffected	55123
Ġlinks	55113
"></	55095
otimes	55087
Ġdied	55079
ĠDavid	55076
Ġassociation	55061
CS	55058
Ġtools	55046
ros	55037
trans	55023
Ġfeet	55023
Ġcalls	55021
Ġhandle	55011
Ġofficer	55005
Ġemployees	54995
Ġclasses	54984
Ġwave	54962
Ġnames	54883
ĠBo	54848
Ī	54843
TA	54821
ĠPat	54818
Ġcauses	54799
date	54798
her	54791
mod	54780
]{	54779
Ġsentence	54775
Ġ33	54743
ber	54717
Ġwouldn	54692
Add	54650
Ġforeign	54649
Ġsw	54614
Ġprobability	54609
Ġcounter	54609
ĠMo	54571
ĠCode	54557
ĠAd	54541
Ġgun	54532
IA	54528
Ġkept	54520
hu	54449
ĠList	54426
src	54416
Ġefforts	54383
Ġspin	54369
Ġcollected	54358
Ġ]	54341
62	54291
Ġtraditional	54275
Ġoccurred	54247
Ġhuge	54238
.[@	54236
cc	54224
Ġvoice	54222
Ġoccur	54197
level	54184
ĠNews	54183
boldsymbol	54182
Ġsrc	54181
Ġmental	54166
run	54161
Ġtrust	54103
Ġintroduced	54080
LL	54068
Our	54066
ew	54031
Ġrelation	54021
ians	54019
Ġsuggests	53989
Ġdiscussion	53978
Ġstorage	53970
Ġprotect	53939
*(	53930
ĠMost	53930
Ġestimated	53883
Ġcredit	53878
User	53870
Ġcertainly	53856
ds	53812
Ġexplained	53801
ĠNote	53786
Ġtechniques	53777
Date	53748
init	53732
ĠCal	53720
Ġcorrelation	53709
While	53697
ck	53694
Ġmovie	53694
Ġdiagnosis	53687
model	53674
SS	53666
ĠLondon	53649
ĠPaul	53641
Ġball	53637
Ġstatute	53614
Ġremaining	53569
where	53562
ĠPro	53548
Ġprotection	53528
sl	53517
Sigma	53502
Ġsexual	53494
Ġgone	53477
Ġ(!	53464
Ġappellant	53451
Ġbuffer	53424
ĊĊĉĉ	53397
Ġpl	53385
ĠGroup	53352
Ġforces	53279
Ġcriminal	53263
Ġwhom	53225
oy	53205
AA	53195
oe	53184
Ġrequirements	53115
cell	53059
}-	53056
Ġbiggest	53052
ĠIsrael	53048
Ġbed	53047
Ġphoto	53035
ĳ	52998
ini	52993
IR	52978
Ġ2005	52965
Ġem	52964
Ġbill	52960
Ġchain	52903
)?	52883
Big	52870
ris	52858
čĊĠĠĠĠĠĠĠĠĠĠĠ	52801
Ġabsence	52779
Ġrecords	52774
Ġmid	52772
Ġgeneration	52628
Ġpicture	52560
position	52552
Ġolder	52513
Ġorganization	52494
Ġresponses	52456
Ġmissing	52444
Ġserved	52420
fs	52393
Ġsleep	52370
Ġlaws	52355
|\	52347
Ġadding	52325
non	52279
Ġoffers	52264
Ġoptical	52252
head	52247
ted	52229
ĠEast	52225
ĠEach	52200
Ġquantum	52182
uc	52175
Ġ42	52160
mbox	52149
Ġderived	52146
Sh	52133
Ġcreating	52107
Ġdes	52101
ĠRed	52080
MP	52078
âĪĴ	52076
ess	52024
Ġscience	52022
.</	52020
Ġsubjects	52019
ĠSa	52000
Ġpurposes	51995
Ġnation	51988
Ġ("	51971
Î²	51921
ĠCommission	51909
Model	51899
Ġeconomy	51868
scale	51866
Ġalgorithm	51850
ĠTexas	51850
lim	51847
300	51831
^[@	51820
ind	51804
fl	51788
ides	51774
((	51774
rd	51755
Ġassert	51730
Ġideas	51728
Ġsummer	51709
Ġintended	51698
ford	51686
era	51682
Ġschools	51681
ĠAM	51658
Ġvalid	51647
ĠMan	51629
Ġnone	51607
material	51599
Ġanimal	51586
Ġcapital	51547
ath	51529
87	51525
Ġproperly	51517
TO	51511
gu	51484
hr	51471
Ġrepresents	51458
induced	51434
Ġexternal	51429
Ġresolution	51420
Ġextent	51374
ot	51365
Ġtrack	51361
Ġfear	51323
ĵ	51313
Field	51305
Ġstation	51288
Ġdecreased	51287
ĠJust	51257
ĠTV	51227
Ġret	51216
ua	51214
ĠEn	51214
ological	51194
main	51184
result	51177
(&	51154
ĠBritish	51110
ud	51090
ĠPark	51060
ĠSupreme	51047
ub	51043
Ġauthority	51041
ala	51032
Ġmotor	51030
nonumber	50992
Ġradio	50992
Ġmechanisms	50986
Ġliquid	50985
Ġvirus	50954
ĠCom	50950
Ġprotected	50942
DA	50934
ĠBar	50932
Ġmon	50925
Ġachieve	50904
Ġ34	50887
Ġlargest	50881
izer	50873
ĠEurope	50854
Ġattorney	50848
*]{}	50843
Ġfeeling	50842
Ġ""	50834
ez	50826
ĠCar	50807
Ġinterests	50732
Ġca	50731
kappa	50716
Ġ38	50695
king	50679
order	50658
Ġmembrane	50647
Ġtechnique	50643
Ġteams	50642
ensuremath	50640
ĠCA	50617
However	50607
ney	50597
({	50591
Ġofficers	50581
ĠSp	50579
Ġcard	50568
Ġdie	50562
ĠRo	50544
ĠGoogle	50529
Ġcrime	50524
CL	50515
Ġcontained	50502
ĠCan	50467
Ġdirector	50457
inter	50447
Ġslightly	50439
style	50424
ģ	50406
fe	50391
IF	50389
89	50276
ari	50222
block	50171
sen	50153
Ġloop	50153
**]{},	50140
space	50139
ĠCouncil	50136
Ġsales	50129
Ġfresh	50123
Ġfight	50122
Be	50102
bl	50065
Ġdriver	50061
Ġshared	50055
Ġguys	50024
").	50003
Ġcharged	49998
bs	49984
Ġopening	49948
Ġrise	49925
ged	49924
Ġcharacters	49915
df	49885
Ġbool	49873
Ġerrors	49869
Ġlatest	49855
range	49848
Message	49848
Ġprojects	49830
Ġwild	49824
âĢĿ.	49777
Ġfloor	49768
Ġoffered	49747
Ġconventional	49693
ani	49689
Ġholding	49686
yr	49666
RI	49656
Ġcoverage	49646
ere	49643
ĠChinese	49639
ĠID	49625
Ġannounced	49621
Ġsevere	49615
Ġscript	49596
CI	49590
fi	49589
¡	49575
ile	49545
ĠFoundation	49543
Ġmax	49531
Ġexchange	49528
)"	49459
ĠStreet	49459
Ġentered	49442
rf	49437
ĠRNA	49436
eu	49430
ack	49427
ĠCanada	49425
ĊĠĠĠĠĠĠĠĠĠĠ	49409
Ġgirl	49386
Ġdescribe	49386
Ġfat	49380
check	49346
Ġagents	49337
Ġinteractions	49333
tre	49331
ened	49309
ĠBlack	49295
write	49290
tin	49285
arg	49253
Ġband	49233
čĊĉĉ	49225
Count	49216
Ġsupply	49208
83	49205
ger	49165
Ġformat	49164
has	49118
Ġdecrease	49107
Ġgain	49102
cos	49063
Ġarm	49043
print	49030
First	49025
Ġagency	49000
Ġenter	48989
ret	48970
ational	48970
default	48964
Ġanalyses	48961
ual	48952
Ġfilter	48949
summary	48947
board	48942
sm	48935
Ġdose	48925
func	48923
Ġprofile	48919
aw	48892
Ġconcentrations	48887
ĠCalculate	48882
Ġconcept	48872
local	48870
ĠCO	48863
NO	48861
CP	48860
exp	48831
Ġnovel	48828
ĠAm	48825
ora	48821
kin	48799
Ġoutcome	48793
']	48782
tra	48743
Ġviews	48705
Ġgenetic	48700
âĢĬ	48693
ging	48691
Ġwish	48686
Â½	48684
Ġreceptor	48661
ĠJames	48659
istic	48647
SI	48628
ĠTwo	48609
Ġexistence	48546
Ġcommercial	48546
Ġfinite	48542
Ġswitch	48522
Ġpossibility	48508
Ġplants	48477
ĠPeople	48459
Ġoperating	48448
ĊČ	48432
Ġdrop	48416
Ġdriving	48393
ĠRev	48391
Ġcompleted	48388
vert	48382
ĠSuch	48372
Ġ+=	48369
ify	48354
Ġreturns	48335
ys	48302
Ġbeautiful	48302
Ġpatterns	48283
Ġinteger	48261
Ġdoubt	48248
Ġval	48234
Ġsignals	48232
ĊĊĠĠĠĠĠĠ	48232
Ġwhatever	48228
Ġidentity	48152
Ġheavy	48145
ĠBl	48142
Ġblog	48124
See	48111
System	48057
Ġ2004	48035
LA	48032
ery	48026
ey	48023
ĠSc	48010
Ġdiseases	48007
74	48000
oma	47997
Ġgenerate	47983
Ġinterested	47979
Ġalleged	47977
]),	47969
ited	47962
Ġmo	47921
Ġcold	47895
ole	47893
Ġstable	47886
Ġslow	47884
}.	47816
ĠFriday	47790
Ġgl	47789
Ġappeared	47779
Ġstars	47769
Ġindicates	47753
Ġequipment	47749
ĠService	47736
DE	47732
ga	47713
ory	47702
property	47701
Ġimportance	47697
Ġequivalent	47695
ĠGreen	47661
$(	47638
Ġspectrum	47630
eps	47613
ious	47607
:"	47568
Ġ"[	47567
ky	47566
EA	47565
ĠEq	47560
Ġbr	47559
Ġconfiguration	47549
nabla	47536
Ġbutton	47533
Ġcontrolled	47528
400	47517
Ġmobile	47516
Group	47511
cent	47494
Ġ};	47466
Ġholds	47452
widetilde	47448
Manager	47431
Ġconclusion	47412
Ġsequences	47387
Ġcatch	47370
Ġbank	47365
Ġruns	47342
.*	47316
Ġdog	47302
ali	47263
rb	47242
Â»	47236
Ġhappens	47221
ao	47198
Ġadvantage	47192
Ġmouse	47183
ass	47169
apache	47163
you	47161
Ġparticles	47147
Ġnet	47140
ives	47128
ĠWestern	47127
ots	47078
MC	47057
Ġfootball	47056
ĠNa	47050
Ġsecondary	47048
Ġdefendants	47044
Ġreality	47037
Ġaren	47022
Ġstruct	46979
Ġshift	46970
Ġ2019	46968
Ġlo	46964
tab	46957
util	46948
ĠLaw	46938
Ġnoise	46918
ĠDon	46883
ures	46871
ï¼Į	46861
Ps	46853
Ġstraight	46853
gt	46818
Ġreferred	46818
Ġmeasurements	46805
eth	46797
mar	46783
ĠInstitute	46759
Ġdemand	46725
tag	46659
ĠBoth	46655
Ġdigital	46636
Ġring	46633
Ġsession	46630
Ġquery	46616
Ġsoft	46585
Ġcontinuous	46585
Ġinterview	46558
false	46549
Ġseemed	46514
Ġthrow	46504
Some	46503
vi	46495
Sub	46485
Ġdeveloping	46466
part	46441
Le	46432
Ġstatements	46377
light	46355
Ġhyper	46340
Ġspeak	46312
81	46304
Ġexpress	46303
arm	46302
ĠCl	46297
ĠSmith	46294
Ġmaintain	46260
Ġsu	46255
Ġprogress	46250
2015	46246
Ġlibrary	46242
Ġalcohol	46241
GL	46223
EC	46219
ĠHo	46202
ato	46172
Ġremainder	46150
Ġel	46142
ka	46132
Ġfish	46125
height	46110
ĠMonday	46084
ĠAccording	46079
circ	46066
------	46054
zeta	46028
ably	46028
event	46024
ĠDi	46011
Ġbalance	46007
Ġrepresentation	45986
Ġleaders	45972
Ġeat	45959
dimensional	45930
Ġchemical	45919
Ġenvironmental	45906
ram	45890
Ġcollege	45886
ĠMichael	45880
Ġfaith	45878
Ġapproved	45871
ĠCompany	45855
Ġexperiment	45843
Property	45809
art	45788
Cs	45762
Ġjobs	45724
Ġcarry	45723
Ġlatter	45721
DI	45711
Ġaccept	45682
Ġissued	45676
ĠĊĠĠĠĠĠĠĠ	45643
Ġsquare	45591
acy	45590
post	45585
Ġextremely	45584
star	45571
Ġplasma	45561
Ġspeech	45552
Ġclub	45526
Ġknows	45481
ium	45474
Ġleader	45470
ĠHa	45468
Ġborn	45466
Ġempty	45456
DB	45442
Ġ500	45441
Ġliver	45434
ĠFacebook	45434
ă	45423
Ġestimate	45411
Ġfix	45409
}}}	45378
Ġexamples	45371
Ġabuse	45366
č	45359
Ġcovered	45357
}+	45351
TH	45344
Ġtransmission	45342
atory	45311
ave	45298
Ġexception	45292
Ġcharges	45276
Ġplatform	45252
Ġahead	45246
Ġregulation	45242
Ġliterature	45224
Ċĉĉĉĉĉĉ	45165
ĠSub	45153
Ġserum	45122
ĠJapan	45116
ĠGo	45115
Ġaware	45103
Ġsubstantial	45102
Ġsigned	45088
Ġguess	45088
Ġscene	45079
Ġopened	45078
ĠKing	45078
Ġhusband	45075
AG	45071
Ġchronic	45065
Ġprob	45049
Ġimplementation	45027
fa	45015
Or	45001
Ġne	44984
isation	44960
iss	44923
Ġchurch	44904
Ġcustomers	44899
Ġfoot	44896
Ġspread	44877
font	44872
Ġtravel	44870
Ġcent	44858
Ġoccurs	44826
ents	44824
xe	44821
ose	44797
ĠTheorem	44787
.$$	44784
Ġ${	44782
sup	44753
Ġrecorded	44718
Ġcompounds	44690
ute	44685
message	44663
Ġdiscuss	44657
Ġdecisions	44655
ĠSet	44655
Ġfair	44643
Ġdelivery	44632
Ġweak	44611
Pro	44601
)*(	44590
OL	44575
AB	44567
act	44559
Ġextension	44555
dependent	44554
lt	44544
SM	44533
Ġreceiving	44531
Ġevaluated	44523
Ġnetworks	44492
first	44482
Ġvisual	44455
Ġallowing	44450
ĠPress	44446
Ġcalling	44445
Ġextended	44433
Ġleaves	44421
du	44389
Ġviolence	44385
Ġbirth	44376
Ġinner	44373
Ġdigit	44351
ĠAmericans	44343
Ġcool	44321
Button	44317
Ġpercentage	44316
ĠBank	44314
005	44308
Ġhaven	44305
ada	44299
ĠNe	44298
Ġestablish	44281
Ġoutcomes	44273
ker	44251
ķ	44241
Ġconcerns	44227
ĠFrench	44225
yn	44197
Ġleaving	44197
004	44196
Ġassessment	44189
ĠCommittee	44189
ĠSunday	44182
ĠUnion	44170
Ġsubsequent	44168
ĠLeague	44167
Ġthousands	44162
Ġgraph	44158
endif	44145
Ġ()	44133
Ġtestified	44102
Ġhelped	44100
Ġowner	44096
$$\	44072
Ġmostly	44072
Ġ2003	44062
gs	44060
Ġunderlying	44042
Ġimmune	44036
Ġsale	44020
Ġarguments	43998
ric	43985
Ġfluid	43972
ĠÃĹ	43948
null	43945
°	43937
Ġefficiency	43935
och	43934
ĠFinally	43900
mid	43895
Ġthank	43883
rp	43870
Ġport	43856
ĠPe	43855
Ġmuscle	43844
aj	43824
dots	43817
Ġadult	43777
Ġrepresented	43765
FA	43749
long	43744
Ġcriteria	43728
Ġcentury	43710
Ġcarbon	43707
Ġraise	43689
oh	43659
Ġdebt	43649
}}{	43639
pc	43586
Ġgreatest	43586
Ġexamined	43576
)=\	43571
ick	43560
Ġgrow	43516
ĠUnder	43470
Ġspecified	43458
work	43451
Ġlearned	43451
ĠWhy	43443
ĠDuring	43443
Ġexact	43433
})$	43431
IO	43408
Ġeventually	43408
ĠUsing	43379
can	43370
ug	43365
Ġpowerful	43346
2013	43342
ĠGu	43327
Ġevolution	43309
Ġmm	43302
DR	43294
ices	43289
Ġcandidate	43289
Ġbreast	43280
ĠNOT	43276
sn	43274
Ġcurve	43264
Ġtransport	43256
ĠOther	43211
Ġdepends	43205
cast	43204
Ġlimitations	43190
ĠBig	43190
Ġ75	43188
FS	43181
iting	43179
oi	43176
target	43158
ores	43157
ĠFOR	43155
lon	43151
ĠCI	43151
Ġplane	43132
Ġpositions	43131
Ġlicense	43128
Ġab	43084
Source	43078
Ġpeak	43059
ln	43057
Ġbooks	43043
Ġscheme	43037
[\	43035
Ġvoltage	43019
ography	43007
ured	43000
tt	42999
'.	42989
RS	42984
Ġpa	42977
76	42959
ids	42950
RP	42947
xml	42943
ny	42935
Ġinvestigated	42922
Ġ39	42920
ĠTuesday	42915
ON	42910
ĠJudge	42905
ert	42904
ĠGermany	42902
These	42900
any	42894
section	42850
ville	42843
2016	42843
Ġenjoy	42833
Ġachieved	42830
][	42821
ĊĠĠĠĠĠĠĠĠĠĠĠĠĠĠ	42821
ich	42811
mg	42795
Ġtypical	42779
ola	42762
EX	42760
Ġbio	42741
2014	42738
Ġpathway	42734
ively	42725
æ	42721
Client	42721
ĠScience	42715
Ġpurchase	42714
PP	42689
ten	42674
Ġmixed	42673
Ġcustom	42669
ain	42665
Ġchanging	42650
UN	42642
Ġpolicies	42634
į	42624
rat	42615
Ġ${{\	42609
current	42599
que	42553
Ġformula	42543
ĠCollege	42538
Ġprocedures	42531
Ġstandards	42525
ĠNone	42514
Ġpo	42513
parent	42505
supplementary	42499
Ġma	42480
Ġrecovery	42477
uring	42465
Ġapplicable	42444
Ġgranted	42430
aries	42429
Ġcomplaint	42426
ĠQu	42424
Ġfilms	42386
ĠMany	42374
Ġ2001	42355
Ġinstall	42349
button	42318
ĠYes	42311
Then	42305
Ġgoals	42264
inal	42242
ĠMon	42241
ado	42239
Ġspend	42239
ł	42210
Ġpe	42200
Ġacts	42194
Ġisolated	42188
Ġbaby	42181
ĠAb	42169
json	42153
Ł	42124
2012	42081
ita	42079
Ġdesired	42079
Ġquick	42069
Ġyes	42068
ĠAssociation	42048
ks	42044
Ġevaluation	42042
Ġdelay	42041
Ġseeing	42033
Ġflat	42033
ĠDay	42008
Config	42002
Ġsold	41993
Ġeasier	41967
Ġac	41959
?âĢĿ	41957
ĠBa	41942
Ġdu	41937
Ġlabel	41929
Ġsea	41924
Ġsubstrate	41922
ico	41916
ĠIII	41910
En	41905
ĠPost	41896
last	41865
Ġsections	41856
:\	41847
Ġsurvey	41847
ĠGr	41845
Ġindeed	41842
Ġstrongly	41829
kg	41816
ss	41800
Ġdetailed	41784
Ġfunds	41782
Ġtraffic	41779
cd	41775
Ð°	41768
128	41768
Ġinvestment	41759
sy	41756
{{	41753
Ġobvious	41717
Ġchosen	41700
Element	41690
Ġbrief	41652
Ġentitled	41637
har	41636
Ġrelief	41580
Ġfourth	41575
Ġglass	41561
ĠChurch	41558
Ġfreedom	41548
ied	41539
ptr	41535
Ġthin	41530
Ġstored	41525
Ġcategory	41524
Ġdiet	41523
"),	41506
ĠGovernment	41500
MI	41478
Ġcluster	41464
Ġ{{\	41462
ĠSch	41460
71	41458
ĠTest	41456
Ġcommitted	41437
ases	41433
Ġjoin	41415
Ġdaughter	41400
some	41392
icon	41392
Ġ64	41387
Ġmeant	41370
Ġduty	41368
Ġconclude	41367
Ġsuit	41356
ĠST	41356
Ġ41	41343
lock	41340
^âĪĴ	41340
Ġconsidering	41340
Ġkill	41331
ming	41293
Ġdirected	41293
Ġ65	41291
SO	41282
Ġassay	41269
Ġspot	41262
tan	41255
module	41241
Ġsell	41221
ĠWhich	41216
}}_{	41213
Ġpayment	41213
Ġthanks	41190
FC	41180
Ġprices	41158
Ġelectron	41156
tl	41150
FF	41132
Ġar	41129
ĠEngland	41115
CF	41108
DC	41107
Ġdocuments	41096
context	41095
Ġforced	41088
*/	41081
ĠCor	41052
ĠFlorida	41050
OT	41037
else	41034
ze	41033
Ġdistinct	41022
ĠParty	41021
status	41016
ently	41010
ĠWeb	41003
Ġlisted	40990
uint	40962
73	40943
Ġvictim	40931
....	40926
rel	40894
»	40883
eds	40881
Box	40864
,'	40855
Ġclick	40853
Ġcat	40840
Ġapparatus	40840
Ġdetermination	40838
čĊĠĠĠĠĠ	40838
Ġstories	40821
Ġskills	40816
sch	40815
Ġequations	40814
Ġfocused	40796
Ġstream	40793
ĠInter	40791
Ġpush	40767
Ġdepending	40755
2000	40753
Override	40751
cor	40750
2017	40749
Ġche	40744
Ġplate	40720
Since	40719
Ġwaiting	40712
ifying	40708
Ġlose	40692
Ġbus	40687
Content	40676
oon	40663
Ġsun	40640
Ġresulted	40628
ĠCopyright	40624
Ġ2002	40579
}}^	40571
Ġcivil	40569
active	40560
Ġmeasurement	40557
Ġconcern	40547
Ġvirtual	40526
Ġobservations	40519
Ġpossibly	40513
++	40501
ME	40495
Ġuint	40494
ying	40493
Ġburden	40492
Ġversus	40486
Ġmodified	40468
Ġplays	40462
izes	40454
Ġbelieved	40443
Result	40434
ĠGeorge	40431
ĠâĢ¦	40429
ites	40417
cdots	40416
ĠRussia	40413
ward	40412
IM	40406
Ġprotocol	40405
ĠPer	40392
Ġregard	40374
Ġsmooth	40356
Ģ	40345
Ġfans	40343
Ġ55	40338
doc	40300
ĠArt	40295
Ġassuming	40289
Ġexcellent	40275
Pr	40264
"}.	40253
format	40244
ĠPl	40231
Ġneither	40223
Ġangle	40201
ĠHIV	40197
Ġfees	40176
\|	40154
Ġoffense	40151
rate	40133
ĠOpen	40119
©	40101
Ġtwice	40100
md	40097
ĠAdd	40097
ster	40091
onic	40073
Ġemployed	40062
Ġ44	40061
Ġapproaches	40048
ages	40045
Ġcommunities	40042
arr	40034
ĠThursday	40022
Ġresource	40018
lm	40016
_{{\	40010
Ġdamages	40004
Ġdetail	39999
Ġreligious	39970
Se	39960
Ġfloat	39960
server	39957
ĠĠĠĊ	39939
Ġnodes	39899
**]{}	39894
Ġplanning	39882
Ķ	39878
Ġfavor	39837
79	39835
Ġmanager	39829
Just	39826
Ġreplace	39825
ĠNS	39819
Ġinvestigate	39801
ĠĊĠĠĠ	39793
Ġran	39791
Ġdry	39791
Ġstanding	39764
Ļ	39755
.**	39750
ural	39741
Ġtrain	39735
ored	39734
Ġ300	39721
IV	39716
Ġstreet	39715
ĠFree	39712
ľ	39689
ĠWednesday	39688
ĠSun	39686
PI	39683
Ġcompare	39672
Ġconfidence	39661
Ġnine	39650
Ġaccuracy	39644
Ġfunding	39618
ĠWindows	39601
han	39575
BA	39573
Ġhelps	39569
Ġconcerned	39564
]--[@	39562
ses	39560
Number	39554
0001	39551
Ġhousing	39537
Ġscores	39528
Ġefficient	39525
aa	39524
Ġintervention	39524
Ġtrials	39520
Ġtouch	39517
Ġconflict	39515
ome	39510
Ġtreat	39495
mon	39487
client	39476
Ġsensitivity	39476
ĠTime	39447
ĠSaturday	39440
layout	39438
Ħ	39423
osis	39418
Ġmainly	39400
2011	39388
Ġguilty	39388
Į	39368
Ġbudget	39362
Ġboundary	39360
Ġasking	39352
UI	39351
2010	39350
}=\	39344
za	39338
Base	39337
Ġadults	39325
Ġrelationships	39320
CE	39289
Tr	39282
ĠEd	39277
ĠCircuit	39277
ann	39275
Ġinf	39270
Ġelectronic	39265
Don	39253
LI	39243
Ġinvolving	39236
Ġexperienced	39227
\"	39220
)^{	39218
Which	39206
Method	39204
>(	39190
£	39188
cher	39181
ãĢĤ	39176
Ġfinished	39170
Ġevaluate	39170
Ġfirm	39168
References	39156
Ġexposed	39147
ĠJapanese	39128
âĢĿ,	39110
itation	39107
Ġexpansion	39107
Ġcontribution	39105
Ġha	39100
Ġrel	39095
Ġsignaling	39080
Ġ00	39077
Ġmaster	39063
ked	39062
Ġextends	39051
bu	39049
Ġadvice	39037
Ġworse	39030
LS	39025
ÃŃ	39011
ĠSolve	38996
Ġemployee	38986
oke	38963
entry	38943
Ġframework	38942
ĠJesus	38935
ĠCr	38927
ĊĠĠâĢĥ	38927
par	38923
Psi	38918
Ġcontinues	38913
Ġcapable	38896
ising	38879
Read	38858
BC	38842
ĠFederal	38833
ned	38829
Ġcomposition	38825
ĠAS	38824
akes	38818
Ġsettings	38806
%.	38800
Ġpeace	38788
ĠChrist	38782
Ġassessed	38770
Ġintensity	38766
ow	38763
Bar	38759
hl	38757
ĠDis	38755
âĢ²	38739
**(-	38716
¥	38715
\/	38701
ops	38700
select	38669
Ġtend	38649
ĠAustralia	38634
android	38622
ĠInternet	38621
Ġincident	38607
rl	38590
Ġbroad	38590
Ġordered	38574
Ġdemonstrate	38568
ĠOffice	38567
Ġadvanced	38566
Ġbiological	38565
Ġplaintiffs	38546
tor	38526
ingly	38515
Ġrelates	38514
Ġcash	38512
Ġ_{	38510
SH	38501
Com	38497
120	38475
vo	38455
BS	38436
ding	38435
Me	38427
Note	38407
ĠWell	38404
itis	38403
Ġpersons	38398
Ca	38387
ĠĊĠ	38387
TE	38385
ues	38372
Action	38351
Simplify	38344
Ġscope	38336
ãĤ	38333
berg	38313
Ġchallenges	38312
Ġgold	38310
Ġbrother	38308
Ġpotentially	38306
frame	38305
ĠPC	38304
Ġinterval	38299
Ġsuitable	38296
ĠInt	38286
Ġimaging	38282
ring	38278
png	38269
ink	38259
ko	38255
Ġhumans	38253
ĠFile	38253
Ġvelocity	38251
Ġideal	38237
BP	38235
mat	38231
]);	38229
ees	38214
Ġcup	38207
Ġdecide	38205
Ġconference	38200
Ġrats	38184
low	38183
Ġstopped	38179
ĠMark	38153
Ġdraw	38152
media	38151
ĠMac	38148
Ġwind	38143
Ġstatistical	38132
ared	38119
Ġimprovement	38107
Ġguide	38099
End	38076
Ġsalt	38065
ders	38049
Handler	38049
Ġassess	38043
Version	38042
ĠType	38036
Ġfuel	38030
Ġengine	38013
oring	37999
Ġclaimed	37981
stream	37969
ĠDefendant	37969
Ġremained	37967
MO	37942
Ġopposite	37942
Ġ49	37912
Ġrefer	37906
SU	37884
According	37881
MM	37878
Ġended	37859
Ġjoint	37851
Ġdepartment	37833
Ġunknown	37814
BL	37799
Ġduration	37794
ĠFe	37785
dl	37774
Ġreflect	37774
ads	37772
ĠPlease	37764
ĠSuper	37754
Ġsuggesting	37748
Ġ43	37739
)]	37731
Ġ47	37729
msgstr	37726
book	37722
hand	37697
Ġfrequently	37689
$)	37688
Ad	37687
Ġdiscovered	37679
Ġhence	37659
Ġpool	37644
ope	37642
AF	37634
ãĥ	37616
OK	37591
ĠÂ£	37589
Ġpartial	37582
lem	37580
Ġsecret	37577
ĠRussian	37576
\*	37567
next	37545
Ġreverse	37534
Line	37526
Ġargues	37518
ĠRule	37510
ĠLord	37496
Ġstrain	37485
load	37475
ĠFurther	37473
Ġlimits	37464
mp	37452
Ð¸	37451
build	37438
ĠRepublican	37435
Ġnecessarily	37434
nm	37423
Ġsides	37419
ĠAir	37390
ony	37385
comp	37380
package	37378
¬	37360
600	37359
Ġarms	37339
Ġannual	37338
ura	37323
-(	37315
Ġ46	37312
vis	37305
ĠPA	37289
Page	37285
ĠANY	37283
Ġop	37277
amine	37276
CG	37271
ser	37266
Ref	37266
Ġcourts	37263
put	37247
Ġseconds	37242
che	37224
Ġradiation	37223
Ġspring	37212
MB	37205
2018	37202
ĠUse	37202
Ġorigin	37200
Ġstability	37191
ius	37182
Ġvariation	37181
call	37163
OP	37161
aps	37140
Ġintent	37136
Ġsit	37134
img	37124
abs	37120
ĠHence	37116
Ġassembly	37109
Ġacute	37094
Ġwidely	37087
ĠRiver	37063
don	37061
ĠMinister	37061
Ġantibody	37024
Ġthereby	37020
ĭ	37014
Click	37012
/\	37002
Ġsa	36997
Ġdefinitely	36978
Ġthreshold	36968
/(	36967
Ġref	36961
med	36954
Ġprovision	36939
ĠTwitter	36936
Ġice	36933
tel	36925
Ġfail	36900
rol	36880
Ġlinked	36871
"})	36867
Ġaspects	36856
ulation	36842
SR	36842
Ġoral	36838
Ġsemi	36827
web	36822
ĠJohnson	36812
Ġattacks	36811
150	36797
Ġkeeping	36795
Ġnumerous	36788
Ġimplies	36788
eas	36770
Ġpopulations	36767
Ġcamera	36760
Ġstarts	36759
hs	36757
Ġparallel	36755
Ġindicating	36752
Can	36747
·	36744
Ġgrant	36740
Ġmouth	36732
Any	36731
TP	36724
GA	36722
Ġrelations	36712
ays	36696
ĠFrance	36695
Ġforth	36687
Ġmixture	36684
Ġidentification	36669
Response	36649
Ġabsolute	36644
ĠChristian	36635
Ġmark	36632
ĠNO	36627
NA	36622
PE	36620
Ġaccepted	36610
Ġfundamental	36609
ĠJustice	36606
Ġ56	36598
¸	36592
Ġrich	36578
Ġ51	36575
ĠAny	36573
std	36566
EP	36553
Ġinterpretation	36552
¦	36549
Ġmortality	36546
Ġunable	36543
Ġaxis	36541
ement	36538
Ġcoach	36527
Ġinstructions	36526
Ġentirely	36525
Ġviolation	36523
Ġenable	36522
Ġbone	36493
CM	36489
Â·	36486
Ġpull	36482
Ġtruly	36481
ĠOnce	36479
Out	36468
Ġrecognized	36465
Ġsupposed	36455
msgid	36439
Ġcellular	36436
Ġgonna	36431
used	36422
Ġmission	36402
Ġpractices	36386
ĠOnly	36382
Ġlung	36376
Ġaward	36368
Ġgirls	36366
ĠRa	36356
match	36336
Ġcontribute	36332
Ġchief	36327
Ġnotes	36317
Ġfraction	36315
Status	36291
ĠClass	36290
Ġdegrees	36287
Ġends	36282
Ĳ	36279
search	36278
was	36274
Ġpartner	36272
rr	36263
bc	36262
author	36258
other	36254
Ġmassive	36254
Ġsupporting	36247
00000	36241
va	36240
ĠTrans	36223
ĠKa	36214
Ġboy	36213
ble	36192
¤	36172
PD	36171
eg	36150
Solve	36135
Ġresponsibility	36123
Last	36101
ĠHospital	36097
show	36092
Ġbecoming	36083
Ġsigns	36082
Ġemployment	36076
Ġmiles	36070
gi	36062
)[	36061
ending	36053
ĠGerman	36036
car	36023
ĠSenate	36020
Ġattached	36017
Ġappearance	36003
win	36001
Ġmod	35994
([	35990
TT	35983
ith	35982
Ġseek	35982
**,	35964
EM	35963
Ġrare	35962
~~~	35918
under	35918
more	35906
Ġminute	35906
Ġtechnical	35895
ĠSecond	35888
request	35884
ras	35883
Ġecho	35880
Ġmanaged	35878
Ġresidents	35877
Point	35869
Input	35854
Ġroute	35852
Ġdisk	35844
GE	35837
Ġdependent	35837
ĠOver	35826
Ġvitro	35799
ĠGive	35790
Ġmolecules	35789
widehat	35787
nor	35780
Ġfill	35780
Ġdynamic	35778
Ġconcluded	35775
Ġhole	35761
iation	35755
Filter	35732
#:	35728
ĠBrown	35721
RF	35716
ĠIndian	35716
Ġaim	35695
Ġamounts	35679
Ġcommonly	35677
mail	35673
Ġbo	35668
Ġconsent	35665
Ġplot	35654
MT	35640
option	35639
["	35619
wood	35615
Ġassigned	35612
Ġdetect	35610
Ġconsideration	35608
ı	35599
ena	35587
cy	35574
Your	35557
Ġelectric	35529
000000	35527
Ġunderstood	35523
OD	35516
Ġarticles	35513
Ġdynamics	35512
ĠAPI	35500
Ġsought	35488
Ġrequirement	35478
ire	35474
inc	35468
PH	35465
mark	35462
SL	35459
Ġthread	35452
Please	35448
è	35447
Ġship	35437
END	35435
Ġeffectively	35426
ella	35420
Ġaccurate	35420
ĠInstead	35420
rad	35417
inger	35410
>,	35410
Ġyield	35406
output	35393
Ġexpert	35390
elle	35383
Ġmurder	35376
ĠGood	35376
nt	35342
Ġ52	35339
ord	35338
query	35336
ERS	35331
Web	35330
ĠTheir	35325
oli	35321
AV	35317
Ġestimates	35315
Ġjurisdiction	35310
Ġsur	35301
Ġsensitive	35299
Two	35295
ographic	35289
à¸	35278
Ĩ	35266
rac	35261
Ġbattle	35256
Ġfilled	35220
"]	35218
ends	35214
bd	35213
Ġtemplate	35212
lam	35206
Ġquarter	35194
ĠAfrica	35185
ext	35173
ĠPlaintiff	35161
ear	35142
Ġdecades	35112
Ġusual	35111
alt	35110
800	35109
ĠPre	35092
Ġfell	35091
Ġrep	35089
++)	35085
ijms	35079
Ġmessages	35072
house	35071
number	35066
ips	35055
Ġbinary	35055
ĠThomas	35054
Ġestate	35049
]\	35040
ito	35039
Ġjustice	35035
css	35026
Ġspending	35012
rich	35007
Ġtrip	34978
kers	34976
Ġseeking	34957
ori	34943
\]).	34942
Ġsenior	34929
Ġadmitted	34924
ŀ	34916
ĠGen	34886
Ġfavorite	34875
Ġwww	34865
ĊĊĠĠ	34855
Ġcast	34842
tal	34835
Ġsupra	34798
atic	34793
dec	34788
ime	34784
TI	34777
&\	34777
ĠIm	34777
Ġstrategies	34765
Ġoxygen	34753
Ġbag	34748
Sp	34732
Ġobjective	34726
Ġconsumption	34717
ows	34710
uff	34701
ux	34686
Ġsqrt	34683
^,	34681
Ġdepth	34674
${	34669
Ġ72	34664
Ġinfo	34663
Th	34662
Ġtrouble	34659
2008	34648
Ġbroken	34645
Ġassistance	34641
Ġgender	34625
ĠMS	34621
mL	34620
Ġcharacterized	34620
ested	34616
Yeah	34610
Create	34595
006	34593
160	34589
==========	34583
private	34573
Ġban	34565
**(	34561
ima	34553
Ġles	34544
Im	34543
oa	34532
ĠTimes	34531
float	34513
007	34506
Ġdoctor	34503
Ġsmallest	34500
Ġnorth	34488
zo	34484
Ġsplit	34480
Ġcompetition	34462
Ġadvance	34447
ette	34438
Ġpredicted	34435
cu	34429
Â¸	34423
Ġemission	34413
prop	34408
rv	34401
ĠIndeed	34394
Ġtissues	34377
fold	34375
Äģ	34363
rated	34360
eri	34352
Ġminor	34348
Ġfan	34341
PO	34339
ĠEarth	34325
Ġorders	34323
Ġwitness	34317
Ġĉ	34312
subset	34277
ods	34277
¾	34268
dx	34259
split	34248
Ġgap	34245
NAME	34236
Ġneurons	34231
ĠRE	34227
Ġscientific	34220
Ĥ	34216
Ġprinciple	34214
Ġzone	34209
rie	34200
ye	34189
Ġexpensive	34188
Ġmarriage	34158
rey	34153
RC	34144
ĠInformation	34133
ver	34127
Ġsi	34114
Ġrecommended	34114
Ľ	34100
Ġcustomer	34099
¯	34096
RO	34086
Ġsupports	34085
008	34079
Ġparticle	34043
aff	34041
110	34028
ail	34011
Ġdimension	34008
oz	34007
ĠTe	34007
rc	34005
Ġpages	34002
Ġpieces	33997
;&	33992
Label	33986
Ġspaces	33968
').	33965
ias	33958
2009	33958
vs	33952
Ġmanuscript	33947
});	33933
ales	33928
Ġwatching	33916
Ġte	33909
MR	33902
ĠRobert	33899
¢	33896
lie	33896
ĠMedical	33864
center	33860
1000	33852
Ġcausing	33833
Ġthreat	33809
Ġtelevision	33809
Ġsuccessfully	33808
Ġurl	33792
Ġchannels	33792
DM	33783
gg	33777
ī	33767
Ġbaseline	33765
Ġimp	33763
///	33761
Ġarrest	33745
ush	33742
Ġcorner	33740
template	33733
Ġtargets	33731
ĸ	33719
}}{\	33676
Ġwaste	33675
HS	33664
HA	33663
Ġreducing	33649
Ġcrisis	33647
Ġdr	33637
§	33629
Ġmargin	33618
Ġrev	33609
Ġins	33609
rot	33601
Ġdel	33598
Ġ1999	33595
Ġimpossible	33567
Ġcomposite	33563
root	33562
Ġlargely	33560
ĠCentral	33536
Ã¤	33532
Ġunion	33529
Ġinhibition	33525
CIT	33517
Ġrepresentative	33488
Ġautomatically	33481
pp	33475
Ġpetition	33474
Ġcomp	33465
Ġsitting	33435
Ġinstalled	33433
Ġinformed	33431
ja	33430
ula	33421
Start	33418
ances	33417
ished	33405
Ġauthorities	33398
Ġdiabetes	33388
Ġpromote	33379
Ġresearchers	33366
dc	33349
Ġstructural	33347
ipping	33342
sky	33330
ily	33324
ries	33313
Next	33297
Ġ120	33252
ular	33251
Ġexamination	33245
Ġ150	33243
Ġmarried	33239
Ġorganic	33224
Ġbrand	33222
ĠSoftware	33210
Thanks	33200
air	33192
obj	33177
Ġdisorder	33174
ona	33170
Where	33168
las	33160
ges	33159
ett	33150
real	33149
Ġearth	33124
ils	33121
ups	33118
tered	33110
jo	33107
ĠFIG	33103
URL	33099
Ġmix	33096
Ġmeta	33096
Ġtag	33089
Ġstrains	33088
^-	33086
location	33081
ļ	33080
Mr	33079
options	33078
yo	33073
ean	33059
oxy	33058
HE	33058
ĠLemma	33048
Ġputting	33046
Although	33043
Ġvisible	33043
Ġweekend	33035
Ġcompound	33009
only	33006
Ġjoined	33004
Ar	33003
late	32995
Ġfaster	32991
ĠChicago	32982
aut	32980
Ġconcerning	32974
Ġreplaced	32949
Ġfinish	32945
Ġfacilities	32944
eng	32935
Another	32934
lis	32929
ĠGa	32925
Ġdebate	32919
DP	32907
Ġsector	32904
Ġsolve	32899
assert	32894
home	32891
Ġherself	32881
ĠIts	32880
Ġconnect	32854
ely	32853
Ġturns	32848
ĠAfrican	32840
Ġcm	32834
ock	32810
Ġacting	32807
Ġwilling	32798
UR	32796
nn	32794
.-	32784
Ne	32782
ĠBill	32779
Ã³	32777
Ġlayers	32775
Ġproportion	32770
]{},	32748
Ġro	32747
Ġmention	32745
Ġsugar	32738
Ġcitizens	32738
Ġantibodies	32712
Ġdangerous	32699
Ġsouth	32686
Ġprison	32685
Pre	32682
Ġassumed	32679
Ġcandidates	32674
ĠClinton	32666
ĠGreat	32663
DO	32657
ĠOut	32657
(*	32646
Ġinvolves	32645
ĠPR	32640
ĠLi	32640
Ġrepair	32634
ĠmRNA	32626
)}\	32616
OM	32610
Ġmerely	32610
Ġmatters	32607
Ġemergency	32592
ĠpH	32590
ATION	32583
GC	32581
Ġseat	32573
ĠSi	32547
Ma	32539
ĠDE	32532
ĠField	32527
ĠIran	32526
ĠCol	32521
note	32509
Ġobservation	32509
ĠAc	32508
²	32498
^+^	32498
BE	32498
^+	32497
ese	32494
equiv	32489
Ġperspective	32482
Ġexperiences	32478
Ġamino	32472
Ġmenu	32471
})\	32469
Ġhundreds	32469
rop	32467
word	32465
Di	32463
Ġli	32462
sensors	32450
Ġhundred	32447
Ġcontainer	32447
ĠSecurity	32442
each	32430
Ġ1990	32422
ĠAnother	32414
ĠEU	32408
Ġpassing	32397
Ġamazing	32395
Ġlowest	32394
´	32388
ĠEnd	32388
Ġexecutive	32386
```	32384
Ġpairs	32383
Default	32377
Ġdetermining	32366
ubuntu	32362
des	32341
Ĺ	32340
tc	32333
PT	32309
Ġintra	32304
Ġoffset	32290
Ġ54	32285
sd	32278
Ġ2020	32274
Ġnative	32272
=======	32261
wa	32259
Ġbias	32251
Ġaspect	32247
Ġclosely	32238
Are	32234
Ġmilk	32228
Ġlived	32225
MD	32213
ĠAD	32212
ĠÃł	32199
lers	32185
buf	32175
Ġouter	32168
Ġproved	32166
gh	32163
Ġdirectory	32161
Ġconfig	32141
Ġaid	32133
method	32131
Ġmanage	32131
Ac	32121
Ġwalking	32119
Ġpolitics	32107
Ġposted	32103
Ġconversation	32102
sing	32075
itt	32067
Ġliability	32060
Ġdist	32049
Ġwrt	32043
Ġsk	32037
rine	32031
Ġ---	32030
DF	32026
RT	32012
ĠUN	32009
Ġtrees	31989
ĠPCR	31970
Cell	31967
oph	31957
\]),	31944
find	31939
description	31937
Ġmonitoring	31937
Ġtelling	31934
Ġprimarily	31930
Ġwear	31929
eration	31921
sed	31914
ĠLife	31901
Ġleg	31898
lat	31897
Ġsignificance	31897
Ġbranch	31892
ĠHar	31891
align	31887
olo	31875
Ġprincipal	31871
Ġinitially	31870
Ms	31859
Ġsweet	31855
tree	31854
Ġloved	31850
bre	31849
Ġargue	31849
sw	31845
LP	31832
Ġfont	31828
ĠTom	31816
ĠSu	31814
ains	31810
close	31800
minimal	31798
Ġvivo	31797
Ġwonder	31796
Ġcities	31794
Ġap	31790
control	31776
mem	31773
Ġoperators	31765
ral	31745
Log	31742
ining	31738
LO	31729
Ġrespond	31723
jpg	31713
cha	31709
Ġpara	31708
}/	31698
Ġdollars	31693
Ġlots	31685
Ġinjuries	31682
ĠIP	31675
ĠGe	31674
called	31672
ç	31671
Ġeating	31670
¶	31657
unt	31646
Ġleague	31646
Ġdelivered	31642
Ġimplemented	31636
mode	31635
documentclass	31633
Net	31630
Ġblocks	31628
Ġmaps	31627
ĠPar	31615
Ġdisorders	31613
der	31599
Ã¼	31590
Ġvision	31590
Ġ99	31588
Rs	31584
Ġsports	31584
Ġgrown	31578
Ġ53	31573
Ġbusinesses	31566
yes	31551
mann	31535
Ġconsists	31528
Ġcontributions	31527
ħ	31520
Ġinjection	31514
Ġsecure	31513
Ġ[]	31508
Ġdepend	31501
del	31495
Ġaccordance	31484
BI	31472
ĠJones	31459
Ġsn	31455
sel	31448
rick	31442
iding	31442
ĠStar	31438
Br	31431
Ġbigger	31430
Ġenhanced	31429
Ġ*)	31425
Ġoptimal	31422
Ġcloser	31419
Ġhomes	31379
Ġdifferential	31364
ĠÎ²	31358
Mode	31355
ort	31354
ĠMath	31350
LC	31345
Ġ1998	31338
aging	31334
ff	31331
Ġfeed	31327
Ġbodies	31323
Ġsensor	31315
Ġleadership	31309
host	31299
gal	31299
Ġpure	31288
Ġlaser	31286
250	31282
HR	31280
Ġlabor	31251
Ġaccounts	31236
Ġcaught	31233
ĠAg	31226
Ġorganizations	31222
Ġtransform	31215
)+	31214
Ġgenome	31211
Ġlocations	31197
Ġconsequences	31164
TD	31162
ste	31161
Ġda	31153
Ġopportunities	31149
pdf	31144
Ġsorry	31137
Ġapparent	31132
]^.	31120
Ġelectrical	31120
Ġiron	31119
Before	31116
Ġminimal	31111
Ġsin	31097
Layout	31088
Ġcorrectly	31081
LY	31075
BR	31075
ĥ	31074
Ġillegal	31071
strong	31055
Ġmaintenance	31053
ien	31050
Ġfigures	31048
.$	31047
ĠHall	31043
ties	31038
Ġrepeated	31029
loc	31010
Ġdenote	31008
Ġarrived	31006
Ġcompact	31005
Ġfacility	30982
Format	30977
service	30976
fer	30968
Buffer	30966
2006	30965
Ġthermal	30952
nav	30951
Ġterminal	30951
ami	30945
Ġextend	30933
Ġclosest	30923
ĠÃĳ	30917
rit	30914
Ġpathways	30913
ĠHuman	30910
Ġprevalence	30909
ode	30907
Man	30905
Ġant	30904
ison	30900
Ġthoughts	30895
ida	30886
Ġaccident	30864
burg	30861
Ġdownload	30851
Ġsyndrome	30845
Ġrecommend	30845
DD	30836
small	30830
Ġwarm	30830
GS	30824
Ġfund	30800
iner	30793
)/(	30792
Ġdrink	30789
Ġremoval	30787
More	30774
txt	30773
Check	30772
IG	30771
Ġinternet	30763
ĠName	30762
2007	30756
Ġdisplayed	30746
Ġsurrounding	30742
Inter	30741
cf	30734
append	30719
ĠObject	30717
Ġmutations	30713
approx	30699
sf	30697
google	30696
ĠProject	30691
Ġabsolutely	30684
iles	30680
Ġfruit	30677
ered	30676
ded	30673
TYPE	30653
čĊĉĉĉ	30651
Ġorgan	30648
ĠBE	30640
Ġcreation	30626
Ġpractical	30624
ĠBi	30624
2019	30622
Ġextract	30622
band	30620
Ġpp	30605
Ġapparently	30598
sto	30597
ĠON	30597
neq	30587
Ġintegrated	30583
Ġupdated	30582
Ġpan	30581
ĠMI	30578
Ġbacteria	30577
gers	30561
AI	30553
law	30527
{(	30521
Ġstages	30520
FE	30509
eno	30508
Ġhypothesis	30499
FI	30495
ĠDemocratic	30488
Pa	30460
normal	30446
Ġcap	30437
ĠCH	30435
cat	30426
Ġclients	30418
Ġspectra	30414
Ġhelping	30413
INT	30408
Ġdepression	30396
ĠSE	30392
sz	30391
Ġrec	30388
Ġcommittee	30376
Ã¶	30372
Ġevening	30370
Ġcoupling	30365
Ġscreening	30360
Ġemotional	30359
Ġ1997	30357
Ġconviction	30356
Ġimplied	30345
La	30337
Ġmedian	30332
Ġregression	30329
Ġsounds	30325
ĠBay	30320
Ġadopted	30315
Ġflag	30310
Ġtherapeutic	30308
PM	30302
fr	30301
Ġbeam	30300
Ġsubmitted	30297
Ġkitchen	30283
ises	30282
vers	30272
Ġmine	30271
Ġtight	30262
oids	30255
outs	30254
ĠAppellant	30249
{-	30241
Ġtopic	30241
wise	30234
ĠOS	30221
Ġpointed	30210
args	30202
Ġ400	30200
Ġed	30198
Up	30193
iter	30188
Â¶	30184
ĠFl	30182
ums	30181
ient	30173
system	30168
Ġconstructed	30163
Ġargued	30150
Ġ58	30149
¼	30143
Ġdescribes	30134
Factory	30129
Ġcoffee	30121
ĠEm	30113
Ġsynthesis	30102
Ġdogs	30100
Ġprovisions	30092
Ġpictures	30092
Ġ[[	30086
rum	30073
'$	30072
Ġtrend	30067
Ġepisode	30062
Ġcur	30058
Ġimplement	30038
Ġclassical	30034
ously	30031
ĠPh	30030
ĠLo	30028
oles	30023
Component	30012
Ġcharacteristic	30007
ust	30004
ë	29997
}{-	29996
Ġsolar	29991
Ġcounts	29987
Ġplastic	29985
Ń	29980
vector	29978
Ġdraft	29973
arc	29967
Update	29966
Ġessentially	29959
anc	29958
####	29951
Ġge	29950
high	29942
ym	29939
Ġapart	29936
Query	29931
zy	29923
Ġmeat	29923
Ġmarked	29913
bool	29912
Ġ\{	29909
Ġremote	29895
Ġ"(	29879
Ġsheet	29878
*^	29875
mn	29874
Ġtotally	29873
erman	29865
Ġencoding	29861
ching	29854
Ġexplanation	29847
even	29840
Ġmarkets	29839
header	29837
ump	29831
Ġdiscretion	29819
Ġcategories	29810
Ġspatial	29806
Ġexplore	29800
>>	29778
Ġtasks	29777
Ġtaxes	29776
ivity	29773
Ġbright	29771
Style	29760
Ġguidelines	29756
ĠPolice	29755
Ġrapid	29754
math	29750
fin	29748
700	29742
***	29741
setlength	29736
Ġsat	29730
ĠUI	29728
Ġdream	29727
]$	29716
ĊĊĠĠĠĠ	29709
ency	29699
Ġspeaking	29694
Options	29690
Resource	29688
ector	29687
Ġmaintained	29685
Ġcol	29684
Ġdesire	29666
Ġ\>	29665
ĠCup	29661
Ġes	29651
Ts	29649
Ġsoil	29648
Ġapproval	29647
ident	29643
oral	29634
Ġchapter	29634
Ġ1000	29633
Ġlen	29621
Ġdeclared	29620
msg	29617
Ġrecording	29616
Ġregime	29614
ono	29587
Ġultimately	29586
une	29582
AK	29582
Ġ96	29578
ths	29572
amsmath	29568
ials	29555
ĠLong	29550
Ġimmediate	29548
ws	29540
Ñĥ	29539
Ġfamiliar	29534
Ġconsole	29534
È±	29526
2001	29521
spec	29519
Ġoffering	29518
Form	29517
Ġ1996	29508
Ġfee	29507
Open	29490
conf	29481
][@	29466
ĠServices	29459
oth	29451
Ġtells	29445
}+\	29444
Ġ57	29432
Ġfeedback	29427
ENT	29420
={	29416
Ġdev	29404
ele	29399
Ġpark	29385
wers	29383
Per	29382
Ġneck	29371
125	29357
Ġreporting	29357
dp	29355
make	29353
Ġpreparation	29348
Ġ59	29348
Ġforget	29342
Ġtreatments	29330
Ġidentical	29328
Results	29321
amssymb	29312
cons	29308
Ġraw	29303
then	29302
tar	29295
din	29289
Length	29288
Ġaut	29287
Ġnum	29282
ination	29279
Â¼	29274
ĠHome	29272
Ġclassification	29268
,$	29256
Ġwh	29252
Ġregister	29243
Ġrealize	29235
amsfonts	29221
----	29221
Ġtransformation	29215
molecules	29213
Ġmodify	29200
Ġrecognition	29191
Ġregulations	29188
lit	29187
:(	29184
Ġneutral	29183
Control	29178
Attribute	29165
ined	29161
2005	29159
Ġrespective	29149
Ġserving	29148
Ġspoke	29143
ª	29142
mathrsfs	29142
Ġcurves	29141
Ġobviously	29140
amsbsy	29135
RNA	29135
Ġrequested	29133
Ġprinciples	29133
upgreek	29131
Ġlie	29130
Ġbars	29130
ĠAre	29129
Ds	29114
oddsidemargin	29098
wasysym	29091
Ġsurgical	29090
Ġincidence	29086
âĢĺ	29082
Because	29080
rating	29070
Ġdiscovery	29070
ĠProgram	29070
Ġbond	29068
ki	29060
Ġfinds	29058
nc	29057
Ġsituations	29055
Ġtranscription	29038
Frame	29036
ware	29022
qquad	29015
Ġden	29012
Ġinstruction	29006
dom	29003
kins	28977
Ġexcess	28977
update	28974
}^\	28973
inner	28960
gy	28960
yc	28954
Ġtumors	28944
nan	28941
aves	28939
ĠControl	28939
Token	28933
ibility	28932
cont	28932
san	28927
Ġbeat	28908
Ġrat	28903
illa	28897
Ġcopyright	28893
after	28892
Ġexamine	28892
Ġprop	28889
Ġconfirm	28879
Ġtaste	28877
Ŀ	28868
ĠSecretary	28864
nl	28849
Res	28842
ĠAdditionally	28838
Ġlies	28834
lv	28817
ways	28811
Ġshooting	28811
Ġposts	28811
ÑĢ	28806
ĠIT	28806
how	28804
Ġ"""	28804
site	28791
Ġcrucial	28786
Ġfiber	28784
EST	28777
256	28774
ĠMicrosoft	28769
Ġ$(\	28763
hed	28761
Ġworst	28759
Block	28747
Stream	28745
Rev	28739
ĠÎ±	28736
two	28730
Ġsm	28727
FT	28726
step	28724
Ġclimate	28721
ĠSam	28708
Ġcompliance	28706
nk	28704
Ġbought	28702
CB	28695
lip	28687
Tab	28687
Ġcognitive	28675
Ġ85	28669
ĠLike	28665
Ġtube	28660
Command	28657
OH	28655
Ġpulled	28654
Ġassets	28651
Other	28650
%),	28649
Ġest	28648
Ġalpha	28644
opt	28633
ills	28622
lp	28604
Ġbehaviour	28601
ĠPower	28598
ĠDemocrats	28596
ĠDonald	28592
ios	28583
Ġstem	28581
Ġsomewhat	28575
Ġtransaction	28567
Ġrequests	28565
ĠApple	28565
ased	28564
nie	28540
Ġowners	28538
Ġconstruct	28536
180	28534
Ġworry	28527
ique	28525
dh	28524
Ġarrested	28521
ame	28518
Ġhelpful	28518
Ġspectral	28515
Ð¾	28513
buffer	28499
inf	28496
Ġcontents	28494
Ġenforcement	28492
Ġion	28483
Ġruling	28474
Supplementary	28466
card	28456
Ġfashion	28445
Ġdrawn	28445
\^	28439
NET	28423
Ġteaching	28417
ĠSociety	28415
ĠAT	28400
Ġok	28396
ld	28389
ove	28376
Ġpreferred	28376
Ġglucose	28376
Ġhurt	28360
Ġpossession	28353
ĠCT	28352
bed	28349
~,	28345
GF	28342
ours	28336
Ġhate	28301
ĠPeter	28301
Ġhidden	28300
ede	28298
Ġinfected	28292
Ġdisc	28285
IE	28284
ĠBu	28282
Ġcentre	28276
Sc	28274
aker	28268
)),	28268
bottom	28266
Ġdeaths	28265
Ġdriven	28248
ĠRead	28234
mol	28226
xy	28222
bound	28221
Go	28215
SF	28213
ller	28204
child	28199
ĠIV	28192
Ġenzyme	28186
Ġfighting	28174
Ġlogic	28171
Ġho	28160
Ġapplying	28156
hm	28144
Ġpicking	28143
Ġnormally	28136
Ġphotos	28126
Ġintelligence	28126
Ġrotation	28120
Ġvoters	28118
pol	28110
pose	28103
otic	28099
==	28091
ĠIraq	28085
)*(-	28081
ĠCorp	28058
Ġgrid	28054
Ġnoticed	28052
fc	28050
Ġweapons	28049
ĠThose	28046
erate	28043
ĠSocial	28042
ĠJournal	28038
ĩ	28014
Ġcarrying	28010
Ġrealized	28006
Find	28003
Ġcounty	27989
<?	27977
Ġdivision	27965
Ġpermission	27955
Ġroles	27949
Ġassumption	27949
Ġgrade	27941
º	27940
102	27939
ares	27936
]]	27931
Ġcontroller	27929
ĠDO	27921
Ġlay	27912
Ġproliferation	27907
iy	27894
ĠIsland	27892
ĠDC	27887
Ġmechanical	27884
ÂĢ	27878
Ġreads	27877
oes	27870
Ġcultural	27870
Ġcons	27866
lg	27864
asing	27853
Ġourselves	27848
ema	27843
Ġassault	27843
ĠLee	27834
response	27829
wing	27824
itch	27813
Ġregistered	27812
People	27808
Ġ66	27801
Ġacids	27800
============	27795
Ġsubstantially	27793
water	27788
Ġattempts	27788
ional	27785
Ġinfections	27783
RR	27774
Ġspirit	27769
Ġ62	27748
Ġlaunch	27744
ĠView	27743
Ġev	27739
uri	27738
Ġhappening	27737
Ġmi	27734
det	27727
None	27723
Ġbug	27718
Row	27717
Ġvertical	27715
Ġ&\	27715
Ġ],	27711
ĠAP	27707
ball	27694
lay	27692
kt	27689
rem	27677
Ġaccused	27674
ĠValue	27674
uv	27664
ĠEducation	27664
EE	27653
Ġmillions	27647
oss	27645
Ġseparated	27632
Ġimagine	27629
=(	27618
³	27610
Qu	27590
Ġexperts	27583
Ġinstant	27559
Ġdiameter	27556
Ġlock	27543
mes	27536
Ġpaying	27535
Ġcrystal	27535
dist	27532
filter	27530
Ġdropped	27530
urs	27527
cup	27523
cp	27522
105	27520
Ġconversion	27517
Ġpatent	27516
Ġweather	27514
Ġuniversity	27499
Ġmedicine	27498
NI	27496
Ġcorrelated	27484
ried	27476
Ġwine	27473
aling	27459
Ġtri	27449
Right	27438
element	27430
>&	27426
room	27420
Ġboolean	27420
Ġplanned	27413
Ġmetric	27412
ĠKorea	27412
ET	27410
Ġgate	27410
ott	27400
Ġlegislation	27397
Ġradius	27390
aged	27389
Ġpermit	27370
dn	27365
Server	27365
cb	27356
raw	27353
und	27352
Width	27351
meta	27349
Function	27343
Ġsister	27343
ogenic	27340
Ġpowers	27334
ĠAttorney	27323
Ġinstitutions	27314
TV	27311
Over	27311
2004	27310
Configuration	27304
é	27292
ĠWilliam	27289
Ġconsumer	27282
OF	27274
ĠWilliams	27272
DIR	27270
flow	27261
EF	27249
Ġpurchased	27248
ĠGNU	27246
ĠMs	27240
env	27238
Ġsimulation	27237
sey	27236
Ġknowing	27233
NC	27230
Ġsizes	27230
double	27227
UL	27226
Ġ61	27225
Ġ>=	27213
GT	27211
Ġconstitutional	27210
life	27208
Ġreactions	27208
tering	27207
Es	27203
ĠME	27202
push	27197
erc	27197
Ġfeels	27193
Ġdocumentation	27192
Ġloan	27187
ĠDevelopment	27182
rom	27179
Ġsetup	27175
ider	27173
ĠMA	27171
$_	27167
ĠPD	27166
bp	27156
utes	27150
sur	27146
Ġopposition	27137
los	27126
Ġpromise	27124
}^{(	27121
ĠMartin	27117
About	27108
Ġintroduce	27106
ĠTR	27100
oms	27099
ĠIll	27099
Ġreliable	27098
Ġcars	27096
ands	27084
cpp	27075
VE	27070
Ġincreasingly	27070
ois	27069
Ġsharing	27060
fo	27059
fd	27059
ĠCheck	27058
®	27057
ishing	27055
Ġviral	27048
aring	27047
Ġexcited	27044
Ġowned	27043
mathsf	27038
Ġokay	27034
positive	27029
nis	27029
Ġthick	27026
Ġuniform	27024
Ġtransferred	27023
Trans	27021
El	27019
Ġgrand	27017
iness	27016
Ġkinds	27014
ĠTa	26989
Ġcomplicated	26986
Ġreligion	26985
Ġmu	26982
Ġindustrial	26977
Dr	26974
Ġsubstance	26973
erm	26970
ially	26963
hal	26956
bot	26950
;</	26948
Ġanswers	26945
Target	26943
.^[@	26935
Ġvictims	26935
Ġentity	26932
Ġ63	26931
foo	26924
Ġrapidly	26923
mt	26915
Ġrecognize	26915
{"	26913
ira	26913
ched	26910
Ġoriginally	26907
Ġforming	26907
Also	26890
Controller	26889
010	26888
ĠDivision	26888
Ġformal	26880
Mar	26879
ĠPart	26877
(\[	26875
Ġsymbol	26867
Ġdecade	26863
}"	26858
ela	26852
Ġbrowser	26851
Ġslowly	26846
Ġextensive	26843
Hey	26823
Ġcorporate	26818
sta	26816
ĠDirector	26797
Ġ68	26794
Ġsmart	26788
Ġshop	26783
now	26779
ĠSD	26779
Thank	26778
Ġacquired	26776
lab	26774
Ġanyway	26773
Ġharm	26772
break	26767
00000000	26753
Ġste	26751
Ġprobe	26749
ĠHill	26746
Ġtheorem	26740
TL	26719
Ġintegral	26715
Ġconvert	26714
Builder	26710
ĠUp	26705
GG	26700
Ġbeta	26700
Ġinduction	26695
ĠMexico	26693
(_	26682
ĠChris	26682
Ġdomestic	26678
uses	26669
cur	26664
rog	26661
ĠRoad	26660
Ġbattery	26655
Ġaddressed	26643
ĠBen	26643
Ġrisks	26637
Ġ1995	26634
101	26627
Ġregulatory	26626
his	26625
Ġrestaurant	26612
EV	26603
ĠWhere	26602
"}),	26599
Ġheader	26582
replace	26581
Ġpayments	26572
Âģ	26571
ility	26569
Ġreviewed	26564
byte	26561
Ġwinning	26561
Ġstatistics	26550
Output	26543
Ġcolumns	26543
ost	26538
store	26537
Ġintegration	26537
Ġpresentation	26531
Bl	26524
Ġfairly	26524
itions	26523
)}$	26522
American	26514
III	26509
)))	26507
ĠWill	26504
Ġinflammatory	26501
)}{	26499
CN	26491
Ġaudience	26489
009	26481
¿	26476
uck	26476
ft	26476
Ġparticipate	26470
tw	26467
gel	26467
Many	26463
ĠLake	26462
\'	26456
ones	26453
tx	26423
Max	26415
Ġwire	26409
\,\	26407
Description	26406
Ġclusters	26404
Ġmomentum	26400
ĠmM	26399
tp	26393
auto	26391
µ	26385
ams	26374
Ġgoods	26374
Ġcompensation	26371
ĠWho	26366
mc	26356
ĠSC	26356
Ġhotel	26349
nh	26346
Ġfails	26340
ski	26338
eling	26327
ĠFr	26316
acc	26302
Ġwindows	26288
Ġtwenty	26288
lia	26286
sr	26282
Ġregardless	26278
project	26271
Ġtemperatures	26262
unk	26256
iated	26254
Ġyouth	26249
ĠmiR	26240
Window	26239
Ġpursuant	26238
}\,	26232
ãģ®	26230
sb	26229
ners	26225
Ġflux	26224
treated	26219
DT	26218
axis	26215
Ġchoices	26200
Ġhydrogen	26183
Ġengaged	26179
Ġwarning	26173
Ġcomfortable	26169
111	26161
Ġvehicles	26161
ĠRef	26160
Project	26151
ĠDu	26149
mit	26147
Ġsimulations	26135
pin	26133
UT	26130
pu	26128
month	26128
Ġsurfaces	26125
;\	26124
Ġpublication	26122
empty	26120
ĠKe	26119
Ġadverse	26108
common	26103
Link	26089
±	26087
ped	26085
Ġyounger	26066
Ġwood	26065
Ġexp	26064
example	26062
Ġ1980	26061
Ġdeliver	26060
uz	26055
hy	26054
Ġkilling	26049
Ġedges	26048
Ġshock	26045
ĠMi	26045
ĠMaybe	26041
ĠChief	26038
RB	26037
Ġ:)	26030
Ġil	26024
Ġlaboratory	26018
osh	26013
Ġoperate	26008
Ġcoupled	26005
Ġsuffered	25990
Ġcapture	25986
ĠMrs	25984
LD	25980
Ġscenario	25980
Ĭ	25978
ĠLos	25977
ĠOhio	25969
Ġ"\	25966
ever	25962
Ġseparation	25959
ĉĉĉ	25952
Ġwonderful	25937
Ġaside	25935
Ġstores	25934
isa	25932
Â´	25931
ĠMin	25931
]"	25925
Ġsubsequently	25921
Ġdual	25917
Ġcamp	25910
Ġcalculate	25909
ĠAppeals	25907
ank	25903
Ġturning	25903
Ġ67	25901
try	25900
menu	25882
ĠSP	25881
Ġbanks	25876
ãģ	25873
Ġoverride	25868
IB	25858
ued	25849
Ġrefused	25849
Ġdependence	25845
ades	25839
)|	25839
mers	25838
Ġdec	25838
Ġbuildings	25831
Ġattempted	25816
Ġproducing	25814
Location	25810
ctors	25805
Ġng	25805
git	25801
}\\	25796
ĠSO	25795
ĠVirginia	25791
Ġpin	25790
Ġfamous	25788
ĠModel	25788
Ġwriter	25781
Ġinhibitor	25781
Ġsmoking	25779
lc	25778
Ġelectrode	25776
Ġexpand	25775
ĠNi	25775
sent	25773
Ġsuffering	25772
yt	25771
ping	25764
ender	25760
omo	25747
Ġwalls	25743
values	25742
rous	25742
Ġstrike	25742
Ġproposal	25740
Ġclock	25739
ĠVersion	25737
Ġflight	25736
Ġnm	25731
Ġstood	25726
Ġcalculation	25724
inated	25722
Ġroll	25719
ech	25715
Ġcorresponds	25713
Fe	25711
Ġtough	25709
Ġapoptosis	25697
Ġschedule	25689
Ġemployer	25689
2003	25679
ĠJewish	25677
eman	25670
tf	25665
Ġdischarge	25661
ĠCanadian	25657
Ġear	25653
Pi	25649
offset	25648
201	25647
Ġbelief	25645
Ġodd	25633
Ġversions	25630
Ġeditor	25619
103	25614
Ġcontributed	25614
Ġcolors	25611
aks	25608
parse	25601
ATE	25592
Ġboys	25591
Ġalign	25591
Ġrepresenting	25590
ĠReview	25586
Ġbeer	25580
imal	25579
Ġreader	25578
Ġplenty	25577
ĠRes	25577
uit	25574
aled	25572
Ġstack	25571
Ġproceedings	25568
Ġbasically	25562
Ġescape	25560
Ġfacing	25559
,$$	25557
Ġgrounds	25555
je	25550
nb	25538
Use	25528
owing	25512
mic	25512
Ġreceptors	25495
lets	25492
Ġvillage	25485
Ġ-\	25483
Ġexit	25481
)$$	25479
arn	25475
Ġser	25475
layer	25464
Ġyellow	25449
Ġenhance	25449
Ġextreme	25447
pass	25440
Ġprogression	25439
Ġmapping	25439
Ġarbitrary	25438
eral	25426
Ġchamber	25426
ĠRepublicans	25423
Op	25422
Ġminister	25420
0002	25416
ancy	25410
Even	25408
ĠThree	25403
Ġvan	25397
Ġattribute	25388
ĠDa	25384
sys	25380
Ġteacher	25379
Ġinvolvement	25366
ĠAmong	25364
Ġdiffer	25349
Ġwalked	25348
ĠRichard	25348
Ġseed	25339
Ġinflammation	25335
Ġequally	25335
&&	25334
Ġcoefficient	25331
EB	25324
Ġmodes	25323
.âĢĻ	25319
Dis	25317
Ġdinner	25312
Ġverdict	25310
Ġthickness	25309
Ġcircle	25303
Ġopposed	25300
Ġconsumers	25300
Ġthrows	25293
Ġperforming	25281
Ġstimulation	25280
ĠCarolina	25277
Ġ1994	25260
Ġregional	25257
Ġplain	25249
Ġisland	25244
GO	25242
107	25242
Ġobserve	25240
Local	25238
Ġapplies	25232
255	25222
AND	25217
Ġmoves	25204
ĠGame	25195
ern	25190
Ġagencies	25186
ĠAccordingly	25186
ji	25185
iff	25184
Search	25182
before	25181
Ġdiversity	25176
="#	25173
Ġ-------	25159
ken	25156
Ġadjacent	25153
Ġcontrary	25149
tk	25145
Call	25139
Who	25134
Ġpregnancy	25134
Ġph	25131
Ġbacterial	25112
Ġperiods	25111
tri	25109
Ġsatisfied	25105
Ġ===	25105
dim	25097
files	25096
dings	25095
sha	25090
Ġstronger	25087
ester	25078
Ġfr	25078
ĠGiven	25073
Header	25070
HI	25063
Ġmissed	25061
she	25059
Ġsegment	25055
attr	25043
rations	25041
Ġinstrument	25041
ĠChe	25039
Ġrank	25021
tes	25020
Ġdecline	25020
ĠAC	25019
prod	25018
Ġwherein	25015
Ġhyp	25014
Ġdimensions	25013
Ġmagnitude	25010
Ġstatistically	24998
Ġcreates	24997
Ġmutant	24996
Ġra	24990
ĠAL	24986
Ġrows	24983
Ġmoral	24979
Ġguard	24976
ipe	24965
Ġsaved	24963
Ġshares	24955
Ġbegins	24952
Ġongoing	24950
231	24939
Ġmoderate	24939
Ġprofiles	24938
ifies	24935
Ġthereof	24935
ĠMary	24935
}-\	24928
bt	24923
%;	24923
Ġprepare	24921
Expand	24914
ĠAmendment	24912
}[	24910
Ġcoefficients	24910
aka	24908
limits	24903
Ġdecreasing	24898
Ġexcluded	24879
2002	24877
Ġmarkers	24877
Ġstands	24875
Ġbringing	24875
eur	24870
Ġ\-	24862
tm	24860
Change	24860
Ġwinter	24856
Ġnewly	24855
ĠBush	24854
Ġpermanent	24848
Ġconnections	24848
Ġcoll	24817
ati	24812
Ġshell	24804
Ġsymmetry	24799
Url	24795
Ġfa	24787
Ġmigration	24779
Like	24778
Ġefficacy	24778
Ġteachers	24773
Ġanxiety	24772
140	24767
Ġvictory	24767
NP	24766
yer	24764
Ãħ	24763
sets	24756
«	24754
dict	24754
sal	24750
ĠCR	24748
Ġconsequence	24747
Part	24744
mathscr	24740
âĢĥ	24736
arch	24735
Ġrequiring	24735
Ġlosing	24724
rant	24722
Ġshut	24711
Ġcards	24704
imp	24702
Ġmanufacturing	24702
Ġselling	24698
Tex	24689
pot	24676
ĠĊĠĠĠĠĠĠĠĠĠĠĠ	24673
Ġcomplications	24671
Ġadequate	24671
Ġrecover	24664
Ġdiagnostic	24659
Ġextracted	24658
Ġtail	24656
uted	24652
Ġtargeted	24652
arity	24651
Ġlisten	24640
Ġos	24637
ĠNext	24636
Ġintermediate	24632
"}](	24630
Ġsubset	24621
ĠYet	24617
gar	24615
osa	24614
ĠAnn	24614
dra	24603
Ġlesions	24603
Ġplanet	24600
Ġinjured	24599
Ġfoods	24598
Supp	24596
External	24595
ctx	24589
His	24588
ĠMer	24584
Ġdealing	24582
}_\	24581
Most	24574
Ġuniverse	24570
Top	24568
Ġpredict	24568
ĠGL	24566
ĠSimilarly	24563
Ġhell	24557
RM	24556
Ġdelete	24553
Ġsuspect	24552
Ġob	24540
BD	24531
TF	24530
rst	24529
Ġrender	24529
none	24526
Ġtrained	24517
Ġkeys	24513
API	24511
process	24499
Ġmiss	24494
),\	24486
uh	24483
arian	24477
Pl	24475
lies	24468
Ġna	24463
}|	24460
ACT	24459
ku	24453
Good	24445
rying	24440
ĠRT	24437
Post	24436
pers	24425
eon	24422
xa	24419
Ġvaluable	24415
Ġusage	24412
lor	24406
namespace	24400
Ġmutation	24400
Ġafternoon	24398
matrix	24395
'_	24393
Ġfarm	24390
Comp	24384
lot	24381
Ġcomputed	24380
Thread	24377
Ġer	24377
OC	24374
FR	24374
Â²	24372
Ġinstances	24369
Ġbrings	24367
<\	24364
GR	24362
eller	24354
device	24351
oro	24350
Ġwearing	24346
Ġsuperior	24345
Ġdiagram	24345
Ġshouldn	24344
icity	24338
Ġmoments	24338
Ġaudio	24338
inate	24334
ĠMiddle	24324
Ġpor	24320
ĠBlue	24312
ĠArmy	24311
hin	24310
Ab	24310
Ġnarrow	24305
ĠSer	24305
Ġreserved	24303
internal	24300
ĠWater	24296
ended	24291
Provider	24291
'\	24286
np	24281
ĠPo	24281
ĠBoston	24280
ĠDec	24276
Ġcalculations	24274
Ġactivated	24259
Ġrational	24251
Ġtechnologies	24249
xc	24247
Mo	24239
stone	24232
Ġrecall	24227
ests	24226
377	24226
ĠAR	24225
Ġreviews	24223
Ġapartment	24219
Ġsick	24218
such	24215
Ġfaces	24209
ĠScott	24194
uss	24185
Ġrely	24185
Ġdecay	24172
weight	24166
ough	24156
Ġrock	24156
Ġav	24150
TER	24149
Ġkernel	24144
Ġbroke	24135
¨	24134
sol	24133
ĠSec	24124
xx	24122
108	24120
ĠChristmas	24104
Application	24100
Ġdifferentiation	24100
UP	24097
Build	24096
ĠAnalysis	24096
have	24093
Column	24092
Ġsatisfy	24090
Ġallegations	24087
Address	24084
fill	24076
Ġchicken	24076
Ġalgebra	24072
Ġprefer	24069
hers	24068
ĠFROM	24067
Ġcardiac	24062
Ġtip	24060
Ġ1993	24059
including	24058
Ġresolve	24057
Ġelected	24056
CON	24049
Ġpop	24048
rest	24047
uan	24040
112	24039
Ġdedicated	24034
Ġchecked	24030
when	24029
wi	24023
Ġunsigned	24023
THE	24019
Ġclassified	24017
ress	24013
Ġ1992	24013
Ġfellow	24011
Ġchose	24007
sql	24002
ĠSal	24002
FL	24001
Ġext	23999
Ġ77	23995
Ġseriously	23994
ater	23993
Ġdust	23992
Ġsurprise	23991
Ġordinary	23990
\#	23985
Ġrenal	23979
Ġrevenue	23973
display	23970
Ġinvolve	23970
ĠMike	23967
Ġvary	23964
ards	23961
Instance	23959
Ġdistributions	23959
}]	23957
ometric	23953
1999	23953
ĠBased	23949
________________	23944
>\	23943
ĠUser	23942
Ġbrown	23939
Ġgalaxies	23937
Ġanywhere	23932
Ġaged	23929
ĠNetwork	23921
ĠTrue	23919
Ġcal	23918
Ġ<-	23913
Ġhistorical	23911
Ġbreath	23905
Ġtu	23893
Ġ<=	23888
ĠNon	23885
aining	23880
During	23874
Ġsemiconductor	23872
ĠDespite	23872
ences	23867
ĠKey	23867
Ġcutting	23866
Ġ69	23866
tile	23865
tem	23863
ained	23858
Min	23856
rec	23854
Ġpresents	23854
Fs	23853
Ġmatches	23852
123	23851
wide	23849
tmp	23843
ims	23843
Ġtheoretical	23825
lic	23823
Ġwarrant	23822
Ġ),	23816
104	23804
Ġlattice	23803
Ġperfectly	23802
Tree	23796
ond	23793
ace	23791
Ġpartners	23777
¹	23775
met	23773
emia	23765
rib	23763
Ġdiagnosed	23756
Ġtoken	23748
ually	23745
Ċĉĉĉĉĉĉĉ	23745
ĠEvery	23744
\}	23741
Ġillness	23741
Ġmetabolic	23738
Ġlib	23735
iu	23732
Ġprediction	23726
utter	23720
Ġill	23719
Ġlaunched	23710
nes	23708
play	23704
Ġrepeat	23704
Ġtheme	23694
AE	23692
ature	23686
ĠLu	23678
Ġincubated	23677
Ġdataset	23670
RD	23669
Ġbridge	23666
Core	23662
Ġtour	23650
ĠRight	23649
Ġcarefully	23641
Ġbits	23637
product	23631
ĠSk	23624
dg	23622
master	23616
Ġstatutory	23613
Ġacademic	23612
ĠTeam	23612
Ġfo	23611
Ġbytes	23609
remove	23607
white	23598
Ġride	23592
Ġyesterday	23589
Num	23580
Ġgauge	23576
Ġexecution	23571
nov	23570
Ptr	23548
eter	23547
Ġstaining	23542
Ġjourney	23541
Ġinsulin	23540
Ġinit	23540
ĠCharles	23525
||	23524
ces	23522
}},	23517
Ġhy	23516
uation	23514
Ġ250	23514
Ġ78	23513
Ġthousand	23507
Ġgift	23506
kl	23503
quot	23502
cut	23501
ĠAngeles	23496
sil	23495
Ġmonitor	23488
Ġinfrastructure	23488
Ġwelcome	23486
Ġbreaking	23485
'),	23484
what	23483
ĠYOU	23481
Ġhardware	23479
bel	23477
ava	23477
aching	23474
mor	23471
Ġeducational	23468
Ġ$|	23463
Ġcloud	23462
ĠMake	23457
Ġrounded	23456
Ġurban	23455
ĠJan	23450
Ġver	23445
Ġsky	23444
Ġ110	23437
die	23432
izations	23425
Ġdomains	23415
Task	23413
column	23404
Ġpet	23402
Ġmetabolism	23401
Ġloaded	23397
Ġcarrier	23395
Ġdrinking	23394
cho	23392
ais	23389
Ġstick	23386
Ġsufficiently	23381
Ġreferences	23380
ĠJo	23379
ova	23377
Ġder	23376
Ġcontends	23375
making	23373
--------	23373
Ġroutine	23368
Introduction	23360
Ġintake	23357
Ġtranslation	23350
ĠError	23349
OB	23346
Ġcomplexity	23346
ĠOrder	23344
ĠConstitution	23343
Ġpartially	23342
itude	23339
Ġ98	23337
Ġneighborhood	23334
Ġimposed	23334
ĠGl	23331
ĠOh	23327
Ġ88	23326
final	23318
vent	23310
Spec	23310
Ġconservative	23307
Gen	23303
nf	23297
vin	23288
Ġsomewhere	23286
Ġdisclosed	23286
Ġkid	23284
TG	23276
mediated	23274
Ġengage	23274
ĠParis	23274
Range	23272
Reference	23268
ĠThanks	23266
ading	23264
ĠCu	23262
ports	23261
Ġyields	23260
arb	23256
Work	23255
ĠMal	23253
Ġdanger	23252
ĠWomen	23248
Ġass	23243
Ġcontrolling	23241
BB	23233
LT	23230
ĠURL	23227
HC	23223
hw	23222
ressed	23221
lines	23217
Ġreveal	23208
COM	23199
Offset	23198
ĠJava	23193
Ġstroke	23192
Ġinduce	23189
Ġnumerical	23188
Ġcomparable	23188
Ġ71	23184
Ġbelieves	23179
ioned	23178
DL	23168
ĠDoes	23143
Ġconstraints	23138
Ġevil	23136
Ġbehalf	23136
war	23135
ARD	23129
full	23128
Ġcomprehensive	23125
ITY	23118
enn	23117
Ġlymph	23107
Vert	23096
Ġadmission	23094
ĠBefore	23093
Ġtrigger	23092
Ġwest	23090
they	23089
enter	23087
Ġlens	23085
had	23084
Ĵ	23082
Ġbutter	23075
blue	23074
Ġmarketing	23062
ĠHTML	23056
will	23055
mas	23053
BM	23050
ĠDetermine	23049
Ġserves	23045
Connection	23042
ĠCorporation	23040
Ġintroduction	23038
ude	23020
hole	23015
Ġcollect	23006
docs	23005
oking	23004
Ġdiscrimination	23000
217	22999
á»	22997
117	22993
ulated	22991
Ġinclusion	22991
itz	22978
world	22976
ĠBritain	22976
Ġtra	22970
rian	22968
ĠReg	22968
ĠKo	22968
Ġmail	22966
rus	22965
ĠSpecial	22965
Ġpassword	22964
Ġhandling	22962
ston	22960
Ġlab	22959
Ġdivide	22946
Ġtables	22938
Ġexplicitly	22938
Ġuniversal	22935
Os	22933
params	22928
Ġchallenging	22925
-----	22923
textbf	22922
Ġsampling	22911
Ġfly	22907
eting	22904
011	22900
Finally	22899
foot	22898
Ġgrew	22897
ital	22894
Current	22893
Ġcited	22892
Select	22891
Ġtab	22891
oj	22886
Did	22884
Ġbear	22884
mac	22871
Ġsimultaneously	22867
Ġ97	22867
ential	22864
Am	22857
Ġcommit	22855
Ġcache	22842
Ġalive	22842
ĠFind	22837
Does	22833
pd	22831
Ġmom	22829
Ġclassic	22827
ĠAp	22825
Ġ{}	22823
John	22809
ĠHE	22808
addr	22804
Ġtruck	22802
alling	22800
=-	22800
iously	22792
aya	22775
Ġdenominator	22771
Ġvariations	22765
ĠAustralian	22765
Ġchest	22762
ark	22761
ĠNA	22761
ipped	22760
Ġhealthcare	22752
Ġgreatly	22745
UC	22743
defined	22731
Ġ84	22721
Ð»	22718
Ġsnow	22717
lish	22713
214	22711
\}$	22709
Ġsharp	22709
Ġresponded	22702
ĠAsia	22698
ĠBusiness	22693
Ġsteel	22690
ĠHu	22689
Ġamplitude	22687
Ġprovider	22686
power	22684
zi	22683
.;	22673
Make	22669
Ġcopies	22668
Ġimproving	22665
pen	22657
ĠTechnology	22656
Ġquantity	22654
him	22646
Tag	22644
elling	22642
Ġingredients	22628
Ġfewer	22626
Ġmarker	22622
years	22621
kr	22620
ald	22616
Ġeast	22612
Ġpenalty	22603
mb	22602
OO	22600
Ġcorrection	22599
Ġlit	22593
Ġreg	22592
ington	22587
%).	22587
pid	22585
Ð	22571
ĠTop	22571
ĠPage	22568
cache	22567
\!	22567
Ġmales	22566
Ġconf	22566
Ġapproximation	22562
KE	22548
127	22546
Ġund	22546
Ġpulse	22545
usr	22541
thm	22539
auth	22539
ĠJackson	22537
ple	22531
PG	22531
Ġfraud	22530
Ġcohort	22528
Ġsending	22526
Ġelevated	22525
Ġmovies	22524
LR	22519
Ġexplicit	22514
Ġdrivers	22514
ĠSQL	22510
ume	22505
Non	22504
ote	22497
OV	22497
Ġnamely	22496
)_	22493
!!	22491
ÑĤ	22480
aid	22479
Ġomitted	22476
dm	22475
RL	22475
aro	22472
Ġrooms	22471
ĠClub	22467
Ġnearby	22466
known	22465
Ġhum	22462
ull	22461
SB	22447
Ġcomparing	22444
Ġ------	22443
Ġriver	22441
address	22439
ĠJr	22439
Ġdifficulty	22436
aming	22434
Ġsignature	22430
Ġprofit	22424
awa	22422
Val	22421
Ġpapers	22410
LF	22409
Ġrejected	22409
Ġvariance	22408
cre	22396
ired	22394
Ġstrict	22391
Ro	22388
ĠIllinois	22386
care	22384
vy	22377
Ġleaf	22373
Ġcommitment	22372
ML	22370
310	22367
Ġcont	22361
oin	22360
lite	22356
Script	22356
Ġprecisely	22353
uts	22349
oni	22349
à¤	22339
ols	22325
ĠCell	22321
Ġinequality	22318
ĠCare	22315
Ġcu	22314
Ġreceiver	22305
graph	22302
Ġbin	22298
Once	22294
rh	22288
Ġlip	22285
ĠValley	22283
Col	22279
Ġinvestors	22277
wrap	22272
ense	22270
Ġmachines	22268
Ġcodes	22268
ria	22263
Ġneural	22261
Ġhasn	22260
Cr	22254
Ġatoms	22249
ĠMedia	22249
there	22248
Ãł	22247
stat	22245
Ġscientists	22241
Ġmatching	22240
Ġbuying	22228
ĠJoe	22227
Cor	22226
Ġvast	22221
Ġfemales	22215
ĠForce	22212
born	22203
ĠItaly	22198
send	22197
Ġ76	22195
HD	22194
Ġnaturally	22194
background	22177
pine	22174
ashed	22172
Char	22169
Ġdoctors	22169
Ġau	22169
place	22160
TM	22160
ĠMichigan	22157
ĊĠĠĠĠĊĠĠĠ	22154
ided	22150
!âĢĿ	22142
''	22138
uous	22134
SW	22133
Ġtea	22133
Ġadministrative	22133
uce	22132
Hi	22132
iate	22122
Ġpos	22121
materials	22120
Ġcrowd	22118
Ġbusy	22112
Ġjump	22111
Ġdiv	22110
STR	22106
Ġta	22102
ì	22097
ĠToday	22097
Ġrad	22096
AGE	22095
inder	22093
NE	22087
Ġsuffer	22081
Ġmeasuring	22080
Ġscored	22076
Ġmask	22073
Ġelections	22073
AX	22072
fire	22065
Ġheads	22064
Ġcoordinates	22057
wd	22050
ĠEnergy	22050
Ġargs	22047
Ġrestricted	22038
front	22034
FP	22028
Ġperipheral	22026
ĠAmazon	22023
Ġsurprised	22022
ĠGold	22021
Ġcareful	22020
Ġ::	22020
Ġprivacy	22018
rt	22012
Ġmodification	22012
Ġreduces	22010
Ġadjusted	22006
<!--	22004
IX	22001
ĠCatholic	22001
unit	22000
Ġenabled	21996
about	21994
]{}]{}	21988
116	21988
ĠReal	21981
should	21976
Ġcomfort	21974
aud	21973
Car	21972
Ġparticipation	21970
Ġscheduled	21968
Ġtrace	21966
oker	21962
Ġproven	21961
een	21954
week	21951
Ġdiverse	21951
////////////////	21949
Ġnotion	21946
900	21938
ĠImage	21933
iet	21930
Ġabsorption	21927
Entry	21923
Ġindependently	21923
Ġfeelings	21923
106	21917
Ġcomposed	21915
Ġmult	21913
nar	21908
Ġ73	21908
angle	21906
Ġfe	21904
ĠResults	21904
Ġeq	21902
eries	21901
Â¿	21877
Ġera	21876
tic	21875
Reg	21870
Ġmistake	21867
SIZE	21864
Ġcheap	21859
ĠLocal	21858
ĠBest	21857
Ġarmy	21848
Ġcovering	21847
Ġanymore	21847
game	21845
Left	21844
rav	21839
Ġcontinuing	21833
Only	21832
Ġkinase	21830
ila	21824
Ġ74	21824
Ġtiming	21820
ĠSyria	21818
Ġbulk	21817
Ġsettlement	21815
Ġpresidential	21812
Ġcable	21810
ĠFire	21810
/>	21806
Ġcook	21802
Pe	21793
ĠYear	21786
rab	21785
Ph	21785
Ġhash	21784
NN	21777
Ġpot	21770
Ġloading	21770
Height	21769
Ġcommission	21764
Ġadds	21762
hash	21756
ĠCross	21755
tz	21750
ĠMor	21750
handle	21749
imate	21744
asp	21741
Ġatt	21740
ĠWood	21731
Ġ**(	21730
Entity	21728
Ġprogramming	21728
Ġinsert	21724
types	21722
ALL	21722
vel	21720
Ġtalked	21715
Ġent	21711
Ġcommunications	21706
ĠBY	21705
Ġcrimes	21702
Ġaffirm	21702
-*	21697
Ġaircraft	21692
Ġclosing	21690
aly	21687
icated	21683
Using	21670
Ġ&=	21668
Ġgenerating	21667
ĠDavis	21665
Ġherein	21664
ĠHy	21660
iring	21656
session	21645
Ġreform	21643
Ġopinions	21643
115	21641
Ġprecise	21641
CU	21640
rov	21631
Ġ94	21630
}({\	21629
ocytes	21625
Ġyards	21622
rative	21620
Ġlipid	21615
ctive	21612
Ġexecuted	21612
ĠGlobal	21607
Ġ101	21606
Ġlists	21604
Debug	21600
Ġexhibit	21595
ĠSource	21592
pan	21582
Ġwealth	21582
Under	21581
Ġpriority	21579
ulate	21578
km	21576
asm	21575
Ġpetitioner	21572
lower	21560
ĠFund	21560
uns	21558
Ġ..	21558
Ġfunc	21556
Ġlocally	21555
Ġmar	21554
Phys	21553
Come	21550
():	21547
Ġ$\{	21540
Ġafraid	21538
ĠCreate	21538
Ġlegs	21534
Ġvectors	21533
total	21529
ĠOK	21529
Â®	21526
^{-\	21525
ĠFed	21522
Ġou	21519
family	21513
ĠBur	21513
Ġtele	21502
Ġpolymer	21500
ĠChapter	21500
Ġfailing	21498
½	21492
debug	21492
SN	21492
Module	21490
Ġrefers	21489
Ġradical	21488
Ġcrazy	21487
Ġwhenever	21486
mission	21481
Ġwaves	21479
130	21477
Ġsuddenly	21476
Ġimmun	21468
}}^{	21466
Ġtherm	21464
232	21459
Ġcuts	21458
ĠPlan	21452
Level	21449
ĠGrand	21443
just	21438
Ġvi	21436
Ġdeclare	21429
Ġaimed	21428
ĠPut	21424
Ġhouses	21423
Back	21420
rows	21418
anda	21407
Ã¢	21402
ĠFrank	21399
ĠYoung	21397
ERROR	21395
Ġinhibitors	21395
Ġ1991	21394
ĠManagement	21391
Theta	21388
Ġtaught	21387
Ġroof	21387
amed	21382
}^{-	21381
Ġtemporary	21381
Ġfrequent	21378
ĠPrime	21370
click	21363
ves	21361
icate	21356
','	21355
VM	21352
ĠDate	21352
Ġforum	21349
Ġexpenses	21342
Ġneuro	21340
shape	21339
Ġsuppose	21334
Ġcultures	21334
domain	21331
vm	21328
lying	21323
Ġcompetitive	21322
ĠSpace	21318
eto	21316
Okay	21311
Ġweapon	21310
ĠTH	21309
Pos	21299
Ġproduces	21292
rod	21290
Total	21287
Ġencourage	21285
ĠPolicy	21285
áĢ	21284
Ġ81	21280
ĠAction	21278
Ġscan	21271
å	21269
ĠSM	21268
Ġalert	21265
Ġupdates	21261
ĠVol	21254
ben	21251
alo	21246
Ġteeth	21242
Write	21230
Ġwatched	21229
tbl	21227
Ġstrange	21227
yan	21222
Ġ91	21221
ologic	21220
iii	21220
wards	21219
Ġfifth	21215
ike	21210
SV	21210
ĠOp	21203
Section	21201
Ġgen	21201
Ġattributes	21196
Ġplurality	21195
inn	21194
Ġproviders	21192
lr	21190
).$$	21187
echo	21184
Ġreasonably	21180
cum	21177
ĠRights	21177
sie	21174
Ġwestern	21172
lation	21170
UD	21170
210	21169
Ġshoulder	21165
Ġfrequencies	21159
Ġlunch	21156
Ġsilver	21155
ĠNumber	21149
ĠMD	21144
activity	21142
Ġprocessed	21140
Ġtrading	21138
ĠAtt	21132
Ġvertex	21128
ĠApplication	21128
done	21126
Ġnerve	21125
ires	21123
Ġorientation	21123
Ġdominant	21123
ĠIC	21121
wan	21114
ĠTrust	21113
Equal	21112
Ġfi	21111
Ġawareness	21109
Ġfed	21108
[[	21105
email	21102
umb	21100
Ġstreets	21096
Ġlosses	21093
Ġignore	21090
Parameter	21089
Ġobj	21088
RG	21086
Ø§	21081
248	21079
hes	21077
days	21073
Ġcouncil	21072
Ġtiny	21065
ĠReport	21062
Ġ82	21061
Ġvalve	21060
points	21052
Ġpoll	21047
stop	21045
Ġlawyer	21045
EQ	21041
Ġquiet	21040
Ġwitnesses	21038
Ġnano	21036
Ġassist	21035
VI	21029
oto	21028
EO	21028
ĠÃ©	21025
Ġimprovements	21021
ĠWork	21007
gov	21006
IST	21003
Ġsomehow	20998
Ġplates	20995
nel	20991
Ġpersonnel	20988
BO	20985
Activity	20984
Ġ79	20972
Ġsight	20968
copy	20964
Ġgeneric	20962
omer	20944
ĠFox	20944
Ġfluorescence	20941
ocks	20939
Ġmarks	20939
Ġexplains	20931
Ġ83	20929
pur	20927
LM	20927
)</	20915
/.	20911
Ġ92	20908
ĠWilson	20907
Second	20903
nr	20901
Ġdivisor	20901
Ġtalks	20896
Ġholes	20896
ifications	20893
Ġpy	20886
bon	20885
Ġsoul	20884
Ġchair	20883
ĠVan	20880
Ġstruggle	20875
Ġorganized	20875
ĠThank	20871
ogenesis	20870
Ġgoverning	20869
bus	20867
Ġreturning	20867
edu	20859
Ġcorrespond	20853
ĠCivil	20853
Title	20843
Ġvideos	20841
Ġmanufacturer	20834
yst	20831
etic	20825
sus	20824
ĠCont	20818
illing	20817
diff	20814
Ġ93	20808
ĠWil	20806
168	20804
fb	20802
Impl	20799
Ġ})	20798
Ġrespiratory	20798
Ġweren	20796
Ġ($\	20795
enum	20794
Ġpol	20794
Ġunlikely	20791
thread	20783
Ġroughly	20783
Document	20760
Ġpermitted	20755
Î	20749
RU	20748
Ġarchitecture	20746
Ġ{{	20742
Ġpassage	20739
stage	20738
Ġdirections	20737
ĠNor	20733
ĠDescription	20733
printf	20731
illed	20731
Ã©s	20728
dan	20728
Ġgang	20727
|^	20725
Ġbyte	20723
Ġ89	20719
Ġve	20716
pf	20714
ĠText	20709
Ġcooking	20706
Ġmodules	20704
live	20700
Ġrecipe	20699
Ġuncertainty	20698
WE	20694
grade	20689
aria	20689
pping	20688
Ġelsewhere	20688
Ġovercome	20674
Ġ}\	20673
TY	20668
PCR	20667
acking	20660
cer	20658
Ġ87	20658
ht	20656
Ġafford	20649
ears	20648
task	20647
Ġrestriction	20641
ĠIns	20639
ĠRepublic	20638
015	20635
Ġparking	20632
Ġgeometry	20632
Ġcert	20632
Ġdeviation	20629
verse	20624
Ġplea	20623
ih	20615
Att	20605
DATA	20604
Ġcompute	20596
,{\	20595
Ġfolder	20595
Ġflash	20595
Ġsodium	20592
fx	20589
Ġconsisting	20586
Ġpen	20584
change	20576
oned	20568
mos	20567
ander	20566
Ġtelephone	20564
ĠMuslim	20564
Ġcycles	20563
Ġsubmit	20562
Ġgarden	20556
Ġbounded	20554
×	20551
export	20550
Ġextraction	20550
Ġkeeps	20546
Ġinvasion	20545
Ġutility	20541
Ġboost	20534
Ġpaths	20532
orn	20531
Ġvascular	20530
admin	20529
erd	20525
encing	20523
Ġmarijuana	20521
Ġcontracts	20517
ĠMiller	20516
SET	20514
Ġdisability	20514
109	20513
Ġseasons	20512
{}	20510
iel	20503
Position	20503
ĠMen	20502
tron	20501
ĠProposition	20498
119	20497
Ġalgorithms	20497
rk	20495
ĠIsraeli	20495
Ġaffects	20492
Ġconclusions	20491
dit	20487
Long	20485
MENT	20479
Î³	20472
aster	20470
Ġgiant	20461
Ġconcrete	20461
OUT	20459
elt	20458
Ġ1970	20458
tools	20457
Ġ---------	20457
eline	20455
Ġmic	20454
Ġce	20454
una	20452
ister	20452
ĠER	20448
ĠJack	20441
kel	20440
Ġhydro	20440
ando	20438
hh	20435
oll	20434
Ġ86	20434
Ġcleaning	20426
aved	20425
Ġpeptide	20423
Ġtheories	20421
aking	20418
Ġmedication	20418
ĠLast	20411
Ġconverted	20407
rag	20405
methyl	20404
Ġboat	20404
rist	20401
Ġcolon	20397
Ġmeal	20396
Ġconsiderable	20396
[**	20394
Types	20393
elled	20392
mal	20382
mr	20377
Ġhom	20375
Ġ++	20367
who	20366
DNA	20358
anger	20355
Ġavailability	20355
Ġnorm	20354
security	20351
nds	20350
ICE	20348
person	20347
ete	20345
Ġdispute	20343
textrm	20339
ight	20339
dagger	20337
Put	20335
Ġrobust	20332
wal	20328
MAX	20328
Ġphot	20328
Ġpowder	20327
CV	20325
nit	20316
ĊĊĊĊĊ	20315
Ġresolved	20313
Ġ\"	20312
Step	20309
135	20307
1998	20306
Ġshoot	20306
Ġfault	20306
Ġviewed	20300
.]	20298
uf	20297
ĠCP	20291
ĠNov	20287
ÂĹ	20286
Ġmaintaining	20285
rap	20278
ĠLight	20276
Str	20273
Http	20273
ĠFood	20271
Ġrural	20270
ulator	20268
Port	20266
Ġpushed	20266
cking	20265
underline	20260
Ġpersonally	20257
Dir	20245
iro	20240
ĠBio	20238
Ġprevention	20236
zero	20230
ĠCommunity	20226
zone	20224
Ġcompletion	20224
Ġneur	20223
Ġentries	20222
ule	20216
oration	20216
Ġgay	20215
Listener	20213
Ġstrings	20213
`,	20209
Ġconvicted	20203
ounding	20201
Ġfore	20201
green	20197
Ġappreciate	20195
Ġadvantages	20195
asts	20192
ĠAss	20192
erated	20189
Sa	20181
Ġguarantee	20180
Ġmirror	20179
ĠSouthern	20178
pack	20175
ct	20175
elli	20173
olds	20171
Ġ((-	20171
rid	20170
017	20169
Main	20168
rons	20167
ĠOfficer	20167
Ġbarrier	20165
ĠBack	20160
ĠPakistan	20155
Ġfired	20152
\>	20149
Ġking	20149
018	20148
oked	20146
Device	20145
token	20140
ĠNY	20138
ĠStr	20137
owed	20136
olt	20136
Ġdiscussions	20135
Ġsequencing	20133
Ġonset	20121
chen	20117
Ġscattering	20117
wedge	20115
'}	20114
Ġ-----------	20109
Def	20100
Ġphenomenon	20097
Ġ-----	20093
rain	20092
Ġmed	20089
Ġteach	20088
Ġmini	20087
phone	20084
ĠFa	20083
Ġfiling	20081
oper	20080
Ġownership	20079
bes	20068
Ġexclusive	20067
Ġ(âĢľ	20066
Ġregularly	20063
>.	20062
pad	20061
WS	20060
Template	20057
Ġag	20051
iers	20047
?'	20047
sem	20046
Ġcompeting	20042
ĠCEO	20040
Ġoperated	20024
Ġsong	20018
Ġcolour	20016
Ġcream	20013
Ġatmosphere	20013
container	20006
280	20004
Ġattend	20001
Ġsystematic	20000
ĠWITHOUT	19996
Unit	19993
sg	19991
Ġsem	19989
*]{},	19988
Ġcomprising	19987
unts	19986
stein	19983
Ġquantitative	19980
VA	19977
Bo	19975
Ġdress	19975
van	19974
eed	19973
lad	19972
NT	19972
equal	19963
aze	19960
Ġcenters	19958
unsigned	19952
obs	19952
126	19952
Ġthinks	19951
iled	19949
Ġverify	19949
ĠSw	19946
rio	19945
ĠCentre	19936
hel	19930
Ġrice	19929
Ġentering	19927
Ġblind	19925
{{{\	19923
Ġfinger	19920
tie	19909
Ġpour	19902
apped	19898
cmd	19892
Ġhorizontal	19890
VC	19889
ĠLine	19886
vt	19878
bal	19875
Ġworker	19874
vol	19873
face	19872
Ġsustained	19867
kar	19859
Ġgovernments	19859
Ġsatisfies	19856
Ġaccumulation	19855
Ġfalling	19854
ĠOld	19850
ĠĠĊĠĠĠ	19849
ili	19842
Ġcaptured	19840
ylation	19838
Ġmild	19836
ĠSpanish	19831
VF	19830
Ġtomorrow	19830
ĠForm	19830
loop	19828
aws	19828
Tool	19826
pool	19825
Gu	19807
Ġreaching	19801
Ġnamespace	19800
Ġexpanded	19795
DER	19793
Ġdemands	19792
Ġinterventions	19790
DH	19788
ĠHenry	19787
ches	19786
orr	19785
PK	19785
arin	19783
hard	19782
Ġprofessor	19782
Ġremoving	19777
Ġ>>	19775
Ġdismissed	19773
night	19772
113	19771
Ġcolleagues	19771
Ġcrew	19767
desc	19764
Ġ----------	19760
Ġrecommendations	19759
mut	19749
iser	19742
121	19742
uting	19733
hom	19732
cted	19732
Ġdegradation	19727
black	19725
Ġqualified	19725
gate	19724
Ġpump	19722
subseteq	19720
Ġnervous	19720
Utils	19715
192	19710
Ġportions	19710
elo	19708
Container	19708
ĠRock	19706
âĢĭ	19703
Ġfalls	19702
Ġproud	19700
Ġincorporated	19699
ĠÂ°	19695
ĠStandard	19695
Ġbundle	19694
ND	19692
Par	19690
ader	19689
Ġcoding	19682
Ġpsychological	19676
ĠWhether	19674
ĠServer	19674
Collect	19670
Ġ01	19668
ĊĉĠĠĠ	19661
.(	19660
comment	19656
825	19656
ĠCC	19656
Ġworldwide	19654
**.	19651
oil	19646
Â	19640
eff	19640
support	19638
Fi	19637
ĠFrancisco	19637
\.	19634
Ġkidney	19633
ĠJersey	19633
Ġpi	19630
Ġmasses	19630
Ġdestination	19629
Ġrose	19628
Ġgradient	19622
ĠItalian	19620
Rect	19619
ĠDaniel	19618
Ġstations	19615
High	19607
Ġadministered	19604
_{(	19597
Ġ1989	19596
------------	19595
ju	19593
AU	19583
Ġassays	19582
Ġsizeof	19576
ĠDefendants	19573
ĠMat	19561
Ap	19558
TX	19555
Ġscales	19555
Cache	19553
cit	19552
Ã¨	19537
Ġseparately	19536
Ġancient	19536
ĠWin	19533
Ġ--------	19532
Ġinterference	19531
}}}$	19530
Ġeggs	19525
ĠApache	19523
PF	19520
tle	19518
Ġreaders	19517
ĠMu	19516
^)	19515
Bs	19515
lar	19514
screen	19512
048	19512
}$$\	19511
cross	19508
ĠWi	19508
}}$.	19506
ologist	19506
Ġdecreases	19506
igs	19495
.),	19489
ĠNFL	19487
roid	19484
stack	19483
xs	19480
220	19480
Ġphysics	19476
Ġintervals	19462
HT	19461
Ġvotes	19458
ĠIR	19457
sort	19455
Ġmounted	19454
Ġfaced	19454
Ġfriendly	19451
Ġbowl	19451
edi	19449
Ġinfinite	19446
Ġegg	19445
Vs	19435
ailed	19431
mil	19425
Edit	19423
Ġstuck	19422
Ġspan	19413
Ġcovers	19410
Ġtargeting	19406
ign	19404
Ġaddresses	19402
-------	19400
ĠSH	19400
Ġkit	19399
associated	19392
aste	19391
,\,	19391
anti	19389
Ġfolks	19385
arts	19378
lb	19377
Ġ1988	19376
čĊĠĠĠĠ	19376
aver	19375
PER	19372
Ġinterior	19372
Ġhi	19372
fit	19371
ails	19371
ifier	19366
osp	19362
fu	19357
Ġprofessionals	19351
tings	19348
ĠAsian	19347
ager	19346
Ġoffensive	19342
ĠGeorgia	19342
Ġcreative	19332
Ġstone	19325
reference	19321
ometer	19321
ĠLett	19318
Ġri	19315
emon	19314
ĠConference	19314
here	19313
uni	19312
formed	19312
ĠMass	19312
Ġroots	19311
Ġvariants	19309
usion	19306
binding	19306
Ġpromoter	19306
AH	19302
adi	19298
Ġsal	19291
Ġvacuum	19285
linear	19283
PV	19283
ĠShow	19274
Settings	19272
SELECT	19272
Ġappointed	19270
ubs	19269
Ġappeals	19268
Ġrising	19267
:=	19266
Ġanalyze	19264
aki	19263
Ag	19260
Ġax	19253
Ġtoxic	19252
hour	19251
Ġflexible	19250
Ġconstitute	19250
Ġhonest	19249
Ġheavily	19248
ĠStudies	19243
setminus	19239
mis	19238
ĠSA	19235
Store	19234
Ġdrawing	19234
Ġpasses	19233
Ġexpressions	19232
vc	19229
ĠTaylor	19229
Ġprotective	19225
Ġlikelihood	19222
Ġinform	19219
Ġconsecutive	19216
Ġcor	19215
Ġseverity	19214
Ġreflected	19214
ĠMed	19212
leg	19209
Ġexpectations	19209
ĠPS	19209
Ġbind	19208
Ġvol	19207
ition	19205
Ġhousehold	19205
antly	19202
itable	19199
utable	19197
Ġinsufficient	19196
plus	19193
ĠWall	19189
own	19184
Ġbeach	19183
Ġcheese	19180
ĠMain	19177
command	19172
Na	19172
ĠPE	19171
Ġ------------	19170
Ġarg	19168
OX	19161
946	19160
Ġalignment	19160
ĊĊĉĉĉ	19150
uer	19145
Ġratios	19143
Ġlimitation	19142
iva	19138
Ġmovements	19136
Ġsolely	19134
nx	19133
Ġsoldiers	19127
Ġyeah	19124
Ġsimilarly	19124
Ġmal	19120
enable	19119
Ġ-------------	19116
012	19113
Ġadvertising	19113
global	19111
Ġrelating	19109
Ġconstantly	19107
ĠRoyal	19102
second	19100
images	19099
Ġba	19095
0005	19093
Ġbike	19093
hen	19092
ately	19092
170	19091
Ġhospitals	19086
Ġseeds	19085
ven	19081
Ġbands	19081
Ġenzymes	19076
Ġwet	19074
phase	19069
+(	19068
Ġrain	19068
channel	19065
Ġbeauty	19063
lier	19062
147	19062
Te	19058
Ġfoundation	19058
Ġawarded	19057
ĠLA	19056
eria	19055
Ġanswered	19052
bert	19050
ĠPatients	19047
Ġadmit	19046
uel	19043
inv	19043
ibly	19043
Ġrestrictions	19040
omic	19038
Ġcoordinate	19037
Ġpackages	19032
uid	19029
member	19027
cam	19027
Ġengineering	19027
ented	19024
Ġsees	19024
cn	19022
itive	19018
ĠRob	19018
ĠTotal	19017
Ġsubjected	19011
aving	19008
hn	19007
Ġjudicial	19006
ĠAndroid	19005
insert	19004
posed	19001
Ġmanual	19000
Ġmeetings	18999
Ġinv	18995
ĠIF	18994
EG	18992
ĠAcademy	18991
Ġti	18987
May	18985
Ġabsent	18985
Ġcomprises	18983
ĠNorthern	18979
Ġsupplied	18978
Ġorth	18974
ĠCase	18968
ãĢģ	18965
window	18961
join	18960
short	18958
lee	18958
Ġbeneficial	18952
åı	18949
Ġprotest	18945
Ġhoping	18944
Ġvarying	18943
arrow	18935
ogen	18933
Ġvaccine	18933
Ġprojection	18933
Ns	18925
Ġvice	18923
Ġproceed	18917
forms	18913
ĠPan	18912
}'	18911
mag	18911
Ġ"$	18906
cz	18905
Ġquasi	18902
Ġproceeding	18902
Ġgel	18901
ĠJoseph	18900
PRO	18898
Grid	18898
oning	18897
)^{-	18897
req	18896
ijerph	18896
ories	18894
Ġexecute	18894
\_[	18893
Ġenjoyed	18892
ĠPennsylvania	18892
Ġnations	18891
atin	18887
Ġpixel	18887
ĠThough	18887
"))	18886
Ġimmunity	18883
Ġimplications	18882
Ġphysician	18877
---------	18876
ĠEX	18874
Sort	18873
news	18867
Ġaccessible	18867
izable	18863
URE	18860
Ġvalidation	18855
Vector	18853
Ġchecks	18850
application	18849
}}$,	18848
ĠPlaintiffs	18845
Ġglad	18843
igh	18840
actions	18840
hep	18835
Ġlayout	18835
======	18831
Ġ102	18830
ocyte	18826
cv	18826
Ġcarcinoma	18825
Ġserial	18819
ĠMel	18819
Ġpilot	18818
Ġdismiss	18808
Ġacquisition	18803
Ġages	18800
Ġintention	18798
Ġpartition	18795
Ġantigen	18795
ĠLouis	18795
ape	18791
install	18789
aven	18786
NF	18785
ĠOs	18783
Ġdb	18782
Ġsmoke	18780
Ġ$-	18779
Ġgod	18777
Ġtemporal	18775
ĠIslamic	18769
rx	18767
kk	18767
Case	18766
114	18766
Ø	18763
Ġhorse	18761
Ġclothes	18761
ĠKim	18761
Ġwa	18760
mean	18757
IVE	18752
FB	18745
Ġalter	18744
Ġchart	18743
Ġlaid	18741
iant	18739
âĢħ	18729
Ġcalcium	18725
Ġ"/	18722
access	18715
pat	18708
Access	18706
Ġabundance	18700
Ġsauce	18698
Ġbonds	18698
Ġdefines	18696
ĠSea	18696
+^	18690
Ġfeeding	18688
enc	18685
ĠFBI	18683
TB	18682
cells	18678
145	18677
Ġheating	18677
Order	18674
ĠMax	18673
}}}\	18666
connect	18663
----------	18662
wer	18661
Ġadapt	18661
Ġfusion	18659
ving	18656
FD	18655
ĠCL	18649
gent	18648
OW	18645
Ġcorporation	18641
.[]{	18638
Ġhide	18637
Ġartery	18634
ait	18629
erson	18626
ĠBeach	18626
Ġva	18623
omas	18621
129	18621
Ġâī¥	18619
vid	18615
Ġvitamin	18615
Ġpack	18614
ody	18608
imm	18606
Ġdestroyed	18606
Ġspecify	18604
Ġranging	18602
ĠVer	18597
190	18595
ĠLinux	18590
fun	18588
connection	18588
020	18585
Ġinstallation	18584
sid	18580
Ġimmigration	18579
ĠHas	18578
aga	18575
Dialog	18567
Ġbread	18565
Ġassignment	18565
plot	18559
Ġshit	18557
'(	18555
ĠIndex	18555
Ġ104	18555
oir	18554
ĠAN	18552
Ġdesirable	18551
Ġautomatic	18546
Ġdevelopers	18543
ĠMO	18542
ĠFollowing	18542
resses	18540
Ind	18535
Session	18533
118	18528
Å	18519
]{.	18516
standing	18515
Ġbroadcast	18512
ailing	18505
FILE	18502
Ġerred	18499
etc	18496
Ġpadding	18493
Ext	18492
-------------	18492
Ġarmed	18492
122	18491
âĢ	18490
Ġunusual	18488
Ġinsight	18486
ached	18484
Ġaltered	18483
Ġ\;	18483
bas	18478
ĠUV	18477
Ġacceptable	18474
>"	18473
ĠNevertheless	18473
Ġeffectiveness	18471
Ġhist	18470
Ġbreach	18467
osing	18465
Ġeligible	18465
ĠGal	18465
press	18459
Ġearned	18459
ĠAdministration	18455
cas	18454
Ġpreliminary	18452
Ġsad	18448
Three	18445
Ġmat	18442
astic	18441
ĠâĢ¢	18437
0003	18436
Ġstruck	18434
ĠRyan	18432
Ġconsistently	18431
ĠPi	18431
Ġinteract	18427
Ġwake	18426
ĠWal	18425
sig	18420
operative	18419
ĠMP	18415
ĠTHIS	18414
ounded	18413
Ġcomm	18412
figure	18411
Ġsessions	18406
Ġoccurrence	18403
Menu	18401
icing	18395
Interface	18393
Ġvisited	18393
Ġmatrices	18393
ĠLtd	18389
Ġvoting	18387
Ġinline	18386
ĠWT	18386
čĊĉĉĉĉ	18386
Look	18384
Ġunclear	18383
itter	18382
ady	18382
Si	18382
è¯	18380
pet	18380
025	18378
Ġguidance	18378
}}(\	18374
ĠTake	18374
amb	18373
""	18368
KEY	18367
Ġskill	18367
ente	18363
$]{}	18362
ĠPatent	18359
Ġfacilitate	18356
rig	18355
dk	18352
Ġatom	18352
ĠPython	18352
İ	18351
ĠMet	18350
Ġnormalized	18348
MF	18344
rator	18340
Ġperceived	18339
ships	18333
Ġsmile	18333
ental	18331
Ġpacket	18331
Ġind	18330
Ġtracking	18329
ĠVal	18328
sq	18327
atching	18327
Ġmolecule	18327
Ġending	18327
\|_{	18326
Ġeverybody	18325
gging	18322
sex	18320
Mon	18319
ota	18318
Ġarrangement	18316
component	18315
132	18314
Ġsand	18312
rep	18310
Ġtank	18308
ĠPlay	18308
!)	18306
Ġtemp	18304
Widget	18302
aus	18299
GET	18297
Ġspiritual	18296
BU	18294
}.$$	18291
Ġlights	18288
idity	18282
Ġangular	18278
utils	18276
nut	18274
oting	18270
0004	18270
bers	18268
ĠCS	18267
Ġkm	18265
uy	18263
ĠPoint	18260
rial	18258
amo	18256
Ġshopping	18251
Ġliberal	18251
ĠColorado	18251
cle	18250
Ġhadn	18250
Ġhonor	18244
Ġidentifying	18235
ĠRu	18235
350	18233
Ġcomplexes	18232
Ġluck	18226
Ġrarely	18222
Ġease	18221
negative	18220
Ġrandomly	18219
olic	18216
bn	18215
Ġtreating	18215
Ġruled	18213
Ġbelong	18207
Ġattended	18206
rah	18204
interface	18201
ĠSl	18197
"));	18196
Ġpromising	18196
ĠPL	18187
kh	18185
Ġchildhood	18184
Ġprecision	18182
save	18180
ĠBre	18180
Ġshorter	18178
Ġpoliticians	18177
Ġdesigns	18177
Ġvital	18175
raction	18174
than	18172
away	18167
Ġ\#	18167
Ġaging	18165
ĠSteve	18165
HO	18164
Ġinstitution	18163
wt	18162
Ġexport	18162
ĠJews	18161
ĠUnfortunately	18160
Ġviolent	18157
ĠIreland	18157
--------------	18154
349	18153
ĠArizona	18152
Ho	18148
Ġintegrity	18148
flags	18147
1996	18144
Ġtransportation	18142
Ġultimate	18128
Ġtips	18128
help	18124
Ġchip	18124
Ġchemotherapy	18122
fp	18119
Ġpointer	18118
ĠLan	18117
onia	18115
kan	18111
Ġwashed	18111
Ġbunch	18110
Ġclause	18107
Ġ$[	18104
Ġsole	18102
ĠTim	18102
Ġdeeply	18100
Ġtape	18098
Ġoxide	18098
Ġ+/-	18098
Ġpregnant	18097
Ġlifetime	18096
Ġbirds	18096
Ġ--------------	18096
}}_{\	18090
Ġsentencing	18090
Po	18089
ĠOct	18085
Ġ['	18084
Ġ180	18084
SY	18082
Ġcollective	18078
Ġsteady	18076
Ġ600	18076
Ġrent	18075
Ġconcepts	18075
Ġhybrid	18073
Ġharder	18062
names	18059
ille	18055
multi	18052
ĠJSON	18051
ples	18050
Ġabstract	18042
atch	18041
Ġspec	18040
ĠMedicine	18039
ĠFour	18037
quality	18035
Ġeverywhere	18030
Ġbid	18030
AO	18029
Ġsurvive	18024
Ġ109	18020
}})	18019
Ġforever	18014
Ġresidues	18013
ĠBel	18008
oom	18006
ĠGar	18006
ĠFamily	18006
Ġlabels	18005
sun	18004
HL	18002
ĠAge	17999
Ġjson	17996
Ġamended	17996
icks	17992
shift	17990
-----------	17990
rates	17986
Ġallegedly	17984
ival	17976
Ġ=\	17976
scope	17975
Body	17961
language	17959
Expression	17951
Ġphases	17951
ĠNC	17951
Ġ----	17951
eness	17949
Ġdisabled	17949
nat	17945
Ġmountain	17941
Ġmono	17941
ante	17937
iest	17935
NR	17933
hspace	17929
Have	17929
Ġ128	17929
Ġpepper	17926
ĠMaster	17926
Ġfunny	17920
aq	17915
Ġ1983	17914
Ġdoctrine	17909
ĠCy	17903
Ġcrash	17902
Ġnewspaper	17900
chr	17894
ĠAlex	17894
ĠBob	17892
analysis	17890
Ġcampus	17890
Ġcomputing	17889
Ġinc	17887
Hello	17885
ĠGO	17882
Background	17881
eva	17880
Ġpaint	17880
Fl	17873
Font	17872
fields	17868
Ġcurrency	17868
Ġfabric	17867
ect	17864
1997	17862
205	17860
Su	17859
SK	17858
otype	17857
Ġhang	17852
KS	17847
Ġmonthly	17846
MOESM	17844
ĠSeries	17842
Ġdoors	17836
Ġsymmetric	17835
rent	17833
Ġpas	17833
Ġutilized	17830
ĠSeveral	17830
Ġrepeatedly	17828
sample	17827
rez	17826
fil	17823
nos	17814
Ġflavor	17811
iller	17810
[*	17808
136	17804
Ġsol	17804
pn	17803
ĠAbout	17799
urt	17792
ulating	17789
753	17788
Ġwrites	17787
oor	17785
pper	17782
Ġaccompanied	17782
Ġearn	17781
Ġmixing	17780
rÃ©	17779
Ġenemy	17778
Ġdiscover	17773
temp	17770
}}}_	17769
Ġexhibited	17768
Ġbankruptcy	17768
ĠWh	17765
ologically	17764
Ġ('	17764
Ġqui	17763
hor	17761
Ġtens	17760
Ġpatch	17759
REG	17754
fix	17752
Ġadopt	17752
Ġviolated	17751
Ġarranged	17748
Ġreporter	17747
Ġlying	17746
Ġjoy	17743
most	17739
cases	17736
nom	17735
sam	17731
ced	17729
roll	17727
SON	17724
queue	17723
Ġmitochondrial	17723
ANT	17720
Ġpulmonary	17716
Ð²	17714
Ġvessel	17711
dem	17709
Ġenvironments	17709
Ġchecking	17709
Ġ106	17709
rule	17703
ashing	17703
ĠCancer	17703
pres	17701
lessly	17697
Ġresidence	17695
Ġmere	17692
Ġsurveillance	17688
AIN	17684
ĠHistory	17679
Run	17678
ĠMatt	17677
aba	17674
Ġoccurring	17670
[(	17667
itor	17664
`.	17664
tech	17656
dw	17651
Ġreveals	17651
Ġlanguages	17644
Ġscalar	17643
ĠSpain	17642
rim	17641
Ġtopics	17632
Ġstudying	17632
draw	17631
tail	17630
train	17622
rn	17621
ĠLand	17621
Ġphilosophy	17620
.*]{}	17619
Ġdisagree	17619
240	17616
Ġsport	17614
Ġvoted	17613
Ġreadily	17613
OA	17612
ĠEs	17611
ART	17607
Ġpipe	17607
Ġdeclined	17605
Ġ105	17601
Ġrecovered	17596
perp	17594
Ġperception	17591
ronic	17590
ÎĶ	17584
čĊĠĠ	17583
ulations	17582
Ġsupporters	17582
Ġrough	17580
Ġbre	17576
oul	17575
gene	17575
ĠRep	17567
ĠBal	17567
odo	17566
Ġ(@	17565
-,	17564
Ġreversed	17558
ĠBC	17555
LU	17553
sv	17551
ĠLove	17550
Ġpanels	17548
Ġ1986	17544
ishes	17540
Ġderivatives	17540
Identifier	17539
ĠKingdom	17538
SG	17532
ĠAgain	17532
Ġparse	17529
nia	17525
ault	17524
Ġpseudo	17520
forming	17518
clear	17517
earing	17516
Ġlegislative	17516
Ġunlike	17513
Ġdefects	17513
Ġdoses	17512
oted	17510
acks	17509
Ġinterpreted	17508
Ġembedded	17508
ĠIslam	17508
ems	17507
Ġbottle	17506
iced	17502
Ġprote	17501
.).	17499
Ġtroops	17498
Ġtransactions	17498
ĠJe	17497
ĠAu	17497
Ġarc	17495
users	17492
esting	17491
Ġrear	17486
|-	17484
({{\	17483
ounds	17481
Ġcorrelations	17481
overs	17479
212	17476
BF	17469
Ġstellar	17469
sson	17467
NER	17467
rea	17464
Ġputs	17459
Ġblow	17457
fers	17454
tom	17447
Ġsouthern	17444
ĠPath	17444
Ġliked	17443
ĠEastern	17442
opes	17441
Integer	17436
dar	17435
Ġknee	17431
Ġcholesterol	17428
]}	17422
ĠMethods	17422
Collection	17420
Ġpur	17420
*~*	17418
ĠÂĹ	17418
Ġalt	17418
pop	17415
sty	17413
ĠDan	17407
Ġfibers	17404
ĠStudy	17403
Ġ<!--	17398
ĠPI	17396
Ġduties	17394
Ġprinted	17393
dest	17387
Ġsystemic	17382
Sch	17379
Has	17377
čĊčĊĠĠĠ	17374
kind	17373
ĠDue	17371
border	17365
Init	17364
JS	17362
Ġprominent	17361
Ġarise	17361
Ãª	17358
Ġlabeled	17357
pub	17354
031	17354
Ġrating	17354
random	17348
instance	17348
Ġcooling	17348
ologists	17346
eing	17344
Ġtranscript	17343
BT	17341
Ġauthorized	17338
202	17337
Ġprot	17336
Ġdiff	17336
Ġpropose	17333
ĠJim	17333
Exp	17331
014	17328
ĠSte	17322
ĠMap	17322
Ġactor	17317
orb	17314
Ġexpressing	17312
hem	17310
Windows	17308
.:	17308
ido	17307
Ġtone	17307
Ġ1987	17306
Ġinfluenced	17305
Ġillustrated	17302
ĠWARRANTIES	17297
Ġassociations	17296
ĊĊĠĠĠĠĠĠĠĠĠ	17296
Ġnorthern	17294
ĠChildren	17286
Ġcourses	17280
Ġgained	17275
category	17273
iam	17272
resource	17271
Her	17271
Ġprinting	17271
Ġfu	17270
Ġ["	17269
colon	17268
profile	17264
bra	17263
Ġexciting	17263
erg	17258
oop	17256
Ġje	17255
1995	17250
Ġraising	17249
ĠALL	17247
ĠPort	17245
ĠCall	17245
Ġpending	17243
iso	17239
ĠHan	17238
TN	17237
Ġattitude	17234
ĊĊĠĠĠĠĠĠĠĠ	17231
Ġdiscrete	17230
124	17228
edly	17226
Ġwheel	17225
rees	17217
Ġjail	17214
Ġloans	17212
Ġconnecting	17212
Ġsuicide	17209
Ġvalidity	17204
plugin	17203
Ġinspired	17202
ĠMiss	17202
Ġbet	17200
fast	17199
aux	17194
United	17191
Ġjet	17190
ĠTu	17183
Ð´	17180
ook	17175
tons	17170
Gr	17170
[$	17168
Ġstupid	17168
TEST	17164
Ġgalaxy	17164
Ġhall	17162
tv	17159
rw	17155
ĠImages	17155
Ġhopes	17149
SQL	17146
Ġsomebody	17145
Ġregistration	17143
Ġpitch	17143
Ġdefensive	17143
Ġgross	17141
Ġprosecution	17138
Ñı	17137
Ġignored	17137
Ġphenotype	17136
450	17130
ĠRoman	17129
Ġdiffusion	17127
Ġcontacts	17126
ĠPacific	17125
Ġreact	17124
177	17123
ĠSpring	17123
izz	17122
Ġawesome	17120
ĠJa	17119
GB	17117
ashes	17113
atives	17111
_,	17111
xf	17109
Ġresonance	17109
because	17106
131	17102
equ	17097
ĠWa	17097
Ġisolation	17096
KA	17095
\[[@	17092
sor	17090
ĠThird	17090
Ġguest	17087
Product	17085
Ġdenotes	17085
Ġtensor	17077
ĠPol	17072
Ġcardiovascular	17068
town	17066
Ġpreventing	17061
Ġphosphorylation	17059
175	17054
Ġcoli	17053
dam	17052
aco	17046
ĠWithout	17046
aris	17045
(){	17042
Ġequilibrium	17042
Ġmacro	17041
Ġdish	17040
Ġhtml	17036
ĠAgency	17036
198	17034
Ġtransmitted	17032
licenses	17027
Ġ(%)	17025
138	17023
arma	17022
Ġliterally	17022
Ġwound	17020
iler	17018
Param	17013
ĠZealand	17013
otes	17011
delete	17010
Reader	17010
ĠAnderson	17008
à®	17006
wp	17006
Ġexcessive	17003
ĠCON	17003
ĠAgreement	17002
Ġmes	17001
tex	16998
wait	16995
awn	16994
Ġprospective	16993
Ġdestroy	16991
Ġtension	16989
Ġpounds	16988
Ġembodiment	16988
Ġeliminate	16988
forall	16984
Ġinvariant	16984
mask	16979
ĠÂ¶	16975
Ġfactory	16975
Ġedit	16975
ĠBer	16972
cus	16970
ĠBan	16968
ĠÑģ	16965
Ġswitching	16960
050	16955
oplus	16954
Ø±	16953
Ġgenuine	16953
onate	16952
Ġpublicly	16950
gas	16949
ĠJu	16946
Ġgravity	16944
Ġovernight	16936
ride	16934
hol	16934
Convert	16934
Author	16932
999	16932
ĠSy	16928
Show	16924
ĠVi	16924
Ġdysfunction	16922
javascript	16921
good	16921
being	16919
Ġelectricity	16916
Each	16908
Ġregulated	16908
Ġworried	16907
Ġtonight	16902
Ġphysically	16902
Ġobesity	16902
\{\	16901
loss	16894
tg	16893
Ġamendment	16892
Ġcombine	16890
$:	16889
ĠDid	16887
ĠLog	16886
Ġdifficulties	16885
133	16884
Ġdestruction	16873
Ġdelayed	16873
Ġboxes	16872
Ġspecificity	16871
Ġattractive	16871
hold	16869
Ġextrem	16869
Ġflour	16866
ĠTi	16863
ĠMod	16863
022	16862
Ġdenial	16860
ety	16859
_>	16859
Ġassumptions	16857
144	16856
Null	16854
Ġforest	16851
Ġepisodes	16850
Ġstorm	16848
Load	16845
Ġlift	16844
ĠSU	16844
erry	16837
Ġblame	16837
Params	16833
ĠKu	16829
Ġfounded	16828
Ġpoverty	16827
Ġevident	16826
155	16825
ĠGames	16823
oot	16820
Ge	16816
ĠConsequently	16812
Ġsearching	16807
Ġattributed	16803
Ġicon	16799
yd	16793
ĠArab	16792
Ġelect	16781
iological	16780
Ġhardly	16779
Host	16778
Ġwireless	16778
ĠDist	16776
Record	16775
nol	16772
toString	16771
erable	16770
013	16768
Ð·	16766
energy	16765
Ġdisplays	16764
Ġ103	16764
inte	16759
ĠBitcoin	16758
_{-	16755
enta	16753
165	16752
Ġdy	16751
iac	16748
Ġsir	16748
Ġblocked	16748
nic	16747
alls	16744
ĠHave	16744
Ġabortion	16742
zen	16740
atively	16740
ĠComp	16736
para	16731
edge	16731
Dec	16730
Ġweird	16730
Ġcoast	16730
ĠIowa	16725
Ġhits	16724
ĠDel	16724
;">	16721
ĠPres	16721
Ġfoo	16718
PB	16716
grid	16715
ĠWITH	16715
Ġflags	16712
iq	16711
License	16708
204	16707
ĠPerhaps	16707
ĠDM	16703
039	16702
-$	16702
ĠHam	16700
Ġpace	16698
Ġcompatible	16698
Ġbeliefs	16695
Ġadjust	16693
ĠInd	16690
meth	16689
iders	16675
ILL	16673
Ġoven	16671
Ġmagic	16670
take	16669
++;	16669
lated	16668
rical	16667
Ġpermissions	16667
aine	16665
orp	16664
ĠÐ²	16660
aches	16659
cel	16658
Ġtract	16658
030	16657
Ġdad	16657
Ġexc	16656
Ġpartnership	16655
inos	16644
ĠOl	16644
Ġenables	16643
Ġvisits	16642
Ġobtaining	16638
016	16635
Ġaffecting	16635
Ġ1985	16635
Abstract	16631
ĠTown	16630
also	16627
Ġinverse	16627
cker	16623
bid	16622
Ġgenerator	16622
Ġdefend	16619
ĠTer	16617
lder	16615
backs	16615
áĥ	16614
Ġgotten	16613
Maybe	16611
idx	16604
Ġ{@	16604
ĠPet	16601
eV	16598
mass	16594
ĠBell	16594
Values	16593
asc	16592
Additional	16592
area	16589
Ġ108	16589
$^{-	16583
Ġdifferently	16583
modules	16580
UV	16580
Ġtill	16580
ĠFA	16576
LV	16571
ĠSpecifically	16571
Ġtradition	16569
Ġweights	16566
Ġmaximal	16563
Ġdescribing	16562
apping	16561
Us	16560
abe	16558
Ġbehaviors	16558
human	16556
omat	16553
agg	16553
Ġms	16553
ĠHead	16551
ift	16547
Ġreflects	16547
Ġguns	16545
Ġfits	16545
Ġ130	16545
Ġacknowledge	16543
python	16541
Items	16541
ĠGi	16536
Ġcontra	16532
stra	16526
Ġpsych	16524
topic	16523
Ġfunctionality	16522
Ġdemocracy	16522
Ġasks	16522
alg	16521
court	16519
Ġdoc	16514
Ġbearing	16514
Ġfilling	16512
Ġcry	16512
Ġbatch	16512
Ġdesignated	16511
Ġdeals	16511
Free	16507
Ġcommands	16506
Ġcrack	16503
rier	16501
Ġcallback	16501
Ġdys	16500
ception	16499
alis	16499
uo	16497
'-	16492
Ġunderwent	16492
UM	16491
seq	16489
ĠMinistry	16485
ĠTax	16484
ĠAdditional	16483
Ġclinic	16482
Ġpredictions	16480
Ġpolynomial	16479
Ġtrends	16478
Ġinvestigations	16478
[-	16473
Ġequality	16472
Ġselective	16471
Ġagenda	16470
Ġinterviews	16469
LB	16468
pg	16467
Ã©e	16460
olin	16459
illi	16448
ION	16446
hd	16445
ONE	16444
party	16443
ĠJordan	16443
made	16441
'>	16441
ĠAng	16441
Ġdem	16440
ĠKi	16439
pal	16437
ĠRather	16436
SCs	16435
Down	16435
eron	16434
)}{\	16434
ulin	16433
hing	16432
Ġpolar	16429
Today	16424
Ġtexture	16421
Ġshoes	16421
Red	16420
MAN	16419
Ġbreaks	16411
itated	16410
Ġprogramme	16404
Ġprogressive	16403
Operation	16398
Ġhero	16398
eme	16397
iana	16395
Ġsegments	16393
512	16390
ĠFalse	16388
Ġxe	16386
Ġpython	16386
inating	16385
raf	16383
Ġune	16381
itors	16376
Ġpm	16375
ĠArray	16374
Ġlistening	16373
Ġ125	16371
ables	16364
Ġscr	16364
Ġweekly	16360
Ġfitness	16357
GI	16352
Ġgear	16352
orts	16348
ĠBase	16342
1994	16340
Ġdetector	16336
Ġfarmers	16334
dos	16330
Ġcombat	16330
sters	16326
âĢ¯	16325
ril	16324
Ġconspiracy	16324
Ġxmlns	16321
ĠMag	16320
ĠTitle	16317
Ġacc	16315
ĠDesign	16311
Ñģ	16310
Ġconsciousness	16309
037	16308
Ġfocusing	16307
gged	16304
while	16302
Ġhypertension	16302
spect	16301
Ġboundaries	16299
Ġinserted	16298
Ġsynthetic	16297
ĠNE	16296
ĠChar	16291
ĠMethod	16287
Ġretain	16285
ĠVa	16280
ĠGC	16280
iti	16276
Handle	16275
137	16274
Ġintellectual	16271
lands	16270
ĠEC	16270
148	16269
Ġattempting	16268
translation	16267
ĠSciences	16265
plan	16263
ĠStill	16262
hou	16259
\|\	16257
038	16257
risk	16254
1993	16252
Ġvariant	16252
anna	16247
---------------	16247
Ġangry	16246
ĠĊĠĠĠĠĠ	16245
NY	16244
Ġvertices	16244
ĠLow	16241
uro	16238
)_{	16232
036	16231
Ã§	16229
Ġfavorable	16229
your	16226
derived	16226
eric	16218
Ġcomputers	16218
.\[[@	16217
Ġindices	16214
exec	16213
Ġadapted	16207
Ġconfident	16203
BG	16202
Ġ1984	16197
Ġrendered	16196
Ġintracellular	16192
Ġapps	16192
Ġregulate	16190
Ġphysicians	16188
Ġvaried	16180
Ġkick	16176
?)	16175
Ġfitting	16175
ĠSanta	16173
ĠPhil	16169
$;	16165
Ġchocolate	16163
Ġfatty	16162
ĠSen	16156
Ġ***	16155
Ġcombinations	16153
Ġaims	16153
HP	16152
Ġdeeper	16151
rect	16150
teen	16149
register	16149
Ġconvenient	16149
ogram	16145
iral	16145
release	16144
Ġ\|	16144
ĠGreek	16144
chain	16143
Ġterrible	16143
Ġedition	16143
Ġreflection	16141
ĠBrazil	16141
Var	16138
aced	16136
ĠSpirit	16134
ĠFord	16134
Flags	16130
Ġsettled	16129
Ġburn	16129
tn	16120
Ġfunded	16117
Ġfragment	16115
*\	16113
AST	16110
Ġnegligence	16110
ĠCount	16110
ener	16108
../../../	16106
Ġrestaurants	16103
Ġ$.	16103
yg	16100
Despite	16100
Child	16100
$).	16099
Ġintense	16098
âĢ²-	16096
Ġpeaks	16094
ĠES	16093
Ġdates	16092
)}(	16091
ication	16090
actic	16089
Ġsuspension	16089
Ġrail	16089
sign	16088
Ġdefect	16088
Ġmatched	16085
Ġlimiting	16084
password	16082
ĠAward	16081
-{\	16079
Ġretirement	16076
Ġdisclosure	16076
041	16075
ĠColumbia	16075
()->	16074
Callback	16072
Ġcollapse	16072
Ġjuice	16070
lov	16065
gor	16065
Ġquantities	16065
Ġepithelial	16065
pling	16062
Ġmagazine	16060
gc	16056
Process	16055
Return	16052
cot	16051
ĠMad	16051
iah	16050
rium	16049
nil	16049
works	16048
ĠMC	16048
Ġpeer	16044
Ġscoring	16043
Ġsucceed	16040
Ġtransparent	16038
ĠCPU	16034
ĠAuto	16034
ĠRec	16033
yu	16030
Ġconsensus	16028
ause	16026
ĠÐ¿	16026
simeq	16019
ello	16014
Ġbreakfast	16011
Star	16008
alm	16007
ACK	16005
Ġpat	16005
mus	16004
nutrients	16002
ago	16001
Bytes	15997
Ġchoosing	15997
Ġslight	15992
Ġmortgage	15989
jective	15985
Ġvulnerable	15985
Ġfingers	15985
Ġscaling	15981
Ġsatisfying	15980
ĠSur	15980
atter	15979
Global	15979
Ġlawsuit	15979
Ġmanually	15974
Ġchains	15971
uli	15968
Ġpreferably	15967
Ġdamaged	15965
ĠSir	15964
ĠBook	15963
Ġcoal	15962
Ġdans	15961
tol	15960
round	15960
Ġdollar	15960
Ġink	15959
eli	15954
Ð¿	15952
Ġretail	15951
Ġstrictly	15942
terminal	15941
Ġrepresentations	15939
040	15938
Ġlikes	15938
Ġ"<	15936
ĠPur	15934
OE	15932
Ġphysiological	15927
Ġcraft	15927
Ġholiday	15925
ania	15921
ĠLittle	15921
four	15917
Ġdeveloper	15913
ĠProfessor	15911
ĠHol	15911
Ġsupplies	15910
ĠAccess	15910
GM	15909
ention	15907
Ġlateral	15905
Ġtw	15903
ĠCommonwealth	15903
Ġwondering	15902
Ġ+\	15896
bibr	15890
Har	15890
bind	15889
Ġquote	15884
region	15881
1990	15880
Ġshots	15880
ĠPBS	15880
NG	15878
sheet	15876
mel	15876
Ġisolates	15876
216	15872
ĠHD	15871
ĠFair	15871
Ġtolerance	15870
Ġnucle	15870
anes	15869
Ġbounds	15869
ĠPlace	15869
âĢĻ.	15867
isc	15867
Ġtrauma	15865
margin	15864
mons	15862
OU	15852
Ġ"#	15852
Ġconstitution	15851
items	15849
uing	15848
Ġpushing	15842
320	15840
Mc	15839
ult	15838
Ġaggressive	15837
Panel	15836
eval	15835
cia	15832
people	15831
Ġvisitors	15828
,[	15826
Ġions	15826
Ġtech	15825
Ġentities	15825
ĠStat	15824
regulated	15822
chy	15819
CODE	15819
nam	15818
Ġtied	15814
Ġassistant	15812
uno	15809
ĠParliament	15809
ree	15808
Ġobjection	15803
ĠMinnesota	15803
igo	15800
Ġbills	15800
Ġviruses	15797
ĠAnt	15795
println	15794
tain	15793
squ	15792
gie	15792
Mi	15792
.",	15791
Ġlogical	15790
nex	15787
ĠOb	15787
ĠInf	15781
Ġresist	15778
Ġdeposition	15777
~*	15773
ĠRA	15773
Ġresidual	15771
NULL	15767
ision	15766
Ġham	15763
selected	15761
ĠSoviet	15761
ega	15756
bh	15756
021	15754
Â³	15751
Ġstretch	15750
amer	15748
OG	15741
olog	15740
ĠBible	15739
Eq	15737
ground	15734
ĠHarris	15731
lav	15729
ĠDA	15725
Ġblank	15724
ĠFar	15724
mate	15721
atum	15720
023	15720
ĠProperty	15719
ESS	15718
ĠAnti	15718
force	15716
Ġnucleus	15714
Ġemerging	15713
ãĤĴ	15712
Ġreferring	15711
hill	15710
Ġequipped	15710
Ġjournal	15708
aning	15706
Helper	15706
ĠHi	15706
plex	15705
NU	15705
norm	15704
Ġbench	15704
ĠTurkey	15697
tim	15696
Ġinquiry	15694
oco	15693
Ġprosecutor	15693
ĠGaussian	15691
doi	15690
widget	15689
ĠAdam	15681
oat	15680
,_	15678
Ġcertificate	15675
Li	15672
################	15668
ĠArticle	15668
ĠAssembly	15667
Chapter	15666
Ġcavity	15666
Ġpocket	15665
inch	15664
Enabled	15662
Ġdeficiency	15661
Rule	15657
jection	15656
eding	15656
super	15653
æĺ¯	15651
Ġterritory	15650
Ġsensors	15649
Ġtoxicity	15647
inity	15644
fish	15643
209	15643
Ġdeny	15640
ĠPHP	15639
Ġplatforms	15637
ĠCambridge	15637
rand	15636
avi	15634
Ġinvited	15629
role	15625
139	15623
Ġvessels	15623
225	15622
Ġbirths	15621
Ġpromised	15619
amide	15616
Json	15615
views	15614
tb	15614
Ġmock	15607
berry	15606
Float	15606
Ġframes	15606
Ġextending	15605
Ġmuscles	15604
Ġtired	15603
<<	15602
Ġsaving	15602
Ġdefining	15602
)^{\	15598
once	15597
bad	15597
efs	15596
043	15596
Ġhealing	15596
Ġodds	15595
Ġhem	15595
ĠLewis	15595
Ñĭ	15592
Ġpipeline	15591
Ġparticipated	15590
Ġmodeling	15589
bx	15588
Ġagreements	15588
roc	15586
ologies	15583
)\,	15581
Ġhighlight	15581
Ġpreserve	15579
ĠUnless	15579
iar	15578
206	15574
Ġdance	15574
ERR	15573
ĠCoast	15573
reset	15570
143	15567
ĠDes	15567
Ġobligation	15564
iology	15563
Ġbaseball	15563
Adapter	15562
ĠSm	15562
ĠHamiltonian	15562
Ġstomach	15559
Ġml	15559
ĠYeah	15557
211	15552
))/(	15550
Ġinjected	15548
ĠTw	15548
Ġaccurately	15543
eda	15540
linux	15539
Ġestimation	15538
NV	15537
Ġbehavioral	15534
Ġdet	15532
kit	15531
Ġencounter	15531
~\	15528
Ġnobody	15525
Ġ|\	15522
}}^{\	15520
Ġsuspected	15520
omatic	15519
Ġinvalid	15515
Ġinflation	15515
ãģ«	15514
ãģĦ	15513
Ġestablishment	15512
ĠIndiana	15512
213	15510
ĠMajor	15508
FONT	15505
Ġregarded	15503
ior	15500
Ġnavigation	15500
arks	15498
FO	15494
ĠRound	15494
uma	15492
Ġimpressive	15491
Ġcortex	15491
Ġwedding	15490
ĠAfghanistan	15490
Ġphrase	15488
CONFIG	15487
Ġlease	15487
may	15485
Ra	15482
Ġdeemed	15481
Ġarrive	15479
Custom	15477
Ġplugin	15477
aha	15476
keys	15474
Ġsuspended	15473
ĠAndrew	15470
yp	15465
ĠNF	15465
Ġtalent	15456
eless	15455
RY	15455
Ġresistant	15454
degree	15453
Ġoxidative	15452
Ġstayed	15451
Option	15448
ece	15446
Ġreliability	15444
century	15442
ĠCas	15442
ĠKorean	15439
ache	15436
~)	15435
rence	15435
203	15435
ĠToronto	15435
omics	15434
Ġpal	15434
Ġcontest	15434
Ġarising	15434
ĠQueen	15434
Ġpromoting	15433
iling	15424
PN	15423
Ġexpense	15423
sic	15421
Ġ140	15421
Ġindication	15417
Ġcomparisons	15416
Ġelectrons	15415
Ha	15414
direct	15413
Ġpossess	15409
Ġmicroscopy	15408
bur	15407
Ġgenomic	15406
Sl	15405
Changed	15405
Ġendothelial	15401
Ġelderly	15400
bigg	15396
Ġresident	15396
Ġadjustment	15395
pending	15392
via	15390
phenyl	15390
INE	15387
ĠLibrary	15385
Ġassign	15382
uch	15379
Ġartificial	15378
icular	15376
))/	15375
Ġenergies	15375
Ġgu	15373
lyn	15372
IES	15372
Ġgut	15372
Ġpersonality	15370
GP	15369
_(	15365
Ġposterior	15365
rite	15364
General	15364
ĠDaily	15364
134	15363
Ġdemonstrates	15363
abi	15360
Ġlifestyle	15356
Ġbranches	15356
ige	15349
156	15349
ARY	15346
Î¼	15343
Ġgray	15343
ensive	15342
TEXT	15342
Cont	15342
Ġspots	15342
through	15337
mM	15337
Ġexisted	15337
Ġarr	15337
Off	15336
157	15336
ĠGene	15336
DV	15334
Ġdistances	15333
Ġthreats	15331
Ġparagraph	15331
Ġinputs	15329
Ġdefinitions	15326
ork	15325
edit	15324
DN	15322
Ġsuppression	15322
Ġengagement	15320
ĠHouston	15319
ĠKr	15313
Ġinhibited	15311
VR	15305
Ġvariability	15305
chan	15303
lement	15301
019	15301
Ġpointing	15300
Ġopt	15300
Ġvisiting	15298
rik	15297
itting	15295
Ġdocumented	15295
ĠSystems	15294
ells	15293
ĠSupport	15292
kn	15289
Ġ1981	15289
Ġmeaningful	15286
Ġultra	15282
ĠLC	15281
ĠHR	15279
riving	15277
Active	15275
Ġtends	15274
Ga	15272
$_{	15271
ĠDefense	15271
sized	15270
ogs	15270
ĠGre	15270
Discussion	15268
Ġranges	15265
Gs	15262
Ġhandler	15261
Ġwarranty	15259
tha	15257
Ġ---------------	15256
Ġlibraries	15255
Ġ107	15255
ords	15251
Ġrescue	15249
Ġreply	15248
ĠRegister	15248
ĠCook	15248
bat	15244
acker	15244
Ġminority	15240
*=	15239
WA	15238
Ġdefeat	15238
CHAR	15236
Auto	15235
ights	15232
unch	15231
Mod	15230
0010	15230
1992	15228
Ġstrip	15227
Ġpunishment	15227
Ġclosure	15227
Ġprov	15226
Full	15225
custom	15224
ilt	15223
ifiers	15220
Ġyeast	15220
utor	15219
Ġretro	15216
Ġcomplaints	15215
Ġcapabilities	15215
ĠmL	15213
Ġheaded	15213
Ġ&=&	15213
047	15212
Ġdistinguish	15212
049	15211
Ġawait	15211
028	15205
move	15204
Ġrevolution	15200
ĠSaudi	15200
ĠMoore	15198
very	15195
Ġmess	15193
Root	15192
Ġuptake	15189
'],	15183
./	15180
cil	15179
ĠPy	15179
Ġthirty	15175
Ġalongside	15174
iot	15171
888	15171
Ġheter	15163
UE	15159
idi	15157
Ġemerged	15155
146	15154
Ġnose	15154
shire	15153
Ġbu	15147
aces	15146
Ġsurprising	15146
Ġdenying	15145
Ġarch	15143
Ġsuggestions	15142
watch	15141
Ġsatisfaction	15141
ĠSports	15140
odi	15139
Ġfinance	15137
âĸ	15134
zz	15123
tage	15122
Ġpotent	15122
ĠEgypt	15122
World	15119
1991	15117
Lo	15116
Ġfake	15116
ĠInterestingly	15114
2020	15113
ĠNode	15112
ĠPhoto	15110
umber	15109
pic	15108
ĠAnal	15103
$^{	15102
ÑģÑĤ	15098
Ġdental	15098
0000000000000000	15095
Ġplug	15093
condition	15091
Ġ1960	15091
Ġum	15090
Ġpassion	15090
Ġfaculty	15090
pb	15089
rip	15088
esh	15088
mir	15086
bits	15085
Da	15082
Ġpreparing	15079
ĠHz	15072
shell	15071
*\<	15069
Ġinduces	15068
umm	15062
spi	15061
207	15057
eqn	15055
167	15055
priv	15054
230	15052
ione	15050
Ġdense	15050
yard	15042
Ġwinner	15042
come	15040
Ġtransformed	15038
rend	15033
mont	15030
187	15029
Ġheading	15029
\;	15028
Ġvirtually	15024
wh	15020
ulatory	15020
ension	15020
Ġbasketball	15020
Ġhosts	15018
208	15014
}:	15013
hood	15013
Ġsil	15011
Ba	15010
orted	15006
)\\	15006
say	15004
ĠRun	15002
ĠNations	15002
141	15000
Ġnitrogen	14999
Ġconv	14999
Ġbases	14997
original	14994
Ġrid	14992
sensitive	14990
Properties	14989
*(-	14987
Ġtrail	14984
Based	14982
ints	14981
Ġparticipant	14978
fall	14977
Ġwelfare	14977
Ġclaiming	14977
Take	14974
Ġ111	14973
Ġconfusion	14972
eled	14971
ont	14969
inator	14966
anal	14965
aping	14964
Ġasset	14964
Ð½	14962
conv	14961
Ġ160	14961
ĠRadio	14960
;"	14959
Ġconstraint	14958
Ġuna	14957
Ġreceives	14955
dor	14953
Ġblocking	14953
Ġrespondents	14949
btn	14947
article	14945
221	14945
Ġcoronary	14945
},$$	14942
Ġ''	14940
Ġprobable	14939
Ġ'\	14934
Ã	14930
Ġlocked	14930
ĠOff	14930
ĠAv	14930
bie	14926
Ġlongitudinal	14926
Ġfrozen	14924
edo	14921
Ġslide	14921
ury	14920
illy	14919
sided	14915
Super	14910
Ġbleeding	14898
Photo	14893
Ġ255	14891
Ġcommunicate	14889
Ġchances	14889
Ġaffirmed	14889
nal	14888
unn	14887
Ġperi	14883
Ġprotocols	14882
fy	14880
Ġoptimization	14875
testing	14874
166	14871
AY	14869
handler	14867
models	14862
Ġconstants	14862
ĠWE	14855
Ġmath	14853
ĠÎĶ	14852
stable	14850
ĠCommissioner	14850
Ġwavelength	14847
ifdef	14846
ressive	14845
Ġsubgroup	14844
Ġcultured	14843
Ġnonlinear	14842
osomes	14839
Ġeigen	14839
owner	14837
erved	14837
Ġorange	14837
Ġshortly	14834
iga	14833
Ġparams	14831
settings	14828
Ġpleasure	14827
Ġanger	14826
ĠSilver	14826
mot	14824
Ġappreciated	14824
cine	14823
Ġfiscal	14821
Ġsudden	14820
Ġshaft	14819
Ġdetermines	14819
Ġtimely	14817
kb	14815
Ġiso	14815
ÃĲÂµ	14813
Ġdonor	14809
airs	14808
Ġjustify	14806
Ġdistinction	14806
Ġsolved	14797
Ġappointment	14795
ARE	14794
à¬	14793
Ġwage	14790
ĠÂ»	14787
Ġsilicon	14785
ilization	14784
Ġuns	14783
Ġsyn	14782
Ġ112	14781
Definition	14780
ket	14779
LOG	14779
Ġmembership	14779
Graph	14778
Both	14775
hp	14772
dz	14772
bury	14769
Ġcookies	14769
Ġefficiently	14767
Ġdeb	14766
gathered	14764
Ġmutants	14764
ĠTHAT	14764
QU	14763
Ġcritic	14762
Ġlocalization	14760
Ġgovernor	14759
Ġexclusion	14758
Ġthrown	14756
Ġcriticism	14756
oder	14755
Ġsecured	14755
ä¸	14751
sit	14744
essed	14740
GFP	14740
DG	14739
Ġtags	14739
153	14736
Ġboot	14734
Ġreputation	14731
Ġthreatened	14730
Ġreward	14729
Ġfold	14726
jar	14723
}})$	14722
anted	14722
hest	14719
Ġmemories	14719
Ġcustody	14719
hbar	14715
Ġtracks	14711
Ġticket	14711
ĉĉĉĉĉĉĉĉ	14711
Â§	14710
Ġstimulus	14708
bytes	14707
Ġenforce	14706
Ġhip	14701
750	14699
Ġsilent	14697
ĠMil	14697
ĠMcC	14697
lli	14696
Ġstriking	14696
360	14694
Ä±	14693
esis	14692
Ġreplication	14690
215	14688
Ġoptional	14688
ĠIFN	14688
ento	14684
MG	14680
Ġanybody	14680
-.	14675
Ġcancers	14672
agen	14671
pit	14664
Ġnp	14662
Ġcircuits	14661
ĠInsurance	14661
Ġprejudice	14660
Ġinstruments	14659
Ġru	14658
Ġcord	14658
Every	14656
Ġflying	14651
arms	14645
record	14644
wiki	14642
Ġhistoric	14642
atable	14639
152	14639
Cal	14638
icket	14636
Thus	14636
âĢĿ)	14631
Ġ1982	14630
ogue	14628
\!\	14627
Ġliable	14625
Ġchallenged	14624
acked	14621
ĠSS	14621
Ġlitigation	14620
nable	14619
imated	14619
---|---|---	14618
Ġsuppress	14617
Ġtraits	14616
}}=	14615
hist	14614
RNAs	14610
erer	14608
188	14607
Ġattract	14607
185	14606
ĠGR	14606
VERSION	14605
ĠChristians	14605
Ġconserved	14603
uth	14602
engine	14601
ĠBR	14601
Ġmature	14600
Ġxml	14599
Ġtries	14599
ĠStephen	14599
uke	14598
Ġeveryday	14598
Ġaf	14598
Parameters	14597
ĠXML	14595
Ñĩ	14593
neg	14593
Ġfactual	14590
Ġdecimal	14590
olation	14585
oks	14583
iver	14583
spin	14582
Ġacted	14582
dale	14580
Ġ![	14580
uity	14578
Pointer	14577
Ġinches	14577
Ġcalm	14572
ĠChild	14571
Round	14567
Ġbelongs	14567
Ġdried	14566
News	14565
Ġvegetables	14565
ocket	14564
Ġgrass	14561
Ġconc	14561
ÃĲÂµÃĲ	14560
attribute	14560
Ġqueue	14559
ĠTNF	14558
ĠIgG	14558
standard	14555
eded	14555
Async	14554
Ġstained	14554
Ġec	14552
hon	14551
Ġmsg	14551
oun	14549
Ġspray	14549
VD	14546
ply	14544
ĠMAP	14544
three	14543
exe	14543
142	14543
rar	14542
gre	14542
ĠWisconsin	14541
ÃĦ	14538
Ġ800	14538
Ġsatellite	14534
rew	14533
Ġresidential	14533
plain	14531
ika	14531
Ġmining	14530
missions	14522
armed	14518
schema	14515
inflammatory	14511
Ġgraphs	14510
Ġmile	14509
Ġfilters	14506
pts	14505
ĠÎ¼g	14505
ĠLie	14505
Ġexclusively	14504
shaped	14503
667	14503
craft	14502
ĠFeb	14502
Ġseats	14501
Mark	14500
Multi	14499
ĠdÃ©	14499
Ġwins	14497
Ġflows	14497
Ġgradually	14496
Ġprof	14495
Ġmood	14491
Ġbedroom	14490
Ġprevented	14488
Ġperpet	14486
Ġpu	14484
ĠâĤ¬	14482
Ġsentenced	14475
Ġlady	14475
Media	14472
Ġimpairment	14472
Ġ",	14472
PATH	14470
LES	14470
Ġ115	14469
Ġbath	14466
ectomy	14465
XF	14465
POST	14464
did	14462
162	14461
Ġflowers	14461
Â¤	14458
Ġwidespread	14456
ĠReturns	14456
Ġestablishing	14455
Ġsimilarity	14454
Ġrespondent	14453
Ġgeneralized	14453
Ġconvergence	14453
Ġconfused	14449
Ġactors	14444
Ġtrick	14443
Ġmothers	14443
oses	14441
etti	14441
Ġmaternal	14441
Ġtall	14439
zip	14434
Four	14434
Ġstating	14432
filename	14431
ulates	14425
hab	14417
FU	14417
ĠRay	14416
-->	14413
Ġroads	14412
uj	14409
Ġminds	14408
Ġindependence	14408
wall	14406
Ġknife	14404
080	14403
Ġcorn	14403
Ġdescending	14402
Ġreplied	14401
Ġjoining	14397
tration	14391
Ġbarely	14389
Ġnotation	14386
Ġ).	14384
ĠMarket	14381
176	14380
ĠKelly	14379
Ġseeks	14371
ptic	14368
Close	14368
Ġsymbols	14366
arded	14363
Ãº	14361
Ġpolarization	14361
Ġscenes	14360
Ġmethylation	14359
MEM	14358
Ġmotions	14358
ĠSometimes	14357
Ġguests	14356
etics	14353
Api	14353
)+\	14353
pgen	14348
Ġanterior	14348
sci	14347
Ġflo	14347
Ġexhaust	14347
Ġviewing	14344
Ġsalary	14342
}$)	14340
Ġpreference	14336
tet	14335
Share	14335
Ġquestionnaire	14334
Bi	14331
ĠTE	14330
Ġprocessor	14328
Ġcomputation	14325
Ġcompression	14323
wy	14321
Ġsim	14319
Ġenhancement	14318
Ġcapability	14317
Space	14316
Plugin	14315
ĠKansas	14314
171	14312
Ġpharmac	14311
video	14310
Ġorbit	14310
speed	14309
"};	14308
Ġ}}	14308
aph	14306
Ġprescribed	14306
Ġincredible	14303
ĠAB	14303
Ġairport	14297
]=	14295
ĠHoly	14293
Ġemploy	14292
ĠDocument	14291
Ġrestore	14289
|{\	14283
Ġrape	14276
uls	14274
Ġdating	14273
Ġunfair	14269
lag	14267
Ġmanaging	14267
Assert	14266
Ġattorneys	14266
Ġbomb	14264
ĠScale	14263
edic	14262
Ġacceptance	14262
Ġgather	14261
alty	14260
enny	14259
Ġbriefly	14251
à¥į	14245
pas	14245
181	14243
\)	14242
ĠStart	14242
ban	14241
RN	14239
Ġgrain	14236
aton	14233
Rec	14229
Ġoste	14229
Ġatomic	14229
Day	14228
Ġlegitimate	14228
MY	14227
ĠHim	14226
Ġchi	14225
Ġattachment	14225
ÂłÂł	14221
rone	14221
Ġcocaine	14220
ĠMassachusetts	14218
:</	14214
Ġacknowledged	14214
aire	14211
Ġviolations	14211
ĠShould	14210
disc	14209
erk	14208
Ġdramatic	14207
Ġemissions	14205
oves	14204
mitted	14200
lig	14199
rina	14198
deg	14197
Ġpeptides	14197
Ð¾Ð²	14194
Ġrein	14192
&#	14191
_+	14188
027	14187
Ġpartly	14187
Ġuncon	14184
Ġfantastic	14184
apa	14183
Ġtrivial	14183
Ġsurely	14181
[:	14178
Ġcontention	14177
east	14176
ĠSim	14175
mur	14173
BY	14173
Ġoffices	14171
Ġdietary	14167
acher	14165
rg	14163
Icon	14160
159	14160
Ġ{"	14159
Ġprotecting	14158
ĠBrian	14158
ĠException	14153
Ġmoon	14151
hit	14150
Ġparticipating	14150
aked	14147
Ġrandomized	14147
Ġsavings	14144
cmp	14142
Ġinvestigating	14141
Ġintersection	14140
cred	14138
square	14136
umes	14133
rene	14133
raz	14132
Ġprovince	14132
ĠNature	14132
blog	14130
ĠCG	14130
Ġfelony	14129
ĠPay	14129
Ġmerit	14128
ĠDef	14128
Ġlandscape	14126
ĠCNN	14125
Ġsigning	14123
pon	14121
Ġrot	14119
Display	14117
unted	14116
oria	14116
alk	14116
Ġunnecessary	14116
ĠSon	14115
Ġracial	14110
158	14107
Ġwaters	14105
Ġresin	14104
{$	14103
Ġlos	14103
1986	14102
),$$	14097
lex	14096
share	14094
aden	14090
Ver	14090
Ġmediated	14090
Ġgolf	14090
Ġperiodic	14089
History	14088
oped	14087
Ġletting	14087
076	14086
Obj	14083
HF	14083
218	14083
inations	14082
![](	14081
ORY	14080
Ġoccasion	14079
Ġrepresentatives	14077
Ġshadow	14075
andy	14065
different	14064
ĠAllen	14062
onal	14060
Ġconservation	14058
051	14057
ĠIM	14056
Ġproportional	14055
Ġstat	14053
ĠUpdate	14053
irs	14051
Ġmodifications	14045
Ġloves	14045
iri	14044
Ġadvised	14044
å¤	14043
Bundle	14034
Ġmit	14032
Ġoutstanding	14031
Parent	14030
âĢĻ,	14029
asa	14028
stan	14025
gins	14022
caps	14022
Ġ119	14022
ĠNatural	14021
das	14020
ĠFL	14020
Ġdict	14019
crypt	14018
ĠStation	14017
Ġmembranes	14013
)-\	14012
Ġremarkable	14011
Ġplots	14010
Ġneu	14010
isions	14009
Ġlovely	14009
alities	14008
ĠPrior	14004
anic	14002
elic	14001
Ġartist	14000
ready	13999
ĠKevin	13999
hetic	13996
pkg	13992
ĠFo	13992
ĠEr	13991
ĠScotland	13990
Ġcoating	13987
Ġwarned	13985
Ġsentences	13983
pert	13982
Ġpurified	13982
rob	13978
Ġtherein	13973
Ġemotions	13973
Ġconfigured	13972
Ġelectrodes	13967
Ġ^{	13966
-)	13965
Ġimpaired	13964
ĠCHECK	13963
rance	13962
Ġasthma	13961
Ġcooperation	13958
mented	13956
abstract	13955
090	13955
Ġchat	13952
Ġsubt	13951
ĠMulti	13946
Ġlucky	13945
ĠAssert	13945
Ġnursing	13940
Ġactively	13938
Ġconstructor	13937
iotic	13935
195	13935
Ġsilence	13934
ĠFunction	13934
anks	13933
Ġdrove	13933
!!!	13932
Ġsake	13930
Ġcontroversial	13927
ÑĮ	13921
})$,	13917
Ġaff	13914
thr	13911
cul	13910
625	13910
VS	13908
ĠInclude	13903
rank	13901
aran	13900
wave	13899
prefix	13897
ower	13897
switch	13896
emp	13895
cept	13894
Ġsec	13894
Ġaccomplished	13894
Ġoverlap	13893
ĠPlus	13893
Ġshipping	13892
Ġrelate	13890
ĠConsider	13890
MIN	13889
Ġwing	13889
áº	13888
sten	13888
046	13888
ĠFather	13888
Ġnan	13882
ilized	13881
mber	13878
Texture	13877
oming	13875
nings	13874
iat	13873
151	13873
Ġlaugh	13872
Ġpixels	13871
ĠFisher	13871
Writer	13869
)->	13869
ĠCF	13869
ĠHTTP	13867
Example	13866
ASH	13866
Ġencouraged	13865
ilo	13863
>;	13863
ĠUkraine	13862
ANS	13860
Ġintestinal	13858
Ġdiscloses	13858
Ġsqu	13855
ĠExt	13854
Ġshield	13853
dal	13849
Ġinitiated	13847
uda	13845
hip	13843
Ġinfants	13843
Ġbul	13842
Ġrelies	13840
Ġwider	13838
mx	13836
Ġdisaster	13836
Ġarrow	13833
CY	13830
odes	13829
Ġprivilege	13829
Ġbird	13829
Ġtor	13826
urd	13825
ÃĲÂµÃĳ	13824
ande	13824
driver	13823
mapsto	13820
Ġtort	13820
erred	13819
Ġfranchise	13819
cx	13818
Ġradial	13815
mond	13814
alc	13814
Ġcopper	13811
Ġcircles	13811
iol	13809
Ġsecretary	13809
à¤¾	13808
Ġpositively	13808
utt	13807
Ġgenerations	13807
aser	13806
Ġintrinsic	13802
ĠUnit	13800
Ġbold	13797
Ġdep	13796
nas	13794
âĢ¦.	13791
ĠSort	13790
Ġfunctioning	13789
Ġexplored	13786
149	13784
ĠGOP	13782
displaystyle	13781
Ġprospect	13778
Ġstops	13777
rell	13776
Ġdominated	13774
Common	13771
alloc	13770
five	13769
Ġgraft	13767
Ġrings	13766
Ġenum	13761
Ġimportantly	13760
ĠFC	13760
_*	13756
yy	13755
igen	13753
metadata	13752
library	13752
Ġcrossing	13752
042	13751
pmatrix	13744
Life	13741
044	13741
ograms	13740
expression	13739
dered	13739
Ġpermits	13738
Ã¡Âº	13732
ĠSix	13731
Editor	13727
Ġbathroom	13727
ĠMicro	13727
LICENSE	13726
rage	13725
ä»	13722
eted	13721
XML	13719
ĠBMI	13719
jan	13716
uate	13715
Ġattacked	13715
Ġbrothers	13711
Ġreasoning	13710
Ġfirms	13709
ĠJeff	13708
found	13707
ĠAI	13705
apt	13703
iph	13702
Ġcorruption	13702
Ġcontinuously	13700
Ġflex	13698
Ġcompete	13697
Ġarrival	13697
Ġtran	13694
Ġio	13693
oved	13691
cloud	13691
ĠDev	13691
opathy	13690
Ġupcoming	13689
viruses	13686
Microsoft	13686
)~	13686
onomy	13685
Ġproxy	13685
Ġimpose	13683
YS	13680
Ġdownstream	13677
Ġconflicts	13676
Ġreset	13675
Util	13674
Ġni	13673
uated	13672
035	13672
)*-	13672
Layer	13671
Ġquoted	13669
,,	13668
ĠMaryland	13668
anging	13666
Ġannouncement	13666
ĠWeek	13666
="../../	13663
ĠGrant	13663
piece	13662
ĊĉĠ	13662
oscopy	13661
impl	13661
cin	13661
Ġconvinced	13661
Ġcart	13660
Ġprofits	13657
161	13650
Ġcomputational	13648
icked	13647
ĠATP	13647
former	13646
Ġexpertise	13643
ĠRose	13643
ĠĊĠĠĠĠ	13643
enz	13641
Queue	13639
Given	13637
Ġbow	13637
ĠGM	13637
KI	13636
FIG	13631
ĠAvenue	13631
Ġcircular	13630
ĠMuseum	13630
Ġpursue	13629
Ġnom	13629
anz	13627
signed	13626
033	13625
Ġdecomposition	13622
Game	13620
atched	13619
Ġretained	13619
yon	13617
Print	13617
Ass	13617
Ġdatasets	13617
scan	13616
Mac	13615
ĠKong	13614
åĪ	13613
Ġequ	13612
ĠNavy	13612
Ġwebsites	13611
Ġ123	13610
Ġfluctuations	13609
words	13608
NOT	13607
INFO	13607
Ġgains	13607
enberg	13605
Ġproposition	13605
MAP	13604
NM	13600
HTML	13597
Ġreject	13596
Ġscanning	13594
Ġgraduate	13594
Ġbags	13594
hot	13593
ERT	13593
Ġmem	13592
variant	13591
Cap	13591
Ġrelied	13590
inline	13589
Ġfeatured	13589
half	13588
Ġethanol	13584
ĠMR	13584
Ġcanonical	13582
VO	13581
Ġfer	13581
Enum	13579
ĠCM	13579
Ġoh	13575
ĠSanders	13575
Ġseal	13574
Ġediting	13574
ĠCore	13573
hex	13572
Ġ1979	13570
Ġguaranteed	13569
ĠNothing	13569
549	13568
NL	13566
>::	13565
ayer	13563
Ġemphasis	13563
marks	13561
Methods	13560
Names	13559
Med	13559
results	13558
Ġpad	13556
erator	13555
154	13555
Ġloud	13554
EXT	13552
ĠIrish	13552
ĠFort	13552
058	13551
ĠKen	13550
Ġcontemporary	13547
Ġcomply	13545
Video	13543
zer	13542
Ġgathered	13538
emic	13536
Release	13536
trial	13534
Ġmutual	13534
Ġrecurrence	13532
Ġconsistency	13532
ĠOregon	13532
FX	13530
Ġindicator	13529
unting	13527
Ġstimuli	13526
NH	13524
Ġsy	13522
Ġchromosome	13521
ĠLabor	13521
Ġgrateful	13520
Ġchlor	13519
Ġtobacco	13514
228	13512
utf	13511
RV	13511
Ġinstitutional	13507
ĠIr	13507
ĠBBC	13507
olar	13506
transform	13501
ife	13501
ITE	13497
Ġpublish	13497
serve	13496
DU	13495
Ġaffinity	13494
Ġgran	13493
idine	13487
Ġmol	13487
ĠClinical	13484
linked	13483
Ġwriters	13483
ĠRi	13482
Ġexceed	13481
Ġstrategic	13479
ĠNick	13478
Evaluate	13476
team	13473
UG	13473
Ġfiring	13471
Ġmacrophages	13470
mental	13469
Ġstudio	13469
Ġreaches	13468
Ġought	13467
026	13464
Ġtooth	13464
Ġrs	13463
ĠHaving	13460
ĠKIND	13458
ĠCons	13456
Ġaccounting	13455
Ġexpectation	13451
Ġconsisted	13451
Ġmanifold	13450
Ġdrives	13450
Ġburning	13449
Ġclothing	13447
tax	13445
Ġlacking	13443
Ġinhibit	13442
Ġsolvent	13440
ĠRad	13440
Pol	13439
Ġtransient	13439
Ġsyntax	13438
would	13437
ĠLE	13437
eks	13430
Ġunexpected	13429
Ġcre	13428
Ġdimensional	13427
rators	13425
prov	13423
è®	13422
Ġboss	13422
mov	13420
oster	13419
bles	13418
Stop	13418
264	13418
Ġrect	13418
Engine	13417
178	13414
gly	13413
ĠAug	13413
Ġgro	13412
Ġgenerates	13410
Ġsanctions	13408
Ġstruggling	13407
Ġmor	13406
score	13405
positions	13403
1989	13403
Parser	13402
Ġstaying	13402
Ġmorph	13402
ĠNation	13401
Db	13400
}),	13398
anned	13397
===========	13392
PORT	13391
ĠMember	13391
ocated	13389
ĠArea	13386
222	13384
Ġslot	13382
enes	13380
WT	13379
Ġretired	13378
ĠExecutive	13376
Ġsubstances	13370
}$-	13369
Ġmedications	13368
174	13364
Ġcarries	13361
omes	13360
029	13359
Ġcorrected	13359
çĶ¨	13358
iber	13352
erv	13352
Schema	13349
Ġopens	13347
phy	13346
Ġcollaboration	13346
ĠMuslims	13346
Ġslope	13340
\(	13334
Ġ127	13328
West	13326
Ġwash	13325
Ġreplacing	13325
179	13320
ĠTex	13320
ĠHarry	13319
ancer	13317
Member	13317
Ġminimize	13316
Account	13314
ĠHA	13314
ĠFull	13312
ĠUbuntu	13311
asted	13310
ĠKar	13310
)));	13308
}}}(	13304
quant	13303
Ġdrama	13302
Ġcollision	13301
901	13299
Ġfragments	13299
Ġdot	13298
Ġentrance	13297
Ġderive	13296
:/	13295
223	13295
ĠCOM	13295
096	13291
USE	13288
fed	13285
Ġpredictive	13285
Ġdecent	13285
lint	13284
Ġreporters	13283
ĠPO	13282
AMP	13281
scriptstyle	13280
containing	13279
Ġterrorist	13278
ĠReturn	13275
ĠLeft	13274
ĠBox	13273
anced	13269
Ġethnic	13269
izers	13268
ĠOUT	13267
Cu	13266
brief	13264
)$-	13264
Ġentropy	13264
Ġcontin	13263
ĠScientific	13263
0008	13261
Ġquant	13259
got	13258
325	13258
ĠCe	13257
ament	13255
Ġexceptions	13255
Ġroutes	13254
Ġspinal	13253
aders	13250
Ġkn	13248
Ġcontributing	13244
Win	13243
Ġscenarios	13243
Ġren	13243
Ġhal	13243
Ġloose	13242
encies	13241
ÐµÑĢ	13240
169	13240
icking	13239
ĠLatin	13239
ĊĠĊ	13239
Ġservers	13236
Ġdebug	13236
ochemical	13235
Ġinitiative	13235
Ġentertainment	13235
ĠColor	13235
apply	13234
children	13232
260	13231
056	13230
Ġcomplement	13226
fm	13223
Ġgastric	13222
Ġdreams	13221
ĠTen	13219
ĠHillary	13218
RED	13217
Ġ114	13216
inst	13215
bank	13214
cro	13213
ĠDB	13213
ĠHollywood	13212
ĠChange	13212
iable	13211
Ġstyles	13211
Ġimpression	13211
report	13210
Ġbur	13209
ĠZe	13209
Ġshifts	13208
375	13206
Ġ1977	13206
race	13201
structure	13193
ORS	13193
Ġschemes	13192
ĠMB	13190
Ġstraightforward	13188
gan	13186
design	13185
Ġinhibitory	13185
ĠCommon	13185
024	13184
Ġtendency	13183
Ġcake	13181
pus	13178
Ġpossibilities	13178
enic	13177
Ġabnormal	13176
Ġguilt	13175
ibe	13174
ĠMiami	13170
Ġbroader	13169
depth	13168
\}$.	13168
dog	13167
ĠLook	13167
ĠHong	13167
Will	13165
ÂłÂłÂłÂłÂłÂłÂłÂł	13164
IZ	13163
Ġlicensed	13163
Ġplacement	13162
Ġpoorly	13159
ï¼ļ	13155
Ġ$${\	13155
Ġhired	13149
ĠPhiladelphia	13148
Ġallele	13146
Ġpresenting	13145
Ġbegun	13145
=====	13144
ĠAlabama	13138
regulation	13137
leton	13137
Ġfitted	13136
motion	13135
Ġdetecting	13135
organ	13133
Ġneighbors	13133
Ka	13132
hman	13131
posing	13126
Ġspokesman	13125
Ġlawyers	13123
Ġencountered	13123
189	13120
Ġchairman	13119
ĠSimilar	13116
ĠOklahoma	13116
ĠCells	13116
Ġplacebo	13115
172	13113
ĠTur	13113
Seq	13112
Ġships	13111
amm	13104
Import	13104
199	13104
Ġflu	13103
Ġnoting	13101
VP	13095
Ġordering	13095
Proxy	13092
safe	13090
Ġincubation	13090
Inf	13089
anne	13087
jet	13086
Ġequity	13085
gf	13084
1988	13084
Ġwanting	13084
Ġinvasive	13084
Ġanalysed	13084
Ġpersistent	13083
ĠWas	13082
ĠDar	13082
{|	13081
yers	13081
312	13080
Ġreconstruction	13079
ĠRos	13079
iques	13078
Ġdebtor	13078
orate	13076
Ġindividually	13076
ĠEdward	13075
ibilities	13073
Ġmanagers	13072
Ġlesion	13071
tests	13070
Ġsphere	13070
Ġaligned	13070
164	13069
Ġfishing	13069
Ġneuronal	13066
Ġdiagonal	13065
270	13064
Ġoccupied	13064
Appellant	13062
Ġthr	13062
heat	13061
Ġsquad	13061
Ġmeals	13057
Platform	13056
Ġ1978	13053
uster	13052
same	13051
AIL	13048
states	13047
HG	13043
inic	13042
052	13042
READ	13040
factor	13037
Ġstolen	13037
Ġassociate	13036
cke	13034
420	13032
price	13029
Ġraises	13027
*}	13025
ĠPerson	13025
ishment	13023
'"	13020
Ġchemicals	13017
Ġundefined	13016
Ġcitizen	13016
Ġbelt	13016
Ġdelicious	13015
ĠPRO	13015
anity	13014
FM	13014
Ġfort	13013
hee	13012
ÙĨ	13011
Hash	13011
UB	13010
bg	13009
IK	13006
Ġur	13004
Ġsed	13001
ĠJavaScript	13001
callback	13000
Âĩ	12996
184	12995
Ġaffairs	12995
Ġwithdraw	12994
Ġspecimens	12992
Ġhomogeneous	12992
ĠOverall	12990
ĠDiego	12989
pair	12988
Directory	12987
Ġlogin	12987
bio	12986
âĶĢâĶĢâĶĢâĶĢ	12983
minute	12983
Ġinspection	12983
gif	12982
Ġcytokines	12981
properties	12976
TON	12975
skip	12973
Ġdont	12971
Ġsurrounded	12970
Ġpositioned	12969
224	12968
ĠStudent	12965
Ġlocalized	12960
Ġformulation	12960
0006	12958
Ġaddressing	12957
Ġpromotion	12954
ĠBureau	12951
Ġhor	12950
Ġupset	12948
amin	12947
finite	12946
isp	12945
Ġhandled	12943
âĢ©	12942
ĠSmall	12941
asi	12940
olly	12939
Ġtie	12939
Ġburst	12939
DEBUG	12938
ancing	12937
^](#	12937
Ġarises	12937
padding	12936
ĠTask	12933
iment	12930
616	12930
PY	12929
Â¡	12928
Ġnegotiations	12928
Ġbirthday	12927
Ġgrace	12924
ĠTry	12924
ocal	12923
Ġpres	12920
Ġexclude	12920
ĠÂ«	12918
1984	12917
))$	12917
springframework	12915
Ġalien	12914
Ġbeings	12911
ĠLLC	12910
ĠEric	12910
032	12907
lev	12905
Ġpig	12905
ÙĬ	12904
eld	12903
loading	12902
umps	12896
ques	12896
ĠSeattle	12896
ĠMid	12896
Ġquit	12895
Matrix	12892
yk	12890
PAR	12890
Ġgrants	12890
DX	12888
Ġurine	12888
âĦ¢	12886
antic	12886
ĠTrade	12885
Effect	12884
Ġfin	12883
ĠFive	12881
1985	12877
Ġsys	12877
UA	12876
Ġcorporations	12871
ĠĠĠĠĊĠ	12870
ĠCSS	12869
Ġtermination	12867
dep	12866
Ġoc	12863
Ġverified	12862
Øª	12861
801	12853
;}	12850
710	12850
Ġhearts	12850
pton	12849
endo	12849
Ġinterpret	12847
Delete	12846
ÙĦ	12844
ĠClark	12843
Ġ116	12842
Ġlets	12841
Ġorgans	12839
rev	12834
=$	12834
ician	12833
eous	12832
ĠManager	12830
Bu	12829
>)	12826
Ġsing	12825
Ġconsiderations	12825
ood	12824
ĠLabour	12824
aters	12823
Ġdispersion	12823
orm	12817
rays	12816
shared	12813
ista	12812
254	12812
Ġrolling	12812
ĠProcess	12811
lings	12810
Ġhighlighted	12810
ppat	12808
Ġclubs	12808
Ġbuf	12808
ĠAF	12808
Ġnu	12807
oured	12806
ORE	12806
>();	12805
ĠAsh	12805
Ġ121	12803
_;	12802
track	12798
fat	12798
Trump	12795
Ġsheets	12793
ĠKit	12792
olytic	12791
Ġshapes	12791
Ġcarriers	12791
Ġparam	12790
303	12789
obi	12787
ĠInvention	12787
ĠFootball	12785
}{{\	12784
plane	12782
Ġprostate	12782
claim	12781
Ġindictment	12778
parallel	12776
å®	12774
Ġloc	12771
Ġworship	12768
Ġoccasionally	12768
aul	12765
Ġinsights	12764
VB	12763
Ġsimulated	12761
Empty	12759
ĠEM	12759
Ġimplements	12757
Ġengaging	12756
Ġexpanding	12753
Ġsuggestion	12749
XC	12747
Ġhook	12747
Ġbarriers	12747
Ġkiss	12746
ĠWord	12746
Ġflexibility	12745
Ġprescription	12743
ution	12742
ĠSyrian	12740
Ġphoton	12737
ĠForeign	12737
rer	12736
lf	12735
edy	12735
163	12733
Ġ09	12733
Ġdrag	12731
them	12729
Ġapproached	12728
Ġcyt	12727
293	12725
Ġdistricts	12723
usted	12722
otherapy	12720
rak	12718
osome	12718
Ġbreathing	12718
Ġmethyl	12717
Ġremarks	12714
Ġkg	12714
Ġrealistic	12712
LINE	12711
emen	12708
1987	12707
305	12705
lh	12704
Ġmonitored	12704
Ċĉĉĉĉĉĉĉĉ	12704
Ġtournament	12703
ĠCarl	12698
ĠPrice	12695
ĠÎ¼M	12693
æľ	12692
){\	12692
Ġneedle	12692
Ġdishes	12691
WORD	12690
NB	12690
Ġinconsistent	12689
Ġhoney	12688
Ġincredibly	12687
Ġangles	12687
mk	12686
iterator	12686
abc	12686
Ġvolunteers	12686
ĠBridge	12686
Ġcancel	12684
Ġenv	12683
maker	12681
301	12680
LOW	12679
ViewController	12678
Ġdevelopmental	12678
Ġtitles	12675
Ġ(<	12674
lio	12672
Ġimpacts	12671
mand	12668
Ġdeleted	12668
FLAGS	12666
Ġvolumes	12665
ĠPrince	12665
Ġinference	12663
alin	12659
yi	12658
atz	12658
emed	12655
Enter	12654
075	12653
Ġsleeping	12652
Ġpostoperative	12651
Ġmathematical	12651
JSON	12650
Factor	12648
sulf	12645
Ġyours	12642
Ġsolving	12642
PU	12641
Ġdistant	12640
Email	12639
Ġconversations	12638
ĠBA	12637
Ġoptim	12636
without	12635
&=	12635
guard	12632
ĠÃħ	12632
245	12631
ĠTan	12631
proof	12630
Ġmodulation	12628
Ġdisposed	12628
WR	12627
054	12627
Network	12625
Ġmandatory	12625
Ġencoded	12623
Ġabandoned	12623
iki	12622
ĠTB	12622
ĠOxford	12621
ĠCommand	12621
Ġdeclaration	12620
åľ¨	12618
idd	12618
comb	12618
Ġdying	12618
Ġgarlic	12616
===	12614
gon	12613
orse	12612
Files	12612
Ġsmell	12612
Ġslice	12611
Ġfilename	12611
gn	12610
gp	12606
Ġimply	12604
Ġextracts	12602
both	12600
Ðº	12599
Ġpurely	12598
Ġsuppressed	12597
Ġmerge	12597
Ġlemma	12597
lik	12595
Ġtranslate	12593
Ġinstruct	12592
Ġbalanced	12592
ä¹	12590
Ġads	12590
045	12587
********	12587
Ġdiscount	12585
Ġspoken	12584
Ġ1975	12583
ube	12578
Ġ02	12578
iveness	12573
,âĢĻ	12572
gun	12570
ĠDirect	12570
Ġrap	12566
Ġarrays	12566
eder	12565
Ġsubstitute	12565
Ġmill	12563
ĠClick	12563
Wait	12562
(!	12562
Ġhitting	12562
Ġmanifest	12560
xF	12554
Ġproceeds	12549
esta	12546
Ġsecretion	12546
due	12540
hyd	12539
Ġnutrition	12537
Args	12535
Ġshed	12535
vor	12534
CK	12534
Ġcycl	12534
920	12533
Ġter	12532
Ġupgrade	12531
Ġligand	12531
Ġfocuses	12531
Ġaccordingly	12529
Ġtmp	12528
Ġcontroversy	12528
oidal	12527
Ġinnovation	12525
oric	12523
Ġpromoted	12521
Ġlin	12521
ĠFuture	12520
returns	12517
Unc	12516
ĠThrough	12516
ĠVA	12515
})$.	12512
Ġpulling	12512
Ġtransitions	12511
Ġremedy	12511
ĠContent	12511
het	12510
rex	12509
iating	12509
Ġconsiderably	12507
arily	12506
Ġarguing	12506
hidden	12505
ĠTheory	12504
hc	12503
amount	12503
073	12502
Ġpleased	12502
_-	12501
191	12501
Wh	12500
Ġdozen	12500
oline	12499
ĠMissouri	12499
Ġmotivation	12498
550	12496
allow	12493
057	12493
âĢĥâĢĥ	12492
Ġ113	12492
Ġoperational	12491
ãģ¯	12490
Ġexplaining	12488
Ġexhibits	12488
Ġcalendar	12487
urn	12485
Ġanalytical	12484
ĠVisual	12484
etal	12483
disp	12482
Ġtranscripts	12480
Ġautomobile	12479
ĠDisney	12479
vl	12477
ĠOnline	12477
Ġmorphology	12475
Ġethical	12473
protected	12469
Ġmel	12469
).\	12468
Ġ118	12468
ylated	12466
soc	12466
atal	12463
ĠĠĊĠĠ	12461
Ġintact	12459
Ġmobility	12458
Ġterror	12454
arding	12451
="/	12450
oS	12448
Those	12446
yz	12445
Descriptor	12444
*:	12443
091	12441
vn	12440
ooting	12440
Ġsixth	12440
parameter	12439
197	12439
ael	12438
ĠÐº	12438
God	12437
ĠTour	12435
^{*	12432
emb	12428
Gl	12428
tool	12427
simple	12426
cid	12426
cg	12424
ĠEvent	12422
456	12420
bridge	12419
account	12419
Em	12419
apes	12418
="../	12417
network	12416
Ġoutdoor	12416
Users	12414
>'	12414
Ġcarb	12414
lane	12413
amps	12413
Ġties	12410
Ġconducting	12408
acon	12407
Ġevaluating	12405
ĠKan	12404
Func	12403
Ġfounder	12403
Ġshame	12399
Ġreviewing	12399
~-	12397
isms	12397
Age	12394
252	12394
Channel	12392
Ġnarrative	12389
rout	12385
ĠHotel	12384
Ġphones	12383
ĠSW	12383
Ġfate	12382
ĠCurrent	12382
Ġenemies	12381
ĠRelated	12381
except	12379
oven	12378
ĠAuthor	12377
vant	12376
)",	12375
Ġreserve	12375
Ġmas	12375
Ġprefix	12373
840	12372
Ġreportedly	12370
istent	12369
bullet	12366
440	12365
Ġcannabis	12363
Ġocean	12361
Pool	12360
ĠBuild	12358
067	12355
ĠRam	12353
196	12352
Ġconvenience	12352
Ġlegally	12349
ĠMessage	12349
David	12347
Ġprayer	12347
088	12346
olk	12345
Ġplacing	12345
Ġposting	12344
Ġinnocent	12344
Ġimplementing	12342
ĠNBA	12342
ĠâĢĻ	12340
Ġofficially	12339
/"	12338
Ġaud	12338
ĠWithin	12338
182	12336
Ġinte	12336
ATED	12335
536	12334
__(	12333
247	12332
mad	12331
equals	12331
Ġblockchain	12331
ĠâĢĭ	12330
omy	12329
Ġbat	12329
Ġ1976	12328
Edge	12327
Storage	12325
Ġinvest	12325
icker	12324
anth	12324
statement	12323
Ġhormone	12321
ceptions	12318
Msg	12318
Ġcurvature	12318
Ġdisp	12317
polar	12316
ved	12313
Ġmad	12313
ĠSN	12313
platform	12312
Ġsustainable	12312
Ġgamma	12312
Ġconsult	12311
Ġballs	12310
Ġwrap	12309
flag	12308
shot	12307
Socket	12307
Ġvaries	12307
ĠYouTube	12307
urry	12306
ĠRapids	12306
Bit	12305
Ġthrew	12300
Ġir	12300
&=&	12299
Ġasserted	12299
Ġappend	12299
ĠFu	12299
Ġcounting	12298
orial	12296
ĠHand	12294
Ġheaven	12291
Ġrecruitment	12290
Ġcoat	12290
tier	12289
mouth	12289
Report	12289
229	12286
Ġextr	12286
Ti	12285
Policy	12285
ugs	12284
059	12283
401	12280
White	12277
315	12274
Ġnurse	12272
oney	12271
vie	12270
etta	12269
620	12269
235	12269
rose	12268
ĠWild	12266
))?	12264
Ġolive	12263
Ġconstitutes	12262
ĠCha	12262
Ġclip	12259
ĠLy	12259
Ġinfant	12256
âĤ¬	12255
clean	12255
Ġ"-	12255
illary	12254
Ġtraveling	12249
Ġfever	12249
*),	12248
äº	12247
worth	12246
elin	12243
integer	12240
FN	12240
Ġscroll	12240
ĠMotion	12240
Ġmethodology	12239
ieve	12238
Åį	12235
nob	12235
330	12234
dst	12233
visible	12232
777	12230
expected	12229
national	12227
ĠSelect	12226
pk	12225
urb	12224
Ġmetastasis	12223
alla	12222
193	12220
Ġlands	12220
ĠSelf	12220
Ġdenoted	12219
ĠCur	12219
Copy	12218
875	12217
Ġshifted	12215
esse	12212
539	12212
Ġlessons	12211
gin	12209
DK	12209
Ġspeaker	12209
stock	12207
ACH	12207
hk	12206
Ġacquire	12205
ĠCOURT	12204
Ġvalidate	12203
Ġnuclei	12203
Ġasync	12203
Ġappellate	12201
Ġtears	12199
Ġextracellular	12199
_{{{\	12198
Screen	12196
Real	12196
ĠMean	12195
Ġprobation	12194
require	12190
Ġbiology	12189
ĠRelease	12189
061	12187
ĠDallas	12187
opped	12186
ĠPalestinian	12185
omi	12184
509	12181
Ġmagnet	12181
Ġsens	12180
ĠWay	12180
early	12179
Ġpollution	12179
480	12178
Ġlesser	12175
Ġappearing	12175
urg	12174
ABLE	12174
308	12174
classes	12171
Ġsusceptibility	12170
loaded	12169
oping	12167
fixed	12167
Ġsubstrates	12166
Ġraces	12166
Ġwages	12165
lists	12164
imi	12162
coll	12161
gd	12160
,(	12157
ometry	12156
vey	12155
Ġhanging	12155
ograph	12154
Byte	12153
Ġindirect	12153
Ġimmigrants	12153
ĠFactor	12152
ĠSearch	12149
twitter	12148
icted	12146
oda	12145
limit	12145
Ġcups	12142
Ġconfigurations	12142
gest	12141
ĠCard	12139
Ġobjectives	12138
Ġviable	12137
053	12136
amel	12135
Ġorganisms	12135
mock	12134
BV	12134
isting	12133
geo	12133
(:	12131
Ġstepped	12131
dat	12129
)/((-	12128
Ġmerits	12127
citing	12124
ĠGolden	12124
iper	12123
186	12122
ĠCt	12121
exists	12120
OUR	12120
ĠUpon	12119
ĠNet	12118
tailed	12116
ĠBP	12116
Ġdiscussing	12115
Ġabilities	12114
generated	12112
Ġdramatically	12112
ĠFrancis	12112
Ġinfluenza	12111
Ġmut	12110
Ġbelonging	12109
Ġasserts	12109
ĠHamilton	12107
exit	12106
Ġfallen	12106
Sim	12104
Ġinnovative	12104
racted	12103
Ġgar	12103
ĠAlexander	12103
ĠFinancial	12097
iton	12096
ĠSpec	12096
gency	12094
Ġcharging	12094
Ġinvestigators	12093
ĠRules	12091
0007	12090
Ġhighlights	12090
Ġdevelopments	12090
ĠAut	12090
Ġunt	12089
MER	12087
Ġrobbery	12085
ä¸Ń	12084
ĠRequest	12082
sect	12079
ĠMY	12079
ighting	12078
syn	12074
$),	12070
909	12069
ĠÃ	12069
ĠTennessee	12069
HH	12068
Ġlengths	12067
Ġsingular	12066
Ġproducer	12066
sym	12065
Ġwisdom	12064
Ġmaxim	12064
307	12063
Ġnecessity	12063
zel	12062
Ġcrop	12062
ĠSingapore	12062
Ġtopological	12060
Ġadoption	12057
ĠChannel	12054
Sign	12053
Ġriding	12053
``	12052
${\	12051
fect	12050
ĠWould	12050
job	12049
uter	12048
toc	12048
BIT	12046
Ġblot	12046
Ġoperates	12041
orph	12039
Ġexcitation	12038
ĠMRI	12038
ĠTy	12036
drop	12035
Ġhumanity	12032
ĠForest	12031
ĠPURPOSE	12030
Kind	12026
Ġfluorescent	12026
ĠRome	12024
Ġcredibility	12022
Ġgrab	12021
Ġdrops	12021
Ġassertion	12020
Ġ\*	12015
typedef	12014
UX	12014
Ġfreely	12014
vision	12013
reed	12013
ĠBerlin	12013
Ġoxidation	12012
Ġprevents	12011
ĠMorgan	12011
Ġsafely	12010
Ġpacked	12007
west	12006
extern	12005
ĠOrganization	12003
resp	12002
ifndef	12002
Ġconvex	12000
ĠDefault	12000
ange	11999
Ġwheat	11999
Home	11998
kill	11996
elly	11996
ĉĉĉĉ	11996
Ġincorrect	11995
ĠCapital	11995
kov	11994
ĠSummer	11994
ĠWatch	11993
Double	11989
Ġprojected	11989
Public	11988
Ġ117	11988
arp	11987
ĠEst	11987
Ġaffordable	11986
cost	11985
Ġmesh	11985
Health	11984
ĠAA	11984
CAT	11982
Ġstopping	11982
Ġattending	11981
sis	11980
rait	11980
Ġtriggered	11980
ĠBra	11980
Ġfucking	11979
iw	11978
AW	11978
Ġlighting	11978
Ġalterations	11978
173	11975
augh	11974
Ø¯	11971
anto	11971
Ġdonors	11971
distance	11962
ration	11959
ĠVe	11959
Ġadaptation	11958
Ġpromises	11955
Hz	11954
660	11954
KK	11953
Ġcatalyst	11953
Ġunity	11952
bian	11951
(__	11949
ivers	11946
Ġconfirmation	11945
infected	11944
arer	11942
ãģ¨	11941
ffer	11941
â	11940
ask	11939
ĠARE	11939
}.\	11937
ĠSoc	11936
Ġmeets	11935
unct	11934
535	11934
060	11934
Ġcombining	11934
Ġcam	11931
Ġnurses	11925
ĠKn	11925
ĠChampionship	11924
=-\	11923
Ġcameras	11923
ĠSky	11923
3000	11922
Ġvo	11920
Ġutilize	11920
wo	11919
ther	11917
Ġrobot	11917
Ġresort	11916
548	11915
Ġrelaxation	11915
Ġtransit	11913
Ġretention	11911
Ġinherent	11910
"\	11908
ĠRF	11908
Ġathletes	11907
ĠLanguage	11906
Stack	11904
ĠBUT	11904
mf	11902
alled	11901
Ġdeficit	11901
Ġep	11900
ĠComm	11900
URI	11899
880	11899
ulsion	11897
ĠFred	11897
umi	11896
$^	11896
ĠGovernor	11896
native	11895
Ġdensities	11894
ĠProtection	11893
Ġconditional	11892
MN	11891
859	11890
icle	11889
ĠStock	11889
ACE	11888
UTF	11885
username	11884
upper	11884
237	11884
Ġgolden	11884
Ġmetrics	11883
locked	11881
ĠVI	11881
ĠPsych	11881
present	11879
Ev	11877
}{(	11876
ĠEp	11876
1980	11874
ĠMeanwhile	11874
Ġoccasions	11873
Ġeff	11873
ĠFinal	11872
Contact	11869
Ġcure	11868
Selected	11867
340	11867
Ġinvestments	11867
Ġhanded	11864
Ġartists	11864
HY	11861
386	11857
Black	11856
render	11854
groups	11854
Ġarbitration	11852
Ġglyc	11851
uber	11850
ĠKh	11850
ĠWHERE	11847
ĠAuthority	11847
Ġtriple	11845
Ġprotests	11845
eros	11844
olysis	11842
ĠâĢī	11840
}>	11839
Ùħ	11838
boy	11837
ilation	11834
clock	11833
Ġanimation	11832
Ġdemocratic	11830
urer	11829
omb	11826
Iterator	11826
Ġtestify	11826
pay	11825
ames	11825
cology	11824
Summary	11824
RW	11824
907	11824
ĠPT	11823
ĠED	11823
Ġsubtle	11821
VID	11820
sectional	11818
turn	11816
zu	11815
books	11813
Ġquar	11812
tags	11811
ĠWrite	11811
Ġmistakes	11810
acs	11809
Mil	11809
ĠJason	11809
Ste	11807
etz	11806
Ġspl	11806
Ġcompiler	11806
xsl	11804
BN	11804
}&	11802
410	11802
Ġfloating	11801
iction	11800
ĠSarah	11798
cert	11796
Ġdatabases	11796
coming	11795
064	11795
227	11794
ĠEP	11794
uto	11793
=[	11792
183	11790
306	11789
ÙĪ	11786
Ġmotivated	11786
inous	11785
thing	11784
701	11784
ĠLicensed	11784
esa	11783
Ġensuring	11783
ĠAccount	11781
288	11780
TABLE	11778
mix	11776
clusion	11775
Ġhat	11775
BASE	11774
Ġsocket	11774
ÂĴ	11773
-[	11773
Ġenormous	11773
Ġbaking	11773
ĠLin	11773
ĠTech	11771
Ġremand	11770
gram	11768
IDE	11768
ssl	11767
)>	11767
required	11765
NAL	11765
OLD	11764
ENCE	11763
ĠStudio	11763
stand	11762
Ġactivists	11762
matic	11761
ĠExample	11761
ĠRO	11759
Ġyard	11758
odot	11757
itate	11757
850	11757
095	11756
068	11756
Ġearnings	11755
ĠConf	11754
Math	11752
ĠInteger	11750
vee	11749
602	11749
ĊĊĠĠĠĠĠĠĠĠĠĠĠĠĠ	11747
far	11746
238	11746
Ġì	11746
ucks	11745
Ġpremises	11745
Ġlake	11744
Ġamongst	11744
720	11743
Ġip	11743
vr	11741
aur	11741
Ġlegislature	11741
rely	11740
Ġinitiation	11740
XX	11737
ĠHoward	11733
DY	11732
Ġthrowing	11731
prom	11730
inals	11730
640	11730
ĠROS	11728
wire	11727
charge	11727
ĠMoon	11727
Ġprognosis	11726
operation	11725
inance	11725
Ġboards	11725
opp	11724
Argument	11724
à´	11721
Ġdated	11719
Ah	11717
085	11716
Ġtherapies	11715
5000	11714
Ġinsertion	11714
Kit	11713
ather	11709
Ġtear	11709
layers	11708
Ġshops	11706
since	11704
nik	11699
Express	11698
780	11698
.....	11698
mul	11696
MX	11693
768	11691
Ġindustries	11690
ĠExp	11689
Ġjudges	11686
azing	11685
ĠTony	11685
Ġrepository	11683
ĠWars	11682
ĠAG	11682
Ġanalog	11677
mouse	11675
gra	11675
Obv	11675
Ġjustified	11674
Ġconvention	11674
cycle	11673
Ġchopped	11673
erge	11672
Ġrespons	11672
wen	11671
cong	11671
Ġspeaks	11668
.<	11666
ĠABC	11663
Ġann	11662
Sw	11661
Ġuniversities	11660
ĠStore	11660
virtual	11659
Ġhire	11659
Try	11657
Ġdeploy	11657
Ġbackup	11656
ashi	11655
Ġpassenger	11655
Ġmanufacturers	11655
Ġ"",	11655
iments	11654
Ġreactive	11652
Short	11651
Ġquad	11650
Ġdowntown	11650
acer	11649
particle	11647
756	11647
scr	11646
events	11645
anny	11645
====	11645
gb	11643
ATT	11642
Direct	11641
ĠWalker	11641
phe	11638
Ġantibiotics	11636
ppy	11635
ugg	11634
TIME	11634
Ġobligations	11632
1982	11630
valid	11629
dag	11628
icide	11627
Ġgastro	11627
ĠcDNA	11627
ĠPARTICULAR	11627
,.	11626
oud	11625
Ġolig	11624
Security	11623
Ġpackaging	11623
Ġemails	11623
Ã´	11621
Ġaveraged	11621
Ġempirical	11620
Ġrefuse	11619
Scope	11616
333	11614
Ġsupplement	11614
650	11613
Ġavoided	11608
aca	11607
Ġfought	11606
Sample	11604
077	11603
ĠÐ´	11603
Ġfruits	11602
Ġveteran	11601
Ġmainstream	11601
Ġ]{}	11601
ĠVery	11601
ĠSquare	11599
ionic	11598
alle	11597
302	11597
dfrac	11596
Ġdeserve	11595
Ġbasal	11595
ĠStone	11595
ĠElizabeth	11593
0020	11592
Ġ08	11590
tion	11588
ĠRet	11587
ĠCap	11587
ĠDutch	11585
Ġratings	11584
Ġholder	11584
Ġdialog	11584
Ġchips	11583
ãģ§	11582
Ġceiling	11582
Ġgenotype	11581
Ġdesk	11581
oqu	11579
special	11576
Ġduct	11576
Ġexperiencing	11575
Ġpreserved	11574
Ġdistribute	11573
Ġupstream	11572
Ġbare	11572
Ġmayor	11571
ĠOil	11569
Play	11567
|^{	11566
789	11564
ĠLive	11564
|$	11563
Ġalternatives	11563
ĠGE	11563
Ġ05	11561
ãĥ³	11560
ĠJane	11560
trained	11557
sync	11557
ĠCE	11557
ĠCOVID	11556
Register	11555
esp	11554
Ġgranting	11554
ients	11551
Ġ"%	11551
treatment	11550
Ġadvances	11548
relation	11547
365	11547
Ġcats	11547
Ġapproximate	11544
mia	11543
cline	11543
Ġsearched	11543
ĠFilm	11543
delim	11542
Ġscar	11542
aint	11540
Timeout	11540
Player	11540
acing	11538
Subject	11538
Ġshirt	11537
Ġaccomplish	11537
Ġagricultural	11536
Cre	11534
serial	11533
mv	11532
Ġvoluntary	11532
San	11530
RAM	11530
science	11528
city	11527
380	11525
Ġhappiness	11525
Ġneo	11524
ĠHel	11524
Ġapt	11523
1983	11522
Job	11521
Metadata	11520
ĠSn	11520
ĠBL	11519
obe	11516
Ġadhesion	11516
activated	11513
iang	11512
cis	11512
gro	11506
Loader	11504
063	11504
otor	11503
]-[@	11502
908	11502
Ġresidue	11502
ï	11501
ĠPu	11501
olves	11500
lap	11500
680	11499
Ġ350	11499
ĠVector	11498
Ġintensive	11497
Ġeastern	11497
ĠFITNESS	11497
ĠExpression	11497
ĠBesides	11497
ĠDR	11495
066	11494
Ġacqu	11494
formation	11493
abilities	11492
Ġdistress	11491
Ġ1950	11491
Ġrevised	11490
299	11488
998	11485
ĠStep	11485
PAGE	11484
................	11484
AQ	11481
Ġevolutionary	11481
ĠKeep	11481
outing	11480
Ġinst	11480
Ġcompile	11478
ĠWales	11477
810	11476
lif	11475
Information	11475
Ġselecting	11471
program	11469
haw	11469
ervation	11469
chlor	11469
offs	11467
iny	11465
Ġbuttons	11465
identifier	11464
Save	11464
ĠCollection	11464
nv	11463
ifi	11461
678	11461
Ġsuspicion	11461
Ġclinically	11460
ĠTri	11460
501	11457
ardo	11452
Binding	11450
226	11450
904	11448
236	11448
Ġdivorce	11448
Ġtumour	11447
erto	11442
===============	11441
608	11440
ĠSand	11440
astro	11439
Ke	11439
))\	11438
rang	11437
Ġstationary	11436
asse	11435
304	11435
ĠUSB	11435
ĠSenator	11435
iano	11434
counter	11434
567	11434
âĪ	11433
Ġviability	11433
Ġconsumed	11432
ĠCruz	11432
racy	11430
ĠSF	11430
idence	11429
Ġprimers	11428
Ġdesktop	11428
ĠNight	11427
enders	11426
Ta	11425
Ġrival	11425
ĠMas	11425
serving	11423
Ġci	11423
DW	11422
607	11421
conn	11420
Ġillustrate	11420
unique	11418
ECT	11418
Ġranked	11418
Ġloads	11418
Valid	11417
Ġsusceptible	11417
idy	11414
ĠSL	11414
Ġrecipes	11413
Ġ``	11412
Ġrelevance	11411
osomal	11410
ĠPhilip	11410
Ġcounted	11409
Ġ1973	11409
ANCE	11408
Ġdisclose	11408
six	11404
prec	11404
mans	11404
Ġthereafter	11403
quoting	11401
initial	11401
Ġpainful	11401
384	11400
Ġpremium	11400
ĠVietnam	11398
Ġtar	11397
ĠUtah	11396
ymph	11394
miss	11394
Further	11393
flex	11392
dash	11391
Ġtre	11391
holding	11390
Ġpub	11389
Ġty	11387
utions	11386
SHA	11386
ĠCredit	11385
ican	11382
cli	11382
Act	11382
537	11382
317	11382
034	11382
Ġfuck	11379
ĠNotice	11379
ĠCaptain	11379
Ġdesc	11378
Ġ122	11378
Ġrh	11377
does	11375
Ġallocation	11372
621	11371
rup	11370
icates	11370
RX	11370
Mask	11370
Fa	11370
Ġgoogle	11369
wind	11368
hoe	11367
906	11367
lion	11366
^*$	11366
Ġappellants	11364
Ġpink	11362
ĠPass	11362
Ġhex	11361
agan	11360
=>	11359
Ġarts	11359
ilers	11358
404	11357
Ġendogenous	11354
241	11353
Ġfigured	11349
sense	11348
ĠBlood	11347
Ġintroducing	11345
ĠResponse	11345
ĠTreatment	11344
Ġcenturies	11343
phen	11342
ĠMont	11342
Ġpredetermined	11341
ĠOtherwise	11341
Ġskip	11340
wed	11339
Ã¥	11338
itÃ©	11336
USER	11335
uge	11334
576	11334
egan	11333
Ġtickets	11331
601	11328
405	11328
execute	11327
ĠLouisiana	11326
Ġaffidavit	11325
Ã©t	11323
Invalid	11322
ĠLater	11322
Attributes	11321
ĠAssistant	11321
xsd	11320
pattern	11318
Ġconform	11317
editor	11315
bach	11315
Ġprolonged	11315
æľī	11313
fileID	11310
Ġincidents	11307
emat	11304
controller	11304
Ġlemon	11303
Ġgraphics	11303
quin	11302
Ġtrap	11302
Ġcrossed	11301
Ġ$|\	11300
ATCH	11299
Ġmount	11299
Ġamplification	11299
ĠPen	11299
ĠArts	11299
Ġfurniture	11298
Ġintr	11295
ĠDouble	11295
ĠML	11294
Ġmyth	11292
Ġgrey	11290
were	11289
Ġfetal	11288
Ġcone	11287
dent	11286
atri	11285
Ġwr	11283
auer	11280
Ġmag	11279
Ġtackle	11278
ĠâĢľ[	11277
Che	11276
Ġconjunction	11276
hum	11274
ibr	11273
Ġ1972	11272
ĠFront	11271
ç»	11269
(-\	11268
ĠPhysics	11268
omers	11266
Ġexec	11264
Ġseemingly	11263
Ġcorrections	11260
Ġventricular	11258
ĠCat	11258
Aut	11255
Ġcertified	11255
615	11254
ĠJean	11252
519	11247
okes	11246
Ġrelax	11246
Ġrecommendation	11245
Ġlam	11245
Ġemb	11245
Ġinsured	11244
fly	11242
ERN	11242
etin	11235
Ġevolved	11235
player	11233
Related	11230
ĠSI	11230
233	11226
Ser	11225
IND	11225
Art	11225
Ġtel	11225
bis	11223
aldehyde	11223
Ġrem	11223
Memory	11222
Ġcursor	11222
ĠSat	11222
Â£	11221
Ġdismissal	11221
ĠRoy	11220
inct	11218
ĠAffairs	11216
hbox	11215
plicit	11214
arXiv	11213
Ġemployers	11213
Ġbrands	11213
gage	11211
Ġtransverse	11211
Ġdx	11209
uis	11208
acting	11208
194	11208
Ġregret	11208
Ġcontamination	11208
ĠNetherlands	11207
---|---|---|---|	11206
Ġhyd	11205
Ġ[$	11204
ĠFarm	11204
ĠiPhone	11202
Ġundergoing	11198
Ġrotating	11198
Ġ124	11198
Ġtwelve	11197
Ġorthogonal	11195
ĠGA	11195
Ġcurious	11194
à²	11193
CHECK	11193
Ġlum	11193
Ġang	11193
Ġ.$$	11193
ctrl	11192
ience	11190
Meta	11189
Folder	11189
Ġawards	11189
ĠDark	11189
430	11186
Ġdemonstrating	11186
)](#	11184
oons	11183
claimed	11183
aman	11183
Ġelectr	11183
ĠMERCHANTABILITY	11183
Ð³	11182
760	11181
ĠHart	11181
enger	11180
ĠGP	11179
Ġcorrupt	11178
Simple	11176
imo	11174
Ġwise	11173
097	11172
Ġradi	11172
Ġbail	11172
eca	11170
Fr	11167
.""	11166
athy	11164
EY	11164
648	11164
Ġsheep	11164
Ġfulfill	11163
Ġdynamical	11163
Ġdesert	11163
unc	11162
Ġprim	11162
ĠDI	11161
Ġtongue	11160
ĠMount	11159
ĠUnlike	11157
ject	11155
Ġordinance	11153
este	11151
ĠBlock	11151
VALUE	11150
Ġsettle	11150
Ġrecombinant	11150
Ġcouples	11149
Ġbro	11148
472	11145
ĠNASA	11145
Ġfeasible	11144
251	11143
chers	11141
Ġ,\	11140
]$.	11139
owns	11137
Ġpublications	11137
Ġachieving	11137
ĠAdv	11137
ä¸Ģ	11136
Package	11136
Ġâī¤	11136
Ġinfectious	11136
ĠTokyo	11135
903	11134
}}({\	11133
Ġhabit	11133
hall	11132
Ġorbital	11132
resistant	11131
Following	11127
Ġbol	11127
072	11126
Ġminim	11125
Ġdrain	11125
ĠMountain	11125
ags	11124
Ġtopology	11124
Ġpressed	11121
Ġblade	11121
ĠSOFTWARE	11119
imer	11117
cir	11115
Jo	11113
,\\	11113
Ġsorts	11113
Ġenrolled	11112
ĠFi	11111
Ġcylinder	11109
ĠAppendix	11107
isi	11105
+{\	11105
ĠAV	11105
into	11104
Ġlesson	11104
Ġdialogue	11104
gm	11102
general	11102
APP	11102
Ġhoped	11100
ORT	11099
independent	11098
219	11098
Book	11096
Ġexcuse	11096
omet	11093
309	11092
323	11090
Ġupload	11090
uu	11089
Ġrigid	11089
Ġspontaneous	11086
}}}_{	11085
ĠSenior	11085
ĠNK	11085
Ġabdominal	11084
.");	11083
ĠSign	11082
ÃŃa	11081
Ġswimming	11078
SYS	11076
Ġoutputs	11076
ĠChi	11074
647	11072
Ġcontacted	11072
Ġinappropriate	11069
ĠMayor	11069
Ġast	11067
ĠHS	11065
803	11064
Ġphenomena	11063
Ġactivate	11060
Ġcollabor	11059
Ġcmd	11059
ogan	11057
Del	11057
Ġsnap	11057
verted	11056
Lock	11056
Ġunemployment	11055
Ġcas	11055
ĠResources	11055
yb	11054
Uh	11051
FOR	11051
Ġsho	11051
ĠCustom	11051
emphasis	11050
inar	11049
087	11049
Ġ1974	11049
iÃ³n	11047
Ġdeletion	11046
jit	11044
Ġmanufacture	11044
iates	11043
Ġdisplacement	11043
Ġcond	11042
groupId	11041
esc	11040
).](	11040
707	11039
Ġconvictions	11037
ĠEngineering	11037
Therefore	11036
Ġcerebral	11035
ĠJS	11033
ÂĮ	11032
osity	11032
ocker	11032
Ġtowns	11031
Ġmicroscope	11031
Ġexponential	11031
Ġdebut	11031
ĠDrug	11030
Ġtubes	11029
IGHT	11028
Ġlips	11027
Ġvon	11025
Ġtheft	11024
ToString	11023
Ġë	11023
Ġhint	11023
ĠNeither	11021
erie	11019
Ġpromotes	11019
ĠUSE	11019
igner	11017
vic	11014
diction	11014
ISH	11014
Ġthreads	11013
ĠJacob	11013
Ġsends	11012
Ġcontributes	11011
burn	11010
Ġfatigue	11010
ĠÎ¼m	11008
ĠLPS	11008
Ġundergo	11005
Ġineffective	11005
Ġbabies	11005
Ġspecification	11004
à¦	11002
Ġneighbor	11001
Ġhorses	11001
spe	10999
Remove	10998
ĠMusic	10996
666	10995
Ġrental	10995
ĠSimon	10995
Ġ126	10995
manager	10994
Doc	10994
itations	10993
ardi	10990
ĠJerusalem	10990
Pass	10989
Ġloops	10989
Ð¼	10988
Ġ"âĻª	10988
school	10985
Ġdig	10985
tract	10984
Ġflesh	10982
606	10981
radius	10980
Ġpaste	10980
ĠSurvey	10979
ĠCB	10979
olf	10977
Timer	10977
Ġpit	10977
Ġscared	10976
lessness	10975
ĠVo	10975
311	10974
information	10973
vet	10972
ĠFE	10972
ochemistry	10971
Ġspark	10970
ĠSupp	10970
Ġextensions	10969
Ġdefence	10967
Ġ'/	10967
cpu	10966
cond	10965
ĠDisease	10964
Ġlocus	10963
Ġantenna	10963
cial	10961
azole	10961
ifer	10960
"],	10959
Ġaqueous	10959
hydroxy	10958
555	10958
ĠBeing	10958
=\"	10957
ĠFourier	10956
sight	10955
STATUS	10954
520	10954
402	10954
course	10953
UST	10953
ĠMaterial	10953
LIST	10952
069	10952
Ġproposals	10952
ĠWHO	10951
617	10950
clusive	10949
Ġtent	10949
Ġmarginal	10948
Ġinstability	10947
:[	10946
Ġextraordinary	10941
Ġga	10940
too	10939
TOR	10939
artifactId	10937
ĊĊĠĠĠĠĠĠĠĠĠĠĠĠ	10937
elles	10935
\](	10935
ĠProv	10935
ĠDick	10935
Âı	10934
INSERT	10932
Ġconcentrated	10932
ĠPremier	10929
ipper	10928
Bean	10928
ĠEu	10928
ributed	10927
months	10923
Scale	10921
ilities	10919
atics	10918
Ġinterrupt	10918
Ġbeneath	10918
Ġweighted	10915
Ġuniformly	10915
Ġpharmaceutical	10915
trace	10914
anol	10913
Ġdistinguished	10913
}^*	10911
plo	10911
Ġinstructed	10911
ogra	10909
mium	10907
icky	10905
'))	10902
Ġtransfected	10902
Ġlegacy	10902
Ġdrinks	10901
ĠGraph	10900
Ġslip	10899
udd	10898
418	10898
etes	10897
akers	10897
INS	10897
Ġdistal	10897
Ġbas	10897
psych	10896
GD	10895
ationally	10893
811	10893
]*	10891
ĠUs	10891
Ġ135	10891
cout	10890
Ġanonymous	10888
Ġfacial	10887
atar	10886
ĠThompson	10886
Ġtrailer	10884
ason	10883
Ġclustering	10882
forward	10880
Ġnegatively	10879
ĠDetroit	10879
Ġwrapped	10877
Ġjunction	10877
Ġdelta	10875
ĠVice	10873
Ġcooked	10872
ĠINT	10871
ĠRon	10870
Ġ(âĪĴ	10869
243	10868
Ġqueries	10868
Ġdirectors	10868
reams	10867
Ġsynthesized	10867
ĠMg	10867
cover	10866
Ġinfluences	10865
Ġrally	10864
pv	10862
HU	10862
275	10862
scription	10861
Ġstocks	10861
Arg	10856
dynamic	10854
Ġlabour	10854
contin	10853
bold	10853
Ġol	10851
Ġabroad	10851
Sen	10848
Ġbacked	10848
Ġtranslated	10847
ĠOntario	10847
reading	10846
Ġsurveys	10846
ĠFI	10846
driven	10845
BER	10845
oos	10844
aken	10844
ĠMM	10843
dies	10841
Ġautomated	10837
Ġhopefully	10833
705	10832
089	10832
Ġwithdrawal	10831
Ġheated	10831
aped	10830
../	10830
Ġpose	10830
ĠâĨĴ	10829
Ġproducers	10829
Ġdeciding	10829
xb	10828
ãĥ¼	10827
ryl	10826
complex	10825
LG	10825
Ġimmuno	10825
ĠRecently	10825
Ġclo	10824
scape	10823
rug	10823
Ġexploration	10818
ĠSafety	10816
bigl	10815
Should	10815
603	10815
olved	10814
Ġdependency	10814
Ġcriterion	10814
ĠSweden	10814
plications	10811
Lin	10811
usk	10808
Wal	10807
Ġwhilst	10806
Ġharmful	10806
Ġfatal	10806
idation	10805
Program	10805
Ġvalidated	10804
Ġstatutes	10804
Ġdrew	10804
Ġreleases	10803
EMENT	10802
Ġvis	10801
Ġsons	10801
Ġenterprise	10801
ĠNT	10801
ĠShort	10798
Ġsustain	10795
Ġcomprised	10795
Ġoccupation	10794
their	10791
Ġsensory	10791
ĠLORD	10791
itative	10790
boot	10790
ĠAustin	10790
Ġremind	10789
ĠCIA	10787
Ġcervical	10786
ĠTor	10784
Ġrubber	10783
098	10782
Ġmer	10782
sat	10781
ê	10780
ĠMexican	10780
fty	10779
Ġutilizing	10778
KP	10777
Ġmyocardial	10776
login	10775
Ġpediatric	10775
ĠSaint	10774
1981	10773
svg	10772
LIB	10772
Ġpred	10772
Ġethics	10770
Auth	10769
Ġplotted	10768
ĠVideo	10767
Ġtunnel	10765
Ġhill	10765
hpp	10764
Light	10764
ĠCounsel	10764
ĠWright	10761
Ġalloc	10760
ractor	10758
RES	10758
Card	10758
Ġhouseholds	10757
ĠSteven	10757
ĠDown	10757
Ġhub	10756
success	10753
čĊčĊĠĠĠĠĠĠĠ	10752
agged	10751
Ġshower	10751
:'	10750
Ġdiscipline	10750
ĊĊĊĠĠĠĠĠĠ	10748
Ġunstable	10747
props	10745
rpc	10743
Ġns	10742
})=	10741
Len	10740
,*	10740
Ġheaders	10740
Ġcollecting	10739
ĠAnthony	10739
Ġ129	10739
ados	10738
Ġeliminated	10737
ĠGuide	10736
navbar	10735
Ġrendering	10735
Ġphosphate	10734
ĠIl	10734
nger	10732
910	10731
Ġrestored	10730
Ġfractions	10730
rice	10728
709	10728
Ġshaped	10728
weet	10727
078	10727
ĠRC	10727
lys	10725
Ġvacation	10725
ĠMother	10725
575	10723
ĠUP	10723
rif	10722
258	10722
Ġtoll	10721
Ġcompromise	10720
Ġhabits	10719
Ġcharacterize	10719
ĠBuilding	10719
working	10717
vd	10717
gnu	10715
Ġpsychiatric	10715
Ġmapped	10715
Ġterrorism	10712
rites	10710
ĠMich	10710
smallcaps	10709
illo	10709
arth	10708
Flow	10708
ĠBad	10708
ĠDemocrat	10707
ĠAk	10705
^{+	10704
~(	10703
Ġrevision	10702
Ġelastic	10701
functions	10700
Lib	10700
Bio	10700
=\{	10700
hesis	10699
Ġharsh	10699
stitutional	10698
created	10697
uru	10696
Au	10695
Ġbrush	10695
Ġbeef	10693
irk	10692
eny	10692
Ġopposing	10692
ĠCam	10692
Selection	10691
Ġcytokine	10690
Ġgravitational	10688
ICK	10687
Ġtons	10685
wl	10683
amped	10682
EDIT	10682
055	10682
Ġcelebrate	10682
ĠMonte	10680
ĠET	10679
à¤°	10675
Ġquestioned	10674
TAG	10673
Ġspr	10673
Ġgrows	10671
ĠFourth	10670
ainer	10669
Ġears	10669
Conf	10668
Google	10665
Ġsubjective	10665
abb	10664
ĠExpress	10664
Ġ256	10664
Details	10661
Ġbitter	10660
ĠFin	10659
Ġdeposited	10658
Ġdemanding	10658
anded	10657
925	10657
Ġregards	10657
ĉĉĉĉĉ	10657
Ġcomedy	10656
cord	10655
Ġencouraging	10655
ĠSha	10655
Ġtranscriptional	10653
Ġenabling	10653
Ġaluminum	10652
Mat	10650
Ġdf	10650
olate	10649
Ġchemistry	10649
Ġexploring	10648
gue	10646
ection	10645
lined	10644
^.	10644
Repository	10644
Ġrounds	10644
ĠSummary	10643
370	10642
Ġelite	10642
ĠSEC	10642
borne	10641
Notification	10641
Ġessence	10641
Ġfn	10640
Delegate	10639
Ġabandon	10637
ĠHard	10637
Ġreservoir	10636
Ġillustrates	10636
Ġ700	10634
Ġdrunk	10633
annotation	10632
ĠMus	10632
)'	10631
321	10630
Ġlane	10630
911	10629
Ġpride	10628
ool	10627
icating	10627
akh	10627
Ġsteam	10627
Ġrefugees	10627
von	10626
ĠOlympics	10625
nick	10624
Ġremembered	10622
Ġoffenses	10621
tables	10620
Ġsubsection	10620
chin	10619
Ġpole	10619
Ġkinetic	10619
1111	10618
Ġhepatic	10618
ĠRoss	10618
ĠPH	10618
ethyl	10617
259	10616
Ġmusical	10616
mentation	10615
voc	10614
rix	10614
Ġfavour	10614
Ġ03	10614
Ġexamining	10610
ĠLady	10610
Ġcumulative	10606
Ġconscious	10606
STRING	10605
ADD	10605
ĠFR	10605
Comment	10604
asion	10602
Ġassessing	10601
lied	10600
Cir	10600
506	10600
Ġscandal	10598
Ġcoaches	10598
ĠCulture	10597
ules	10595
Ġdining	10595
amic	10594
Ġ'<	10594
568	10593
AZ	10592
Ġjournalists	10592
Ġimproper	10591
qq	10589
porter	10589
andra	10588
ĠMarx	10588
xim	10587
545	10587
Ġwalks	10587
ĠDer	10587
Ġcoronavirus	10585
upon	10584
character	10584
Ġmetals	10584
sequence	10580
STATE	10579
Ġexpecting	10579
Ġanticipated	10579
ĠDS	10579
Ġbiopsy	10577
ĠANOVA	10577
ĠFDA	10576
kowski	10575
})^	10573
makers	10573
Ġincomplete	10573
Ġforcing	10573
ĠPas	10573
ÂłÂłÂłÂł	10572
í	10571
390	10570
Ġmac	10568
MV	10567
LONG	10566
rock	10565
imb	10565
Mintage	10565
Ġprimer	10565
ĠSize	10565
robe	10564
Ġopponents	10563
essions	10561
Ġpassive	10561
shop	10560
mits	10559
ĠAtlanta	10559
por	10557
cov	10556
COMP	10555
Ġbra	10554
ĠEmpire	10554
ression	10552
mine	10552
Ġedited	10552
Ġallocated	10551
Ġmounting	10550
igan	10549
ĠINTO	10548
á	10546
formula	10546
anton	10546
708	10546
National	10544
Ġgit	10544
ffered	10540
Ġmechanics	10537
logs	10536
Af	10536
Ġchampionship	10536
062	10532
ĠExchange	10532
ĠJon	10530
Ð¾Ð´	10529
rains	10529
Ġpreceding	10529
lua	10528
icator	10525
fusion	10525
Ġalarm	10525
ĠEPA	10525
zh	10523
genes	10523
Ġoz	10523
ĠAddress	10523
ĠBowl	10521
Ġtex	10520
Ġslower	10520
ĠDeputy	10519
ĠHeart	10518
ĠFestival	10517
Ġhind	10516
}_{-	10515
ĠHAVE	10512
Ġactin	10511
Ġdeposit	10506
stit	10504
azz	10504
ĠBarack	10504
Court	10503
Ġye	10503
408	10502
Ġbandwidth	10502
Ġ07	10502
074	10496
510	10495
season	10490
osi	10490
awk	10490
Ġgeometric	10490
bigr	10489
umble	10488
565	10488
/)	10488
Ġ131	10488
Keys	10486
ĠStaff	10486
]{}.	10485
best	10482
Ġwashing	10480
Ġantibiotic	10479
ĠSupplementary	10479
SOURCE	10478
Ġhosted	10476
faces	10474
Ġqualify	10474
612	10473
Ġdeparture	10472
ĠGreece	10470
åħ	10468
odd	10468
Ġallies	10468
Ġbypass	10467
Ġauthentication	10467
ĠMoscow	10466
670	10464
Ġcontainers	10464
ĠCarter	10464
ĠRemove	10463
ĠFer	10463
erring	10462
Cons	10458
Ġdamn	10458
Great	10456
Ġpancreatic	10455
Ġavoiding	10455
Ġadaptive	10455
Database	10454
ĠÐ	10454
xl	10453
itary	10452
boolean	10452
Best	10450
Ġeth	10448
Ġdiabetic	10448
Ġ360	10448
Ġthroat	10446
Ġsimplicity	10446
ĠCONDITIONS	10446
istics	10445
265	10445
middle	10443
asting	10442
Send	10441
Ġadventure	10441
ĠLaboratory	10441
Ġsummarized	10440
Ġpassengers	10435
entity	10434
citation	10434
ĠManchester	10432
Ġregulating	10431
635	10430
Ġthoroughly	10429
Ġtan	10428
ĠDuke	10428
TW	10427
598	10424
Ġborders	10424
gui	10423
:-	10423
Ġagrees	10422
enko	10421
604	10421
Ġwhereby	10421
Ġfiltered	10419
Ġhet	10418
Ġjoke	10417
239	10416
Ġadequately	10415
roph	10414
rase	10414
something	10413
ressing	10413
618	10413
Ġattitudes	10413
deal	10411
Ġwhis	10411
Ġclearance	10411
Ġcaptain	10411
242	10410
ĠTA	10409
Ġoutlined	10408
ĠLED	10405
amino	10404
ä¸į	10401
taking	10399
Proof	10399
318	10399
Ġnights	10399
mitt	10397
Ġcop	10397
hur	10395
Sk	10394
Ġtransmit	10394
Ġsurvived	10394
Single	10393
ĊĊĊĠĠĠ	10393
348	10392
ĠPub	10392
Ep	10391
frequency	10387
dates	10387
Ġelectro	10387
Ġrecipient	10386
lich	10382
Ġ\+	10382
nell	10379
Ġhandful	10379
809	10377
\}$,	10375
Normal	10375
Character	10375
Ġrejection	10375
Internal	10373
Ġwrit	10373
Ġsitu	10371
266	10370
owned	10369
ĠDoctor	10369
eters	10368
866	10368
Ġreproduce	10368
Ġenrichment	10368
Ġcrude	10368
Ġperformances	10367
Ġcir	10366
ĠCountry	10366
Ġmalignant	10365
ĠOP	10364
ĠEL	10364
LIN	10363
HB	10362
257	10362
Ġscrew	10362
Person	10360
Ġschema	10360
="-	10359
Ġdeadly	10359
ordinate	10357
CTION	10357
ĠLib	10357
546	10356
Ġqualitative	10356
Ġhorror	10355
Ġproving	10354
inding	10352
572	10352
Ġcausal	10352
ÎºB	10350
Ġvirtue	10349
Ġcontinuum	10349
gz	10348
luent	10347
Ġluminosity	10344
INGS	10343
324	10343
Ġsensing	10343
ĠPatrick	10342
ĠVar	10341
ĠStatus	10341
}_{{\	10340
atches	10340
Ġflip	10339
ĠEditor	10339
ĠMic	10338
iens	10337
249	10337
ĠBall	10337
ĠCrim	10335
mini	10332
Ġappellee	10332
setting	10331
Ġkin	10331
friendly	10330
typename	10329
686	10329
Ġsink	10329
{%	10328
voice	10328
loader	10328
Ġorganisation	10328
Ġdear	10328
union	10325
inks	10325
Ġinteracting	10325
ĠDVD	10324
Sorry	10323
287	10321
Move	10320
Ġ170	10319
irt	10318
Follow	10318
Ġdirty	10318
Lu	10317
690	10317
Ġcyber	10317
ĠWarren	10317
345	10316
668	10315
Ġhighway	10315
Ġpreferences	10314
ergic	10313
Scroll	10313
338	10312
937	10311
ĠBon	10311
olving	10310
Symbol	10310
Conclusion	10309
ĠBro	10309
Pop	10306
:"){	10305
Ġexert	10305
ĠAlaska	10304
inates	10302
collection	10300
webkit	10299
/$	10299
Ġcritics	10299
Ġmaintains	10298
Ġcampaigns	10298
ĠPor	10297
Support	10296
551	10296
alb	10295
Ġton	10295
åĲ	10294
named	10294
Ġforeach	10294
Ġdeployment	10293
Ġspecialized	10292
Ġdeck	10292
725	10291
Ġquotes	10291
Ġ04	10291
lash	10290
Ġclone	10290
460	10289
Ġbesides	10289
closed	10288
Animation	10288
ortal	10287
vubuntor	10285
Ob	10285
Ġproductivity	10285
Ġfasc	10285
ĠBASIS	10285
Ġ132	10285
nw	10284
ska	10283
Ġpropagation	10283
ĠLevel	10283
Ġconnectivity	10282
goto	10281
Ġcourage	10281
ceptive	10280
EU	10280
Ġsubs	10280
Ġdemographic	10279
Ġgoverned	10277
Unknown	10275
xd	10272
gets	10272
Ġprobes	10272
bol	10271
functional	10270
)},	10268
Ġbull	10268
ĠĠĠĠĠĠĠĠĠĠĠĊĠ	10266
Ġcompiled	10265
policy	10264
pcbi	10264
Power	10264
South	10262
ĠEarly	10262
Ġproximity	10260
storage	10259
pie	10257
Ġacceleration	10256
atus	10255
Ġfac	10255
enti	10254
ITS	10254
icians	10253
703	10253
Native	10252
supp	10251
environment	10250
ikes	10249
Ġlisting	10249
Sam	10248
stitution	10247
otted	10247
Miss	10247
ĠTaiwan	10247
~.	10246
Hu	10246
071	10246
Ġengines	10246
Ġcurrents	10246
244	10245
ĠRelations	10244
ĠArch	10244
lx	10242
.__	10241
memory	10240
286	10239
ĠFranklin	10239
Xml	10238
Ġple	10238
complete	10236
Ġrolled	10236
yx	10235
Ġidentifier	10235
KO	10234
Ġelementary	10234
Tom	10232
'+	10229
Ġtower	10229
Ġtender	10229
ĠCloud	10229
cession	10228
Ġpotentials	10227
Ġharassment	10227
GER	10226
ÐµÑĤ	10225
variable	10225
WH	10225
950	10224
704	10224
Ġmeters	10221
Ġjunior	10221
ĠOrgan	10221
637	10219
icus	10218
VT	10218
PIN	10217
Ġequals	10217
Ġbanking	10217
flu	10216
bing	10216
Ġenriched	10216
nett	10215
Ġsituated	10215
Ġdisable	10215
Ġstake	10212
Ġperforms	10210
Ġmountains	10209
holder	10207
MAC	10207
415	10207
Ġutil	10207
Still	10205
........	10205
915	10204
1979	10204
Ġspite	10204
Ġrecruited	10204
ĠAnimal	10204
hide	10203
328	10203
Ġtot	10203
SIS	10202
432	10202
Ġburied	10202
opy	10201
hea	10201
Several	10201
Ġdevoted	10201
ĠLeg	10201
Ġanchor	10199
download	10198
nty	10197
FW	10196
656	10195
ĠSite	10194
ĠReference	10193
Ġcompanion	10192
focus	10191
external	10191
326	10191
Ġindicators	10191
Ġdefeated	10191
Ġbeans	10191
Ġcatheter	10190
Ġpronounced	10189
337	10185
322	10185
857	10184
294	10184
0100	10184
+}	10184
ĠStop	10184
submit	10183
President	10183
Ġquarterback	10182
though	10181
Ġshoulders	10180
Ġgaming	10180
518	10179
Standard	10178
vention	10176
mult	10176
important	10176
Ġcy	10176
Coll	10173
mates	10171
Ġextensively	10170
REF	10168
ĠSeason	10166
Ġabs	10164
ĠStatistical	10164
Ġmineral	10162
ĠGulf	10162
Ġrod	10161
Ġblend	10161
ĠTarget	10161
theme	10160
482	10160
Ġdisrupt	10160
ÛĮ	10159
WO	10158
ĠRevolution	10158
Ġsaline	10157
LED	10155
787	10155
092	10155
links	10154
807	10152
Ġspo	10152
Ġauth	10152
Ġdeployed	10151
validate	10150
istically	10150
Ġconsist	10150
Ġirrelevant	10149
ird	10148
YM	10148
Library	10148
Mock	10147
Ġdielectric	10147
Ġabnormalities	10146
Ġceremony	10145
AVE	10144
Ġracing	10144
ĠmiRNA	10144
Ġcalibration	10144
Ġtouched	10143
Ġstrikes	10143
Ġministry	10143
336	10142
Ġthemes	10142
ĠChen	10142
ARS	10141
268	10140
going	10139
ĠDigital	10139
ĠAtlantic	10139
iden	10138
Ġascending	10137
ĠMill	10133
558	10132
Ġbrilliant	10132
PACK	10129
Ġresponding	10128
ĠNative	10128
808	10127
ĠAli	10127
Ġabused	10126
pent	10124
675	10124
590	10124
448	10124
unes	10123
Ġgrasp	10120
idated	10118
347	10117
Ġdepicted	10117
Ġoverview	10116
MW	10115
Ġarrangements	10115
Ni	10113
MODE	10113
Ġnovo	10113
social	10112
Ñħ	10111
odium	10111
Ġparental	10111
Ġconsequently	10110
orous	10109
Ġ240	10109
components	10108
between	10108
952	10108
Ġ192	10108
aper	10107
third	10105
bia	10104
OUND	10103
Ġresection	10101
Ġ[$\	10101
gmail	10099
Meanwhile	10099
Ġfixing	10098
Ġexercises	10098
425	10096
later	10095
ensis	10095
IH	10095
Ġfluor	10093
ĠSin	10092
083	10091
Ġfears	10089
jquery	10088
Ġaccepting	10088
bies	10085
Ġzones	10085
Ġemotion	10085
ĠEND	10085
Ġboo	10081
ĠGET	10081
234	10080
Ġprompt	10080
Ġranks	10076
313	10075
Ġfeaturing	10075
cks	10074
Ġreproductive	10074
iev	10073
inking	10072
ĠDeath	10069
Ġinterfaces	10068
Ġaccommodate	10068
jc	10067
KH	10065
Ġintegr	10065
poly	10064
ĠRobinson	10064
nals	10063
fre	10063
Ġwishes	10063
Ġinadequate	10062
Ġabundant	10062
706	10061
rub	10060
subject	10058
anta	10058
weak	10057
Ġhunting	10057
ound	10054
carb	10053
1001	10053
**:	10053
Ġdemanded	10053
Ġportable	10052
rail	10051
apers	10051
DES	10051
ictions	10050
272	10049
Ġnotable	10049
Ġgaps	10049
entials	10046
dll	10046
fol	10044
Ġinvoke	10044
ĠSeven	10044
407	10043
444	10041
403	10040
Ġtrips	10040
ĠIron	10040
large	10038
pag	10037
Ġnotification	10037
ĠIranian	10037
ĠMart	10036
English	10035
081	10035
Ġrib	10035
Ġforgotten	10035
toggle	10033
fg	10033
Though	10033
Ġsophisticated	10032
Ġdeputy	10031
aded	10029
Ġrabbit	10029
Ġcompositions	10029
ĠCooper	10029
;;	10027
single	10026
bro	10025
Î½	10024
xff	10024
ĠPers	10024
ĠBody	10024
331	10023
Ġgerm	10023
Html	10021
368	10020
Green	10017
GU	10016
560	10016
335	10016
]+	10014
door	10013
]$,	10011
#.	10011
Ġprintf	10011
Ġsearches	10009
Ġbubble	10008
ĠLat	10008
beat	10007
)}}	10007
Paul	10006
panel	10003
357	10003
ĠEconomic	10003
290	10002
generation	10000
SSL	10000
ĠTal	10000
ĠProcedure	10000
Ġbiochemical	9999
Det	9998
lium	9997
elf	9997
Visible	9997
Ġcentered	9996
Ġspreading	9995
557	9994
soft	9993
416	9993
Ġloving	9993
297	9992
Ġparadigm	9992
Ð½Ð¾	9990
571	9989
}|\	9988
period	9988
rou	9987
Ġproductive	9985
crete	9984
Ġrestrict	9983
Ġjournalist	9982
ĠFifth	9981
Encoding	9980
574	9980
Ã£o	9979
schemas	9978
559	9978
ĠNM	9977
Ġcirculation	9975
ĠÐ¸	9974
DIS	9972
adr	9971
Ġarrows	9970
Ġvoices	9969
Ġprohibited	9969
Ġasc	9965
eston	9964
Variable	9964
327	9964
Ġju	9963
meric	9961
Ġaccompanying	9961
ĠNu	9959
GN	9958
oen	9957
kes	9957
Ġneg	9956
Ġcalculating	9956
ĠSol	9956
ĠINC	9956
Ùĩ	9955
looking	9955
grad	9955
ĠPP	9955
516	9951
iners	9950
Ġsq	9950
čĊĠĠĠĠĠĠĠĠĠ	9950
mile	9949
Ġhol	9949
Ġclicking	9949
ĠWARRANTY	9949
ĠSept	9948
ĠBeijing	9947
}</	9945
poses	9944
aug	9941
acity	9941
065	9941
Ġsteep	9941
ĠArabia	9941
Ġpension	9940
Ġciting	9940
Ġbones	9940
Ġassembled	9940
ĠBow	9939
ĠArthur	9939
intestinal	9937
Ġneglect	9936
apple	9935
Ġgently	9935
378	9934
ĠImmun	9932
483	9931
Ġadmits	9928
ä¸º	9926
rica	9926
902	9926
urable	9925
orin	9925
Ġclarify	9924
Ġtemple	9923
government	9921
Ġirregular	9921
symmetric	9920
Ġpathogenesis	9919
agent	9918
505	9918
oprotein	9916
Ġultrasound	9915
Ġrush	9915
paper	9914
Expr	9912
Ġgathering	9910
attered	9909
annon	9909
...)	9908
roy	9906
Ġreass	9906
Ġfre	9906
Ġdough	9906
Ġcattle	9906
ĠHad	9906
Ð¹	9905
acet	9905
serv	9904
cult	9904
Ġpredominantly	9904
Ġimplicit	9904
ĠDead	9903
TRUE	9902
Ġoutbreak	9902
HW	9901
hang	9899
Ġteaspoon	9899
rology	9898
Ġsongs	9898
Ġwaited	9896
Ġportfolio	9896
ĠWang	9895
wr	9894
887	9894
Ġnucleotide	9892
Ġlanding	9892
ĠLO	9892
Place	9891
Ñ	9889
inson	9889
Match	9889
261	9889
symbol	9887
435	9886
Ġquantified	9886
Ġ[âĢ¦]	9886
ĠUC	9886
Ġsoccer	9885
Ġrevenues	9885
316	9884
Ġnut	9884
phosphate	9882
Ġguided	9882
easy	9881
FLAG	9881
ĠYES	9881
253	9879
Ġstructured	9879
existing	9878
Ġphotographs	9877
usions	9874
MIT	9873
surface	9872
ĠBO	9870
ĠActive	9870
natural	9869
Ġimproves	9867
lux	9866
contact	9866
benz	9865
orf	9863
}}}}	9862
ĠKennedy	9862
Transform	9861
Ġquark	9861
Ġdent	9861
ensions	9860
rome	9857
Ġconsiders	9857
icer	9855
UAL	9855
=""	9855
Ġwooden	9855
Selector	9853
Ġanalyzing	9853
Ġamid	9853
504	9852
Ġinjunction	9852
ĠEt	9851
income	9850
keeper	9849
etting	9849
Having	9849
;<	9849
Ġpressing	9849
Ġskilled	9848
ĠRem	9847
Ġdump	9846
279	9845
ĠSR	9845
ĠCN	9845
eras	9844
Ġapi	9844
319	9843
ĠChem	9843
ooth	9842
Ġmanufactured	9842
ĠCommerce	9842
rically	9840
Ġstimulated	9840
Ġseverely	9840
Ġgifts	9839
socket	9838
proto	9837
Ġcotton	9837
ĠJay	9837
chro	9835
opts	9834
bor	9834
Ġpolls	9834
exception	9832
Ġurged	9832
Ġvapor	9830
Could	9828
{(\	9827
944	9827
parser	9824
Ġtypename	9823
ĠEXPECT	9823
289	9822
Ġtub	9822
ĠLegend	9822
502	9821
Ġfil	9821
batch	9820
Ġspherical	9818
Ġdressed	9818
Ġdarkness	9818
Ġinteractive	9817
285	9816
Ġoutlet	9816
Ġiter	9812
iger	9811
Draw	9811
OSE	9810
Ùİ	9808
icals	9808
503	9808
Ġhorizon	9807
562	9805
494	9805
Ġantioxidant	9804
Ġbadly	9803
mage	9802
Ġjavax	9802
SEC	9801
Ġranged	9801
ãģĮ	9800
Ġprisoners	9800
Ġplasmid	9800
ĠHO	9800
Ä	9799
Ġterminated	9799
å¾	9793
fact	9793
ĠKentucky	9793
Ġspecialist	9792
ĠRel	9792
ĠReact	9792
ĠSimple	9791
stances	9790
dL	9789
ĠDelhi	9789
react	9788
Ġarterial	9788
Ġps	9787
HQ	9786
cers	9785
Ġswitched	9785
Ġeager	9785
Ġsimpl	9784
Ġreception	9784
igration	9782
Ġdashed	9782
Ġcontend	9782
license	9781
NUM	9779
955	9779
Ġdictionary	9779
ĠStory	9778
oly	9777
ĠRs	9777
}%	9776
079	9775
ĠGraham	9774
Ġ220	9774
Ġbugs	9773
Ġanalytic	9773
+)	9772
Ġinch	9772
Ġsoluble	9771
processing	9770
812	9770
Ġmil	9770
Ġcortical	9770
Ġpaired	9769
ĠĊĠĠĠĠĠĠĠĠĠ	9769
Ġvarieties	9768
Âĳ	9767
phys	9767
Hand	9767
crim	9766
Ġwaiver	9765
Profile	9764
Notes	9764
anine	9763
=============	9763
mma	9762
Ġ1971	9762
})}	9761
dimen	9761
Ġsealed	9761
Ġsectors	9760
ĠJun	9760
Ġapple	9758
530	9757
Ġtur	9757
tub	9756
Duration	9756
455	9756
Ġvec	9756
Ġinability	9756
Ġbuilder	9755
Ġimprisonment	9754
ario	9753
Ġlogo	9752
Ġperf	9749
Ġbladder	9749
ushing	9748
Ġtap	9747
Ġgre	9746
Âµ	9745
Ġrefusal	9744
Ġcontractor	9744
ĠNMR	9744
662	9743
267	9743
Ġconstituted	9743
imes	9742
Du	9741
eor	9740
inary	9739
fort	9738
amas	9738
Ġshelter	9738
yme	9737
Ġwx	9737
ĠAdams	9735
Living	9733
onde	9732
ctl	9732
ĠEvidence	9732
Ġmanipulation	9731
acle	9730
070	9730
generative	9729
ĠLas	9729
prob	9728
eze	9727
racting	9725
ĠHot	9724
Ġgy	9723
Ġexpressly	9721
apse	9719
Ġfiltering	9717
jj	9716
ĠCreek	9716
Ġredirect	9715
olve	9714
0009	9714
Ġembryos	9714
ĠFat	9713
ĠDor	9713
Private	9712
Ġacres	9710
Ġpray	9709
Ġrecurrent	9708
ĠHarvard	9706
Ġtransistor	9704
Ġbilateral	9704
moving	9703
Ġvac	9703
Ġsoup	9703
ported	9702
Ġuncertain	9702
Ġintelligent	9701
pler	9700
aza	9700
isted	9699
Ġincorporate	9699
ĠMatthew	9699
805	9697
otypes	9696
opo	9696
856	9696
Ġtransplantation	9695
Ġswing	9694
ĠMedicare	9692
891	9691
Ġequivalence	9691
Ġaforementioned	9691
cht	9690
HV	9690
Michael	9689
ĠCV	9689
ĠMobile	9688
278	9687
Ġdesigner	9687
585	9686
ĠTraining	9685
Statement	9684
ĠTurkish	9684
owl	9682
Ġsupplemented	9682
Ġgarage	9682
ĠDom	9682
277	9681
Ġsubstituted	9679
ĠSup	9677
ĠIntroduction	9677
Ins	9676
ĠPal	9676
ivo	9674
="@	9674
Center	9673
344	9673
Ġmetadata	9673
}\,\	9672
Ġoverexpression	9672
Ġcookie	9672
writer	9671
Ġmus	9671
yman	9669
Ġdozens	9669
Ġseized	9668
clone	9667
ANC	9666
Ġprognostic	9665
polymers	9664
246	9664
Ġcoil	9664
Ġruntime	9663
oose	9660
mph	9660
iem	9657
367	9652
ĠTGF	9651
ĠPetitioner	9651
Ġrecon	9648
ulous	9646
dependency	9646
Ġproton	9646
Ġexceptional	9646
ĠItem	9646
posite	9645
Ġawake	9645
tery	9643
Rearrange	9643
("%	9642
ĠNH	9641
ableView	9640
Ġswe	9640
Îµ	9639
algebra	9639
Î¿	9638
&=\	9636
Ġmagn	9636
ĠHor	9636
framework	9635
bmatrix	9635
Ġreversal	9635
ylene	9634
ĠLD	9634
ĠIE	9633
angular	9632
Ġoptimized	9631
ĠGFP	9631
806	9630
Ġsupervision	9629
Ġpie	9629
Ġcompelling	9629
ĠNL	9629
488	9628
eland	9627
Ġunreasonable	9627
Ġcleared	9627
ĠNelson	9626
etry	9625
Vertex	9625
477	9625
dump	9624
475	9624
ĠCondition	9624
}$]{}	9622
ravel	9622
Ġpainting	9622
Ġmodest	9621
Ġdir	9621
Ġbeside	9621
Interval	9619
Ġlifted	9616
Ġsup	9615
ĠGordon	9615
\,{\	9614
Ġputative	9614
iota	9613
WD	9613
nea	9612
eton	9611
ĠJul	9609
country	9608
Ġdefinite	9607
Ġpresumably	9606
Ïģ	9605
Ġelectromagnetic	9604
ĠEverything	9603
iosis	9602
276	9602
sted	9601
aneous	9601
Ġstochastic	9601
ĠDifferent	9601
|_{	9600
492	9600
595	9599
ĠGuard	9598
enabled	9597
Tx	9597
Ġensures	9597
ĠMars	9597
804	9596
Ġimplicated	9595
Ġbeating	9595
ĠRepresentative	9595
ighter	9594
ðŁ	9593
Ġtimeout	9592
Ð±	9591
ĠBruce	9591
Ġproves	9590
Help	9589
Ġlean	9586
Ġcoalition	9586
MASK	9584
North	9583
Parse	9581
commit	9578
644	9576
Ġbears	9576
Figures	9575
389	9575
Ġdissolved	9575
Ġenvelope	9573
attle	9572
471	9572
isters	9571
Ġ1968	9571
services	9570
414	9570
Ġthumb	9570
Ġplanes	9568
Ġclaimant	9568
throw	9567
fore	9566
Rad	9566
Ġretrieve	9566
ĠTree	9566
agon	9565
Ġassumes	9565
Ġspectroscopy	9564
Ġsignatures	9564
Ġpathological	9563
Ġessay	9563
ĠIRS	9563
Ġinspiration	9562
ĠProtein	9562
Ok	9561
Ġenjoying	9561
'=	9560
Ġhon	9559
Ġvaccination	9558
Ġbrains	9556
Ġminus	9555
Ġcru	9555
ĠDenver	9553
>>>	9552
ĠLearning	9552
Ġdealt	9549
duced	9547
Ġunfortunately	9547
ĠPBX	9547
mutex	9546
cular	9545
ĠEv	9545
^{{\	9544
RON	9544
Ġbite	9544
Av	9543
783	9543
ivation	9541
540	9541
573	9537
Ġjuvenile	9536
273	9534
spring	9533
microsoft	9533
ĠLincoln	9533
training	9532
]{}(	9532
Ġports	9531
ĠRemember	9531
Ġnullptr	9530
ĠCox	9530
Ġhierarchy	9528
fulness	9527
296	9527
Ġdocumentary	9527
Ġmandate	9526
(@	9524
Ġaggregate	9524
Ġbreakdown	9523
ĠTed	9523
Ġagriculture	9522
ĠGas	9522
exper	9521
PRE	9521
Mapping	9520
Ġtetra	9520
="{	9519
Ġdischarged	9519
Sn	9518
Ġwarnings	9518
[...]
