.	51170353
,	43823232
Ġthe	41293078
Ġof	23445276
Ġand	19922253
Ġto	19273846
-	15977194
ĊĊ	15741367
Ġa	15693678
Ċ	14975944
Ġin	14358853
_	9998757
Ġis	9708039
Ġ(	8533634
Ġthat	8319094
)	7758660
Ġfor	7494011
Ġ	7092187
:	6976031
1	5984025
Ġwith	5760783
(	5604446
2	5566197
s	5343259
Ġ"	5254104
Ġon	4922086
/	4673047
Ġas	4499502
Ġbe	4393003
Ġwas	4358320
ĠI	4311334
Ġit	4291017
Ġby	3931430
Ġare	3893891
Ġ=	3867226
0	3794677
ĠĠĠĠĠĠĠĠĠĠĠĠĠĠĠĠ	3767738
;	3755326
Ġ-	3573150
Ġthis	3395475
ĠThe	3351024
Ġfrom	3296762
Ġ$	3293461
Ġat	3275266
Ġyou	3263113
{	3249735
âĢĻ	3220269
Ġor	3184135
*	3157689
Ġnot	3155102
Ġ\	3147881
}	3120502
Ġhave	2950850
\	2886085
's	2858667
Ġan	2840297
3	2808900
"	2747034
ĊĠĠĠ	2593806
Ġ0	2558872
>	2553494
Ġ*	2433511
Ġ1	2360496
Ġwe	2312182
Ġcan	2132134
Ġwere	2087039
."	1982942
$	1976937
Ġwhich	1953743
="	1943043
4	1921470
Ġhas	1881338
d	1814431
Ġ+	1803153
t	1784045
Ġ{	1783344
Ġbut	1769806
The	1756085
A	1754202
ĊĠĠĠĠĠĠĠ	1733145
?	1711296
x	1708062
Ġwill	1706013
Ġhe	1702972
).	1682925
5	1667376
Ġ2	1665943
a	1663794
Ġall	1642304
Ġif	1611649
ĠA	1601993
I	1585933
Ġhis	1571023
Ġone	1567397
ĊĠ	1566247
Ġthey	1506786
B	1491671
n	1479940
S	1435171
Ġtheir	1404632
Ġmore	1397573
C	1389074
**	1359634
i	1351327
Âł	1332873
]	1305382
_{	1297278
ĠS	1294151
Ġhad	1274867
Ġ$\	1264765
Ġbeen	1263530
<	1256608
'	1250464
Ġalso	1227975
Ġyour	1225728
Ġ<	1215418
),	1211777
ĠIn	1198752
6	1198642
);	1197229
p	1191911
Ġabout	1175676
=	1168851
Ġ3	1167725
ĠC	1164457
Ġwhen	1161906
c	1159978
Ġwould	1159603
b	1148722
Ġout	1144768
Ġtime	1139676
Ġso	1137497
Ġthere	1133777
^	1126314
Ġother	1110763
't	1109181
8	1089103
Ġmy	1084852
m	1076467
ĠâĢľ	1076221
Ġwho	1070713
[	1057952
Ġdo	1054902
Ġno	1054044
Ġthan	1043008
7	1040763
Ġup	1038912
Ġ[	1033318
----------------	1018313
ĠĠ	996071
f	993100
Ġits	982539
Ġinto	974937
Ġ'	973424
Ġ&	968604
Ġ}	963428
Ġour	945787
ĊĠĠĠĠĠĠĠĠĠĠĠ	944665
D	941370
Ġonly	939420
e	939169
Ġtwo	935102
Ġher	925993
Ġsaid	925698
Ċĉ	915964
ĠP	914234
P	909942
Ġlike	904536
Ġwhat	904409
Ġany	898601
Ġsome	887281
k	885848
R	885808
T	882735
Ġmay	881732
Ġnew	879830
9	877240
Ġ4	874190
g	872095
ĠM	871066
r	868172
ĠIt	866956
ĠB	864527
%	860884
ĠThis	859554
Ġ5	849196
Ġsuch	846932
Ġfirst	846799
F	846447
ing	839650
E	837564
Ġthese	828254
in	827774
ĠT	819639
Ġover	812925
Ġme	805550
ĊĠĠĠĠĠĠĠĠĠĠĠĠĠĠĠ	796297
Ġthem	796020
Ġget	794731
ref	786170
M	784619
type	781232
Ġuse	778119
ĠD	776389
Ġthen	772756
Ġjust	771975
Ġafter	765339
Ġp	757784
Ġbetween	756701
+	747830
h	735776
H	733982
N	729242
ĠWe	725022
",	720299
Ġused	719899
ĠR	717567
ly	715989
Ġcould	715169
j	714278
Ġwhere	714233
Ġdata	713231
.,	711843
ĠF	703893
ĊĠĠĠĠĠ	698123
</	696958
Ġv	695697
ed	695314
v	691246
L	690748
Ġs	688738
Ġpeople	685165
ĠL	683134
In	680772
Ġshe	666124
ĠH	665826
ĠE	664275
Ġusing	662344
#	660437
Ġbecause	654673
Ġi	653317
{\	652950
10	650601
G	649904
ĠG	640629
Ġ6	638688
Ġshould	626212
!	622038
ĠN	616244
Ġ[@	614609
Ġwell	614071
y	613839
}\	610820
Ġhow	603372
){	602322
Ġmost	598109
Ġ.	596681
Ġ10	595451
Ġeach	590828
Ġcase	586533
Ġhim	582742
Ġm	581025
Ġunder	579350
Ġclass	578548
Ġ|	574885
Ġc	567796
~	567673
u	565753
Ċĉĉ	564312
ĠU	564099
Ġwork	561501
Ġre	557609
Ġmake	555999
X	553478
ĠĠĠ	552427
Ġ7	546791
ĠHe	545758
Ġthrough	543562
Ġsame	538050
Ġ@	537538
Ġway	536499
Ġsee	533685
l	529117
Ġeven	524837
Ġthose	522124
->	520935
frac	520230
Ġyears	519950
Ġvery	519926
Ġnow	518991
Ġboth	516500
Ġknow	515724
Ġ8	512065
Ġset	511022
Ġbeing	505758
Ġ_	505024
Ġdid	504292
Ġt	501083
Ġneed	500290
Ġmany	498998
Ġbefore	497911
Ġde	496593
Ġdifferent	495049
com	492482
Ġd	491759
right	491239
?"	491009
Ġnumber	490810
Ġreturn	490595
()	490503
to	490424
](#	490323
q	488393
Ġright	487760
âĢī	486644
Ġback	486412
}$	485205
">	483483
00	482252
ĠK	479317
z	479115
--	478058
K	477166
Ġhere	476599
W	474315
::	471879
Ġdon	470425
left	469985
12	465938
Ġb	463725
J	459684
the	459620
ĊĊĠĠĠ	459568
âĢĿ	459007
Ġmade	458582
Ġvalue	458309
w	456356
fig	454767
Ġus	453671
Ġ\[[@	452581
Ġe	452375
Ġwhile	451647
ĠâĢĵ	450248
Ġhigh	448753
Q	448568
Ġfound	447675
Ġsystem	446530
://	446276
th	437887
":	437773
Ġ**	436655
Ġmuch	434819
Ġstudy	432230
V	432047
.âĢĿ	431941
ĠFor	431510
11	430777
Ġun	430235
Ġstate	429922
ĠJ	429865
Ġfunction	429718
Ġthree	428435
Ġgood	427538
Ġf	427503
Ġwant	424070
Ġpatients	423174
Ġpublic	422813
ĠIf	421286
Ġwithout	418604
ĊĠĠĠĠ	418181
Ġduring	417446
_{\	415341
ĠLet	414253
Ġcells	413421
,"	413397
Ġcourt	413096
Ġname	412985
Ġdoes	411183
What	409984
re	409413
Ġn	409042
We	407349
ĠĠĠĠ	407309
end	403828
',	402790
Ġthink	401489
Ġorder	401465
Ġ//	401108
Ġx	401100
Ġ:	399633
$,	398998
Ġnon	397632
Ġg	396137
Ġyear	395447
Ġdown	391582
Ġr	389713
ĉ	388266
Ġgroup	387907
ĠV	387127
Ġend	386082
Ġ9	384899
It	383106
Ġpart	382801
Ġh	382800
Ġagainst	381688
("	379501
get	377819
Ġlong	377546
//	376482
Ġtake	374628
|	374088
$.	373851
O	373748
Ġstill	371424
}{	370835
Ġgo	370170
ĠO	368124
Ġmust	368009
Ġlast	367975
ĠĊ	366947
Ġtype	366473
(\	366052
or	365902
Ġinformation	359925
Ġl	359901
int	358443
Ġday	358338
ĠBut	357507
and	354627
U	354620
ĠW	354448
...	354390
Ġsecond	354317
Let	350357
This	350058
Z	348832
Ġ,	348366
mathcal	347545
Ġresults	346825
id	345825
Ġoff	345136
ĠAs	344625
Ġal	342945
],	342328
o	341830
();	340688
Ġfollowing	339993
^{	338022
Ġlife	335441
Ċĉĉĉ	334470
Ġgoing	333851
ĊĠĠ	333728
čĊ	333328
âĢľ	333087
Ġfind	332051
16	331865
ers	331340
Ġwithin	327873
&	326430
'm	324725
].	324676
ĠYou	324556
Ġaround	323400
15	322469
ĠAnd	321998
Ġpoint	321658
Ġsince	320373
alpha	319610
if	319068
Y	318745
000	318208
Ġcontrol	316371
Ġam	316142
,âĢĿ	315235
Ġmodel	314757
Ġ*/	314736
18	314617
Ġanother	314105
)$	313339
20	312192
name	311854
Ġ12	309174
Ġown	308900
âĢĵ	308520
er	307537
Ġ</	307045
CR	306474
13	306458
19	306284
Ġline	305023
Ġexample	304610
Ġincluding	302560
Ġself	302134
ĠĠĠĠĠ	302025
ĠNo	301658
You	301564
]\].	301482
Ġtoo	301452
Ġhelp	299968
Ġtest	299350
Ġevery	298937
Ġper	298650
Ġshow	298394
Ġgiven	298107
Ġcell	297949
\]	295303
Ġet	295256
Ġreally	294669
Ġ#	294664
Ġmight	294502
Ġworld	294362
Ġsay	293087
Ġresult	293032
Ġfile	292908
ĠHowever	292103
Ġ20	290107
Ġprocess	289740
Ġ{#	289558
32	289494
ĠThey	289454
Ġform	288489
01	287719
're	286533
mu	286144
Ġbased	285195
Ġ$$\	283681
Ġsupport	283270
Ġpresent	283177
al	282090
Ġk	281201
17	277620
Ġanalysis	277473
Ġmethod	276385
Ġbest	275210
Ġnext	275091
Ġhome	274691
ĠâĢĶ	274280
Ġevidence	274117
Ġ\[	273331
Ġsomething	271929
Ġchange	271929
Ġleft	271087
Ġsmall	270008
Ġwhether	269900
ĊĊĠ	269682
14	269491
text	268297
}(	267291
Ġy	267276
able	267135
âĢĶ	266058
ĠĠĠĠĠĠ	265404
ĠTo	262061
Ġplace	262017
Ġ18	261999
,\	261990
ĠThere	261657
Ġfact	261501
}}	260153
Ġpower	260141
Ġ15	259504
Ġimportant	258812
ĠNew	258005
ĠWhat	257818
Ġfew	257514
Ġbetter	257451
set	257160
Ġabove	256752
Ġlarge	256330
Ġ11	256269
es	256227
rm	256215
data	255877
Ġwater	254612
Ġless	253489
To	253209
Ġlevel	253100
Ġtrue	252767
Ġnever	252493
label	251882
Ġu	251864
ĠX	251621
is	251148
mathbb	250553
Ġtreatment	248965
Ġleast	248749
Ġlittle	248151
Ġpossible	247883
Ġ{\	247725
Ġcome	247134
Ġthings	245943
ĠĠĠĠĠĠĠ	245930
Ġproblem	245520
Ġw	245480
Ġdue	244622
Ġlaw	242340
Ġlow	242335
div	241932
Ġgreat	240111
ĠSo	239130
))	239014
Ġlook	238535
Ġfield	238151
Ġint	237827
Ġ--	237668
ĊĠĠĠĠĠĠĠĠĠ	237620
Ġhaving	236299
Ġdays	236045
Ġco	235979
)\	235762
Ġshown	235605
Ġgive	235457
begin	234776
Ġeffect	234294
pi	234146
Ġcommon	233836
30	233816
Ġgot	233443
Ġ/	233355
!"	233336
li	233087
@	232978
Ġtrial	232728
As	231496
Ġfurther	230820
('	230503
of	229590
If	229146
Ġgame	228857
Name	228348
Ġsize	228298
Ġhealth	227975
Ġlet	227747
Ġcode	227212
up	226713
Ġexpression	226713
Ġprovide	226660
Ġo	226593
ness	226205
Ġalways	225792
):	225443
Ġcurrent	225426
Ġman	225407
Ġagain	224707
Ġ30	224689
\[	224669
Ġgovernment	224465
Ġfree	223976
Ġeither	223741
Ġ16	223271
Ġknown	223038
Ġfour	222916
Ġcalled	222613
Type	222201
table	221987
ĠState	221912
ĠThese	220917
"}	220782
Ġuntil	220449
Ġavailable	220211
Ġfamily	220031
ĠUnited	219903
Ġsingle	219485
Category	219297
Ġside	219002
25	218195
Ġelse	217934
ĠShe	217662
Ġhuman	217580
aligned	217493
Ġmeans	216649
Ġaction	216589
ĠCourt	216485
ĠĠĠĠĠĠĠĠ	216405
man	215282
Ġ==	214896
Ġvalues	214675
de	214624
Ġlocal	214486
Ġj	214259
Ġcases	213842
Ġable	213789
Ġchildren	213589
Ġlight	213583
For	213465
Ġreal	213297
Ġpost	212991
pone	212905
Ġmean	212682
Ġseveral	212395
}$$	212334
lambda	210538
Ġtop	210492
Ġhigher	210457
usepackage	210436
ĠThat	209872
Ġsub	209651
Ġarea	209578
Ġteam	209484
've	209437
this	209340
Ġpre	209336
Ġstudies	209078
ĊĊĠĠĠĠĠĠĠ	209067
span	209032
ist	208826
http	208823
Ġbody	208579
ally	208413
import	207131
Ġtimes	207036
Ġsignificant	207009
Ġcare	206420
Ġstart	206232
Ġ)	206189
Ġrate	206035
Ġerror	205854
Ġwhy	205671
Ġfull	205231
Ġput	205177
ized	204883
ĊĠĠĠĠĠĠĠĠ	204205
Ġenergy	203858
ment	203769
ve	203254
05	203127
Ġrun	202363
Ġtotal	202070
org	201992
];	201623
un	201424
ĠRe	200943
ĠStates	200701
21	200661
Ġopen	200586
================	200217
Ġspace	200019
Ġsimilar	200018
on	199303
Ġalready	199303
Ġdidn	199181
Ġhand	199028
Ġ14	198556
ation	198500
}_	198478
ÃĲ	198349
ĠAll	198162
Ġgeneral	197662
Ġassociated	197387
Ġlevels	196887
line	196867
And	195702
Ġresponse	195589
---	195578
Ġperson	195576
><	195418
Ġ100	195387
Fig	195058
ĠWhen	195052
24	194353
Ġfinal	194018
Ġlot	193755
ization	193111
Ġissue	192953
Ġquestion	192913
out	192877
Ġ13	192738
Ġrequired	192534
},	192530
for	192455
_\	192431
Ġwomen	192289
22	192250
'll	192175
Ġdone	192022
Ġkey	192005
mathbf	191791
Ġspecific	191787
Ġaway	191600
Ġsays	191224
ĠĠĠĠĠĠĠĠĠ	191000
bar	190771
sum	190718
He	190416
string	190344
Ġoften	190032
Ġ${\	189908
ĠY	189589
sec	189390
Ġlist	188978
ĠCo	188717
Ġterms	188085
Ġactivity	187837
ions	187676
Ġcall	187634
ĊĊĊ	187480
Ġ=>	186528
Ġlater	186196
ion	185913
Ġgroups	185866
Ġhowever	185840
Ġamong	185807
Ġage	185600
Ġfar	185530
Ġreported	185378
sigma	184773
Ġsure	184745
Ġthing	184597
23	184229
beta	184096
Ġcourse	182783
Ġenough	182735
ID	182465
Ġ`	182376
Ġtold	182086
Ġthough	181688
Ġread	181584
Ġ%	180936
Ġcompared	180871
Ġz	180518
Ġresearch	179917
Ġalong	179694
Ġ17	179412
Ġprovided	179181
Ġmaking	179107
ĠZ	178838
></	178718
Ġposition	178434
ity	178346
Ġhead	178346
ĠOn	178293
Ġinclude	178190
`	178062
tr	177783
Ċĉĉĉĉ	177525
Ġworking	177419
return	177215
Ġupon	177119
Ġconditions	176800
Ġplay	176680
no	176516
Ġweek	176325
Ġrole	176244
But	175840
Ġpotential	175630
Ġconst	175494
Ġlower	175375
Ġvoid	175123
Ġanti	175007
Ġprogram	174904
64	174891
}_{	174660
Ġrange	174487
Ġincrease	174334
Ġdevelopment	174168
Ġeffects	174155
Ġseen	173868
No	173779
Ġrisk	173629
Ġold	173624
]).	173588
le	172962
Ġdoesn	172914
Ġsection	172633
^{\	172591
Ġchanges	172536
Ġ19	172001
time	171910
Ġ([@	171688
min	171642
Ġtogether	171454
st	171440
Ġmoney	171413
Ġservice	171262
ĊĊĉ	171218
td	171163
code	171079
Ġsource	170969
Ġproperty	170555
Ġkeep	170550
Ġprotein	170536
ul	170527
am	170513
ĠâĢĺ	170513
}^{	170301
co	170093
Ġincreased	169930
Ġbecome	169903
Ġschool	169783
ted	169683
Ġimage	169189
www	169161
Ġfactors	169085
Ġ([	168890
html	168682
Ġaddition	168628
Ġshort	168508
Ġmain	168429
Ġcannot	168350
Ġobserved	168261
Ġbusiness	168114
Ġlove	167841
Ġ24	167658
Ġdisease	167605
26	166945
ge	166778
ĠUniversity	166584
Ġuser	166530
Ġaccording	166164
Ġmonths	166112
ĠSee	166088
"}).	166046
Data	165740
Ġtry	165725
\_	165717
ic	165625
Ġthird	165596
et	165583
Ġparticular	165041
Ġearly	164949
ty	164936
Ġdoing	164921
ĠĠĠĠĠĠĠĠĠĠ	164895
Ġ50	164857
Ġcreate	164375
class	164248
Ġmultiple	164193
Ġview	164095
key	163980
28	163845
Ġcountry	163766
ings	163705
as	163433
nu	163226
en	163202
pm	162954
Ġobject	162919
Ġstructure	162867
Ġdefendant	162635
Ġdescribed	162115
Ġcontent	161967
mathrm	161859
ĠAn	161772
Ġen	161514
sqrt	161448
Ġprivate	161325
ĠAt	161197
Ġthought	161121
Ġpositive	160980
Ġactually	160955
phi	160828
Ġ25	160744
Ġhard	160626
Ġcompany	160491
There	160349
Ġpoints	160342
Ġversion	160081
Ġbase	159825
27	159693
");	159637
Ġsurface	159391
29	159383
Ġacross	158973
ĠĠĠĠĠĠĠĠĠĠĠ	158900
Ġperiod	158519
ad	158235
ism	158201
it	158169
gamma	158106
Ġothers	158049
Ġreport	158003
Ġamount	157567
value	157462
50	157375
Re	157194
ant	156959
Ġrather	156958
ations	156920
02	156903
Ġadd	156859
Ġonce	156739
String	156023
Ġstring	155960
delta	155684
")	155659
ors	155610
ll	155563
Ġlikely	155508
Ġfive	155201
Ġid	155012
pt	154984
at	154787
.)	154782
Ġshows	154770
Ġperformed	154566
ĠQ	154504
Ġshowed	154452
}^	154360
Ġbelow	154349
Is	154034
Ġmatter	153808
Ġmillion	153732
Ġclear	153548
ĠAmerican	153428
ĠSt	153401
[@	153383
Ġfeel	153332
Ġsystems	153123
Ġseason	153084
09	152997
Ġstandard	152841
'd	152418
Ġcame	152411
Ġfalse	152268
Ġcause	152147
bib	152141
Ġsite	152059
08	151939
Ġobtained	151767
Ġtook	151404
Ġterm	151252
Ġfactor	151016
)(	150971
Ġinterest	150947
ab	150870
Ġfood	150460
Ġwhole	150433
Ġmakes	150002
Ġever	149973
Ġapplication	149942
size	149847
Ġcancer	149627
test	149485
Ġexperience	149476
40	149462
Ġdi	149410
Ġbig	149356
Ġpast	149314
Ġ(*	149084
Ġsocial	149077
So	149022
Ġvarious	148848
Ġq	148787
Ġtaken	148489
Ġaccess	148453
Ġproject	148214
Ġconsidered	148114
Ġfuture	148051
Ġadded	148050
Ġmen	148015
rho	148014
Ġbelieve	147905
Ġrelated	147808
Ġ>	147593
001	147413
Id	147034
Ġyet	146873
ak	146775
Ġbit	146581
Ġdefined	146124
ĠOne	145944
Figure	145640
son	145016
Â°	144945
ĠGod	144944
partial	144760
ter	144484
100	144416
^{-	144220
Ġapproach	144018
theta	143942
)/	143810
%)	143783
ĠThen	143453
Ġsolution	143375
omega	143268
times	143204
Ġcommunity	143150
/*	142949
Ġblood	142932
ĊĠĠĠĠĠĠ	142697
Ġwent	142361
Ġminutes	142357
Ġcon	142304
by	141706
Ġdecision	141454
ĠAfter	141358
Ġstates	141316
Ġindividual	141309
35	141042
Ġmaterial	141042
Ġ$(	140490
Ġpercent	140300
ap	140289
ĠUS	140224
ling	140160
Ġtext	140042
Ġdevice	139981
Ġtrying	139629
tau	139578
im	139569
Ġpro	139569
Ġreason	139534
list	139520
Ġincluded	139519
Ġcar	139476
Ġclose	139429
Ġmajor	139183
ĠDe	139023
On	138822
Ġregion	138800
em	138785
var	138666
eq	138354
Ġmembers	138291
34	138032
Ġtoday	137998
Ġrespectively	137953
Ġkind	137883
ÂĤ	137520
less	137379
Ġclaim	137365
Ġla	137270
ac	137237
],[@	137191
Ġreceived	137126
Ġchild	136852
see	136804
ĠĠĠĠĠĠĠĠĠĠĠĠ	136777
Ġwon	136720
Ġadditional	136713
Ġnormal	136478
include	136335
Ġcity	136330
Ġsignificantly	136171
Ġanything	136165
03	136106
Ġpatient	136028
ex	135909
Ġ},	135884
ell	135751
log	135611
Ġdis	135565
Ãĥ	135537
Ġface	135328
Ġevent	135248
Ġproduct	135243
Ġcertain	134965
Ġhalf	134827
âĢ¦	134499
ine	134483
Ġgrowth	134432
Ġneeds	134260
Ġasked	134180
age	134027
Ġnight	133771
Ġdeath	133697
Ġnull	133627
Ġreview	133619
Ġvia	133599
07	133553
ĠMa	133428
ated	133423
Ġgetting	133407
Ġsimple	133312
Ġhistory	133008
os	132767
der	132516
res	132445
Ġ21	132359
ry	132292
leq	132226
}{\	132174
///	132028
Ġlooking	131888
38	131639
Ġcheck	131421
Ġdifference	131416
mm	131189
Ġhref	131101
33	131091
Ġmethods	131066
Ġseries	130971
31	130935
Ġroom	130834
Ġperformance	130740
$-	130597
an	130527
Ġproblems	130351
When	130316
Ġmass	130288
Ġ\\	130284
Table	130274
Ġair	130263
Ġtarget	130205
ĠMr	130122
rs	130097
self	129924
Ġparty	129909
based	129907
Ġthus	129771
all	129745
Ġpay	129648
est	129598
Ġissues	129492
Ġinvolved	129487
infty	129330
Ġnetwork	129248
ms	129242
Ġalmost	129211
Ġfilm	129174
Ã©	129145
Ġprevious	129025
List	128992
Ġnothing	128809
Ġhours	128746
ang	128674
year	128651
Ġservices	128626
Ġtherefore	128587
Ġneeded	128347
ts	128331
Ġexpected	128331
Ġpolice	127503
Ġheld	127449
ary	127360
ments	127335
Ġconsider	127278
Ġrecord	127187
ĠĠĠĠĠĠĠĠĠĠĠĠĠ	127162
How	127137
new	127064
99	127048
ley	126962
Ġpopulation	126898
Ġinstead	126846
ins	126737
Ġpaper	126543
br	126458
Ġunderstand	126431
ns	126362
one	126354
ĠÂ§	126353
https	126333
Ġcondition	126284
04	126264
file	125986
Ġex	125963
Ġdesign	125958
Ġcomplex	125575
hat	125455
45	125420
Ġrecent	125375
Ġseems	125129
Ġgene	125052
als	124930
36	124809
Ġidea	124761
Ġplan	124724
*,	124686
Ġprior	124636
xi	124617
Ġlines	124616
ĠYork	124547
ize	124339
Ġmarket	124283
Â±	124191
sp	124089
op	124029
Ġloss	123996
Ġstep	123974
ent	123934
Ġjob	123932
Ġvar	123790
Ġhouse	123751
Ġtable	123710
Ġcost	123660
Ġpolicy	123649
Ġmotion	123579
Ġspecial	123339
Ġweight	123250
Ġcomes	123196
Ġstudents	122892
Ġproduction	122732
Ġmove	122709
Ġ...	122651
Ġquality	122532
net	122411
80	122381
06	122252
Ġtell	122128
Ġlead	122104
Ġsomeone	122071
lu	122033
Ġmodels	121836
Ġtaking	121834
Ġpage	121812
Ġmedia	121754
eta	121752
ta	121718
red	121718
Ġstarted	121452
Ġ(-	121447
ar	121377
ne	121374
39	121323
led	121240
čĊĠĠĠ	121084
Ġblack	121074
go	121031
Ġprovides	120851
Ġ40	120846
Ġ22	120821
Value	120769
Ġdistribution	120688
Ġstrong	120635
Ġstory	120609
ee	120567
Ġitself	120548
Ġlive	120502
ĠThus	120351
ĠCa	120348
Ġnecessary	120306
Ġsuper	120284
Ġpath	120214
add	119867
ive	119468
Ġaverage	119380
io	119366
));	119349
ĠIs	119302
ĠBy	119057
Ġsignal	118913
do	118888
px	118694
define	118600
Ġturn	118584
]{}	118571
Ġallow	118542
57	118348
Ġrights	118343
Ġprobably	118090
37	117739
Ġphase	117698
ding	117657
That	117649
ĠTrump	117624
AC	117612
Ġshall	117546
^\	117531
Ġclinical	117185
Delta	117155
Ġsample	117081
Ġaccount	116956
42	116886
ating	116848
Ġch	116737
\\	116584
Ġoriginal	116579
dy	116529
CA	116526
ur	116424
Ġlength	116404
ĠNational	116373
over	116371
Get	116340
Ġbook	116278
Ġfunctions	116277
param	116212
Ġsimply	116191
Ġproducts	116178
Ġ||	116117
ma	116048
')	116043
Ġmind	116043
Ġsequence	115966
ting	115910
Ġmulti	115815
be	115735
me	115684
ĠTHE	115672
Ġyoung	115550
Ġespecially	115550
Ġtemperature	115438
cks	115329
Ġwords	115268
}}\	115260
48	115039
Ġproperties	114750
old	114704
Ġinput	114685
Ġheart	114666
ates	114586
ĠĠĊ	114548
ĠĠĠĠĠĠĠĠĠĠĠĠĠĠ	114491
my	114418
With	114372
path	114342
ĠĊĊ	114047
Ġaddress	113922
Ġ!=	113834
ig	113806
ĠOF	113786
ner	113722
Ġoutside	113641
Ġcomplete	113576
Ġsix	113442
ens	113434
All	113402
Ġrespect	113392
Ġwhite	113278
Ġpresence	113274
ans	113240
ĠCity	113150
Ġdetermined	113140
Ġmedical	113133
au	113131
59	113075
ca	113067
ĠĠĠĠĠĠĠĠĠĠĠĠĠĠĠ	112966
use	112809
con	112769
Ġsense	112691
ron	112663
Ġstatic	112645
ful	112608
Ġevents	112586
ĠWith	112476
ning	112460
yl	112383
so	112233
";	112215
ate	112193
..	112107
AS	112078
95	112037
Ġpolitical	111952
ities	111864
Ġcolor	111842
Ġpressure	111782
Ġarray	111698
Ġnear	111689
Ġdate	111575
-\	111493
ance	111410
str	111388
Ġsubject	111382
Ġeffective	111171
])	111086
Ġoutput	110994
Ġworks	110980
Ġinside	110980
Ġprimary	110953
Ãĳ	110859
Ġcross	110799
Ġlanguage	110786
Ġgenes	110767
let	110626
49	110502
Ġfollow	110500
View	110359
Ġeverything	110358
ĠMy	110280
69	110244
Ġ$$	110090
Ġtypes	109771
Ġelement	109724
not	109675
Ġphysical	109662
ĠÂ±	109625
Ġfeatures	109608
Ġbad	109600
Ġlonger	109597
ian	109572
Ġdetermine	109421
Ġstop	109372
Ġ28	109133
Ġfront	109063
gs	109022
ton	109018
ĠString	108946
Ġpresented	108872
Ġeasy	108840
Ġ23	108656
})	108570
Ġjudgment	108551
41	108521
Ġquite	108511
]\]	108509
Ġidentified	108455
Ġcreated	108379
el	108194
Ġrunning	108133
Ġbreak	108085
di	108015
Ġsamples	108009
ys	107918
Ġmember	107896
Ġbasis	107832
ei	107772
ber	107705
Âĥ	107572
Ġ&&	107510
Ġformer	107412
Ġparameters	107370
ĠMay	107336
Ġwanted	107252
78	107246
Object	107234
43	107230
array	107173
Ġcharacter	107104
Ġinitial	107009
Ġstatus	106997
Ġfollows	106981
he	106869
field	106867
Ġstatement	106810
ĠInc	106755
Ġground	106726
__	106709
od	106417
ĠAl	106407
Ġinter	106259
](	106249
Ġareas	106223
public	106130
Ġpersonal	105956
âĢĲ	105945
il	105940
Ġse	105832
ĠLicense	105744
ise	105621
ch	105599
Ġisn	105488
Ġago	105471
void	105457
Ġelements	105442
ir	105390
(-	105383
($	105343
Ġwrong	105212
bi	105211
Ġweeks	105171
po	105163
Ġdirectly	105064
Ġindex	104917
68	104831
88	104744
king	104711
My	104651
Ġquestions	104483
bf	104428
Ġsearch	104428
Ġrequest	104249
Ġrelationship	104229
Ġnatural	104148
ability	104036
".	103954
Ġmemory	103905
Ġforce	103747
Ġmicro	103684
mo	103613
60	103608
Ġdeal	103601
ba	103554
}$,	103552
Ġvideo	103370
Ġtheory	103363
rangle	103338
Ġgames	103264
ĠDr	103236
Ġtraining	102984
lib	102859
Ġcontext	102830
tilde	102818
87	102773
ane	102567
Ġred	102432
ps	102430
ek	102407
ou	102292
ĠJohn	102282
ĠDo	102239
Ġcontinue	102111
}(\	102108
86	101866
ial	101737
sa	101675
from	101631
Ġ(\[	101563
ters	101539
Ġbuilding	101538
chi	101521
Ġbehind	101496
AN	101477
ol	101448
pa	101403
ĊĠĠĠĠĠĠĠĠĠĠĠĠĠ	101143
Ġbuild	101106
ger	101063
Ġ/*	101032
Ġgreater	101025
Ġapplied	100852
ase	100808
ks	100804
Ġdifficult	100801
Ġgas	100747
off	100712
max	100702
47	100646
Ġnews	100632
Ġlimited	100591
Ġacid	100483
Ġmice	100425
Ġ26	100421
ÃĤ	100412
98	100396
ĠSuppose	100380
Ġmonth	100333
Ġrelease	100297
Ġdrug	100281
Ġdistrict	100178
Ġpreviously	100166
ĠDNA	100136
ide	100059
Ġtitle	99915
state	99913
Ġincludes	99888
Ġreduced	99873
Ġrest	99865
ga	99781
ĠTherefore	99697
Ġflow	99686
Ġrequire	99668
cdot	99639
width	99619
script	99607
+\	99490
:**	99487
const	99486
90	99464
Ġability	99430
File	99369
Ġwar	99359
Ġtax	99277
Ġstyle	99241
pr	99170
Key	99124
Ġcom	99089
96	98993
Ġmessage	98988
Ġknowledge	98838
ha	98793
Ġclaims	98737
ler	98722
Ġdeveloped	98688
psi	98638
55	98633
ke	98576
51	98563
ists	98532
Ġarticle	98525
)}	98502
ĠCh	98486
Ġbar	98473
na	98269
Ġindependent	98251
Ġnote	98250
53	98238
Ġlayer	98235
Ġdirect	98184
Ġsaw	98164
cr	98145
av	98056
ĠOur	98052
Ġ60	98049
ĠPa	97713
Ġcontact	97710
with	97605
Ġsoftware	97572
ED	97552
At	97536
Ġinvention	97468
58	97461
we	97397
Ġwrite	97346
Ġhttp	97308
iv	97277
app	97176
\])	97099
46	97057
![	97044
Ġmap	97014
Ġcut	96947
ĠAct	96917
ĠPresident	96776
().	96615
Ġnumbers	96602
Ġplayers	96593
Ġwritten	96580
Ġoil	96420
Ġreference	96384
se	96359
$\	96358
Ġ27	96329
Ġfollowed	96262
ically	96254
Ġcoming	96188
Ġ2012	96163
Ġparticularly	96082
Ġpain	95997
ator	95981
ĠCounty	95940
ars	95929
way	95902
ie	95842
ned	95827
our	95806
Ġhold	95784
Ġleave	95769
70	95572
Ġactive	95552
Ġunit	95549
56	95503
cal	95390
cl	95386
Ġobtain	95368
Ġsecurity	95339
Ġimpact	95153
An	95143
ĠSince	95068
ana	95043
Ġhope	95022
Ġnegative	95018
base	94964
Ġdefault	94963
Ġforward	94958
sub	94801
ip	94767
}$.	94744
By	94730
ded	94708
ok	94539
function	94534
ants	94489
ĠWhile	94468
Ġentire	94375
ro	94349
Ġnational	94323
Ġdouble	94303
Ġword	94270
ĠHis	94225
ae	94217
Ġ[*	94053
Ġrule	94035
Ġnature	94028
Ġspecies	93983
Ġusually	93973
Ġst	93911
ĠLa	93878
Ġland	93670
Ġrates	93635
Ġdifferences	93622
44	93523
Ġliving	93512
ob	93482
AR	93464
ph	93454
Ġoffice	93446
IC	93344
Ġanswer	93327
Ġalthough	93288
AP	93233
Ġwhose	93190
item	93092
Ġ2013	93001
Ġpractice	92999
Ġtried	92925
Ġenvironment	92888
Ġetc	92871
lo	92832
Ġargument	92797
Ġglobal	92760
ĠBo	92752
AL	92747
ĠWorld	92670
Ġonline	92654
65	92650
user	92562
=\	92542
SC	92428
Ġcorresponding	92280
ite	92267
Ġ2016	92256
like	92220
Ġgenerally	92214
Ġlost	92141
ker	92068
Ġrecently	92068
az	92050
izing	91970
ons	91935
Ġbrain	91819
ĠAmerica	91777
Ġthemselves	91679
ah	91676
Suppose	91675
MS	91602
Ġplaintiff	91573
js	91559
89	91547
Ġact	91508
Ġfederal	91461
Ġanyone	91448
Ġ2014	91438
Ġlate	91373
Ġtakes	91328
Ġproposed	91258
Ġcountries	91248
lin	91246
Ġblock	91235
ĠHere	91217
Ġagreement	91120
ped	91055
med	91004
Ġpurpose	90942
back	90858
ri	90802
land	90786
84	90715
Ġsaying	90677
94	90579
Ġdensity	90523
SE	90516
oc	90507
Ġ29	90507
Ġshare	90456
epsilon	90414
ĠâĪĴ	90347
ĠLe	90330
ets	90304
top	90289
ut	90208
ical	90197
Ġtreated	90195
CC	90172
ence	90053
len	90047
Ġhimself	89851
ats	89846
iz	89746
One	89746
su	89640
74	89620
Gamma	89618
ĠChina	89547
ach	89511
Ġlegal	89471
ag	89470
ud	89419
Ġsituation	89402
Omega	89377
day	89295
ĠHouse	89285
ĠII	89233
52	89230
Set	89226
term	89196
Ġpa	89186
ĠMarch	89145
ĠSouth	88973
Ġcenter	88930
75	88811
Ġbecame	88716
Ġdef	88707
si	88699
ster	88691
ology	88677
ĠDepartment	88623
Ġrelative	88611
PA	88563
ug	88549
Ġpretty	88518
79	88471
lls	88388
pl	88367
Ġ2015	88338
ĠSa	88324
om	88274
gr	88211
Ġbi	88203
ast	88173
Ġfailed	87958
ised	87940
its	87931
link	87851
Ġways	87851
Ġoffer	87816
Ġpublished	87792
ny	87727
Error	87701
lan	87551
93	87540
Ġ?	87502
ia	87488
Ġ/>	87392
ds	87345
varepsilon	87271
Ġnode	87242
Ġfocus	87237
um	87236
Ġhighly	87169
document	87161
Ġwoman	87079
Ġ);	87031
bb	87009
mi	87007
sh	86968
PS	86941
Ġfindings	86937
54	86932
ĠSome	86918
Ġprice	86885
that	86860
Ġderivative	86825
Ġallowed	86821
Ġcharge	86721
per	86673
den	86644
Ġtalk	86641
Ġselected	86623
81	86599
Ġcontract	86584
ci	86581
Ġmoment	86551
Ġdegree	86479
Ġpass	86420
ĠMo	86388
Ġoperation	86374
ĠNorth	86287
Ġcomponent	86266
Ġwin	86254
..."	86147
Ġlimit	86098
map	86059
Ġstage	86055
Ġlarger	85995
Ġdesigned	85986
Ġmeasured	85981
Ġma	85969
Ġgave	85948
ĠSystem	85900
Ġinstance	85889
Ġjury	85831
Ġbring	85804
77	85787
ĠGeneral	85761
la	85658
)=	85643
Ġdetails	85601
les	85473
Ġindividuals	85420
ĠFirst	85409
IS	85326
Ġconstant	85305
###	85288
Ġeveryone	85130
IP	85111
ai	85082
Ġcurrently	85051
Ġimages	85027
Ġcaused	85027
Ġdirection	85007
Ġalone	84995
ran	84950
97	84802
Ġbackground	84762
Ġfriends	84731
Ġlocation	84693
sed	84672
Ġproteins	84629
"><	84604
Ġbehavior	84604
Ġwasn	84500
dev	84479
Ġgives	84386
ship	84351
Ġ2011	84341
ĠBe	84251
mer	84227
ĠAr	84226
ru	84219
Ġcomponents	84212
ĠCD	84107
Ġattention	84040
Ġask	84004
Ġle	83906
ĠAlthough	83906
Ġmatrix	83881
Ġ2010	83880
Ġchoice	83876
row	83854
ĠJune	83827
Ġscale	83821
ill	83777
OS	83777
Ġrequires	83690
ĠCon	83506
ra	83471
ue	83464
Ġ:=	83407
Ġappropriate	83385
Ġfixed	83384
ĠFig	83302
Text	83259
SS	83221
read	83171
Ġcompanies	83170
AT	83119
form	83079
67	83036
Ġknew	83013
Ġbegan	83004
æ	82964
index	82955
bo	82887
ten	82871
els	82813
Ġleading	82728
Ġ;	82670
Ġoptions	82650
Ġeyes	82615
Ġratio	82565
Ġdisplay	82540
ĠHow	82471
Ġapp	82469
Ġhost	82457
ore	82443
Ġ2017	82428
Ġfailure	82416
};	82375
ality	82357
Ġmother	82349
Ġ[**	82328
ous	82295
ina	82289
SA	82267
tter	82241
}}$	82221
ĠRo	82214
Ġfinancial	82124
Ġmanagement	82123
Ġfrequency	82102
LA	82086
(),	82049
Ġeducation	82029
Ġunique	81871
83	81860
Ċĉĉĉĉĉ	81770
');	81757
ino	81733
Ġ->	81686
ible	81650
dis	81634
Ġusers	81562
Ġtechnology	81522
)-	81429
TS	81396
Ġorg	81390
Ġprime	81383
Ġcontains	81380
static	81378
Ġmis	81353
čĊĠ	81347
RE	81326
She	81312
500	81307
{{\	81274
Ġmode	81229
te	81210
fn	81117
Ġdivided	81064
Ġ31	81012
Ġcompletely	81007
Ġfine	81004
Ġincreasing	80967
Ġled	80949
76	80926
Item	80898
Ġpattern	80876
Ġart	80832
Ġcosts	80776
py	80758
ged	80752
ĠNow	80749
Ġconnection	80743
Ġeconomic	80736
Cs	80721
ĠCir	80643
85	80623
NS	80575
Ġsent	80571
Ġparts	80434
ard	80429
());	80417
Ġlack	80415
ĠSh	80409
Ġseem	80394
Ġoption	80389
gu	80365
Ġapply	80333
Ġgoal	80319
Ġindustry	80290
title	80286
Ġparties	80283
Ġheat	80282
pre	80274
Ġexpect	80232
ox	80218
Ġsuggest	80208
Ġserver	80144
side	80113
Ġfiles	80103
ies	80080
ĠJanuary	80066
61	80048
Ġdistance	80032
da	79994
ti	79953
sc	79934
are	79926
92	79911
Ġearlier	79898
ĠApril	79893
._	79830
Ġfire	79814
ĊĠĠĠĠĠĠĠĠĠĠĠĠ	79802
91	79740
eb	79696
Test	79625
Ġsp	79585
Ġexpressed	79577
From	79482
Ġweb	79478
Ġoverall	79472
rightarrow	79446
Now	79436
ming	79426
ĠMar	79424
Ġlearn	79355
varphi	79316
ĠJuly	79316
Ġsupported	79274
72	79272
Ġ\<	79263
lic	79231
Ġequal	79229
Ġgenerated	79223
003	79205
Exception	79179
Ġestablished	79104
Ġstated	79066
Ġallows	79044
)).	78991
cm	78957
Ġdevices	78930
They	78904
ice	78903
TA	78869
Ġcorrect	78798
ium	78779
sin	78775
Ġuseful	78768
Ġeasily	78732
Ġboard	78707
ene	78668
Ġlink	78652
Ġcopy	78634
Ġstay	78614
Class	78604
TC	78508
ren	78416
Ġsites	78385
.'	78375
Ġcontaining	78358
Ġreasons	78311
ĠNot	78299
CO	78259
Ġcount	78254
Ġstress	78244
bs	78240
Ġmin	78231
Path	78228
82	78190
63	78172
Ġreduce	78144
ering	78092
Ġfinding	78089
lt	78065
fa	78024
ping	78023
)$.	77858
"/>	77847
Ġmeasure	77772
Ġhighest	77772
Ġsoon	77765
ier	77764
LE	77736
Of	77732
ew	77731
Ġlocated	77713
group	77680
Ġparameter	77543
Ġ32	77529
Ġproduced	77504
Ġactivities	77431
us	77404
men	77382
Ġsign	77362
.\	77358
big	77343
66	77309
Ġexcept	77306
Ġ<<	77266
box	77182
ĠHa	77170
App	77167
Ġnotice	77149
pping	77099
Ġfelt	77087
Ġca	77081
Ġrelevant	77066
$$	77056
Ġfiled	77044
view	77017
)^	77004
Ġcritical	76951
Ġclearly	76913
Ġsuccess	76854
non	76786
){#	76778
err	76700
Ġappeal	76616
Ġvariable	76564
\].	76524
Ġopinion	76524
Ġhit	76510
free	76455
Ġcentral	76451
':	76415
Ġspeed	76387
vec	76382
Ġcampaign	76362
ea	76331
62	76323
val	76318
amp	76316
Ġauto	76280
Size	76247
Ġdoor	76149
rp	76130
node	76117
*.	76057
čĊĠĠĠĠĠĠĠ	76048
Ġstore	76038
Context	76033
Ġwriting	76026
Ã¡	76018
java	76009
}_{\	75945
sim	75941
ĊĊĊĊ	75901
Ġwebsite	75820
Ġpresident	75765
Ġsh	75763
State	75743
Ġson	75686
ce	75681
Ġinjury	75672
qu	75644
ification	75644
Ġchanged	75632
Ġbrought	75623
ib	75583
overline	75546
Ġactual	75536
}^{\	75502
Ġshowing	75464
Ġrandom	75453
ement	75389
Ġreceive	75383
Ġsmaller	75351
SP	75318
OR	75310
Co	75306
Ġvs	75282
sy	75263
Ġgoes	75252
ĠAND	75201
Ġcommand	75199
Ġuses	75187
['	75168
Ġexperiments	75167
pro	75098
Ġlearning	75049
Ġstaff	75034
De	75021
Ġ2008	75020
ara	75014
RA	75014
ii	74996
ale	74970
Ġwidth	74969
Ġauthors	74968
Ġappears	74954
Ġvector	74919
ĠId	74878
cu	74875
operatorname	74862
langle	74817
Ġitems	74808
Ġbeyond	74658
Ġlooks	74648
Ġ__	74639
ep	74615
Ġheard	74608
Ġrules	74607
Ġremains	74595
Ġcomputer	74593
AD	74576
rd	74555
Ġculture	74553
*-	74528
ders	74488
db	74479
Ġbuilt	74437
ev	74397
nes	74371
ĠOR	74341
ĠSan	74213
Ġhearing	74206
Ġbox	74195
Ġskin	74158
After	74154
Ġunderstanding	74131
Ġmeet	74126
Ġmatch	74095
true	74063
ong	73931
Ġtumor	73912
Ġlooked	73898
Ġpoly	73873
eo	73857
Ġreasonable	73850
Ġturned	73813
CD	73763
ĠIN	73747
Ġnor	73735
Ġworked	73729
vi	73680
Ġtowards	73662
Info	73510
200	73481
Ġ!	73460
Ġmajority	73455
True	73302
Ġappear	73288
Ġdrive	73285
ents	73282
color	73271
Ġplease	73249
Ġproduce	73247
Ġbinding	73230
ze	73222
Ġregarding	73201
ay	73197
Ġvariables	73188
}=	73176
Ġinternal	73122
ĊĊĠĠĠĠĠĠĠĠĠĠĠ	73101
IL	73066
Ġones	73035
ĠOr	73033
Ġfun	73025
Ġexists	72997
ni	72980
af	72877
Ġtherapy	72875
Ġbenefits	72816
ĠData	72801
MA	72799
struct	72793
Ġfully	72770
ish	72748
char	72736
Ġimprove	72723
ĠHealth	72716
ĠFrom	72702
='	72662
Ġconcentration	72639
ĠDistrict	72636
[^	72594
Ġtissue	72593
Ġtask	72502
TH	72499
Ġparents	72494
Ġ($	72490
Ġreports	72455
Ġfall	72423
Ġmilitary	72419
ĠMc	72418
71	72408
ade	72373
ĠWest	72348
ĠAugust	72345
Ġresulting	72344
kes	72341
bin	72319
Ġ2009	72298
":"	72274
Ġchar	72268
New	72242
ver	72198
Do	72107
Ġfriend	72087
Ġexactly	72064
)$,	72058
ot	72044
info	72035
reg	71992
ham	71981
ĠHo	71937
Ġprevent	71931
Ġindicated	71895
Ġandroid	71852
Ġpoor	71842
ĠDi	71835
def	71812
Ġvolume	71797
Ġinfection	71793
Ġcouple	71792
Ġextra	71789
Ġsetting	71708
ij	71693
Ġwrote	71681
Ġfather	71663
Ġad	71662
ĠMe	71640
ho	71630
ĠOctober	71621
Ġfast	71568
Ġmorning	71555
length	71520
Ġwide	71506
ef	71460
Ġdecided	71428
ray	71405
ile	71280
Ġmaterials	71225
ui	71217
Ġzero	71204
tra	71183
Ġreading	71175
Ġvehicle	71157
Ġplayed	71096
tro	71084
dd	71079
Ġstand	71069
nbsp	71064
Ġadministration	71058
Ġhands	71056
ots	71043
uk	70988
Ġfeature	70981
ĠSeptember	70923
ics	70922
Ġexist	70898
Ġcolumn	70838
Ġavoid	70816
Ġmeeting	70707
73	70695
Ġseparate	70689
ST	70671
ĠDecember	70669
Ġ35	70637
Ġgets	70599
rin	70550
Ġim	70529
Ġdefine	70405
Ġtransfer	70393
Ġproof	70392
Ġmedium	70336
]:	70316
case	70308
Ġplayer	70305
Ġdeep	70299
Ġreaction	70298
CH	70291
ya	70254
ĠPhys	70231
Ġfields	70208
)*	70198
og	70188
Ġheight	70147
Ġconstruction	70138
Ġmet	70129
Ġstarting	70101
Ġapplications	70098
Ġ2018	70098
ano	70068
sing	70062
rb	70017
Ġstar	69936
lon	69927
ung	69926
Ġthroughout	69874
Ġinteresting	69851
IN	69816
Ġ^	69815
Ġparticipants	69811
Ġnoted	69706
Ġdamage	69701
Ġprocesses	69676
Ġmaximum	69675
Ġregions	69623
Ġformation	69590
ĠBa	69574
Ġlinear	69563
Ġconnected	69538
Ġfit	69472
Ġsafety	69461
CT	69432
Sec	69407
Ġcounsel	69391
Ġlives	69348
Ġclosed	69342
ative	69341
002	69337
Ġdomain	69330
Ġbecomes	69314
Ġitem	69310
Ġformed	69310
CS	69276
\,	69270
input	69256
Ġinternational	69231
Ġsources	69189
ĠBecause	69133
Ġdocument	69052
Ġscore	69037
Ġsound	69034
Ġphoto	68986
Ġsex	68982
Ġroad	68937
Ġrevealed	68925
ik	68838
######	68823
Ġerr	68801
cker	68785
ç	68764
Ġeye	68763
Ġhospital	68760
Ġten	68740
cs	68738
Ġinteraction	68653
Ġinfluence	68648
Ġpo	68601
gen	68559
nd	68548
Ġsum	68540
Ġotherwise	68510
Ġcollection	68507
0000	68497
ĠSection	68482
ably	68478
Ġvisit	68436
ER	68423
Ġtests	68373
Ġbasic	68368
Ġscreen	68336
ĠRa	68333
ao	68309
*~	68298
ĠNovember	68297
Ġregular	68263
Ġimmediately	68236
which	68180
Ġequation	68155
ala	68154
II	68140
cking	68089
ĠMoreover	68067
ĠCenter	68052
action	68041
.[	67880
sen	67868
Ġreduction	67824
Ġreleased	67805
cap	67802
Ġactions	67802
';	67801
fe	67761
Ġ80	67688
Ġdefense	67670
ero	67658
Ġstr	67628
ris	67618
Ġopportunity	67616
ute	67602
ĠUSA	67594
ser	67587
Ġtoward	67585
bu	67543
IT	67526
Ġpaid	67517
ĠOf	67508
Ġhear	67505
Ġwindow	67501
Ġgiving	67482
Ġmechanism	67480
mon	67430
bl	67400
Ġtrade	67385
Ġmo	67380
Ġcombination	67360
Ġcontrast	67351
php	67315
ĠWashington	67315
sk	67293
Ġattack	67269
ka	67253
rate	67227
image	67161
Ġque	67156
Ġtrans	67119
Ġseven	67115
using	67068
Ġidentify	67057
Ġtown	67055
Ġconsistent	67047
Ġchance	67039
ĠÃĲ	67036
Ġfigure	67031
ass	67004
Ġtesting	67002
art	66907
ĠLi	66900
Ġphone	66840
Ġrelatively	66815
ses	66775
port	66765
Ġpr	66754
Ġ90	66742
mathfrak	66726
Node	66712
Ġensure	66704
Ġsometimes	66689
col	66672
quad	66657
False	66613
geq	66611
}}_	66581
Ġresources	66570
Ġresistance	66559
Ġcover	66555
Ġforms	66550
Ġroot	66526
point	66524
Ġbottom	66470
ģ	66457
Not	66418
version	66373
dot	66306
error	66304
Ġquickly	66301
ĊĊĠĠĠĠĠ	66259
ani	66244
ced	66234
ĉĉ	66234
related	66227
body	66223
Ġchoose	66207
Ġfunctional	66182
Ġmiddle	66169
Ġthinking	66076
Ġclient	66076
Ġsu	66074
fi	66070
ple	66063
cc	66024
^*	65996
ging	65977
tal	65897
Ġmyself	65896
Ġhappen	65884
Ġprocedure	65844
Ġsolid	65785
ĠĠĠĠĠĠĠĠĠĠĠĠĠĠĊĠ	65762
Time	65754
ĠPublic	65729
Ġplaying	65708
Ġcomment	65647
Here	65640
Ġnearly	65635
source	65623
Ġbenefit	65609
Ġremove	65602
RT	65589
^{(	65585
Ġportion	65507
Ġproviding	65481
Ġmovement	65467
Ġmoved	65435
ĠSchool	65426
Ġdetected	65424
Ġchannel	65424
Ġagree	65416
Ġhappened	65393
Ġdatabase	65379
Ġconducted	65372
\],	65322
Ġpar	65318
DA	65308
Ġmoving	65256
ĠObama	65234
ez	65233
Ġexisting	65220
Ġ(**	65207
Ġobjects	65198
Ġready	65126
Ġdu	65031
%,	65007
Ġreach	64974
Ġstd	64970
ato	64969
oa	64966
Ġdaily	64916
Ġcalculated	64783
era	64720
Ġfacts	64708
ĠCalifornia	64700
DS	64694
Ġbuy	64685
Ġfinally	64675
ret	64643
Index	64617
Ġanimals	64595
Color	64581
Ġsteps	64555
Ct	64529
ose	64511
((	64497
Ġindicate	64488
Ġborder	64475
Ġyourself	64428
num	64411
bm	64377
Ġupper	64330
Ġwall	64306
Ġhot	64294
Ġdemonstrated	64294
ery	64291
Ġnearest	64252
Ġemail	64245
gg	64202
ft	64200
Ġcore	64197
Ġblue	64167
ĠTable	64122
ure	64112
ros	64108
Ġworth	64108
act	64090
Ġtool	64070
start	64038
ying	64032
Ġremain	64000
ked	63994
NA	63986
eg	63945
Ġserious	63923
tu	63911
oma	63909
ĠAlso	63906
Ġunits	63905
","	63888
Ġdefinition	63862
ras	63860
ological	63843
Ġprove	63784
Ġcomments	63784
rk	63709
Ġlog	63706
Ġauthor	63704
****************	63700
())	63640
ĠNULL	63639
Ġremember	63600
ric	63587
down	63539
Ġrepresent	63506
Ġsafe	63489
Ġcapacity	63436
Ġ200	63425
Ġshape	63424
but	63414
ari	63404
Event	63401
Ġplant	63371
ĠResearch	63363
api	63351
ĠSe	63343
rv	63335
vert	63332
ĠMore	63329
Ġcarried	63324
Ġsufficient	63317
Ġremoved	63309
PC	63282
ec	63280
Ġli	63280
ash	63276
Ġ37	63249
Ġplaced	63246
Ġ/**	63209
*)	63190
Ġprocessing	63158
Ġframe	63065
Ġprint	63038
DE	63036
)/(-	63024
EN	63010
mar	63000
ĠTO	62980
Ġbegin	62974
Ġvariety	62957
du	62942
ess	62936
ick	62912
ey	62878
ĠApp	62852
ĠTr	62847
Ġwife	62840
space	62829
mod	62770
Un	62758
ĠUn	62748
Ġonto	62694
RI	62663
US	62635
Ġsets	62631
Ġoperator	62618
,-	62589
Ġdistributed	62556
ko	62533
[]	62438
ĠFebruary	62423
ches	62409
ĠIS	62374
oe	62373
eh	62367
Ġmachine	62334
Ġselection	62333
Ġsend	62326
Ġ2007	62282
lm	62253
ĠIL	62246
St	62216
Ġhair	62203
Ġsuggested	62171
]\],	62121
Ġmg	62077
¡	61997
IA	61983
Ġperfect	61956
ÂŃ	61924
ĠFigure	61871
kers	61865
Ġ(\	61831
LI	61827
Ġnamed	61815
Ġprograms	61776
ĠWhite	61739
ķ	61732
ÃĹ	61721
Ġcomparison	61690
ING	61675
ĠWar	61672
Ġconduct	61652
Ġworkers	61635
Ġrace	61568
ides	61535
Ġhealthy	61528
pos	61512
Ġincreases	61471
Ġmagnetic	61400
Ġexposure	61292
SD	61259
##	61246
ĠEuropean	61221
well	61220
Ġsort	61172
content	61148
Ġpassed	61140
Ġmaybe	61130
Ġletters	61107
PR	61106
Ġgreen	61084
Ġplaces	61057
ld	61054
Ġresponsible	61012
Ġupdate	61007
Ġmeasures	60990
Ġdiscussed	60970
Ġaffect	60955
Ġreplacement	60946
|\	60905
config	60881
Ġdevelop	60866
Ġha	60859
onic	60857
ĠNa	60842
Ġmanner	60830
CL	60825
ĠIndia	60823
Ġsave	60815
Ġapproximately	60808
Ġpicked	60731
url	60726
Ġincome	60713
Ġinsurance	60708
Ġsa	60703
Ed	60686
Î±	60676
Ġcharacteristics	60676
CI	60617
TR	60608
Ġclean	60589
Ġsymptoms	60551
ĠBoard	60540
Code	60519
dir	60482
Ġrow	60482
ĠEven	60481
ĠCar	60475
pped	60455
ata	60427
ĠLo	60424
ĠGet	60376
Ġnice	60372
Ġdark	60355
Ġcircuit	60339
Ġ45	60282
Ġdrugs	60281
Ġstructures	60255
SH	60254
cos	60251
wa	60230
MP	60229
Ġmale	60225
core	60202
Ġchallenge	60202
ees	60176
ven	60175
LL	60172
Ġtalking	60159
aw	60156
Ġbeginning	60098
Ġeight	60095
ax	60090
Ġessential	60053
ĠPM	60032
Ġletter	60006
dt	59997
Ġpair	59996
Ġcontinued	59976
ali	59959
Ġmodern	59953
AA	59883
page	59815
ME	59809
Image	59804
Ī	59758
Ġround	59719
hi	59710
Ġ95	59709
Ġtestimony	59692
Ġinvestigation	59686
Ġassume	59678
head	59643
Ġselect	59627
Ġtransition	59621
ines	59612
ern	59598
Ġtree	59586
Ġeffort	59586
ĠMan	59583
Ġload	59559
Ġ70	59558
Ġactivation	59552
mal	59551
Ġedge	59532
Ġreturned	59519
Ġdead	59512
Request	59508
pe	59493
Ġar	59493
Ġhappy	59445
ml	59435
car	59421
"},	59412
ĠBr	59376
ĠFurthermore	59337
ĠHer	59321
Ġdetection	59291
čĊĉ	59281
ĠUK	59262
bit	59236
ual	59212
Ġ36	59177
Ġbillion	59136
sting	59131
lly	59124
Ġbound	59085
Ġ});	59063
ĠBar	59021
Ġwatch	58997
gi	58969
mb	58939
Ġtr	58933
},\	58925
ein	58901
\<	58897
ĠHigh	58895
object	58891
ĠPro	58890
Ġstrength	58880
\{	58856
tor	58817
Ġmusic	58812
GA	58811
Ġpopular	58798
Ġkids	58780
Ħ	58767
Ġ48	58715
ely	58695
board	58694
don	58691
Ġexercise	58675
Ġproper	58646
ĠCO	58615
ĠÂł	58595
Ġdescription	58569
specific	58560
Ġinterface	58529
NO	58518
sts	58467
Ġpanel	58452
github	58448
ĠEn	58434
Ġtruth	58396
ians	58323
Ġstuff	58289
Oh	58279
count	58276
ĠEnglish	58260
ĠDavid	58260
dr	58216
ites	58151
run	58080
Ġcontain	58050
Ġspecifically	58029
Ġspent	58025
ub	58008
Ġdenied	58007
/(-	57990
ory	57978
Ġplans	57968
Ġsurgery	57950
Array	57916
pers	57915
Phi	57910
Ġfamilies	57874
({\	57832
Ġstrategy	57826
Ġimport	57822
Ġperform	57816
istic	57806
Map	57793
ered	57778
Ġsolutions	57769
Ġsleep	57759
Ġalternative	57749
]{	57737
ĠCongress	57717
Cl	57715
Â¾	57709
Ca	57697
ĠCal	57678
Ġtested	57670
RS	57663
Ġmeaning	57647
kin	57580
Ġbio	57577
Ġofficials	57574
ĠInternational	57561
âĢ¢	57555
Ġwait	57544
Ġcareer	57537
Ġcouldn	57503
Ġserve	57492
ĠGo	57481
Ġsummary	57480
Ġ\,	57445
Ġwants	57438
Ġmentioned	57428
EA	57410
ils	57401
ldots	57344
Ġvoice	57343
fs	57335
è	57304
mp	57290
}}(	57283
Ġball	57260
sted	57250
cer	57220
star	57211
/**	57198
Ġ2006	57183
User	57169
Ġ2000	57161
]^	57150
ĠPr	57127
Ġelection	57083
src	57082
**)	57062
Ġstudent	57054
ica	57044
Ġprepared	57026
ney	57015
vers	56982
.](	56967
ini	56914
Ġofficial	56882
Ġ((	56868
han	56863
Ġdespite	56860
Ġleads	56840
Ġfemale	56783
ja	56781
Ġunless	56777
)**	56745
Ġnil	56719
Ġcycle	56691
Ġagent	56673
Ġstudied	56647
mers	56640
çļĦ	56592
Ġimproved	56570
cell	56505
Ġtypically	56477
Ġjudge	56462
IM	56460
tic	56452
Ġnuclear	56449
Ġcombined	56448
Ġexplain	56425
ĠIsrael	56420
write	56418
tz	56417
att	56374
par	56372
gl	56370
ng	56368
PE	56344
Ġpackage	56332
date	56300
nk	56291
des	56285
Ġsurvival	56243
Ġexperimental	56222
Ġmetal	56208
Ġplus	56201
Ġgrowing	56194
Yes	56174
Ġcontrols	56170
ures	56164
Ġsuccessful	56137
Ġcommunication	56132
Ġvote	56091
ĠEx	56090
Ġentry	56087
Service	56085
Ġpe	56078
Ġspin	56056
ena	56052
Ġmodule	56019
ĠCA	56010
tin	55965
_.	55963
Calculate	55958
Ġsi	55920
Ġattempt	55919
Ġ]	55919
Ġ-->	55893
Ġconfirmed	55872
eth	55830
RO	55829
oid	55812
ives	55789
Ġkilled	55787
Ġpicture	55771
inter	55765
Ġhour	55759
âĪĴ	55748
ux	55745
Ġstock	55728
ĠYour	55727
Ex	55724
Ġminimum	55723
ere	55717
lang	55708
prime	55696
Ġparent	55674
create	55656
ama	55648
Lambda	55647
Ġshot	55639
Ġforeign	55626
Ġ~	55601
Ġmolecular	55590
Ġjava	55584
ov	55581
position	55575
mat	55539
Ġcircumstances	55516
Ġguy	55505
tle	55502
Ġsociety	55502
che	55497
ack	55497
Ġinduced	55497
Ġpiece	55484
Ġperhaps	55459
rat	55429
ĠPat	55423
$(	55421
~~~	55411
ched	55384
Ġwave	55383
Ġagreed	55382
tics	55378
lim	55378
open	55345
Ġhttps	55334
Ġraised	55323
Ġoperations	55292
ear	55287
Ġanalyzed	55249
Ġhyper	55200
Why	55193
Ġgun	55188
Ġreached	55185
ening	55181
Ġwhereas	55151
Well	55149
Ġwalk	55136
ively	55131
Ġaffected	55130
Ġcounter	55125
Ġlinks	55107
ĠNote	55103
"></	55093
otimes	55086
Ġdied	55080
Ġqu	55076
AG	55065
Ġassociation	55063
Ġfeet	55023
Ġtools	55020
Ġcalls	55018
Ġhandle	55015
Ġofficer	55004
čĊčĊ	54999
Ġemployees	54994
Ġclasses	54984
style	54960
rl	54958
Ġliquid	54958
Ġvalid	54916
Ġsentence	54916
AM	54884
Ġnames	54854
SM	54850
RC	54839
Ġcauses	54795
(&	54784
ĠKa	54750
Ġprotect	54741
tting	54727
OP	54717
ust	54712
Ġwouldn	54692
Ġpick	54683
ring	54664
uc	54643
ix	54634
Ġprobability	54609
SI	54565
Ġkept	54520
Ġ33	54517
Ġcriminal	54486
}-	54475
ify	54422
main	54412
level	54388
Ġefforts	54383
ă	54378
Ġcollected	54362
ĠList	54346
Date	54341
Ġradio	54335
sto	54322
ford	54318
tar	54316
Ġhuge	54286
Ġtrust	54276
*(	54247
Ġoccurred	54247
.[@	54243
Ġmental	54236
rf	54223
fully	54211
Ġsrc	54206
Ġoccur	54200
cked	54184
boldsymbol	54182
ĠCode	54175
IR	54172
Ġcorrelation	54145
Ġtraditional	54139
MI	54132
Ġrelation	54114
Our	54081
Ġintroduced	54080
ĠEurope	54043
oo	54033
Ġdiscussion	53993
Ġsuggests	53987
her	53923
Ġcredit	53903
Ġestimated	53883
ĠMost	53860
Ġcertainly	53856
Ġpress	53833
ki	53826
ram	53825
model	53820
ination	53820
Ġexplained	53801
Ġstorage	53796
Ġnation	53795
Ġtechniques	53777
Ġstation	53758
nal	53757
Ma	53745
Ġequivalent	53727
Ġmovie	53704
While	53699
where	53692
Ġdiagnosis	53687
Ġ(!	53687
bed	53649
ĠLondon	53649
Ġstatute	53614
Ġremaining	53569
ĠNews	53545
Ġprotection	53528
ves	53518
Sigma	53512
ky	53506
Ġsexual	53494
rr	53481
Ġgone	53475
cor	53466
itis	53458
Ġappellant	53451
long	53445
Ġbuffer	53443
init	53430
Message	53379
Ġprofessional	53372
ĠGroup	53352
ĺ	53333
ĊĊĉĉ	53329
Ġforces	53279
Ġalgorithm	53274
hr	53260
)?	53228
Ġwhom	53223
Ġmid	53213
Ġbed	53134
Ġrequirements	53115
EL	53087
Ġbiggest	53052
Ġel	53043
ĠAm	53017
Ġ2005	52985
oy	52959
PL	52940
Ġnovel	52914
Ġchain	52899
oi	52880
sl	52876
Ġdes	52873
izer	52847
ord	52837
ators	52827
Ðµ	52821
ora	52801
Ġabsence	52779
ĠEl	52779
Ġrecords	52776
Ġbill	52754
va	52726
ified	52658
Ġgeneration	52650
ĠCan	52643
Ġac	52581
und	52567
cher	52567
Ġexchange	52533
CP	52529
Add	52524
light	52519
Ġolder	52517
EC	52513
Big	52500
ller	52495
Ġorganization	52495
Ġresponses	52455
Ġ("	52445
Ġmissing	52444
gh	52442
ave	52435
Ġserved	52420
Ġsoft	52377
Ġlaws	52356
Ġtrack	52348
Ġadding	52325
Ch	52316
ĠCommission	52274
Ġoffers	52264
Ġoptical	52252
ied	52248
ET	52235
load	52232
rt	52230
ĠEach	52199
Ġquantum	52184
Ġmotor	52170
Pa	52168
las	52163
Ġderived	52146
Ġcreating	52107
First	52096
ency	52084
mbox	52077
.</	52035
ved	52025
Ġscience	52023
Ġsubjects	52019
({	52008
tch	52003
Ġpurposes	51995
Ġdrop	51957
ES	51953
Î²	51921
uring	51919
Model	51916
čĊĠĠĠĠĠĠĠĠĠĠĠ	51907
Con	51905
EE	51900
Ġ42	51900
Ġeconomy	51871
nt	51866
ĠTexas	51855
See	51829
^[@	51813
Ġres	51808
300	51800
material	51793
Ġexternal	51790
DI	51768
£	51760
BA	51750
Ġ38	51743
Ġideas	51729
Ð¾	51717
Ġsummer	51714
default	51708
Ġintended	51702
BC	51701
Ġschools	51682
ration	51646
Ġassert	51625
Ġanimal	51551
Ġra	51545
Ġnone	51533
range	51530
Ġprogress	51525
Ġproperly	51517
Ġdie	51499
Ġcapital	51489
mes	51484
Ġrepresents	51458
ĠEast	51441
induced	51434
que	51428
Ġresolution	51420
Ġdirector	51418
Ġextent	51385
Field	51358
Ġem	51357
rus	51330
ĊĠĠĠĠĠĠĠĠĠĠ	51329
Ġab	51325
Ġexperiment	51321
*]{}	51312
Ġta	51301
Ġdecreased	51287
ices	51269
iled	51254
Ġfear	51244
ĠTV	51235
Ġachieve	51185
result	51178
TE	51169
ops	51144
ĠBritish	51143
Ġblog	51135
ind	51097
Group	51073
Ġap	51064
ĠSupreme	51059
ĠJust	51051
ĠPark	51049
Ġauthority	51041
Ġ""	51030
nch	51018
ĠPaul	51007
0001	51003
nonumber	50992
Ġmechanisms	50986
IF	50983
LS	50979
Ġfresh	50958
ĠID	50958
Ġvirus	50955
Ġprotected	50944
tors	50916
TO	50910
Â»	50906
ral	50903
Ġlargest	50881
Ġattorney	50848
Ġfeeling	50842
arg	50830
TT	50813
order	50792
Ġinterests	50732
kappa	50719
tan	50664
Ġmembrane	50652
ĠAM	50646
Ġtechnique	50643
ensuremath	50640
Ġteams	50638
AB	50635
ĠPe	50612
However	50605
iation	50597
Ġofficers	50581
Ġcrime	50578
Ġcard	50551
can	50540
ĠGoogle	50529
°	50507
Ġcontained	50502
Ġ34	50502
Al	50490
aring	50485
low	50464
Ġslightly	50439
ĠPo	50412
ow	50338
ĠPeople	50286
ĩ	50283
ĠSi	50278
hu	50267
En	50238
**]{},	50141
block	50139
ĠCouncil	50136
Ġfight	50122
Ġloop	50095
Ġwild	50065
Ġdriver	50062
Ġshared	50043
Ġguys	50023
osis	50016
").	50005
ĠBu	50005
circ	50004
Ġcharged	49998
ls	49994
Ġopening	49947
Ġrise	49940
ku	49937
Ġcharacters	49918
Ġconcept	49913
ages	49912
ake	49905
Ġbool	49890
ners	49878
Ġerrors	49869
Ġlatest	49858
Ġprojects	49828
Ġfloor	49800
ended	49799
{{	49786
âĢĿ.	49785
)"	49761
ries	49753
Ġoffered	49747
lock	49735
tag	49724
Ġholding	49686
Ġenter	49674
Ġconventional	49669
ĠCanada	49669
nn	49668
iss	49663
Ġcoverage	49646
ĠChinese	49638
Ġsevere	49625
DC	49623
Ġannounced	49621
Ġscript	49609
endif	49603
Ġth	49561
ĠFoundation	49551
HA	49535
System	49522
ĠStreet	49516
Ġdescribe	49456
Ġentered	49442
ĠRNA	49424
ography	49403
ĠBlack	49378
check	49350
Ġagents	49336
Ġinteractions	49333
ular	49319
Int	49311
ĊĊĠĠĠĠĠĠ	49284
Ġaccept	49278
scale	49274
Ġgain	49259
Ġsupply	49213
ľ	49182
Ġformat	49179
eno	49123
za	49112
Ġdecrease	49107
func	49104
ĠRev	49045
Ġmax	49040
Ļ	49034
Ġcol	49025
Ġprofile	49016
pp	49009
']	49007
Ġagency	49000
Ġswitch	48990
Ġband	48985
Ġanalyses	48961
oss	48959
summary	48947
Ġexception	48944
ĳ	48943
Ġfilter	48939
Ġdose	48931
lf	48927
Ġwish	48900
Ġconcentrations	48886
ĠRed	48882
ĠCalculate	48882
ette	48864
df	48843
OL	48837
Count	48818
tre	48807
ome	48805
Ġarm	48794
Ġoutcome	48793
Ġtravel	48734
ational	48723
âĢĬ	48693
Â½	48684
Ġreceptor	48684
sha	48682
Ġviews	48680
ĠJames	48666
zz	48636
Ġgenetic	48623
ĠGreen	48618
eas	48605
ĠTwo	48575
č	48547
Ġexistence	48546
Ġcommercial	48546
Ġfinite	48542
Mo	48530
Ġpossibility	48508
Ġequipment	48508
fl	48503
Ġplants	48473
has	48471
OT	48463
Ġoperating	48450
Ġdriving	48449
Ġmono	48433
:"	48428
Ġcompleted	48387
Ġ+=	48372
ĠSuch	48363
Ġsales	48339
Ġreturns	48335
Ġquery	48324
Ġbeautiful	48302
ional	48286
Ġpatterns	48284
Ġro	48280
Ġdog	48270
Ġinteger	48261
ĠTh	48255
Ġdoubt	48248
Ġsignals	48231
Ġwhatever	48229
Ġheavy	48215
ath	48214
oke	48190
Ġlo	48183
Ġidentity	48153
ĠGa	48106
ores	48079
ĠÃĹ	48078
Ġscene	48059
EP	48045
}.	48043
CE	48041
Ł	48037
Ġ2004	48027
Ġgraph	48021
sm	48008
Ġdiseases	48006
tri	47989
Ġinterested	47986
Ġgenerate	47983
Ġalleged	47975
]),	47972
Ġfair	47967
Ġtransmission	47966
eps	47952
ita	47944
à¸	47934
400	47931
Ġinner	47931
.$$	47920
Ġstable	47904
print	47890
ĠService	47883
Ġbutton	47876
ious	47857
Manager	47852
Ġcatch	47831
ĠFriday	47790
rad	47782
Ġappeared	47779
util	47773
Ġstars	47764
Ġindicates	47753
Ġmaintain	47746
tered	47726
ising	47708
property	47704
Ġimportance	47697
BS	47680
Ġgirl	47644
Ġspectrum	47630
Ġbl	47611
ura	47609
uck	47609
active	47594
Ġinstall	47593
nabla	47579
Ġmobile	47554
MC	47551
Ġconfiguration	47549
Ġhusband	47539
Ġcontrolled	47529
tab	47511
Ġ"[	47490
Ġ};	47473
Ġadvantage	47462
Ġholds	47452
widetilde	47448
hl	47425
Ġcold	47419
Ġconclusion	47412
Ġsequences	47387
ĠSu	47378
Ġruns	47342
.*	47335
eal	47334
ces	47331
Ġstraight	47309
Ġbank	47303
ada	47268
Ġweak	47244
Ġnet	47235
ĠWestern	47228
Ġhappens	47224
Ġkill	47211
ĠAd	47199
Ġmouse	47193
ids	47174
Ġdemand	47166
apache	47165
book	47162
Ġparticles	47147
Ġstruct	47146
ulation	47143
Ġfat	47127
Ġempty	47104
ãĥ	47090
Me	47086
lers	47077
tes	47073
}}}	47061
Ġfootball	47056
Ġsecondary	47048
Ġdefendants	47044
Ġbalance	47041
Ġreality	47037
Ġ2019	46987
Ġaren	46977
Ġnoise	46926
tty	46889
you	46886
Ġtri	46886
some	46882
Ġslow	46880
ï¼Į	46861
rie	46833
Ġreferred	46818
Ġmeasurements	46805
Ġshift	46778
Ġba	46752
ese	46742
ĠTheorem	46737
ĠBoth	46714
ĠMi	46666
iner	46653
ŀ	46649
Ġdigital	46648
ĠTa	46638
Ġne	46633
Ġsession	46631
och	46624
ving	46619
PP	46595
FA	46588
Ġcontinuous	46585
Ġinterview	46558
ĠInstitute	46547
atory	46523
Ġseemed	46514
Ġthrow	46509
Some	46506
LD	46501
false	46497
§	46483
Ġdeveloping	46466
sch	46438
ĠPre	46420
ss	46400
pes	46393
Ġstatements	46377
height	46342
dle	46335
tl	46330
Ġspeak	46317
ĠSmith	46316
late	46311
Ġsmooth	46249
Ġlibrary	46242
Ġalcohol	46241
Ġtransport	46239
eds	46211
Be	46196
ther	46165
Ġremainder	46162
2015	46157
Ġexpress	46156
Ġgr	46148
gt	46125
cur	46106
any	46105
ĠKing	46091
ĠMonday	46084
ĠAccording	46083
Ġdistinct	46033
zeta	45999
Or	45999
Ġrepresentation	45998
Ġleaders	45971
eng	45962
AF	45959
Ġadult	45955
tt	45943
Ġliterature	45938
dimensional	45924
Ġchemical	45918
Ġcollege	45889
ĠMichael	45884
lk	45881
Ġfaith	45877
Ġapproved	45871
gers	45869
Ġring	45856
ĠCompany	45855
Ġfish	45841
Ġecho	45837
Ġcustom	45829
Property	45809
Ġsale	45803
SO	45797
Ġchronic	45775
DB	45773
section	45763
ĠLaw	45746
Ġjobs	45733
Ġcarry	45731
lis	45723
Ġlatter	45721
Ġspread	45718
Ġissued	45676
ĠEq	45666
pu	45636
Ġenvironmental	45632
oh	45617
Ġborn	45615
Ar	45608
aries	45603
Ġsquare	45603
Ġextremely	45584
etic	45582
Ġpara	45571
Ġfl	45563
cy	45559
Ġclub	45556
Ġspeech	45552
ony	45547
dependent	45542
TI	45530
ĠCommittee	45518
Ġplasma	45507
į	45501
ching	45498
Ġtrain	45495
Ġliver	45485
Ġknows	45482
yer	45472
Ġleader	45470
eat	45453
ĠFacebook	45434
Ġestimate	45411
UN	45396
}+	45392
Ġformula	45371
Ġexamples	45371
aa	45368
Ġabuse	45367
Ġcovered	45357
sup	45351
Ġ500	45342
ola	45338
Ġprob	45326
xe	45308
Ġcharges	45271
Ġplatform	45252
Ġahead	45246
Ġregulation	45245
++	45220
ĠCI	45216
ĵ	45207
event	45206
Ġ${	45202
try	45201
------	45199
ected	45141
Pr	45138
rit	45136
Ġaware	45126
Ġserum	45122
Ġsun	45117
Ġeat	45116
ĠJapan	45116
Ġsubstantial	45094
Ġguess	45090
Ġsigned	45088
ico	45079
Ġopened	45079
rum	45046
Ġimplementation	45027
font	45025
ich	45011
isation	44962
IO	44960
local	44942
Ġho	44923
ł	44917
Ġpurchase	44908
Ġchurch	44903
Ġcustomers	44899
cha	44863
ĠSet	44860
zo	44841
oon	44840
post	44834
Ġoccurs	44826
FC	44818
čĊĉĉ	44809
ened	44791
Ġbo	44761
Ġfix	44758
Ġextension	44758
ĠLeague	44755
rel	44741
ties	44734
lum	44730
Ġrecorded	44718
)*(	44717
ain	44716
Ġdelivery	44693
Ġcompounds	44690
yr	44673
message	44663
Į	44658
Ġdecisions	44655
ori	44648
Ġdiscuss	44645
Ġ39	44621
RP	44616
exp	44611
ales	44556
Ġreceiving	44531
Ġevaluated	44523
Ġassay	44510
vy	44500
Ġnetworks	44492
first	44481
Ġvisual	44476
Ġfreedom	44476
Ġallowing	44450
Ġcalling	44445
Ġextended	44436
Ġleaves	44421
ĠFOR	44402
Ġviolence	44385
005	44378
Ġbirth	44375
ln	44355
ĠAmericans	44344
DR	44331
Ġsuit	44323
Button	44318
CG	44317
Ġpercentage	44316
abs	44312
é	44305
Ġhaven	44305
eu	44299
dly	44295
ining	44293
Ġestablish	44291
Ġoutcomes	44273
Ps	44258
ĠAb	44254
ĠBank	44241
ĠFrench	44230
Ġconcerns	44227
Ġ()	44223
Ġsubsequent	44207
Ġdigit	44205
Ġleaving	44197
Ġassessment	44189
ĠWeb	44184
ĠSunday	44182
ĠUnion	44170
Ġthousands	44162
arr	44154
cent	44121
Ġtestified	44102
Ġhelped	44100
$$\	44094
Ġowner	44091
Ġmuscle	44085
Ġmostly	44072
Ġflat	44067
rc	44063
Ġ2003	44055
ĭ	44054
ĠCollege	44052
Ġunderlying	44042
Ġimmune	44034
Ġevolution	44021
ĠUnder	44020
part	44006
Ġarguments	43999
EX	43998
Ġran	43992
Ġfluid	43976
Ĥ	43961
ĠDon	43936
Ġefficiency	43935
sis	43932
PI	43929
FF	43917
Ġfa	43917
ĠFinally	43911
GL	43889
van	43888
Ġthank	43882
ı	43849
target	43845
}}{	43836
ĠHu	43815
dots	43810
ges	43809
nting	43808
ĠWhy	43783
Ġcriteria	43782
Ġtraffic	43774
Ġrepresented	43765
ĠDay	43763
Ġcr	43762
004	43756
Ġcarbon	43734
null	43714
Ġcentury	43710
ĠSp	43696
Ġraise	43694
ĠCom	43678
Ġworse	43673
Ġbaby	43666
Ġapparatus	43633
ĠGovernment	43616
rated	43613
ON	43610
Ġgreatest	43586
Ġexamined	43576
ending	43563
cast	43562
ĠGr	43546
vin	43543
)=\	43538
>(	43536
Ġgrow	43526
})$	43499
Element	43499
ĠAssociation	43469
Ġlearned	43461
ston	43459
Ġspecified	43458
ĠDuring	43450
media	43437
Ġexact	43435
Ġcivil	43431
[\	43419
Ġmm	43414
Ġeventually	43408
yn	43391
Ġcu	43379
ĠUsing	43379
2013	43363
Ġbreast	43351
Ġpowerful	43346
ona	43340
Ġdetail	43332
used	43328
eri	43325
frame	43323
Ġcandidate	43290
Ġcurve	43280
win	43246
ĊĠĠĠĠĠĠĠĠĠĠĠĠĠĠ	43236
ams	43227
vo	43216
ider	43211
Ġdepends	43206
ĠOther	43204
fr	43196
Ġscheme	43189
Ġlimitations	43189
Ġsemi	43181
2016	43166
Ġincident	43166
Ġplane	43159
Ġlicense	43130
Ġpositions	43129
UI	43128
][	43114
Ġthin	43106
'.	43104
Source	43077
ĠChurch	43071
hes	43056
FS	43045
Ġpeak	43031
Ġvoltage	43021
Ġsurvey	43009
gan	42994
ope	42980
Ġport	42980
ĠJudge	42979
ĠGu	42965
ĠYes	42953
lam	42952
wi	42946
ases	42941
ĠPA	42930
Ġbu	42925
Ġinvestigated	42922
ĠTuesday	42915
rac	42908
ĠGermany	42903
These	42899
Ġenjoy	42874
Ġsea	42871
2014	42856
Le	42852
vis	42838
OD	42835
Ġachieved	42830
ire	42789
Ġtypical	42784
Ċĉĉĉĉĉĉ	42782
ella	42762
```	42756
ado	42740
Ġbooks	42737
dal	42734
Ġpathway	42734
Client	42720
eration	42715
ĠScience	42715
Ro	42706
izes	42700
xml	42699
MO	42696
Ġ${{\	42686
Ġmixed	42685
Ġ75	42673
Ġchanging	42657
128	42653
other	42647
Ġsold	42640
Ġpolicies	42634
acy	42630
jo	42628
inal	42625
ĠSun	42613
current	42610
ĠNOT	42610
Ġglass	42606
La	42602
ÃŃ	42596
Ġfoot	42592
Ġsc	42561
ĠBig	42539
Ġprocedures	42531
pc	42526
Ġstandards	42523
Ġnine	42506
ĠNone	42506
Ġstream	42502
supplementary	42499
Com	42490
ingly	42482
Ġrecovery	42477
Ġapplicable	42451
doc	42442
lar	42433
Ġgranted	42430
Ġcomplaint	42420
Ġspend	42404
ĠMany	42401
ward	42392
GE	42392
Ġfilms	42386
Number	42382
IV	42382
}=\	42380
amine	42373
format	42366
yo	42363
Ġ2001	42354
Ġmod	42346
LY	42327
button	42317
oli	42316
ãĤ	42306
Then	42304
ĠBi	42288
\"	42281
cts	42279
Base	42279
Ġgoals	42264
ection	42249
ĊĊĠĠ	42232
Ġfavor	42230
iting	42218
sn	42205
Ġexpansion	42202
Ġrich	42197
Ġacts	42194
Ġisolated	42183
ĠJa	42183
json	42162
Ġmurder	42157
¸	42150
pper	42114
parent	42112
Ġlabel	42088
2012	42083
Ġdesired	42079
Ġquick	42072
ured	42066
otic	42057
ito	42055
mg	42054
Ġevaluation	42044
Ġdelay	42042
Ġseeing	42033
Ġyes	42019
?âĢĿ	42013
rol	42006
Ġeasier	41968
Bar	41950
Ġsubstrate	41926
ined	41925
ĠFree	41916
ĠIII	41909
arm	41890
uint	41871
ĠDa	41871
Ġevaluate	41867
Ġindeed	41860
Ġsections	41856
Ġrelief	41831
Ġstrongly	41829
LC	41828
ĠNe	41827
Config	41823
:\	41801
Ġdetailed	41797
Ġfunds	41783
ame	41782
Ġinvestment	41759
Ġinvestigate	41737
gue	41736
ĠPress	41733
Ġobvious	41717
ost	41703
Ġjoin	41701
Ġchosen	41700
Ġbrief	41652
Ġentitled	41637
Ġcool	41637
Ġbus	41622
dl	41600
ĠWhich	41590
Ġfourth	41575
ius	41568
kg	41565
rine	41561
Don	41560
Ġcategory	41526
Ġstored	41523
een	41514
Ġcluster	41508
ptr	41505
"),	41503
fo	41500
ĊČ	41485
aps	41469
Ġwa	41463
ains	41461
%.	41456
Ľ	41440
Ġbroad	41439
Ġcommitted	41437
ads	41400
Ġdaughter	41400
Ġconclude	41371
....	41369
Ġ{{\	41368
Ġduty	41368
Ġmeant	41366
Ġgl	41350
Ġconsidering	41340
ĠMon	41337
Tr	41313
mann	41300
Ġdirected	41297
ĠCr	41297
Box	41260
}}_{	41243
module	41242
Ġval	41242
Ġ64	41232
ĠEngland	41217
Ġpayment	41213
^âĪĴ	41206
$)	41197
Ġelectron	41194
sta	41192
Ġthanks	41188
ĠAustralia	41187
Ġ65	41181
2017	41170
Ġsell	41161
work	41160
Ġprices	41159
"""	41146
Ġvictim	41146
Ġ41	41142
CF	41126
Ń	41124
else	41117
eli	41105
last	41103
context	41096
Ġdocuments	41096
Ġtend	41093
request	41084
Ġreligious	41082
ĠFlorida	41081
Ġorigin	41064
Ġforced	41047
ua	41041
ition	41034
ĠParty	41029
status	41025
ble	41024
ville	41011
Ġintervention	41005
Just	40991
Ġlisted	40990
Ġdebt	40974
»	40971
aj	40946
Ġti	40944
uses	40926
cho	40915
san	40903
Ŀ	40902
lie	40897
Ġclick	40897
Di	40895
SU	40891
ole	40885
,'	40884
Ġconflict	40857
mid	40844
ĠTime	40840
Ġdetermination	40839
Ġstories	40821
AI	40817
Ġequations	40815
vel	40813
Ġskills	40813
ĠDu	40811
Ġfocused	40796
del	40781
Ġpush	40769
}}^	40766
Ġdepending	40755
Override	40751
Ġplate	40729
Ġwaiting	40712
Ġconcern	40708
Ġlose	40697
gar	40691
Content	40682
/(	40672
Ġvirtual	40665
ĠâĢ¦	40664
Ĺ	40652
lp	40648
sters	40647
Ġexcellent	40639
ĠCopyright	40631
Ġresulted	40628
.......	40624
ĠLu	40612
lines	40605
Ġintra	40589
Ġfuel	40589
ħ	40579
Ġ2002	40574
Ġmi	40558
Ġmeasurement	40557
2000	40552
Ġdry	40551
LO	40548
\/	40520
Ġobservations	40519
Ġburden	40518
Ġuint	40515
Ġpossibly	40513
ĠPer	40511
ogen	40496
Ġversus	40489
Ġparallel	40481
Ġcup	40481
Ġmodified	40468
ĠRussia	40462
Ġplays	40450
Ġbelieved	40443
stream	40439
ĠGeorge	40434
Result	40433
rio	40428
cdots	40419
sf	40399
Version	40390
Ġregard	40375
Ð°	40361
Ġprotocol	40356
Ġfans	40320
Ġassuming	40300
ĠAdd	40300
-(	40287
ĠChrist	40273
Ġtouch	40265
Ġban	40261
ĠCircuit	40259
ĠGe	40258
"}.	40254
Ġfloat	40235
Ġhousing	40226
Ġneither	40223
lli	40221
\|	40214
Ġdiet	40204
Ġangle	40201
ĠHIV	40192
Ġreplace	40189
rem	40175
Ġfees	40175
ows	40170
NC	40169
trans	40157
Ġoffense	40152
Since	40139
006	40114
house	40109
ĠNO	40107
server	40106
Ġtwice	40101
ĠAny	40067
Ġemployed	40062
eve	40055
\*	40051
Ġapproaches	40048
Ġcommunities	40042
Se	40038
ĠThursday	40022
Ġresource	40018
ĠNS	40017
_{{\	40010
Ġdecide	40007
Ġdamages	40004
**]{}	39968
å	39959
Ġneuro	39952
Ġ55	39932
cd	39923
Ġconfidence	39923
/\	39911
¾	39910
mark	39899
Ġnodes	39898
Ġplanning	39882
ĠOpen	39882
Ġ44	39874
web	39871
tel	39867
ĠTest	39856
Ġaward	39855
ĠPar	39840
ĠAS	39836
Ġmanager	39830
gn	39809
Ad	39805
¥	39802
ĠDis	39780
md	39773
ĠĊĠ	39771
ĠPi	39770
tering	39767
Ġstanding	39765
Ġmeta	39759
.**	39753
Ġstreet	39725
Ġ300	39720
ĸ	39698
ĠWednesday	39688
Ġcompare	39684
Ġaccuracy	39644
ison	39640
Ġtreat	39640
ctor	39636
Read	39620
Ġfunding	39618
ĠWindows	39596
Ġconcerned	39569
Ġhelps	39567
]--[@	39562
Ġwind	39542
Ġefficient	39535
ump	39531
Ġtrials	39521
Ġscores	39513
client	39506
Ġtrip	39491
Ġsensitivity	39476
layout	39447
)[	39443
ļ	39441
ĠSaturday	39440
Which	39434
ĠAc	39413
Ġmainly	39400
Ġguilty	39388
2011	39383
2010	39381
own	39368
Ġbudget	39362
Ġboundary	39360
GC	39354
Ġasking	39352
android	39332
)^{	39327
Ġadults	39325
Ġrelationships	39320
ĠSub	39320
author	39297
ifying	39291
Ġmark	39288
icon	39286
Ġspot	39274
Ġelectronic	39266
ĠPost	39259
Can	39251
Ġret	39247
Ġ49	39247
Ġmaster	39244
Ġinvolving	39236
Ġexperienced	39227
cat	39219
Ġsw	39209
uted	39205
Method	39204
PT	39201
msgid	39200
ãĢĤ	39176
Last	39175
uri	39174
PO	39170
Ġfinished	39168
References	39156
FI	39150
Ġexposed	39147
ĠSolve	39146
ĠJapanese	39128
âĢĿ,	39111
Ġcontribution	39107
DP	39105
Ġ00	39105
GG	39098
olo	39097
Ġcash	39094
·	39092
008	39091
)]	39089
Ġsignaling	39081
Ġadvice	39068
ĠTe	39068
nus	39063
Psi	39058
Ġextends	39050
ĠHar	39046
Note	39033
ĠNi	39025
["	39007
¶	39002
Ġemployee	38984
ored	38963
ji	38963
Ġacute	38961
ĠJesus	38950
Ġframework	38942
ĠFile	38937
ĊĠĠâĢĥ	38927
ever	38921
Ġcontinues	38913
entry	38909
Ġcapable	38898
Ġfundamental	38891
ĠPC	38890
120	38887
ĠĊĠĠĠ	38887
ĠFa	38885
sco	38876
ĠFederal	38860
select	38849
sky	38846
&\	38837
Ġcomposition	38825
Ģ	38812
Ġsettings	38806
Ġpeace	38788
ĠFrance	38785
Ġplot	38770
Ġassessed	38770
Ġintensity	38766
ends	38756
nor	38743
ique	38738
âĢ²	38737
wer	38725
**(-	38716
BI	38712
Ġrefer	38708
Ġ46	38685
ances	38682
Ġop	38673
800	38651
Ð¸	38645
Ġguide	38635
ĠInternet	38628
Ġ47	38622
wood	38602
OC	38592
CM	38586
Ġordered	38575
ĠOffice	38573
uff	38572
ĊĊĠĠĠĠ	38572
Ġdemonstrate	38571
Ġbiological	38565
Ġadvanced	38562
Ġpartner	38558
Ĩ	38555
din	38553
Ġconnect	38550
Ġplaintiffs	38546
Ġmon	38543
Ġ_{	38535
ths	38516
Ġrelates	38514
sion	38485
Ġquarter	38478
ĠWell	38471
ĠGen	38449
har	38445
tis	38425
ĠCor	38404
Ġpersons	38399
Ġthread	38395
Ã¤	38382
ĠSuper	38366
ĠMI	38354
Ġscope	38352
Action	38351
more	38344
Simplify	38344
Ġchallenges	38312
Ġgold	38307
Ġpotentially	38306
Ġinterval	38301
Ġsuitable	38298
TP	38297
Ġimaging	38283
nts	38276
elle	38271
itch	38264
ean	38263
Ġhumans	38252
Ġvelocity	38251
png	38250
Ġship	38247
BP	38233
]);	38232
Ġconference	38214
ited	38207
ĠMA	38195
Ġrats	38187
Out	38179
Ġstopped	38179
Ķ	38171
007	38161
ĠType	38160
Ġconsent	38150
Ġdraw	38140
Ġstatistical	38132
ele	38130
Click	38111
Ġimprovement	38107
nds	38101
wing	38093
oth	38088
Ġbrother	38080
put	38069
Ġsalt	38053
Handler	38049
matic	38041
ĠCl	38026
Ġfirm	38025
ym	38019
Ġengine	38018
ĠDefendant	37993
Ġclaimed	37981
ĠFe	37971
Ġremained	37967
Ġopposite	37942
bes	37940
čĊĠĠĠĠĠ	37892
Ġduration	37884
According	37877
Ġcent	37872
Ġended	37861
vol	37850
Ġdepartment	37833
Ġjoint	37828
ones	37826
¬	37815
Ġunknown	37814
yes	37797
ues	37774
lem	37774
Web	37763
Ġreflect	37758
Ġspring	37755
Ġsuggesting	37748
Ġroute	37748
ĠPlease	37741
Line	37737
msgstr	37726
Ġreverse	37721
ĠAfrica	37696
Ġfrequently	37689
Ġdiscovered	37679
Ġhence	37660
Ġ56	37657
110	37653
Ġsl	37638
Ġdetect	37637
Create	37636
ail	37629
ĠAir	37612
zy	37609
Ġpool	37608
Ġpartial	37598
ĠÂ£	37589
ĠInter	37584
Response	37581
ĠRussian	37577
ì	37568
Ġstrain	37564
ĠUse	37563
PD	37561
MT	37549
Ġ43	37543
Ġargues	37518
ĠRule	37509
${	37506
600	37484
ĠFurther	37476
package	37473
rea	37469
Ġlimits	37466
2018	37462
NG	37447
ĠLord	37440
ĠRepublican	37438
build	37437
Ġnecessarily	37434
Ġmarriage	37408
Ġsides	37403
ien	37401
rim	37372
ĠRu	37343
ĠMark	37342
Ġannual	37338
ye	37336
Ġarms	37330
150	37324
ural	37321
itz	37314
mor	37312
ĠANY	37291
ace	37290
Page	37285
inger	37283
Ġthreat	37281
"})	37265
Ġcourts	37262
Ġseconds	37244
Ġradiation	37223
Ġsit	37221
Ġvariation	37215
Ġassembly	37208
ãģ	37200
MM	37200
Ġstability	37191
aly	37180
ert	37166
¦	37162
Ġbone	37162
iter	37151
Ġideal	37145
ī	37144
Ġice	37142
ĠHence	37116
img	37114
Sub	37104
tion	37099
RF	37093
Ġwidely	37087
ĠRiver	37079
ĠMinister	37070
End	37064
Ġmu	37061
gel	37050
Ġmargin	37038
Ġantibody	37024
Ġthereby	37020
Ġgrant	37015
NE	37003
Ġbattle	37002
Ġintent	37001
Ġfail	37001
bc	37000
ĠGerman	36994
ÂłÂłÂłÂł	36986
Ġdefinitely	36978
Ġthreshold	36968
search	36966
system	36963
Ġabsolute	36957
NAME	36950
Ġprovision	36940
ĠTwitter	36936
¯	36932
ĠChristian	36919
([	36908
Ġimmuno	36904
number	36898
¤	36892
TG	36888
equ	36886
Ġdimension	36880
ort	36871
Ġlinked	36871
next	36856
Ġaspects	36856
Ġcl	36855
dom	36849
Ġoral	36837
ken	36835
ĠJohnson	36829
Ġattacks	36811
phy	36807
Ġnumerous	36807
Ġkeeping	36795
je	36792
Ġimplies	36788
OK	36766
Ġpopulations	36766
Ġcamera	36761
Ġstarts	36759
cus	36756
Any	36754
Ġindicating	36752
Ġstructural	36723
Ġrelations	36710
00000	36698
tus	36690
Ġforth	36687
Ġmixture	36684
Ġidentification	36669
hn	36649
site	36636
graph	36631
ĠRobert	36630
rest	36620
ND	36619
Ġaccepted	36611
ired	36610
ĠJustice	36606
Layout	36605
Ġaxis	36599
Â·	36582
match	36580
ulate	36557
Ġinterpretation	36553
ĠClass	36548
Ġmortality	36546
Ġunable	36543
std	36529
Ġcoach	36529
Ġinstructions	36527
Ġentirely	36525
Ġviolation	36523
ently	36514
mn	36506
Ġenable	36503
nin	36494
Ġpull	36494
Ġtruly	36481
ĠOnce	36474
Ġrecognized	36464
ami	36463
Ġsupposed	36455
sty	36453
)}\	36451
Ġfan	36443
Ġcellular	36436
³	36431
Ġmission	36431
Ġgonna	36431
©	36430
met	36428
lat	36424
Ġ51	36397
Ġscientific	36394
Ġcontribute	36387
Ġpractices	36386
ĠOnly	36382
UR	36369
NI	36369
Ġgirls	36366
Ġfraction	36356
show	36354
Ġchief	36328
Ġlung	36322
Ġnotes	36317
Ġte	36303
Status	36292
Ġdegrees	36287
ote	36274
Ġmassive	36270
Ġends	36266
Ġarrest	36262
Point	36261
call	36255
Ġsupporting	36247
nda	36237
Ġcat	36235
**,	36217
omo	36216
Ġdoctor	36211
Sa	36196
ket	36191
eed	36189
ĠGive	36185
was	36175
tain	36171
split	36167
air	36161
Solve	36154
Ġfi	36153
Ġminute	36143
Ġsupra	36135
Ġresponsibility	36123
Pro	36117
MB	36110
ĠHospital	36097
Ġbecoming	36090
SR	36083
Ġsigns	36082
Ġemployment	36076
Ġda	36076
HE	36072
Ġmiles	36068
"]	36047
*/	36045
comp	36034
ĠJo	36026
ĠSenate	36021
Ġattached	36017
Ġappearance	36003
ĠSecond	35984
Ġseek	35979
Ġrare	35976
Ġtechnical	35969
txt	35961
sor	35959
ĠBrown	35947
ima	35939
ĠCu	35937
Ġaim	35936
rous	35935
000000	35935
append	35919
Ġelectric	35912
mail	35893
ture	35892
Ġcompound	35889
math	35886
mas	35885
Ġresidents	35877
Ġmanaged	35877
Input	35857
Ġdisk	35856
Ġfell	35848
only	35847
iling	35841
Ġdependent	35838
Ġmix	35826
ark	35821
Ġdynamic	35820
ĠProject	35801
Ġvitro	35800
Ġmolecules	35789
Ġche	35788
widehat	35787
bd	35781
Ġconcluded	35774
Ġhole	35769
pen	35766
tant	35762
Filter	35731
#:	35727
Default	35724
ĠIndian	35722
oring	35719
Ġfill	35718
Ġna	35713
Go	35700
Ġamounts	35679
Ġcommonly	35677
ĠArt	35667
ski	35661
Ġboy	35659
ĠWa	35658
option	35651
hand	35634
Ġnarrow	35634
ink	35629
query	35620
Ġassigned	35612
Ġconsideration	35608
ati	35602
ĠMac	35600
ĠLife	35598
Ġsplit	35597
bing	35585
Your	35557
prop	35541
Ġsin	35540
ct	35525
Ġunderstood	35523
ĠBl	35518
Ġarticles	35512
Ġdynamics	35509
control	35503
ban	35503
ĠAPI	35502
high	35496
Ġsought	35488
Ġassess	35486
aging	35479
Ġrequirement	35478
Ġpan	35470
ĠThomas	35451
Ġyield	35449
ĠQu	35448
Please	35447
Ġgender	35446
´	35444
Ġpl	35433
Ġexpert	35428
Ġeffectively	35426
>,	35425
Ġaccurate	35425
ĠInstead	35421
Two	35405
output	35399
TD	35395
Ġsensitive	35358
ĠTheir	35325
Ġestimates	35315
Ġjurisdiction	35310
gy	35303
%%	35302
ographic	35292
oz	35221
Ġfilled	35220
Ġtemplate	35217
ode	35205
word	35177
inner	35177
ĠPlaintiff	35176
VE	35170
gra	35169
Ġoxygen	35155
Ġ52	35142
ĠSc	35138
TER	35136
ĠOver	35118
lies	35117
Ġdecades	35112
Ġusual	35111
ĠVi	35107
nan	35106
Log	35106
++)	35093
Ġgap	35088
tical	35079
ijms	35079
Ġmessages	35072
]\	35071
Ġbinary	35057
css	35052
Ġestate	35051
oral	35045
Ġjustice	35036
Ġspending	35012
ester	35008
rant	35003
ett	34998
\]).	34977
nc	34971
rich	34969
rick	34966
Ġseeking	34957
Ġsenior	34929
Ġadmitted	34924
)+	34909
Ġcap	34904
usion	34887
ĠMath	34877
Ġfavorite	34875
Ġwww	34866
Ġsugar	34862
Ġinfo	34860
anc	34858
Ġconsumption	34844
eur	34836
cing	34831
ĠKo	34831
Ġtelevision	34818
LP	34791
Ã³	34769
Ġstrategies	34766
Ġsecure	34756
rer	34745
DM	34744
Ġobjective	34744
2008	34741
une	34727
Ã¶	34722
each	34717
ĠEd	34699
Ġiso	34692
ju	34687
Ġsqrt	34683
Ġdepth	34673
itation	34658
FR	34656
Ġbroken	34651
center	34650
Ġassistance	34641
EM	34626
Ġcharacterized	34620
Yeah	34610
Pre	34600
hs	34590
==========	34585
SF	34574
**(	34564
Ġ72	34564
nie	34554
ĠTimes	34554
private	34551
mL	34550
ula	34542
float	34539
ove	34518
rds	34507
Ġsmallest	34500
Ġsecret	34500
Ġadvance	34483
ela	34480
BR	34477
Ġcompetition	34462
Ġcast	34453
itt	34451
ĠMS	34442
Ġpredicted	34435
Â¸	34423
atic	34418
Ġemission	34413
lc	34407
ENT	34400
ĥ	34398
ĠIndeed	34393
wers	34386
Ġtissues	34377
;\	34363
ĠSch	34362
Ġamino	34353
SL	34348
Ġminor	34344
Ġfo	34332
Ġamazing	34328
ush	34324
Ġorders	34321
Ġwitness	34317
Ġexpensive	34305
ĠEarth	34305
Ġrel	34284
subset	34277
^+	34277
Label	34275
atin	34262
160	34248
aro	34244
Ġneurons	34231
dx	34217
Ġprinciple	34214
ĠObject	34210
Ġzone	34192
Ġsur	34179
qui	34175
ĠPl	34154
ĠBill	34137
ĠInformation	34134
Ġrecommended	34114
Pi	34108
Ġcustomer	34101
ĠStar	34092
Ġsupports	34085
lit	34072
rib	34071
2009	34068
Ġmouth	34048
Ġparticle	34044
BE	34033
arc	34027
1000	34027
Ġpages	34001
^,	34000
Ġpieces	33997
;&	33992
Ġles	33987
').	33972
ff	33968
Ġdownload	33966
ema	33964
Ref	33962
tted	33951
Ġmanuscript	33947
});	33936
ivity	33921
Ġwatching	33916
Ġes	33914
RB	33909
DO	33900
Ġfinish	33897
ĠMedical	33895
RN	33878
obj	33876
Ġsyndrome	33876
real	33874
lor	33859
LT	33859
Ġspaces	33856
vs	33834
Ġsmart	33833
Ġcausing	33833
¨	33829
<?	33824
Ġsweet	33821
Ġsuccessfully	33808
Ġchannels	33792
Ġurl	33784
nis	33780
Lo	33767
Ġbaseline	33765
ĠDE	33765
MD	33757
owing	33748
Ġcorner	33745
rey	33732
template	33731
Ġtargets	33731
Ds	33728
Bo	33716
Ġnorth	33709
pla	33708
BL	33707
HR	33702
molecules	33686
Ġwaste	33672
}}{\	33667
Ġcrisis	33651
Ġreducing	33649
ete	33639
Ġ1999	33606
Ġouter	33592
VA	33591
Ġrecommend	33588
Ġsitting	33576
Ġcomposite	33575
Ġimpossible	33567
ress	33561
Ġlargely	33560
Ġcur	33548
Ġrepresentative	33541
Ġrespond	33538
Ġunion	33537
²	33536
ĠCentral	33536
sz	33534
Ġinhibition	33525
Query	33520
Ġconstruct	33519
Ġbr	33506
Mi	33494
HI	33482
Ġautomatically	33481
Ġpetition	33473
Ġwear	33469
Ġtrouble	33468
home	33463
Ġconfig	33462
ware	33445
\-	33437
Ġinstalled	33433
Ġinformed	33433
dor	33410
^-	33408
Ġĉ	33404
Ġauthorities	33398
Start	33395
Ġpromote	33391
Ġdiabetes	33388
]$	33385
Ñĥ	33379
Ġtight	33370
Ã	33368
Ġresearchers	33366
root	33363
erman	33354
Ġgrand	33349
Ġpi	33348
HS	33346
Where	33345
Ġprefer	33342
Ĳ	33300
Next	33296
Ġ150	33292
oph	33283
Ġconversation	33279
ann	33274
Ġtu	33271
lus	33266
ĠUI	33257
Ġ120	33257
Ġexamination	33245
Ġdisorder	33242
Ġmarried	33239
â	33235
nant	33234
Ġorganic	33219
ĠSoftware	33211
Thanks	33202
nh	33187
auto	33171
iso	33163
Ġdebate	33163
¹	33147
alt	33141
ups	33136
Ġlaunch	33130
Ġearth	33123
Mr	33119
asing	33102
Ġvisible	33090
Ġstrains	33088
location	33083
Ġtag	33082
war	33081
options	33068
Ġweekend	33054
Ġproportion	33054
ĠLemma	33048
Ġputting	33046
Ġbag	33046
Ġturns	33043
ĠCol	33037
Although	33036
Ġsector	33028
sd	33024
Ġref	33022
eer	33017
Builder	33013
Ġjoined	33004
Ġau	33001
Ġfaster	32992
Sh	32991
Ho	32986
ĠChicago	32982
ĠOut	32975
Ġconcerning	32974
mode	32967
Ġil	32952
Ġreplaced	32950
Ġobservation	32945
Ġdream	32945
Ġfacilities	32944
ĠField	32942
MR	32934
Another	32934
Ġsolve	32932
los	32926
Ra	32926
ĠFIG	32921
Ġlabor	32905
}/	32904
Ne	32894
,$	32881
Ġherself	32881
ald	32876
CIT	32875
fold	32873
FE	32872
EG	32863
ĠFr	32853
ĠAfrican	32836
Ġorgan	32832
uting	32820
ubuntu	32813
alo	32812
Ġacting	32807
Ġcm	32801
ĠIts	32801
Ġwilling	32798
.-	32788
Ġillegal	32775
^+^	32774
Ġlayers	32774
]{},	32773
Ġmention	32750
(*	32746
±	32740
oni	32740
ises	32739
find	32739
Ġcitizens	32739
dh	32725
Ġantibodies	32712
DD	32711
ĠMu	32700
Ġdangerous	32699
Style	32690
hy	32686
Ġprison	32685
Ġassumed	32679
009	32676
eck	32675
Ġcandidates	32674
Ġseat	32673
make	32666
ĠClinton	32666
Ġge	32661
ĠGreat	32660
berg	32657
END	32654
Ġinvolves	32645
Ġrepair	32635
RNA	32628
ĠmRNA	32626
ĠpH	32625
Ġmenu	32621
ĠEU	32613
Ġmerely	32610
Ġmatters	32607
yan	32596
Ġtherapeutic	32595
Ġemergency	32592
ili	32584
})\	32580
IE	32552
ĠBay	32542
mps	32541
ĠWi	32539
tas	32534
pan	32533
tho	32527
ĠIran	32524
ily	32518
URL	32516
BO	32512
OU	32506
Ġrec	32505
description	32499
stone	32496
pid	32488
Ġperspective	32482
Ġexperiences	32477
FT	32474
Ġhundreds	32468
ede	32457
ono	32450
Ġhundred	32448
Ġcontainer	32448
sensors	32446
Ġdepend	32443
ĠSecurity	32442
flow	32435
Ġ1990	32425
essed	32424
:(	32420
ĠAnother	32411
Ġpassing	32397
Ġlowest	32394
Ġexecutive	32392
Ġpairs	32383
buf	32382
ĠRi	32375
bound	32366
Ġdetermining	32366
ĠRE	32361
urs	32356
Frame	32343
aged	32325
equiv	32319
tos	32311
hing	32303
Ġoffset	32294
ĠTi	32285
Ġbias	32281
Ġnative	32274
Â	32273
Ġlen	32268
Are	32263
Ġ2020	32263
=======	32259
Ġfamiliar	32259
ĠPeter	32259
ender	32258
NT	32249
Ġaspect	32247
Ġmilk	32242
Ġclosely	32238
Ġlived	32225
DL	32211
ĠÃł	32199
Ġcompact	32194
oxy	32189
lia	32168
Ð	32166
Ġproved	32166
method	32161
Ġdirectory	32161
Ġregister	32144
Ms	32141
Ġiron	32141
lab	32139
Ġmanage	32132
Ġaid	32132
ndi	32123
leg	32122
Ġwalking	32119
Ġsignificance	32113
Ġpolitics	32107
types	32104
Ġposted	32103
Ġfeed	32092
foo	32088
DF	32087
Ġ99	32066
under	32063
Ġliability	32060
ĠHuman	32057
lated	32054
Ġprincipal	32054
NET	32050
Ġwrt	32042
Ġvivo	32039
Ġargue	32020
nas	32007
ĠSer	31993
Ġtrees	31992
ĠSE	31986
Update	31985
ĠAD	31978
Ġ---	31976
ait	31972
ĠPCR	31970
loc	31969
Ac	31964
Mar	31947
Ġ54	31946
\]),	31945
ĠHi	31942
tree	31937
Ġmonitoring	31937
Ġtelling	31934
Ġprimarily	31930
por	31928
Ġleg	31898
Ġinitially	31870
ĠControl	31869
dp	31863
Format	31863
Ġloved	31851
ech	31849
Ġbranch	31846
kh	31842
ĠIP	31835
tile	31832
lay	31813
minimal	31798
à¤	31797
Ġwonder	31796
Ġlay	31795
Ġcities	31794
lets	31773
uss	31771
Ġoperators	31765
hal	31753
ĠProgram	31746
aff	31738
after	31727
jpg	31717
Ġconsole	31714
pal	31713
Ġdollars	31692
Ġlots	31685
Ġinjuries	31682
iro	31677
ĠLike	31676
ree	31675
called	31670
Ġeating	31668
Ġsouth	31654
Ġleague	31653
ime	31646
Ġdelivered	31642
Ġimplemented	31636
ock	31634
Ġ[]	31634
documentclass	31633
nton	31627
Ġmaps	31627
Ġblocks	31626
ways	31623
ĠAT	31621
Ġvision	31620
Ġdrink	31620
Ġdisorders	31613
Control	31612
HO	31602
Ġgrown	31577
Ġbusinesses	31566
Ø§	31557
Ã¼	31546
Mode	31543
Ġconsists	31528
Ġcontributions	31526
close	31519
ĠJones	31516
GS	31515
Ġinjection	31514
Other	31496
ially	31487
Ġaccordance	31484
cky	31471
how	31455
ĠSocial	31438
Ġbigger	31435
Ġenhanced	31428
Ġremoval	31426
Ġcloser	31425
Ġoptimal	31419
Ġfont	31411
OM	31406
Ġer	31396
101	31386
dia	31385
250	31376
bre	31375
sel	31373
Ġdifferential	31370
Ġhomes	31369
Ġ53	31362
Ġver	31360
ĠÎ²	31358
Rs	31356
Ġ*)	31353
Ġ1998	31345
update	31339
RM	31325
Ġbodies	31323
Ġprevalence	31313
ĠGood	31310
Ġleadership	31309
Ġpure	31301
Ġlaser	31286
Ġnano	31278
ĠFi	31267
layer	31264
Ġmechanical	31263
Ġaccounts	31239
Ġcaught	31233
TYPE	31232
outs	31228
tc	31227
Ġsurgical	31227
Ġorganizations	31221
Ġgenome	31215
Ġtransform	31214
Ġrep	31205
Ġapparent	31203
Ġlocations	31196
tions	31191
Ġextend	31184
Ġsynthesis	31182
sol	31178
cin	31173
meta	31167
)/(	31166
Ġconsequences	31164
Ġapproval	31154
ios	31151
Ġopportunities	31149
Ġsorry	31140
aka	31137
store	31122
]^.	31120
Ġelectrical	31120
Before	31108
neq	31106
2007	31087
service	31084
NN	31081
Ġcorrectly	31081
Ġbeam	31070
pdf	31069
ĠHan	31069
Ġsports	31055
Ġmaintenance	31053
Ġfigures	31048
Ġrepeated	31029
Ġdenote	31010
Token	31009
strong	31007
Ġarrived	31006
emo	31004
2006	31002
lg	30993
Ġspectra	30992
.$	30986
ient	30985
Ġfacility	30982
Ġru	30979
Ġwarm	30977
Buffer	30960
rst	30953
Ġthermal	30953
Ġterminal	30952
inc	30949
Ġtough	30946
bra	30943
''	30943
eman	30941
lton	30939
ĠBio	30939
ĠHome	30932
ogenic	30930
Ġclosest	30921
ĠÃĳ	30917
ums	30916
ĠName	30916
aming	30913
Ġpathways	30913
Ġthoughts	30893
Ġ58	30888
|^	30886
pel	30883
cip	30881
Ġaccident	30871
Ġpp	30867
Ġrev	30866
ĠHall	30865
mc	30862
lla	30857
cre	30857
2019	30850
git	30842
Ġextract	30842
xy	30832
nz	30813
cf	30812
nar	30800
ulated	30784
Ġinternet	30783
Check	30771
ĠMor	30771
ÂĢ	30762
Äģ	30754
UL	30749
Ġpointed	30746
Ġdisplayed	30746
Ġsurrounding	30742
More	30740
Ġbrand	30734
Ġcharacteristic	30731
Ġimp	30721
RR	30720
ility	30717
align	30716
elling	30715
Ġmutations	30713
Ġdr	30713
google	30696
rating	30684
Ġabsolutely	30684
Ġfruit	30682
lip	30681
Ġpractical	30667
ĠWilliam	30664
law	30651
pet	30641
čĊĉĉĉ	30637
Ġexplore	30636
Ġcreation	30630
Ġhi	30622
Ġshut	30609
Ġapparently	30598
ext	30584
Ġupdated	30583
Ġintegrated	30581
Ġbacteria	30579
Ġpin	30576
assert	30569
IG	30565
bt	30561
Ġcultural	30559
ĠEducation	30559
sons	30549
AND	30528
Ġstages	30520
{(	30518
ERS	30515
ading	30507
ATION	30502
Ġhypothesis	30499
ĠChris	30498
Ġsensor	30494
ĠDemocratic	30489
Ġremote	30488
arn	30487
Cell	30486
mus	30469
ĠON	30438
thing	30432
Ġclients	30418
ards	30414
Ġhelping	30413
}\\	30410
gging	30410
Ġdepression	30391
ª	30378
Ġcommittee	30376
Ġevening	30370
Ġ1997	30368
Ġ59	30367
Ġcoupling	30365
Ġmine	30363
omic	30362
Ġscreening	30360
Ġconviction	30356
PH	30347
Ġimplied	30345
Ġfashion	30345
fu	30338
ĠPR	30337
Ġincidence	30334
Net	30332
Ġregression	30329
Ġmedian	30329
Ġsounds	30326
ira	30323
Ġtopic	30318
Ġadopted	30316
Ġ57	30310
{-	30300
Ġsubmitted	30297
Ġregime	30297
ĠOS	30293
pin	30288
Ġkitchen	30283
Ġemotional	30283
ĠAppellant	30282
child	30262
isa	30255
Ġpatent	30249
Î	30240
TV	30240
cut	30239
Ġdomestic	30237
ias	30224
¢	30203
,{\	30199
Ġ[[	30198
Ġ400	30184
wise	30166
Ġconstructed	30163
Ġargued	30150
args	30149
ĠAP	30149
Ġ96	30147
(\[	30144
Ġdescribes	30134
Factory	30129
Ġcoffee	30129
Ġdogs	30118
ĠCup	30111
Ġsolar	30102
ires	30101
Ġpictures	30098
>>	30091
Ġprovisions	30091
ports	30075
Ġexamine	30070
Ġtrend	30066
Ġepisode	30066
Man	30063
¿	30051
pus	30048
Ġimplement	30045
'$	30042
ĠTom	30037
aching	30036
Ġclassical	30033
mis	30031
="#	30026
Ġplastic	30023
256	30017
fer	30016
unt	30014
####	30013
Component	30011
Dr	30005
}{-	29991
Ġcounts	29991
Ġapart	29984
vector	29982
*^	29971
ĠUN	29964
Ġessentially	29959
sb	29957
dc	29956
Ġsheet	29949
Ġconversion	29935
Ġ\{	29935
={	29934
bert	29928
ĠBur	29923
Ġpark	29918
Ġmarked	29913
shed	29912
Ġbright	29908
bool	29903
Ġsat	29902
host	29876
Ġtotally	29873
Ġtheorem	29869
Ġ"(	29866
Ġencoding	29861
PM	29848
Ġexplanation	29847
Ġmarkets	29839
nm	29837
header	29834
Ġflag	29822
Ġdiscretion	29819
tto	29818
tp	29814
700	29812
Ġcategories	29810
HC	29809
iness	29807
Ġspatial	29807
uv	29804
ĠAttorney	29801
Ġtasks	29777
Ġtaxes	29776
tx	29764
ĠPolice	29760
omer	29757
ologic	29756
note	29756
Ġguidelines	29756
}|	29736
setlength	29736
Br	29735
cil	29727
Ġ66	29706
dge	29700
Options	29695
Ġspeaking	29694
Resource	29688
Ġmaintained	29685
Ġrapid	29679
ĠInt	29678
Ġ1000	29676
==	29674
ĠPower	29671
Ġder	29670
Ġ\>	29667
Ġdesire	29666
Ġsoil	29661
RY	29658
Ġrat	29650
Ġchapter	29645
iding	29644
EQ	29635
Ġminimal	29634
Ġdeclared	29621
ours	29619
card	29619
Ġrecording	29616
rial	29613
cup	29611
Ġimmediate	29602
Ġultimately	29586
gle	29585
ois	29581
ential	29568
amsmath	29568
Ġ1996	29549
Ġcognitive	29532
È±	29526
ĠAre	29525
efs	29523
rid	29519
Ġoffering	29518
ĠReg	29510
SV	29509
][@	29506
lot	29499
AY	29498
Open	29488
2001	29480
band	29464
Ġtaste	29460
ĠServices	29459
Ġbreath	29457
}+\	29448
Ġtells	29444
tom	29437
Ġcomp	29428
Ġfeedback	29427
ples	29422
ais	29417
ĠIll	29415
¼	29414
Ġshop	29412
rom	29411
API	29396
AV	29382
erate	29363
Ġrecognition	29359
Ġreporting	29357
Ġpreparation	29352
nel	29351
rious	29343
Ġidentical	29338
Ġforget	29335
Ġtreatments	29330
***	29329
Results	29321
Ġbeat	29321
Ġraw	29315
amssymb	29312
Ġfu	29311
ESS	29303
Length	29286
Â¼	29274
Ġclassification	29268
Ġear	29258
nom	29252
small	29251
ander	29250
Ġrealize	29235
amsfonts	29221
Ġtransformation	29218
Ġbond	29210
sti	29208
Ġmeat	29206
ĠEnd	29203
Ġmodify	29200
ĠTrans	29191
Ġregulations	29188
normal	29177
Attribute	29165
GT	29161
Ġcollect	29160
Ġrespective	29156
Ġserving	29148
mathrsfs	29142
ĠSP	29142
Ġcurves	29141
Ġobviously	29140
tm	29138
UT	29137
nb	29135
amsbsy	29135
Ġspoke	29134
Ġprinciples	29133
Ġrequested	29132
upgreek	29131
Ġbars	29131
2005	29122
Ġce	29120
ĠKorea	29117
----	29111
Ġdeliver	29108
Ĭ	29106
shi	29101
Ts	29099
oddsidemargin	29098
wasysym	29091
125	29088
âĢĺ	29084
None	29073
Ġdiscovery	29069
Because	29061
Ġenhance	29058
Ġsituations	29056
Ġfinds	29056
response	29050
ĠKi	29049
even	29046
Ġtranscription	29038
ĠLong	29034
Rev	29031
Â¶	29030
ĠCT	29026
]]	29024
ball	29020
qquad	29015
Ġinstruction	29005
Ġvan	28990
two	28987
Ġtumors	28972
}^\	28971
Ġuniform	28966
rop	28962
pon	28962
rot	28958
Ġneutral	28949
ĠApple	28934
Ġnum	28930
iff	28926
IX	28906
Ġparticipate	28902
ĠIsland	28902
Ġthick	28899
Ġfee	28899
Ġcopyright	28893
Ġconfirm	28879
Ġqui	28876
Ġmapping	28871
Ġfr	28867
ĠSecretary	28864
now	28858
Ġlie	28854
Tab	28853
aves	28848
ĠAdditionally	28846
raw	28843
eral	28843
iving	28840
Ġrotation	28836
Ġlies	28830
ĠBE	28825
approx	28822
Ġtube	28819
Ġdelete	28818
Ġcomm	28812
Ġshooting	28810
Ġroll	28810
ava	28807
Ġexcess	28803
nos	28801
step	28795
nov	28787
ished	28786
icity	28776
ĠCorp	28772
ĠOp	28771
ĠMicrosoft	28769
Ġcompliance	28764
Ġ$(\	28764
Ġworst	28761
Li	28759
Find	28755
Sp	28739
ght	28738
CB	28738
ĠÎ±	28736
ull	28723
Ġclimate	28723
then	28716
ĠKu	28715
Ġalpha	28712
rent	28710
dra	28710
\^	28705
Ġbought	28702
rep	28695
Command	28684
Ġcamp	28670
ĠST	28667
Ġpulled	28654
Ġfe	28653
Ġassets	28651
%),	28649
00000000	28638
Ġsuperior	28632
iated	28627
'_	28621
ë	28616
cid	28613
GO	28604
Ġstem	28604
Ġbehaviour	28603
Ġfamous	28598
ĠDemocrats	28596
Ġfiber	28592
ĠDonald	28592
Ġsomewhat	28575
Ġtransaction	28567
Ġrequests	28565
Ġowners	28544
Ġguard	28541
eau	28539
Ġgrid	28539
Ba	28533
Ġworry	28531
ĠJournal	28526
Ġarrested	28521
Ġhelpful	28518
TM	28515
Ġalign	28515
ĠNA	28511
buffer	28506
elled	28504
Ġ85	28502
uf	28500
mel	28498
Ġcontents	28494
Ġenforcement	28493
ĠSC	28489
printf	28475
Ġruling	28474
ĠDC	28474
Supplementary	28466
sur	28460
Ġconvert	28457
Ġdrawn	28444
ith	28436
nat	28418
Ġteaching	28416
Right	28415
ĠSociety	28415
die	28412
Ġglucose	28399
ĠBen	28393
180	28388
Configuration	28376
Ġpreferred	28376
Ġcentre	28369
~,	28368
Ġpossession	28353
GF	28343
uid	28335
Ġintelligence	28335
gal	28327
OF	28320
377	28317
ĠLee	28317
Ġhurt	28313
chan	28311
utes	28308
Ġprepare	28306
)),	28304
Ġhidden	28304
Ġhate	28303
Op	28300
Ġlogic	28298
Ġion	28292
Ġinfected	28292
bottom	28282
ades	28277
Ġdeaths	28270
}-\	28264
Ġschedule	28264
hm	28262
Ġdriven	28248
Ġweather	28244
lev	28225
ĠRead	28205
Ġenzyme	28189
Ġdel	28181
ĠDirector	28177
Ġfighting	28174
ĠIraq	28161
Ġapplying	28156
Ha	28146
Ġpicking	28143
Ġnormally	28136
ĠIV	28126
Ġvoters	28118
cel	28117
kins	28114
External	28113
tha	28110
Po	28108
rist	28102
Ġni	28101
Ġlib	28091
OH	28083
)*(-	28081
nian	28073
Ġescape	28070
sus	28064
bling	28063
nav	28057
Ġnoticed	28052
Ġweapons	28049
ĠThose	28044
Ġproliferation	28028
rte	28013
element	28013
enti	28012
Ġcarrying	28010
Ġrealized	28006
Ġcounty	27991
People	27986
Ġvi	27970
Ġgrade	27966
ĠVe	27966
Ġdivision	27965
ect	27957
}},	27955
Ġpermission	27955
Ġspectral	27951
weight	27949
Ġroles	27949
Ġassumption	27949
Ġextreme	27947
replace	27942
ually	27941
pat	27941
Ġok	27936
Ġcontroller	27932
Ġvertical	27930
Ġcommission	27926
water	27924
Si	27919
Ġdischarge	27919
tam	27902
bot	27901
iles	27893
Ġreads	27876
010	27864
town	27852
rations	27852
Ġoverride	27852
Ġourselves	27848
Ġassault	27843
Ġfund	27840
bel	27819
ste	27816
Ġregistered	27813
102	27808
ĠIT	27807
gene	27805
msg	27803
Ġacids	27800
had	27799
Ġattend	27794
Ġsubstantially	27793
============	27791
Ġattempts	27788
Ġinfections	27783
oun	27744
Ġhappening	27737
mos	27735
Ġ&\	27734
acc	27731
Row	27728
ĠSA	27724
Ġdraft	27718
Ġ],	27715
Ġbear	27707
sets	27705
tur	27698
Ġpop	27694
EF	27690
Ġboolean	27688
Block	27687
Ġaccused	27677
ĠValue	27676
mol	27667
ila	27666
Ġimagine	27659
Ġmillions	27647
ior	27642
Ġexcited	27642
Ġintermediate	27637
Ġser	27632
Ġseparated	27625
Ġ62	27611
ĠPart	27609
Stream	27596
Ġcrystal	27596
ond	27587
=(	27584
erc	27583
Ġresolve	27583
Ġexperts	27583
Ġseed	27566
Ġlegislation	27563
Ġdiameter	27556
Ġlock	27549
ida	27540
Ġwine	27540
Ġpaying	27535
Ġmetric	27534
Ġcorrespond	27532
Ġdropped	27530
place	27526
aker	27510
Ġmedicine	27508
Ġcrucial	27503
Ġuniversity	27499
sw	27498
Hi	27484
Ġcorrelated	27484
Ġfellow	27481
sey	27471
ĠMartin	27458
ĠDivision	27456
opt	27448
Per	27445
Form	27444
nj	27441
irs	27433
fc	27433
>&	27426
filter	27416
Ġplanned	27413
Over	27407
Ġgate	27404
dan	27400
ibility	27397
Ġradius	27391
break	27373
×	27371
Ġintroduce	27370
Server	27368
Ġpermit	27366
ital	27364
Ġstick	27353
Width	27351
Car	27348
Function	27343
Ġsister	27343
Ġinstant	27342
iu	27337
Ġpowers	27332
Ġformal	27330
elo	27329
room	27325
project	27318
iate	27314
Ġinstitutions	27314
OO	27309
2004	27294
Ġconsumer	27286
DIR	27284
Ġ68	27281
llen	27268
Ġve	27263
push	27255
Ġpurchased	27248
Ġ>=	27246
most	27242
Ġsimulation	27237
Ġknowing	27233
\#	27230
Ġsizes	27230
ĠMs	27228
Ġir	27210
Up	27209
Ġreactions	27208
env	27205
Ġfeels	27193
Ġdocumentation	27192
MENT	27184
ication	27183
ĠDevelopment	27182
Ġsetup	27177
illed	27169
Ġcorporate	27169
oro	27168
Ġneck	27168
scope	27166
Ġposts	27163
Ġsta	27154
ĠBlue	27149
rse	27146
wn	27141
Ġcars	27139
Ġrender	27138
Ġopposition	27137
attr	27135
Ġpromise	27133
Max	27132
105	27128
life	27127
ck	27118
$_	27116
Ġ61	27109
About	27108
Ġreligion	27098
Ġreliable	27098
}^{(	27096
cpp	27094
Ġconstitutional	27086
Ä	27078
Ġincreasingly	27070
cp	27064
Ġsharing	27060
Ġbeta	27057
his	27056
Ġviral	27052
aid	27049
\!	27045
kt	27044
{"	27043
Ġowned	27043
eon	27042
Ġokay	27042
mathsf	27038
positive	27030
ĠCheck	27027
sid	27025
Ġtransferred	27023
cb	27022
Ġsymbol	27018
tex	27017
Ġkinds	27014
tru	27008
Ġsurprise	26998
sal	26996
ĠLake	26994
Ġcomplicated	26986
Ġloan	26982
cit	26978
Ġindustrial	26977
ĠGNU	26976
Ġsubstance	26974
osa	26972
Ġentity	26969
Description	26965
anti	26962
;</	26956
osh	26949
Ġanswers	26945
.^[@	26942
ĠAmendment	26942
Ġwire	26941
âĢ	26936
Ġvictims	26935
asp	26924
Ġrapidly	26924
Ġrecognize	26916
ĠAC	26915
tk	26909
Ġoriginally	26907
Ġforming	26907
Also	26893
Controller	26887
)))	26885
ĠHill	26877
Hey	26861
Ĵ	26860
Ġslowly	26845
Instance	26843
Ġextensive	26843
Ġbrowser	26843
)}{	26842
Ġdecade	26834
she	26828
erg	26828
eme	26810
VI	26801
TL	26801
ĠWilliams	26800
Ġmed	26797
Ġlattice	26796
Ġgift	26795
ĠWhere	26789
ature	26785
fd	26784
Ġ63	26779
Ġacquired	26776
Thank	26774
Ġanyway	26773
Application	26771
Ġdisc	26767
iti	26764
ĠSD	26743
ML	26737
=-	26735
ĠRoad	26721
cz	26709
CN	26706
Ġintegral	26706
\}$	26705
ĠMexico	26701
Ġinduction	26695
(_	26690
Ġrestaurant	26678
ense	26671
uer	26665
ĠDO	26665
Es	26662
ried	26660
illa	26659
ands	26656
Ġbattery	26655
Ġaddressed	26643
Ġos	26642
Ġrisks	26637
tte	26636
Ġ1995	26635
}.$$	26628
Ġregulatory	26626
Ġprobe	26621
Ġdivide	26612
double	26611
ĠWill	26611
ĠConstitution	26609
unk	26603
Ġharm	26601
inated	26599
"}),	26599
)}$	26591
Ġheader	26590
iel	26582
ece	26573
Ġpayments	26572
Âģ	26571
what	26566
Ġreviewed	26564
Ġden	26564
Ġwinning	26561
lv	26554
Ġstatistics	26550
}"	26547
Ġcolumns	26545
Output	26540
Ġrecall	26539
ĠKey	26537
Th	26536
Ġintegration	26536
Ġpresentation	26535
\,\	26530
III	26528
Ġfairly	26524
)|	26519
American	26512
Ġfault	26510
Ġinflammatory	26501
Project	26492
Ġaudience	26490
Ġstroke	26486
aya	26483
lac	26472
Ġ67	26467
Ġcal	26464
Many	26461
ĠURL	26449
Ġbug	26447
\'	26440
Ġtea	26437
ĠME	26430
DT	26428
byte	26427
play	26414
ĠPD	26412
ĠmM	26405
Ġclusters	26404
Ġmomentum	26400
Dis	26387
anda	26384
Reference	26379
ĠWho	26379
Ġmigration	26376
Ġgoods	26373
Ġcompensation	26371
Ġhotel	26370
gent	26364
gate	26351
iers	26347
ĠVersion	26343
AST	26340
Ġfails	26339
thr	26336
nen	26329
rates	26328
Ġrain	26319
zi	26317
Expand	26306
Ġest	26305
Ġtwenty	26288
bur	26281
Ġregardless	26278
123	26266
Ġtemperatures	26262
dem	26261
Ġwindows	26259
ĠmiR	26259
BB	26251
Ġpu	26251
Ġyouth	26248
à	26244
Window	26239
Ġpursuant	26238
Ġflux	26234
ĉĉĉ	26233
ãģ®	26230
}\,	26224
ĠSO	26223
treated	26219
gin	26215
nth	26201
Ġchoices	26200
Ġexp	26197
hir	26195
ume	26187
dn	26185
ĠFo	26184
Ġcomfortable	26177
Ġengaged	26176
Ġwarning	26173
Ġvehicles	26161
lig	26148
Ġcapture	26144
Ġadverse	26144
Ġhydrogen	26143
Ġsimulations	26135
ĠTu	26135
month	26134
uz	26128
lb	26125
Ġsurfaces	26125
Ġpublication	26122
common	26116
Ċĉĉĉĉĉĉĉ	26096
ĠMaybe	26088
rative	26087
example	26087
Link	26078
107	26077
Impl	26075
Ġyounger	26066
Ġ:)	26061
Ġ1980	26061
Ġkilling	26049
Ġedges	26048
ained	26046
}]	26044
ĠChief	26038
RG	26036
Ġshock	26035
Ġlaboratory	26018
Ġoperate	26012
Ġcoupled	26004
axis	26002
Ġ"\	25998
Ġsuffered	25990
Ġscenario	25990
ĠMrs	25984
ĠOhio	25979
ĠAu	25978
Ġera	25976
Ġill	25973
nl	25959
Ġseparation	25959
ej	25953
yp	25945
oking	25944
ĠCharles	25943
Ġcalculate	25939
ĠReport	25938
ĠGar	25938
Ġwonderful	25937
Ġtemp	25937
Ġaside	25935
Ġstores	25934
Â´	25931
]"	25928
Ġsubsequently	25921
Ġed	25913
bp	25912
hood	25911
edi	25907
ĠAppeals	25907
Ġturning	25903
via	25902
stat	25898
defined	25897
menu	25891
Ġbanks	25887
THE	25878
111	25874
oul	25857
ĠĊĠĠĠĠĠĠĠ	25853
Ġrefused	25850
Ġdependence	25847
Ġmar	25842
ĠSam	25840
Ġcalculation	25834
ĠFu	25834
sia	25833
Ġbuildings	25831
-*	25826
Ġdev	25823
á»	25817
Ġattempted	25817
Ġproducing	25814
Location	25810
ancy	25807
Ñģ	25805
ĠModel	25804
ĠVirginia	25791
Ġng	25790
Ġexpand	25790
130	25788
Ġinhibitor	25781
Ġelectrode	25781
enta	25780
arch	25779
Ġsmoking	25779
}^{-	25777
Ġsuffering	25772
ĠLos	25766
remove	25762
dg	25759
Ġlymph	25759
formed	25757
ĊĊĠĠĠĠĠĠĠĠ	25757
}[	25752
Ġstimulation	25751
Ġwriter	25750
Ġflight	25749
Ġproposal	25743
Ġstrike	25742
Ġwalls	25741
Ġwood	25740
Ġclock	25739
values	25736
none	25736
Ġstood	25726
Ġnm	25722
uel	25716
Ġcorresponds	25713
ĠIm	25707
lea	25698
Ġapoptosis	25697
Ġemployer	25689
Ġeditor	25681
ĠJewish	25677
ĠCanadian	25667
parse	25662
Use	25660
!!	25659
kr	25657
2003	25653
Ġbelief	25653
ĠMer	25653
ĠFind	25653
ĠTR	25650
offset	25648
ometric	25647
Ġdual	25647
nic	25641
oto	25639
Ġversions	25626
Search	25623
Ġwelcome	25616
Ġcontributed	25614
Ġcolors	25611
Ġlu	25608
Su	25606
spec	25605
linear	25605
ĠNor	25603
ĠJan	25603
Ġboys	25594
Ġrepresenting	25590
ĠReview	25588
Ġbeer	25586
Ġminister	25582
bal	25581
dam	25580
pass	25579
CU	25577
Ġreader	25577
Ġplenty	25577
Ġgrounds	25574
Ġstack	25568
Ġproceedings	25568
NY	25566
El	25562
Ġbasically	25562
Ġfacing	25559
,$$	25554
xx	25553
born	25530
Ġexit	25525
cen	25523
Ġinflammation	25509
Even	25508
ĠMiddle	25506
RL	25505
Ġexecution	25498
Ġreceptors	25495
Ġ-\	25494
)$$	25491
Ġvillage	25478
Ġrepeat	25475
Ġste	25465
Ġconf	25457
Ġyellow	25449
Ġprogression	25439
Ġarbitrary	25438
ĠThree	25428
Ġchamber	25427
Inter	25424
ĠRepublicans	25424
Ġinclusion	25421
\}	25416
actions	25411
Ġattribute	25407
him	25405
erry	25396
Ġga	25388
Parameter	25383
Ġspirit	25381
Ġteacher	25376
edu	25375
Fi	25375
º	25370
tf	25370
ĠCH	25368
uch	25366
Ġinvolvement	25366
ĠAmong	25366
ĠRichard	25361
Ġwalked	25348
Ġmodes	25341
Dir	25339
Ġequally	25335
Ġcoefficient	25331
&&	25325
.âĢĻ	25319
CK	25318
Ġcomfort	25315
Ġdinner	25312
Ġverdict	25310
Ġvast	25307
rz	25304
Ġcircle	25304
Ġisland	25301
Ġconsumers	25299
Ġopposed	25297
Ġthrows	25294
days	25289
ough	25284
).$$	25284
EB	25283
Ġperforming	25281
ĠCarolina	25277
Local	25274
®	25261
Ġ1994	25261
Ġmom	25255
Ġjourney	25252
}}^{	25249
Ġflash	25247
ĠGame	25243
Ġobserve	25238
display	25236
Ġapplies	25232
owed	25227
aire	25226
ĠRef	25222
Ġpor	25214
ĠÃ©	25211
Address	25205
Ġmoves	25204
ĠAccordingly	25195
than	25191
sys	25191
Ġagencies	25186
arity	25185
before	25181
Ġinsert	25176
Ġdiversity	25176
103	25175
0002	25174
Ġregional	25164
Ġmor	25162
Ġadjacent	25153
µ	25150
Ġcontrary	25149
Ġplain	25145
255	25134
Ġpregnancy	25134
NP	25129
Who	25125
PG	25125
Ġdecline	25119
Ġbacterial	25112
mit	25111
Ġperiods	25111
rog	25108
Ġsatisfied	25105
Ġ===	25102
Ġep	25099
ATE	25098
Ġ-------	25093
FP	25092
Ġstronger	25087
Ġcouncil	25078
files	25077
Like	25074
Ġchi	25073
ĠGiven	25072
Ġrows	25071
ident	25069
Header	25069
xa	25068
Ġmissed	25061
ĠJackson	25060
Ġsegment	25055
rium	25054
ols	25053
108	25052
Da	25049
Good	25043
140	25041
ĠMary	25039
lation	25030
Ġrock	25025
hor	25024
Ġwh	25016
Ġwherein	25015
Ġdimensions	25013
Ġpermanent	25012
Ġmagnitude	25010
Ġgarden	25004
Ġmutant	24999
Ġstatistically	24998
Ġcreates	24996
aining	24989
ĠUp	24989
Ġrank	24981
ifies	24974
Ġsaved	24969
%;	24964
Ġshares	24955
Ġbegins	24952
Ġongoing	24950
Ġmoderate	24942
Ġprofiles	24938
Ġthereof	24935
Ġintake	24931
ĠWater	24931
ĠView	24930
stein	24923
ĠOrder	24921
SK	24916
Ġbra	24914
Ġcoefficients	24910
ĠBush	24910
internal	24907
Ġmoral	24906
ĠSha	24901
limits	24900
Ġdecreasing	24898
ued	24889
Ġkeys	24883
Ġexcluded	24879
Å	24878
Ġmarkers	24877
Ġstands	24875
Ġbringing	24875
lah	24872
Ġcutting	24872
Change	24867
prod	24861
wrap	24858
Ġnewly	24855
2002	24853
Ġwinter	24852
Ġconnections	24849
Ġdiffer	24840
Ġacademic	24840
ION	24826
ĠUser	24822
Tex	24820
201	24812
sse	24806
bus	24799
Ġsymmetry	24799
Url	24796
Ġcomprehensive	24789
Ġpen	24788
Ġpol	24787
Ġins	24784
His	24783
Ġefficacy	24778
reference	24776
Ġteachers	24773
Ġanxiety	24772
Ġvictory	24767
Ãħ	24763
para	24761
Ġ69	24761
016	24758
AK	24753
tw	24752
tary	24752
Ġva	24750
Ġconsequence	24748
mathscr	24740
âĢĥ	24736
Ġrequiring	24735
ento	24730
Ġlosing	24725
esis	24718
Top	24711
ITY	24710
front	24708
Ġcards	24704
Ġmanufacturing	24702
Ġinstrument	24699
Ġselling	24698
ories	24693
Ġtail	24673
Ġadequate	24672
Ġcomplications	24671
ocytes	24669
ĠEm	24669
Ġrecover	24664
when	24659
Ġdiagnostic	24659
Ġextracted	24658
orn	24655
Ġtargeted	24653
Ġsha	24653
Ġshell	24650
Ġgu	24645
"}](	24644
mem	24643
Ġsubset	24643
Ġlisten	24637
ĠNext	24637
231	24631
pd	24625
ril	24621
Ġhell	24621
Ġlesions	24603
TF	24602
Back	24599
Ġinjured	24599
Ġ77	24599
nx	24597
connect	24585
rage	24583
Ġdealing	24582
Ġfoods	24581
Ġanalyze	24579
ctx	24578
Ġuniverse	24574
}_\	24569
ĠSimilarly	24567
ĠAg	24567
nable	24555
Ġsuspect	24554
Ġpredict	24550
ott	24547
../../	24530
Vert	24527
Gen	24524
Most	24517
Ġtrained	24517
eating	24515
ĠReal	24509
Ġinit	24507
UP	24506
ĠScott	24506
ĠWork	24503
áĢ	24502
wide	24501
Ġplanet	24499
ont	24497
ĠYet	24494
process	24482
ici	24479
eus	24478
inf	24465
Ġmiss	24463
imp	24456
GR	24454
Ġcor	24452
ova	24448
Ġstrange	24435
Ġusage	24431
'\	24429
ĠLA	24425
ĠSec	24423
Ġmutation	24419
Ġvaluable	24415
matrix	24412
eller	24410
ĠCell	24408
Ġbridge	24403
namespace	24399
Ġfarm	24399
Ġafternoon	24398
tum	24387
Thread	24381
Ġcomputed	24380
lr	24378
Â²	24372
Ġinstances	24369
Ġbrings	24367
LOG	24365
<\	24357
Fe	24350
device	24349
Ġconservative	24348
Ġwearing	24346
mr	24344
Ġshouldn	24344
Ġdiagram	24342
Ġmoments	24338
eter	24331
BD	24319
),\	24315
ĠĊĠĠĠĠĠĠĠĠĠĠĠ	24314
ĠArmy	24311
Ġtip	24303
Ġreserved	24303
ben	24294
tron	24291
pack	24291
Provider	24291
117	24285
Ġmal	24284
Post	24283
ĠBoston	24280
Ġrad	24279
Ġcalculations	24274
addr	24272
Ġdifferentiation	24260
Ġactivated	24259
such	24257
Ġtechnologies	24249
cia	24245
017	24245
Ġsn	24236
alism	24233
Ġkernel	24233
Ġreviews	24223
Ġassist	24221
Ġapartment	24219
IB	24218
Ñĭ	24213
NK	24212
iction	24210
mt	24208
sr	24204
have	24204
nr	24199
tern	24198
Ġsky	24197
Ġfaces	24195
empty	24194
east	24193
ĠRT	24191
Ġrely	24181
127	24178
Ġdecay	24173
dict	24148
Ġri	24146
Ġchicken	24141
fts	24139
Ġbroke	24129
ĠGL	24127
sure	24116
tive	24114
ĠChristmas	24104
inate	24101
inder	24099
aine	24099
ĠAnalysis	24096
Ġsatisfy	24093
Column	24092
Ġallegations	24087
ĠFROM	24084
oper	24079
uni	24078
Ġalgebra	24074
Ab	24068
aling	24063
Ġcardiac	24062
ĠMike	24062
Ø	24061
AE	24061
including	24058
Ġelected	24056
Ġ1993	24056
Ġunsigned	24052
address	24048
there	24047
kl	24041
Ġdedicated	24034
Str	24033
Ġchecked	24030
posed	24028
Ġexhibit	24024
Ġintroduction	24022
ĠCorporation	24021
Ġclassified	24017
Ġ1992	24012
eva	24007
Ġchose	24007
EST	24006
Ġodd	23998
||	23995
Ġseriously	23994
Ġordinary	23991
1999	23990
emi	23986
Ġjump	23985
thm	23982
nation	23981
Ġrenal	23979
Os	23975
Ġrevenue	23973
Ġinvolve	23972
FL	23971
ships	23967
________________	23966
Ġvary	23964
Ġfly	23959
Ġdistributions	23959
product	23956
Ġinduce	23952
ĠBased	23938
Ġ88	23938
Ġgalaxies	23937
>\	23935
Ġanywhere	23932
Ġaged	23929
ĠFl	23928
emia	23926
ĠNetwork	23922
Ġ<=	23922
ĠVa	23917
Par	23914
Ġhistorical	23913
lad	23910
ĠGi	23909
Ġ<-	23905
wards	23896
UM	23894
ĠLast	23893
Ġ78	23887
ĠWal	23885
Ġpsych	23876
Container	23874
Ġsemiconductor	23872
ĠDespite	23872
dar	23869
ĠEvery	23869
During	23867
Ġthickness	23865
phone	23853
Ġpresents	23853
Ġmatches	23852
Cr	23850
Ġ),	23850
Target	23828
Ġtheoretical	23828
ences	23823
Fs	23823
Ġwarrant	23822
ĠTrue	23820
ĠNon	23818
conf	23814
OX	23813
tmp	23811
det	23809
Ġ98	23807
Ġperfectly	23802
ĠLight	23801
Ġtoken	23778
Ġstrict	23778
Ġpartners	23777
pri	23773
ĠDec	23773
ĠPlan	23766
chy	23761
ĠRock	23758
Ġdiagnosed	23756
vision	23754
Gr	23753
Tree	23749
Ġillness	23741
Ġmetabolic	23739
Ġprediction	23730
ival	23729
sil	23727
PCR	23725
Ġtheme	23721
ssi	23719
ĠMin	23718
Im	23715
Ġlaunched	23710
IVE	23706
.]	23689
ĠRight	23687
Ġcloud	23680
[*	23677
Ġincubated	23677
elli	23675
Ġdataset	23672
eling	23670
Core	23669
ials	23668
Ġdress	23668
SN	23663
master	23656
sem	23645
Ġcarefully	23641
Part	23640
sher	23638
ELL	23633
ĠYOU	23624
sar	23623
ĠTeam	23622
esh	23621
blue	23621
Ġbits	23620
oks	23619
Ġtranslation	23616
Ġafford	23616
quot	23614
Ġstatutory	23613
white	23603
Bi	23601
Ġbytes	23600
sent	23593
Ġride	23591
Ġyesterday	23589
Ġurban	23588
Ġgauge	23576
fill	23574
fit	23561
Ð½	23560
Ġshoot	23560
eda	23558
Ġfraud	23553
Ptr	23548
Ġinsulin	23546
eV	23543
Ġstaining	23542
112	23539
Ġaudio	23539
wl	23526
Ġ$|	23524
Ġ250	23523
Ġbutter	23521
Call	23513
Ġmonitor	23513
cient	23512
TX	23511
Ġthousand	23508
Am	23506
'),	23497
izations	23495
ĠAngeles	23494
Ġtrace	23491
Ġinfrastructure	23488
oes	23486
&#	23486
Ġbreaking	23485
Ġ110	23484
Ġhardware	23479
ĠClub	23471
Ġeducational	23468
Ġphotos	23465
ĠTri	23457
Ġrounded	23456
Ġob	23453
ĠMake	23453
sca	23452
Ġ97	23442
Ġinf	23440
RD	23435
Qu	23432
--------	23429
ĠOh	23428
Ġkid	23420
Ġmetabolism	23419
ĠDetermine	23416
Ġdomains	23415
Task	23407
ifier	23405
column	23404
Ġloaded	23399
sive	23398
Ġcarrier	23395
Ġdrinking	23394
eto	23390
Ġsufficiently	23381
Ġreferences	23379
Ġroutine	23375
Ġcontends	23375
making	23374
ĠError	23372
stin	23370
Ġwest	23370
temp	23364
Ġquantitative	23364
Introduction	23360
/>	23360
ease	23350
press	23347
final	23347
Ġcomplexity	23346
åı	23344
Ġblind	23344
Ġpartially	23342
ĠParis	23342
change	23339
Ġneighborhood	23334
Ġimposed	23334
Listener	23330
Ġengage	23329
token	23324
080	23318
rows	23317
NF	23315
ĠWin	23309
tie	23301
rai	23293
aco	23293
Ġsomewhere	23286
Ġdisclosed	23286
mediated	23276
---+	23276
ĠFar	23273
Range	23272
ĠThanks	23271
mission	23268
OB	23260
Ġyields	23260
Ge	23255
Ġdanger	23252
Ġcontrolling	23242
Ġdenominator	23238
amer	23236
Na	23232
Tag	23229
ĠJava	23224
Ġreveal	23220
Ġabstract	23220
Fa	23217
217	23214
uan	23210
:=	23206
Offset	23198
BU	23198
session	23193
Ġdiscrimination	23189
Ġnumerical	23188
Ġcomparable	23188
sso	23185
Ġevil	23183
ĠComp	23183
Ġbelieves	23179
ĠAL	23177
ulator	23172
itude	23171
ule	23168
104	23164
ĠSyria	23158
Ġfore	23149
ĠDoes	23146
Select	23145
uro	23143
Ġsampling	23140
106	23139
Ġconstraints	23138
Ġbehalf	23136
ĠTop	23136
they	23135
full	23134
UC	23134
hole	23132
ipe	23130
aled	23126
ĠChe	23116
Ġcommit	23112
Ġperipheral	23111
ĠBefore	23101
Ġpump	23098
}}$,	23094
Ġgra	23094
Ġadmission	23094
Ġtrigger	23093
Cache	23090
rec	23082
Ġlens	23076
elt	23069
Ġmarketing	23066
Ġ71	23065
spi	23058
Ġprop	23058
ĠHTML	23056
ĠBritain	23052
Ġtele	23051
spe	23046
Connection	23042
Ġserves	23041
ims	23038
Ġhorizontal	23026
½	23012
ĠSpecial	23012
docs	23010
ĠSen	23009
Ġprofit	22997
oked	22995
Ġsick	22994
fin	22985
Ġ76	22980
Ġresist	22973
Ġdust	22973
world	22972
ĠCR	22967
Ġpassword	22963
Ġhandling	22962
methyl	22956
cht	22956
ape	22949
Ġchallenging	22943
Ġexplicitly	22938
lian	22933
should	22923
textbf	22922
ĠWomen	22922
params	22921
Ġ{}	22913
dec	22912
Ġtables	22911
Ġalive	22910
Ġeast	22902
Ġgrew	22898
ĠCha	22896
ĠFire	22894
Ġcited	22891
Finally	22888
Ġag	22886
RU	22879
wal	22874
Did	22873
sic	22867
Ġsimultaneously	22867
member	22864
Ġcache	22863
nity	22853
uo	22852
Ġhypo	22848
FD	22846
ener	22840
uh	22837
116	22837
Ġcha	22837
Does	22834
ĠBan	22833
}}}\	22829
âĢĭ	22827
ĠYoung	22827
Current	22826
Col	22826
SB	22825
WS	22824
ister	22821
BM	22820
John	22817
Ġclassic	22816
ĠWil	22813
sman	22802
Ġtruck	22790
xed	22789
High	22788
INT	22776
xc	22774
ously	22774
Char	22774
Ġvariations	22765
ĠAustralian	22765
ptic	22764
dic	22760
Ġneural	22756
Ġproud	22753
Ġhealthcare	22752
Ġchest	22752
dm	22746
Ġgreatly	22745
ĠAsia	22734
power	22732
Ġfinger	22732
ĠCare	22732
}}(\	22731
Ġuniversal	22723
Ġadapt	22723
materials	22722
edge	22720
aba	22707
.;	22705
Ġtra	22703
Ġresponded	22702
vid	22700
bio	22699
011	22696
ĠBusiness	22693
KE	22689
Ġamplitude	22687
Ġprovider	22686
ĠSU	22686
tran	22685
Make	22685
349	22674
Ġproven	22670
Ġcopies	22668
LF	22667
Ġimproving	22665
)_	22663
fire	22662
lite	22656
ĠTechnology	22656
Ġquantity	22654
Ġsteel	22643
EI	22642
sql	22634
ĠAnn	22631
Ġsharp	22630
Ġpulse	22629
Ġingredients	22628
Ġfewer	22626
Ġmarker	22624
Ġbottle	22621
Ġadministrative	22620
years	22618
Ġboo	22615
Ġtens	22613
{{{\	22609
Ġpenalty	22603
amo	22600
gon	22599
Ġcorrection	22599
OW	22595
Ġbrown	22591
Ġexplicit	22586
%).	22584
Ġ84	22584
Ġmail	22572
cache	22569
ĠPage	22568
Ġriver	22567
Ġmales	22566
Pe	22563
Ġsuffer	22562
Ġapproximation	22562
cular	22559
nish	22554
amin	22543
icate	22540
SY	22537
usr	22535
night	22535
Ġcohort	22531
Ġsending	22526
Ġmovies	22524
Ġelevated	22523
verse	22521
ĠJr	22521
Ġdrivers	22515
ĠSQL	22499
\_[	22497
Ġnamely	22496
pol	22490
ĠMedia	22489
]{}]{}	22487
Spec	22484
second	22478
Ġomitted	22476
Ġcontra	22474
Ġrooms	22470
Ġnearby	22468
-----	22458
Ġspan	22458
Ġ------	22450
Ġcomparing	22444
COM	22440
oop	22439
Ġpowder	22439
Ġsignature	22438
ĠValley	22438
mac	22436
Ġdifficulty	22436
Bu	22435
310	22433
ĠImage	22431
round	22425
Val	22422
unit	22410
Ġrejected	22410
Ġpapers	22410
auth	22409
Ġsubmit	22409
Ġfunc	22409
Ġvariance	22408
Comp	22397
ĠChapter	22396
abe	22392
Ġscan	22392
CODE	22391
Ð»	22389
ĠIllinois	22386
ĠLan	22384
nf	22383
aws	22380
mov	22376
Ġcommitment	22372
ente	22371
Ġou	22370
URE	22364
dim	22360
Ġpri	22360
Ġdisagree	22359
Script	22357
Ġfrequent	22354
Ġprecisely	22353
direct	22339
Ġfifth	22339
dist	22333
ĠMO	22333
Ġsal	22329
ĠSea	22323
Ġinequality	22318
214	22309
Ġreceiver	22305
pose	22302
Ġdivisor	22300
ĠJoe	22299
Once	22293
UD	22292
dio	22290
uous	22287
Ġovercome	22287
Ġsk	22283
oids	22280
lating	22280
Ġpet	22279
Ġinvestors	22277
Ġcodes	22271
Ġmachines	22267
Ġhasn	22260
gram	22256
nea	22250
Ãł	22247
Ġabsorption	22246
iy	22244
Ġatoms	22244
018	22241
Ġscientists	22241
Ġmatching	22240
ĠFA	22238
Ġbuying	22229
ĠItaly	22217
inn	22215
Ġfemales	22215
cons	22211
very	22208
oco	22207
TOR	22205
ĠForce	22204
Ġcompetitive	22203
232	22202
ACT	22200
Ġnaturally	22194
!âĢĿ	22191
Types	22181
Ġbusy	22181
rig	22180
+(	22180
ign	22178
Ġclosing	22178
background	22174
Ġdoctors	22171
Ġsight	22157
ĠMichigan	22157
Ġcrowd	22153
umb	22147
fed	22132
xs	22126
aus	22116
tech	22110
ĠPrime	22110
Ġinform	22105
hw	22099
Ġparticipation	22098
ĠToday	22098
Work	22096
will	22095
iva	22093
kel	22089
Ga	22083
pit	22081
Ġmeasuring	22080
Ġscored	22076
uit	22074
iously	22073
Ġelections	22073
čĊĠĠĠĠ	22072
HD	22070
Ġmask	22068
ĠLouis	22064
yed	22062
Ġrestricted	22062
Ġcoordinates	22057
Ġcheese	22057
Ġreg	22054
Height	22052
Ġargs	22051
ĠEnergy	22050
Ġ::	22050
ĠGold	22039
ĠAmazon	22039
ĠIC	22034
Ġcolon	22033
Ġenabled	22026
Ġcareful	22021
Ġsurprised	22018
Ġprivacy	22018
mate	22012
Ġmodification	22012
Ġreduces	22009
uts	22007
sign	22006
Ġadjusted	22006
about	22005
done	22004
ĠCatholic	22001
<!--	21999
900	21999
vor	21985
ĠDate	21984
109	21982
np	21980
ulating	21978
AO	21972
Ġhydro	21971
Ðº	21970
Ġscheduled	21968
Ġbind	21960
week	21953
Ġdiverse	21953
AX	21950
////////////////	21949
Ġnotion	21946
Entry	21939
stop	21937
Ġcomposed	21934
mbo	21933
Ġindependently	21923
Ġfeelings	21923
aver	21919
Ġheads	21918
126	21915
ington	21913
Come	21906
Position	21905
rag	21901
care	21900
ĠResults	21899
vm	21890
Â¿	21877
Ġmistake	21874
iser	21869
SIZE	21867
tons	21861
known	21861
cas	21856
Ġarmy	21849
Ġcovering	21847
Ġanymore	21847
ĠYear	21846
iol	21843
Ġcontinuing	21843
ĠLocal	21837
Left	21835
Ġsuppose	21833
Only	21832
Ġkinase	21830
Build	21825
Ġadds	21825
mic	21823
Ġtiming	21820
Ġ..	21820
ĠBY	21818
Ġbulk	21816
Ġsettlement	21815
Ġpresidential	21812
ĠBest	21812
Ġ73	21810
ached	21807
Reg	21807
Ġcable	21806
Ġcuts	21803
Ġcheap	21799
Ġ79	21799
face	21794
Ġhal	21792
Ġlipid	21782
Ġhash	21779
Ġ**(	21779
ody	21778
send	21773
ĠPI	21773
ĠChi	21771
Ġloading	21770
Under	21766
Min	21764
Ġreform	21762
}}_{\	21753
erated	21753
eting	21751
handle	21749
Ġcook	21742
iant	21731
ANT	21730
ĠVo	21729
Entity	21728
Ġprogramming	21728
live	21724
iring	21724
EY	21723
ando	21722
Ġease	21718
Ġtalked	21715
ĠAR	21713
Ġcommunications	21706
Ġcrimes	21699
game	21698
ĠNumber	21696
itable	21695
Ġaircraft	21692
'(	21688
Ġ74	21688
ĊĠĠĠĠĊĠĠĠ	21685
uation	21683
ĠDavis	21683
Using	21671
Ġgenerating	21667
ĠOK	21667
Ġ&=	21666
Ġherein	21664
Debug	21661
eries	21655
wan	21654
export	21651
ĠVan	21649
tem	21645
Ġprecise	21644
Ġopinions	21639
cum	21634
Ġtab	21632
pha	21630
una	21628
hash	21628
ishing	21627
sie	21626
Ġyards	21623
}({\	21621
Ġexecuted	21612
ĠDan	21611
ĠGlobal	21607
248	21604
erson	21602
ĠCreate	21601
Ġ101	21600
Ġlists	21599
Ġgran	21597
ĠAnti	21596
ĠSource	21593
Ġmini	21590
echo	21587
Ġhy	21587
rx	21586
Ġwealth	21582
Ġpriority	21580
dol	21577
Ġ$\{	21575
İ	21573
Ġpetitioner	21573
Ġpartition	21573
total	21572
mental	21564
115	21559
Ġgel	21559
Â®	21558
yt	21558
Ġlocally	21555
ws	21552
Phys	21552
LR	21548
wd	21545
():	21544
[[	21543
ube	21541
debug	21541
Ġafraid	21538
Template	21536
Ġlegs	21534
Ġvectors	21533
Ġradical	21526
sson	21525
^{-\	21525
Ġoccurrence	21521
ĠCross	21521
family	21513
Ġpolymer	21513
Ġ94	21512
lio	21511
Level	21509
rav	21508
click	21507
RK	21506
Ġnorm	21505
Ġfailing	21498
fp	21497
abi	21495
Module	21493
ĠItalian	21493
Ġrefers	21489
Ġwhenever	21486
Ġcrazy	21485
Ġwaves	21479
Ġsuddenly	21476
SET	21474
rod	21465
ALL	21461
container	21460
\;	21450
Ġtour	21448
Ġdeclare	21444
ctive	21432
ERROR	21429
Ġaimed	21428
Ġsnow	21426
icing	21425
ĠGrand	21421
VM	21412
Ġhouses	21412
Ã¢	21402
mir	21397
ago	21396
Ġrational	21395
Ġinhibitors	21395
Ġ1991	21393
nia	21391
ĠManagement	21390
Ġtaught	21387
Ġacquisition	21384
Ġtemporary	21380
iest	21379
Theta	21376
ugh	21375
','	21373
Ġforum	21373
Ġquiet	21369
BF	21361
Ġencourage	21359
ĠCivil	21358
sten	21348
vil	21346
shape	21343
Ġexpenses	21341
Ġcultures	21334
Non	21332
domain	21331
038	21330
nings	21329
Ġbomb	21325
Main	21321
Ġweapon	21321
PER	21320
rator	21315
copy	21314
ĠSpace	21314
Okay	21311
Util	21303
lings	21298
iii	21298
NR	21298
Ġproduces	21292
Ġ89	21292
Ġconsecutive	21287
Total	21286
ĠPolicy	21285
ĠAction	21280
hea	21268
Ġupdates	21261
Ġalert	21258
fil	21256
AH	21254
hen	21249
Ġsilver	21245
Ġteeth	21242
ception	21239
Ġatmosphere	21237
ĠPan	21235
Write	21229
Ġwestern	21229
Ġwatched	21229
ĠJu	21229
km	21213
Ġsymmetric	21204
just	21199
anic	21199
Ġattributes	21196
Ġplurality	21195
Section	21194
OV	21193
enn	21192
Ġproviders	21192
Ð·	21189
Ġnerve	21187
lying	21183
SON	21182
333	21182
Ġreasonably	21180
Ġdominant	21180
tles	21178
Ġja	21176
ĠRights	21172
Ġappreciate	21170
Ġorientation	21164
Ġsy	21162
Ġshoulder	21162
Ġ91	21161
Ġlunch	21160
Ġignore	21160
negative	21159
Ġfrequencies	21159
tbl	21157
ĠDescription	21153
210	21148
Ġvertex	21147
Ġsol	21146
./	21144
rh	21141
Ġtrading	21141
Ġprocessed	21140
rons	21136
Equal	21132
ĠApplication	21129
RES	21124
email	21117
168	21108
pot	21098
Ġstreets	21096
Ġawareness	21096
Ġwi	21094
Ġlosses	21093
dies	21085
plex	21079
Collect	21073
Ġtiny	21071
Ġdestroy	21069
eding	21066
Ġpas	21065
Ġ87	21064
cri	21063
hon	21062
Ġfed	21062
Ġ81	21059
Ġvalve	21057
ĠER	21051
DATA	21049
Ġlawyer	21046
Long	21045
Ġneur	21045
Ġwitnesses	21038
aut	21034
points	21033
tol	21026
hel	21024
Ġimprovements	21021
027	21020
Ġpersonnel	21018
Num	21015
llo	21005
forms	21001
Ġsomehow	20998
Ġplates	20996
TU	20993
cess	20988
stan	20984
Activity	20984
Ġlab	20980
Ġfabric	20978
ĠFox	20971
dre	20968
Ġcrash	20966
Ġgeneric	20962
Ġstruggle	20960
Title	20959
Mod	20959
Ġ82	20958
release	20955
Ġ86	20954
Document	20946
Ġaffirm	20944
Ġfluorescence	20941
Second	20938
/.	20931
Ġexplains	20931
Ġchair	20924
ĠThank	20923
)</	20913
{}	20904
phe	20904
nit	20904
Ġtemporal	20901
rn	20897
Ġtalks	20895
Ġholes	20895
'}	20891
who	20877
Ġ})	20875
Ġorganized	20874
ogenesis	20872
Ġgoverning	20869
Ġreturning	20867
zen	20855
mil	20850
Ġsoul	20849
Ġ{{	20845
Ġje	20843
Ġvideos	20838
enum	20837
Ġmanufacturer	20834
Ġuni	20832
DH	20826
rian	20825
cam	20817
Ġobj	20813
Ġplea	20812
ĠPh	20811
Ġboat	20810
gov	20806
ograph	20804
aste	20800
application	20800
Ġrespiratory	20798
Ġweren	20797
Ġinterior	20796
Ġ($\	20796
-$	20793
thread	20792
Ġunlikely	20791
Ġ83	20789
bers	20788
Ġroughly	20783
Ġ92	20778
>.	20775
chen	20772
Ġ++	20768
Ġpassage	20767
ĠWilson	20767
Ġav	20766
emic	20760
Ġbread	20760
uity	20757
Ġpermitted	20755
pf	20751
kov	20748
Ġarchitecture	20746
stage	20745
Ġnervous	20740
Ġ93	20740
Ġdirections	20738
048	20734
Ġbyte	20731
ĠAuto	20728
grade	20726
Ġrecipe	20721
yc	20718
ĠAN	20715
Ġcooking	20706
Ġmodules	20704
PORT	20698
Ġuncertainty	20698
Ġelsewhere	20689
ota	20682
IST	20677
kar	20675
trial	20674
ĠCC	20673
ndr	20661
atr	20657
instance	20656
Ġmarks	20646
Ġrestriction	20642
rier	20635
ĠRepublic	20634
ĠMen	20633
Ġparking	20632
Ġkit	20632
Ġgeometry	20632
ĠText	20632
ÂĹ	20629
Ġdeviation	20629
lson	20628
Ġcompute	20622
ĠFed	20621
diff	20617
Ġbounded	20616
ĠVer	20614
Supp	20611
Ġsystematic	20611
Ġspiritual	20609
Ġcovers	20601
Ġfolder	20599
cle	20594
Ġhybrid	20593
Ġsodium	20592
icated	20587
Record	20586
Ġconsisting	20586
$;	20585
WA	20584
ika	20578
oin	20575
ĠIns	20571
ĠMiller	20568
LM	20566
ĠMuslim	20564
Ġtelephone	20562
Ġcycles	20562
Ġ}\	20561
ido	20556
fb	20551
Ġextraction	20551
Ġleaf	20550
fx	20547
Ġvascular	20546
Ġinvasion	20545
Ġutility	20541
*\	20538
Ġpaths	20532
[**	20528
åħ	20521
Ġmarijuana	20521
duc	20520
Ġcontracts	20517
EV	20515
Ġdisability	20514
Ġpeptide	20513
Ġseasons	20511
Ġant	20511
Ġevident	20510
Ġgen	20509
Ġbreach	20508
nam	20507
esc	20507
Ġexc	20503
ĠIsraeli	20500
ĠProposition	20498
Ġalgorithms	20497
Dialog	20496
sig	20494
Ġpoll	20493
Ġaffects	20492
Ġconclusions	20491
bian	20487
ĠJack	20483
tery	20480
tools	20479
stic	20479
Ġpipe	20479
pur	20475
Î³	20472
aga	20465
ectomy	20464
Ġcreative	20464
Ġgiant	20461
Ġconcrete	20461
Ġ1970	20457
forming	20456
Ġ---------	20455
equal	20454
ĠJe	20454
Photo	20449
ĠBack	20445
Ġkeeps	20444
Ġoffensive	20441
aks	20436
[$	20434
zero	20428
Ġcleaning	20426
Ġtheories	20421
Ġmedication	20419
olog	20417
Ġ\"	20412
tÃ©	20410
ĉĉĉĉĉĉ	20408
Ġconverted	20407
Trans	20406
CV	20400
Ġconsiderable	20396
Ġcons	20393
DNA	20388
Ap	20388
Ġresonance	20385
Ġdispute	20373
mean	20372
rain	20371
Step	20370
ention	20368
Ġmeal	20366
Ġpour	20365
LU	20364
tric	20363
adi	20356
1998	20356
Ġavailability	20355
ĠNY	20354
ĠIslam	20353
security	20351
hep	20349
textrm	20339
dagger	20339
ĠCP	20336
Ġrobust	20333
Ġdoctrine	20331
green	20330
ĠPE	20324
Ġnu	20315
hin	20312
Ġresolved	20311
ĠFood	20310
Ġcream	20309
Def	20304
Ġ\;	20304
tts	20301
Ġviewed	20300
Ġrural	20296
Ġprofessor	20295
Ġking	20290
Ġmaintaining	20285
ĠJersey	20284
Ġlip	20280
Ġfla	20277
mons	20276
Http	20273
Ġpushed	20266
DER	20265
ifications	20262
duction	20261
ĠTotal	20261
underline	20260
wed	20257
Ġpersonally	20257
zone	20256
015	20253
ĠSouthern	20249
MAX	20244
Ġpilot	20242
Ġgay	20241
Ġprevention	20237
Ġhorse	20232
Ġaggressive	20232
\>	20228
VC	20228
Ġsong	20228
ĠCommunity	20226
Ġcompletion	20224
pic	20223
Ġentries	20222
`,	20220
\|\	20220
Ġstrings	20213
Ġpitch	20212
ĠBer	20209
Reader	20204
Ġconvicted	20203
gas	20195
Ġadvantages	20195
astic	20192
}'	20182
Ġguarantee	20182
Ti	20179
Ġmirror	20179
ĠMat	20178
aki	20177
nate	20175
iler	20174
Ġ((-	20171
ĠTrust	20168
ĠOfficer	20167
Ġbarrier	20166
ĠPakistan	20155
uing	20153
QU	20152
Ġfired	20146
Device	20145
«	20143
avi	20136
Ġsurvive	20136
Ġdiscussions	20135
Ġsequencing	20133
Ġexport	20128
ury	20124
pas	20124
Ġonset	20122
Ġscattering	20117
wedge	20116
Unit	20116
marks	20113
Cor	20105
Ġ-----	20103
Ġpal	20100
wp	20099
Ġteach	20099
Ġphenomenon	20098
Ġ-----------	20098
operative	20097
tage	20095
ĠĠĠĠĠĠĠĠĊĠĠĠĠĠĠĠ	20091
PK	20084
Ġfiling	20082
ĠLine	20082
Ġownership	20079
Ġvacuum	20077
erating	20072
119	20067
Ġexclusive	20067
Ġ(âĢľ	20066
Ġregularly	20063
Ġquasi	20062
Ġass	20060
oses	20057
acting	20055
ologists	20051
access	20051
Ġcompeting	20042
sley	20041
ĠCEO	20041
?'	20030
Ð¼	20028
uy	20026
Ġoperated	20024
Ġrice	20022
Ġrear	20022
ution	20016
Load	20016
129	20016
amide	20006
Ġelectro	20000
Ġbur	19997
ĠWITHOUT	19996
ĠCentre	19995
Ġrose	19991
*]{},	19990
Ġcomprising	19987
Te	19984
280	19983
support	19973
Product	19964
eni	19961
\.	19960
Ġcenters	19958
Ġ>>	19953
ĠAge	19952
Ġverify	19950
Ġthinks	19950
ĠLand	19948
bol	19942
OI	19942
Ġjudicial	19928
Ġentering	19927
Ġliberal	19926
unsigned	19923
ĠÂ¶	19920
Ġvo	19920
bx	19919
ĠMP	19915
Tool	19913
Ġcolour	19900
pine	19898
sg	19895
Ġancient	19889
cmd	19885
AW	19885
ICE	19883
ĠHam	19879
Ġworker	19877
Ġsustained	19869
Ġinverse	19868
meter	19864
comment	19863
stal	19862
Ġgovernments	19859
Ġdegradation	19859
135	19856
Ġsatisfies	19856
etal	19855
Ġmild	19855
Ġaccumulation	19855
Ġfalling	19854
lower	19849
shift	19847
imm	19846
Ġbat	19841
Ġcaptured	19840
ĠSpanish	19831
Ġtomorrow	19830
ived	19820
021	19819
cn	19818
Ġstone	19816
.(	19814
ĠConference	19811
ĠHenry	19809
Ġdys	19805
Ġreaching	19801
Ġnamespace	19801
install	19798
Ġexpanded	19797
FO	19795
121	19794
Ġdemands	19792
Ġinterventions	19790
loop	19786
Ġremoving	19779
Ġdismissed	19773
Ġcolleagues	19771
ĠGO	19767
lish	19766
VF	19765
Ġbundle	19764
language	19763
igo	19760
Ġsole	19760
Ġrecommendations	19759
Ġ----------	19759
urg	19758
Ġcrew	19758
Ġpseudo	19753
Ġhonor	19751
946	19748
Ġpot	19746
bn	19744
clear	19743
vt	19740
desc	19740
Ġsad	19731
Ġknee	19727
Ġqualified	19725
subseteq	19720
person	19720
ĠÂ°	19719
Utils	19715
Ġultra	19715
ffe	19714
Ġportions	19710
bble	19709
black	19704
Ġfalls	19703
tg	19702
obs	19700
Ġincorporated	19699
Ġcoast	19699
meric	19697
ĠKe	19694
cross	19693
ĠStandard	19693
prec	19692
ctions	19683
ĠAlex	19683
Ġcoding	19682
Ġorbit	19681
**.	19680
Sc	19678
ĠWhether	19677
Ġpsychological	19676
ĠServer	19676
task	19673
PF	19673
ĠOld	19670
foot	19662
delete	19660
ĠDaniel	19659
being	19656
DK	19656
Ġloud	19656
Ġworldwide	19654
ĠChar	19648
hoo	19644
ĠFrancisco	19637
Ġkidney	19633
ĠAp	19632
Ġmasses	19630
Ġdestination	19629
Ġgradient	19627
Ġstations	19616
ĠRoyal	19615
Ã¨	19611
Ġarise	19610
ĠApache	19609
screen	19608
ĠSal	19608
ĠNov	19606
Ġ1989	19605
Ġadministered	19604
Edit	19598
113	19594
_{(	19593
ĠIR	19593
}}}$	19591
Ġsizeof	19591
pad	19584
030	19581
Ġassays	19581
ĠDefendants	19581
ĠSte	19579
220	19575
dz	19568
aq	19566
Ġhom	19562
ĠSM	19557
SW	19555
Ġscales	19555
Ġresidence	19553
Ġseparately	19536
Ġ--------	19534
Ġinterference	19531
Ġeggs	19523
thy	19521
short	19519
iq	19518
Ġreaders	19516
}}$.	19515
}$$\	19513
ologist	19510
Ġdecreases	19506
TY	19505
.),	19501
825	19492
ĠLove	19486
Ġmortgage	19480
Ġphysics	19479
yy	19477
stack	19475
while	19471
enc	19471
ĠNFL	19471
Operation	19469
rays	19465
omy	19465
Session	19464
Ġintervals	19462
Child	19460
Ġprominent	19459
Ġvotes	19458
ĠKim	19458
ĠBase	19458
variant	19457
fun	19454
VER	19454
Ġmounted	19454
Ġfaced	19454
Ġbowl	19454
Ġalter	19452
Bs	19451
Ġfriendly	19451
Ġegg	19442
Ġhabit	19439
encing	19438
uli	19437
tim	19429
command	19427
meth	19426
join	19426
Ka	19423
Ġstuck	19418
OUT	19416
,\,	19414
Ġtoxic	19408
Ġtargeting	19406
ĠIF	19406
)^{\	19403
fast	19402
Ġaddresses	19402
ht	19398
associated	19392
Ġ1988	19387
Ġbid	19382
ules	19380
idity	19379
Ġfoo	19373
Ġfolks	19368
ĠPu	19365
-------	19358
ARD	19356
hh	19352
Ġprofessionals	19351
overs	19349
ÑĤ	19347
ĠAsian	19347
GET	19345
PV	19344
Free	19343
lee	19342
itr	19342
ĠGeorgia	19342
Vs	19340
qua	19329
vc	19326
cycle	19325
]}	19325
rev	19322
shire	19320
Ġroots	19318
ĠEr	19314
hard	19310
Ġvariants	19309
Ġpromoter	19309
ĠShow	19307
binding	19306
dit	19305
AIN	19296
OA	19293
ĠMax	19287
ĠPut	19286
Ġedit	19280
translation	19277
tate	19277
zer	19276
Ġprotective	19275
icular	19272
Settings	19272
hour	19270
Ġappointed	19270
berry	19269
arin	19268
SELECT	19268
Ġappeals	19268
Ġrising	19267
Ġflexible	19261
Ġconstitute	19260
ĠĠĠĠÂł	19253
gc	19251
Ġhonest	19249
Ġheavily	19248
ĠRep	19248
ĠStudies	19243
hol	19242
dro	19242
setminus	19239
^)	19237
Ġdrawing	19234
Ġpasses	19233
Ġexpressions	19232
iating	19229
ĠTaylor	19229
192	19226
Ġboost	19226
Ġlikelihood	19222
arian	19220
hit	19214
Ġseverity	19214
Ġreflected	19214
ĠLett	19212
idine	19209
Ġexpectations	19209
Ġhousehold	19207
Ġinfinite	19203
Ġaccomplish	19202
FN	19200
Ġ01	19197
Ġinsufficient	19196
Ġtensor	19190
Ġprotest	19185
fix	19184
news	19183
Ġbeach	19182
ĠMD	19181
ĠCS	19181
ille	19174
Ã©s	19169
ĊĊĊĊĊĊ	19168
Ġ------------	19166
Ġtech	19161
Ġalignment	19160
ĠMain	19160
136	19159
ĊĉĠĠĠ	19157
EO	19150
Ġratios	19143
Ġlimitation	19143
Ġsuspension	19139
Ġmovements	19136
Ġsolely	19134
global	19132
Ġyeah	19128
Ġsoldiers	19128
Auto	19126
Ġsimilarly	19124
Ġadmit	19123
register	19121
Ġvaccine	19120
Ġ-------------	19118
enable	19117
Ġbike	19116
ĠWall	19114
Ġfoundation	19113
Ġadvertising	19113
Ġvice	19111
Ġrelating	19109
Ġconstantly	19107
Ġsport	19094
ĠPS	19092
phase	19090
Ġhospitals	19086
Ġseeds	19081
ĠTra	19081
aria	19080
Ġstupid	19080
Ġbands	19079
lier	19077
Ġenzymes	19076
Ġdiv	19074
ffer	19073
Ġph	19073
Ġloose	19073
Ġclo	19072
012	19071
170	19070
Ġbeauty	19068
channel	19066
chain	19061
020	19061
May	19060
Ġrid	19058
Ġawarded	19057
ego	19056
Ġanswered	19052
Ġneo	19051
>"	19048
ĠPatients	19045
ude	19043
alis	19043
Ġflu	19041
Ġrestrictions	19039
Ġcoordinate	19037
large	19036
sample	19033
insert	19033
TN	19032
Ġpackages	19031
Ġengineering	19027
Ġcarcinoma	19027
Ġabsent	19026
Tra	19017
owned	19013
Ġsees	19012
Ġsubjected	19011
Store	19008
ĠNorthern	19007
Ġmanual	19001
Ġmeetings	18999
ety	18996
ssen	18995
ĠAcademy	18994
rite	18988
esi	18988
Ġdisclosure	18987
)^{-	18983
"))	18983
Ġcomprises	18983
Ġresidual	18980
eco	18978
Ġsupplied	18978
ibly	18975
Her	18974
Ġwheel	18971
window	18968
ãĢģ	18965
eff	18963
early	18956
Ġintention	18955
opo	18953
Ġprosecution	18952
Ġbeneficial	18952
Ġhoping	18944
Ġvarying	18943
omes	18941
Ġec	18939
Ġpixel	18937
Ġconc	18936
TB	18935
opa	18934
Ġbin	18934
Ġprojection	18933
Ġexecute	18932
cis	18926
here	18925
Grid	18925
ĠMedicine	18923
Ġproceed	18917
ĠAndroid	18915
ĠVal	18914
Ġinteract	18910
Ġdad	18910
nst	18909
Ġ"$	18906
ylation	18904
images	18904
arrow	18902
Ġproceeding	18902
mph	18898
ijerph	18896
mag	18895
Ġenjoyed	18892
Ġaccessible	18892
ĠPennsylvania	18892
ĊĊĉĉĉ	18892
Ġnations	18890
ĠThough	18887
Ġeu	18884
Ġimmunity	18883
Ġimplications	18882
Ġfragment	18882
inating	18880
Ġvol	18880
ĠJoseph	18879
Ġphysician	18877
rah	18868
izable	18868
------------	18865
oj	18859
Ġsauce	18859
Ġlayout	18859
FB	18856
Ġstri	18856
Ġvalidation	18855
Vector	18854
FILE	18852
Ġchecks	18852
enter	18851
itic	18849
apt	18849
ĠPlaintiffs	18849
ĠNE	18848
cv	18845
Ġarg	18844
anna	18842
xon	18841
Ns	18841
dw	18837
======	18835
Ni	18831
Ġ$-	18831
ĠCre	18827
ision	18824
Ġpy	18823
Ġserial	18821
kan	18816
\[[@	18809
Ġslight	18808
Ġages	18800
Ġantigen	18796
rand	18790
Ġsmile	18787
Ġdismiss	18784
ĠHE	18774
nell	18771
Ġ102	18771
}})	18768
Ta	18768
Ġclothes	18767
ĠIslamic	18766
ĠÐ²	18762
Ġsuicide	18762
Ġmat	18748
ania	18744
Ġlaid	18744
ĠCe	18744
rence	18739
ĠHD	18738
+^	18736
Ġdb	18733
Ġimmun	18731
TCH	18730
âĢħ	18729
Gu	18729
Ġcalcium	18725
ĠMulti	18725
Access	18722
Ġpat	18717
KS	18716
cli	18705
*=	18705
Order	18704
190	18702
yd	18700
say	18700
Ġabundance	18700
tn	18698
0005	18698
Ġ$[	18697
Ġdefines	18696
ĠFBI	18695
ãĥ¼	18690
race	18689
Ġ"/	18689
oline	18688
Ġfeeding	18688
AU	18687
Ġheating	18677
cells	18676
tid	18675
Ġpos	18667
ĠMajor	18666
Null	18663
spo	18651
ACE	18650
bon	18648
---------	18648
Ġcorporation	18642
Ġchip	18641
ĠGreek	18640
.[]{	18638
Ġhide	18638
Ġartery	18635
typedef	18634
yu	18633
das	18628
WE	18623
Ġvitamin	18623
Ġâī¥	18619
Ġpack	18619
Ġchart	18617
Ġfusion	18616
Ġassign	18615
Mc	18611
iary	18610
priv	18608
Ġdestroyed	18606
211	18605
Ġspecify	18604
Ġranging	18602
Ġpadding	18598
ĠLinux	18590
connection	18589
Ġautomatic	18589
""	18588
Ġinstallation	18584
Ġgear	18584
itive	18582
Rect	18582
Ġbonds	18580
Ġadopt	18580
Ġimmigration	18579
Ġdefensive	18579
ĠRA	18578
Ġinvalid	18574
ĠAdministration	18572
Ġassignment	18565
ppy	18561
ĠLy	18560
widget	18558
ĠIndex	18555
Ġpossess	18553
record	18551
Ġdesirable	18551
ĠFollowing	18547
ologies	18546
til	18545
Ġdevelopers	18543
uge	18540
Ġhum	18540
ression	18535
Ġsmoke	18530
itor	18528
Ġsand	18526
ĠFund	18522
Ġeligible	18521
lec	18516
]{.	18516
oir	18514
ĠBeach	18513
Ġbroadcast	18512
amb	18507
ĠDesign	18507
yst	18503
imate	18503
PN	18501
Ġerred	18499
iology	18497
CON	18495
ĠQueen	18495
Ġarmed	18492
ulin	18489
Ġunusual	18487
asm	18486
Ġinsight	18485
Ġaltered	18483
Ġ109	18478
Ġacceptable	18475
ĠNevertheless	18475
tb	18471
Ġ104	18471
Ġeffectiveness	18470
agg	18467
čĊĉĉĉĉ	18464
Ġarch	18463
114	18460
è¯	18459
square	18459
craft	18459
Ġearned	18459
sper	18455
118	18454
Ġpreliminary	18452
Three	18448
eous	18446
Ġstruck	18441
ĠâĢ¢	18440
ĠPatent	18439
RV	18437
Ġunclear	18434
Ġconsistently	18431
Ġwake	18430
KEY	18429
Ġskill	18426
ĠRyan	18420
ĠTHIS	18418
Look	18416
$]{}	18416
multi	18415
ground	18411
figure	18411
ĠPoint	18409
Ġguidance	18407
Â§	18406
Ġsessions	18406
ĠFour	18403
Menu	18401
Interface	18401
147	18397
Ġwound	18394
Ġvisited	18393
Ġmatrices	18393
imi	18392
Ġvoting	18392
ĠLtd	18387
Ġprecision	18386
Ġinline	18386
029	18384
Med	18383
Bl	18374
ĠCase	18372
ocyte	18370
!)	18370
Ġtract	18366
Ġfacilitate	18358
Ġatom	18357
ĠPython	18352
Ġnormalized	18349
angle	18344
},$$	18343
Ġoverlap	18343
Ġanchor	18343
Ġtank	18342
Ġperceived	18339
ĠTake	18338
Ġregistration	18337
inary	18335
kie	18333
Ġpacket	18333
>>>	18332
Ġtracking	18329
\|_{	18328
HP	18327
Ġmolecule	18327
Ġending	18326
Ġeverybody	18325
poly	18323
component	18319
Ġawait	18319
ady	18318
Ġarrangement	18316
Widget	18315
sensitive	18310
ĠMad	18307
omas	18305
AGE	18302
hed	18298
BT	18297
fall	18295
ĠDI	18293
GI	18291
ĠTown	18287
Ġlights	18286
Ġpepper	18284
mented	18283
Ġmountain	18280
Ġkm	18280
aha	18279
0003	18279
utils	18276
Ġangular	18276
edo	18273
awa	18265
MG	18263
zing	18261
dest	18260
save	18259
{$	18257
Gs	18257
-------------	18256
Ġshopping	18254
ĠColorado	18251
Ġhadn	18250
ĠWT	18248
Ġ['	18243
177	18240
Ġluck	18236
Ġsteady	18235
Ġidentifying	18235
Ġcomplexes	18232
ãģĦ	18230
come	18228
Ġdeb	18224
Ġattractive	18224
help	18223
Ġrarely	18222
oration	18219
erd	18219
ĠÑģ	18219
Ġrandomly	18219
Ġtreating	18215
interface	18214
Ġruled	18213
Ġbelong	18207
Ġattended	18207
ĠUV	18207
ĠIreland	18201
122	18197
"));	18197
Ġpromising	18196
iac	18189
Ġinstitution	18187
yne	18186
Ġchildhood	18184
1996	18179
Ġshorter	18179
Ġ\#	18179
Ġdance	18178
iance	18177
Ġpoliticians	18177
Ġdesigns	18175
ĠFI	18175
ĠSteve	18167
132	18166
Ġaging	18165
wave	18164
ĠUnfortunately	18162
ĠJews	18161
ria	18160
Ġultimate	18160
025	18159
350	18155
Ġev	18155
Ġartificial	18155
ello	18153
ĠMaster	18153
ĠArizona	18152
Ġvital	18151
Ġ180	18149
Ġviolent	18148
Ġintegrity	18148
flags	18147
ĠMal	18145
----------	18142
Ġtransportation	18142
burg	18141
ĠAgreement	18137
Ġci	18136
plot	18134
isc	18128
Ġtips	18126
Ġ128	18125
away	18124
Ġchemotherapy	18122
MF	18121
Ġpointer	18121
Ġparse	18121
Ġtran	18120
Ġbunch	18117
aud	18115
Ġ--------------	18115
Ġwashed	18111
bind	18107
Ġclause	18107
Ġpregnant	18103
vic	18100
Ġdeeply	18100
Ġ+/-	18098
Ġoxide	18097
Ġbirds	18097
Ġlifetime	18096
Ġmacro	18094
pending	18093
DG	18091
ĠFrank	18091
Ġsentencing	18090
Ġ106	18086
Ġcollective	18085
OG	18084
Ġconcepts	18075
Ġfer	18074
ĠNC	18068
Ġ600	18064
Ġrent	18063
Cap	18062
ĠJSON	18062
={\	18061
rif	18057
Ġharder	18056
names	18052
quality	18042
ĠStudy	18042
ĠCount	18039
cases	18033
Ġeverywhere	18030
ECT	18026
Ġresidues	18013
ĠBre	18013
Ġwet	18012
Ġforever	18012
Ġ----	18011
ĠFamily	18007
Ġlabels	18005
ĠVol	18004
req	18000
mut	17998
Ġamended	17996
Ġjson	17994
rw	17988
Ġallegedly	17984
escent	17983
Ġ('	17982
ERR	17980
Multi	17978
xf	17975
âĸ	17971
0004	17970
Ġtape	17967
Body	17961
Ġpaint	17957
Ġdisabled	17955
Expression	17951
Ġretain	17951
Ġphases	17951
ĠĠĊĠĠĠ	17947
etc	17946
lant	17941
Ġclosure	17940
čĊĠĠ	17940
Ð´	17934
hspace	17930
rone	17928
Ġmanifest	17927
Ġ=\	17927
wy	17925
Put	17923
1997	17922
fen	17920
Ġfunny	17920
Ġfinance	17920
ĠMass	17916
ĠCancer	17916
Ġ1983	17916
ĠBC	17910
gor	17904
Ġnewspaper	17900
Ġcomputing	17892
Ġcampus	17892
DY	17891
Ġâ	17891
Hz	17890
sq	17887
240	17887
iam	17882
Ġretro	17882
Hello	17881
Background	17881
--------------	17881
666	17880
Ð³	17878
made	17877
wt	17876
analysis	17876
Ġcollapse	17873
019	17870
Ġcurrency	17868
fields	17865
PU	17864
Run	17863
}}}_	17862
Ġdense	17861
ĠInclude	17860
MEM	17855
admin	17850
Ġmonthly	17846
MOESM	17844
ĠSeries	17842
Ġjoy	17840
ĠSeveral	17840
pend	17838
Ġì	17837
Ġutilized	17830
Ġdoors	17830
sex	17829
Ġrepeatedly	17828
tone	17825
Ġhist	17825
Ġlegislative	17823
Ġmic	17821
hom	17819
scr	17816
foreach	17815
Ġflavor	17811
Ġlandscape	17800
SG	17799
ĠAbout	17799
dk	17796
Ġcert	17794
Ġenemy	17793
bles	17791
lable	17790
036	17790
ĠWood	17788
Ġwrites	17787
Ġaccompanied	17782
Ġmixing	17780
Ġdiscover	17773
erly	17769
mation	17768
[(	17768
Ġexhibited	17768
Ġbankruptcy	17768
Ġsuppress	17758
yard	17755
HL	17755
sun	17752
Ġviolated	17751
Ġreporter	17749
Ġarranged	17748
Ġlying	17746
Ġforest	17742
Ġpatch	17737
753	17731
Ġroof	17731
queue	17727
`.	17718
ORE	17718
Ġpulmonary	17716
Ġvessel	17714
ĠBob	17712
Ġenvironments	17709
Ġchecking	17709
Ġbath	17709
inflammatory	17708
Ġmere	17707
rÃ©	17704
Ġcoli	17703
Ġscalar	17699
Ġabnormal	17698
LES	17694
Ġsurveillance	17688
Ġfitting	17686
arily	17682
ĠHistory	17681
ĠStat	17680
033	17677
ĠForm	17672
Ġoccurring	17670
Ġmitochondrial	17668
ĠBitcoin	17661
olds	17653
ante	17653
Ġreveals	17651
198	17645
Ġlanguages	17644
sort	17638
HT	17636
ĠSpain	17636
-----------	17634
.*]{}	17632
Ġtopics	17632
Ġstudying	17632
Ġlift	17631
rap	17630
Ġdistinguish	17629
tax	17627
once	17627
Ġphilosophy	17626
à¬	17618
cine	17616
Ġpropose	17614
Ġvoted	17613
Ġreadily	17613
Ġmile	17613
Ġtranscript	17611
OE	17606
039	17606
Ġdeclined	17605
ĠTim	17605
pir	17597
ĠDen	17597
Ġrecovered	17596
Ġperception	17591
ĠRegister	17591
Ġadjust	17589
Star	17587
-,	17587
ÎĶ	17585
hil	17585
Case	17584
Ġsupporters	17582
Ġrough	17580
STR	17579
perp	17573
Ġ(@	17565
wo	17560
Ġreversed	17558
Ġ1986	17555
apa	17553
Ġ105	17550
Ġpanels	17545
;;	17544
Identifier	17539
Ġderivatives	17539
ĠKingdom	17538
tail	17535
ĠAgain	17532
ĠDue	17530
450	17526
.).	17524
tia	17523
ĠMed	17523
draw	17515
Ġunlike	17513
Ġdefects	17513
|-	17512
Ġdoses	17512
SQL	17509
Ġinterpreted	17508
Ġembedded	17508
ĠPen	17502
Ġtransactions	17498
users	17497
Ġtroops	17492
Ġblow	17492
Ġcritic	17488
Mon	17486
Ġtrauma	17484
Ġcorrelations	17481
Ġ["	17480
cul	17476
Ġsouthern	17476
Ġtrail	17474
({{\	17472
Ġstellar	17469
tens	17468
gus	17464
topic	17461
Ġputs	17459
Ġpad	17458
Sort	17449
actor	17447
ĠEastern	17444
HY	17442
Ġliked	17442
random	17440
gia	17436
report	17434
Ġhall	17433
*************	17432
Ġinc	17430
ĠMap	17430
Ġcholesterol	17428
complete	17425
Ġinv	17423
ĠMethods	17422
Async	17421
Collection	17419
Ġ<!--	17419
*~*	17418
ĠÂĹ	17418
iar	17410
138	17410
Ġwedding	17405
Ġfibers	17404
ĠDes	17404
Ġdiscrete	17403
CHAR	17402
Ġcra	17402
border	17401
pop	17400
Lu	17396
sas	17395
145	17394
Ġduties	17394
Ġprinted	17393
Cu	17390
Ġjail	17386
nce	17385
Ġsystemic	17382
ologically	17380
ĠGal	17375
Ġprosecutor	17370
INFO	17367
Eq	17365
ĠOs	17358
Ġlabeled	17357
rule	17355
Ġrating	17355
Ġspec	17354
Ġcooling	17349
urb	17346
pool	17346
Ġexciting	17344
hold	17340
plo	17338
Ġauthorized	17338
Ġnorthern	17335
Ġtone	17331
idi	17327
bro	17327
ĠHA	17327
impl	17325
ĠMag	17325
Ġdiffusion	17324
GB	17323
Ġactor	17317
Ġplug	17312
Ġexpressing	17312
.:	17311
Windows	17308
Ġ1987	17308
202	17305
Ġinfluenced	17305
Ġillustrated	17302
Ġpur	17300
ĠWARRANTIES	17297
erable	17296
Ġassociations	17296
Ġdefeat	17295
itu	17286
ĠChildren	17286
Ġcourses	17281
dus	17276
Ġgained	17275
category	17273
resource	17271
Ġprinting	17271
bor	17269
profile	17266
bat	17262
onate	17261
ĠSI	17259
ih	17257
Ġisolation	17254
PB	17253
1995	17251
ĠALL	17251
Ġreact	17250
iden	17249
205	17249
Ġraising	17249
Ġpending	17249
Ġphenotype	17248
oil	17241
ĠHave	17238
ĠLog	17235
Ġattitude	17234
999	17230
bic	17225
Integer	17220
onomy	17219
Ġbla	17218
Ġloans	17216
Ġconnecting	17212
ĠFair	17211
plugin	17206
050	17204
Ġvalidity	17204
Ġinspired	17204
Ġenum	17203
JS	17199
organ	17198
Have	17197
Ġtension	17192
plan	17188
Ġmit	17187
United	17181
Ġperi	17181
Ja	17178
)->	17178
Ġexcessive	17178
ĠGl	17178
Ġgalaxy	17173
GH	17171
Var	17162
bid	17161
ĠSpring	17156
Ġshit	17155
ĠImages	17155
ĠEC	17152
sv	17149
Ġhopes	17149
Ġsomebody	17145
Cal	17144
Ġignored	17137
rou	17134
(){	17134
031	17133
ĠBA	17131
Ġinvariant	17129
Ġcontacts	17126
ĠPacific	17126
024	17125
Icon	17124
_,	17120
Ġawesome	17120
Ġ(%)	17114
Ġguest	17113
uma	17112
Ġtolerance	17109
Ġreject	17109
MV	17107
Ġdefect	17107
ĠCOM	17107
because	17105
aux	17105
ĠMatt	17100
vent	17097
thi	17095
Fr	17094
Ġlit	17094
ĠMiss	17094
Enum	17093
ĠThird	17091
icit	17087
209	17085
Ġdenotes	17085
Ġmagic	17082
Ġhetero	17080
human	17079
ĠCy	17079
cio	17074
137	17074
Ġcardiovascular	17068
nary	17063
Ġpreventing	17061
Down	17059
Ġphosphorylation	17059
ĠTax	17059
212	17058
ĠGR	17057
activity	17055
ĠPath	17055
ĠFin	17055
ĠWithout	17047
Ġequilibrium	17042
{|	17040
Ġglad	17038
)*-	17037
Ġhtml	17037
ĠAgency	17036
Author	17033
Ġtransmitted	17032
ĠDar	17032
grid	17029
licenses	17027
Ġestimation	17026
iable	17025
Ġcomputation	17025
_+	17024
Ġliterally	17022
Ru	17013
ĠZealand	17013
à®	17006
Ġstretch	16997
ĠRan	16997
Ġprospective	16995
Ag	16989
forall	16988
USE	16988
Ġembodiment	16988
Ġeliminate	16988
ĠCri	16988
edit	16987
Ġpounds	16987
essing	16980
colon	16980
ately	16978
(:	16978
Ġmotivation	16978
Ġcombine	16978
Ġfactory	16975
aneous	16974
301	16970
Ġhero	16970
Ġio	16968
Ġgenuine	16962
áº	16961
sym	16960
Ġswitching	16960
014	16957
Life	16955
cla	16954
Ø±	16953
124	16953
oplus	16952
mask	16952
Ġpublicly	16950
asi	16947
Ġ"#	16946
Ġgravity	16945
Ġdestruction	16942
expected	16939
pho	16938
lands	16938
Ġfavour	16938
HTML	16936
Ġovernight	16936
Ġext	16936
Ġtonight	16935
Ġblank	16927
Ġnucle	16925
javascript	16921
Ġlaugh	16920
Ġdysfunction	16920
ult	16918
lists	16918
Ġelectricity	16916
sit	16914
Ġflour	16914
\{\	16909
Ġregulated	16908
ĠDid	16908
Ġworried	16907
$:	16906
Ġphysically	16902
Ġobesity	16902
Ġgross	16902
ĠStephen	16901
hic	16897
arti	16897
ĠPL	16897
Ġicon	16893
Ġamendment	16892
Ġcre	16888
131	16887
Ġdifficulties	16885
PATH	16884
Ġconstitution	16882
ometer	16881
sci	16876
;">	16876
ĠTH	16875
Ġdelayed	16873
got	16872
Ġboxes	16872
Ġspecificity	16871
super	16869
ĠAnderson	16868
wait	16867
Each	16866
155	16865
Ġatt	16865
ĠMC	16865
Ġpace	16862
_>	16861
Ġdenial	16860
bury	16857
Ġassumptions	16857
Ġunexpected	16856
Font	16855
ĠMod	16851
Ġepisodes	16850
Ġune	16849
cke	16846
ĠčĊ	16842
Direct	16841
eca	16840
Ñĩ	16839
Ġblame	16838
ĠSy	16838
037	16836
Params	16832
Ġsir	16832
ĠStr	16830
Ġfounded	16829
Ġpoverty	16827
ĠPor	16820
ĠÐ¿	16818
Ġ108	16818
rene	16814
ĠConsequently	16812
Ġsearching	16807
FX	16804
Ġattributed	16803
ĠGames	16802
mates	16796
Param	16795
energy	16785
133	16785
Ġcommunicate	16785
})$.	16784
216	16783
dling	16782
Show	16779
Ġhardly	16779
Ġwireless	16778
Ġcoal	16773
toString	16772
degree	16768
Ġacknowledge	16768
Ġsynthetic	16767
Ġdisplays	16764
License	16755
čĊčĊĠĠĠ	16753
Ġblocked	16748
Ġcompatible	16744
Ġabortion	16742
Ġweird	16741
onia	16739
role	16736
gm	16732
ĠIowa	16730
ĠTor	16729
assertEquals	16726
Ġhits	16724
222	16719
ĠWITH	16716
season	16714
Ġflags	16712
Ġretail	16709
ĠPerhaps	16707
Ġ103	16706
Ġtradition	16704
Ġrevolution	16702
Ġbet	16702
ready	16698
Ġbeliefs	16693
Em	16692
ĠProfessor	16691
ĠGene	16687
LG	16685
Ġrescue	16685
Ext	16683
_{-	16681
028	16675
Ġoven	16670
TED	16668
++;	16668
Ġpermissions	16667
Ġopt	16664
ĠPhoto	16660
Ġpartnership	16655
Ġsmell	16654
bia	16650
roll	16649
148	16647
Ġenables	16644
backs	16643
Ġdefend	16643
ĠHead	16640
Ġobtaining	16638
Ġvisits	16635
Ġaffecting	16635
also	16634
Ġ1985	16634
take	16633
iga	16632
206	16631
Ġpred	16631
Abstract	16630
Ð¿	16629
esa	16629
ĠStill	16629
Ġgenerator	16622
Maybe	16620
worth	16617
DEBUG	16614
Ġgotten	16613
ĠSw	16611
166	16610
'>	16609
Ġ{@	16609
Ġboss	16606
ĠWo	16602
Additional	16601
Values	16592
ĠDM	16588
022	16584
ĠMel	16584
$^{-	16583
Ġdifferently	16583
terminal	16582
ĠHas	16582
modules	16580
ibe	16577
good	16574
Ġax	16572
ĠSpecifically	16571
lle	16568
204	16567
Ġweights	16567
FU	16566
144	16565
ĠDA	16565
Ġdescribing	16563
mans	16562
Ġyeast	16561
ĠSta	16559
Ġbehaviors	16558
187	16557
ician	16555
139	16554
rity	16552
vie	16551
Writer	16551
ĠKen	16551
Ġacc	16550
aris	16549
tica	16548
$^	16548
Ġtill	16548
Ġreflects	16547
Items	16545
Ġguns	16544
serv	16543
Ð²	16542
python	16541
013	16540
ONE	16538
Ġfits	16538
regulation	16535
Ġmaximal	16534
Ġms	16533
otes	16524
Ġfunctionality	16522
Ġdemocracy	16522
Ġasks	16522
Ġbatch	16517
Ġbearing	16514
aran	16513
Ġfilling	16512
Ġdesignated	16511
Ã©e	16510
Ġdoc	16509
Ġdeals	16508
Ġcommands	16506
ĠAdditional	16502
Ġcallback	16501
ĠColumbia	16499
Ġ130	16496
uce	16493
Ġunderwent	16493
area	16492
'-	16489
Ġintrinsic	16489
ĠMethod	16488
175	16487
Ġjuice	16485
Ġagenda	16485
ĠMinistry	16485
VP	16481
Ġselective	16481
Ġpredictions	16480
Ġpolynomial	16479
Ġtrends	16478
Ġinvestigations	16477
Ġequality	16472
Ġsyn	16469
Ġinterviews	16469
spect	16467
roid	16465
ĠJim	16462
party	16457
[-	16456
Ġshoes	16456
Ġeq	16456
Ġorange	16452
Ġund	16450
ĠBR	16449
386	16448
Ġcoll	16448
yon	16443
Ġprogressive	16443
ĠJordan	16443
Ġemphasis	16439
ĠRather	16438
)}{\	16434
Ġintegr	16432
Ġpolar	16431
Ġflip	16431
four	16425
Today	16424
ĠLow	16422
Ġtexture	16420
ĠRound	16416
Ġter	16415
cover	16414
Ġbreaks	16411
zu	16408
Ġprogramme	16405
ä»	16403
ĠFalse	16398
AMP	16395
Ġsegments	16393
Ġkick	16391
ĠDer	16390
Ġju	16388
Ġpython	16386
ĠTen	16386
Ġbow	16385
ĠNatural	16379
ĠCi	16379
ĠArray	16377
Ġham	16376
tta	16374
Ġlistening	16373
Ġcombat	16373
Ġhu	16372
ÙĦ	16371
Vi	16371
words	16369
ĠAward	16368
force	16365
Ġendo	16361
Ġweekly	16360
Ġfitness	16357
kind	16356
ĠGC	16352
Ġsm	16346
izers	16343
ĠBell	16339
rable	16338
Ġdetector	16336
Ġfarmers	16333
Ãª	16331
seq	16331
claim	16328
ĠUpdate	16328
âĢ¯	16325
1994	16325
CY	16324
Ġconspiracy	16324
---------------	16322
Ġxmlns	16321
gic	16318
ĠTitle	16314
ĠGaussian	16313
nil	16309
Ġhypertension	16309
Ġsilence	16308
Ġfocusing	16307
Ġpm	16306
ĠSanta	16304
.\[[@	16300
Ġboundaries	16299
miss	16298
Ġinserted	16297
?)	16295
ĠSupport	16291
conv	16290
BG	16289
imo	16288
Ġvariant	16288
nine	16284
Ġ125	16282
Ġintellectual	16281
ĠOct	16281
your	16277
yle	16276
logs	16275
Handle	16274
mont	16272
lap	16272
Us	16268
Ġattempting	16268
caps	16266
Ġtrivial	16266
ĠSciences	16265
Ġconvey	16263
children	16262
)_{	16259
roo	16256
ĠCat	16250
ĠShi	16249
Ġangry	16245
Ġvertices	16244
ogra	16243
Ġphrase	16243
court	16239
Ġski	16237
condition	16236
bigg	16235
Ġcrack	16233
risk	16232
rish	16232
Ġfavorable	16230
Ġfranchise	16228
ĠOl	16228
derived	16226
rar	16222
Ġindices	16222
Ġconsciousness	16220
1993	16218
Ġcomputers	16218
Convert	16214
ĠLI	16214
Ġconfident	16211
MAN	16210
Ġcho	16209
Ġadapted	16207
čĊĠĠĠĠĠĠĠĠ	16204
Appellant	16201
Ġgod	16200
Ġfib	16198
ĠSim	16197
Ġrendered	16196
Ġregulate	16193
Ġml	16193
Ġintracellular	16192
Ġ1984	16192
Ġterrible	16188
Ġphysicians	16188
Ġvaried	16187
Ġapps	16183
309	16181
ĠWE	16178
Ġjet	16173
Ġexclusion	16173
ĠFord	16173
Ã§	16171
ifiers	16171
146	16171
margin	16168
Ġconvenient	16168
Ġchocolate	16163
Ġfatty	16162
oci	16160
Ġcombinations	16153
Ġaims	16153
Ġ\|	16153
Ġdeeper	16150
Ġedition	16147
due	16146
uls	16144
Ġarc	16143
Ġreflection	16141
ĠBrazil	16141
PLE	16134
LV	16134
Flags	16130
Ġsettled	16128
ĠSpirit	16128
tests	16125
encies	16124
ÙĨ	16118
049	16118
Ġfunded	16118
-{\	16116
WI	16115
Ġnegligence	16114
DU	16113
$).	16110
ĠES	16110
tv	16109
Ġ$.	16106
Ġrestaurants	16104
ĠCall	16104
Ser	16102
Ġintense	16101
Despite	16100
âĢ²-	16098
luc	16095
Ġpeaks	16094
cation	16093
Ġdates	16093
)}(	16092
Ġmatched	16085
()->	16084
Ġlimiting	16084
ction	16082
055	16082
password	16079
156	16078
Ġretirement	16076
Callback	16072
ylated	16069
lash	16069
ĠHy	16069
NER	16066
Ġquantities	16065
Ġepithelial	16065
ulo	16061
Ġmagazine	16060
Ġprejudice	16059
Ġmag	16056
ensive	16053
stri	16052
ĠPay	16051
rank	16050
TING	16049
Process	16048
KA	16043
,[	16043
Ġsucceed	16040
Ġtransparent	16038
nix	16037
REG	16033
ART	16030
Ġconsensus	16028
LB	16024
Ġscoring	16022
ĠSur	16022
simeq	16019
Chapter	16018
Ġbreakfast	16011
ĠCPU	16011
pk	16010
Ġaut	16009
512	16008
alia	16007
Ġdollar	16003
nutrients	16002
ĠLC	16002
nies	16001
Bytes	15997
Ġchoosing	15997
sheet	15996
Ġvulnerable	15995
pg	15989
040	15988
Ġfingers	15986
people	15984
157	15981
Ġscaling	15981
Ġsatisfying	15980
Global	15979
Ġlawsuit	15979
Ġmanually	15974
rob	15972
Ġpreferably	15967
Ġchains	15967
Ġink	15966
ĠAdam	15966
Ġdamaged	15965
ĠAccess	15963
Ġburn	15960
ĠNF	15952
opy	15951
phenyl	15949
Ġinterpret	15943
Ġstrictly	15942
ulates	15939
San	15939
Ġrepresentations	15939
Ġlikes	15937
rance	15928
polar	15928
Ġphysiological	15927
Ġholiday	15926
Ġdans	15926
native	15925
pair	15923
ilo	15921
idx	15921
ĠCoast	15919
Ġlateral	15917
region	15916
))/(	15914
Ġclinic	15913
ĠSk	15913
TEST	15910
Ġsupplies	15910
Ġdeveloper	15910
ige	15909
Ġ+\	15907
Ġquote	15906
Ġlegitimate	15903
ĠCommonwealth	15903
Ġ***	15903
rix	15902
Ġwondering	15902
Ġbre	15902
ione	15899
ĠBook	15899
goto	15897
fish	15897
047	15897
bibr	15896
xo	15893
Init	15893
pies	15887
cept	15887
ĠPBS	15887
ÑĢ	15886
stit	15883
Ġcoat	15883
$),	15882
1990	15881
Ġshots	15880
unc	15879
ĠSir	15877
Ġisolates	15876
kk	15872
sized	15871
Ġbounds	15870
âĢĻ.	15869
ĠLittle	15867
Adapter	15864
ĠKn	15860
train	15859
iri	15859
Ġmas	15858
duced	15857
items	15851
ĠPlace	15851
tian	15848
works	15846
Ġexclude	15846
ĠSH	15846
Ġpushing	15842
~*	15838
Panel	15837
Ġ"<	15836
Ġcry	15835
eval	15832
tool	15830
Ġvisitors	15828
pn	15826
Ġions	15826
Ġentities	15825
pton	15824
tti	15823
regulated	15822
ĠGA	15821
.",	15820
ĠRun	15818
Schema	15817
Ġtor	15814
Ġassistant	15814
ask	15813
Ġreputation	15812
ĠParliament	15809
Ġhip	15808
ĊĠĊ	15808
cot	15804
Ġobjection	15803
ĠMinnesota	15803
ĠdÃ©	15802
Ġviruses	15797
println	15794
asc	15794
Ġtied	15794
Ġbills	15792
Ġpeer	15791
Ġlogical	15791
ĠHarris	15791
Ri	15790
hd	15784
GM	15783
xxx	15782
Ġscroll	15780
Ġdeposition	15777
endo	15764
dles	15762
ĠSoviet	15761
NULL	15759
selected	15757
ckle	15757
ĠCL	15757
165	15752
ĠĊĠĠĠĠĠ	15752
Â³	15751
wiki	15750
320	15745
teria	15744
176	15744
doi	15741
ĠBible	15739
Names	15738
ĠNu	15736
ĠHTTP	15733
emp	15732
ĠAF	15732
hem	15728
041	15727
eria	15724
Ġgrass	15720
ĠProperty	15719
Ġtro	15718
Ġemerging	15716
Ġbench	15716
Ġnucleus	15714
ãĤĴ	15712
Ġreferring	15711
Ġposterior	15710
Ġequipped	15710
ĠOff	15710
uth	15708
Helper	15706
inch	15704
opathy	15703
ACK	15703
usive	15697
<<	15697
ĠTurkey	15697
dman	15694
Ġinquiry	15694
atum	15693
Ġjournal	15689
,_	15687
Ġgi	15681
Ġpocket	15677
~\	15675
Ġcertificate	15675
ASSERT	15673
ĠAssembly	15672
shot	15671
ĠArticle	15670
################	15668
Ġcavity	15666
Enabled	15665
ĠLewis	15663
Ġdeficiency	15661
kit	15660
Rule	15657
Discussion	15651
ĠCambridge	15651
Ġterritory	15650
Ġsensors	15650
Ġtoxicity	15647
)\,	15646
reset	15644
inity	15642
Ġdeny	15640
Ġplatforms	15637
BV	15636
ĠPHP	15636
structure	15635
omi	15635
Ġoxidative	15635
Round	15633
safe	15628
Ġinvited	15628
509	15627
watch	15626
Ġarrive	15626
ĠKr	15626
tig	15624
osity	15623
Ġvessels	15623
Ġstomach	15623
Ġenforce	15623
Ġbirths	15621
ĠTur	15621
mur	15620
dynamic	15619
Ġpromised	15619
teen	15618
nets	15618
Json	15616
Ġxe	15616
nut	15614
Ġdish	15608
å®	15607
Ġframes	15606
views	15605
Ġextending	15605
Ġmuscles	15604
custom	15602
Ġsaving	15602
Ġdefining	15602
etti	15600
escence	15599
Ġdy	15598
ĠCook	15597
Ġhealing	15596
Ġauthentic	15595
Ġodds	15592
Ġdist	15592
drop	15591
bas	15591
Ġpipeline	15591
Ġoc	15591
Ġparticipated	15590
Ġmodeling	15589
Ġnurse	15588
Ġagreements	15588
edic	15584
207	15584
Ġhighlight	15581
ĠMicro	15581
Âĳ	15580
Ġpreserve	15579
ĠUnless	15579
Ġcontest	15577
Ġobligation	15574
Ġstrategic	15572
ĠPO	15572
,\\	15570
Ġpromotion	15570
Ġmood	15566
}}^{\	15564
Ġconsult	15564
Ġbaseball	15562
ĠHamiltonian	15562
ĠYeah	15557
ĠHO	15557
agon	15555
rina	15548
Ġinjected	15548
dos	15546
023	15544
Ġtired	15544
Ġaccurately	15543
720	15542
linux	15539
ĠInf	15539
video	15536
Dec	15533
167	15533
Ġbehavioral	15533
Ġencounter	15531
cout	15530
188	15530
General	15529
Return	15527
Ġnobody	15525
Ġ|\	15523
Ġsuspected	15521
Ġinflation	15515
ãģ«	15514
Ġestablishment	15512
Ġimpressive	15511
ĠIndiana	15509
ault	15508
Ġ107	15506
Ġregarded	15503
Ġgrateful	15501
Ġdiff	15501
Ġnavigation	15500
Ġpublish	15499
Ġcortex	15496
TK	15495
ĠDefense	15492
DX	15491
Ġexpense	15491
ĠAfghanistan	15490
CONFIG	15487
osp	15486
FONT	15486
Custom	15485
ĠRadio	15485
Ġlease	15483
Ġdeemed	15481
Ġplugin	15478
ĠEs	15478
0010	15476
Ġsuspended	15473
~)	15471
arma	15470
ĠAndrew	15469
Har	15467
640	15466
sam	15462
mond	15458
ĠToronto	15455
ĠâĢĭ	15454
Ġresistant	15454
keys	15453
Ġtalent	15453
Ġresident	15452
Ġstayed	15451
Ġmol	15447
BIT	15446
Option	15445
Take	15444
456	15444
Ġreliability	15444
orb	15442
century	15442
olar	15441
ĠKorean	15437
}</	15435
plus	15434
Ġmorph	15434
Ġarising	15434
Ġpromoting	15433
Ġnarrative	15429
orm	15427
GP	15427
ĠBridge	15424
888	15423
fore	15419
Ġindication	15417
Ġcomparisons	15416
Ġelectrons	15415
dial	15411
rical	15409
Ġmicroscopy	15408
Ġgenomic	15406
Ġ140	15406
ĠFather	15403
Changed	15402
FM	15401
Ġendothelial	15401
Ġelderly	15400
pressed	15397
IES	15397
exec	15395
Ġadjustment	15395
Ġ![	15394
otype	15389
ĠLibrary	15385
_(	15384
ĠCur	15382
maker	15379
cade	15377
eum	15375
Ġenergies	15375
ĠGre	15373
âĪ	15372
Ġpersonality	15370
olin	15368
bg	15367
Root	15365
ĠDaily	15364
Ġdemonstrates	15363
ĠTele	15363
tsu	15359
ĠCE	15359
NV	15358
Ġlifestyle	15356
Ġbranches	15356
noun	15355
bled	15350
Î¼	15348
Four	15348
ç»	15345
phys	15345
Ġspots	15342
EK	15341
utation	15340
Ġarrival	15340
through	15338
Ġexisted	15337
CAT	15333
Ġdistances	15333
Has	15332
Ġthreats	15331
Ġparagraph	15331
Ġinputs	15327
Ġdefinitions	15326
norm	15324
Ġsuppression	15322
Ġtournament	15320
Ġengagement	15320
ĠHouston	15319
dden	15317
Ġinhibited	15311
Ġthi	15308
Ġstrip	15308
Ġvariability	15305
omics	15303
Host	15303
Ġpointing	15300
Ġvisiting	15298
Ġdocumented	15295
bie	15294
ĠSystems	15294
require	15292
crypt	15292
Ġ1981	15289
Ġtransit	15287
Ġhoney	15287
1992	15286
Ġuptake	15286
Ġmeaningful	15286
Ġgovernor	15282
Active	15278
Ġtends	15274
deg	15273
Jo	15273
046	15273
$_{	15271
Ġtall	15270
eers	15268
ĠMoore	15268
Ġranges	15265
Ġsatisfaction	15262
ska	15261
Ġhandler	15261
ĠWeek	15261
Ġ---------------	15260
Ġwarranty	15259
lag	15258
mM	15255
230	15255
Ġlibraries	15255
Ġoptim	15252
Ġreply	15248
Ġprompt	15248
Ġ}}	15242
Ġminority	15240
../	15235
pressive	15229
Ġpunishment	15227
203	15225
Ð¹	15223
Ġconfusion	15222
208	15220
Ġprofession	15219
Ġcomplaints	15216
shop	15215
Ġcapabilities	15215
Ġ&=&	15215
Ġheaded	15214
move	15203
Ġdecimal	15199
Ġnitrogen	15194
667	15193
rock	15189
143	15186
Ġ''	15183
sphere	15179
Ġgray	15178
'],	15176
Ġthirty	15175
Ġalongside	15174
ĠSaudi	15168
gie	15167
zar	15165
0000000000000000	15163
ĠSon	15157
lif	15156
Ġemerged	15155
ĠPort	15153
ITE	15148
Ġsurprising	15146
Ġdenying	15145
Selected	15144
Ġuna	15144
ÙĪ	15143
Ġsuggestions	15142
ifi	15140
ews	15140
DN	15139
Ġspray	15139
225	15137
Ġoccasion	15136
Ġfake	15136
Pl	15135
2020	15126
ĠEgypt	15122
World	15119
1991	15114
ĠInterestingly	15114
,*	15112
Ġpassion	15112
Ġmil	15112
tat	15111
ĠHim	15108
ĠNode	15104
vation	15102
Ġparticipant	15102
Ġdental	15097
Ġ1960	15094
Ġfaculty	15090
alk	15089
obo	15088
found	15088
TEXT	15087
076	15086
034	15086
Ġnose	15082
shell	15079
Ġpreparing	15079
Ġcompete	15078
ĠmL	15075
ĠHz	15073
*\<	15071
$^{	15068
Ġinduces	15068
)\\	15064
NU	15063
}{(	15059
ĠPlay	15059
spin	15056
Ġsilicon	15054
ĠSS	15053
141	15044
Ġwinner	15042
rik	15039
Ġtransformed	15038
eqn	15036
bell	15036
attribute	15033
itative	15032
Ġcollaboration	15032
raf	15031
iana	15031
switch	15030
Ġheading	15029
cou	15026
Ġspo	15026
Ġvirtually	15024
026	15022
ĠLatin	15021
Ġbasketball	15020
Pos	15018
tee	15016
ometry	15016
430	15016
Ġhosts	15016
present	15013
;"	15007
school	15006
ĠBO	15005
alle	15003
ĠNations	15001
stable	15000
ulatory	14998
Report	14995
Ġbases	14995
VR	14993
RED	14990
Display	14990
ĠTA	14990
trained	14989
Properties	14989
original	14987
*(-	14987
btn	14986
Ġtransient	14985
Ġwelfare	14977
Ġminim	14977
Ġclaiming	14977
lz	14976
ista	14975
Ġgeometric	14974
Based	14971
Ġticket	14967
Ġasset	14967
ĠBel	14966
Ġ160	14965
Ġconstraint	14957
Ġreceives	14955
Tu	14953
Ġblocking	14953
zed	14951
ryl	14951
article	14950
áĥ	14949
Ġrespondents	14949
hman	14947
Ġpotent	14947
ĠSports	14946
social	14945
Ġcoronary	14945
cles	14943
158	14943
134	14941
Ġprobable	14939
}:	14938
bil	14935
))/	14935
cong	14933
Ġlocked	14930
Ġfrozen	14929
Ġlongitudinal	14926
UE	14925
Ġslide	14914
sided	14913
{%	14910
ĠCG	14910
UG	14906
hot	14903
ĠBra	14900
Ġbleeding	14898
dens	14893
ĠMean	14893
Ġwage	14890
Ġrecurrence	14890
Ġchances	14889
Ġaffirmed	14889
ĠShould	14884
Ġprotocols	14882
Ġ'\	14882
Ġ111	14878
ĠRob	14876
testing	14875
Ġoptimization	14875
Ġanalog	14874
Ġcli	14872
handler	14871
dent	14870
bits	14870
Â¤	14869
Ġgrab	14869
ĠSilver	14868
Ġhistoric	14866
Ġgang	14866
Ġ255	14866
west	14865
Ġconstants	14862
Ġfiscal	14861
Ġdecomposition	14861
models	14860
ĠÎĶ	14851
ĠCommissioner	14851
ĠFort	14849
ssa	14847
ifdef	14847
Ġwavelength	14847
Ġsubgroup	14844
Ġcultured	14843
Ġnonlinear	14842
osomes	14839
immer	14837
Delete	14836
Ġinspect	14836
Ġbrush	14835
Ġshortly	14834
Ġparams	14834
settings	14828
Ġpleasure	14827
owner	14826
Ġanger	14826
oso	14825
Ġappreciated	14824
Ġloc	14823
Ġcircular	14822
318	14821
Ġreset	14821
221	14820
Ġsudden	14820
Ġdetermines	14819
Ġtimely	14817
ĠĊĠĠĠĠ	14817
commit	14815
lessly	14814
inson	14813
Port	14813
ÃĲÂµ	14812
Ġdonor	14811
Ġeigen	14810
Full	14807
360	14807
Ġjustify	14806
Ġdistinction	14806
Ġrail	14804
ogram	14800
Ġgrain	14799
Ġdistress	14799
Ġsolved	14797
850	14795
Ġappointment	14795
ĠÂ»	14787
Ġartist	14787
ulations	14786
aug	14782
former	14780
Definition	14780
Ġmembership	14779
eder	14772
ĠTHAT	14771
750	14769
Ġcookies	14769
Ġefficiently	14767
RX	14765
Ls	14765
ĠCam	14765
hai	14764
gathered	14764
Both	14764
Ġmutants	14764
coming	14763
Ġlocalization	14761
ffs	14759
Ġcriticism	14757
_*	14756
Ġthrown	14756
Ġpursue	14756
326	14755
Ġsecured	14755
mine	14752
289	14752
ĠShort	14752
Ġfold	14750
Ñı	14747
cyc	14747
}})$	14744
ĠTer	14742
hbar	14738
Ġ800	14738
Ġtags	14737
GFP	14734
Ġpostoperative	14732
Ġthreatened	14730
Ġreward	14729
Ġnp	14728
\)	14723
vascular	14721
Ġheaven	14721
Ġcustody	14720
Ġmemories	14719
factor	14717
Ġur	14713
initial	14712
Ġstimulus	14708
Graph	14704
ables	14703
ĠĠĠĊ	14703
Ġsilent	14700
ĠPur	14698
Ġstriking	14696
Ġreplication	14695
Ä±	14693
Ġ112	14693
otherapy	14692
ĠRoman	14690
Ġoptional	14689
rez	14688
ĠCas	14687
Ġearn	14685
159	14684
Ġhel	14684
gre	14682
schema	14681
Ġanybody	14680
Every	14675
Ġsettle	14675
-.	14674
âĢĿ)	14672
Ġcancers	14672
mad	14671
Ġflood	14671
(__	14670
ĠIFN	14669
oxide	14665
]=	14665
bytes	14661
Ġcircuits	14661
ĠInsurance	14661
Ġinstruments	14659
andra	14658
may	14657
ĠConsider	14656
Ġflying	14651
ĠSky	14651
Ġfantastic	14650
Ġmath	14647
153	14646
enberg	14642
arms	14641
standing	14639
iya	14639
Thus	14638
Ġ02	14638
Kind	14637
Ġsim	14629
atives	14628
XF	14628
dale	14627
Pointer	14626
Ġliable	14626
Ġfactual	14626
grad	14624
anne	14624
Ġmature	14624
Ġ1982	14624
gio	14623
cial	14623
Ġchallenged	14623
Ġlitigation	14620
ĠChild	14617
motion	14616
Ġtraits	14616
elin	14611
rators	14609
ĠCap	14608
\!\	14606
Ġtries	14606
âĢĶâĢĶ	14605
149	14605
VERSION	14604
Ġconserved	14603
Ġinject	14601
ĠĠĠĠĠĠĠĠĠĊĊĠ	14601
engine	14598
Ġeveryday	14598
}}=	14597
Ġtracks	14597
Parameters	14596
Ġspe	14595
Ġxml	14594
VB	14593
ĠHoly	14592
Ġcorn	14585
VD	14583
Ġacted	14582
ĠMarket	14582
YS	14580
Ġum	14579
Ġinches	14577
Mu	14575
ĠXML	14574
Ġconvergence	14572
Ġcalm	14570
Api	14567
Ġdried	14567
Ġbelongs	14567
three	14566
ĠRO	14566
Ġmathematical	14565
Ġvegetables	14564
Ġqueue	14563
kn	14562
Au	14561
213	14561
ÃĲÂµÃĲ	14560
Ġconvention	14560
ĠTNF	14559
standard	14558
mot	14557
ĠHR	14557
rend	14556
Ġstained	14554
pag	14551
genes	14548
ĠChristians	14548
ĠIgG	14544
Variable	14543
Ġprote	14543
ĠWisconsin	14541
Ġhang	14539
ÃĦ	14538
Ġsatellite	14536
Ġresidential	14533
ĠPoly	14533
ror	14530
Ġmsg	14530
Ġmining	14530
Public	14528
Media	14525
armed	14513
Ġboot	14513
Ġgraphs	14510
Ã±	14509
zip	14507
Ġfilters	14506
ĠÎ¼g	14504
Ġexclusively	14504
shaped	14503
Import	14503
Cre	14502
Ġasthma	14502
Ġseats	14501
station	14499
ograms	14497
Ġflows	14497
Ġgradually	14496
Ke	14493
wall	14491
ĠMcC	14491
Ġbul	14490
Ġbedroom	14490
415	14489
except	14488
Ġprevented	14488
506	14486
Ġwins	14485
neu	14483
ĠâĤ¬	14482
hydroxy	14480
Ġ",	14480
Ġsubstitute	14479
Ġsentenced	14475
Ġlady	14475
ĠMAP	14475
Ġimpairment	14472
ĠLie	14471
sma	14470
Mat	14470
Ġperiodic	14467
ĠReturns	14467
signed	14466
Ġflowers	14464
Ġ115	14463
stu	14459
speed	14459
News	14458
TAL	14457
ĠDocument	14457
Ġwidespread	14456
ÂłÂł	14455
Ġgeneralized	14455
Ġestablishing	14455
)]{}	14454
Ġsimilarity	14454
Ġrespondent	14453
Ġconfused	14450
337	14449
jar	14448
Ġactors	14444
Ġmothers	14442
Ġmaternal	14441
Ġpig	14439
Ġattach	14436
Ġstating	14432
filename	14430
Ġnotation	14429
Ġintr	14427
inator	14420
-->	14419
Ġindependence	14417
ĠArab	14416
}$)	14414
rov	14413
Ġroads	14411
Ġphospho	14410
Ġminds	14408
program	14407
ĠEX	14407
Ġknife	14404
Ġreplied	14401
jan	14399
ARE	14399
Ġdescending	14398
Ġjoining	14397
Unknown	14393
Ġbarely	14389
ache	14386
169	14385
Ġ).	14384
MY	14380
disp	14378
ĠKelly	14378
Ġseeks	14371
1986	14368
Ġsymbols	14366
Ġrestore	14365
isms	14362
Ġanterior	14362
Ãº	14361
Float	14361
Ġpolarization	14361
Ġscenes	14359
Ġmethylation	14359
Ġcord	14359
Ġmotions	14358
Ġgut	14357
ĠSometimes	14357
Editor	14356
)+\	14356
Ġguests	14356
Plugin	14353
Ġwash	14351
ĠAng	14351
Empty	14349
Ġviewing	14344
Ġpreference	14343
í	14342
Ġsalary	14342
Ġexhaust	14340
338	14338
Ġocean	14338
218	14337
Ġrealistic	14337
lyn	14336
hist	14336
Ġlin	14335
ĠFeb	14335
Ġquestionnaire	14334
LED	14333
gling	14330
Red	14329
Share	14328
pgen	14327
Ġprocessor	14327
Ġcompression	14323
ĊĊĠĠĠĠĠĠĠĠĠ	14322
Ġenhancement	14318
Ġcapability	14317
Space	14315
Ġdeletion	14315
215	14314
ĠKansas	14314
yg	14312
Parent	14311
Ġincredible	14309
"};	14308
Ġprescribed	14306
gos	14305
ĠScale	14298
Ġantenna	14297
Ġairport	14297
BY	14295
Ġemploy	14295
calc	14292
Video	14290
Obj	14289
design	14288
056	14288
368	14284
|{\	14283
Day	14282
Du	14278
eis	14277
Ġrape	14275
152	14273
Ġdating	14273
sight	14272
Ġloves	14272
Ġunfair	14270
ament	14268
Ġmanaging	14267
Ġattorneys	14266
Mark	14265
Render	14263
Ġstorm	14263
DV	14262
Ġacceptance	14262
ĠAI	14262
Ġgather	14261
Ġcontroversial	14261
uj	14260
pts	14260
Close	14252
Ġbriefly	14251
AZ	14247
mul	14246
à¥į	14245
Ver	14242
199	14242
Ġhat	14240
rett	14239
Ġ{"	14235
ĠException	14234
Ġcylinder	14231
VO	14230
ĠStart	14230
Ġatomic	14229
ĠAB	14226
player	14224
Ġattachment	14224
interest	14223
ĠHol	14223
Ġcocaine	14221
azole	14218
Ġindictment	14218
ĠMassachusetts	14218
aton	14216
HF	14215
:</	14214
Âµ	14213
Ġacknowledged	14213
Ġviolations	14211
mass	14209
lh	14207
ĠRay	14206
Ġemissions	14205
Ġpeptides	14197
Ġdramatic	14189
Ġpartly	14187
render	14183
Ġsurely	14181
Ġcontention	14178
Res	14174
347	14173
HER	14172
Ġoffices	14170
Ġethnic	14170
ĠNature	14170
348	14169
Ġdietary	14167
!!!	14166
Channel	14164
[:	14160
Ġempirical	14160
Ġprotecting	14158
Ġundergo	14157
Ġacquire	14156
osomal	14155
acher	14155
cloud	14153
Ġletting	14153
Ġparticipating	14150
share	14149
ĠMuseum	14149
Ġrandomized	14147
alloc	14145
Ġsavings	14144
Super	14143
Ġresin	14143
296	14141
Ġinvestigating	14141
ĠRes	14138
loader	14137
Ġrevision	14137
Ġintersection	14134
Ġconservation	14134
185	14132
Ġprovince	14132
),$$	14129
Ġfelony	14129
Ġshadow	14128
oria	14125
Ġsigning	14123
plain	14119
lik	14118
Ġracial	14117
ĠTE	14117
601	14116
Ġunnecessary	14116
viruses	14114
ĠCNN	14114
181	14111
Ġlas	14101
amino	14096
Ġgolf	14091
Ġmediated	14090
History	14087
plane	14085
ĠIM	14083
Ġsym	14082
![](	14081
-)	14080
ĠBal	14078
different	14077
Ġrepresentatives	14077
ORY	14076
555	14075
Mock	14073
LOW	14073
ĠCro	14073
Ġresort	14072
Ġ119	14069
Ġrot	14068
gli	14067
ĠStation	14058
Ġproportional	14057
Ù	14053
{(\	14053
blog	14052
á	14049
Ġannounce	14048
Ġmodifications	14045
Ġduplicate	14044
Ġadvised	14044
å¤	14043
925	14042
ĠKar	14042
far	14037
162	14035
Bundle	14034
MIN	14033
ĠÐ	14033
âĢĻ,	14031
sburg	14031
Ġoutstanding	14031
ĠAllen	14030
VS	14024
ĠWA	14022
PIN	14020
Loc	14018
hp	14015
)-\	14015
cmp	14013
Ġmembranes	14013
357	14012
Ġremarkable	14012
Ġplots	14010
ĠPrior	14010
Ġlovely	14009
thal	14007
Ġmoon	14006
LK	14005
142	14005
Ġbird	14005
ĠBro	14005
ĠNation	14001
clean	14000
ĠKevin	14000
dled	13999
Ġcooperation	13998
ĠScotland	13995
ochemical	13994
chs	13994
549	13989
KI	13988
ĠLE	13988
igen	13987
Ġcoating	13987
pkg	13985
oud	13985
Ġwarned	13985
Mask	13984
Ġsentences	13983
Ġwing	13982
Ġpurified	13982
Ġ^{	13978
Ġtherein	13974
Ġelectrodes	13973
Ġemotions	13972
Ġconfigured	13972
Sch	13967
ĠCHECK	13967
058	13966
Ġimpaired	13964
annotation	13963
460	13963
Ġinfant	13957
ĠFunction	13956
ĠDel	13956
abstract	13954
171	13954
Ġinhibit	13953
Scroll	13952
,,	13951
Ġtetra	13951
Ġsec	13949
Ġlucky	13947
189	13946
Ġrelate	13946
ĠAssert	13945
ĠRose	13942
Ġnursing	13940
Ġdeco	13940
Ġconstructor	13938
Ġactively	13938
051	13937
ĠIrish	13937
178	13936
Ġdrove	13933
Ġprospect	13932
Ġsake	13931
})$,	13930
ĠFC	13928
aden	13927
ĠVI	13921
ĠDrug	13921
Ġlam	13917
Ġmess	13915
Ġrod	13914
GN	13910
ĠCF	13909
ISH	13907
Ġcopper	13907
ĠEu	13907
ĠPlus	13906
prefix	13897
616	13895
Ġaccomplished	13894
ĠAvenue	13893
Ġshipping	13892
POST	13891
Ġtan	13889
âĢ¦.	13885
Ġrap	13880
1989	13879
ĠSeven	13878
Texture	13877
ĠUkraine	13877
ĠFisher	13875
sla	13873
Ġpixels	13871
950	13866
>;	13865
Ġencouraged	13865
Example	13861
Ġintestinal	13858
Ġdiscloses	13858
Ġshield	13854
Ġcont	13854
cra	13851
329	13847
Ġinitiated	13847
Ġwider	13846
Ġflo	13846
READ	13844
Ġinfants	13843
Ġrelies	13840
Ġmutual	13840
Ġcancel	13839
Math	13838
mente	13835
Ġdisaster	13835
Ġarrow	13835
Ġproxy	13834
Ġrobot	13833
aph	13832
pb	13831
sul	13830
Ġprivilege	13830
hip	13829
BASE	13827
Bean	13826
ÃĲÂµÃĳ	13824
driver	13824
ĠManager	13824
Ġwhis	13823
Ġradial	13816
mapsto	13815
aur	13813
Ġcircles	13810
ĠKan	13810
hill	13809
Ġsecretary	13809
à¤¾	13808
Ġpositively	13808
Ġgenerations	13807
Ġpsycho	13804
borne	13800
ĠSix	13800
ĠGOP	13799
dine	13798
comb	13793
625	13792
åĪ	13789
Ġfunctioning	13789
Ġexplored	13786
ACC	13784
fing	13783
displaystyle	13781
fty	13780
Ġstops	13777
418	13776
erra	13775
Ġdominated	13774
ARY	13769
yb	13767
ĠFuture	13767
Ġrings	13766
Common	13765
vir	13764
vit	13763
Ġscratch	13763
stra	13762
ĠSort	13762
Ġwise	13761
Ġimportantly	13760
metadata	13759
Ġimpose	13754
ĠBrian	13753
ĠBMI	13753
library	13752
Ġcrossing	13752
aci	13751
Ġtort	13747
pmatrix	13744
five	13744
Ġmock	13744
expression	13740
æĺ¯	13738
Ġpermits	13738
ĠLin	13738
Ã¡Âº	13732
ĠRI	13730
UF	13729
Ġtunnel	13729
Ġspi	13729
Ġbathroom	13727
LICENSE	13726
Ġov	13726
gets	13725
808	13721
Ġlea	13721
Ġdia	13720
^{+	13716
Ġattacked	13715
ÑĢÐ°	13714
Ġstat	13711
Ġbrothers	13711
)~	13710
Ġreasoning	13710
Ġtie	13709
Ġfirms	13709
fg	13706
910	13704
Queue	13703
Ġcorruption	13702
ĠResponse	13701
ĠAug	13701
Ġcontinuously	13700
mx	13699
amy	13698
hex	13695
389	13695
NM	13694
Fl	13692
ĠWh	13691
Ġupcoming	13689
cx	13687
Microsoft	13686
151	13683
imon	13681
quant	13680
UV	13679
435	13679
090	13679
Ġdownstream	13677
Ġconflicts	13677
MAP	13676
ĠMaryland	13676
ĊĉĠ	13675
atable	13669
Ġquoted	13669
ÑĤÑĮ	13668
oscopy	13667
benz	13666
Ġannouncement	13666
ĠZe	13665
piece	13662
448	13662
Ġconvinced	13661
IAL	13659
ĠLO	13659
usa	13657
Ġprofits	13657
Ġstudio	13650
Evaluate	13649
ĠGovernor	13649
ĠATP	13648
Fo	13647
ĠLabor	13647
rise	13646
Ġexpertise	13643
ĠKong	13642
Game	13639
burn	13638
Given	13638
Ġpres	13638
=>	13632
half	13630
065	13626
xin	13623
Ġcomputational	13623
Ġalt	13620
odo	13619
Ġretained	13619
Ġdatasets	13617
ĠGrant	13617
ĠNavy	13614
Att	13612
Ġwebsites	13611
yi	13610
Conclusion	13609
Ġfluctuations	13609
Win	13607
\+	13606
Ġcompl	13606
Ġproposition	13605
Ġinvest	13603
Ġgains	13603
pert	13602
Arg	13596
Ġscanning	13594
Ġgraduate	13594
Ġbags	13594
ĠTy	13591
Ġrelied	13590
rell	13589
FIG	13589
Ġfeatured	13589
serve	13588
Ġcanonical	13588
Ġcausal	13585
INS	13584
oured	13582
429	13580
Ġethanol	13579
ĠSanders	13577
ĠPrince	13576
NOT	13575
inline	13574
Ġediting	13574
Doc	13569
Ġoccupation	13569
ĠNothing	13569
Ġ1979	13569
Hu	13568
Ġguaranteed	13568
ĠJeff	13568
pto	13567
Ġthermo	13567
>::	13564
Ġsil	13562
}),	13561
ĠCore	13561
Methods	13560
cious	13559
Ġpic	13556
variable	13555
grant	13552
results	13550
Seq	13550
:-	13549
scan	13548
NL	13547
Ġcontemporary	13547
Ġtrim	13546
Ġmad	13546
ĠGM	13546
Ġcomply	13545
Ġana	13545
account	13543
560	13543
Ġdrama	13543
general	13539
Ġgathered	13538
ĠIr	13538
Release	13537
Ġflex	13537
359	13536
Ġoh	13535
ĠTex	13533
Ġconsistency	13532
ĠOregon	13532
esta	13531
035	13531
Ġindicator	13531
Ġdeposit	13530
503	13529
Ġstimuli	13529
Ġsto	13528
ĠBBC	13528
XML	13526
Ġchromosome	13521
378	13520
team	13516
Ġincubation	13515
bolic	13514
Ġtobacco	13514
367	13511
0006	13509
Ġentrance	13502
Ġcyt	13502
transform	13501
0008	13501
Screen	13500
ĠPerson	13499
Ġ123	13499
limit	13496
ä¸	13495
eor	13495
Ġaffinity	13494
ĠUnit	13494
served	13493
nah	13492
natural	13491
Va	13489
pra	13485
ĠClinical	13484
Ġinstitutional	13483
Ġexceed	13483
Ġwriters	13482
linked	13479
Ġdimensional	13478
Ġfiring	13471
Ġ127	13471
Ġmacrophages	13470
ĠMil	13469
Ġreaches	13468
Ġought	13467
eland	13466
ĠHaving	13464
phen	13461
nome	13461
Ġmanifold	13461
Ġinnocent	13460
ĠKIND	13458
Ġaccounting	13455
'"	13453
Ġexpectation	13453
ĠClark	13452
Ġconsisted	13451
Â¡	13450
EDIT	13450
Ġdrives	13450
Ġburning	13449
Ġattract	13449
Ġclothing	13447
Ġsyntax	13446
Ġlos	13446
Ġang	13445
ĠSpec	13444
Ġlacking	13443
Ġsolvent	13441
ĠDB	13439
osi	13438
TON	13436
wel	13431
would	13428
Ġtooth	13428
ĠPla	13424
179	13423
ĠOUT	13423
score	13421
406	13420
Ġdemo	13418
Engine	13417
WH	13415
Ġbuf	13413
Ġgenerates	13410
Ġstruggling	13409
wen	13408
Ġsanctions	13408
Ġdet	13406
TAG	13405
ĠSN	13405
Register	13404
dell	13403
Ġlesion	13403
Ġcraft	13403
Parser	13402
228	13402
Ġstaying	13402
Ġasymptotic	13402
acted	13401
Ġwrap	13399
Ġmes	13399
ĠFer	13399
nop	13398
ĠMember	13397
Layer	13396
Db	13396
*}	13394
adr	13392
===========	13391
acity	13389
ĠArea	13387
518	13384
hum	13383
Ġspa	13379
leton	13378
Ġretired	13378
EW	13377
:/	13377
044	13377
ĠExecutive	13376
Ġconscious	13375
supp	13374
nest	13373
Ġsubstances	13370
Ġmedications	13367
}$-	13361
Ġcarries	13361
Ġcorrected	13359
rect	13358
Ġpun	13358
1988	13356
Ġenormous	13354
Ġdecent	13354
ĠDefault	13354
Ġdebug	13352
Ð¶	13351
city	13349
\(	13347
ĠMuslims	13346
Ġdra	13345
Ġslope	13340
UB	13339
Ġgli	13339
195	13337
Member	13336
ĠDirect	13335
ĠHarry	13334
utf	13328
spa	13327
Ð½Ð¾	13326
iot	13326
270	13325
Ġreplacing	13325
lips	13322
ĠScientific	13322
ĠDev	13317
TIME	13316
Ġminimize	13316
Ġplacebo	13314
bridge	13312
ĠUbuntu	13311
}}}(	13310
hine	13310
409	13309
)));	13309
057	13306
erce	13303
260	13302
ĠBlock	13302
Ġrs	13301
Ġcollision	13301
Ġfragments	13299
161	13298
cate	13297
Ġpredictive	13297
Ġopens	13297
Ġderive	13296
186	13293
same	13290
Ġterrorist	13285
fort	13283
264	13283
Ġreporters	13283
Ġalarm	13282
ĠNick	13282
ĠGran	13281
scriptstyle	13280
makers	13279
containing	13279
042	13279
period	13276
holder	13274
WT	13274
ĠLeft	13274
444	13273
Ġdisappear	13273
Ġpit	13271
posing	13270
West	13269
UID	13266
901	13266
ĠVA	13266
)$-	13264
Ġentropy	13264
Ġip	13263
ï¼	13258
around	13258
mous	13257
Ġspinal	13255
Ġexceptions	13255
Ġroutes	13254
Print	13252
thesis	13250
059	13250
ĠChange	13249
jquery	13247
XC	13247
Sen	13245
Ġcontributing	13244
Ġscenarios	13243
Ġremind	13243
Ġmer	13240
Ġweigh	13238
Ġservers	13237
Ġinitiative	13235
Ġentertainment	13235
icted	13234
cluster	13234
apply	13231
Real	13231
Ġchampion	13225
eren	13224
HG	13223
ĠLau	13223
Ġgastric	13222
Ġdreams	13221
ĠHillary	13219
504	13218
Ġcomplement	13215
Ġimpression	13214
ĠDown	13214
gger	13213
196	13213
ĠHollywood	13212
Ġshifts	13208
ife	13207
Ġol	13206
Ġ1977	13205
ĠSmall	13202
ĠLook	13201
enic	13199
Ġ116	13199
ĠCM	13196
Ġ09	13195
ĠMB	13194
rose	13193
Ġschemes	13193
bank	13192
amount	13190
Ġshaft	13190
Ġcy	13189
Ġcake	13189
432	13188
Ġstraightforward	13188
375	13185
Ġinhibitory	13185
\}$.	13183
Ġtendency	13183
Ċĉĉĉĉĉĉĉĉ	13179
Ġpossibilities	13178
339	13177
Ġguilt	13175
mens	13173
ĠMiami	13172
HW	13171
Ġscar	13170
Ġbroader	13170
aca	13169
depth	13168
ĠFran	13165
Ġplacement	13164
Will	13163
ĠTask	13163
ĠSupp	13163
lex	13162
Ġlicensed	13162
Ġpoorly	13159
ĠEdward	13158
Ġtrick	13157
9999	13156
ĠCommon	13156
ï¼ļ	13155
Ġ$${\	13155
price	13151
Ġslot	13151
Ġallele	13150
omycin	13149
Ġhired	13148
ĠPhiladelphia	13148
LAN	13146
Ġpresenting	13145
Ġbegun	13145
ĠWay	13143
lint	13142
cro	13140
=====	13140
vine	13139
ĠLanguage	13139
ĠWas	13138
ĠAlabama	13138
507	13136
Ġfitted	13136
Ġdetecting	13135
Ġneighbors	13133
resp	13132
gif	13131
530	13130
fact	13129
Ġspokesman	13125
Ġencountered	13123
Ġlawyers	13122
cont	13119
Ġchairman	13119
ĠSimilar	13116
ĠOklahoma	13116
ĠCells	13116
ĠHong	13115
505	13113
systems	13111
Socket	13111
looking	13108
Ġships	13108
Ġcirc	13108
INE	13107
Ġphotograph	13107
Ġmerit	13106
Ġ114	13103
Ġnoting	13100
pay	13099
ĠMatthew	13099
WR	13095
Proxy	13095
Ġroyal	13095
Ġordering	13095
Ġcurvature	13089
Ġequity	13085
Ġwanting	13084
Ġinvasive	13084
Ġanalysed	13084
Ġpersistent	13083
Pop	13080
allow	13079
Ġreconstruction	13079
Ġinconsistent	13078
Ġdebtor	13078
Ġindividually	13076
exe	13075
154	13075
928	13074
ibilities	13073
PY	13073
Ġmanagers	13072
516	13071
Ġsphere	13070
Ġaligned	13070
Ġfishing	13069
Ġneuronal	13067
Ġ1978	13066
Ġshame	13065
Ġdiagonal	13065
Ġoccupied	13064
Ġsquad	13062
Email	13058
Ġanalytic	13058
Platform	13057
247	13057
Ġmeals	13057
DAY	13056
Hash	13054
HU	13052
Ġdiscipline	13048
states	13047
WD	13044
NB	13044
ĠUC	13042
umi	13040
yth	13037
Ġassociate	13037
Ġstolen	13036
hra	13035
dog	13030
Xml	13029
Ġraises	13027
ivo	13023
HV	13023
174	13022
Ġcitizen	13019
Ġchemicals	13018
stock	13016
Ġundefined	13016
Ġdistribute	13016
iton	13015
Ġdelicious	13015
ĠRN	13015
hop	13014
Ġbelt	13014
067	13013
Ġforecast	13012
contin	13009
Ġborrow	13009
ĠColor	13008
Ġcelebrate	13007
Ġgenotype	13003
ĠBox	13003
Ġtransmit	13001
ĠJavaScript	13001
skip	13000
minute	13000
heat	13000
callback	13000
LIN	12998
ĠOverall	12998
Âĩ	12996
kb	12994
Ġwithdraw	12994
Ġaffairs	12994
Ġgar	12993
Ġconcur	12993
Ġspecimens	12992
Ġhomogeneous	12992
Ġlogin	12991
Ġdot	12991
ĠDiego	12989
Directory	12988
NH	12984
âĶĢâĶĢâĶĢâĶĢ	12983
IND	12983
Ġinspection	12983
Ġcytokines	12981
Ġvirtue	12979
Ġdont	12978
padding	12977
uto	12976
properties	12976
Ġlogistic	12975
Ġgrace	12974
346	12972
ĠStudent	12972
MU	12971
710	12970
Ġsurrounded	12970
Ġpositioned	12969
Ġlegislature	12969
dow	12968
Sample	12967
))$	12964
Express	12962
Ġlocalized	12960
Ġformulation	12960
mf	12958
Ġaddressing	12957
ĠNight	12956
iques	12955
ĠChannel	12955
bh	12954
294	12951
ĠBureau	12951
ĠGer	12950
Ġphot	12949
Ġupset	12948
ancing	12947
tit	12944
Ġhandled	12944
âĢ©	12942
know	12942
TES	12941
Ġpla	12941
ĠCredit	12938
ĠCapital	12938
Ġarises	12937
^](#	12935
Ġton	12933
1985	12932
itan	12931
ĠSl	12930
540	12928
Ġnegotiations	12928
ulus	12927
Ġbirthday	12927
Matrix	12925
rg	12924
Ġdisrupt	12922
ðŁ	12921
Ġsys	12921
ĠEric	12921
ĠÂ«	12918
ĠJun	12918
springframework	12915
Ã£o	12913
Ġalien	12913
Remove	12911
Ġbeings	12911
ĠLLC	12911
ĠPhil	12909
Effect	12907
;}	12906
344	12906
1984	12906
ÙĬ	12904
Stop	12903
536	12903
loading	12902
396	12899
Ġdam	12896
ĠSeattle	12896
420	12894
wr	12893
Age	12892
valid	12891
Ġurine	12889
ĠSup	12888
âĦ¢	12886
White	12886
ĠTrade	12886
ĠInvention	12886
fy	12885
rei	12884
ĠHor	12884
Ġlets	12882
chr	12881
cep	12877
>)	12876
Ġconvenience	12875
Ġgrants	12874
ĠFive	12873
counts	12871
/"	12871
Ġcorporations	12870
Ġtermination	12867
197	12865
Ġquit	12865
417	12864
Ġcompile	12864
mix	12863
Trump	12862
Ġverified	12862
Øª	12861
Ġrestrict	12856
Ġstyles	12855
Ġinvent	12852
184	12850
olytic	12849
358	12847
ĠCSS	12844
algebra	12841
UA	12837
...)	12837
ĠReturn	12837
Ġorgans	12836
ppat	12833
Ġ(<	12833
ĠOil	12830
ĠLabour	12827
387	12826
Ġhearts	12826
ĠProcess	12826
Ġtmp	12825
Ġconsiderations	12825
track	12823
shared	12823
032	12823
Ġdispersion	12823
Ġhan	12821
412	12816
uded	12815
ĠSearch	12815
Ġrolling	12813
ĠFootball	12812
Ġhighlighted	12810
LINE	12809
Ġdict	12809
Ġclubs	12808
>();	12807
VT	12805
iper	12803
Ġdrag	12802
ĠForeign	12802
ivities	12799
Ġ121	12798
wh	12797
ĠAsh	12796
_;	12793
Ġsheets	12793
455	12792
Ġcarriers	12791
ĠEP	12788
=$	12787
332	12787
052	12787
vable	12786
KD	12786
ä½	12785
rup	12784
iological	12781
539	12781
1987	12780
REA	12778
parallel	12776
CALL	12774
ĠTB	12774
Enter	12773
223	12773
,(	12773
chloro	12772
229	12772
Ġworship	12768
Ġoccasionally	12768
Ġinsights	12765
Valid	12764
}{{\	12762
Factor	12762
Ġsimulated	12762
ĠCou	12760
ĠAnt	12760
Ġgastro	12758
Ġimplements	12757
ĠTan	12757
inv	12756
Ġengaging	12756
ĠVideo	12756
475	12754
Ġexpanding	12754
Welcome	12753
Ġmethyl	12753
Ġsuggestion	12752
Ġbarriers	12746
Ġshapes	12745
Ġproto	12745
Ġflexibility	12745
0007	12744
Ġprescription	12741
548	12740
756	12739
314	12739
Ġkiss	12738
ĠSyrian	12737
uin	12736
801	12736
Ġphoton	12729
Ġapproached	12728
ĠOrgan	12728
variate	12725
NSString	12724
iat	12723
Ġdistricts	12723
Ġbreathing	12718
Ġdeter	12716
){\	12715
Ġremarks	12714
ĠMet	12713
292	12707
Ġremedy	12706
lane	12704
Ġmonitored	12704
Ġequ	12702
metric	12701
224	12701
loss	12700
Ġaccommodate	12700
ĠJacob	12697
South	12695
Ġtur	12695
onna	12694
Ġneedle	12693
ĠÎ¼M	12692
Ġdishes	12691
Ġmodulation	12690
brief	12689
physical	12688
Ġincredibly	12687
Ġangles	12687
Ġvolunteers	12686
ĠCommand	12686
enz	12685
508	12681
414	12680
ViewController	12678
Ġcam	12678
Ġ118	12678
164	12677
Ġtitles	12675
291	12673
**/	12673
FLAGS	12672
Ġinference	12672
Ġimpacts	12671
tier	12670
Comm	12670
Ġdevelopmental	12670
366	12668
Consider	12667
Ġkg	12667
Ġdeleted	12666
rified	12665
Ġvolumes	12665
Ġslice	12663
312	12661
Ġdistant	12658
ĠAA	12658
emb	12657
Ġbold	12657
JSON	12656
abc	12655
Ġtongue	12653
Ġsleeping	12652
cred	12650
&=	12650
xF	12649
osome	12648
428	12648
ĠTry	12647
307	12646
ruby	12642
Ġsolving	12642
bullet	12641
Ġconversations	12638
Home	12636
397	12636
Ġdiscount	12636
without	12635
Ġyours	12635
163	12633
ĠÃħ	12632
ĠJac	12632
343	12630
Ġteaspoon	12629
Ġdisposed	12628
ĠOrganization	12628
920	12627
ĠRich	12627
(!	12626
Ġdeclaration	12626
iterator	12625
Ph	12625
Network	12625
Meta	12625
===	12625
Ġmandatory	12625
Ġabandoned	12624
Ġencoded	12623
Shape	12622
hc	12621
Ġloo	12621
ĠOxford	12621
Ġgarlic	12619
åľ¨	12618
Ġdying	12618
asse	12616
Ġmerge	12616
045	12614
Ġenv	12614
="../../../	12613
oda	12611
Files	12611
Ġaggregate	12611
299	12610
ĠClick	12609
lateral	12608
Ġfilename	12608
ĠYu	12608
ĠLive	12607
Ġimply	12603
ĠPrice	12603
Ġextracts	12602
915	12600
471	12598
Ġpurely	12598
Ġsuppressed	12597
Ġlemma	12597
325	12596
Ġupgrade	12594
Ġtranslate	12594
Stack	12592
172	12592
Ġbalanced	12591
ĠFull	12591
ä¹	12590
ĠDifferent	12590
369	12589
254	12589
Ġappend	12588
Ġinstruct	12587
308	12586
Ġ1975	12586
Ġspoken	12585
ĠWatch	12584
proof	12583
Ġven	12583
Ġadhesion	12583
Logger	12577
RNAs	12575
,âĢĻ	12572
Ġligand	12572
empt	12571
Ġ'/	12571
tner	12570
oney	12570
Wait	12569
dst	12568
Bio	12568
ajax	12567
Ġarrays	12566
IZ	12564
305	12563
Ġhitting	12562
Ġconv	12562
ĠFL	12562
HN	12560
342	12559
356	12557
tub	12555
flu	12553
379	12553
è¿	12552
Ġapproximate	12551
Ġproceeds	12549
_-	12547
Ġvis	12546
Ġsecretion	12546
neg	12544
436	12542
303	12539
both	12537
293	12537
Ġshed	12537
Ġnutrition	12537
Args	12535
Ġretrospective	12533
David	12532
Ġinnovation	12531
Ġfocuses	12531
Ġaccordingly	12529
ĠEvent	12529
Ġcontroversy	12528
ĠContent	12528
hos	12527
091	12523
Ġpromoted	12521
returns	12517
ĠThrough	12517
ĠMorris	12513
EXPECT	12512
Ġpulling	12512
gis	12511
Ġtransitions	12511
Ġsan	12510
Ġterror	12507
Ġconsiderably	12507
Ġarguing	12507
ĠTheory	12504
Ġpleased	12502
245	12501
Ġdozen	12500
ĠMissouri	12499
illo	12497
ĠMid	12497
Ġoutdoor	12495
777	12494
552	12494
Ġseal	12492
hidden	12491
ãģ¯	12490
eti	12490
Ġwaters	12490
Ġfatal	12490
ĠDisney	12490
550	12489
ĠWord	12489
Ġexplaining	12488
Ġexhibits	12488
ĠAv	12488
916	12487
Ġcalendar	12487
Ġanalytical	12485
ĠVisual	12484
).\	12482
Ġoperational	12481
Ġtranscripts	12480
Ġautomobile	12479
success	12477
ĠOnline	12477
345	12476
Ġmorphology	12475
191	12474
Ġethical	12473
="/	12472
Ġbro	12468
protected	12467
SHA	12464
Ġintact	12459
Ġmobility	12458
toc	12457
olation	12457
.....	12457
ĠSign	12457
inous	12456
392	12456
Ġanonymous	12455
training	12450
fel	12448
Those	12446
*:	12445
Descriptor	12444
=[	12444
ĠAuthor	12442
Ġsixth	12441
osine	12440
parameter	12439
ĠSurvey	12438
ĠGui	12438
Ġhook	12437
447	12435
Ġfever	12435
Ġcompromise	12435
ĠRad	12435
Ġvolunteer	12433
TABLE	12431
>'	12430
499	12430
4000	12428
Ġchat	12428
Ġmanufacture	12426
ĠSelect	12423
Ġmagnet	12422
Func	12421
Ġ113	12421
ĠTour	12419
="../	12417
lom	12416
Users	12416
376	12416
ĠTreatment	12416
network	12415
meters	12414
334	12414
Ġasserted	12414
ĠPhilip	12413
AQ	12412
Ġties	12410
fol	12409
antic	12408
Ġconducting	12408
Ġplacing	12407
ĠHotel	12406
Ġevaluating	12405
~-	12404
oidal	12403
illary	12403
Pool	12403
Ġfounder	12403
ĠSquare	12403
^{*	12399
Ġreviewing	12399
227	12398
Symbol	12397
Ġreserve	12396
Ġscal	12391
ĠFrancis	12389
Password	12388
ĠYo	12387
385	12385
ounce	12383
Ġphones	12383
Ġfate	12382
Ġmuseum	12381
Ġenemies	12381
ĠRelated	12381
ĠCurrent	12381
Ġaf	12379
Il	12378
ĠPres	12378
atz	12375
ĠMessage	12375
Ġprefix	12373
Ġent	12373
840	12371
)",	12371
Ġreportedly	12370
388	12369
æł	12368
306	12366
è®	12363
Ġcannabis	12363
Ġclip	12360
ĠBuild	12360
expr	12359
440	12359
delim	12357
Double	12350
ĠNBA	12350
blo	12349
Ind	12349
Great	12349
Ġlegally	12349
Ste	12348
PRO	12347
Ġprayer	12347
Îµ	12346
yal	12344
317	12344
Ġposting	12344
``	12343
Ġimplementing	12342
ĠWithin	12340
Ġ1976	12340
ĠâĢĻ	12339
Ġofficially	12339
som	12338
Sy	12338
Ġswing	12338
Ġgamma	12336
Ï	12335
platform	12333
jc	12331
equals	12331
528	12331
Ġblockchain	12331
Edge	12330
etta	12327
ific	12326
Storage	12325
statement	12324
468	12324
__(	12322
Ġupload	12321
Ġhormone	12321
Ġmaxim	12320
Ġsco	12315
620	12313
517	12313
Ġsustainable	12312
238	12311
077	12311
Ġtrap	12311
ccc	12310
ican	12309
Ġind	12309
Ġballs	12309
ativity	12308
Ġvaries	12307
ĠYouTube	12307
Ġke	12306
ĠRapids	12306
525	12303
480	12302
))?	12300
Ġthrew	12300
Ġcounting	12298
RAM	12295
511	12292
Ġrecruitment	12290
282	12288
Policy	12285
vl	12284
vey	12284
Ġwr	12282
Bit	12281
Ġ117	12280
ĠRom	12277
reh	12270
Ġolive	12265
&=&	12263
237	12262
Ġconstitutes	12262
visible	12260
pent	12259
Ve	12257
âĤ¬	12255
collect	12254
COMP	12254
:=\	12254
*),	12251
Ġtraveling	12249
äº	12247
330	12247
ĠFactor	12246
simple	12245
Ġfestival	12244
075	12240
ĠMotion	12240
Lin	12239
Ġmethodology	12239
Ġdeploy	12239
Err	12238
Ġpollution	12238
XY	12236
God	12236
Åį	12235
Ġforma	12235
issue	12234
integer	12234
did	12233
Ġ"-	12233
Ġcatheter	12232
uno	12226
Ġlands	12226
Ġmetastasis	12223
ĠSelf	12223
252	12222
pres	12220
437	12220
Ġdenoted	12219
clo	12217
054	12217
Copy	12216
Ġshifted	12215
VALUE	12214
ference	12212
Ġappellate	12212
MER	12211
Ġlessons	12211
åĽ	12210
ĠSn	12210
Ġram	12209
Ġspeaker	12208
Ġvalidate	12206
ĠCOURT	12204
utt	12203
Ġthy	12203
Ġnuclei	12203
Ġasync	12203
syn	12201
515	12200
connected	12199
Ġextracellular	12199
_{{{\	12198
Ġtears	12198
ĠDR	12196
Mac	12194
Ġprobation	12194
aldehyde	12193
MN	12192
ĠRequest	12192
ĠBP	12191
ĠRelease	12190
Ġbiology	12189
nv	12187
ĠDallas	12187
vn	12186
ĠPalestinian	12186
ĠMY	12180
Ġinnovative	12179
924	12178
ĠAlexander	12178
course	12176
chin	12176
Ġlesser	12175
Ġappearing	12175
Ġindirect	12172
classes	12171
354	12170
Ġsusceptibility	12170
Ġerroneous	12170
Ġadvocate	12169
ĠComb	12169
ĠProcedure	12167
Ġsubstrates	12166
Ġraces	12166
loaded	12165
hab	12165
Ġwages	12165
Ġcrypto	12164
Ġepi	12163
positions	12162
ãĢ	12161
fixed	12160
Byte	12159
character	12157
Ġtem	12155
Ġhanging	12155
288	12152
Auth	12151
Ġimmigrants	12151
Ġwheat	12150
182	12146
twitter	12145
457	12143
Ġconfigurations	12142
ĠZa	12141
comm	12140
Ġgy	12140
Ġrally	12138
exit	12137
Ġviable	12137
Ġobjectives	12137
401	12136
Ġcups	12136
Ġorganisms	12135
ĠGolden	12133
Ġreproduce	12132
Ġstepped	12131
vr	12129
)/((-	12128
Ġmerits	12127
ession	12124
citing	12124
ĠSto	12124
Ġtot	12123
Ġsho	12123
ĠUpon	12123
Sql	12122
Ġsteam	12121
exists	12120
+,	12117
tailed	12116
many	12116
flag	12116
Ġdiscussing	12116
Ġsubtle	12115
Ġabilities	12114
generated	12112
Obv	12112
Ġdramatically	12112
Ġinfluenza	12111
Defendant	12110
Ġprostate	12109
Ġbelonging	12109
Ġasserts	12109
470	12108
Ġcas	12108
ĠRemove	12108
ĠPy	12108
ĠHamilton	12107
Light	12106
ĠCt	12104
Black	12099
Ġsem	12098
rail	12097
Ġtransverse	12097
ĠFinancial	12097
ATED	12096
496	12095
Ġcharging	12094
ortion	12093
TEM	12093
Ġinvestigators	12093
Ġfallen	12092
ĠRules	12092
ashi	12091
fulness	12090
Ġhighlights	12090
Ġdevelopments	12090
Ġcatalog	12090
zel	12087
${\	12086
Ġrobbery	12085
ä¸Ń	12084
ĠUP	12084
Ġcrop	12082
à¥	12081
Ġsig	12076
urn	12074
Ġsustain	12074
424	12073
localhost	12071
ĠGE	12070
ĠAli	12070
ĠTennessee	12069
Ġsing	12067
Ġlengths	12067
Ġsingular	12066
Ġproducer	12066
ĠPol	12065
submit	12064
gro	12064
Ġwisdom	12064
Ġnecessity	12063
363	12062
ĠSingapore	12062
Ġdear	12061
567	12060
Ġtopological	12060
Fin	12059
rupt	12058
controlled	12057
Ġadoption	12057
AAA	12056
bad	12055
gne	12054
Ġriding	12053
roy	12052
LIB	12050
ĠWould	12050
Ġfluorescent	12049
Ġalloc	12049
feed	12048
ĠCulture	12048
ĠED	12044
Ġreceipt	12041
Ġoperates	12041
Ġexcitation	12041
ĠMRI	12035
Ġhumanity	12032
ĠPURPOSE	12030
dj	12029
mk	12028
053	12028
ĠARE	12028
607	12025
Ġinvoke	12025
Ġdrops	12025
Ġcredibility	12022
315	12020
Ġassertion	12020
iah	12019
ĠSummer	12016
ĠCON	12016
Ġconvex	12015
Ġident	12014
Ġfreely	12014
ACH	12013
mock	12012
Ġoxidation	12012
KK	12011
Ġprevents	12011
ĠMorgan	12011
352	12010
Ġsafely	12010
Ġcasual	12010
061	12008
Ġpacked	12007
Ġ\*	12006
Ġtex	12003
ifndef	12002
Ġexplo	12002
236	12001
ĠBerlin	12001
ĠBL	12001
768	11998
580	11998
Ġtender	11996
job	11995
distance	11995
Ġincorrect	11995
Ġpub	11994
ÂĴ	11993
Ġcomplain	11993
660	11992
610	11992
Ġstopping	11990
Ġprojected	11990
880	11989
Ġmesh	11989
ĠForest	11989
Ġaffordable	11986
chro	11985
490	11984
TEN	11983
}.\	11982
Msg	11981
Ġattending	11981
Ġtriggered	11980
Ġineffective	11979
Ġfucking	11979
Ġlighting	11978
Ġalterations	11978
Ø¯	11971
SER	11971
Ġdonors	11971
089	11970
Ġhanded	11970
upper	11968
Ġhorror	11967
extern	11966
Ġ]{}	11965
uis	11961
875	11961
ĠRF	11960
Ġadaptation	11959
bis	11958
438	11957
Ġunity	11955
Ġpromises	11955
Ġcatalyst	11953
ĠPrevious	11953
Wa	11949
Ġsen	11949
ĠBUT	11949
opp	11945
cfg	11945
Ġconfirmation	11945
infected	11944
ĠMexican	11943
617	11942
ãģ¨	11941
factory	11941
239	11941
antly	11940
HH	11940
IONS	11938
=-\	11936
Ġmeets	11934
Ġcombining	11934
ought	11932
Ġfiction	11930
Ġamplification	11929
UTF	11926
Ġnurses	11925
treatment	11924
ĠChampionship	11924
Ġcameras	11923
Short	11922
UX	11920
Ġutilize	11920
ĠRam	11920
398	11917
('#	11917
Ġrelaxation	11915
locked	11913
Ġinherent	11913
399	11912
Ġretention	11912
Assert	11911
ĠAss	11910
Ġconditional	11908
Ġathletes	11907
}>	11906
prom	11906
ppa	11906
Health	11906
Ġdeficit	11904
Ġann	11904
ê	11903
---|---|---	11902
oS	11901
Ġinitiation	11899
cken	11898
421	11897
sequence	11895
Ġdensities	11894
ĠProtection	11893
Ġcure	11891
Ġgolden	11890
username	11884
Ġmetrics	11883
Ġaden	11882
553	11881
1980	11881
Ġrival	11881
Ġdec	11880
Ġ"%	11880
rooms	11879
ĠPremier	11877
IDE	11874
Ġqua	11874
Ġblot	11874
ĠMeanwhile	11874
ĠHawaii	11874
Ġoccasions	11873
Contact	11871
927	11871
Ġdeserve	11871
226	11870
Ġconcert	11870
yk	11868
926	11867
Ġinvestments	11867
ĠDist	11867
340	11866
mand	11863
060	11863
Ġartists	11863
Ġclimb	11862
Ġpill	11861
MON	11860
ĠWHERE	11860
Ġpharmac	11858
Ġconform	11857
383	11854
Ġtriple	11854
ĠFinal	11854
gly	11853
groups	11852
Ġarbitration	11852
537	11851
ĠMas	11850
069	11849
urable	11848
ĠAuthority	11847
Ġprotests	11846
gun	11845
wire	11843
235	11843
)>	11839
Ùħ	11838
charge	11837
stead	11836
Ġgri	11836
Cy	11833
Ġanimation	11832
193	11831
476	11830
Ġinspiration	11830
PAGE	11826
Iterator	11826
Ġtestify	11826
Ġdivorce	11824
Summary	11823
5000	11823
}&	11821
uu	11820
EVER	11815
---|---|---|---|	11815
sectional	11814
lov	11814
VL	11814
410	11813
-[	11812
ĠWrite	11812
Ġmistakes	11810
psy	11809
cg	11809
ĠJason	11809
xsl	11807
books	11807
ĠNet	11807
Ġcompiler	11806
ĠSarah	11806
Ġhomo	11805
SUB	11804
tags	11802
Ġfloating	11801
squ	11799
tif	11797
Ġsocket	11797
Ġdatabases	11796
license	11795
353	11794
Ġmotivated	11786
Ġ08	11786
virus	11785
mia	11785
ĉĉĉĉ	11785
ĠLicensed	11784
Ġensuring	11783
ĠStudio	11783
576	11782
vee	11780
pac	11778
RW	11778
editor	11777
boy	11777
535	11777
too	11776
HM	11776
451	11776
Ġbaking	11773
780	11771
Ġremand	11771
Ġyard	11770
361	11768
Subject	11767
Ġrespons	11767
ĠExample	11767
Account	11764
ĠÐ¸	11764
364	11763
sect	11762
Ġactivists	11762
422	11760
LOC	11759
Ġrein	11759
ĠJane	11759
ĠAddress	11759
required	11758
ĠÐº	11758
Ġabundant	11758
Ġearnings	11755
operation	11754
650	11753
ĠWalker	11752
mies	11751
Ġaud	11751
Ġpremises	11746
Ġinsist	11746
Ġlake	11745
Ġamongst	11744
Ġboards	11743
since	11742
3000	11742
isi	11741
606	11741
odot	11740
nee	11737
ĠGuide	11737
erator	11735
.<	11735
UPDATE	11734
Ġtear	11733
ĠHoward	11732
Ġthrowing	11731
Ġdisadvantage	11728
ĠTech	11728
Initial	11727
Ġdowntown	11727
Ġprognosis	11726
ĠFront	11726
073	11725
Argument	11724
ĠExpress	11723
à´	11721
Ġdated	11718
MAC	11717
wick	11716
ardo	11715
680	11715
Ġtherapies	11715
SED	11714
Ġinsertion	11714
nw	11706
Ġshops	11706
cellular	11705
ĠSingle	11705
determin	11704
602	11704
cost	11703
iment	11702
Dim	11700
Ġslip	11696
layers	11692
ĠCaptain	11692
Ġindustries	11690
ĠABC	11689
ĠTony	11688
glo	11687
clock	11687
Wo	11687
BN	11686
Ġjudges	11686
183	11684
Ġrepository	11683
998	11682
\^[	11680
ĠHel	11680
Generic	11676
Ġhire	11676
Transaction	11674
Ġjustified	11674
439	11673
Ġchopped	11673
XX	11671
Anim	11671
413	11671
ĠHS	11670
Ġspeaks	11668
mouse	11667
dri	11667
gf	11666
fly	11664
485	11664
ectin	11660
Ġuniversities	11660
Ġreactive	11660
virtual	11658
431	11658
Ġcontend	11658
554	11657
Ġ"",	11657
====	11656
810	11656
701	11656
Ġbackup	11656
Ġpassenger	11655
Ġmanufacturers	11655
Ah	11653
ĠLes	11653
173	11652
912	11649
ĠROS	11649
particle	11647
Try	11646
events	11644
Ġcursor	11644
ĠMoon	11644
sche	11643
national	11639
ĠSenator	11639
dea	11638
469	11638
Ġantibiotics	11636
icide	11635
special	11634
Ġobligations	11632
Ġads	11628
ĠcDNA	11627
ĠPARTICULAR	11627
health	11624
097	11624
Ġemails	11624
ĠWars	11624
Security	11623
Ġpackaging	11623
Ã´	11621
Ġaveraged	11621
391	11620
Ġrefuse	11616
,.	11615
Ġdisp	11615
ĠEditor	11615
066	11614
Ġsupplement	11614
Bound	11610
Ġveteran	11609
Ġavoided	11608
uta	11606
Ġfought	11606
cpu	11605
1982	11603
ĠVery	11603
Ġprofound	11601
Ġmainstream	11601
Ġfruits	11601
dfrac	11600
Gl	11600
wk	11598
Scope	11595
KL	11595
Ġbasal	11595
MX	11594
ĠElizabeth	11593
ĠOP	11592
DING	11591
|^{	11589
Ġbare	11589
|$	11588
Ġmicroscope	11588
Ġdialog	11586
Ġceiling	11586
Ġholder	11585
Ġchips	11585
ĠDutch	11585
Ġratings	11583
ãģ§	11582
relation	11579
ÏĦ	11578
547	11578
Ġexperiencing	11575
Ġpreserved	11574
Ġadventure	11574
ĠMountain	11574
ionic	11573
ĠFE	11573
Ġupstream	11572
evo	11570
every	11568
Ġhorizon	11568
RAL	11567
Ġsup	11565
ãģª	11564
Ġalternatives	11563
ĠSenior	11563
ãĥ³	11560
onne	11560
Metadata	11560
Ġdepart	11559
ĠCOVID	11556
Ġgranting	11554
Ġdesk	11554
258	11549
Ġshirt	11549
Ġadvances	11548
395	11547
Ġintelligent	11547
ĠStock	11547
Ġglyc	11546
Ġdispatch	11544
Ġsearched	11543
utor	11542
427	11541
Timeout	11540
Player	11540
Failed	11540
Ġpink	11537
Ġbrilliant	11537
Unc	11536
Ġagricultural	11536
489	11535
science	11533
Ġvoluntary	11532
ĠSm	11531
trust	11529
serial	11529
465	11526
Ġhappiness	11525
ssl	11524
Ġgraft	11524
ĠFilm	11524
uate	11520
))\	11520
manager	11518
ĠRen	11518
gp	11517
ĠInteger	11515
formation	11514
1983	11513
activated	11512
Ġcats	11512
gui	11511
Ġintensive	11510
Ġ350	11508
380	11507
Job	11506
Loader	11504
iform	11503
Ġresidue	11503
]-[@	11502
458	11502
ï	11501
Ġmayor	11500
Ġeastern	11499
ĠExpression	11499
ĠVector	11498
Ġexplosion	11497
ĠFITNESS	11497
ĠBesides	11497
Ġ1950	11495
dash	11493
Ġsusceptible	11492
Ġunlawful	11491
sip	11490
Ġrevised	11490
Ġcontamination	11490
Ġ05	11488
bul	11484
446	11484
Ġlemon	11484
counter	11483
095	11483
ĠSF	11482
nik	11481
Ġevolutionary	11481
olysis	11479
sync	11478
ĠWales	11478
Information	11474
Save	11472
249	11472
Ġselecting	11471
Ġmeth	11471
ĠJean	11471
ĠCollection	11468
Ġbuttons	11465
identifier	11464
459	11464
HQ	11463
Ġdiabetic	11462
Ġsuspicion	11461
Connect	11460
Ġclinically	11460
ĠTro	11460
acs	11458
Ġya	11458
mini	11457
Scale	11456
mount	11455
pattern	11454
Kit	11453
Ġtumour	11453
Binding	11450
445	11448
Ġut	11446
ĠRon	11442
===============	11441
sense	11440
Ġexempt	11438
Ð½Ð¸	11437
Ġstationary	11436
Ġviability	11433
Ġconsumed	11432
ĠNotice	11432
zilla	11431
419	11431
Ġskip	11430
Ġdisclose	11430
Ġ``	11429
Ġprimers	11428
Ġdesktop	11428
ĠConvention	11427
605	11426
serving	11425
unique	11424
Ġadvert	11424
ĠCruz	11424
043	11421
Ġillustrate	11421
527	11420
Ġexam	11420
0020	11419
Ġredshift	11419
Ġranked	11418
six	11417
inst	11417
Ġabsorb	11417
Ġloads	11416
hant	11414
Ġ1973	11414
Ġrecipes	11413
ĠUnlike	11413
Ġrelevance	11411
SOURCE	11410
Ġresponsive	11409
Ġcounted	11409
ĠUtah	11408
tiny	11406
erin	11405
Ġgerm	11405
ĠUSB	11404
Ġthereafter	11403
Ġmimic	11403
quoting	11401
fm	11401
302	11401
Ġpainful	11401
ĠVietnam	11401
453	11400
Ġpremium	11400
Ġcalc	11397
morphic	11396
ĠCN	11396
holding	11393
Further	11392
570	11391
Off	11390
zh	11388
Pay	11388
ĠDun	11387
Ġple	11385
^*$	11383
486	11383
ael	11380
Complete	11379
630	11375
501	11374
âĪĹ	11373
]))	11373
Ġsubtract	11373
Ġdem	11373
Ġincomplete	11372
Ġallocation	11372
bow	11371
generation	11370
Ġgoogle	11370
hang	11369
USER	11368
!(	11368
ĠInitial	11367
Ġko	11366
Ġappellants	11364
Â£	11361
Ġarts	11361
Exp	11359
does	11355
921	11354
Ġendogenous	11354
held	11353
were	11351
Ġbitter	11351
Ġfuck	11350
execute	11349
647	11349
Ġfigured	11349
ĠDark	11349
ÃŃa	11348
itÃ©	11347
\!\!	11347
Ġintroducing	11345
Ġfurniture	11343
Ġcenturies	11343
ĠTw	11342
Ġpredetermined	11341
ĠOtherwise	11341
offs	11340
Ġdig	11340
Ã¥	11338
ĠCard	11338
rica	11336
Ġ126	11334
Ġtickets	11332
ssel	11331
Ġcone	11331
hk	11330
Wi	11327
North	11326
ĠLouisiana	11326
Ġaffidavit	11325
760	11324
Ġlaptop	11324
Invalid	11322
481	11322
ĠAG	11322
Attributes	11321
ĠLater	11321
ĠAssistant	11321
xsd	11320
ĠMusic	11320
Ġ122	11319
gence	11318
621	11317
plant	11316
Ġprolonged	11316
Ġreception	11315
çĶ¨	11312
fileID	11310
MAKE	11307
Ġincidents	11307
Ġgraphics	11307
464	11306
ĠDouble	11306
iki	11305
controller	11304
dimen	11303
Ġcrossed	11301
Ġ$|\	11300
085	11299
372	11297
Ġtar	11297
nio	11294
ĠSav	11294
"\	11292
Ġgrey	11292
ĠPri	11292
ĠProduct	11290
mv	11288
Warning	11288
Ġfetal	11288
904	11285
het	11283
rough	11282
Ġsacrifice	11279
ĠâĢľ[	11278
Ġtackle	11278
))**	11277
Ġmyth	11277
Ġbail	11277
ĠHen	11277
556	11276
stre	11274
ĠMount	11272
Ġ1972	11271
Serial	11269
596	11269
Ġinfectious	11269
Simple	11268
(-\	11268
ĠPhysics	11268
proc	11264
Ġcro	11264
Ġcarb	11264
Sam	11263
Ġseemingly	11263
Ġarchitect	11261
Ġcorrections	11260
Ġventricular	11258
Ġrhythm	11258
Ġcertified	11255
alter	11253
241	11253
Lib	11252
ctr	11248
Ġ[$	11246
Ġrecommendation	11245
Console	11244
483	11244
Ġinsured	11244
686	11243
Limit	11241
generate	11240
agen	11239
405	11239
CAM	11238
å°	11237
Ġevolved	11235
Ġë	11231
Related	11230
Ġtransplant	11230
yce	11228
BER	11227
ĠFO	11226
Ð²Ð°	11225
Ġabdominal	11225
304	11223
Memory	11222
FOR	11222
Ġgener	11221
Ġdismissal	11221
ĠStore	11221
384	11219
STATE	11216
ĠNASA	11216
ĠAffairs	11216
Ġregret	11215
259	11214
ĠFarm	11214
arXiv	11213
Ġemployers	11213
ĠHad	11213
Ġbrands	11212
ĠAtt	11211
into	11210
ĠArts	11210
undo	11207
ĠNetherlands	11207
expl	11206
546	11206
Ġki	11206
Ġgravitational	11206
odd	11205
609	11205
hbox	11204
hak	11204
ĠiPhone	11202
ÑģÑĤ	11199
.""	11199
Ġrubber	11199
Ġdx	11199
Ġundergoing	11198
Ġrotating	11198
Ġcurious	11198
Ġtwelve	11197
Ġhol	11196
266	11195
Ġorthogonal	11195
Ġfracture	11195
à²	11193
magnetic	11193
467	11193
Ġ.$$	11193
plastic	11192
trace	11191
CHECK	11190
Folder	11189
Ġawards	11188
Ġdesert	11187
liness	11186
Ġdemonstrating	11186
blob	11185
ATT	11185
facebook	11184
922	11184
)](#	11184
claimed	11183
ĠMERCHANTABILITY	11183
DIS	11181
Ġcorrupt	11178
iste	11177
Package	11175
064	11175
ĠEc	11174
valent	11173
ĠSimon	11171
ĠrÃ©	11169
Ġdynamical	11165
este	11163
Ġsheep	11163
sac	11162
flex	11162
381	11159
APP	11158
sens	11157
ĠCB	11157
Created	11156
373	11155
219	11155
"[	11155
615	11154
Ġresume	11153
Ġordinance	11153
]$.	11150
Ġrecombinant	11150
}}}_{	11149
gnu	11148
Should	11148
Ġcouples	11148
426	11147
Ġtru	11147
grams	11145
404	11145
Ġsupervisor	11144
Ġfeasible	11144
423	11143
Ġhyp	11143
ĠFred	11143
}}({\	11141
519	11138
449	11137
Ġpublications	11137
Ġachieving	11137
ĠNK	11137
ä¸Ģ	11136
guard	11136
Ġâī¤	11136
ĠTokyo	11135
ĠEM	11135
Ġblade	11134
Ġorbital	11133
Ġdrain	11132
ĠNigeria	11132
resistant	11131
BOOL	11126
ĠAdv	11126
building	11124
Ġtopology	11124
Ko	11122
Following	11122
Ġpressed	11122
spaces	11121
Internal	11121
ĠCounsel	11120
ĠSOFTWARE	11119
lw	11117
Ġ124	11117
365	11116
zza	11115
Mor	11114
Ġsorts	11113
Ġlesson	11113
Ġenrolled	11112
Comment	11110
+{\	11108
ĠAppendix	11108
257	11106
233	11106
love	11105
Ġdialogue	11105
ĠMayor	11105
Ġty	11104
'''	11103
phones	11100
.");	11100
Ġmilit	11100
Ġhoped	11100
]*	11099
independent	11098
Ġexcuse	11096
subject	11095
+++	11095
Ġpea	11095
ĠGil	11095
Ġemerge	11093
rub	11091
lene	11091
Ġquar	11090
:[	11089
Ġhorses	11089
Ġ,\	11089
hid	11088
Ġrigid	11087
514	11086
063	11086
Ġspontaneous	11086
xb	11083
ĠDad	11080
Quant	11078
Ġswimming	11078
Ġoutputs	11076
ĠSol	11075
Ġcommun	11074
Ġcontacted	11072
ĠKit	11072
ĠElectric	11072
434	11071
Support	11069
).](	11069
Ġinappropriate	11069
à¦	11067
iger	11067
Ġjo	11067
ĠNormal	11065
Ġphenomena	11063
Ġactivate	11063
Lock	11062
702	11061
433	11061
Ġcmd	11060
WK	11058
atal	11057
EU	11056
Ġunemployment	11055
ĠResources	11055
pub	11054
ĠUSE	11054
ĠPRO	11054
441	11053
914	11052
529	11052
ĠCustom	11051
emphasis	11050
Ġlabour	11050
ĠStone	11046
Ġ1974	11046
itated	11045
Ġscrap	11045
Ġhill	11045
Ġschema	11044
Ġdisplacement	11043
Ġconjunction	11043
Book	11042
Ġretrieve	11042
groupId	11041
520	11040
Ġneighbor	11039
Ġconvictions	11037
ĠKeep	11037
ĠEngineering	11037
Ġcerebral	11035
472	11034
Ġdebut	11034
Therefore	11033
Fragment	11033
ÂĮ	11032
ĠGP	11032
Ġexponential	11031
Ġ129	11030
Ġhem	11028
ĠRome	11028
Ġlips	11027
ĊĉĊĉ	11025
erty	11024
Ġproc	11024
ToString	11023
ĠNeither	11022
251	11019
Ġpromotes	11018
Ġessence	11018
479	11017
modal	11016
DW	11016
Ġtowns	11014
Ġbull	11014
Ġthreads	11012
ĠMaterial	11012
Ġtubes	11011
Ġcontributes	11011
ĠDef	11011
Ġfatigue	11010
ĠRespondent	11009
Keep	11008
Ġsends	11007
Ġmount	11006
Ġbabies	11006
fat	11005
Draw	11005
Ġvaccination	11004
Ġspecification	11004
SYS	11003
aru	11001
ĠDisease	11001
ĠMari	10998
Ġloving	10997
Ġrental	10995
President	10990
336	10990
Ġloops	10990
ĠJerusalem	10990
hoe	10988
Ġvon	10988
ĠPractice	10988
Ġ"âĻª	10988
ĠTI	10987
glu	10986
497	10986
ĠÎ¼m	10986
Ġradi	10986
ĠStatistical	10986
Sl	10985
^{(\	10984
Ġtap	10982
ĠIg	10982
sville	10980
information	10980
genic	10980
931	10978
Ġscared	10976
Ġquant	10973
Ġkinetic	10973
ochemistry	10971
Ġextensions	10971
ocation	10969
Ġdefence	10969
mium	10968
gb	10968
DEL	10967
Ġlocus	10967
Timer	10966
ĠOb	10966
Ġisomorphism	10963
ĠLPS	10963
=\"	10960
ifiable	10959
"],	10959
Ġaqueous	10959
ethyl	10958
Power	10958
ĠBon	10958
ĠBeing	10958
DEN	10956
Ġrelax	10956
ĠFourier	10956
radius	10954
ĠJS	10954
323	10953
Ġproposals	10952
Ġsor	10949
Ġmodest	10949
Ġinstability	10947
ĠWHO	10947
803	10944
ĠVar	10944
Ġtin	10941
Ġextraordinary	10941
Ġawake	10940
artifactId	10937
Match	10937
cie	10936
Âı	10934
}^*	10932
\](	10931
ĠCloud	10927
498	10925
ĠPara	10925
KING	10924
months	10923
Ok	10923
408	10922
Ġconcentrated	10920
Ġbeneath	10920
'))	10919
Ġinterrupt	10918
Ġweighted	10915
Ġuniformly	10915
Ġpharmaceutical	10915
Ġdrunk	10914
formula	10913
Ġdistinguished	10913
ĠPop	10912
Ġinstructed	10911
Ġcontradict	10909
LIST	10908
Ġmarginal	10907
ĠGraph	10907
tables	10906
Ġdemocratic	10903
473	10902
Ġtransfected	10902
Ġlegacy	10902
Ġdrinks	10901
STATUS	10900
Ġheated	10900
andr	10899
complex	10897
dler	10896
csv	10896
PRE	10896
Ġpanic	10895
ĠEmpire	10895
Ġfacial	10894
ĠPal	10893
ĠHart	10893
ctrl	10891
+/	10890
Ġapt	10890
Ġinadequate	10889
Uh	10886
Ġtrailer	10886
ĠThompson	10886
oba	10882
Ġdistal	10882
Ġclustering	10882
thio	10880
forward	10879
Ġnegatively	10879
ĠDetroit	10879
Ġwrapped	10877
Ġjunction	10877
udi	10876
nucl	10875
INSERT	10875
ĠSpe	10873
Ġcooked	10872
Ġcriterion	10871
Ġburst	10870
Ġ(âĪĴ	10869
Ġqueries	10868
Ġdirectors	10868
Ġsynthesized	10867
Ġbun	10867
åĨ	10865
Ġinfluences	10865
Ġcaution	10865
382	10864
538	10862
416	10862
Ġstocks	10859
ĠMg	10859
DMA	10857
ĠCel	10855
Ġabroad	10854
ĠAustin	10854
ĠVice	10851
CW	10849
311	10849
Ġmut	10849
xff	10848
Ġbacked	10848
ĠOntario	10848
ĠET	10848
Ġtranslated	10847
Ġsurveys	10846
reading	10845
Ġrush	10843
ĠLib	10843
driven	10841
ĠWright	10840
Ġautomated	10837
Ġ135	10837
hall	10835
Ġhopefully	10833
Len	10831
Ġwithdrawal	10831
KR	10830
ĠMR	10830
ĠâĨĴ	10829
Ġproducers	10829
Ġdeciding	10829
igan	10828
hyd	10828
fra	10828
Bottom	10827
Ġpose	10826
ĠSweden	10826
ĠSaint	10825
820	10824
ĠTarget	10824
ĠRecently	10824
Ss	10823
Ġexploration	10820
ĠDick	10820
hun	10819
???	10819
ICK	10818
isers	10816
ĠSafety	10816
Ġdependency	10814
ĠSW	10814
best	10813
923	10813
Ġcervical	10813
their	10809
sad	10809
Ġwhilst	10806
Ġharmful	10806
apo	10805
Ġstatutes	10804
Ġreleases	10803
Ġdrew	10803
811	10802
Ġvalidated	10801
Ġenterprise	10801
Ġ256	10801
Program	10796
Ġcomprised	10795
Ġsons	10793
Ġsensory	10793
287	10792
ĠLORD	10791
478	10790
bigl	10789
Nu	10789
ĠCIA	10787
ĠIl	10786
bach	10784
Static	10784
Ġacceleration	10784
Ci	10783
:'	10782
866	10782
ĠCondition	10780
Ġutilizing	10778
iw	10777
NUM	10777
522	10777
login	10776
YY	10776
TW	10776
Ġmyocardial	10776
Ġpediatric	10775
Ġchemo	10775
Ġbilateral	10775
Ġparam	10774
journal	10773
OSE	10772
072	10772
ĠSteven	10772
RING	10771
icable	10770
hpp	10770
1981	10770
Ġethics	10770
Ġridiculous	10768
Ġplotted	10768
arate	10767
svg	10766
402	10766
GD	10760
ĠGET	10759
ĠDemocrat	10759
Ġpsychiatric	10758
prov	10757
uti	10756
Ġhouseholds	10756
ĠInterest	10755
Java	10754
Ġshower	10753
Ġbiopsy	10753
Chain	10752
rpc	10751
ĠWild	10751
NES	10749
Ġunstable	10748
Ġeff	10748
ĠMeta	10748
ĠFal	10748
407	10747
uating	10746
Ġphosphate	10743
ĠUni	10743
anol	10742
props	10741
tip	10740
Ġheaders	10740
})=	10739
Ġcytokine	10739
Ġcollecting	10739
ĠAnthony	10739
Database	10738
Ġeliminated	10737
atu	10736
navbar	10735
Ġrendering	10735
Ġbran	10734
Ġgovern	10733
194	10731
Ġrestored	10730
Ġfractions	10730
ffy	10729
243	10729
Ġshaped	10729
á¹	10726
National	10725
Ġvacation	10725
Standard	10724
Ġterrorism	10723
ĠEp	10723
Ġfort	10722
ĠNP	10722
working	10719
Ġhabits	10719
Ġcharacterize	10719
ĠBuilding	10719
lined	10717
Ġmapped	10715
~(	10714
=\{	10712
Ġneutrino	10710
smallcaps	10709
Ju	10708
bold	10707
510	10707
ĠMich	10705
ovo	10704
Ġprov	10702
Ġelastic	10702
functions	10700
iÃ³n	10698
Ġneg	10698
462	10697
created	10694
Ġopposing	10692
Selection	10691
graphs	10689
dance	10689
MODE	10689
Ã©r	10686
Ġhar	10686
TRI	10685
defendant	10684
Ġsubjective	10680
Ġoper	10677
Ġprohibit	10676
à¤°	10675
Ġquestioned	10675
Ġcalibration	10675
827	10673
ĠSar	10673
Ġgrows	10671
Required	10670
ĠFourth	10670
Ġpaste	10669
ĠMother	10668
Ġfn	10667
Ġaluminum	10667
Ġns	10666
SION	10665
Google	10665
Ġears	10665
_**	10664
Ġswap	10663
Tri	10662
Ġcomedy	10660
Ġfasc	10659
Touch	10658
1111	10658
Ġdeposited	10658
Ġdemanding	10658
Ġregards	10656
Ġencouraging	10655
Ġtranscriptional	10653
Ġenabling	10653
Ð±	10652
275	10649
Ġexploring	10649
Ġchemistry	10649
BACK	10647
Ġhepatic	10647
Ġai	10647
ĠNeu	10646
374	10645
Repository	10644
Ġrounds	10644
ĠSummary	10644
Ġelite	10643
ORS	10641
Notification	10641
Details	10641
316	10641
Xi	10640
Delegate	10639
ĠFra	10639
Ġdf	10637
603	10636
Ġreservoir	10636
Ġillustrates	10636
Ġembedding	10636
Ġabandon	10636
ĠRC	10636
oval	10635
Ġsep	10633
Ġprof	10632
Ġlane	10630
Ġpride	10629
Uni	10627
Ġrefugees	10627
Ġposit	10627
Ġ700	10627
Ġstimulate	10626
Ġpreclude	10625
ĠOlympics	10625
Ġpole	10624
kill	10623
328	10622
Ġremembered	10622
rice	10621
Ġoffenses	10621
xt	10620
Ġwo	10620
Ġsubsection	10620
Ġmusical	10618
442	10616
ĠFDA	10615
ĠMM	10614
proto	10613
DQ	10611
Ġexamining	10610
Ġequivalence	10610
Ġdrift	10610
ĠLady	10610
ĠExt	10610
558	10609
ĠSteel	10609
Ġrestart	10607
Ġcumulative	10606
reflect	10603
talk	10601
Ġassessing	10601
Ġscandal	10599
Ġpup	10598
Ġcoaches	10598
icating	10597
distribution	10597
STRING	10597
Fill	10597
})^	10596
Ġimproper	10596
Ġdemographic	10596
Ġsweat	10595
Ġdining	10595
ĠCome	10593
Ġjournalists	10592
ÃĹÂĶ	10590
Ġknock	10589
tell	10588
sections	10588
Ġwrit	10588
mile	10587
Ġpassive	10585
Ġmetals	10584
Ġbeef	10584
LONG	10581
ĠMarx	10580
Vo	10579
268	10579
Ġexpecting	10579
Ġanticipated	10579
Ġwalks	10578
ĠANOVA	10577
Ġ07	10577
tet	10576
inic	10576
Ġbitcoin	10575
kowski	10573
EH	10573
Ġforcing	10573
lua	10571
conduct	10570
ĠNT	10569
ĠSize	10566
Mintage	10565
321	10565
Ġapi	10564
Ġ03	10564
Ġopponents	10563
ĠHeat	10563
Ġprimer	10561
ĠAtlanta	10561
Listen	10559
286	10559
246	10558
surface	10556
upon	10554
Ġshrink	10553
Ġedited	10552
Ġallocated	10551
Ġmounting	10550
WP	10549
276	10547
Ġintimate	10545
Ġinfl	10545
Ġadmin	10545
ĠINTO	10545
Ã©t	10544
unity	10544
reach	10544
REF	10544
Ġgit	10544
ĠMonte	10544
ĠBowl	10544
Ġoz	10543
Ġexec	10543
ĠKnight	10541
Ġcru	10539
Ġly	10538
Ġmechanics	10537
Ġchampionship	10536
kon	10535
GCC	10535
ĠEPA	10535
prev	10534
eight	10534
Ġpreceding	10534
ĠCarter	10534
Ġelevation	10533
DEF	10532
ĠExchange	10532
ĠDS	10532
Ġflesh	10531
ĠKh	10531
Ġinfer	10530
ĠBlood	10530
thin	10529
ANCE	10527
/)	10527
ĠQuant	10527
Ġnod	10523
PART	10521
Ġslower	10521
Ġscrew	10521
637	10520
ĠDeputy	10519
ĠFestival	10517
KO	10515
521	10513
Ġcyclo	10513
Hy	10512
ĠFlo	10511
oner	10510
MIT	10510
Ġdire	10510
ĠSoc	10510
461	10509
Ġconsist	10507
ĠBarack	10506
ĠRoss	10503
513	10502
Ġbandwidth	10502
ÐµÑĤ	10501
amic	10500
705	10500
æľ	10499
them	10499
faces	10499
531	10497
Person	10495
565	10495
ĠJi	10495
}_{-	10494
berries	10494
^.	10493
]{}.	10493
="../../../../	10491
390	10491
fff	10488
Ġsentiment	10488
Ġactin	10486
sea	10484
Mapping	10482
ĠEL	10482
fla	10480
Keys	10480
ĠLiberal	10480
Ġantibiotic	10479
ĠSupplementary	10479
ĠĠĠĠĊĊ	10478
enko	10477
Ġwashing	10477
Ġadaptive	10477
Ġhosted	10476
]+	10474
Ġqualify	10474
ĠĠĠĊĠĠ	10473
cult	10472
Ġdeparture	10472
HB	10471
\*\*\*	10470
+}	10470
ĠGreece	10470
ĠGra	10470
Ġallies	10468
Ġauthentication	10467
Ġsubscription	10466
Ġbypass	10466
ĠMoscow	10466
built	10465
ĠML	10465
Ġ131	10465
Ġcontainers	10464
Ġ360	10464
Ġsitu	10463
Ġaccommodation	10463
GER	10462
Best	10462
393	10461
vd	10460
736	10460
484	10459
WO	10458
ĠHaw	10458
ĠCould	10457
letion	10456
Ġpancreatic	10455
Ġbubble	10455
Ġavoiding	10455
dum	10454
boolean	10452
569	10451
Ġgal	10451
Ġvac	10447
Ġthroat	10446
Ġsimplicity	10446
ĠCONDITIONS	10446
pie	10444
ĠYa	10441
ĠLaboratory	10441
545	10440
Ġutil	10440
Ġsummarized	10440
bigr	10436
HK	10435
Ġpassengers	10435
ĠDuke	10435
Single	10434
Ġtutorial	10434
éĢ	10433
entity	10433
fid	10432
Ġdir	10432
ĠManchester	10432
Ġ%>	10432
middle	10431
Ġregulating	10431
xl	10430
ggy	10430
Ġthoroughly	10429
anth	10427
297	10426
Ġpropagation	10425
Ġfil	10425
Ġborders	10424
Ġrub	10422
Ġagrees	10422
ĠStaff	10422
Ġwhereby	10421
690	10420
495	10420
Ġfiltered	10419
Ġclearance	10418
bun	10417
370	10417
Ġjoke	10417
575	10415
Ġcaptain	10415
Ġadequately	10415
lich	10414
Ġattitudes	10413
something	10412
heim	10412
ĠLED	10410
Ġoutlined	10408
ĠRevolution	10408
Ġgro	10406
ĠEight	10406
ĠBla	10406
mouth	10405
Ġincrement	10404
Ġmalignant	10403
ĠJen	10403
ä¸į	10401
Proof	10399
ĠStep	10399
Ġnights	10398
Ġrecipient	10395
ĠBrad	10395
Ġsurvived	10394
>{	10393
Ġtremendous	10393
Ġdelta	10393
elles	10392
ĠComm	10392
cco	10390
constitutional	10389
Ġcoalition	10389
âĢĿ).	10388
gd	10387
frequency	10387
scape	10385
SCO	10385
612	10385
resolved	10382
ceptive	10382
Ġfro	10382
ĠPT	10382
Ġhandful	10379
Ġcontinuum	10379
turn	10377
Normal	10376
ĠPatrick	10376
\}$,	10375
Send	10375
Ġrejection	10375
Ġconfidential	10375
lins	10371
Ġcrude	10371
Ġexponent	10370
ĠMus	10370
ĠTC	10369
ĠDoctor	10369
487	10368
Ġenrichment	10368
Ġperformances	10367
ĠCountry	10366
BOOST	10365
esp	10363
Ġblend	10363
boot	10362
279	10360
Ġdeadly	10359
effective	10358
)},	10358
Ġsymptom	10356
Ġqualitative	10356
Ġsteal	10355
ĠLevel	10355
425	10354
Ġproving	10354
ÎºB	10353
wit	10352
="-	10351
Ġtons	10351
\;\;	10350
dag	10349
hb	10348
Ġluminosity	10344
ĠRos	10344
Ġsensing	10343
ĠStatus	10343
von	10342
union	10338
ĠConservative	10338
Ġsens	10336
Ġ'<	10336
setting	10335
Ġsink	10332
Ġappellee	10332
friendly	10330
ĠNazi	10330
typename	10328
Ġorganisation	10328
Subscribe	10326
635	10326
Ġwal	10326
Move	10325
Ġinteracting	10325
poo	10324
ACA	10324
Sorry	10323
Ġsandwich	10323
454	10322
Ġpneumonia	10322
Ġbrutal	10322
}_{{\	10321
Follow	10321
Prot	10320
logging	10318
ĠWarren	10318
Ġdirty	10317
8000	10316
267	10316
Ġhighway	10315
Ġpreferences	10314
Ġnom	10314
'+	10312
Ġ170	10308
:"){	10305
Ġexert	10305
ĠAlaska	10304
collection	10299
Ġcritics	10299
327	10298
Ġmaintains	10298
Ġcampaigns	10298
webkit	10297
named	10296
Ġdeployment	10293
269	10292
Ġtheft	10292
Ġspecialized	10292
Ġclone	10291
amen	10290
Ġquotes	10289
Ġbesides	10289
closed	10288
Animation	10288
functional	10287
Ġdeck	10287
Ġcyber	10287
vubuntor	10285
Ġproductivity	10285
Ġembrace	10285
ĠBASIS	10285
Ġcourage	10282
Ġconnectivity	10282
MW	10281
ĠDrive	10281
ĠHAVE	10280
Ġgoverned	10277
703	10276
ĠCooper	10276
0009	10274
Ġemb	10274
ÑĢÐµ	10273
071	10272
Ġcos	10272
mie	10271
assign	10271
Ġprobes	10271
vier	10270
ĠHay	10270
storage	10269
ĠEqu	10268
Still	10266
Ġrin	10266
policy	10265
Ġhub	10265
pcbi	10264
Ġcompiled	10264
ĠLea	10264
/$	10263
ĠEarly	10263
focus	10262
Ġproximity	10260
Blo	10256
Ġhor	10254
Native	10253
Ġunde	10251
Ġreversal	10250
ĠEN	10250
Question	10249
Ġlisting	10249
UST	10248
Ġsponsor	10248
EXT	10247
Ġnovo	10247
ĠTaiwan	10247
Ġhint	10246
Ġengines	10246
Ġmac	10245
~.	10244
Ġcurrents	10243
ĠSite	10243
Ban	10242
452	10242
242	10240
memory	10239
external	10239
.__	10239
Ġemit	10239
Sw	10238
Act	10236
Ġrolled	10236
Ġidentifier	10235
590	10234
Ġelementary	10234
oxin	10233
either	10233
604	10233
Ġbeans	10233
913	10232
compl	10231
theme	10230
react	10230
WIN	10230
1979	10230
Ġtower	10228
chrome	10227
394	10227
Ġharassment	10227
Ġpotentials	10226
}}}}	10225
ĠEconomic	10224
HTTP	10223
Ġconvince	10223
533	10222
Ġmeters	10221
Ġjunior	10221
Flow	10220
hib	10219
sexual	10218
Ġequals	10217
Ġbanking	10217
Ġenriched	10216
Ġsituated	10215
Ġkn	10215
551	10214
532	10213
Ġstake	10212
Ġ132	10212
xd	10211
scroll	10211
Ġdisable	10211
Ġbehave	10211
Ġperforms	10210
)}}	10209
Ġmountains	10209
Ġcompanion	10209
ĠFranklin	10209
itarian	10207
Ġ"_	10207
Cancel	10206
945	10206
hus	10205
Ġrecruited	10204
ĠAnimal	10204
Ġspite	10203
Ġburied	10202
Several	10201
Login	10201
ĠHand	10201
Ġ04	10201
Include	10200
erie	10199
download	10198
SSL	10197
265	10196
ĠGulf	10196
important	10195
619	10193
Ġdefeated	10193
ĠReference	10193
shadow	10192
Ġobs	10192
Ġindicators	10191
START	10190
ĠHI	10190
sound	10189
ĠSco	10188
sizing	10187
though	10186
Ġapple	10185
290	10183
Ġshoulders	10183
Ġmus	10183
Ġquarterback	10182
TZ	10181
Ġgaming	10180
DEP	10177
477	10177
Ġinvert	10176
symmetric	10174
ĠEngine	10174
Ġfoster	10170
Ġextensively	10170
ĠInteg	10170
asser	10169
322	10169
coo	10168
hara	10166
ĠSeason	10166
Ġemotion	10164
Ġdevoted	10164
Ġlys	10163
stim	10160
astro	10160
ÛĮ	10159
806	10158
277	10157
Ġsaline	10157
Ġcoronavirus	10157
ĠSil	10156
tai	10155
hide	10155
Ġpronounced	10154
links	10153
Ġgeo	10152
ĠAtlantic	10152
PAR	10151
Ġdeployed	10151
validate	10150
Forms	10150
Expr	10150
Ġirrelevant	10149
Ġ240	10149
door	10148
Library	10148
Ġequi	10148
RQ	10147
Ġdielectric	10147
Ġabnormalities	10146
ĠDigital	10146
Ġprocedural	10145
Ġceremony	10145
Ġracing	10144
ĠmiRNA	10144
Ġtouched	10143
Ġstrikes	10143
Ġministry	10143
going	10142
Ġthemes	10141
Ġhind	10139
ĠLar	10139
Ġascending	10137
Card	10136
Ġgirlfriend	10134
ĠGas	10134
jit	10133
RSA	10132
Paul	10130
ĠDevelop	10130
mutable	10129
Pad	10129
Ġresponding	10128
ĠNative	10128
Ġabused	10126
TOP	10123
679	10123
Ġdamn	10123
panel	10122
Ġgrasp	10120
ĠAppro	10120
ques	10119
hering	10118
Ġelectr	10118
Ġdepicted	10117
Ġoverview	10116
alone	10115
Ġarrangements	10115
ĠPas	10114
gies	10113
gua	10112
Ñħ	10111
Ġparental	10111
Ġconsequently	10110
between	10107
components	10106
Ġtoilet	10106
third	10104
ensis	10104
Trace	10104
704	10104
soft	10103
XL	10102
ĠHunt	10102
yz	10101
gmail	10101
Ġresection	10101
Ġdom	10101
Ġ[$\	10101
flux	10100
572	10100
Ġrib	10100
Meanwhile	10099
inations	10098
OPT	10098
Ġfixing	10098
Ġbullet	10098
082	10097
Ġexercises	10097
ĠIron	10094
ebe	10093
Ġputative	10093
ĠHeart	10092
062	10091
ĠClo	10090
Ð»Ð¸	10088
gz	10088
Ġaccepting	10088
Ġthumb	10087
ilization	10085
Men	10084
ĠÐ´	10084
ffi	10083
bies	10083
ĠDeath	10082
ĠBody	10081
Ġzones	10080
inte	10079
Ġfears	10078
proj	10077
Ġranks	10076
Ġimplicit	10076
Ġfeaturing	10075
Ġreproductive	10074
PACK	10070
541	10069
Ġinterfaces	10068
Ġadhesive	10068
Ġ192	10068
Green	10066
Ġwishes	10063
Ġextr	10062
EAT	10059
Ġdecree	10058
ÑĤÐµ	10057
ROM	10057
Cir	10057
278	10057
Ġhunting	10057
Ġdest	10057
scal	10055
friend	10054
Ġportable	10053
Ġdemanded	10053
Ġnotable	10049
Ġgaps	10049
**:	10048
ÑĢÐ¾	10044
tak	10044
Ob	10044
ĠFla	10044
ĠYES	10042
ilation	10040
azi	10040
toggle	10038
Ġtrips	10038
Ġnotification	10037
ĠIranian	10037
ĠBas	10037
English	10035
Ġforgotten	10035
Though	10034
ĠRoy	10034
ruption	10033
kis	10033
Ġdeputy	10033
ĠPP	10033
Wal	10032
Ġsophisticated	10032
ĠHistoric	10032
Ġirr	10030
ĠMalaysia	10030
single	10029
OVE	10029
Ġcompositions	10029
Ki	10028
dll	10027
ĠReserve	10027
ience	10026
ĠBad	10026
FLAG	10025
324	10025
Î½	10024
dig	10024
Ġrabbit	10023
lessness	10022
[...]
