.	51123050
,	43758835
Ġthe	41286892
Ġof	23446488
Ġand	19922164
Ġto	19256581
-	15943059
ĊĊ	15732004
Ġa	15595790
Ċ	14960524
Ġin	14246332
_	9968231
Ġis	9697733
Ġ(	8489536
Ġthat	8319108
)	7617492
Ġfor	7482282
:	6931768
1	6058149
Ġwith	5753172
2	5609285
(	5556276
Ġ	5462928
Ġ"	5224311
Ġon	4912047
/	4643494
Ġas	4486965
s	4414800
Ġbe	4377227
Ġwas	4354876
Ġit	4289718
ĠI	4223801
Ġby	3932821
Ġare	3892718
Ġ=	3864005
ĠĠĠĠĠĠĠĠĠĠĠĠĠĠĠĠ	3756349
0	3725672
;	3723142
Ġ-	3571232
Ġthis	3395474
ĠThe	3348661
Ġfrom	3296672
Ġat	3272163
Ġ$	3268175
Ġyou	3260395
âĢĻ	3215868
{	3205058
Ġor	3181697
Ġnot	3148802
Ġ\	3140727
*	3109369
}	2989620
Ġhave	2950853
\	2857615
's	2857041
3	2840960
Ġan	2810091
"	2679774
ĊĠĠĠ	2629243
Ġ0	2557333
>	2510919
Ġ1	2440072
Ġ*	2419476
Ġwe	2303883
Ġcan	2117333
Ġwere	2087044
."	1969205
Ġwhich	1950803
4	1950763
$	1937117
="	1925413
Ġhas	1881497
Ġ+	1803044
ĊĠĠĠĠĠĠĠ	1792470
Ġ{	1778769
Ġbut	1768709
The	1752478
t	1728940
Ġwill	1701218
Ġhe	1686577
Ġ2	1680238
?	1674149
).	1668339
Ġall	1639330
5	1630530
Ġif	1611618
x	1599542
A	1584828
a	1581593
ĊĠ	1578688
d	1576759
Ġhis	1570556
Ġone	1567430
I	1527356
Ġthey	1506784
ĠA	1421593
n	1406830
Ġtheir	1404631
Ġmore	1397574
B	1374350
**	1348955
Âł	1326540
i	1287813
_{	1282990
Ġhad	1274400
Ġ$\	1264769
S	1264475
Ġbeen	1263535
]	1235224
Ġalso	1227921
Ġyour	1225724
C	1217313
<	1215024
Ġ<	1212233
),	1201142
);	1191200
Ġ3	1185606
Ġabout	1175677
'	1171570
ĠIn	1163164
Ġwhen	1161904
Ġwould	1159605
Ġtime	1137768
=	1137362
Ġout	1132115
Ġthere	1126241
Ġso	1114356
Ġother	1110764
't	1108812
p	1090661
6	1085317
b	1083810
^	1081881
ĠâĢľ	1076235
Ġmy	1075432
Ġwho	1071061
Ġdo	1042381
c	1041777
Ġthan	1040094
Ġno	1034201
Ġup	1031605
ĠS	1019279
Ġ[	1016154
----------------	1013788
[	1006632
m	1000860
Ġits	982544
ĠĠ	982095
Ġinto	974694
Ġ&	963014
Ġ'	962917
ĊĠĠĠĠĠĠĠĠĠĠĠ	955604
Ġ}	954755
8	953667
ĠC	951485
Ġour	945793
Ġonly	939421
Ġtwo	933171
Ġsaid	925698
Ġher	919816
Ċĉ	912015
Ġwhat	904388
Ġlike	903137
7	897941
Ġany	896569
f	895044
e	890907
Ġ4	887540
Ġsome	884171
Ġmay	880406
Ġnew	879466
ĠIt	866296
ĠThis	859563
D	849177
Ġsuch	846933
Ġfirst	843888
%	834416
Ġthese	828249
k	827148
Ġ5	805950
ĊĠĠĠĠĠĠĠĠĠĠĠĠĠĠĠ	804292
Ġthem	796024
g	794060
Ġover	793547
Ġget	790272
ref	780960
Ġme	780321
Ġuse	778126
R	774808
Ġthen	772765
type	772521
P	771067
T	767343
Ġjust	765531
in	760938
Ġafter	760280
9	760203
Ġbetween	756701
r	753044
E	750606
F	741987
ĠP	737510
Ġused	719897
+	715722
ĠM	715385
Ġcould	715169
Ġwhere	714152
ĠWe	712280
.,	711181
Ġdata	709717
ĊĠĠĠĠĠ	700906
ĠB	700249
ĠT	697646
",	689871
M	685327
Ġpeople	685165
</	684306
Ġv	670055
Ġshe	663123
Ġusing	662338
h	658181
Ġbecause	654677
In	651843
N	644718
#	641230
10	638748
Ġi	637690
ĠD	635531
Ġp	627868
j	626588
Ġshould	626217
{\	620503
L	618838
H	618218
Ġ[@	614578
Ġwell	608207
Ġhow	603262
}\	600074
!	598400
Ġmost	598098
Ġ.	596176
v	594461
Ġeach	590828
ĠF	590138
){	589971
Ġ10	589129
Ġcase	586620
Ġhim	582797
Ġ|	570653
Ġunder	568127
Ġclass	564464
y	562086
Ġmake	556056
Ċĉĉ	556029
ĠR	553630
ĠL	548507
Ġthrough	543650
Ġwork	543395
ĠH	540849
Ġsame	537909
Ġ@	537678
ĠĠĠ	537522
ĠN	536724
Ġway	536545
G	536154
~	535482
Ġs	529311
u	528910
Ġsee	528843
ĠHe	528782
ing	526782
ĠU	526036
Ġeven	524856
ĠG	524323
Ġ6	523120
Ġthose	522123
->	520575
frac	520278
Ġyears	519940
Ġvery	519915
Ġnow	518974
ĠE	517011
Ġboth	516510
Ġknow	515726
Ġm	510629
Ġset	508042
Ġbeing	505756
Ġdid	500815
Ġmany	499000
Ġ_	498885
Ġneed	498610
Ġbefore	494987
Ġreturn	490601
Ġdifferent	489270
Ġnumber	489018
Ġright	487757
?"	486836
âĢī	486644
()	486279
](#	481303
Ġback	479303
right	479116
X	478311
Ġhere	473048
}$	472717
ly	468058
::	467012
Ġdon	466414
left	465096
ĊĊĠĠĠ	462177
l	461701
Ġmade	458552
Ġvalue	458321
">	456753
ed	456720
12	456087
com	455958
Ġ\[[@	452581
00	452184
fig	451783
Ġwhile	451647
Ġc	451352
Ġus	451351
to	450440
âĢĿ	450333
ĠâĢĵ	450248
--	447007
Ġsystem	446527
://	445497
the	444775
Ġfound	444043
Ġhigh	442319
z	440052
q	438976
Ġmuch	434815
":	433103
Ġ**	432854
Ġstudy	432161
.âĢĿ	431478
Ġstate	429841
Ġthree	428424
K	428202
Ġfunction	427926
Ġgood	427466
Ġd	425908
Ġwant	424034
Ġpatients	423168
Ġpublic	422775
ĠIf	421293
Ġwithout	418603
ĠFor	417899
Ġduring	417444
Ġ7	416835
Ġt	415305
Ġde	414900
11	414011
Ġcells	413410
Ġname	411666
ĠLet	410927
What	409982
Ġcourt	408727
_{\	408076
Ġdoes	407993
ĠK	405502
,"	404023
We	403978
Ġre	403169
ĠĠĠĠ	402876
Ġorder	401451
Ġthink	401350
Ġ//	399981
Ġ:	397123
w	396442
Ġe	396420
Ġyear	395355
Ġ8	395311
$,	393271
Ġnon	392432
Ġgroup	387260
ĉ	387209
Ġx	387071
',	386710
th	384974
Q	384495
ĠJ	383479
Ġpart	382376
It	381873
Ġagainst	381687
ĊĠĠĠĠ	379656
Ġn	378723
Ġdown	377372
J	377108
Ġend	373881
Ġlong	373047
Ġstill	370770
Ġtake	370319
Ġb	369560
Ġmust	368070
Ġlast	367983
//	367788
W	367560
$.	366926
V	366874
Ġtype	366515
ĠĊ	366385
("	366356
}{	364915
Ġf	364614
end	364524
Ġgo	364186
Ġinformation	359924
ĠBut	356648
Ġday	352525
Ġsecond	351845
Let	350419
This	349984
(\	349217
Ġ,	347654
mathcal	347533
Ġresults	346819
get	345737
and	343628
...	341596
();	340592
Ġfollowing	339991
ĠV	334745
re	333987
Ġgoing	333851
int	332163
Ġfind	331969
Ġr	331842
Ġoff	331195
âĢľ	330933
^{	330490
ĠAs	328914
Ġlife	327894
Ġwithin	327870
],	327421
Ġun	327288
čĊ	327166
O	326859
|	326302
Ġal	326017
Ġg	325405
'm	324335
ĠO	324091
ĠYou	323880
Ġaround	323399
].	320512
Ġsince	320336
alpha	319593
Ġpoint	319083
ĠAnd	318930
Ċĉĉĉ	318563
ĊĠĠ	317093
Ġcontrol	316413
,âĢĿ	315158
Ġmodel	314763
Ġ*/	314696
Ġanother	314105
)$	312258
Ġh	311629
Ġ12	311022
âĢĵ	308520
Ġ</	307116
20	305701
if	305582
&	305377
Ġown	305279
Ġexample	304611
000	304517
o	303749
Ġ9	302970
Ġincluding	302560
Ġself	302116
ĠW	302023
Ġtoo	301466
]\].	301450
Ġline	300366
Ġam	299005
Ġevery	298938
Ġshow	298576
You	298341
Ġgiven	298097
ĠĠĠĠĠ	297731
id	297486
Ġhelp	297358
16	296932
15	296587
Ġreally	294666
Ġmight	294502
or	293764
CR	293589
Ġsay	293058
Ġresult	293046
Ġworld	292359
ĠHowever	292106
U	291921
Ġcell	289792
Ġ{#	289555
ĠThey	289459
Ġet	289434
Ġprocess	288694
Ġ20	288438
Ġtest	287959
Ġ#	287642
Ġfile	285992
're	285227
Ġbased	285195
name	285144
13	285009
Z	284715
Ġ$$\	283766
Ġsupport	283282
Ġpresent	283098
\]	283085
01	282759
Ġl	280637
ĠNo	279957
Ġform	279457
Ġanalysis	277473
ĊĊĠ	275080
Ġnext	275055
ĠâĢĶ	274280
Ġbest	274204
Ġ\[	272453
mu	272268
Ġevidence	272074
Ġsomething	271930
Ġchange	270763
Ġsmall	270004
Ġmethod	269975
Ġwhether	269901
Ġleft	267127
Y	266663
Ġper	264540
14	263724
Ġhome	263593
}(	262977
Ġplace	262207
ĠĠĠĠĠĠ	260243
Ġfact	259783
Ġimportant	258568
ĠThere	258563
Ġpower	258366
Ġ11	258342
ĠWhat	257821
Ġfew	257513
Ġbetter	257451
âĢĶ	256991
,\	256888
Ġabove	256752
Ġlarge	256256
32	255544
data	254067
Ġ15	253884
Ġless	253490
text	253387
Ġlevel	253108
Ġtrue	252762
Ġnever	252494
Ġk	252359
label	251884
ĠNew	251787
mathbb	250553
Ġtreatment	248968
Ġleast	248749
ĠTo	248320
Ġlittle	248152
To	247962
Ġpossible	247883
Ġ{\	247155
Ġy	247101
Ġwater	246722
Ġthings	245941
Ġproblem	245518
Ġdue	244621
Ġcome	244166
Ġlow	242344
div	240871
Ġlaw	240400
ĠĠĠĠĠĠĠ	240251
Ġfield	238151
Ġgreat	237864
ĊĠĠĠĠĠĠĠĠĠ	237728
Ġlook	237095
Ġhaving	236299
Ġdays	236031
Ġ--	235675
Ġshown	235605
Ġeffect	234298
begin	234115
ĠSo	233748
ĠX	233637
Ġ/	233564
Ġgot	233433
Ġgive	233384
)\	233220
Ġtrial	232665
Ġcommon	231534
Ġint	231104
Ġfurther	230820
!"	230379
18	230071
}}	229716
If	229069
Ġgame	228700
Ġsize	228285
Ġlet	228065
Ġhealth	227974
))	227830
Ġcode	227262
Ġu	226954
set	226846
Ġexpression	226713
Ġprovide	226680
Ġalways	225793
Ġcurrent	225427
Ġagain	224708
Ġgovernment	224466
Ġfree	224377
Ġ30	224221
Ġeither	223742
Ġknown	223038
Ġcalled	222614
Ġfour	222592
ĠThese	220919
Ġw	220666
of	220646
Ġuntil	220448
('	220230
Ġavailable	220211
ĠState	220151
Ġfamily	220032
ĠUnited	219898
Ġsingle	219491
Category	219297
17	219229
ĊĊĠĠĠĠĠĠĠ	217894
@	217814
Ġhuman	217519
aligned	217493
ĠShe	217150
ers	217042
Ġmeans	216648
ĠCourt	216295
Ġelse	215786
As	215280
Ġ==	214900
Ġvalues	214666
Ġaction	214432
Ġman	213854
Ġcases	213837
Ġable	213783
ĠĠĠĠĠĠĠĠ	213649
Ġlight	213610
Ġchildren	213590
\[	212886
Ġlocal	212771
Ġmean	212660
Ġseveral	212393
table	212326
rm	212224
Ġreal	211887
Ġside	211710
pone	211227
19	210576
lambda	210537
Ġhigher	210456
usepackage	210436
is	210362
):	210190
ĠThat	209886
Ġarea	209581
've	209459
this	209314
Ġstudies	209076
"}	209075
http	208806
Ġbody	208535
For	208501
Ġtop	207410
import	207146
Ġtimes	207028
Ġsignificant	206972
Ġcare	206370
Ġteam	206312
Ġrate	206031
25	205877
Ġerror	205829
Ġwhy	205668
span	205631
Ġpost	205344
}$$	204930
Ġput	204851
li	204642
Ġ)	204475
Ġenergy	203862
Ġ16	203528
30	203211
Ġfull	202988
pi	202244
Ġtotal	202070
Ġstart	201921
Type	201856
Ġo	201636
ĠStates	200696
Ġ14	200405
Ġsimilar	200018
Ġspace	200002
Ġalready	199302
================	199255
Ġdidn	199182
ÃĲ	198349
Ġrun	198113
}_	198047
Ġopen	197432
Ġassociated	197309
Ġlevels	196879
Ġresponse	195591
Ġperson	195457
er	195299
Ġ13	195194
Name	195143
Ġ100	195091
ĠWhen	195059
org	195008
Fig	194979
Ġgeneral	194769
Ġlot	193754
And	193299
ĠAll	193253
><	193187
Ġquestion	192913
Ġrequired	192533
Ġkey	192388
Ġwomen	192289
'll	192174
Ġdone	192022
mathbf	191791
Ġaway	191600
Ġissue	191230
Ġsays	191224
Ġfinal	191123
ĠĠĠĠĠĠĠĠĠ	190943
Ġhand	190605
Ġoften	190032
Ġ${\	189877
up	189637
];	189382
_\	189263
---	189052
Ġlist	188982
Ġspecific	188670
Ġterms	188084
Ġactivity	187837
string	187811
ĊĊĊ	187336
Ġ=>	186529
Ġcall	186507
Ġj	185974
Ġgroups	185858
Ġhowever	185840
Ġamong	185800
Ġreported	185377
sec	185256
Ġco	185168
21	185095
Ġthing	184579
Ġsure	184496
Ġlater	184276
Ġfar	184274
beta	184162
able	183429
for	182876
Ġcourse	182780
},	182748
Ġenough	182735
05	182669
Ġage	182668
He	182386
Ġtold	182083
Ġthough	181686
sigma	181377
ve	181232
sum	180922
Ġcompared	180871
Ġ18	180447
Ġ`	180273
Ġalong	179688
Ġprovided	179180
Ġmaking	179108
Ġposition	178434
Ġinclude	178181
Ġsub	177718
Ġworking	177419
ĠOn	177410
return	177209
Ġupon	177119
Ġconditions	176797
Ġrole	176228
Ġlower	175372
Ġhead	175237
al	175212
Ġpotential	175207
Ġ%	174621
Ġincrease	174333
Ġrange	174322
Ġweek	174318
Ġvoid	174304
Ġdevelopment	174177
Ġeffects	174153
Ġread	173878
Ġseen	173858
Ġrisk	173628
]).	173584
Ġold	173560
But	173393
}_{	173227
Ġpre	172934
Ġdoesn	172914
Ċĉĉĉĉ	172914
Ġsection	172637
Ġchanges	172535
Ġz	172473
Ġresearch	172210
Ġprogram	172169
Ġplay	172101
24	171890
ĠY	171692
Ġ([@	171686
Ġtogether	171454
Ġmoney	171412
></	170844
Ġconst	170726
Ġproperty	170554
bar	170551
ĠâĢĺ	170514
Ġmain	170123
No	170011
Ġincreased	169931
Ġbecome	169904
Ġkeep	169781
Ġservice	169725
time	169386
Ġprotein	169312
Ġimage	169205
www	169145
22	169118
Ġfactors	169083
ĊĊĉ	168780
Ġ([	168764
Ġaddition	168628
Ġcannot	168350
Ġsource	168349
Ġlove	168279
Ġobserved	168264
html	168256
Ġ24	168171
Ġbusiness	168114
td	167717
out	167695
Ġschool	167317
ĠUniversity	166584
ness	166530
Ġaccording	166164
Ġmonths	166111
"}).	166026
es	165905
Ġtry	165733
Ġdisease	165634
Ġthird	165595
Ġmultiple	165539
Ġuser	165095
}^{	165014
Ġparticular	164998
Ġearly	164948
Ġdoing	164919
Ġ50	164746
Ġcreate	164343
Ġcountry	163781
^{\	163103
Ġstructure	162867
Ġdefendant	162636
ĠĠĠĠĠĠĠĠĠĠ	162606
de	162506
Ġdescribed	162115
ĠSee	161900
mathrm	161858
sqrt	161416
Ġprivate	161310
Ġthought	161114
Ġpositive	160980
Ġactually	160955
Ġcompany	160491
Ġpoints	160319
Ġversion	160015
Ġobject	159759
Ġview	159420
Ġbase	159314
Ġ25	159159
There	158982
Ġacross	158971
`	158350
ĠĠĠĠĠĠĠĠĠĠĠ	158172
gamma	158098
Ġothers	158049
Ġreport	158007
\_	157960
value	157477
Ġanti	157458
Ġsurface	157099
50	157037
Ġrather	156958
Ġcontent	156778
Ġonce	156740
pm	156614
ĠCo	156330
Ġstring	155770
ĠZ	155764
delta	155679
Ġlikely	155508
Ġfive	155210
Ġperiod	155147
Ġshows	154769
class	154717
Ġmillion	154616
Ġperformed	154566
Ġshowed	154452
code	154424
Ġbelow	154349
Ġamount	154343
Is	154238
Ġshort	154114
String	154057
Ġid	154021
Ġmatter	153811
Ġadd	153636
Ġclear	153553
ĠAmerican	153422
Ġfeel	153329
23	153291
Ġsystems	153122
Ġstandard	152845
Ġhard	152800
bib	152360
Ġfalse	152203
Ġcause	152142
Ġsite	152081
Ġcame	152047
Ġobtained	151767
'd	151673
Ġtook	151404
.)	151387
Ġinterest	150948
Ġwhole	150555
Ġfood	150486
Data	150378
ĠAt	150096
Ġ(*	150017
Ġmakes	150002
Ġapplication	149942
Ġ17	149708
Ġcancer	149627
Ġever	149594
Ġexperience	149476
Ġbig	149385
Ġsocial	149118
Ġvarious	148848
001	148768
Ġseason	148671
Ġtaken	148489
Ġaccess	148449
phi	148437
on	148376
}^	148351
Ġterm	148348
");	148204
Ġconsidered	148114
Ġfuture	148052
Ġadded	148050
Ġrelated	147798
key	147741
Ġpast	147587
rho	147453
Ġfactor	147403
02	147328
ID	146956
ĠAn	146946
)(	146916
Ġyet	146874
Ġ>	146864
line	146802
test	146408
So	146405
Ġdefined	146127
ĠOne	145907
min	145893
Figure	145640
ĠGod	145601
Ġbelieve	144999
ĊĠĠĠĠĠĠĠĠ	144977
no	144939
pt	144804
[@	144770
Ġmen	144748
Ġq	144580
size	144151
Ġapproach	144018
ĠThen	143454
Ġsolution	143375
64	143246
Ġcommunity	143150
Ġproject	142609
/*	142569
Ġwent	142361
Ġminutes	142355
partial	142164
Â°	141518
Ġdecision	141454
Ġstates	141417
")	141295
Ġbit	141240
)/	140786
Ġblood	140745
%)	140214
omega	140118
Ġdevice	139980
ĠRe	139861
ĠAfter	139691
Ġtrying	139629
Ġreason	139534
Ġincluded	139519
^{-	139475
Ġclose	139432
un	139180
Ġmajor	139169
100	139138
Ġindividual	138937
theta	138862
Ġregion	138828
Id	138393
tr	138387
as	138366
Ġmembers	138278
Ġ$(	138240
Ġtoday	137999
Ġmaterial	137984
Ġrespectively	137953
Ġkind	137895
tau	137816
On	137741
ÂĤ	137520
],[@	137191
Ġreceived	137130
Ġpercent	136775
Ġwon	136728
Ġadditional	136713
Ġcity	136246
Ġsignificantly	136171
Ġanything	136165
ĊĠĠĠĠĠĠ	136065
Ġpatient	136034
times	135914
Ġ},	135882
eq	135260
Ġevent	135257
Ġface	135190
ĠUS	135188
Ġcertain	134964
st	134956
Ġhalf	134817
ĠĠĠĠĠĠĠĠĠĠĠĠ	134717
nu	134682
Ġclaim	134675
Ġgrowth	134432
Ġneeds	134258
Ġasked	134180
Ġdeath	133702
ally	133536
Ġchild	133532
Ġgetting	133408
Ġ21	133366
Ġsimple	133316
Ġnormal	133040
Ġhistory	133008
man	132958
ul	132731
Ġproduct	132483
Ġ19	132126
Ġnull	131894
Ġlooking	131886
Ġtext	131815
Ġnight	131812
include	131697
}{\	131685
03	131491
Ġdifference	131415
leq	131340
log	131133
Ġhref	131115
Ġmethods	131064
var	131057
Ġseries	130972
Ġreview	130972
Ġroom	130830
âĢ¦	130826
Ġvia	130749
Ġperformance	130740
Ġproblems	130353
ized	130003
Ġparty	129920
based	129893
Ġ\\	129828
ĠMr	129811
Ġthus	129765
Ġtarget	129739
27	129526
Ġissues	129492
Ġinvolved	129487
infty	129326
Ġalmost	129205
Table	129063
Ġprevious	129025
Ġnothing	128810
Ġhours	128744
Ġservices	128626
Ġtherefore	128584
year	128543
40	128413
Ġneeded	128347
ĠQ	128343
Ġexpected	128333
Ġnetwork	128090
When	127763
$-	127754
Ġheld	127448
Ġconsider	127280
Ġrecord	127186
How	127119
Ġpopulation	126899
Ġcheck	126881
Ġinstead	126846
Ġgene	126844
Ġpaper	126531
Ġunderstand	126431
https	126336
ĠĠĠĠĠĠĠĠĠĠĠĠĠ	126089
Ġpay	125679
new	125611
self	125477
ĠSt	125442
Ġpolice	125374
Ġrecent	125338
Ġmass	125306
at	125263
Ġcar	125155
Ġseems	125129
by	125048
Ġprior	124630
Ġlines	124605
Ġidea	124407
Ġcondition	124261
Â±	124191
Ġcost	124142
ism	123995
Ġloss	123992
Ġjob	123918
Ġfilm	123765
Ġhouse	123760
ĠÂ§	123681
Ġla	123603
Ġmotion	123579
it	123326
Ġdesign	123314
co	123252
Ġweight	123236
Ġcomplex	123227
Ġcomes	123196
28	123123
see	122943
Ġstudents	122888
Ġproduction	122731
List	122610
Ġmove	122553
Ġtell	122552
Ġquality	122532
hat	122463
Ġ22	122378
04	122366
ation	122249
Ġlead	122106
Ġsomeone	122070
ization	122060
*,	122006
Ġ...	121895
Ġmodels	121835
Ġmarket	121778
Ġstep	121774
Ġpage	121591
Ġtaking	121465
Ġstarted	121452
ĠYork	121389
Ġpolicy	121377
Ġmedia	121334
Ġ(-	121212
Ġblack	121200
ll	121126
26	120971
Ġtable	120945
Ġprovides	120851
Ġdistribution	120689
Ġstrong	120629
Ġlive	120606
čĊĠĠĠ	120553
Ġitself	120548
ĠThus	120349
Ġnecessary	120306
Ġvar	120195
file	119923
le	119725
Ġplan	119465
Ġaverage	119363
Ġsignal	118915
80	118895
Ãĥ	118712
define	118589
Ġ40	118569
list	118350
Ġrights	118343
Ġprobably	118089
Ġdi	118071
Ġair	118026
Ġstory	117986
Ġphase	117698
That	117639
Ġshall	117547
ĠTrump	117547
31	117293
Ġclinical	117183
Delta	117151
ĠIs	116988
ĠBy	116752
net	116620
Ġen	116616
Ġoriginal	116522
Ġlength	116403
Ġallow	116281
Ġfunctions	116276
param	116229
Ġsimply	116187
Ġproducts	116181
Ġbook	116131
Ġsequence	115968
Ġ||	115944
ĠNational	115734
eta	115678
px	115626
Ġespecially	115550
Ġtemperature	115438
Ġsample	115280
Ġwords	115233
Ġaccount	114889
Ġproperties	114750
Ġinput	114687
Ġspecial	114676
ity	114499
ĠOF	114426
^\	114373
ĠĊĊ	113983
Ġaddress	113910
ĠĠĠĠĠĠĠĠĠĠĠĠĠĠ	113884
Ġ!=	113829
Ġturn	113720
Ġoutside	113642
Ġcomplete	113577
less	113520
xi	113469
Ġheart	113460
]{}	113447
Ġsix	113442
Ġyoung	113426
Ġmind	113294
Ġpresence	113274
Ġdetermined	113140
Ġmedical	113133
en	113130
ĠCity	113110
Value	112939
Ġpath	112777
Ġcolor	112731
Ġsense	112688
Ġstatic	112661
Ġevents	112585
));	112584
ist	112401
ĠWith	112259
ĠMy	112201
Ġpolitical	111939
Ġpressure	111782
Re	111751
Ġarray	111693
Ġnear	111677
Ġdate	111622
add	111494
Ġsubject	111383
Get	111279
Ġeffective	111171
All	111086
ĠTHE	111004
Ġoutput	110995
Ġinside	110979
Ġworks	110978
Ġprimary	110953
em	110952
am	110910
Ãĳ	110859
Ġlanguage	110786
Ġgenes	110766
et	110723
35	110513
Ġfollow	110502
Ġeverything	110358
Ġ23	110022
Ġtypes	109761
Ġelement	109711
Ġphysical	109663
ĠÂ±	109625
Ġfeatures	109598
Ġlonger	109596
Ġbad	109594
ĠĠĠĠĠĠĠĠĠĠĠĠĠĠĠ	109594
Ġwhite	109530
ĠĠĊ	109482
Ġstop	109311
Ġdetermine	109239
ell	109028
Ġpresented	108872
Ġeasy	108842
}}\	108709
')	108678
Ġjudgment	108551
33	108515
Ġquite	108510
Ġidentified	108455
]\]	108417
Ġcreated	108377
With	108301
ley	108288
Ġcross	108186
29	108183
Ġrunning	108132
Ġsamples	108005
Ġmember	107909
Ġbasis	107832
rs	107829
09	107745
Âĥ	107572
-\	107561
08	107485
ĠMay	107449
Ġformer	107412
Ġparameters	107365
Ġ&&	107355
Ġwanted	107252
array	107097
Ġinitial	107009
Ġstatus	106995
Ġfollows	106981
Ġstatement	106810
Ġfront	106483
Ġareas	106223
ge	106199
public	106094
ĠString	105925
Ġpersonal	105924
Ġrespect	105886
ĠLicense	105744
Ġisn	105478
Ġelements	105443
Ġago	105424
";	105238
My	105189
Ġweeks	105167
Ġdirectly	105064
ĠMa	105017
($	104864
ted	104614
Ġquestions	104483
Ġsearch	104428
ors	104399
ĠInc	104289
Ġrequest	104249
Ġbreak	104232
Ġrelationship	104229
bf	104168
not	104035
Ġmemory	103904
br	103780
Ġforce	103756
âĢĲ	103661
}$,	103477
Ġgames	103407
Ġtheory	103363
rangle	103275
Object	102982
Ġtraining	102982
Ġ28	102875
Ġcontext	102830
tilde	102823
Ġvideo	102611
Ġnatural	102436
ab	102414
ment	102333
ĠDe	102295
Ġindex	102206
}(\	102109
Ġcontinue	102070
Ġ(\[	101556
Ġbuilding	101538
Ġbehind	101496
old	101230
Ġ$$	101212
Ġgreater	101022
all	101016
Ġapplied	100852
path	100846
Ġdifficult	100801
Ġ/*	100782
Ġnews	100755
Ġground	100696
Ġlimited	100591
Ġacid	100478
Ġdeal	100453
Ġmice	100425
ÃĤ	100412
ĠSuppose	100380
Ġmonth	100334
ĠDr	100325
Ġrelease	100292
Ġdistrict	100178
Ġpreviously	100166
be	100152
ĠDNA	100143
Ġtitle	99919
Ġincludes	99888
Ġreduced	99872
..	99869
](	99763
Ġdrug	99697
ĠTherefore	99697
Ġrequire	99670
cdot	99638
Ġability	99430
ĠJohn	99334
Ġstyle	99203
field	99109
width	99007
Ġmessage	98977
\\	98894
void	98871
Ġknowledge	98838
__	98773
Ġclaims	98735
])	98719
Ġcharacter	98717
Ġdeveloped	98688
Ġsaw	98586
Ġrest	98586
Ġarticle	98522
Ġwrong	98446
from	98412
ling	98372
".	98254
Ġindependent	98251
Ġlayer	98234
ĠOur	98054
Ġ60	97903
Ġcontact	97710
Ġsoftware	97572
Ġgas	97541
Ġred	97496
ad	97483
Ġinvention	97468
Ġwrite	97351
Ġhttp	97310
my	97106
Ġmulti	97047
ings	96935
Ġmap	96930
45	96794
ĠPresident	96776
Ġbuild	96737
psi	96633
Ġnumbers	96599
Ġplayers	96593
().	96590
Ġwritten	96580
Ġoil	96428
with	96402
Ġreference	96388
Ġflow	96370
:**	96366
const	96299
Ġfollowed	96262
Ġcoming	96189
Ġ2012	96177
Ġparticularly	96082
+\	95977
ĠCounty	95934
34	95887
Ġleave	95771
Ġdirect	95622
Ġunit	95562
Ġactive	95554
Ġsecurity	95339
ry	95304
Ġobtain	95288
Ġtax	95261
Ġimpact	95153
ĠSince	95066
Ġnegative	95018
})	94984
Ġdefault	94964
Ġnote	94883
Ġ26	94876
\])	94716
}$.	94649
ĊĠĠĠĠĠĠĠĠĠĠĠĠĠ	94521
ĠWhile	94469
Ġsuper	94404
36	94383
Ġentire	94375
Ġdouble	94346
over	94178
File	94164
Ġcut	94137
let	94126
Ġrule	94034
state	93996
Ġspecies	93983
Ġusually	93973
ĠHis	93828
mm	93787
![	93773
Ġnature	93638
Ġrates	93633
Ġdifferences	93623
Ġcon	93617
Ġliving	93512
Ġoffice	93445
Ġword	93391
Ġanswer	93327
Ġalthough	93288
Ġwhose	93190
max	93125
Ġhope	93123
Ġ2013	93027
Ġpractice	92999
Ġtried	92924
Ġ[*	92855
so	92827
Ġargument	92797
View	92794
Ġpro	92737
ĠWorld	92670
Ġonline	92651
Ġetc	92633
Ġbrain	92608
Ġhold	92572
Ġact	92387
Ġwar	92342
Ġcorresponding	92280
Ġ2016	92232
Ġgenerally	92215
like	92203
Ġlost	92139
Ġrecently	92068
function	91902
(-	91810
Ġthemselves	91679
Suppose	91675
Ġpain	91647
Ġplaintiff	91573
Ġnational	91502
Ġ2014	91473
ĠAl	91458
Ġanyone	91448
06	91427
Ġlate	91382
Ġtakes	91328
Ġproposed	91260
Ġcountries	91248
ĠHere	91157
60	91153
Ġagreement	91120
ian	91066
At	90757
Ġsaying	90677
Ġdensity	90523
Ġshare	90512
epsilon	90415
user	90357
ĠâĪĴ	90347
cal	90323
base	90279
Ġtreated	90195
Ġglobal	90180
item	90141
ĠSouth	90132
=\	90128
age	90042
Ġforward	89971
07	89929
Ġenvironment	89873
Ġhimself	89851
ĠAct	89844
One	89736
Ġpurpose	89505
ĠCa	89473
js	89427
Ġsituation	89402
ĠChina	89365
ca	89326
ĠHouse	89294
ty	89292
Ġfederal	89189
Ġblock	89172
ĠAmerica	89139
ĠMarch	89009
Ġcenter	88933
)}	88877
im	88771
Ġbecame	88716
Ġ27	88687
Ġrelative	88611
ĠII	88610
Ġpretty	88517
sub	88460
By	88384
Ġ2015	88351
$\	88332
Ġdis	88210
io	88200
Ġmicro	88018
Ġfailed	87959
Ġways	87845
app	87828
Ġoffer	87812
Ġpublished	87791
script	87749
Key	87661
off	87454
ĠDepartment	87326
Omega	87287
varepsilon	87271
Ġfocus	87237
ize	87235
Ġlegal	87227
Ġnode	87195
Ġhighly	87168
Gamma	87147
Ġwoman	87079
sp	87077
do	87040
lib	87022
Ġ);	87019
chi	87014
Ġfindings	86932
Ġprice	86837
Ġderivative	86824
that	86821
Ġallowed	86821
Ġcharge	86709
Ġselected	86623
Ġtalk	86585
one	86584
Ġmoment	86565
Ġ/>	86521
Ġdegree	86506
Ġoperation	86398
str	86358
Ġcomponent	86266
An	86170
Set	86134
Ġlimit	86113
Ġwin	86103
Ġstage	86054
Ġcontract	86052
..."	86010
Ġlarger	85995
Ġdesigned	85986
Ġmeasured	85979
Ġgave	85948
Ġinstance	85893
42	85874
ations	85858
Ġjury	85831
ĠGeneral	85761
Ġbring	85744
he	85672
Ġdetails	85597
Ġindividuals	85420
Ġbar	85359
ĠFirst	85349
Ġcom	85338
Ġland	85300
###	85259
Ġ?	85232
Ġconstant	85221
ĠNorth	85210
me	85205
Ġeveryone	85130
Ġinter	85095
ĠSome	85062
Ġcurrently	85051
Ġcaused	85027
Ġimages	85011
Ġdirection	85006
Ġalone	84995
als	84772
Ã©	84728
Ġfriends	84728
ĠSystem	84723
Ġlocation	84693
Ġproteins	84629
Ġbehavior	84606
use	84548
Ġwasn	84500
Ġgives	84384
Ġ2011	84358
ĠDo	84287
Ġcomponents	84211
ta	84205
ĠCD	84141
day	84091
Ġ29	84033
Ġask	84003
38	83948
Ġ2010	83910
ĠAlthough	83905
Ġdef	83881
Ġmatrix	83880
Ġchoice	83876
ĠJune	83821
Ġscale	83814
Ġbackground	83789
ne	83703
Ġrequires	83690
led	83438
Ġfixed	83383
Ġ:=	83378
ner	83375
Ġappropriate	83370
ĠFig	83357
čĊĠĠĠĠĠĠĠ	83316
Ġcompanies	83170
op	83052
Ġknew	83013
Ġbegan	83002
son	82967
document	82891
link	82800
top	82779
Ġleading	82727
Ġoptions	82646
Ġpass	82581
Ġratio	82568
čĊĠ	82519
ĠHow	82513
gs	82438
Ġeyes	82419
Ġfailure	82416
AP	82398
Ġ2017	82364
ter	82357
Ġmother	82349
ns	82344
index	82258
Ġattention	82254
Ġex	82145
Ġmanagement	82123
Ġfrequency	82102
Ġeducation	82056
(),	82017
dy	81984
}}$	81966
Ġdisplay	81897
Error	81880
Ġunique	81868
Ġ31	81820
ch	81790
');	81721
Ġ->	81631
Ġfinancial	81619
Ġusers	81563
Ġtechnology	81522
AS	81453
ic	81445
Ġart	81441
ion	81403
"><	81380
Ġcontains	81376
static	81370
Ġ[**	81331
ions	81172
)=	81168
Ġdivided	81064
Ġcompletely	81007
Ġincreasing	80967
Ġ///	80898
Ġcosts	80775
Ġconnection	80745
ĠCir	80742
Ġsent	80692
Ġprime	80643
003	80639
She	80545
Ġmode	80452
Ġparts	80436
());	80403
Ġlack	80403
Ġoption	80400
Ġseem	80396
Ġapply	80336
Ġheat	80303
Ġindustry	80290
Ġparties	80283
ĠNow	80260
Ġexpect	80231
Ġsuggest	80208
Ġfine	80126
Ġserver	80123
Ġfiles	80102
ĠJanuary	80066
ting	80043
term	80036
Ġdistance	80032
ans	80004
Ġearlier	79898
ĠApril	79893
Ġ;	79814
._	79688
Test	79612
Ġexpressed	79577
Ġoverall	79472
Now	79391
map	79380
an	79329
Ġorg	79318
varphi	79316
ĠJuly	79314
Ġsupported	79274
Ġequal	79227
Ġgenerated	79219
Exception	79179
Ġestablished	79104
Ġstated	79059
Ġallows	79044
con	78992
{{\	78991
ful	78971
Ġdevices	78930
Ċĉĉĉĉĉ	78911
They	78905
Ġled	78888
From	78828
Ġuseful	78768
Ġ32	78741
Ġeasily	78732
Ġlink	78640
Ġcopy	78630
Ġstay	78616
os	78556
fn	78535
ning	78529
title	78440
ance	78406
Ġsites	78381
Ġcontaining	78359
Ġreasons	78311
39	78267
Ġfinding	78091
dev	78089
Ġreduce	78077
)$.	77807
Ġmeasure	77776
Ġhighest	77771
ate	77770
Ġsoon	77766
Ġlocated	77713
Ġ\<	77695
lin	77527
Ġproduced	77504
Text	77496
44	77471
Ġactivities	77431
Ġeconomic	77389
est	77382
len	77314
Ġexcept	77306
ability	77231
37	77210
Ġhost	77210
ex	77185
Ġnotice	77149
ĠNot	77147
ton	77138
Ġcount	77137
Ġrelevant	77066
Ġfiled	77043
Ġcritical	76950
Ġclearly	76913
Ġse	76882
ks	76848
){#	76778
41	76623
Ġappeal	76616
Ġcorrect	76609
Ġ<<	76592
Ġvariable	76568
Ġfelt	76555
Ġopinion	76523
Ġhit	76488
Ġcentral	76441
ĠBe	76362
43	76316
Size	76256
Ġpattern	76179
Ġapp	76047
Ġstore	76039
Ġwriting	76027
land	76006
48	76002
Ġstress	75956
Ġgoal	75940
res	75923
ated	75862
}_{\	75856
)-	75852
Ġwebsite	75820
Ġpresident	75765
Ġboard	75710
.'	75679
Ġinjury	75672
Ġweb	75664
Ġson	75646
Ġchanged	75632
Ġbrought	75620
ists	75584
overline	75546
Ġparameter	75542
Ġactual	75537
95	75470
Ġshowing	75464
group	75391
Ġreceive	75381
Ġsmaller	75351
si	75342
Ġvs	75272
}^{\	75257
Ġgoes	75252
Ġuses	75183
Ġexperiments	75167
ac	75157
MS	75121
Ġlearning	75049
"/>	75031
cm	75006
Ġwidth	74972
Ġ2008	74970
Ġauthors	74968
Ġappears	74954
Ġvector	74921
ĠAND	74909
operatorname	74862
we	74848
ĊĊĊĊ	74846
Ġitems	74808
sim	74775
*-	74763
langle	74746
Ġbeyond	74658
Ġlooks	74650
Ġheard	74608
Ġrules	74606
Path	74601
Ġremains	74596
ĊĊĠĠĠĠĠĠĠĠĠĠĠ	74570
Ġculture	74553
ĠOR	74434
After	74409
Ġfire	74289
Ġhearing	74205
ek	74169
Ġunderstanding	74131
ters	74124
Ġmeet	74123
ments	74093
ma	74040
Ġsign	73993
Ġtumor	73943
Ġlooked	73898
53	73842
Ġturned	73813
Ġmin	73755
Ġworked	73729
Ġtowards	73662
ant	73623
Info	73516
Ġcampaign	73504
po	73489
Ġ__	73481
ĠLa	73479
Ġmajority	73455
Context	73443
\].	73407
Ġappear	73288
ino	73287
True	73250
Ġplease	73247
Ġproduce	73246
Ġbinding	73230
Ġbuilt	73205
Ġregarding	73201
Ġvariables	73185
free	73135
':	73121
Ġdoor	73120
Ġlearn	73090
Ġones	73033
Ġspeed	73028
Ġexists	72997
*.	72956
go	72877
Ġtherapy	72875
='	72845
ĠWest	72842
Ġbenefits	72816
)).	72801
}=	72772
Ġfully	72769
ĠHealth	72716
ĠFrom	72676
Ġconcentration	72640
ĠDistrict	72636
Ġimprove	72596
Ġtissue	72593
color	72570
Ġparents	72495
red	72487
Ġreports	72455
Ġmilitary	72419
ĠId	72394
ha	72385
node	72381
ĠAugust	72345
Ġresulting	72343
State	72328
['	72302
Ġ2009	72243
Ġ!	72231
Ġ($	72230
Ġcomputer	72164
Item	72087
Ġbox	72067
Ġexactly	72064
Ġindicated	71895
)^	71889
Ġskin	71819
Ġmatch	71818
Ġprevent	71806
Ġinfection	71795
Ġcouple	71792
Ġsetting	71709
Ġwrote	71681
69	71674
Ġfather	71663
ĠOctober	71622
};	71610
ins	71607
mo	71560
Ġmorning	71555
ED	71535
75	71468
Ġdecided	71428
db	71425
ens	71378
vec	71317
ology	71268
big	71263
Ġmaterials	71226
Ġzero	71204
Ġinternal	71191
Ġreading	71176
Ġvehicle	71157
App	71151
Ġplayed	71095
$$	71089
nbsp	71066
Ġhands	71035
Ġfeature	70991
Ġnor	70987
ĠSeptember	70923
Ġauto	70865
back	70864
Ġavoid	70815
002	70798
Ġcommand	70687
Ġseparate	70686
ĠDecember	70667
Ġstaff	70639
500	70600
Ġgets	70598
ir	70567
Ġreasonable	70536
ive	70514
Ġfast	70419
Ġtransfer	70393
Ġproof	70392
struct	70356
Ġdefine	70351
Ġmedium	70336
Ġplayer	70302
Ġreaction	70297
Ġandroid	70272
Ġfields	70208
Ġheight	70150
ast	70142
Ġconstruction	70138
se	70134
Ġfun	70123
Ġfriend	70105
Ġstarting	70101
Ġapplications	70097
Ġextra	70079
Ġ2018	70074
true	70033
Ġmeeting	69985
info	69921
Ġthroughout	69874
Ġdrive	69866
Ġinteresting	69851
Ġvolume	69849
Ġparticipants	69811
Ġmet	69787
java	69780
Ġtask	69774
ph	69770
Ġnoted	69706
Ġdamage	69699
55	69688
Ġprocesses	69676
Ġmaximum	69675
Ġregions	69621
Ġformation	69590
ds	69580
Ġlinear	69554
Ġconnected	69538
ary	69529
Ġsuccess	69480
Ġfit	69463
Ġsafety	69462
length	69455
Ġpoor	69381
Ġlives	69345
def	69342
Ġclosed	69342
Ġdomain	69330
Ġbecomes	69313
Ġformed	69310
ĠPhys	69306
Ġitem	69287
input	69285
Ġ35	69279
Ġinternational	69231
ii	69195
Ġsources	69189
90	69174
Ġadministration	69155
ĠBecause	69135
Ġch	69106
":"	69073
way	69056
ae	69037
ok	68997
oc	68972
Ġchar	68956
New	68929
Ġrevealed	68925
######	68823
Ġle	68820
ĠIN	68803
)$,	68799
Ġhospital	68762
)*	68706
Ġinteraction	68653
Ġinfluence	68648
form	68593
py	68592
ise	68549
Ġotherwise	68510
Ġcollection	68508
izing	68507
ĠSection	68483
Ġvisit	68455
Ġbasic	68410
bo	68361
Ġtests	68360
ba	68297
ĠNovember	68297
Ġimmediately	68236
Ġbi	68201
Ġscore	68199
which	68176
Ġequation	68155
ĠData	68105
ĠMoreover	68068
Ġcolumn	68011
ĠCenter	67936
Ġrandom	67907
200	67879
Of	67850
Ġreduction	67823
Ġreleased	67804
Ġactions	67803
di	67794
Ġdefense	67670
Ġwide	67655
Ġopportunity	67616
Ġexist	67615
Ġtoward	67585
';	67578
den	67569
ĠPa	67557
ar	67549
Ġwindow	67530
Ġfall	67523
Ġpaid	67516
ĠOf	67505
Ġmechanism	67485
Ġgiving	67482
PS	67460
IP	67460
ĠUSA	67442
Ġ80	67431
ial	67376
ana	67367
****************	67364
Ġcombination	67361
Ġcontrast	67352
ĠWashington	67315
php	67284
ah	67277
image	67200
case	67196
ler	67161
Ġidentify	67057
ĠÃĲ	67036
Ġconsistent	67034
Ġfigure	67031
Ġtesting	66999
Ġdeep	66973
Ġerr	66938
Ġdocument	66929
Sec	66918
ms	66875
49	66857
Ġrelatively	66815
ĠĠĠĠĠĠĠĠĠĠĠĠĠĠĊĠ	66811
Ġphone	66768
mathfrak	66726
.\	66711
Ġensure	66704
]:	66689
Ġsometimes	66689
ĊĊĠĠĠĠĠ	66682
Ġcover	66658
}}_	66645
Ġcounsel	66636
99	66635
geq	66591
Ġroot	66571
Ġresources	66569
Ġresistance	66559
Ġforms	66551
Ġroad	66486
Ġchance	66486
Ġbottom	66456
ating	66412
Ġ90	66368
Ġquickly	66301
51	66263
Ġchoose	66207
error	66205
70	66161
ĉĉ	66082
Ġthinking	66075
Ġfunctional	66073
ĠSan	66052
Ġclient	65973
ĊĠĠĠĠĠĠĠĠĠĠĠĠ	65957
Node	65938
view	65917
Ġmyself	65896
us	65886
Ġhappen	65883
ĠCh	65874
Ġprocedure	65843
ster	65839
Ġstand	65827
Ġsex	65827
Ġsolid	65792
ĠOr	65759
Ġplaying	65706
Ġnearly	65635
Here	65625
source	65624
ina	65610
read	65582
Ġremove	65539
Ġportion	65508
Ġproviding	65481
Ġmovement	65467
Ġmoved	65436
RE	65434
Ġdetected	65424
bi	65422
Ġchannel	65421
ĠSchool	65419
Ġagree	65416
Ġhappened	65393
Ġdatabase	65379
Ġconducted	65372
^{(	65364
err	65347
\],	65313
Ġregular	65303
Ġhear	65290
box	65223
Ġexisting	65220
ĠObama	65215
Ġobjects	65197
Ġstar	65190
Ġmoving	65184
ĠSh	65152
Ġbenefit	65137
Ġready	65126
Do	65115
Ġten	65115
ut	65073
IN	65055
pre	65043
ĠLe	65006
%,	65004
Ġreach	64976
Ġ^	64967
rightarrow	64966
47	64957
sh	64944
Ġdaily	64910
Ġtown	64880
body	64812
ij	64809
Ġcalculated	64783
bin	64755
Ġstd	64743
related	64739
Ġeye	64707
Ġfacts	64704
ĠCalifornia	64700
Ġbuy	64686
Ġfinally	64675
ous	64669
Ġanimals	64595
Ġsteps	64555
lo	64552
ber	64538
Ct	64520
Ġindicate	64488
ak	64464
Ġyourself	64428
Ġattack	64413
Ġupper	64332
Ġdemonstrated	64294
Ġnearest	64252
.[	64206
Ġtrade	64193
Ġwall	64191
ST	64153
are	64151
Ġseven	64134
ĠTable	64127
Ġmiddle	64108
TS	64105
Ġcore	64089
ol	64028
Ġremain	63999
Class	63989
Ġ(**	63958
False	63938
Ġque	63920
ĠAlso	63908
Ġunits	63904
Ġdefinition	63863
Ġplant	63817
Ġcomments	63784
Ġprove	63783
CD	63657
ĠNULL	63613
row	63611
Ġremember	63600
54	63583
ui	63568
*~	63528
Ġrepresent	63506
Ġcapacity	63436
Ġshape	63424
Ġ200	63339
uk	63336
na	63333
sin	63329
Ġcarried	63324
Ġsufficient	63317
Ġremoved	63298
Ġ/**	63294
())	63276
52	63265
pa	63250
Ġplaced	63246
46	63176
Ġsound	63158
Ġprocessing	63158
Ġframe	63062
Not	63029
ĠMore	63009
Ġvariety	62957
Ġwife	62839
AC	62832
ities	62792
Ġsafe	62741
[^	62726
Ġsets	62627
Ġoperator	62618
Ġdistributed	62557
ĠFebruary	62422
Ġblue	62413
quad	62383
ĠIS	62335
Ġmachine	62334
Ġselection	62333
ee	62314
,-	62312
val	62292
ĠMo	62278
Ġonto	62274
api	62231
Ġhair	62203
Ġ2007	62203
Ġsend	62199
Ġsuggested	62171
]\],	62117
Ġmg	62076
Ġhot	62046
start	62020
dot	61978
Ġperfect	61956
Time	61921
Ġemail	61912
Ġ(\	61908
ĠFigure	61872
ĠSa	61840
ĠWhite	61819
ray	61818
PA	61811
Ġprograms	61774
Ġnamed	61740
ĠMar	61725
Ġcomparison	61690
ĠBo	61644
ĠPublic	61638
Ġworkers	61635
","	61618
Ġrace	61604
Ġhealthy	61528
Ġincreases	61471
cl	61421
Ġmagnetic	61392
bb	61336
ĠRo	61297
Ġexposure	61292
Ġserious	61248
ny	61233
ĠEuropean	61223
##	61191
Ġsort	61181
content	61157
Ġscreen	61147
Ġpassed	61140
Ġmaybe	61130
Ġletters	61104
Ġgreen	61071
Ġplaces	61055
Ġworth	61040
ine	61022
Ġresponsible	61012
Ġmeasures	60988
SA	60974
Ġdiscussed	60970
Ġreplacement	60946
Ġupdate	60931
cap	60925
Ġcomment	60881
Ġdevelop	60866
Ġmanner	60830
ĠIndia	60820
Ġsave	60812
pr	60810
Ġapproximately	60808
config	60801
la	60744
Ġpicked	60731
Ġborder	60729
Ġinsurance	60708
Ã¡	60689
su	60688
Ġcharacteristics	60670
Ġincome	60667
au	60604
ĠResearch	60562
Ġsymptoms	60547
ĠBoard	60540
lt	60510
url	60478
ys	60469
ĠEven	60455
Ġlog	60452
ie	60383
Ġprint	60378
Ġrow	60360
Ġcircuit	60341
ĠMc	60329
Ġdark	60289
Ġdrugs	60283
Ġstructures	60255
Ġchallenge	60203
bm	60161
Ġtalking	60158
lan	60098
Ġbeginning	60098
Ġessential	60052
cks	60016
Ġletter	60008
56	60006
core	59997
Index	59994
Ġpair	59991
Ġcontinued	59976
iv	59941
Ġsum	59840
ĠPM	59790
Ġmodern	59781
57	59763
Ġmale	59736
Ġtree	59733
ane	59723
Ġ45	59717
Ġtestimony	59692
Ġinvestigation	59686
Ġassume	59677
ĠGet	59658
but	59641
SC	59633
Ġsp	59629
Ġtransition	59621
Image	59618
CA	59601
Ġeffort	59588
ĠApp	59580
ĠIL	59574
Ġactivation	59552
Ġ95	59535
Ġedge	59526
Ġreturned	59519
"},	59467
Ġhappy	59445
Ġtool	59434
ĠWar	59382
Ġ70	59380
Ġload	59372
ĠFurthermore	59339
Ġdetection	59291
using	59289
Ġnice	59218
Ġbegin	59131
)/(-	59118
Ġ});	59062
cs	59047
ĠUK	59006
čĊĉ	59001
ĠTO	58986
Ġ37	58964
Ġstrength	58887
med	58845
Ġmusic	58815
Ġkids	58780
Ġpopular	58748
Ed	58720
Ġexercise	58674
ded	58662
Ġproper	58645
dis	58639
Ġdescription	58571
ets	58557
Phi	58554
its	58484
Ġpanel	58452
ÂŃ	58438
point	58419
nd	58416
\,	58412
65	58346
te	58329
Ġstuff	58290
ped	58277
count	58273
ĠEnglish	58260
Oh	58207
mi	58189
CO	58129
Ġmis	58116
Ġinterface	58104
De	58089
men	58074
Ġspecifically	58029
Ġspent	58025
Ġdenied	58007
/(-	57993
od	57973
Ġplans	57966
Ġsurgery	57950
ĠAr	57911
well	57885
Ġfamilies	57874
({\	57856
Ġaffect	57854
cr	57838
Ġstrategy	57826
Ġeight	57772
Ġsolutions	57769
ĠÂł	57749
Ġalternative	57749
Ġsleep	57746
Â¾	57709
Ġtested	57670
Ġmeaning	57647
US	57641
Map	57640
Ġofficials	57572
ĠInternational	57561
Ġwait	57547
Ġcareer	57537
Ġcouldn	57503
Ġsummary	57481
ÃĹ	57478
Ġperform	57477
Ġserve	57471
Ġwants	57438
Ġmentioned	57428
0000	57425
era	57411
Ġdead	57394
II	57382
ent	57368
Ġround	57368
[]	57357
ldots	57344
Ġelection	57303
Ġ2006	57198
Event	57174
Ġ2000	57153
sa	57113
}}(	57106
Ġphoto	57097
Ġprepared	57026
Ġstudent	57009
ical	56989
ically	56986
Ġconduct	56976
.](	56958
dd	56918
ĠHa	56893
Ġofficial	56884
Ġdespite	56860
ders	56846
Ġleads	56841
**)	56812
Ġfemale	56784
Ġunless	56777
object	56742
)**	56706
Ġcycle	56690
ons	56672
*)	56671
version	56658
Ġstudied	56647
Ġagent	56606
ob	56602
Ġtruth	56577
Ġimproved	56570
ĠMe	56531
ap	56518
Ġtypically	56477
Ġjudge	56462
Ġcombined	56449
Color	56439
Ġnuclear	56431
Ġexplain	56422
ence	56415
ri	56394
]^	56348
date	56325
ti	56274
ats	56272
Ġbillion	56263
pro	56254
col	56244
Ġsurvival	56243
Ġmetal	56228
Ġselect	56219
Ġ36	56213
Ġplus	56200
Ġgrowing	56194
ro	56183
Yes	56171
Ġcontrols	56162
Ġexperimental	56143
Ġsuccessful	56137
Ġcommunication	56132
els	56129
Ġbound	56108
ised	56094
Ġvote	56092
Service	56088
Ġentry	56088
ml	56069
Ġpackage	56063
sen	56042
Ġmodule	56017
Ġclean	55993
Calculate	55970
el	55953
dt	55953
ates	55937
Ġattempt	55919
Ġ48	55916
SD	55915
/**	55912
Ġconfirmed	55872
Ġ-->	55862
cc	55811
Ġkilled	55787
Ġ\,	55776
Ġhour	55760
Ġparent	55733
Ġminimum	55723
ĠYour	55718
amp	55702
prime	55670
Lambda	55647
Ġshot	55637
Ġcontain	55634
Ġforeign	55626
Ġmolecular	55590
Ġwatch	55557
Ġjava	55549
\<	55526
ron	55519
Ġcircumstances	55515
Ġimport	55512
Ġsociety	55502
Ġguy	55498
Ġinduced	55496
Ġpiece	55483
ĠCongress	55472
Ġperhaps	55459
59	55445
Ġ33	55433
Ġagreed	55382
Ġmid	55375
run	55366
AD	55351
SE	55339
Ġhttps	55328
Ġraised	55323
Ġma	55315
Ġoperations	55290
ren	55268
github	55267
Ġanalyzed	55249
},\	55243
rd	55233
Why	55199
ĠDavid	55186
Ġreached	55185
Ġwhereas	55152
ag	55144
Ġaffected	55130
Ġlinks	55107
ĠNote	55106
"></	55094
Ġ((	55091
Ġwalk	55086
otimes	55084
Ġdied	55077
Ġassociation	55063
page	55047
Ġfeet	55023
Ġcalls	55020
Ġtools	55016
Ġhandle	55016
af	55012
Ġofficer	55006
Ġemployees	54993
Ġclasses	54983
Ġnames	54976
style	54961
Ġsentence	54916
Well	54850
ia	54803
gr	54801
Ġcauses	54797
da	54708
Ġwouldn	54692
Ġpick	54682
ef	54676
ase	54674
âĢ¢	54652
Ġnil	54619
Ġprobability	54609
ants	54600
non	54529
Ġprotect	54521
Ġkept	54515
Ġcriminal	54486
sy	54462
AR	54427
Request	54414
level	54388
Ġefforts	54381
Ġcollected	54362
Date	54340
um	54332
ur	54293
Ġhuge	54288
ĠCon	54285
ged	54282
Ġradio	54278
Ġoccurred	54247
yl	54224
Ġvoice	54219
Ġmental	54209
ĠList	54207
Ġoccur	54199
Î±	54182
boldsymbol	54180
Ġcorrelation	54136
src	54124
Ġrelation	54112
ero	54091
Ġintroduced	54079
ĠCode	54050
Our	54035
Ġdiscussion	53993
Ġsuggests	53987
ik	53943
gu	53931
ke	53925
Ġcredit	53906
Ġestimated	53883
Ġ]	53862
Ġcertainly	53856
86	53819
Ġpress	53818
Ġexplained	53801
Ġtraditional	53799
Ġstorage	53796
ĠMost	53793
Ġtechniques	53776
specific	53755
om	53735
Ġauthor	53709
Ġmovie	53706
While	53698
hi	53697
TA	53689
Ġdiagnosis	53687
ĠLondon	53646
ĠHigh	53637
Ġstatute	53614
ible	53579
Ġremaining	53569
Ġprotection	53528
Sigma	53504
Ġsexual	53494
ĠSe	53494
Ġgone	53474
Ġappellant	53451
ig	53413
Ġbuffer	53392
Ġsrc	53391
Ġprofessional	53374
ĊĊĉĉ	53359
Ġliquid	53345
num	53313
ker	53310
DE	53307
Ġchain	53297
create	53279
Ġforces	53279
Ġalgorithm	53274
CH	53223
Ġwhom	53223
init	53199
Ġpar	53144
ev	53142
fa	53133
Ġrequirements	53114
down	53109
IL	53089
ĠGroup	53054
Ġbiggest	53052
ĠIsrael	53044
ars	53030
Ġ2005	52993
ĠRa	52956
az	52951
Ġspin	52893
Big	52857
)?	52820
Ġabsence	52779
Ġrecords	52773
Ġbill	52760
Code	52651
Ġgeneration	52650
model	52639
Ġ~	52615
ga	52600
av	52544
don	52536
Ġpicture	52532
Ġolder	52517
Ġorganization	52494
king	52477
Ġresponses	52455
Ġ42	52452
Ġmissing	52443
action	52437
Ġserved	52420
lu	52408
Ġstock	52399
ship	52391
ud	52371
iz	52371
open	52359
mod	52357
Ġlaws	52356
Ġtrack	52342
ci	52341
]{	52330
Ġadding	52325
head	52320
|\	52308
Ġoffers	52264
ĠCA	52258
Ġoptical	52252
char	52231
ĠEach	52195
Ġquantum	52184
94	52178
Ġderived	52146
čĊčĊ	52128
Ġcreating	52107
DS	52053
Add	52043
58	52026
Ġscience	52024
Ġsubjects	52018
Ġbed	52011
Ġpurposes	51994
bs	51987
Î²	51921
AM	51911
Ġeconomy	51871
ĠTexas	51855
See	51829
lls	51821
Ġim	51798
ra	51796
du	51777
dir	51734
Ġideas	51729
Ġexternal	51717
Ġsummer	51710
ies	51706
Ġintended	51702
NO	51696
Ġschools	51677
*(	51675
\{	51657
Model	51655
mbox	51640
Ġ("	51636
ĠUn	51613
ĠPat	51583
ĠNews	51570
Ġcounter	51558
Ġnone	51541
Ġanimal	51533
Ġcapital	51532
çļĦ	51525
Ġproperly	51517
ding	51502
Ġwave	51470
Ġrepresents	51458
induced	51434
ĠEast	51422
Ġresolution	51420
Ġdirector	51418
Ġextent	51385
Field	51358
SP	51347
ni	51332
((	51318
^*	51302
Ġ34	51299
Ġstation	51289
Ġdecreased	51287
MA	51286
Ġdie	51286
main	51253
Ġachieve	51184
result	51175
Ġball	51165
mar	51157
ĠBritish	51142
ara	51132
ip	51130
(&	51128
where	51113
.[@	51107
}-	51091
ser	51086
ator	51083
ĠTV	51083
ĠSupreme	51059
Ġgun	51058
Ġauthority	51041
čĊĠĠĠĠĠĠĠĠĠĠĠ	51038
Ġvalid	51021
nonumber	50992
Ġmechanisms	50980
ala	50971
Ġvirus	50955
Ġprotected	50944
ĠPaul	50912
Â»	50906
Ġlargest	50881
Ġattorney	50848
Ġfeeling	50842
ĠEurope	50809
*]{}	50789
Ġpr	50784
Co	50783
Ġinterests	50731
ret	50730
Ġ""	50673
Ġ(!	50671
Ġmembrane	50652
Ġtechnique	50644
Ġassert	50641
ensuremath	50640
Ġteams	50626
However	50602
Ġofficers	50580
Ġcrime	50579
ĠHer	50553
ite	50532
ses	50521
Ġcontained	50502
ang	50469
ĠGoogle	50444
Ġslightly	50439
LA	50433
ei	50307
LE	50258
Ġexchange	50253
ten	50244
ĠNa	50232
Ġst	50229
cos	50220
eb	50201
_.	50171
fi	50136
ĠCouncil	50136
Ġfight	50123
**]{},	50120
ho	50111
Ġad	50102
ene	50088
Ġloop	50083
Ġdriver	50064
ĠID	50049
circ	50045
Ġshared	50036
ĠCommission	50029
Ġguys	50021
Ġcharged	49998
").	49992
Ġnovel	49966
Ġpoly	49950
Ġopening	49946
Ġrise	49940
Ġcharacters	49917
Ġconcept	49913
material	49894
Ġerrors	49869
Ġbool	49866
ew	49860
Ġlatest	49859
ps	49854
Message	49843
Ġprojects	49828
ata	49777
âĢĿ.	49769
Ġfloor	49765
Ġoffered	49747
CC	49746
67	49713
Ġholding	49685
Ġconventional	49658
Ġcoverage	49647
ĠChinese	49639
User	49635
Ġsevere	49626
Ġannounced	49621
ĠCanada	49621
ach	49598
63	49566
ĠFoundation	49551
ĠStreet	49532
ĠRNA	49469
Ġdescribe	49456
Ġentered	49442
ĠBa	49372
Array	49357
Ġagents	49336
Ġinteractions	49333
RS	49292
Ġgain	49263
scale	49254
ney	49223
Ġpa	49217
Ġhyper	49216
Ġsupply	49213
IS	49173
Ġformat	49156
ao	49128
ĠPark	49121
Ġdecrease	49107
Ġagency	49000
Ġswitch	48989
func	48969
Ġtrans	48966
Ġanalyses	48960
default	48958
summary	48946
ja	48941
Ġwild	48940
Ġprofile	48939
Ġfilter	48938
Ġdose	48932
Ġband	48929
bit	48924
Ġwish	48894
Ġconcentrations	48885
ĠCalculate	48882
ĊĊĠĠĠĠĠĠ	48878
OR	48847
Ġfresh	48825
ines	48817
Count	48817
kappa	48812
Ġoutcome	48795
Ġfear	48715
write	48711
âĢĬ	48693
Â½	48684
Ġreceptor	48684
Ġgirl	48683
Ġviews	48677
EC	48674
fs	48652
SS	48645
Ġgenetic	48628
gen	48614
^[@	48599
ĠGreen	48589
cell	48588
ĠTwo	48585
ice	48563
Ġexistence	48546
Ġfinite	48542
ard	48527
Ġpossibility	48508
Ġnet	48499
Ġsales	48483
Ġplants	48473
âĪĴ	48472
ĠJust	48465
ĠPeople	48458
Ġoperating	48450
Ġdriving	48449
NS	48443
ering	48399
Ġcompleted	48386
Ġ+=	48365
Ġtrust	48350
ĠSuch	48343
Ġreturns	48335
ini	48305
Ġbeautiful	48302
ug	48286
Ġpatterns	48283
Ġinteger	48260
ung	48248
Ġsignals	48231
Ġwhatever	48229
Ġheavy	48215
oe	48209
Ġquery	48192
']	48155
Ġidentity	48153
ological	48147
68	48127
mon	48123
per	48119
lang	48108
has	48104
AL	48095
61	48092
ĠJames	48090
can	48062
IR	48056
Ġ2004	48055
arg	48052
Ġ38	48049
Ġdes	48042
ya	48013
ade	48012
Ġblog	48010
Ġdiseases	48007
Ġinterested	47986
Ġgenerate	47986
Ġalleged	47975
CI	47972
]),	47962
ĠBlack	47943
ĠDi	47915
Ġstable	47902
ĠService	47886
cu	47884
ĠCO	47866
ĠCan	47861
block	47860
Ġcard	47837
Ġcatch	47832
ping	47805
Ġca	47801
IT	47795
ĠFriday	47790
Ġequivalent	47786
Ġappeared	47779
Ġstars	47755
Ġindicates	47753
Ġequipment	47750
tra	47748
Ġmaintain	47745
ĠGo	47742
TR	47715
property	47702
Ġinner	47702
Ġenter	47700
Ġimportance	47697
ue	47681
TH	47661
Ġspectrum	47630
72	47608
ko	47599
Ġbutton	47585
ĠAM	47553
Ġmobile	47551
ier	47550
Ġconfiguration	47549
nabla	47533
Ġcontrolled	47529
check	47497
Ġ};	47469
Ġadvantage	47467
Ġcold	47459
Ġholds	47452
widetilde	47448
Ġarm	47413
Ġconclusion	47412
Ġsequences	47386
ld	47380
ts	47370
Ġruns	47343
Ġ"[	47314
Ġstraight	47309
Ġbank	47302
ĊĠĠĠĠĠĠĠĠĠĠ	47294
Manager	47287
you	47232
Ġhappens	47224
Ġmouse	47223
Ġstr	47209
88	47188
First	47168
Ġdemand	47167
SI	47159
ĠMan	47153
Ġparticles	47151
ĠRev	47122
Ġempty	47103
:"	47089
Ġsecondary	47047
vert	47046
Ġdefendants	47044
Ġbalance	47040
Ġreality	47037
.*	47014
)"	47010
Ġfat	46975
Ġaren	46975
66	46972
Ġ2019	46969
eh	46929
Ġnoise	46926
Un	46909
Ġmotor	46891
System	46881
Ġstruct	46879
ï¼Į	46861
Ġdog	46848
Ġreferred	46818
oi	46815
Ġmeasurements	46805
ĠHo	46800
85	46792
Ġprogress	46772
Ġshift	46771
81	46739
gl	46730
sc	46708
ĠBoth	46708
side	46684
ris	46663
St	46662
62	46648
Ġdigital	46648
Ġsession	46640
ĠRed	46616
Ġmax	46606
og	46588
Ġcontinuous	46585
tu	46562
Ġnation	46558
ĠInstitute	46547
Ġthrow	46520
Some	46515
Ġseemed	46514
false	46509
Ġdeveloping	46466
Ġdrop	46460
rk	46440
lon	46399
Ġaccept	46399
Ġcommercial	46397
Ġstatements	46377
ered	46361
Ġtravel	46343
height	46339
Ġspeak	46316
mat	46312
Ġexperiment	46300
ality	46273
Ġlibrary	46242
ĠWestern	46235
Ġremainder	46162
ato	46155
Ġexpress	46135
ians	46088
ĠPro	46088
ĠMonday	46084
ĠAccording	46083
mer	46037
long	46035
Ġrepresentation	45998
Ġleaders	45971
Ġadult	45956
GA	45953
Ġring	45942
Ġliterature	45938
order	45933
2015	45927
dimensional	45924
ec	45921
Ġchemical	45919
Ġcollege	45890
ĠMichael	45884
Ġapproved	45870
Ġdoubt	45867
ĠCompany	45855
Cs	45771
AA	45753
Ġcarry	45732
Ġjobs	45725
Ġlatter	45721
util	45686
Int	45686
Ġissued	45676
tag	45664
Ġexception	45661
Ġsale	45654
ĠLaw	45630
Ġ500	45591
Ġextremely	45584
ĠSmith	45584
Ġclub	45557
ative	45553
Ġspeech	45552
ĠCommittee	45518
Ġplasma	45505
Ġliver	45485
({	45483
Ġknows	45482
Ġleader	45469
ham	45458
ĠFacebook	45434
Ġborn	45427
Ġscript	45416
Ġestimate	45411
hr	45401
pos	45373
Ġfish	45371
Ġexamples	45370
Ġabuse	45367
Ġcovered	45357
Ġtransmission	45342
ĠLi	45327
Ġcharges	45281
DI	45279
ĠCI	45274
Ġplatform	45252
ĠCal	45252
ver	45246
Ġahead	45246
Ġregulation	45245
Ġscene	45164
Ġenvironmental	45137
Ġaware	45126
Ġeat	45123
Ġserum	45122
ĠJapan	45115
Ġsubstantial	45094
Ġsigned	45088
Ġguess	45088
Ġopened	45079
Ġhusband	45075
Ġgraph	45074
apache	45066
Ġchronic	45058
ora	45035
Ġimplementation	45026
PC	45020
ong	44981
.</	44953
rate	44943
PR	44932
ery	44928
ano	44921
Ġchurch	44903
Ġcustomers	44898
pp	44888
ĠSet	44884
98	44867
font	44840
kin	44835
Ġslow	44828
Ġoccurs	44826
ran	44825
ĠTheorem	44787
exp	44763
Ġextension	44760
eo	44759
ib	44757
ĠLeague	44755
ĠSi	44741
IA	44733
Ġrecorded	44718
Ġfair	44711
Ġdelivery	44693
Ġcompounds	44689
Ġfix	44664
message	44661
Ġdecisions	44655
ama	44649
čĊĉĉ	44647
Ġdiscuss	44645
}.	44643
Ġ${	44625
004	44617
BA	44606
car	44592
ish	44548
Ġfootball	44535
Ġreceiving	44531
Ġevaluated	44523
------	44514
Ġnetworks	44491
Ġtr	44482
tter	44468
Ġallowing	44450
post	44447
Ġcalling	44444
Ġextended	44435
CT	44433
Ġleaves	44420
ax	44410
ĠCar	44410
ĠBr	44386
Ġviolence	44385
Ġbirth	44378
300	44363
ena	44357
ĠAmericans	44344
Button	44320
Ġpercentage	44316
Ġhaven	44305
first	44301
Ġestablish	44291
Group	44288
Ġoutcomes	44271
ME	44253
Ġsi	44247
ĠFrench	44230
Ġconcerns	44228
pl	44216
MI	44216
ĠBank	44209
Ġleaving	44196
Ġassessment	44189
Ġsubsequent	44185
ĠSunday	44184
Ġthousands	44162
ĠUnion	44162
endif	44145
ĠKing	44111
CS	44103
Ġtestified	44102
lm	44101
Ġhelped	44100
Ġowner	44097
Ġmuscle	44087
Ġ2003	44082
ile	44075
Ġmostly	44072
Ġflat	44060
ĠCollege	44052
Ġunderlying	44042
Ġimmune	44041
Ġevolution	44021
Ġ()	44005
Ġarguments	43999
ĠUnder	43988
Ġfluid	43976
Ġfaith	43953
range	43949
MC	43938
Ġefficiency	43935
zeta	43926
sk	43913
ĠFinally	43912
sch	43899
Ġthank	43878
ĠEl	43878
Or	43824
dots	43819
ari	43815
ĠWhy	43812
Ġcriteria	43782
ĠEq	43777
Ġtraffic	43774
Ġrepresented	43765
space	43760
Ġpo	43744
star	43733
ĠÃĹ	43731
ep	43715
Ġcentury	43710
}}}	43702
Ġraise	43694
ĠDon	43687
eg	43626
ĠGovernment	43617
cker	43605
Ca	43595
Ġgreatest	43586
Ġexamined	43576
Ġsh	43563
)=\	43556
Ġsquare	43545
Ġsoft	43544
Ġgrow	43524
}}{	43518
Ġbaby	43511
Element	43501
Ġport	43487
ents	43486
Ġdu	43480
rt	43478
2013	43477
ĠAssociation	43469
gt	43467
dr	43464
Ġspecified	43462
Ġlearned	43461
ĠDuring	43452
Ġexact	43435
ru	43421
our	43415
Ġcivil	43414
Ġeventually	43408
ĠUsing	43373
Ġbreast	43360
les	43358
})$	43347
Ġpowerful	43346
ĠBig	43341
ram	43338
rin	43335
Ġmm	43302
)*(	43293
df	43289
Ġcandidate	43289
Ġplane	43282
Ġcurve	43279
SM	43272
Ġtransport	43226
Ġdepends	43206
ĠOther	43204
Ġscheme	43189
Ġlimitations	43189
Ġpositions	43129
Ġlicense	43129
SO	43128
ĠEn	43087
port	43068
Source	43059
Ġpeak	43031
Ġvoltage	43021
Ġspread	43015
Ġsurvey	43009
ĠYes	42981
ĠJudge	42980
'.	42975
ĠFOR	42954
ably	42941
Ġinterview	42925
Ġinvestigated	42922
ĠTuesday	42915
ĠGermany	42902
These	42899
Ma	42878
Ġenjoy	42874
ĠBar	42868
vi	42856
fe	42837
Ġachieved	42831
2014	42830
event	42824
rr	42822
xml	42794
ft	42786
Ġtypical	42783
EL	42765
Ġbooks	42744
ă	42741
Ġha	42740
Ġpathway	42734
ĠScience	42717
Ġpurchase	42714
dependent	42709
Ġ75	42691
Ġmixed	42685
aa	42672
Ġdigit	42670
Ġchanging	42657
Ġvisual	42653
Client	42648
Ġsold	42641
Ġpolicies	42634
ures	42623
Ġ${{\	42609
Ġweak	42606
ĠNOT	42602
current	42590
ore	42582
oma	42572
RA	42567
Ġformula	42548
96	42542
Ġprocedures	42530
Ġstandards	42523
Ġglass	42521
Ġstream	42515
ĠNone	42505
supplementary	42499
Ġrecovery	42477
Ġapplicable	42451
ium	42440
Ġgranted	42430
Ġcomplaint	42419
ĠMany	42406
Ġspend	42405
isation	42388
Ġfilms	42386
Ġ2001	42356
button	42317
2016	42308
ĠGa	42303
Then	42301
Ġalcohol	42271
400	42269
Ġgoals	42264
qu	42207
ras	42204
Ġacts	42192
Ġisolated	42183
2012	42166
84	42150
json	42140
ory	42120
null	42094
Ġlabel	42086
lly	42074
Ġdesired	42074
Ġquick	42071
Ġevaluation	42044
Ġseeing	42033
Ġyes	42030
ĠDay	42020
71	41987
AB	41975
Ġeasier	41968
ass	41955
TO	41948
SH	41942
uint	41932
ali	41932
Ġsubstrate	41924
?âĢĿ	41897
Ġne	41867
Ġsections	41856
Ġindeed	41841
ified	41834
Ġbus	41832
Ġstrongly	41829
ification	41817
Ġdetailed	41797
Ġfunds	41783
tab	41782
xe	41778
Ġcarbon	41765
Ġinvestment	41759
low	41753
uc	41734
ani	41724
Ġobvious	41717
ola	41699
Ġchosen	41699
Ġjoin	41697
ura	41677
ĠSu	41665
Ġentitled	41635
Ġcool	41633
ned	41621
ĠPress	41615
Ġrelief	41589
ĠWhich	41589
Ġfourth	41575
77	41570
Ġ64	41563
Ġfreedom	41549
}+	41548
Ġ41	41548
Ġcategory	41526
pping	41524
Ġstored	41523
ging	41516
format	41513
Ġcluster	41509
"),	41496
78	41476
oid	41471
ots	41460
Ġcommitted	41437
Ġ{{\	41418
83	41416
ale	41409
Ġkill	41409
Ġsemi	41404
Ġdaughter	41400
^âĪĴ	41397
Ġval	41397
ĠLo	41391
Ġ39	41384
73	41372
Ġconclude	41371
Ġduty	41368
Ġmeant	41364
ĠIII	41346
Ġconsidering	41339
Ġdirected	41298
kg	41288
Ġassay	41276
Config	41272
ĠPo	41270
$$\	41263
module	41243
Ġpayment	41214
Ġthanks	41188
Ġinstall	41187
rts	41164
Ġprices	41159
RT	41155
Ġsell	41130
CP	41116
ĠEngland	41115
context	41095
Ġdocuments	41095
74	41083
Ġreligious	41082
ĠFlorida	41081
ĠAm	41056
Ġtri	41048
Ġforced	41047
EA	41033
76	41033
ĠParty	41029
status	41024
Ġintervention	41005
Ġlisted	40990
section	40987
ey	40980
Ġdebt	40976
Ġsmooth	40953
Ġvictim	40934
ides	40933
Ġ65	40932
][	40922
ĠFree	40921
Ġcustom	40902
Ġecho	40899
tin	40898
Ġclick	40890
Ġtrain	40888
Ġconflict	40857
AF	40844
Ġapparatus	40840
Ġdetermination	40839
lim	40832
Ġsea	40826
ç	40825
Ġstories	40821
Ġequations	40815
Ġskills	40812
005	40803
tle	40796
Ġfocused	40796
,'	40763
Override	40757
Ġdepending	40755
}}_{	40746
ez	40733
Ġplate	40731
Ġpush	40711
Ġwaiting	40709
Ġconcern	40705
Ġlose	40699
ada	40677
Ġvirtual	40673
Ġdistinct	40665
ot	40661
Ġbio	40648
ĠCopyright	40645
Ġexcellent	40639
2000	40638
ees	40632
Ġresulted	40628
media	40593
Ġ2002	40584
....	40575
IC	40567
Ġmeasurement	40557
Ġdry	40544
Ġobservations	40519
Ġburden	40518
Ċĉĉĉĉĉĉ	40515
Ġpossibly	40513
Ġversus	40486
Ġcup	40486
oh	40480
Ġ44	40477
Ġmodified	40468
ĠRussia	40465
Ġplays	40448
Ġbelieved	40443
ĠâĢ¦	40440
ado	40439
Result	40436
cdots	40419
ĠChurch	40417
IO	40406
RO	40383
Ġregard	40376
Ġran	40374
PP	40350
Ġfans	40319
\/	40314
bu	40313
Ġprotocol	40309
light	40307
Ġdiet	40307
Ġassuming	40300
local	40271
Ġtouch	40263
2017	40260
ĠCircuit	40259
[\	40252
"}.	40246
ute	40233
Ġhousing	40226
Ġneither	40223
doc	40222
tt	40218
DA	40215
Ġangle	40202
ĠHIV	40181
Ġfees	40173
wa	40172
Ġincident	40169
}}^	40157
Ġoffense	40154
position	40144
ĊČ	40135
Since	40134
Ġfoot	40131
board	40120
Ġfloat	40104
Ġtwice	40101
91	40074
Ġemployed	40062
Ġapproaches	40048
Ġcommunities	40042
ĠThursday	40022
0001	40020
Ġresource	40020
Ġdamages	40004
97	39999
der	39997
Ġdetail	39992
ĠKa	39990
è	39954
_{{\	39940
Ġ55	39940
Ġstreet	39935
Property	39934
Ġdecide	39930
Be	39926
Ġconfidence	39923
Ġnodes	39895
else	39883
Ġplanning	39882
.$$	39880
ĠTest	39862
ches	39858
Ġmanager	39826
ox	39823
nting	39813
Ġinvestigate	39804
ĠAS	39792
ĠTime	39790
ĠWeb	39788
ix	39780
Ġstanding	39765
last	39757
OS	39736
Ġmurder	39731
Ġ300	39710
ce	39702
pped	39697
Ġdelay	39691
ĠWednesday	39688
Ġcompare	39684
Base	39681
Number	39674
ĠTr	39661
Ġaccuracy	39644
Ġfunding	39618
Ġsuit	39596
ĠWindows	39594
OP	39573
Ġconcerned	39569
č	39569
Ġhelps	39566
]--[@	39562
Ġefficient	39535
ptr	39528
Ġtrials	39520
Ġscores	39513
92	39503
ites	39498
ou	39487
2011	39487
client	39485
parent	39482
md	39478
Ġsensitivity	39476
layout	39446
2010	39441
ĠSaturday	39440
ĠĊĠĠĠ	39440
UI	39434
Which	39433
mid	39421
ven	39412
Ġmainly	39400
Ġguilty	39388
82	39385
Ġbrief	39373
Ġprob	39370
Ġboundary	39360
}=\	39353
Ġasking	39352
ita	39346
android	39326
CF	39326
Ġadults	39324
Ġrelationships	39320
rp	39314
ng	39300
ay	39295
cor	39289
Ġspot	39277
ĠBu	39274
Ġelectronic	39265
Ġmaster	39238
Ġinvolving	39236
Ġexperienced	39227
ĠNO	39219
Method	39205
ĠSolve	39205
ln	39177
ãĢĤ	39176
Ġevaluate	39171
Ġfinished	39169
ES	39168
Ġexposed	39148
ĠJapanese	39128
âĢĿ,	39110
Ġexpansion	39109
ĠPost	39108
Ġcontribution	39107
Psi	39089
print	39081
Ġsignaling	39081
ÃŃ	39077
Ġadvice	39068
Ġnine	39055
Ġextends	39050
Note	39041
Ġworse	39034
sed	39024
Ġemployee	38985
)^{	38983
CL	38961
ĠJesus	38950
93	38943
Ġframework	38941
entry	38922
89	38918
Ġcontinues	38913
Ġcapable	38898
AT	38888
select	38861
Ġcomposition	38825
Ġsettings	38806
ĊĠĠĠĠĠĠĠĠĠĠĠĠĠĠ	38775
FA	38774
Ġassessed	38770
ĠĊĠ	38767
Ġintensity	38766
kers	38741
Ġelectron	38734
**(-	38716
izer	38710
%.	38705
EN	38694
Ps	38677
Ġ00	38677
work	38671
mg	38668
ĠAustralia	38667
cked	38644
.**	38636
CG	38630
ĠInternet	38628
NA	38617
ĠEx	38605
ying	38604
Ġordered	38575
ĠFrance	38574
ĠOffice	38573
Ġdemonstrate	38571
ĠPA	38566
Ġadvanced	38559
att	38557
Ġsun	38555
Version	38553
Don	38549
Ġplaintiffs	38546
ky	38527
Ġqu	38523
Ġrelates	38514
Ġuint	38513
Ġ_{	38502
Ġguide	38497
book	38472
Ġbiological	38471
ford	38468
ĠWell	38434
sing	38421
Ġtend	38421
ese	38404
Ġpersons	38398
Ġscope	38352
Action	38351
Simplify	38344
Ġ43	38339
87	38327
GL	38324
~~~	38314
Ġchallenges	38312
Ġpotentially	38306
Ġneuro	38303
ĠGeorge	38300
Ġsuitable	38298
Ġinterval	38296
fl	38294
Bar	38291
ĠAdd	38289
Ġimaging	38283
ĠPr	38272
Ġorigin	38270
CE	38256
Ġvelocity	38251
Ġhumans	38250
png	38247
$(	38245
]);	38226
house	38216
Ġconference	38215
DC	38199
Con	38188
Ġrats	38187
DB	38182
Ġstopped	38179
Ġdraw	38167
target	38141
Ġstatistical	38132
Ġcash	38118
ĠGr	38115
Ġgold	38111
Ġimprovement	38108
Click	38106
gi	38082
Ġbrother	38064
Ġsalt	38063
79	38054
ement	38053
Ġfuel	38035
Ġfirm	38018
Ġengine	38018
++	38014
Ġwind	38013
ĠTh	38012
ĠPe	37999
ĠDefendant	37997
any	37996
Ġclaimed	37981
oy	37974
Ġremained	37966
Just	37958
Box	37957
Ġparallel	37957
Ġopposite	37942
ea	37906
ĠFederal	37901
ced	37881
According	37877
ĠFile	37874
Ġreplace	37866
Ġended	37861
ify	37838
Ġdepartment	37833
Ġjoint	37827
Ġunknown	37814
ere	37805
Ġfavor	37805
mes	37799
Ġduration	37797
Line	37776
server	37775
Al	37774
Ġreflect	37758
ls	37756
Ġsuggesting	37748
ĠPlease	37741
Ġspring	37737
$)	37730
ĠTa	37728
msgstr	37726
Ġreverse	37720
RP	37718
Ġtreat	37716
ves	37691
Ġfrequently	37689
Ġdiscovered	37679
web	37675
Ġhence	37658
ai	37619
her	37591
rel	37589
ĠÂ£	37589
Response	37581
ĠUse	37576
ĠRussian	37574
Ġstrain	37569
Ġmo	37561
**]{}	37554
ka	37542
Ġargues	37518
ĠRule	37511
Ġpe	37497
ash	37495
ģ	37478
sl	37475
ĠFurther	37474
ĠAir	37468
Ġlimits	37461
ĠRepublican	37438
Ġnecessarily	37434
Ġsa	37430
Ġli	37428
ĠLord	37427
```	37420
build	37400
Ġsides	37397
ĠOpen	37396
tting	37394
package	37391
more	37384
wood	37338
Ġannual	37338
Ġarms	37326
sup	37315
har	37305
Pa	37292
Page	37291
Content	37289
ĠANY	37275
Ġcourts	37261
End	37260
ub	37255
nn	37243
Ġseconds	37239
Ġradiation	37223
Ġvariation	37215
Ġassembly	37207
Ġstability	37191
ening	37189
Ġideal	37180
Ġbone	37163
MO	37154
Ch	37147
ella	37138
fully	37134
tro	37130
ĠHence	37116
°	37114
Ġacute	37094
Ġwidely	37087
ern	37082
Ġpartial	37071
ĠMinister	37062
Read	37060
Ġthin	37059
PD	37052
Ġpara	37046
img	37034
cking	37034
Ġantibody	37024
600	37023
Ġthereby	37020
ov	37003
Ġgrant	36999
Ġintent	36995
Ġfail	36991
Ġpeace	36984
Ġdefinitely	36978
Ġthreshold	36968
Ġabsolute	36957
rc	36938
ĠTwitter	36936
Ġmeta	36926
Ġice	36922
PO	36896
/\	36888
rat	36883
Ġlinked	36871
Ġaspects	36856
/(	36848
gg	36847
150	36847
Ġoral	36835
ĠJohnson	36829
Ġ51	36824
Ġattacks	36811
Ġbroad	36801
Ġkeeping	36795
load	36791
Ġnumerous	36788
Ġimplies	36788
References	36772
Ġsit	36769
Ġpopulations	36765
Ġcamera	36760
Ġindicating	36752
æ	36734
Ġbudget	36718
Ġrelations	36710
eps	36690
Ġforth	36687
Ġmixture	36684
Ġfundamental	36674
Can	36670
Ġidentification	36669
ĠBi	36645
Ġrich	36642
Ġstarts	36641
TI	36627
Ġ49	36622
Ġaccepted	36611
ĠJustice	36606
match	36596
sted	36591
Â·	36582
ĠAny	36578
cast	36571
Ġinterpretation	36553
Ġmortality	36546
Ġunable	36543
Ġcoach	36530
Ġinstructions	36527
Ġentirely	36525
Ġviolation	36523
win	36522
next	36520
Ġenable	36517
active	36515
ĊĊĠĠ	36501
Ġpull	36500
ĠChristian	36500
ros	36489
Ġtruly	36481
ĠOnce	36475
Ġrecognized	36464
čĊĠĠĠĠĠ	36462
Ġsupposed	36455
Ġaxis	36452
msgid	36439
Ġgonna	36431
2018	36394
pu	36391
Ġcontribute	36387
Ġpractices	36386
cha	36382
ĠOnly	36381
Ġ46	36376
Ġaward	36369
Ġlung	36368
Ġgirls	36364
Ġar	36362
Ġfraction	36356
istic	36350
Sub	36336
ick	36331
128	36327
Ġchief	36326
Ġnotes	36316
tered	36304
put	36301
ĠArt	36286
Ġends	36279
Ġpartner	36274
Ġmassive	36270
request	36263
Point	36262
Ġdegrees	36260
Ġsupporting	36247
eng	36245
ath	36226
LI	36224
ius	36217
Ġdoctor	36213
**,	36212
ĠGive	36194
Ġboy	36172
frame	36169
split	36166
Solve	36162
"})	36147
TC	36144
Ġminute	36129
Ġresponsibility	36123
oa	36121
ges	36105
([	36096
Ġtrip	36091
Ġbecoming	36090
Ġsigns	36082
Ġemployment	36077
ĠSuper	36070
Ġmiles	36069
ĠGerman	36032
va	36029
show	36029
ide	36029
ĠSenate	36020
Ġattached	36017
Ġappearance	36003
lic	35990
ess	35971
Ġtechnical	35969
Ġseek	35968
UN	35966
ĠBrown	35957
Ġcellular	35955
lock	35951
aj	35949
ners	35947
Ġroute	35934
IF	35931
Ġsupra	35914
Ġaim	35910
iss	35901
ĠSecond	35896
Ġelectric	35889
SU	35880
Ġsu	35879
Ġresidents	35877
ose	35875
ely	35873
Ġmanaged	35861
Ġrare	35859
cer	35851
mp	35843
Ġdisk	35837
Ġ56	35832
Ġdependent	35831
pc	35830
Ġdynamic	35820
Ġvitro	35800
Ġmolecules	35789
some	35788
widehat	35787
Ġlo	35785
Ġconcluded	35774
Ġhole	35772
>(	35730
#:	35725
ĠIndian	35721
Ġfill	35713
ele	35712
hl	35709
Ġ47	35702
Ġamounts	35679
Ġcommonly	35677
Ġplot	35657
option	35655
TP	35642
icon	35623
Ġassigned	35612
Ġconsideration	35608
Ġsplit	35600
mail	35576
Ġ52	35563
Your	35545
Ġem	35542
TT	35537
Ġunderstood	35523
Ġrefer	35514
Ġarticles	35512
Ġdynamics	35508
ĠAPI	35505
PI	35501
gar	35488
Ġsought	35488
Ġassess	35486
La	35480
Ġrequirement	35479
PT	35462
ĠThomas	35457
Ġfan	35455
Ġyield	35448
\|	35447
Please	35447
Ġgender	35446
cat	35438
DR	35427
Ġeffectively	35426
Ġaccurate	35425
ĠInstead	35420
Ġexpert	35414
Ġthread	35412
Two	35403
PL	35401
ĠAfrica	35399
output	35398
ica	35373
ages	35372
tz	35366
Ġsensitive	35357
nt	35349
ĠTheir	35325
Ġestimates	35315
Ġjurisdiction	35311
:\	35296
["	35280
rv	35276
ĠLife	35270
Ġtemplate	35263
yo	35249
Ġfilled	35220
Ġcent	35219
ces	35194
ito	35186
ĠPlaintiff	35179
Ġel	35151
lem	35143
Ex	35115
Ġdecades	35112
Ġusual	35111
ĊĠĠâĢĥ	35109
ĠSun	35104
IM	35091
ijms	35079
++)	35079
Ġmessages	35071
Ġgap	35070
number	35067
arr	35061
Ġbinary	35057
che	35054
Ġestate	35049
css	35045
Ġjustice	35036
il	35022
ji	35015
-(	35014
Ġspending	35011
tal	35004
ĠSp	34984
Ġseeking	34956
120	34953
Ġinfo	34944
\]).	34940
ics	34939
Ġsenior	34929
ulation	34904
rem	34877
Ġfavorite	34876
Ġwww	34866
Ġsugar	34862
En	34852
Ġnorth	34852
Ġ72	34849
Ġconsumption	34844
ori	34818
Ġtelevision	34818
ators	34811
rf	34803
other	34795
cd	34776
Ġstrategies	34766
Mo	34754
TE	34746
Ġobjective	34744
uring	34737
Me	34737
ils	34727
Ġprovision	34727
ĠChrist	34727
ze	34712
160	34703
Ġpool	34701
Ġoxygen	34695
Ġsqrt	34675
Ġdepth	34673
call	34660
Ġbroken	34651
Ġassistance	34641
ured	34620
Ġcharacterized	34620
âĢ²	34612
ching	34611
Yeah	34610
cher	34609
\*	34605
EP	34603
Ġconsent	34600
uri	34598
==========	34591
&\	34591
ĠTimes	34556
private	34544
ĠType	34540
ming	34537
ĠRobert	34533
float	34510
Ġsmallest	34500
Ġbattle	34499
2008	34497
ĠMI	34493
Ġadvance	34486
ku	34470
Ġcompetition	34463
Ġcast	34443
Ġpredicted	34435
Â¸	34423
>,	34423
Ġemission	34413
Any	34400
ĠPC	34396
ĠIndeed	34394
Ġtissues	34375
Ġamino	34351
Ġminor	34347
ico	34327
Ġorders	34320
ĠEarth	34307
Ġexpensive	34305
Label	34275
ĠAd	34271
ĠMark	34258
Ġneurons	34231
tri	34227
Ġscientific	34222
kes	34219
Input	34216
Ġprinciple	34214
ss	34213
Ġmargin	34193
search	34191
Ġzone	34188
Ġmarriage	34158
subset	34151
ĠHospital	34132
mL	34123
Ġrecommended	34114
Ġcustomer	34099
ĠClass	34084
MP	34077
Ġth	34075
Ġsupports	34072
std	34068
ien	34058
OK	34053
Ġmouth	34047
Ġparticle	34040
ĠMon	34032
Ī	34017
Ġres	34013
dl	34006
Sh	34001
;&	33998
Ġpages	33998
Ġpieces	33997
dx	33984
tor	33978
AN	33977
').	33974
aring	33938
ĠMi	33919
Ġwatching	33916
Status	33904
Ġfinish	33897
ken	33895
ĠMedical	33895
Last	33884
ĠSub	33884
lers	33875
ops	33869
1000	33859
ids	33856
Ġspaces	33855
Ġcausing	33833
2009	33830
Ġcompound	33830
stream	33821
Ġthreat	33817
Ġsuccessfully	33808
Ġurl	33802
par	33798
ĠGu	33792
Ġchannels	33791
ĠFe	33777
reg	33771
Ġarrest	33771
AI	33769
Ġbaseline	33761
obj	33755
Ġcorner	33745
*/	33731
Ġtargets	33730
ĠInformation	33725
Ġwaste	33675
control	33670
Ġcrisis	33651
Ġreducing	33649
eal	33646
}}{\	33635
ral	33611
FS	33610
Ġouter	33595
ĠNS	33588
Ġ1999	33581
Ġsitting	33576
Ġcomposite	33575
Ġimpossible	33567
Ġlargely	33560
PE	33548
Ġrepresentative	33541
ĠCentral	33536
Ġinhibition	33525
Ġautomatically	33481
tar	33480
Filter	33479
Ġrespond	33477
Ġpetition	33474
Ġwear	33467
home	33466
Pi	33454
MM	33449
bl	33434
Ġinstalled	33433
Ġinformed	33433
vers	33415
Ġauthorities	33398
prop	33394
Ġpromote	33393
Ġdiabetes	33388
BP	33380
root	33377
ĺ	33370
Ġresearchers	33365
LC	33362
ched	33361
ĠOver	33352
Ġstructural	33347
ination	33344
Ġfell	33344
Where	33342
ved	33307
Next	33295
Ġunion	33284
Ġconversation	33279
query	33271
ĳ	33267
rus	33252
vs	33248
Ġexamination	33245
Ġ120	33242
Ġmarried	33239
Ġ150	33235
Ġorganic	33218
ĠSoftware	33211
Thanks	33201
Ġdisorder	33173
Ġmark	33172
ĠMath	33163
ĠSc	33158
Ġseat	33153
Ġquarter	33139
tl	33128
Ġearth	33123
Ġvisible	33090
Ġstrains	33088
Ġimmuno	33088
Ġtag	33087
options	33062
Ġproportion	33055
lf	33054
Ġweekend	33054
Ġputting	33046
Ġbag	33044
Ġturns	33042
Although	33037
Ġsector	33027
Ġdebate	33022
Mr	33014
Ġsouth	33012
only	33006
Ġjoined	33004
Ġconfig	33003
Ġship	32995
Ġfaster	32992
Ġdetect	32985
ĠLemma	32985
ĠChicago	32982
Ġconcerning	32974
Se	32967
IV	32955
///	32951
Ġreplaced	32950
sha	32946
Ġobservation	32945
Ġfacilities	32944
ĠField	32942
Another	32933
ases	32929
CIT	32927
Ģ	32915
used	32909
rine	32902
)[	32901
Ġsolve	32895
Ġconnect	32888
jo	32881
Ġherself	32881
DD	32869
ĠIts	32867
ĠAfrican	32837
ubuntu	32813
Ġcm	32810
Ġacting	32807
Ġlabor	32802
Ġwilling	32798
del	32787
author	32779
ust	32777
Ġillegal	32775
Ġlayers	32774
fr	32773
DM	32760
ĠProject	32751
Ġmention	32750
was	32745
]{},	32745
Ġcitizens	32738
sts	32733
Ġantibodies	32712
Ġdangerous	32699
Ġprison	32685
site	32679
Ġassumed	32679
Ġcandidates	32674
ĠFIG	32673
ĠBill	32673
find	32667
ĠClinton	32667
ĠGreat	32665
ography	32664
Ġmission	32656
center	32648
Ġinvolves	32645
.-	32633
Create	32627
ĠmRNA	32626
Ġ54	32624
Ġcr	32620
Ġmenu	32618
Ġmerely	32610
Ġadmitted	32608
Ġmatters	32606
pe	32602
ail	32601
art	32599
Ġemergency	32592
aw	32586
ĠpH	32583
ened	32577
ied	32564
MB	32559
ives	32549
ger	32536
Ġtrouble	32533
ĠIran	32522
(*	32518
000000	32514
description	32497
ĠEU	32487
Ġban	32485
Ġperspective	32483
elle	32479
Ġexperiences	32477
NAME	32475
Ġhundreds	32468
MR	32463
lam	32459
sensors	32449
Ġcontainer	32449
Ġhundred	32448
ĠSecurity	32442
ĠRiver	32433
Ġ1990	32425
)}\	32419
ĠAnother	32412
Ġpassing	32397
ki	32396
Ġamazing	32396
Ġlowest	32394
Ġexecutive	32393
Ġdepend	32386
Ġpairs	32383
rit	32380
buf	32380
tty	32369
Ġdetermining	32366
sm	32365
sta	32361
Pr	32350
ĠMA	32339
ĠAD	32333
een	32321
EE	32312
tel	32309
pers	32300
})\	32294
{{	32275
Ġnative	32274
Ġ2020	32273
Ġoffset	32264
SR	32250
Ġaspect	32247
Ġclosely	32238
equiv	32236
FF	32235
Ġles	32227
Ġlived	32225
Ġbias	32225
ional	32218
ĠÃł	32199
Ġcompact	32194
ring	32192
Ġmilk	32182
Cl	32166
Ġproved	32165
method	32163
Ġdirectory	32161
ER	32148
Ġmanuscript	32146
Ġwitness	32130
Ġaid	32128
Ġwalking	32119
Ġpolitics	32104
Ġposted	32103
ĠHuman	32100
Ġsecret	32090
Ġfeed	32083
Ġda	32079
za	32078
Ġliability	32060
Ġprincipal	32053
txt	32050
lk	32048
mode	32047
Ġwrt	32042
Ġargue	32020
ona	32014
Ġtrees	31992
Ġsweet	31984
00000	31983
\"	31978
ĠPCR	31966
tree	31965
^+^	31958
\]),	31945
Ġ---	31944
arm	31937
Ġmonitoring	31936
SL	31935
Ġtelling	31933
hu	31931
Ġprimarily	31930
ĠIP	31920
ĊĊĠĠĠĠ	31919
Ġdimension	31914
"]	31898
Ġsignificance	31897
Ġ53	31895
ĠStar	31880
Ad	31871
Ġinitially	31870
mann	31858
Ġloved	31851
tors	31850
EM	31845
Ġbranch	31845
BS	31826
DF	31805
Format	31798
Ġvivo	31795
Ġcities	31794
Mode	31785
Ġoperators	31765
las	31732
ON	31723
jpg	31707
Ġpan	31700
Ġdollars	31692
)]	31690
Ġsecure	31686
Ġlots	31685
Ġinjuries	31682
Į	31680
ĠLike	31677
Ms	31674
called	31671
Ġeating	31670
ela	31668
ĠMS	31668
Ġleague	31653
Ġdelivered	31642
Ġimplemented	31636
documentclass	31633
Ġmaps	31627
ĠLu	31627
Ġvision	31620
ored	31619
Ġblocks	31616
Ġdisorders	31613
rie	31605
Le	31587
Ġiron	31581
Ġgrown	31577
Ġbusinesses	31566
inter	31562
template	31545
§	31540
800	31536
sf	31535
vin	31531
Ġconsists	31528
Ġcontributions	31526
ĠGood	31518
ĠJones	31515
Ġinjection	31514
real	31513
Ġra	31505
)/(	31504
CM	31503
tre	31501
mas	31489
Ġaccordance	31484
ĠMac	31479
Web	31462
LO	31443
Ħ	31442
minimal	31438
Ġbigger	31435
Start	31431
Ġenhanced	31428
Ro	31426
Ġremoval	31426
Ġ*)	31426
Ġcloser	31425
ency	31423
Ġoptimal	31421
ĠHar	31417
Ġfont	31415
HA	31405
iling	31391
Ġsports	31390
nan	31378
});	31374
Ġ[]	31373
sn	31370
Ġdifferential	31370
Ġhomes	31368
ĠÎ²	31358
Ġ1998	31349
oz	31347
och	31341
RR	31335
ein	31333
Rs	31323
Ġbodies	31323
Ġprevalence	31313
Ġleadership	31309
Ġpure	31306
Ġsc	31301
Ġlaser	31286
Ã¤	31284
ĠCr	31271
Ġaccounts	31239
Ġcaught	31233
Ġorganizations	31222
Ġtransform	31217
Ġgenome	31212
250	31207
Ġapparent	31203
Ġlocations	31196
Ġsynthesis	31182
eri	31176
Ġextend	31176
Ġrecommend	31169
ĠUI	31168
Ã³	31166
Ġconsequences	31164
Ġapproval	31154
¥	31149
Ġopportunities	31149
yn	31140
ill	31140
Ġsorry	31140
TYPE	31133
yr	31126
Ġ99	31124
Ġelectrical	31120
]\	31119
Before	31116
]^.	31098
yer	31086
service	31086
Ġcorrectly	31081
Ġho	31080
pdf	31075
ads	31073
Ġbeam	31069
ĠObject	31059
ami	31053
Ġmaintenance	31053
Ġfigures	31048
Ġrepeated	31028
Ġdenote	31010
eth	31007
Ġarrived	31006
que	31005
Ġspectra	30992
Ġfacility	30982
bed	30963
Buffer	30961
Ġret	30958
pper	30956
Ġthermal	30954
Ġterminal	30934
006	30925
ĠHome	30925
TD	30922
Ġclosest	30921
ĠÃĳ	30917
Ġpathways	30913
ĠHall	30908
Ġthoughts	30902
lis	30892
ĠName	30883
)+	30882
Ġaccident	30871
fold	30866
Ġextract	30864
Ġsyndrome	30858
Ġdownload	30851
Ġwarm	30832
.$	30830
2006	30826
Ġab	30824
Handler	30797
ĠBay	30795
Ġinternet	30776
fo	30770
oon	30752
Ġpointed	30746
Ġdisplayed	30746
Ġsurrounding	30742
Ġmutations	30713
ĠFa	30695
under	30692
Ġabsolutely	30684
Ġbrand	30683
=======	30673
ique	30668
google	30668
Ġpractical	30667
2007	30665
append	30663
More	30661
Ġmu	30658
atory	30645
ising	30638
ble	30638
Ġexplore	30637
Ġcreation	30630
Control	30625
Ġop	30618
Ref	30601
Ġapparently	30598
Ġil	30582
Ġupdated	30581
Ġintegrated	30581
Ġbacteria	30577
system	30573
strong	30573
Go	30571
ĠON	30532
Ġstages	30520
Ġhypothesis	30499
Ġsensor	30494
ĠDemocratic	30489
Ġremote	30486
each	30477
lp	30475
Ġmix	30474
Ġpp	30473
aging	30465
ward	30448
Ar	30434
2019	30428
Ġclients	30418
Ġhelping	30413
RF	30405
}/	30395
Ġdepression	30391
Ġcommittee	30376
Ġevening	30370
Ġcoupling	30365
oli	30362
Ġscreening	30360
Ġconviction	30357
Ġimplied	30345
cf	30344
Ġincidence	30334
align	30332
Ġmedian	30331
Ġ1997	30330
Ġregression	30329
Ġsounds	30325
Ġtopic	30317
Ġadopted	30316
iter	30311
Ġtherapeutic	30308
Ġgr	30299
Ġsubmitted	30297
Ġregime	30297
Default	30292
ĠAppellant	30284
Ġkitchen	30283
Ġemotional	30281
Ġrepair	30278
Style	30275
ind	30270
Ġmine	30270
£	30242
Cell	30235
Ġdomestic	30234
mor	30233
mark	30231
Ġ[[	30219
san	30218
Ġ400	30199
BC	30186
Tr	30175
Ġconstructed	30163
auto	30156
Ġargued	30150
args	30145
hand	30143
Ġdescribes	30134
itis	30131
Ġlen	30130
Factory	30129
Ġcoffee	30129
tering	30118
Ġdogs	30117
ĠCup	30107
Query	30102
Ġprovisions	30091
LD	30079
Ġconstruct	30074
Ġtrend	30073
ĠPi	30073
Ġexamine	30069
Ġepisode	30066
¤	30057
LS	30049
Ġimplement	30045
HS	30041
sto	30039
Ġsolar	30038
Ġcap	30037
Ġclassical	30033
ios	30029
Ġplastic	30024
Ġcharacteristic	30024
Ġta	30013
ING	30010
Component	30010
####	30004
tic	29999
ope	29996
Ġcounts	29984
eu	29976
Update	29973
Ġessentially	29960
Ġsheet	29949
dly	29945
rated	29920
Ġpark	29913
Ġmarked	29913
ony	29906
bool	29900
ĠEnd	29894
ķ	29882
}{-	29880
Ġro	29876
Ġtotally	29873
amine	29869
Ġencoding	29863
ĠPer	29858
Ġexplanation	29847
OT	29841
Ġmarkets	29839
Ġrel	29834
header	29829
Ġdiscretion	29819
ĠRE	29817
Ġcategories	29810
ff	29807
Ġspatial	29807
ĠKo	29796
law	29793
MT	29785
bc	29781
abs	29777
Ġtaxes	29776
Ġ\{	29774
Ġtasks	29772
ĠPolice	29760
Ġrapid	29758
Ġguidelines	29752
OL	29737
setlength	29736
ĠNi	29698
Resource	29694
Ġspeaking	29694
Ġnano	29694
Are	29691
Ġmaintained	29685
Options	29683
ively	29672
Ġdesire	29671
ĠPeter	29666
met	29664
FT	29661
Ġsoil	29661
¡	29655
Ġte	29642
Ġminimal	29640
Ġlaunch	29635
Ġchapter	29634
Ġcol	29631
cy	29630
rich	29627
Ġwonder	29625
Ġdrink	29622
Ġdeclared	29621
Ġ\>	29618
Ġrecording	29616
Ġimmediate	29602
DO	29598
>>	29591
Ġultimately	29586
2001	29584
Ġ"(	29577
amsmath	29568
]$	29567
Ġconsole	29565
Ġ1000	29565
dle	29564
ĠControl	29536
Ġfamiliar	29535
Ġcognitive	29532
aro	29530
Ġoffering	29518
Ġraw	29511
foo	29510
meta	29499
110	29495
Ġ1996	29487
tis	29482
ked	29467
][@	29466
}+\	29465
Ġtaste	29460
ĠServices	29456
ows	29450
Ġtells	29444
Ġfeedback	29427
Ġpl	29409
ones	29407
ple	29402
ĠRu	29401
ĠDu	29380
Ġrecognition	29359
Ġreporting	29357
Ġpreparation	29348
Ġidentical	29338
ĠGe	29334
Ġintra	29331
Ġforget	29329
Ġtreatments	29327
Ġsat	29326
tus	29320
Open	29317
Results	29315
ear	29314
amssymb	29311
part	29305
Ġregister	29297
bound	29294
Length	29286
pes	29278
ĠTom	29278
ľ	29274
nm	29272
Ġclassification	29268
Rev	29256
Ġrealize	29235
ym	29233
amsfonts	29221
Ġtransformation	29218
molecules	29213
Ġcl	29202
Ġbond	29201
Ġmodify	29200
Out	29195
IE	29193
Ġregulations	29188
FI	29184
ĠDa	29180
ual	29179
Ġmeat	29165
Ġrespective	29156
dal	29155
Ġserving	29148
mathrsfs	29142
Ġcurves	29142
Ġobviously	29140
amsbsy	29135
Ġspoke	29134
Ġrequested	29133
Ġprinciples	29133
upgreek	29131
Ġbars	29129
ire	29128
LP	29126
ĠPre	29125
2005	29118
ĠKorea	29117
**(	29113
child	29109
oddsidemargin	29098
wasysym	29091
Ġsurgical	29090
ure	29089
âĢĺ	29083
ited	29082
han	29081
Ġdiscovery	29064
ĠProgram	29063
ave	29062
Because	29059
Ġfinds	29057
Ġsituations	29056
ua	29055
Ġ96	29050
response	29049
Ġtranscription	29038
ĠAre	29021
Ġbeat	29017
qquad	29015
:(	29015
two	29013
^,	29007
Ġinstruction	29005
nch	29004
Ġmi	28987
}^\	28971
air	28967
ann	28960
Ġref	28957
Ðµ	28953
sting	28946
ĠNe	28944
Ġtumors	28943
Log	28939
ias	28909
ĠApple	28909
Ds	28906
Tab	28902
Ġfee	28901
ston	28884
Ġconfirm	28879
ams	28874
ĠSecretary	28864
ĠLong	28855
ĠAdditionally	28848
180	28843
eno	28840
hn	28839
Ġrotation	28836
sky	28834
Ġlies	28830
Ġtube	28822
approx	28812
Ġshooting	28811
102	28807
***	28805
ances	28801
Ġnum	28799
ĠCorp	28788
Ġfiber	28778
neq	28772
je	28771
ĠMicrosoft	28769
Ġcompliance	28764
itt	28762
Ġworst	28761
Ġ$(\	28758
ĠÎ±	28736
Ġ"""	28729
Ġclimate	28723
step	28712
ogenic	28705
Ġbought	28702
Ġalpha	28700
mb	28692
Command	28684
Find	28682
Ġpulled	28654
ifying	28651
%),	28649
Ġassets	28647
Ġbehaviour	28603
FC	28598
ĠDemocrats	28596
ĠDonald	28592
RI	28581
Ġsomewhat	28575
Net	28573
gers	28568
Ġtransaction	28566
Ġrequests	28565
Layout	28564
oke	28559
PM	28550
tics	28546
Ġowners	28538
assert	28536
Ġworry	28531
ĠJournal	28526
RC	28521
Ġarrested	28521
ries	28518
Ġhelpful	28518
buffer	28507
Ġ59	28505
Ġenforcement	28493
Ġcontents	28492
HR	28486
Ġruling	28474
Ġapart	28468
Supplementary	28466
Ġgrid	28463
ĥ	28457
Ġconvert	28455
Ġna	28448
Ġdrawn	28444
MD	28442
Ġteaching	28416
ĠSociety	28415
card	28414
Ġharm	28413
NE	28410
čĊĉĉĉ	28393
Configuration	28376
Ġpreferred	28376
Ġglucose	28376
Ġcentre	28370
Ġpossession	28353
Check	28347
close	28345
Ġfruit	28341
oni	28337
¾	28336
Ġintelligence	28335
Ġrat	28334
Ġpictures	28333
Ġ85	28331
update	28322
nis	28322
Ġhurt	28312
Ġdel	28308
ĠLee	28306
Ġhidden	28304
Ġlogic	28302
Ġinfected	28292
Ġcat	28276
ĠCor	28271
Ġdeaths	28264
ales	28259
Ġ58	28257
bottom	28256
Ġdriven	28248
Ġweather	28244
oss	28229
ĠOS	28225
Ã¼	28217
Sa	28216
)),	28196
Ġenzyme	28189
ĠDirector	28178
Ġfighting	28174
NET	28168
high	28163
ĠIraq	28161
Ġapplying	28156
cup	28153
Ġpicking	28143
iation	28142
Ń	28140
Ġnormally	28136
{(	28135
Ġfa	28134
Ġvoters	28118
ĠGen	28114
TM	28101
raw	28098
)*(-	28081
256	28066
location	28057
ye	28055
Ġnoticed	28052
Ġweapons	28049
==	28046
BE	28044
ĠThose	28044
ĠBio	28040
vector	28037
eds	28036
Ġproliferation	28028
element	28009
Ġcarrying	28009
Ġrealized	28006
Ġcounty	27991
Ġ62	27988
People	27985
Mar	27979
Ġgrade	27966
Ġdivision	27965
rad	27962
ati	27959
Ġpermission	27955
Ġspectral	27951
Ġassumption	27949
Ġroles	27948
ĠWilliam	27936
tes	27933
Ġcontroller	27932
Ġvertical	27928
»	27921
Op	27920
din	27919
ĠIll	27912
GS	27905
Ġok	27895
ĠIsland	27894
Ġmanage	27892
Ġfund	27891
ĠSam	27887
Ġmechanical	27883
osis	27881
ÂĢ	27878
Ġreads	27875
Ġcultural	27870
try	27866
Ġoverride	27851
ĠDC	27851
ich	27849
Ġourselves	27848
ERS	27840
ĠIV	27839
ains	27837
ĠPower	27828
OH	27827
eer	27820
act	27815
Ġregistered	27813
RN	27812
Ġ57	27812
Block	27804
============	27803
Ġacids	27800
ĠST	27794
Ġsubstantially	27793
ĠTe	27790
msg	27789
ĠAT	27789
Ġattempts	27788
Ġinfections	27781
trans	27775
vis	27747
={	27744
ĠVi	27739
wi	27738
Ġhappening	27737
dp	27735
----	27719
GE	27715
Di	27711
Ġ],	27707
´	27699
None	27696
Ġboolean	27693
Ġdraft	27684
ĠEducation	27678
Ġĉ	27677
Ġaccused	27673
stone	27672
Ġimagine	27656
ĠIT	27656
lines	27649
Ġmillions	27647
ĠCT	27637
Ġfl	27634
Ġseparated	27625
nes	27623
Ġ&\	27617
van	27614
ĠAP	27604
URL	27600
Stream	27596
Ġconversion	27584
Ġexperts	27582
Ġcrystal	27581
gan	27579
ball	27577
Ġlegislation	27563
Ġdiameter	27556
Ġwine	27554
ily	27552
BR	27550
rer	27540
TER	27537
Ġmetric	27535
Ġpaying	27534
Ġdropped	27530
007	27520
gn	27519
=(	27517
Ġpatent	27511
Ġfo	27511
Ġmedicine	27510
Ġcrucial	27503
Ġuniversity	27499
ĠBl	27498
Ġcorrelated	27484
Ġbright	27474
iner	27459
ĠDivision	27456
Ġ61	27455
cur	27447
pin	27441
Â¼	27439
ole	27438
ĠMartin	27430
nh	27425
Ġplanned	27413
Ġgate	27411
cent	27398
ĠHill	27397
Ġradius	27392
^-	27390
filter	27388
ational	27388
zy	27385
*^	27379
break	27377
Ġintroduce	27371
2004	27367
Ġshop	27365
{-	27364
Ġpermit	27357
Ġformal	27356
Right	27343
Ġsister	27343
Ã¶	27336
Server	27332
types	27329
oo	27327
ĠAttorney	27323
Ġinstitutions	27314
project	27313
ain	27313
lie	27308
ĠPar	27282
Ġconsumer	27262
nor	27256
ĠGNU	27253
env	27251
Ġpurchased	27248
attr	27242
Ġsmart	27240
ĠMs	27238
Ġsimulation	27237
ĠCu	27235
Ġknowing	27232
ula	27230
Ġsizes	27230
Token	27217
Ġpowers	27213
Ġap	27213
Ġ>=	27210
DIR	27208
Ġreactions	27208
fu	27199
'$	27198
Ġfeels	27193
Ġdocumentation	27192
ĠWi	27191
ĠDevelopment	27182
Ġsetup	27176
Ġdream	27173
Ġneck	27171
Ġcorporate	27169
ĠRead	27169
Ġ63	27167
Ġposts	27162
sel	27148
small	27141
Ġopposition	27137
Ĥ	27134
Ġpromise	27125
push	27118
$_	27118
About	27108
vol	27106
Ġbeta	27105
Ġreligion	27098
cpp	27096
Ġreliable	27094
cho	27093
Ġcars	27093
isa	27088
}^{(	27082
ĠSocial	27077
ĠHu	27072
Ġincreasingly	27070
Max	27068
OD	27067
Controller	27067
ĠPR	27066
nds	27064
Ġsharing	27060
word	27052
Ġviral	27050
Ġexcited	27044
Ġowned	27043
Ġokay	27042
Ġconstitutional	27041
owing	27040
mathsf	27037
comp	27035
Ts	27028
life	27027
Ġtransferred	27023
Ġsymbol	27016
Ġkinds	27014
Ġ66	27007
iso	27006
Width	27003
inger	26999
ĠJan	26999
Ġiso	26996
LY	26995
war	26978
Ġindustrial	26977
Ġloan	26975
Ġsubstance	26974
Ġentity	26969
Description	26965
Ġcomplicated	26956
AG	26949
;</	26948
Ġanswers	26946
.^[@	26935
Ġvictims	26935
©	26934
iding	26930
Ġsin	26929
Ļ	26926
Ġrapidly	26924
Ġthick	26917
Ġrecognize	26916
mers	26915
Ð¸	26909
Ġoriginally	26907
Ġforming	26907
ĠSch	26907
izes	26905
Si	26891
Also	26891
host	26878
È±	26872
wer	26870
xy	26868
ties	26867
Ġdecade	26858
Hey	26851
101	26851
tos	26846
Ġslowly	26845
Ġextensive	26843
Ġbrowser	26837
Br	26827
TV	26824
cp	26821
Ġmono	26787
ĠBen	26785
ET	26784
Ġanyway	26775
Thank	26774
make	26773
Ġacquired	26771
yan	26756
aries	26751
Ġtheorem	26747
Ġac	26734
ĠRoad	26723
note	26720
Builder	26710
{"	26707
Ġintegral	26702
ĠMexico	26701
Ġinduction	26695
EF	26689
nie	26684
ĠWhere	26681
Ġrestaurant	26678
Ġba	26677
Row	26676
(_	26659
Ġbattery	26655
fd	26649
Ġaddressed	26643
Ġrisks	26637
Ġ1995	26637
ĠWilliams	26636
]]	26635
double	26629
Ġregulatory	26626
Ġprobe	26621
Ġau	26607
"}),	26599
Ġheader	26587
lor	26584
Âģ	26571
Ġpayments	26571
BL	26567
Ġreviewed	26564
Ġwinning	26561
und	26554
GO	26551
Ġstatistics	26550
ades	26548
Ġcolumns	26547
į	26544
Ġhate	26537
ivity	26536
Ġintegration	26536
Ġpresentation	26535
after	26528
Ġfairly	26524
Ġbug	26524
uses	26515
American	26512
Bo	26511
Ġfashion	26508
Ġinflammatory	26501
ĠWho	26497
sters	26496
Other	26494
Ġaudience	26489
Ĩ	26486
)}$	26478
Ġparticipate	26470
Ġtea	26466
Ġguard	26464
Many	26459
sis	26456
ups	26439
hes	26434
dom	26427
NT	26424
Ġexcess	26412
outs	26409
Ġclusters	26403
Ġmomentum	26400
band	26396
ĩ	26395
ĠLake	26388
Reference	26383
Ġmigration	26376
Ġhotel	26373
Ġleg	26372
Ġcompensation	26371
Ġlay	26370
Ġgoods	26370
VE	26362
ther	26352
ĠCheck	26352
ĠmM	26348
Ġcopyright	26341
Ġfails	26339
ison	26325
Ġlie	26323
ious	26316
ĠInt	26305
uff	26293
\'	26292
Ġtwenty	26288
Dr	26284
Ķ	26282
ĠmiR	26279
Ġregardless	26278
Ġtemperatures	26262
Ġwire	26260
mos	26259
onic	26248
ĠAb	26244
Ġpursuant	26238
ãģ®	26230
Ġwindows	26229
Ł	26228
Äģ	26218
ĭ	26211
Ġflux	26208
ł	26204
Ġbo	26204
Ġchoices	26200
berg	26180
tion	26179
Ġcomfortable	26177
Ġengaged	26176
Ġwarning	26173
Ġstem	26169
nts	26165
END	26162
month	26161
Ġvehicles	26161
103	26148
Ġadverse	26144
Ġcapture	26143
Ġsimulations	26135
Ġhydrogen	26131
Ġsurfaces	26125
ett	26123
Ġpublication	26122
Window	26112
ĠJa	26109
cb	26107
Ġuniform	26106
common	26103
example	26087
Â¶	26085
ĠMaybe	26083
dc	26079
rest	26069
Ġ1980	26067
Ġyounger	26066
tions	26055
Ġkilling	26050
Ġedges	26048
>&	26042
ĠChief	26038
tan	26037
Ġshock	26037
Ġ"\	26022
Ġlaboratory	26018
Ġoperate	26008
Ġcoupled	26003
Ġdeliver	25999
Ġescape	25997
Ġ:)	25995
DP	25990
Ġsuffered	25990
Ġscenario	25990
ĠMrs	25984
FE	25981
Hi	25979
ĠOhio	25979
Ġpin	25976
Ġschedule	25969
then	25968
Ġseparation	25959
GC	25953
ju	25948
Ġcalculate	25939
Ġwonderful	25937
ĠLos	25937
Ġaside	25935
Ġstores	25933
Â´	25931
Ġsubsequently	25921
NI	25920
ĠAppeals	25907
ĠWill	25906
ake	25905
ĠMu	25905
Ġturning	25903
Ġbanks	25887
ographic	25885
menu	25884
HO	25876
ums	25874
Pro	25874
]"	25862
iting	25860
<?	25860
Ġdelete	25860
Ġrefused	25850
ket	25847
Ġdependence	25847
Location	25840
ĠVersion	25837
THE	25834
Ġcalculation	25834
Ġbuildings	25830
Ġattempted	25817
Ġproducing	25814
201	25801
ĠVirginia	25791
Ġfamous	25790
Ġexpand	25790
Ġelectrode	25786
Ġinhibitor	25781
Ġsmoking	25779
Ġsuffering	25772
los	25771
ĠDE	25765
Ġche	25764
Ġnm	25757
Ġwood	25754
Ġstimulation	25751
Ġflight	25750
ĠValue	25749
Use	25747
Ġwriter	25747
Ġproposal	25744
}\\	25743
Ġstrike	25742
Ġwalls	25741
dia	25739
Sp	25738
Ġstood	25726
Ġdischarge	25724
ĉĉĉ	25720
Ġcorresponds	25713
values	25705
2003	25704
Ġapoptosis	25697
,$	25692
Ġemployer	25689
Ġeditor	25678
ĠJewish	25677
ĠCanadian	25667
nav	25665
Ġbelief	25651
offset	25639
Ġresolve	25630
Ġversions	25626
Ġcolors	25625
Ġcamp	25622
Ġcontributed	25614
Search	25611
lar	25593
Ġboys	25592
Ġrepresenting	25590
Ġreader	25590
sys	25588
Ġbeer	25585
Ġminister	25581
Ġroll	25579
Ġplenty	25577
~,	25573
¬	25568
Ġproceedings	25568
Ġdual	25565
Ġbasically	25562
Ġstack	25561
Ġfacing	25559
,$$	25555
ĠModel	25549
III	25545
zi	25537
Ġsuperior	25532
Ġgrounds	25528
Ġextreme	25524
Ġexit	25522
rac	25520
Ra	25516
Ġinstant	25514
Ġinflammation	25509
his	25503
sw	25501
tas	25498
Ġreceptors	25495
sz	25486
Even	25486
Ġ-\	25483
Ġvillage	25478
Ġrepeat	25476
ever	25458
des	25458
ĠTi	25455
Ĳ	25454
Ġshut	25448
Ġbreath	25444
Ġprogression	25439
Ġmapping	25439
Ġarbitrary	25438
Ġflag	25428
Ġchamber	25427
ĠThree	25427
ĠNA	25427
ĠRepublicans	25423
uck	25419
lum	25413
Ġ\-	25413
Ġattribute	25411
loc	25404
illa	25404
125	25397
Output	25396
ĠSP	25390
Ġspirit	25382
Ġteacher	25375
Ġplain	25374
Ġinvolvement	25366
ĠAmong	25365
ĠRichard	25363
Ġwalked	25348
Form	25346
ĠAc	25345
Ġmodes	25341
Up	25337
Ġequally	25334
mal	25332
Ġcoefficient	25331
(\[	25319
ĠInter	25318
Ġdinner	25312
lets	25308
Ġcircle	25303
Ġconsumers	25299
Ġassault	25299
Ġopposed	25297
lus	25296
.âĢĻ	25292
Ġlock	25291
Ġthrows	25282
Ġ68	25282
Ġperforming	25281
Ġpi	25279
ĠCarolina	25277
ores	25275
eman	25272
Local	25272
Ġ1994	25270
lg	25268
ĠSO	25267
ĠIm	25263
ĠBE	25253
Ġjourney	25252
Ġobserve	25244
Ġisland	25244
ĠJo	25239
Ġapplies	25232
positive	25230
ture	25206
Address	25205
Ġmoves	25204
ĠScott	25202
ĠAccordingly	25197
ving	25193
CN	25191
Ġagencies	25186
ette	25181
before	25180
Ġdiversity	25176
ĠMiddle	25173
Ġadjacent	25153
NC	25152
Ġcontrary	25149
ĠUN	25139
Ġregional	25137
Ġpregnancy	25134
opt	25132
Ac	25128
¯	25125
inc	25117
ida	25115
231	25113
Ġbacterial	25112
Ġperiods	25111
Ġdecline	25108
Ġsatisfied	25105
Who	25100
Ġvan	25100
ingly	25098
Ġ-------	25097
Ġstronger	25087
Ġ===	25083
Like	25074
Header	25071
ĠGiven	25063
Ġsegment	25062
Ġmissed	25061
ices	25060
tted	25057
files	25057
ration	25030
ues	25023
Ġwherein	25015
Ġdimensions	25014
Ġpermanent	25012
Ġmagnitude	25010
Ġos	25008
%;	25001
Ġstatistically	24998
Ġmutant	24996
Ġcreates	24996
Ġneutral	24988
Ġorgan	24980
Ġrank	24979
OO	24975
Ġsaved	24962
Ġrows	24959
Ġshares	24952
bp	24951
Ġongoing	24950
Ġbegins	24950
ition	24949
aly	24948
Ġmoderate	24943
rea	24941
Ġprofiles	24938
Ho	24937
Ġgrand	24937
Ġthereof	24935
700	24930
ert	24929
Man	24927
}-\	24925
Ġprepare	24922
ĠAmendment	24912
Ġcoefficients	24910
ĠSE	24908
limits	24904
Ġdecreasing	24898
ĠCH	24894
&&	24886
2002	24880
Ġti	24880
Ġexcluded	24878
Ġmarkers	24876
Ġstands	24875
Ġbringing	24875
Ġcutting	24872
Change	24868
Function	24865
Ġbear	24863
Ġwinter	24855
Ġnewly	24855
ļ	24851
ĠBush	24851
Ġmoral	24849
Ġdiffer	24849
ĠWater	24848
Ġconnections	24847
prod	24841
Ġes	24840
Ġacademic	24840
xa	24839
ths	24839
ĠPD	24824
graph	24821
Expand	24819
140	24814
byte	24804
Ġsymmetry	24799
ĠGame	24797
Url	24793
ips	24791
Ġcomprehensive	24789
Ġefficacy	24778
255	24777
ĠMary	24777
Ġteachers	24773
Ġanxiety	24772
Ġrender	24771
Ġvictory	24767
Ãħ	24763
Ġconsequence	24748
mathscr	24740
Tex	24737
âĢĥ	24736
Ġrequiring	24735
UP	24734
Top	24731
Ġlosing	24725
ux	24723
Ġintermediate	24715
AV	24706
Ġmanufacturing	24702
Ġcards	24702
Ġselling	24698
¸	24695
¦	24692
Ġtight	24692
mol	24690
late	24689
rant	24683
API	24678
RM	24677
Ġ67	24673
Ġadequate	24672
Ġhell	24669
Ġcomplications	24669
Ġyellow	24665
Ġion	24664
Ġrecover	24661
Es	24659
Ġdiagnostic	24659
Ġextracted	24658
Ġtargeted	24653
Ġge	24652
Ġshell	24647
"}](	24644
Ġsubset	24643
Ġlisten	24637
ĠNext	24637
tx	24636
ski	24634
CU	24610
Ð°	24608
Ġlesions	24602
Ġinjured	24599
External	24595
à¸	24592
Ġdealing	24582
Ġfoods	24580
math	24574
Ġplanet	24573
Ġuniverse	24572
ctx	24570
}_\	24569
ĠSimilarly	24568
Ġsuspect	24554
Ġpredict	24550
normal	24525
Ġkeys	24522
Ġtrained	24517
Most	24515
ĠBlue	24494
^+	24490
ĠYet	24490
Vert	24470
LT	24470
Ĺ	24467
unk	24465
room	24465
ider	24458
ĠSD	24457
Ġear	24451
ord	24444
sol	24435
Ġusage	24430
Ġmiss	24427
008	24423
Ġmutation	24419
ema	24418
Ġvaluable	24415
'_	24413
Per	24408
Ġbridge	24404
Ġlib	24398
Ġafternoon	24398
Pre	24385
tc	24379
Ġcomputed	24379
Â²	24372
Ġinstances	24369
Ġbrings	24367
such	24363
Ġfarm	24355
device	24353
Ġseed	24353
Ġconservative	24348
eon	24346
Ġwearing	24346
Ġshouldn	24344
Ġprefer	24342
Ġdiagram	24342
Ġmoments	24338
SF	24314
ĠArmy	24312
Ġnarrow	24306
namespace	24305
Lo	24303
Ġreserved	24303
internal	24293
mps	24292
oth	24284
ending	24283
ĠBoston	24280
ck	24278
Ġcalculations	24274
Project	24272
addr	24264
Ġdifferentiation	24260
Ġactivated	24257
lies	24249
Ġtechnologies	24249
Ġtip	24243
Ġsky	24242
ĠOut	24239
104	24235
Ġkernel	24231
Post	24228
Car	24227
Ġrecall	24227
Ġreviews	24221
Ġapartment	24219
bd	24214
eau	24210
Ġyouth	24209
Ġfaces	24198
ili	24197
Ĭ	24194
empty	24193
Ġtough	24190
\}	24189
OM	24181
Ġrely	24181
zz	24151
Ġclock	24149
PH	24145
}\,	24138
ĠView	24137
ĠNon	24136
BD	24132
Ġbroke	24128
Ġenhance	24123
ĠChristmas	24104
Ġgl	24102
Application	24100
ĠAnalysis	24096
ħ	24093
Column	24093
Ġsatisfy	24093
Ġallegations	24087
wide	24086
ĠFROM	24086
wing	24084
nton	24082
Ġalgebra	24072
ı	24069
lip	24067
Ġcardiac	24062
NN	24059
Ġ1993	24059
including	24058
Ġchicken	24058
Ġelected	24056
uz	24050
address	24044
Ġodd	24034
replace	24032
ĠChris	24032
aka	24031
Ġchecked	24030
Ġcur	24029
Ġfellow	24024
Ġintroduction	24022
when	24021
Ġdedicated	24021
ĠCorporation	24021
aged	24019
)))	24017
Ġclassified	24017
Ġ1992	24017
Ġchose	24008
Ġunsigned	24000
dan	23999
Ġsurprise	23995
Ġseriously	23994
Ġordinary	23991
weight	23990
une	23988
process	23987
Ġrenal	23979
Ġalign	23974
Ġrevenue	23973
rol	23972
Ġinvolve	23972
ack	23966
Ġvary	23963
Ġfly	23960
Ġdistributions	23958
product	23954
Ġinduce	23954
RNA	23947
ĠMike	23947
ĠSC	23945
________________	23942
ĠBased	23942
Ġgalaxies	23937
Ġanywhere	23932
Ġaged	23929
fc	23928
>\	23926
Ġhistorical	23913
ĠTrue	23910
ois	23894
inal	23891
Ġ<-	23890
ĠKi	23888
ĠCol	23873
Ġsemiconductor	23872
ĠDespite	23872
Ġ<=	23870
nel	23869
ĠEvery	23869
1999	23867
During	23865
Ġthickness	23865
Ġng	23863
Ġgift	23857
ĠUp	23854
Ġpresents	23852
Ġmatches	23852
ric	23840
Ġtheoretical	23828
ĠRT	23828
eed	23823
treated	23822
Ġ),	23816
acy	23804
Ġlattice	23803
Ġperfectly	23802
ĠNetwork	23797
dict	23795
105	23792
LL	23790
Frame	23781
Ġtoken	23780
Ġstrict	23778
Ġpartners	23775
sco	23774
uv	23767
ĠCl	23759
hm	23757
Ġdiagnosed	23755
ises	23749
Ġillness	23741
Ġmetabolic	23738
Good	23733
tmp	23732
Ġprediction	23730
etic	23727
Po	23721
Ġtheme	23721
quot	23720
123	23715
otic	23710
Ġlaunched	23710
Attribute	23703
ava	23702
Ľ	23698
rb	23696
CB	23691
Ġsur	23691
ost	23685
rey	23681
Ġincubated	23677
ĠTeam	23674
Ġdataset	23672
ĠRight	23671
Ġera	23665
GT	23663
ste	23660
master	23654
Ġcarefully	23641
Ġaudio	23641
ĠYOU	23625
blue	23619
TF	23619
ush	23618
${	23617
Ġtranslation	23617
Ġstatutory	23613
itch	23609
axis	23608
Ġbits	23608
white	23604
Ġbytes	23598
Ġill	23593
iel	23589
Ġyesterday	23589
Ġurban	23588
Ġride	23582
Ġexecution	23577
Ġgauge	23576
BI	23570
DT	23568
erman	23559
ĠFi	23554
Ġfraud	23548
Ġinsulin	23546
ink	23544
hs	23542
Ġstaining	23542
ais	23541
Ptr	23537
\,\	23534
ĠCharles	23528
tw	23524
oph	23524
Ġ250	23517
pal	23515
Ġmonitor	23514
oring	23509
stat	23508
ech	23508
Ġthousand	23508
gue	23507
what	23499
ĠAngeles	23494
lv	23493
)}{	23493
Ġinfrastructure	23488
Ġwelcome	23486
ĠFo	23486
Ġbreaking	23485
emo	23479
Ġhardware	23479
'),	23471
ĠClub	23471
Ġverdict	23465
Ġtrace	23461
Ġrounded	23456
Ġeducational	23441
sb	23438
nar	23432
Ġstick	23427
é	23421
ĠConstitution	23418
Ġ110	23417
ĠDetermine	23416
Task	23415
Ġdomains	23415
lat	23414
Ġcloud	23403
column	23402
Ġmetabolism	23401
³	23400
Ġloaded	23399
Ġdrinking	23394
Ġcarrier	23394
Ġdivide	23389
water	23383
Ġsufficiently	23381
Ġreferences	23380
Ġphotos	23377
Ġroutine	23376
Ġcontends	23375
ĠOh	23372
making	23370
Introduction	23359
Ġintake	23357
Ġwest	23354
aming	23353
Ġcomplexity	23346
Ġpartially	23342
ĠAC	23338
Ġneighborhood	23334
Ġimposed	23334
ĠUser	23323
git	23315
ĠParis	23313
ĠOrder	23310
ĠDis	23306
011	23303
Ġ71	23299
ean	23290
Ġsomewhere	23285
Ġengage	23285
Ġdisclosed	23285
ë	23281
TL	23278
mediated	23276
Range	23272
ĠThanks	23270
ĠĊĠĠĠĠĠĠĠĠĠĠĠ	23270
Ġyields	23260
Ġdanger	23252
}},	23244
store	23243
Ġcontrolling	23242
ith	23240
Ġdenominator	23238
none	23234
Ġstroke	23229
conf	23227
olo	23226
OC	23220
Ġreveal	23220
rous	23207
ĠJava	23203
mn	23198
UT	23195
ule	23194
Ġ$|	23192
Ġdiscrimination	23189
Ġnumerical	23188
Ġcomparable	23188
Ġevil	23184
Ġbelieves	23178
they	23169
Target	23158
ĠSyria	23158
214	23153
now	23150
377	23146
ĠQu	23145
Ġsampling	23140
Select	23139
Ġconstraints	23138
ĠReview	23137
Ġbehalf	23136
ĠDoes	23136
ĠURL	23122
izations	23115
sd	23111
Ġperipheral	23111
Ġcommit	23111
final	23109
ban	23104
ller	23093
Ġtrigger	23093
Ġadmission	23093
ĠBefore	23093
Ġlens	23076
she	23067
Ġmarketing	23067
ĠHTML	23056
ĠError	23048
Connection	23043
Ġserves	23041
Instance	23022
ends	23014
spec	23013
ĠSpecial	23012
docs	23011
ville	23004
El	23003
Ġhi	23002
Ġ69	23000
thm	22997
Ġsick	22994
Ġinclusion	22991
Ġmon	22985
Ġcollect	22984
ĠPart	22979
\^	22976
ĠBritain	22976
tf	22973
Ġdust	22967
Ġpassword	22966
Ġhandling	22958
ext	22953
methyl	22951
Ġchallenging	22943
world	22941
Ba	22941
ĠSer	22941
Ġexplicitly	22938
gel	22932
ĠWomen	22923
textbf	22922
params	22913
mus	22912
Ġalive	22910
Ġgrew	22898
Ġeast	22898
VI	22894
Ġest	22894
Ġtables	22890
Ġcited	22890
Finally	22887
mit	22886
should	22879
Ġcache	22876
Ġsimultaneously	22867
linear	22865
Ġkid	22865
ĠReport	22861
Ġ84	22860
vel	22856
Ġ77	22855
ome	22850
bus	22839
mem	22834
rio	22831
Does	22831
power	22822
ila	22819
John	22815
ogen	22811
Ġpu	22804
ono	22796
lit	22796
Ġclassic	22794
wise	22790
Ġtruck	22790
iers	22788
iled	22782
ND	22770
Ġvariations	22765
ĠAustralian	22765
ards	22759
even	22758
Ġneural	22756
Ġchest	22754
Ġhealthcare	22752
Ġgreatly	22745
Link	22735
ĠFind	22733
hing	22732
¶	22727
ĠAsia	22727
cin	22725
His	22724
materials	22722
alt	22718
lc	22717
||	22716
Ġce	22716
CK	22713
="#	22712
ĠCare	22710
acc	22703
Ġresponded	22702
Ġsharp	22699
ĠBusiness	22693
Ġprovider	22687
Ġamplitude	22687
rid	22685
full	22684
ĠGL	22679
Fe	22670
Ġcopies	22668
aps	22666
ATION	22665
Ġimproving	22664
--------	22661
ĠTechnology	22656
Ġquantity	22654
how	22653
Ġproven	22647
¼	22642
oro	22641
ĠME	22639
Ġsteel	22637
.;	22634
Ġpulse	22632
\}$	22631
Ġuniversal	22629
Ġingredients	22629
Ġfewer	22628
Ġmarker	22624
uer	22621
years	22616
Ġjump	22605
}[	22604
Ġpenalty	22603
Ġadministrative	22600
Ġcorrection	22599
hor	22598
Ġbrown	22595
cache	22590
}"	22584
IB	22575
%).	22575
ĠEd	22570
Ġmales	22566
usr	22563
Ġapproximation	22562
Dir	22553
ĠRi	22551
Ġriver	22548
)_	22537
Ġstrange	22533
Ġcohort	22532
Ġsending	22526
Ġelevated	22523
Ġmovies	22522
Ġcrowd	22522
ĠJr	22522
tile	22520
Ġsuffer	22520
ware	22518
Ġgarden	22517
Ġdrivers	22515
Ġexplicit	22513
Ġinstrument	22510
Ġpop	22509
fer	22508
Core	22502
Ġ{}	22498
eur	22497
Ġnamely	22496
bra	22491
ow	22487
Ġ98	22486
Ġomitted	22476
RD	22470
Ġrooms	22469
Ġnearby	22466
Ġ78	22462
Ġvi	22461
ĠPage	22460
bert	22446
Ġcomparing	22444
EX	22441
ĠValley	22438
inner	22437
Ġsignature	22436
Ġdifficulty	22436
Ġ------	22436
second	22433
ĠReal	22415
unit	22413
Ŀ	22410
Ġrejected	22410
Ġpapers	22410
Ġsubmit	22409
Ġvariance	22408
arc	22405
ĠAg	22390
ĠIllinois	22386
¿	22385
Ġcouncil	22384
Ġ88	22378
have	22376
Ġcommitment	22372
lab	22367
Ñĥ	22366
ĠJackson	22361
KE	22359
Ġfrequent	22354
Ġprecisely	22353
ĠLA	22352
Ġfifth	22339
ĠAnti	22333
uss	22330
Spec	22328
ĠMedia	22328
ima	22322
RU	22322
Ġinequality	22318
rim	22305
Ġreceiver	22305
Ġdivisor	22300
ĠJoe	22299
rot	22298
Ġver	22298
Ġovercome	22287
¨	22286
Once	22284
eli	22281
310	22279
matic	22278
Ġinvestors	22278
Ġcodes	22270
Ġmachines	22267
atic	22264
Ġhasn	22260
xc	22259
edge	22257
Ġabsorption	22246
Ġexhibit	22243
Ġatoms	22243
Ġrock	22242
Ġscientists	22241
Ġmatching	22240
·	22236
Ġbuying	22228
Ġtail	22224
display	22218
ĠItaly	22217
Ġfemales	22214
Ġcompetitive	22203
ĠForce	22203
Ġnaturally	22194
ete	22185
Ġbusy	22181
born	22180
Ġclosing	22178
rop	22168
Ġdoctors	22168
dim	22164
SB	22163
Ġsight	22162
FR	22161
pen	22158
ĠMichigan	22157
Ĵ	22155
Ġ73	22142
Ġfi	22141
ĠFr	22133
Ġden	22120
vo	22117
Val	22107
ĠDec	22107
Gr	22104
Ġdecay	22104
ĠToday	22103
Ġparticipation	22098
pid	22095
!âĢĿ	22090
Ġwa	22089
ĵ	22081
Ġmeasuring	22080
Ġscored	22076
play	22074
bt	22073
Ġelections	22073
RY	22063
Ġrestricted	22062
Ġmom	22061
Ġmask	22060
NP	22057
Ġcheese	22057
Ġcoordinates	22056
rick	22053
Height	22051
ĠEnergy	22050
Li	22049
fire	22047
Ġargs	22046
will	22041
ĠCell	22041
hy	22040
ĠAmazon	22039
Ġscan	22037
sions	22027
217	22027
Ġcareful	22021
Ġsurprised	22019
Ġ::	22019
Ġprivacy	22018
Ġvast	22017
ĠCom	22015
asp	22014
Ġmodification	22012
)$$	22009
Ġreduces	22009
Ġenabled	22009
Ġ74	22009
Ġadjusted	22003
ĠCatholic	22001
ĠKey	21997
Ġed	21994
<!--	21986
flow	21984
tech	21975
ĠImage	21975
wl	21969
ĠDate	21969
232	21968
about	21965
vy	21956
Ġdiverse	21954
////////////////	21949
Ġnotion	21946
sql	21937
Entry	21937
BU	21931
Ġscheduled	21930
mc	21925
Ġindependently	21923
Ġfeelings	21923
pon	21919
Ġheads	21917
Ġcomposed	21914
tte	21906
Ġfunc	21905
ĠResults	21904
Ð¾	21899
}|	21899
bot	21896
Position	21896
ĠEm	21895
uted	21893
there	21893
mt	21880
Â¿	21877
via	21876
care	21876
ĠMake	21869
FP	21868
Ġmistake	21868
Over	21867
known	21865
ural	21859
bes	21856
AND	21856
Ġarmy	21849
Ġcovering	21847
Ġanymore	21847
Ġcontinuing	21843
remove	21837
qui	21837
HE	21836
ĠYear	21835
Ġsuppose	21833
ĠLocal	21833
ĠDO	21832
bling	21831
Ġkinase	21830
Ġadds	21822
Ġtiming	21820
stop	21817
Ġbulk	21817
Ġsettlement	21815
Ġmod	21815
Cr	21813
Ġpresidential	21812
Build	21811
Ġcable	21810
009	21808
!!	21806
ece	21801
Ġwarrant	21790
ĠSea	21784
Ġcook	21783
111	21780
Impl	21775
Ġloading	21770
Ġcommission	21766
Ġ94	21765
Ġ**(	21744
Ġreform	21741
handle	21737
Ġ101	21736
Ġsl	21735
sor	21731
Fs	21728
Entity	21728
Ġprogramming	21728
Ġtalked	21715
Ġ&=	21712
rz	21707
PG	21707
Ġcommunications	21707
ibility	21704
Ġ76	21701
anti	21700
Ġcrimes	21698
Ġaircraft	21692
aya	21689
arn	21688
ways	21687
Ġlipid	21686
ãĥ	21683
ĠDavis	21683
ĠTop	21680
]{}]{}	21676
lation	21675
game	21674
Using	21669
Ġyards	21668
Ġherein	21667
Ġgenerating	21667
Provider	21657
/>	21657
ior	21656
ame	21654
PER	21654
wrap	21649
ient	21646
ndi	21644
Ġprecise	21644
Ġopinions	21640
ĠBest	21637
112	21633
mis	21631
Ġafford	21628
export	21626
ait	21622
'\	21619
±	21618
Ġexecuted	21612
ĠGlobal	21605
ĠVan	21603
ĠCreate	21599
Ġlists	21598
108	21597
ĠSource	21595
Pe	21592
sman	21586
total	21584
Ġwealth	21582
pass	21581
-*	21581
Ġpriority	21580
ump	21579
Call	21579
ĠAR	21577
106	21574
INT	21573
Ġpetitioner	21572
Ġ97	21564
Ġ81	21560
Ġlocally	21555
Os	21552
edu	21551
}({\	21542
Ġqui	21542
Come	21541
debug	21538
Ġafraid	21538
Ġlegs	21534
Ġvectors	21533
nl	21531
():	21528
Im	21526
Ġradical	21526
^{-\	21525
ĠCross	21521
Level	21514
family	21512
130	21509
unt	21507
click	21507
Ġpolymer	21507
Module	21503
117	21501
sson	21500
ĠChapter	21500
Ġfailing	21498
Su	21495
Ġ$\{	21495
Ġrefers	21489
eling	21486
Ġwhenever	21486
Ġcrazy	21485
gal	21484
Ġwaves	21476
Ġsuddenly	21476
ĠSec	21471
itable	21468
uch	21463
container	21460
Ġattend	21455
ĠYoung	21455
layer	21454
Ġtour	21452
ĠRef	21452
Ġcuts	21450
ERROR	21447
ĠGrand	21438
Ha	21437
Ġdeclare	21431
Ġaimed	21428
parse	21427
ĠPrime	21423
Listener	21418
Ġhouses	21413
Ġder	21413
Ġcu	21407
yes	21406
gh	21406
BB	21404
copy	21403
Ã¢	21402
RB	21402
Ġ91	21399
Ġ1991	21398
Ġinhibitors	21395
-----	21392
ĠHi	21388
Ġtaught	21387
sets	21385
ĠManagement	21385
dh	21383
Ċĉĉĉĉĉĉĉ	21382
Ġtemporary	21381
Ġtele	21379
Theta	21376
Ġquiet	21369
Bi	21366
ì	21363
²	21361
Ġencourage	21360
ott	21348
Ġexpenses	21341
shape	21335
aine	21334
Ġcultures	21334
domain	21333
eve	21331
mel	21326
Ġweapon	21321
Ġdev	21317
ĠSpace	21312
Okay	21311
wers	21310
ĠNumber	21309
ĠOK	21308
ĠCivil	21305
osa	21300
eat	21292
Ġproduces	21292
nom	21285
ĠPolicy	21285
010	21283
ĠSA	21283
ĠAction	21280
ENT	21270
Tag	21265
Ġupdates	21264
Ġser	21258
uting	21253
Write	21251
Ġsilver	21249
Ġteeth	21242
Ġatmosphere	21237
AE	21236
Ġwestern	21229
Ġwatched	21229
Ġchair	21221
Ġ82	21220
cut	21218
ĠMO	21213
OB	21201
Ġplurality	21195
Section	21193
Ġattributes	21193
Ġproviders	21191
Ġnerve	21189
).$$	21186
Ġreasonably	21180
ĠRights	21180
Ġappreciate	21170
Ġorientation	21164
}}^{	21160
Ġignore	21160
Ġfrequencies	21159
Ġshoulder	21158
Ġlunch	21158
ĠDescription	21153
','	21150
Ġvertex	21143
Ġrational	21142
Ġtrading	21141
Ġprocessed	21140
ode	21135
Tree	21135
Sc	21135
np	21130
ĠApplication	21129
Ġdominant	21124
ĠBur	21124
Ġ92	21122
[[	21118
Com	21117
ĠHan	21111
Parameter	21096
Ġawareness	21096
Ġstreets	21093
Ġlosses	21093
Ġtiny	21086
mac	21084
Ġ83	21081
asing	21074
Collect	21073
ares	21060
Ġfed	21060
email	21057
Ġvalve	21057
Ġassist	21055
rage	21050
Ġlawyer	21045
ŀ	21040
Ġpersonnel	21039
Ġwitnesses	21038
''	21033
Ġsnow	21031
ress	21025
Ġprofit	21024
Ġimprovements	21020
most	21007
lay	21007
VA	21003
Ġsomehow	20998
sr	20996
Supp	20996
Ġplates	20996
Ġcompute	20990
ĊĠĠĠĠĊĠĠĠ	20978
Ġtab	20971
Ġgeneric	20965
Did	20964
Ġstruggle	20960
Title	20958
Ġfluorescence	20941
Ġ93	20933
Ġexplains	20931
echo	20923
ĠVa	20916
wd	20904
itz	20903
Ġtemporal	20901
Ġtalks	20893
Ġholes	20893
ĠFox	20893
Ġorganized	20875
Ġgoverning	20869
Ġreturning	20867
Ġtu	20846
IG	20845
who	20836
Ġmanufacturer	20835
Ġvideos	20830
tp	20824
reference	20821
}^{-	20816
ej	20814
Ġsoul	20812
det	20804
Ġ..	20802
days	20800
lb	20798
Ġrespiratory	20798
Ġweren	20796
Ġinterior	20796
Ġ($\	20795
Ġunlikely	20791
Ġplea	20790
Ġroughly	20783
Offset	20780
icity	20776
ĠAnn	20775
Ġmarks	20769
ĠWilson	20767
ining	20766
sal	20761
Ġpassage	20758
Ġpermitted	20755
),\	20753
Ġarchitecture	20746
Ġnervous	20740
Ġdirections	20738
Ġboat	20736
Ġ})	20735
Ġobj	20734
sey	20729
elo	20729
ª	20722
Container	20721
Ġrecipe	20721
Ñĭ	20716
Ġbyte	20708
SIZE	20707
Ġcooking	20706
Ġmodules	20704
Ġuncertainty	20698
rom	20694
ular	20693
Ġelsewhere	20689
Auto	20678
anda	20676
eller	20671
km	20666
UL	20666
Ġ++	20662
ngo	20661
Ġpet	20659
>.	20657
change	20647
ĠWa	20647
arity	20644
Ġrestriction	20641
ctor	20640
ct	20639
ĠText	20636
Ġparking	20632
Ġgeometry	20632
ÂĹ	20629
Ġdeviation	20629
PCR	20628
rating	20627
Ġbounded	20616
Ġsystematic	20611
Ġfolder	20596
Ġsodium	20592
,{\	20589
Ġconsisting	20586
Ġhash	20582
bal	20578
Script	20575
gate	20569
ĠMiller	20566
rum	20563
Ġtelephone	20562
Ġcycles	20562
Dis	20561
ĠMuslim	20558
AY	20554
Ġextraction	20551
Ġinvasion	20545
Ġvascular	20544
ĠFed	20542
Ġutility	20541
Ge	20532
equal	20530
Ġleaf	20526
ĠRepublic	20526
TU	20524
Inter	20523
|^	20521
Ġmarijuana	20521
Ġpaths	20516
Ġcontracts	20516
Ġdisability	20514
bing	20511
Ġseasons	20511
desc	20502
ĠIsraeli	20499
Ġste	20498
ĠProposition	20498
Ġalgorithms	20497
Ġaffects	20492
ĠBY	20492
Ġconclusions	20491
Ġcovers	20487
{}	20478
aco	20475
Î³	20472
tools	20472
eva	20471
elling	20466
Ġcreative	20464
Ġconcrete	20461
Ġgiant	20460
Ġ---------	20460
Ġ1970	20456
chen	20453
Ġcomp	20447
Ġkeeps	20443
Ġoffensive	20441
GG	20426
Ġcleaning	20426
Ġpeptide	20423
Ġtheories	20421
Ġmedication	20420
Main	20415
ĠLast	20414
Ġconverted	20407
rates	20403
defined	20403
Ġ}\	20397
GR	20396
Ġconsiderable	20396
ĠWin	20395
Ġmail	20394
mean	20392
zero	20387
ĠTR	20385
Current	20384
eration	20383
Ġmeal	20383
para	20377
ĠMor	20374
ĠWork	20372
EB	20362
ĠFire	20362
Ġdispute	20359
ĠCR	20357
dar	20356
Ġavailability	20355
Ġking	20351
dagger	20342
textrm	20339
Ġrobust	20333
omo	20329
Char	20324
Ġpowder	20324
green	20321
iu	20312
Ġresolved	20311
Ġcream	20310
Ġfault	20306
1998	20304
Ġviewed	20300
Ġrural	20296
tch	20295
Ġprofessor	20295
ĠPu	20289
aves	20286
Ġmaintaining	20285
ĠJersey	20284
ace	20275
Ġ79	20272
ree	20268
Ġpushed	20267
ĠFood	20267
119	20266
dra	20264
SN	20264
Ġpersonally	20257
Total	20256
ĠKe	20254
ĠIC	20254
ĠĠĠĠĠĠĠĠĊĠĠĠĠĠĠĠ	20251
ĠRock	20250
ĠSouthern	20249
Ġfinger	20248
HC	20244
Ġpilot	20239
nov	20237
Ġprevention	20237
ĠCommunity	20225
Ġcompletion	20224
Ġgay	20223
Ġentries	20221
Ġsong	20220
Ġstrings	20213
Ġconvicted	20203
Ġni	20199
Ġadvantages	20190
192	20188
OF	20187
.]	20187
Ġguarantee	20182
113	20180
MAX	20178
Long	20177
nx	20175
Ġ((-	20170
Ġbarrier	20167
ĠOfficer	20167
ĠFl	20165
Ġ89	20162
background	20160
ĠPakistan	20155
Ġfired	20149
Ġdress	20147
Device	20145
Ġ-----------	20143
token	20141
280	20141
Ġ01	20140
)|	20136
Ġdiscussions	20135
Ġsequencing	20133
ĠLine	20130
Ġexport	20127
Ġonset	20121
Ġscattering	20117
week	20115
Unit	20111
ĠPlan	20109
task	20106
Ġ-----	20101
Ġteach	20100
Ġphenomenon	20096
Ġpen	20095
cts	20093
tain	20092
ĠSQL	20090
ĠTrans	20089
Ġfiling	20082
Ġownership	20079
Ġvacuum	20077
ently	20075
emia	20073
oids	20070
Ġquasi	20070
Ġexclusive	20067
Ġ>>	20065
sic	20064
Ġregularly	20063
gov	20060
Template	20060
Na	20055
CV	20053
access	20050
BO	20048
ĠCEO	20044
Ġcompeting	20042
Ġ86	20042
Min	20039
pd	20035
ika	20030
rist	20029
½	20028
done	20026
Ġoperated	20024
Ġrice	20021
=-	20017
Step	20006
ĠWITHOUT	19996
support	19990
Ġinit	19989
*]{},	19988
Ġcomprising	19987
Ġpseudo	19983
Ġquantitative	19980
Ġpor	19980
ĠCentre	19980
?'	19979
ĠÃ©	19979
unsigned	19975
ime	19968
ĠJack	19967
send	19959
Ġcenters	19957
Ġverify	19950
Ġthinks	19949
ĠAge	19943
kar	19941
bre	19939
cing	19935
Ġjudicial	19928
Ġliberal	19927
Ġentering	19927
Ġcolour	19921
ort	19915
Ġrear	19911
Ġrec	19902
Ġancient	19889
ĠĊĠĠĠĠĠĠĠ	19878
comment	19876
Ġworker	19876
Ġsustained	19869
Ġwi	19868
Ġsad	19867
Ġhorizontal	19864
Ã¨	19861
cmd	19859
Ġgovernments	19859
Ġdegradation	19859
Ġsatisfies	19856
Ġmild	19855
Ġaccumulation	19855
Ġfalling	19854
ancy	19852
UR	19850
ht	19846
High	19842
ĠOld	19841
Ġcaptured	19840
Ġproud	19836
Ġcomfort	19831
ĠSpanish	19831
front	19830
Ġtomorrow	19830
Ġanalyze	19827
pan	19826
gy	19816
Ġstone	19813
ĠConference	19811
ĠHenry	19809
Ø§	19807
eas	19802
Ġreaching	19800
248	19798
Ġexpanded	19797
ĠVo	19794
Ġdemands	19792
Thread	19791
Ġinterventions	19790
ĠAuto	19787
\>	19784
Ġremoving	19779
DL	19775
127	19773
Ġdismissed	19773
Ġcolleagues	19770
Ġbundle	19765
mic	19763
Ġcrew	19763
Ġrecommendations	19760
matrix	19758
Ġ----------	19757
tex	19753
loop	19746
clear	19741
Ġve	19741
0005	19735
Ġpump	19732
ĸ	19725
Ġqualified	19725
Ġ87	19723
Ġcoast	19721
subseteq	19720
ido	19720
Document	19720
Utils	19715
Ġportions	19709
âĢĭ	19703
inf	19702
Ġfalls	19702
Ġincorporated	19699
ected	19697
ĠÂ°	19695
ĠStandard	19692
town	19690
foot	19689
black	19687
Ġcoding	19682
elli	19681
ĠWhether	19677
Ġpsychological	19676
áĢ	19670
**.	19666
kt	19662
eral	19662
eter	19661
ĠServer	19661
dor	19656
Ġnamespace	19656
Ġworldwide	19654
ials	19638
ĠNov	19637
ĠFrancisco	19637
iii	19636
Ġpour	19636
ĠAu	19635
Ġkidney	19633
sid	19632
person	19632
Ġmasses	19630
Ġdestination	19629
Ġgradient	19628
rib	19627
kan	19622
Cache	19619
ĠGold	19619
Â®	19616
Ġstations	19616
Ġadministered	19604
ometric	19598
lot	19598
gent	19589
Ġ1989	19589
ssi	19586
Ġassays	19581
ĠDefendants	19581
'}	19574
_{(	19572
IX	19567
Ġsizeof	19559
Ġscales	19555
ĠMD	19554
Ġcal	19546
Am	19540
ection	19538
012	19537
Ġseparately	19536
Work	19531
Ġ{{	19531
Ġinterference	19531
ape	19529
FD	19528
Debug	19524
ĠApache	19524
Ġeggs	19522
die	19520
aba	19518
Ġreaders	19516
170	19513
Ġ--------	19513
bel	19512
ologist	19506
Ġdecreases	19506
Ġmini	19497
ĠAN	19497
}}$.	19496
ĠPh	19494
shed	19493
Ġbutter	19487
ĠItalian	19484
Ġphysics	19479
EV	19478
\.	19474
ĠGar	19472
ĠRoyal	19467
ender	19463
Ġintervals	19462
rh	19460
Session	19460
uf	19458
HD	19457
Ġvotes	19457
Ġfaced	19455
Ġmounted	19454
ĠDan	19454
stack	19453
Ġbowl	19453
Ġfriendly	19451
ener	19447
Ġfu	19445
Ġegg	19439
Ġ\;	19438
zer	19427
iness	19427
command	19427
ĠNFL	19427
Ġstuck	19418
session	19409
Ġtoxic	19408
Ġcheap	19408
Ġtargeting	19406
ĊĉĠĠĠ	19405
vm	19401
Ġaddresses	19400
Ġkit	19394
associated	19392
Ġalter	19381
114	19376
825	19371
Ġfolks	19371
Ġdisc	19371
ifier	19370
llen	19367
Ġforum	19366
arch	19364
Ġ1988	19364
pel	19361
.),	19360
FL	19357
ãĤ	19352
Ġcorrespond	19350
ĠShow	19350
Ġprofessionals	19349
Under	19348
ĠAsian	19346
ald	19344
PF	19343
ĠGeorgia	19342
ĠCC	19338
erry	19335
ĠKim	19335
wan	19332
had	19330
sig	19327
ident	19325
short	19323
just	19320
Ġroots	19318
Ġvariants	19309
news	19307
Ġpromoter	19307
eto	19303
binding	19301
Mi	19294
ede	19293
Ġspan	19285
SON	19277
Ġprotective	19275
Ġappointed	19270
ĠLight	19270
Settings	19269
SELECT	19269
Ġappeals	19268
Ġrising	19267
hour	19264
Ġconstitute	19262
Ġflexible	19261
,\,	19259
Ġhonest	19257
Ġheavily	19248
Î	19247
sus	19246
ĠStudies	19243
ĠMain	19241
setminus	19239
AU	19237
AK	19234
Ġdrawing	19234
Ġpasses	19233
Ġexpressions	19232
ĠTaylor	19229
Ġboost	19228
lr	19227
ĠPut	19225
sti	19224
Ġlikelihood	19222
Ġconsecutive	19216
Ġseverity	19214
Ġreflected	19214
ough	19209
.(	19209
Ġexpectations	19209
Ġhousehold	19207
Ġinfinite	19203
ond	19198
Ġinsufficient	19196
Ġ------------	19196
ĠPl	19194
Ġrose	19190
Ġinsert	19184
Ġbeach	19184
ĠPI	19179
points	19167
109	19164
TX	19162
Ġalignment	19160
una	19153
ĠLett	19151
Non	19149
Ġtemp	19147
á»	19145
Ġbind	19144
Ġratios	19143
Ġlimitation	19143
Ġinform	19140
168	19138
Ġmovements	19136
ĠCP	19135
Ġsolely	19134
Ġsoldiers	19127
Ġsimilarly	19124
Ġadmit	19123
Ġvaccine	19120
Ġbike	19120
116	19115
Ġfoundation	19114
Ġadvertising	19113
Ġrelating	19109
Ġconstantly	19107
Ġrain	19106
Ġyeah	19105
ĠMin	19097
sty	19091
phase	19091
Bu	19089
ĠER	19086
Ġhospitals	19084
fill	19083
ĠMen	19082
Ġseeds	19081
Ġstupid	19080
Ġenzymes	19076
nin	19074
220	19074
<\	19073
channel	19072
eck	19071
Ġrid	19071
Ġ-------------	19071
Ġbeauty	19068
ĠWall	19068
images	19064
iff	19064
Ġbu	19058
erson	19057
Ġawarded	19057
iva	19052
Ġanswered	19052
ĠPatients	19042
global	19041
Ġrestrictions	19040
Ġcoordinate	19038
DH	19037
Ġpackages	19031
Ġprotest	19030
Back	19029
Ġengineering	19027
Fi	19023
Ġabsent	19021
lier	19019
Str	19016
Ġalert	19014
ĠIR	19013
Ġsubjected	19011
Ġbands	19007
ĠNorthern	19007
Store	19003
Ġmanual	19001
Ġmeetings	18999
Ġknee	18996
ĠTotal	18995
ĠAcademy	18994
window	18985
amer	18983
/.	18983
Ġcomprises	18983
Ġsupplied	18978
insert	18972
Ġwheel	18971
0004	18967
Ġ102	18967
¹	18966
ãĢģ	18965
Ġintention	18959
urs	18958
Ġelectro	18956
Ġbeneficial	18952
Ġpixel	18945
Ġhoping	18944
Ġvarying	18943
LF	18941
Ġprojection	18933
ĠIF	18930
amo	18924
ĠThank	18923
ĠMedicine	18923
^)	18921
Ġvice	18921
Ġproceed	18917
ĠAndroid	18915
Ġexecute	18911
Ġinteract	18909
Make	18908
nos	18906
Ġproceeding	18902
fin	18898
\_[	18898
ĠSal	18897
ijerph	18896
------------	18895
Ġenjoyed	18892
Ġaccessible	18892
ĠPennsylvania	18892
\[[@	18891
Ġnations	18890
ĠThough	18887
Ġimmunity	18883
Ġimplications	18882
Ġphysician	18877
ĠJoseph	18877
Left	18867
lig	18864
Ġlayout	18860
132	18858
Ġvalidation	18855
Ġchecks	18855
Vector	18854
application	18851
ĠPlaintiffs	18850
0003	18842
Ġcarcinoma	18835
}}$,	18833
Ġclothes	18829
"))	18828
Ġpot	18821
scope	18818
Ġ(âĢľ	18818
Ġou	18817
eme	18811
Ġgel	18811
ĠLouis	18810
Ġprop	18806
Ġacquisition	18803
hh	18801
Ġages	18798
PV	18795
iy	18790
Te	18788
Ġ"$	18785
Ġdismiss	18784
Ġbr	18777
lder	18774
eting	18769
hash	18766
900	18764
ĠIslamic	18764
Ġantigen	18763
Ġsuicide	18762
LR	18761
Ġer	18758
Ġant	18751
ims	18750
015	18747
ĠCase	18746
Ns	18745
Ġlaid	18743
Ne	18738
Ġdb	18736
inder	18731
âĢħ	18729
abi	18729
IST	18727
Ġcalcium	18725
hw	18724
ĠFund	18724
Access	18722
Ġsymmetric	18718
pet	18716
SET	18715
Order	18714
cky	18712
GET	18711
0002	18706
ands	18701
Ġabundance	18700
Ġdefines	18696
ĊĊĉĉĉ	18694
xs	18691
Ġfeeding	18688
ĠPE	18687
ĠFBI	18685
xx	18681
rst	18680
Ġheating	18677
Ġchip	18674
Ġflash	18672
eus	18669
cells	18665
020	18662
Ġ104	18658
ogenesis	18655
ando	18655
Ġhorse	18655
753	18651
ĠTake	18645
Ġcorporation	18641
Fa	18640
Ġchart	18637
aling	18636
Ġartery	18635
stein	18634
imp	18634
FILE	18629
Ġhide	18627
Ġaffirm	18626
ĠBack	18626
Ġâī¥	18619
Ġfusion	18616
Ġvitamin	18615
member	18614
ML	18614
aks	18613
Free	18610
Ġsees	18606
Ġdestroyed	18606
Ġdestroy	18606
Ġpoll	18605
Ġspecify	18604
Ġmountain	18604
Ġranging	18602
Ġpadding	18597
SK	18596
======	18596
}}}\	18593
ĠLinux	18590
connection	18589
Ġautomatic	18589
enum	18588
Ġcolon	18588
ira	18587
tbl	18586
Ġinstallation	18584
Ġbonds	18580
Ġadopt	18580
Ġimmigration	18579
Ġdefensive	18579
ĠAdministration	18572
Ġassignment	18565
dm	18564
Ġmacro	18558
ĠFu	18554
ĠMulti	18552
Ġdesirable	18551
typedef	18550
ECT	18549
ĠFollowing	18548
cia	18543
Ġdevelopers	18543
arrow	18538
Gen	18537
Ġsmoke	18535
Ġinvalid	18534
}]	18524
Ġeligible	18521
Ġpack	18518
]{.	18512
itude	18510
ĠNor	18508
ĠFour	18507
osh	18500
Ġerred	18499
nat	18496
ester	18495
kr	18492
Ġarmed	18492
ĠIndex	18491
Ġunusual	18487
ols	18484
erate	18483
Ġaltered	18483
ĠNevertheless	18476
Look	18475
Ġacceptable	18475
Ġru	18472
Only	18471
LU	18470
Ġeffectiveness	18470
Ġbreach	18467
Ġ$-	18462
ĠBeach	18460
gging	18459
Ġearned	18459
uo	18457
tron	18456
Ġpreliminary	18452
Three	18448
ock	18447
ĠâĢ¢	18445
Ġshoot	18445
ication	18442
emic	18441
Ġstruck	18440
ĠPatent	18439
115	18434
Ġwake	18431
Ġconsistently	18431
sie	18428
underline	18423
STR	18419
ĠTu	18419
Ġunclear	18416
ĠTHIS	18416
ĠRyan	18416
ĠPoint	18410
Ġbin	18409
Ġskill	18406
Reg	18404
Menu	18404
Ġoccurrence	18403
negative	18402
Ġsessions	18395
Ġwound	18393
Ġvisited	18393
Ġmatrices	18393
Ġvoting	18392
-------	18390
Ab	18388
}}(\	18387
Interface	18387
Ġprecision	18386
ĠLtd	18384
Ġguidance	18378
Ġmirror	18371
Activity	18368
RG	18364
čĊĉĉĉĉ	18364
OA	18361
Ġtract	18360
Ġfacilitate	18358
Ġatom	18357
rx	18354
ĠPython	18352
«	18349
Ġnormalized	18348
ĠNY	18348
Ġinline	18346
Ġperceived	18339
HI	18338
210	18336
Ġpacket	18335
Ġtracking	18329
Ġmolecule	18327
Ġending	18327
ĠMal	18327
Ġsmile	18325
Ġeverybody	18325
Ġimp	18323
Ġregistration	18322
Ġawait	18319
component	18318
Ġarrangement	18316
ody	18315
Ġtank	18312
lton	18305
$]{}	18305
126	18302
Ġarc	18302
Ġ\"	18298
nb	18296
Ġspiritual	18296
UC	18294
Ġlights	18294
}.$$	18289
sher	18288
nger	18285
oes	18278
Ġkm	18278
Bs	18277
Ġangular	18276
pack	18269
leg	18266
tant	18265
Ġease	18261
!)	18260
Ġ"/	18260
ater	18258
KEY	18256
Ġhonor	18256
Ġshopping	18254
Phys	18252
ota	18251
Ġpas	18251
ĠColorado	18251
Ġhadn	18250
yp	18248
iser	18248
ĠWT	18240
Ġsteady	18235
Ġidentifying	18235
Part	18234
Ġluck	18233
Ġcomplexes	18232
350	18231
face	18229
Ġph	18226
Ġrep	18225
Ġattractive	18224
Ġrarely	18222
help	18220
Ġrandomly	18219
Ġtreating	18215
Ġruled	18213
ĠAL	18213
Ġattended	18207
Ġinstitution	18206
interface	18201
Ġabstract	18201
ĠIreland	18201
BT	18199
ark	18198
TY	18196
Ġpromising	18196
"));	18192
thy	18187
Ġchildhood	18184
Ġlab	18181
ander	18180
Ġshorter	18178
Ġpoliticians	18176
Ġtape	18175
Ġdesigns	18175
place	18170
ĠSteve	18168
Num	18167
ĠMaster	18167
à¤	18165
anna	18165
Ġaging	18165
ĠUnfortunately	18162
ĠJews	18161
Ġultimate	18160
ĠMax	18160
Ġ\#	18157
tur	18155
omas	18154
abe	18153
ĠArizona	18152
flags	18149
Ġintegrity	18148
Ġvital	18142
Ġtransportation	18142
ĠAgreement	18137
Ġviolent	18136
wedge	18135
Ġtips	18129
mr	18128
oms	18124
Ġchemotherapy	18122
save	18120
Ġpointer	18120
ect	18118
Ġbunch	18117
DNA	18115
multi	18114
TB	18114
Ġwashed	18111
nr	18107
Ġclause	18107
Ġpregnant	18103
Ġdeeply	18100
Ġultra	18097
Ġoxide	18097
Ġ+/-	18097
names	18096
inate	18096
Ġlifetime	18096
Ġ$[	18095
ĠPS	18094
Ġ600	18091
Ġsentencing	18090
fb	18086
Ġcollective	18085
}}_{\	18081
Ġ--------------	18081
EQ	18080
lian	18079
Ġconcepts	18075
Ġ['	18075
stage	18074
Ġhybrid	18073
--------------	18072
Ġlip	18072
VC	18071
ĠMP	18070
dies	18067
ĠFrank	18067
security	18063
ĠJSON	18062
Ġ180	18059
Ġharder	18056
Ġlymph	18053
pic	18051
ĠWood	18042
ĠStudy	18042
LM	18040
shift	18036
Ġwet	18035
cases	18033
Ġsurvive	18030
Ġeverywhere	18030
ours	18028
fp	18025
Ã©s	18020
Ġforever	18014
Ġresidues	18013
AX	18009
ĠFamily	18007
join	18006
Ġlabels	18005
`,	18000
sur	17996
Ġamended	17996
Ġjson	17994
oxy	17993
ulated	17990
rev	17985
Ġallegedly	17984
hood	17978
Dialog	17975
NK	17970
DATA	17969
[**	17961
ĠRep	17960
Ġpaint	17959
Ġdisabled	17957
Ġbirds	17957
screen	17955
language	17953
Body	17952
Expression	17951
Ġphases	17951
Ġ=\	17945
actions	17942
ALL	17939
aria	17938
Ġretain	17935
MF	17933
enn	17928
hspace	17926
Ġpipe	17923
ION	17920
Ġfunny	17920
ĠCancer	17916
Ġ1983	17916
Ġ----	17913
1996	17911
Ġdoctrine	17911
ĠUV	17907
ĠMass	17907
alo	17903
Ġnewspaper	17900
Put	17899
sar	17898
OV	17896
rial	17892
Ġcomputing	17892
Ġcampus	17890
ĠÑģ	17883
Ġfabric	17879
ĠRA	17879
Edit	17878
ĠSen	17874
analysis	17871
made	17868
Ġcurrency	17868
fields	17864
ĠVol	17863
ente	17861
Ġ('	17857
Ġcrash	17853
Record	17852
]}	17850
Ġmonthly	17846
MOESM	17844
ĠSeries	17842
Hello	17841
Ġdoors	17838
FB	17837
ĠSeveral	17832
Ġutilized	17830
ĠTrust	17830
Ġva	17828
Ġrepeatedly	17828
Th	17827
sample	17825
Ġlegislative	17823
phone	17811
Ġflavor	17810
nk	17808
ĠAbout	17799
Background	17797
Ġenemy	17793
Ġbottle	17790
Run	17787
Ġwrites	17787
Ġaccompanied	17782
Ġmixing	17780
lio	17779
Ġdiscover	17779
Ġpepper	17778
zen	17771
Ġexhibited	17768
Ġbankruptcy	17768
aws	17766
iles	17763
wn	17762
ĠLove	17761
Ġjoy	17760
gram	17757
ril	17756
-------------	17756
Ġviolated	17751
Ã	17748
Ġarranged	17748
AO	17746
Ġreporter	17746
Ġlying	17746
gra	17740
eff	17740
anc	17740
aga	17738
esh	17737
aff	17737
Ġpatch	17737
NR	17732
perp	17731
1997	17730
oper	17729
202	17725
Ġsport	17723
iler	17721
aining	17718
Ġpulmonary	17716
ĠAp	17715
Ġvessel	17712
dn	17709
Ġenvironments	17709
Ġchecking	17709
Ġcoli	17707
connect	17706
Ġforest	17706
fx	17702
Comp	17697
Col	17696
---------	17696
Ġresidence	17695
adi	17692
OX	17692
etc	17688
Ġsurveillance	17688
Ġfitting	17686
ĠHistory	17681
Ġbread	17680
hom	17678
349	17678
014	17677
kl	17673
Ġoccurring	17670
Ġmitochondrial	17668
240	17661
ĠBitcoin	17661
ĠForm	17660
ĠDaniel	17659
ĠChi	17658
Ġreveals	17651
Ġ109	17647
Down	17644
Ġlanguages	17644
00000000	17642
-----------	17642
----------	17642
Ġdiv	17640
ĠBob	17640
ote	17638
ĠMer	17637
ĠSpain	17636
sort	17634
hep	17633
Ġtopics	17632
Ġstudying	17632
Ġlift	17631
Ġeq	17630
Ġphilosophy	17621
ãĥ¼	17619
Ġdisagree	17619
install	17616
.*]{}	17615
Ġvoted	17613
Ġreadily	17613
Ġpropose	17612
fit	17611
Ġdeclined	17605
Ġscalar	17602
Ġrecovered	17596
Ġperception	17591
BF	17590
Ġadjust	17590
ÎĶ	17585
Ġsupporters	17582
ī	17576
ulate	17576
124	17574
Ġ(@	17570
118	17566
cam	17558
Ġreversed	17558
alism	17554
atr	17548
May	17546
Ġpanels	17546
Ġderivatives	17540
Identifier	17539
ĠKingdom	17538
Ġ1986	17538
RL	17535
ĠAgain	17532
Ġri	17531
Ġ128	17531
}})	17518
kel	17516
ĠIslam	17514
Ġunlike	17513
Ġdefects	17513
Ġdoses	17511
gene	17510
draw	17510
ĠDue	17509
Ġinterpreted	17508
Ġembedded	17508
Ġtransactions	17498
users	17497
ĠRegister	17491
itation	17490
cri	17490
Ġsn	17487
bro	17485
Ġtrauma	17484
Ġcorrelations	17481
avi	17479
HT	17477
Ġmere	17477
Ġsouthern	17476
Ġ106	17474
Ġstellar	17469
Tool	17466
Ġsole	17463
cen	17459
Ġputs	17457
asm	17455
Ġtroops	17448
hard	17444
AH	17443
Ġliked	17442
ĠEastern	17442
rows	17434
Sort	17433
Ġcholesterol	17428
Ġ<!--	17423
ĠMethods	17422
Collection	17419
Ġblow	17419
ĠÂĹ	17418
COM	17412
*~*	17406
Ġfibers	17403
Ġdiscrete	17403
ologically	17395
Ġduties	17394
Ġprinted	17393
instance	17389
pad	17388
aker	17388
Types	17388
Ġjail	17387
pat	17385
Ġtensor	17384
rec	17383
Ġsystemic	17383
ĠMed	17383
Ġ105	17378
Ġprominent	17377
-,	17373
ĠMap	17373
SW	17372
Ġprosecutor	17370
013	17364
Ġarise	17361
133	17358
Ġlabeled	17357
random	17355
por	17354
Ta	17354
border	17353
Ġrating	17350
Ġcooling	17349
ologists	17346
lli	17346
esis	17345
Vs	17344
Ġexciting	17344
144	17340
ull	17339
temp	17339
Ġtone	17339
Ġauthorized	17338
Ġnorthern	17335
essed	17333
Ġevident	17330
ĠLand	17324
Ġactor	17317
pool	17312
Ġexpressing	17312
121	17308
Ġinfluenced	17305
ante	17302
Ġillustrated	17301
tm	17299
Ġ1987	17298
ago	17297
:=	17297
ĠWARRANTIES	17297
Ġassociations	17296
rig	17295
Ġfoo	17294
ĠReg	17294
Windows	17293
;\	17293
fun	17291
ĠChildren	17286
nen	17285
.).	17284
Ġcourses	17282
uni	17281
bn	17279
Ġgained	17275
ĠAlex	17275
category	17273
rl	17272
resource	17272
rons	17271
Ġprinting	17271
SV	17268
ectomy	17263
Her	17261
oto	17259
Ġisolation	17254
lah	17251
1995	17251
Ġraising	17249
Ġpending	17249
Ġphenotype	17248
aut	17246
KS	17246
ĠALL	17242
req	17238
pf	17236
Ġattitude	17234
delete	17233
dist	17230
eni	17228
him	17226
Ġloans	17217
yt	17216
Ġconnecting	17212
hal	17211
ously	17210
plugin	17207
Ġvalidity	17204
Ġinspired	17204
SG	17202
Multi	17201
Have	17200
translation	17199
Ka	17198
Ġtension	17192
136	17190
ĠHave	17190
United	17186
oned	17181
Ġserial	17181
Ġexcessive	17178
profile	17175
Ġgalaxy	17173
222	17168
.:	17163
ont	17161
TN	17161
JS	17160
Ġga	17156
Ġtens	17152
Ġhopes	17149
Ġsomebody	17145
Ġpitch	17144
idx	17139
Ġprosecution	17138
ories	17137
Ġignored	17137
ĠImages	17135
uid	17133
Ġinvariant	17129
ĠMiss	17127
Ġcontacts	17126
ĠPacific	17126
ĠCe	17126
450	17125
Ga	17120
Ġawesome	17120
[$	17118
Ġguest	17117
Ġpos	17111
¢	17109
Ġtolerance	17109
Ġresonance	17109
Ġrad	17106
|-	17100
because	17100
ility	17097
Ġmagic	17096
ego	17091
ĠThird	17091
_,	17086
Var	17086
Ġdenotes	17085
Product	17082
shi	17081
ĠPath	17076
ĠSM	17072
dem	17068
Ġcardiovascular	17068
Ġshit	17061
Ġpreventing	17061
Ġphosphorylation	17059
Ġmar	17057
aire	17056
ĠWithout	17046
Ġtradition	17044
Ġequilibrium	17042
Ġhtml	17036
ĠAgency	17036
Ġglad	17034
Ġtransmitted	17032
licenses	17027
Ġestimation	17026
ĠMatt	17026
Ġ["	17025
Ġliterally	17022
Ġhypo	17015
cil	17014
ĠZealand	17013
pur	17010
Reader	17009
ister	17008
orn	17006
ĠSte	17000
Ġedit	16998
Ġstretch	16997
Ġprospective	16995
Ġpartition	16994
Ġ(%)	16991
Ġembodiment	16988
Ġeliminate	16988
Ġpounds	16987
Ġcombine	16986
129	16985
ples	16984
forall	16984
ici	16982
čĊĠĠĠĠ	16982
Ġdiffusion	16979
Ġfactory	16976
ĠÂ¶	16975
WA	16974
cit	16962
Ġgenuine	16962
Ġswitching	16960
oplus	16950
Ġpublicly	16950
Ġgravity	16945
(){	16943
eda	16939
Ġovernight	16936
Ġtonight	16935
iated	16934
ello	16932
TG	16928
Ġconstitution	16927
mbo	16926
Ġfore	16926
craft	16924
pol	16923
ĠJe	16923
javascript	16921
Ġdysfunction	16920
Ġelectricity	16916
being	16915
mask	16911
Ġregulated	16908
Ġworried	16907
lands	16905
Ġ103	16903
Ġphysically	16902
Ġobesity	16902
\{\	16899
107	16898
very	16896
Ġamendment	16892
)</	16891
super	16888
Ġreg	16886
Ġdifficulties	16885
ĠSU	16885
030	16882
Ġdestruction	16873
Ġdelayed	16873
Ġboxes	16872
Ġspecificity	16871
Ġaggressive	16870
ĠAnderson	16867
Each	16866
ova	16864
Ġdenial	16860
Ġassumptions	16857
ĠSha	16857
tie	16856
ĠDid	16856
gin	16853
º	16850
Ġepisodes	16850
ĠCS	16844
iate	16842
Ġblame	16838
135	16836
sil	16831
Ġfounded	16829
Ġpoverty	16827
wards	16826
wp	16822
uh	16821
xed	16819
GB	16816
Ġpolar	16816
ĠConsequently	16812
Params	16808
Ġsearching	16807
DER	16804
nal	16803
Ġattributed	16803
Show	16797
sem	16793
\#	16789
ĠGames	16788
energy	16785
Ġnorm	16785
ifies	16783
rte	16782
Param	16781
Ġhardly	16779
Ġwireless	16778
ĠCha	16778
ĠHead	16771
Ġjet	16768
Ġacknowledge	16768
Ġsynthetic	16767
aus	16765
ĠOct	16765
degree	16764
Ġdisplays	16764
uan	16763
204	16759
ograph	16755
License	16755
overs	16749
EI	16749
Ġinverse	16748
Ġblocked	16748
ĠBer	16745
Ġcompatible	16744
Ġabortion	16742
Ġcoal	16741
nian	16739
ĠBan	16738
Ġarg	16736
_>	16734
ĠIowa	16730
assertEquals	16726
Ġpy	16720
Ġhits	16720
vid	16719
ĠVer	16712
Ġflags	16710
ĠWITH	16709
pose	16707
ĠPerhaps	16707
Ġrevolution	16702
bio	16697
Ġpace	16697
Ġbeliefs	16695
ĠProfessor	16691
ĠBell	16689
ille	16685
Ġrescue	16685
;">	16683
512	16681
-$	16678
Ġoven	16673
Ġpermissions	16667
++;	16665
grid	16663
RV	16659
}$$\	16657
Ġsand	16657
lac	16656
Ġpartnership	16655
Ġenables	16644
ĠSanta	16641
Ġobtaining	16638
also	16636
Ġ1985	16636
Ġaffecting	16635
Ġvisits	16634
Abstract	16630
Ġgenerator	16622
oll	16621
Ġdefend	16621
Maybe	16620
ĊĊĠĠĠĠĠĠĠĠ	16620
ĠMad	16616
®	16615
plot	16615
diff	16615
Ġgotten	16613
ria	16612
Ġ{@	16604
Ġdad	16604
Additional	16601
edit	16588
Ġicon	16588
Ġ130	16587
Ġdifferently	16583
Ġdefect	16583
terminal	16582
Values	16581
modules	16580
Ġguns	16579
inn	16577
ĠSpecifically	16571
amb	16570
$^{-	16570
Ġweights	16566
mont	16565
Ġdescribing	16563
nz	16561
Ġbehaviors	16557
good	16556
colon	16556
Ġtill	16555
asa	16549
amide	16548
Ġreflects	16547
enable	16545
python	16539
Ġfits	16538
aki	16528
Items	16528
Ġfunctionality	16522
Ġdemocracy	16522
Ġasks	16521
zo	16520
Ġsir	16517
sons	16515
Ġbearing	16514
inated	16512
Ġfilling	16512
Ġdesignated	16510
Ġbatch	16510
Ġdeals	16507
}}}$	16506
Ġcommands	16506
ired	16503
erg	16503
Ġcallback	16501
ĠColumbia	16499
mag	16495
ĠGO	16494
213	16493
Ġunderwent	16493
Ġroof	16491
Ġclinic	16490
ĠAdditional	16486
variant	16485
Ġjuice	16485
ĠMinistry	16485
wal	16483
Ġselective	16481
Ġpredictions	16480
Ġpolynomial	16479
Ġtrends	16478
Ġinvestigations	16477
Ġagenda	16474
Ġequality	16472
rse	16469
Ġinterviews	16469
TING	16465
ĠDA	16464
ĠEC	16462
party	16456
Ġshoes	16456
Ġmaximal	16455
nam	16454
ĠDM	16450
ĠčĊ	16449
ĠBase	16446
Ġprogressive	16443
ĠJordan	16443
Ġemphasis	16439
NG	16438
ĠRather	16436
)}{\	16434
night	16433
ĠFA	16433
Operation	16431
tb	16426
Ġbroadcast	16426
Today	16424
ĠArray	16421
MAN	16420
Ġtexture	16420
dam	16418
ĠJim	16416
Ġbreaks	16411
Ġretail	16410
ĠLan	16406
Ġprogramme	16405
ĠKu	16400
ĠWal	16398
ĠFalse	16398
122	16387
ĠStill	16387
Ġpython	16386
Ġsegments	16385
Ġkick	16384
sion	16377
Ġlistening	16373
Handle	16369
ĠAward	16368
Ġgear	16362
Ġmortgage	16361
Ġweekly	16360
Ġfitness	16357
hers	16356
edo	16355
kind	16350
Ġcombat	16350
ĠChe	16346
aud	16345
RES	16345
alist	16343
1994	16342
Ġdetector	16336
Ġfarmers	16334
ben	16330
Par	16326
âĢ¯	16325
Ġconspiracy	16324
Ġxmlns	16321
Ġbet	16316
awa	16314
ĠTitle	16314
Ġdy	16313
idine	16312
Ġhypertension	16309
ually	16308
Ġfocusing	16307
ĠDesign	16307
Ġboundaries	16299
Ġinserted	16297
while	16296
vent	16296
ĠSupport	16292
Ġms	16289
your	16286
Ġintellectual	16281
Grid	16277
ĠBC	16276
Http	16271
Ġbid	16271
1993	16268
Ġattempting	16268
Ġpm	16262
'(	16261
ĠSciences	16261
EG	16254
Ġvariant	16253
sca	16252
hol	16252
ined	16250
023	16247
Ġangry	16246
ended	16244
Ġvertices	16244
PB	16243
Ġphrase	16243
Ġinsight	16243
+^	16242
xf	16240
Ġchi	16234
Ġfavorable	16230
derived	16226
cn	16225
Qu	16225
cus	16224
946	16224
rna	16222
iac	16222
Ġindices	16222
Ġconsciousness	16220
.\[[@	16218
Ġcomputers	16218
Ġconfident	16211
iro	16207
Convert	16207
Ġadapted	16207
Case	16205
Ġapps	16205
Ġsw	16204
å	16198
Ġ1984	16198
rative	16197
Ġrendered	16196
Ġregulate	16193
Ġintracellular	16192
EO	16191
Ġsauce	16191
Ġterrible	16188
Ġphysicians	16188
Ġvaried	16187
sive	16184
fix	16183
ĠFord	16181
tam	16180
release	16178
iant	16175
Ġexclusion	16173
tts	16170
Ġ125	16169
Ġconvenient	16168
Ġchocolate	16163
Ġfatty	16162
Ġaims	16153
Ġcombinations	16152
Ġdeeper	16150
ĠGreek	16150
Ġedition	16147
'>	16143
Ġreflection	16141
ĠBrazil	16141
oun	16137
ĠLow	16134
oral	16131
Ġsettled	16129
uma	16127
Ġune	16124
ĠMat	16122
Ġfunded	16118
Ġfragment	16116
Ġnegligence	16114
Child	16111
Integer	16110
040	16110
eron	16106
Ġ$.	16106
../../../	16105
sent	16104
Ġrestaurants	16104
Ġintense	16102
Despite	16100
)_{	16098
$).	16096
Ġpeaks	16094
Ġdates	16092
ĠMicro	16091
Ġsuspension	16089
eries	16087
Ġmatched	16085
Ġlimiting	16084
rod	16082
Ġslight	16082
password	16080
MENT	16080
bat	16077
wave	16076
()->	16076
Ġretirement	16076
Ġdisclosure	16076
čĊĠĠ	16075
tical	16074
Ġcollapse	16072
Callback	16071
chain	16069
anger	16069
Ġquantities	16065
aze	16064
Ġepithelial	16063
Ġmagazine	16060
âĢ²-	16059
Ġprejudice	16059
)}(	16057
Ġrail	16057
ppy	16054
Second	16051
Process	16050
Ġblind	16050
Ġ108	16043
155	16042
ĠVe	16039
Ġtransparent	16038
sun	16034
aver	16029
Ġconsensus	16028
ĠCPU	16027
ĠGC	16020
simeq	16019
stin	16018
Chapter	16017
Ġscoring	16017
ĠTen	16017
Ġink	16016
ĠCount	16016
165	16015
333	16014
Ġbreakfast	16011
143	16005
ĠCall	16005
nutrients	16002
rou	16000
own	16000
lia	15999
gle	15998
ĠGi	15998
Ġchoosing	15997
?)	15995
Ġvulnerable	15995
Ġfingers	15987
human	15986
_{-	15986
Ġscaling	15981
Ġsatisfying	15980
igo	15979
Global	15979
Ġlawsuit	15979
Bytes	15978
Ġje	15977
\;	15974
Ġmanually	15974
phenyl	15969
ĠTim	15969
ĠRound	15969
Ġpreferably	15967
ĠAccess	15966
Ġdamaged	15965
ires	15963
Ġquote	15961
Ġdollar	15960
seq	15959
CODE	15958
Ġinterpret	15943
oin	15942
Ġstrictly	15942
dre	15941
lower	15940
Ġrepresentations	15939
LOG	15937
Ġlikes	15937
Gs	15935
lated	15932
Ġphysiological	15926
Ġholiday	15926
Ġdans	15925
ude	15922
auth	15922
Ġlateral	15917
NF	15914
Ġsupplies	15910
Ġdeveloper	15910
ĠSta	15909
""	15908
Ġbelong	15908
Ġlegitimate	15903
ĠCommonwealth	15903
OU	15902
Ġwondering	15902
margin	15897
live	15896
bibr	15890
1990	15888
Ġresidual	15888
Ġ+\	15888
Ã©e	15886
ckle	15880
Ġshots	15880
nus	15879
Ġcry	15879
ially	15877
HL	15876
register	15874
ĠHD	15874
Ġisolates	15873
ĠPBS	15873
Ġbounds	15870
ival	15868
ĠOp	15868
ĠLittle	15867
âĢĻ.	15866
211	15866
thread	15863
.",	15861
printf	15859
REG	15859
zone	15857
sized	15856
vt	15851
ĠPlace	15850
utils	15847
items	15846
admin	15845
kins	15842
Ġpushing	15842
320	15841
Ġtranscript	15839
queue	15838
alis	15838
ove	15837
Panel	15837
025	15834
Ġvo	15834
wo	15833
ĠBook	15832
thr	15831
aux	15828
Ġvisitors	15828
Ġions	15825
Ġentities	15825
SQL	15824
spo	15823
ANT	15822
regulated	15821
ĠRun	15818
212	15816
ĠJu	15815
Ġassistant	15813
Ġreputation	15812
ĠSir	15811
FO	15810
Ġhip	15810
ĠParliament	15809
Ġobjection	15803
ĠMinnesota	15803
>"	15797
Ġviruses	15797
println	15794
Ġlogical	15791
Ġbills	15791
Ġass	15791
HP	15790
čĊčĊĠĠĠ	15786
uation	15785
Ġtied	15784
NULL	15781
Ġdeposition	15777
Ġpeer	15776
,[	15774
ifications	15770
Ġob	15765
ued	15764
nj	15763
---------------	15762
ĠSoviet	15761
selected	15757
Ġcert	15754
ĠMC	15752
Â³	15751
Ġ***	15751
Ġ"<	15749
eum	15745
Ġloose	15744
tv	15743
TEST	15743
nation	15739
ĠHA	15739
ĠBible	15739
134	15737
Ġparse	15737
take	15729
forms	15727
Ġ\|	15727
doi	15726
141	15724
tten	15722
ĠProperty	15719
Ġemerging	15716
Ġnucleus	15714
ãĤĴ	15712
Ġreferring	15711
Ġposterior	15710
Ġja	15710
Ġequipped	15710
Ġjournal	15709
ĠAdam	15709
Helper	15706
rator	15704
Has	15703
050	15703
nil	15702
USE	15702
Ġxe	15701
bled	15698
ĠTurkey	15697
bind	15696
bles	15695
Ġinquiry	15694
ĠGaussian	15691
pop	15684
Photo	15682
Ġpocket	15677
ASSERT	15675
Ġcertificate	15675
isc	15674
pg	15673
ĠTax	15673
ĠAssembly	15672
nth	15671
ĠPHP	15671
dg	15670
,_	15670
Widget	15669
ĠArticle	15669
################	15668
Ġcavity	15666
Ġgrass	15665
Ġdeficiency	15661
ĠCL	15660
UD	15655
rÃ©	15652
Discussion	15651
ĠCambridge	15651
Ġterritory	15650
Ġsensors	15650
Ġtoxicity	15647
ences	15642
Ġdeny	15639
tg	15637
cio	15637
Ġplatforms	15637
Ġoxidative	15635
Round	15634
ÑĤ	15630
Ġinvited	15629
`.	15628
Ð½	15627
widget	15627
Ġarrive	15626
Ġvessels	15623
equ	15620
Ġbirths	15620
watch	15619
Enabled	15619
Ġpromised	15618
fall	15616
verse	15615
lla	15615
Ġchains	15615
Ti	15614
Json	15613
thi	15611
tta	15610
017	15610
Ġframes	15606
spe	15605
)^{\	15605
Ġextending	15605
Ġsaving	15602
Ġmuscles	15602
Ġdefining	15602
views	15601
posed	15600
nit	15598
ĠUnless	15597
ĠNF	15597
Ġhealing	15596
Ġodds	15595
Ġpipeline	15592
Ġparticipated	15590
Ġmodeling	15589
Ġagreements	15588
~\	15587
ĠLewis	15587
µ	15585
wiki	15584
Ġcontest	15584
lable	15583
iti	15582
Ġhighlight	15581
Ġdance	15578
Ġobligation	15574
ĠRadio	15572
Cu	15569
Ġhy	15567
Ġrent	15566
Ġbaseball	15563
~*	15562
ĠHamiltonian	15562
Adapter	15557
ĠYeah	15557
idi	15553
enti	15552
Ġinjected	15548
Ġtired	15545
Ġaccurately	15543
Ãł	15539
linux	15538
({{\	15536
018	15535
Return	15534
Ġbehavioral	15532
Ġencounter	15531
Ġmat	15530
Ġfr	15530
General	15529
dos	15528
Ġpreserve	15525
Ġnobody	15525
ĠPan	15525
Ġsuspected	15521
press	15520
ense	15516
Ġinflation	15515
ãģ«	15514
GM	15513
Ġestablishment	15512
nf	15511
Ġimpressive	15511
203	15509
ĠIndiana	15509
Ġml	15508
Ġfe	15507
Ġ140	15506
}}}_	15503
Ġregarded	15503
Ġ|\	15502
Ġnavigation	15500
Ġtech	15496
Ġcortex	15496
round	15495
Ġdense	15493
ĠDefense	15492
Ġexpense	15491
Ġwedding	15490
ĠAfghanistan	15490
Â§	15485
Ġlease	15482
Ġdeemed	15481
Def	15479
Ġplugin	15479
ships	15476
Custom	15475
Ġsuspended	15473
erm	15472
Ġbl	15472
ĠAndrew	15460
Option	15456
175	15456
<<	15455
ĠToronto	15455
Ġresistant	15454
Ġtalent	15453
Ġresident	15452
Ġstayed	15451
hd	15448
Ġreliability	15444
century	15442
ĠKorean	15437
Ġarising	15434
Ġpromoting	15433
pine	15432
irs	15431
keys	15430
plus	15426
ĠBridge	15424
ume	15423
Ġ"#	15419
fish	15417
Ġindication	15417
Ġcomparisons	15416
Ġelectrons	15415
enter	15413
ĠTown	15411
exec	15410
Ġassign	15410
inch	15408
Ġmicroscopy	15408
Ġvol	15407
Ġdish	15407
Ġgenomic	15406
~)	15403
BM	15403
Ġendothelial	15401
Changed	15400
Ġelderly	15400
ulating	15399
)^{-	15399
bon	15395
Ġnu	15395
Ġadjustment	15395
VF	15394
once	15390
$^{	15390
Ġmanifest	15388
omi	15386
ĠLibrary	15385
Ġartificial	15382
Ġenergies	15375
tum	15371
imi	15371
Ġpersonality	15370
022	15369
Root	15365
Ag	15364
ĠDaily	15364
Ġdemonstrates	15363
Ġlifestyle	15357
Ġbranches	15356
Î¼	15353
rn	15351
RK	15345
Ġspots	15341
Ġarrival	15340
through	15339
cycle	15338
Ġexisted	15337
Ġdistances	15333
Ġthreats	15331
Ġparagraph	15331
xing	15329
lying	15329
Ġinputs	15328
Ġdefinitions	15325
ĠWil	15323
ank	15322
Ġsuppression	15322
ington	15321
Ġengagement	15320
ained	15319
ĠHouston	15319
Ġstrip	15316
Ġdefeat	15314
.[]{	15313
bigg	15311
Ġinhibited	15311
Ġvariability	15305
Ġpointing	15300
ĠTri	15299
Ġvisiting	15298
ometer	15297
Host	15297
ih	15296
Ġresist	15296
Active	15295
Ġdocumented	15295
actor	15291
Ġ1981	15291
Ġmeaningful	15286
ĠSystems	15286
cre	15285
Ġgovernor	15282
ĠEr	15280
WE	15278
gas	15274
Ġtends	15274
rier	15267
Ġranges	15265
Ġsatisfaction	15262
cular	15260
bx	15260
Ġhandler	15260
Ġwarranty	15259
$_{	15256
Ġlibraries	15255
Ġrough	15253
Ġ---------------	15251
Ġreply	15248
1992	15247
Ġtall	15245
Ġdistinguish	15244
Ġminority	15240
Ġorbit	15238
roll	15234
PN	15233
Ġclosure	15231
bble	15227
Ġpunishment	15227
ĠLC	15224
Ġconfusion	15222
*=	15220
Ġyeast	15219
Ġuni	15219
activity	15216
Ġcomplaints	15216
Lu	15215
Ġcapabilities	15215
Ġheaded	15214
hit	15210
153	15209
Ġgray	15207
rations	15205
ĠQueen	15205
norm	15199
Ġnose	15199
Ġdecimal	15198
ĠMod	15198
lad	15197
Ġnitrogen	15194
Ġcor	15194
Ġuptake	15190
mM	15187
ĠHR	15187
lings	15186
'],	15181
cross	15178
Font	15178
ĠMoore	15176
Ġthirty	15175
utter	15174
rule	15174
Ġalongside	15174
sv	15171
138	15171
ried	15168
ĠSaudi	15168
Ġ&=&	15167
iring	15164
erated	15156
WS	15156
CONFIG	15156
Ġemerged	15155
mov	15154
Ġoccasion	15154
ĠLy	15153
court	15147
Ġsurprising	15146
iq	15145
force	15145
Ġdenying	15145
ĠmL	15144
Ġsuggestions	15142
fed	15136
Ġfake	15135
1991	15128
230	15125
ager	15123
ĠEgypt	15122
World	15118
ERR	15115
Ġpad	15115
ĠInterestingly	15114
2020	15113
Ġpassion	15112
amm	15106
yne	15102
Ġparticipant	15102
216	15101
221	15100
Ġdental	15098
ipe	15097
pri	15095
ĠNode	15095
152	15093
*\	15092
tary	15090
Ġfaculty	15090
Ġ1960	15088
Take	15085
ike	15081
Load	15081
shell	15080
Ġpreparing	15079
Ġcompete	15078
owned	15077
ocytes	15077
ĠChar	15075
UM	15073
ĠPlay	15071
ĠHz	15069
Ġinduces	15067
spin	15066
rence	15066
hil	15066
GI	15064
KA	15063
oking	15061
apa	15061
dest	15059
erd	15057
Ġhall	15057
./	15053
tom	15050
Ġfinance	15046
chr	15044
0010	15043
Ġlandscape	15043
yu	15042
Ġwinner	15042
Ġweird	15040
Ġ111	15039
Ġtransformed	15038
uit	15036
ĠNu	15035
Ġcollaboration	15032
{{{\	15031
ĠRoman	15029
Ġheading	15028
sten	15026
eqn	15026
Ġvirtually	15024
wt	15023
)\\	15023
lz	15020
Ġbasketball	15020
Ġhosts	15019
Ġslide	15018
elt	15016
162	15016
hole	15015
Ġ'\	15008
switch	15004
Ġbases	15004
tha	15000
ĠSports	15000
Pos	14997
ĠNations	14996
VM	14995
ĠPhoto	14994
forming	14993
Ġpotent	14993
Properties	14989
*(-	14987
Ġtrail	14984
ELL	14982
Ġwelfare	14977
Ġclaiming	14977
ĠNC	14975
caps	14973
Ġasset	14969
yard	14968
Equal	14968
Ġticket	14968
Ġneo	14968
Ġir	14965
ĠMAP	14964
erable	14962
ACT	14960
à®	14957
Ġconstraint	14957
Ġreceives	14955
Ġpossess	14955
Ġblocking	14953
Ġrespondents	14949
Ġpur	14948
btn	14947
Ġstomach	14945
Ġcoronary	14945
ĠGl	14945
onia	14943
Ġ160	14942
ws	14940
},$$	14939
Ġprobable	14939
Ġev	14937
Based	14935
ĠVal	14932
Ġlocked	14930
Ġfrozen	14929
Ġlongitudinal	14926
complete	14918
edi	14912
{%	14908
hel	14902
İ	14899
UE	14898
Ġcomm	14897
omes	14896
ishing	14893
ĠHor	14892
stable	14890
137	14890
Ġrecurrence	14890
Ġcommunicate	14890
Ġchances	14889
Ġaffirmed	14889
0000000000000000	14887
ICE	14885
ĠShould	14885
Ġprotocols	14882
Ġoptimization	14875
Ġ112	14875
Ġadapt	14874
formed	14873
Â¤	14869
mental	14867
bits	14866
Ġhistoric	14865
142	14864
ĠSilver	14863
Ġconstants	14862
move	14861
Ġfiscal	14861
Ġdecomposition	14861
oul	14860
ĠStat	14860
models	14859
Rect	14856
oj	14851
ĠÎĶ	14851
Ġorange	14851
ĠCommissioner	14850
Ġwavelength	14847
Ġ''	14847
Ġsubgroup	14844
Ġcultured	14843
ention	14838
Delete	14837
Ġneur	14837
Report	14834
Ġshortly	14834
Ġblank	14834
impl	14833
ifdef	14833
ãģ	14831
settings	14829
Ġpleasure	14827
Ġparams	14825
Ġanger	14825
\!	14824
Ġappreciated	14824
Ġum	14823
Ġcircular	14822
Ġsudden	14820
Ġdetermines	14819
Ġtimely	14817
145	14815
Ġflour	14814
lessly	14813
alle	14813
Ġalt	14813
ÃĲÂµ	14812
DU	14812
190	14811
Ġdonor	14811
Ġ255	14809
Ġjustify	14806
Ġdistinction	14806
ĠOff	14805
risk	14801
chy	14801
Full	14800
Ġgrain	14799
Ġsolved	14797
Ġappointment	14795
206	14787
tho	14784
Definition	14781
Ġsilicon	14780
Ġmembership	14779
OG	14778
Ġbleeding	14776
iest	14775
tons	14771
Ġcookies	14769
Ġefficiently	14767
gathered	14764
Ġmutants	14764
Both	14761
Ġlocalization	14761
stic	14760
Ġthrown	14757
Ġcriticism	14757
Ġpursue	14756
Ġsecured	14755
nda	14753
Ñı	14751
tage	14751
ĠTHAT	14747
ĠBal	14743
Ġboot	14742
pn	14741
hbar	14739
ogram	14737
Ġtags	14735
ĠHarris	14735
Ġgross	14734
Ġdr	14731
Ġthreatened	14730
Ġreward	14729
Ls	14722
vascular	14721
Ġcustody	14720
Ġmemories	14719
ately	14717
Ġbat	14716
oses	14714
angle	14714
ãģĦ	14712
Ġstimulus	14708
750	14706
tia	14705
structure	14701
Ġhu	14700
Ġsilent	14699
etal	14698
Ġstriking	14696
Ġreplication	14695
rw	14692
Ġnp	14689
News	14688
Ġoptional	14688
Ġearn	14688
156	14681
Ġsuppress	14681
Ġabnormal	14681
Ġanybody	14680
than	14679
ady	14677
Every	14675
DG	14675
ĠPO	14675
Ġcancers	14672
Ġcord	14671
VR	14670
ĠInsurance	14661
Ġinstruments	14659
Ġcircuits	14659
bytes	14656
ĠConsider	14656
rag	14655
schema	14653
Ġflying	14652
Ġfantastic	14650
Graph	14644
Ġund	14644
enberg	14641
360	14639
ĠIFN	14637
nant	14636
ading	14636
Thus	14635
oco	14632
Ġmath	14630
Ġ1982	14628
iction	14627
ĠStephen	14627
Ġliable	14626
Ġfactual	14626
Ġmature	14624
Ġchallenged	14622
Ġlitigation	14620
Media	14611
Ġtraits	14610
ĠSpring	14607
Ġtries	14606
âĢĶâĢĶ	14605
VERSION	14605
Ġconserved	14603
Ġhero	14601
)\,	14599
Ġeveryday	14598
Ġtracks	14597
rone	14591
ements	14590
Parameters	14590
ĠHoly	14589
âĢĿ)	14588
ĠMarket	14587
CON	14585
four	14584
Ġacted	14582
147	14579
Ġinches	14577
Ġ![	14573
Ġconvergence	14572
ĠXML	14570
ĠChristians	14570
Ġbelongs	14568
Ġdried	14567
Du	14566
Ġvegetables	14565
Ġgod	14562
gon	14561
ÃĲÂµÃĲ	14560
standard	14560
attribute	14560
ĠIgG	14560
Ġ800	14558
Eq	14557
rep	14556
Async	14554
Ġstained	14554
Ġqueue	14553
ĠRob	14550
ĠMel	14549
Star	14548
cid	14545
ĠWisconsin	14541
171	14539
ÃĦ	14538
Ġsatellite	14537
Ġhang	14536
report	14535
Ġresidential	14533
139	14532
Ġmining	14530
away	14529
ĠĠĠĊ	14529
Ġ107	14524
Ġspec	14516
ARE	14514
Ġmile	14514
inflammatory	14511
Ġgraphs	14511
cv	14507
Ġfilters	14506
ĠÎ¼g	14504
Ġexclusively	14504
Ġxml	14503
shaped	14502
cas	14502
Ġasthma	14502
131	14501
zip	14500
Ġseats	14500
Ġmsg	14500
ĠReturns	14497
Ġgradually	14496
Ġflows	14495
ĠLog	14492
181	14490
Ġbedroom	14490
Ġdoc	14489
sley	14488
Ġprevented	14488
]=	14483
Ni	14483
ĠâĤ¬	14482
Ġwins	14482
Ð·	14480
ease	14477
Ġsentenced	14475
Ġperiodic	14474
Ġimpairment	14472
iri	14469
MG	14469
Ġ",	14467
Ġbra	14464
Ġflowers	14463
ĠPort	14458
Ġwidespread	14456
Ġestablishing	14455
Ġsimilarity	14454
Ġrespondent	14453
Ġgeneralized	14453
Ġlady	14449
Ġactors	14444
Ġmothers	14442
imo	14441
Ġmaternal	14441
kk	14439
Author	14439
146	14439
Ġstating	14432
rob	14431
chan	14431
016	14431
filename	14429
Ġnotation	14429
here	14427
Ġcorn	14424
dio	14423
eval	14422
ĠFar	14421
gling	14418
figure	14418
Ġindependence	14417
FONT	14416
Ġav	14411
illi	14410
148	14409
ĠArab	14408
role	14407
Ġknife	14404
eV	14402
Ġreplied	14401
Ġconfused	14401
Ġminds	14400
Ġdescending	14398
Ġjoining	14397
uy	14396
ATE	14393
Ġbarely	14389
rms	14388
ĠStr	14387
Ġ).	14378
ĠKelly	14377
999	14376
Ġag	14374
-->	14372
Ġbath	14372
arily	14371
Ġseeks	14371
Ġreact	14371
Ġsymbols	14366
Ġwage	14365
rity	14363
Ġanterior	14362
Ġpolarization	14361
Ġscenes	14359
Ġmethylation	14359
Ġmotions	14358
}$)	14357
VD	14357
ĠSometimes	14357
ĠAI	14357
Editor	14355
Ġgut	14355
Float	14353
)+\	14351
video	14350
hydroxy	14350
Ġcomputation	14350
obs	14349
Ġguests	14348
iance	14347
RED	14347
185	14346
pgen	14345
Ġpreference	14345
Ġviewing	14344
Ġsalary	14342
bur	14339
Ġquestionnaire	14335
oop	14333
Ġtrivial	14328
Ġprocessor	14328
berry	14327
Ġcompression	14323
oles	14321
Ġ115	14321
Space	14318
Ġenhancement	14318
Ġbomb	14318
Ġcapability	14317
dk	14316
tk	14315
ĠKansas	14314
PATH	14312
Port	14311
lee	14310
Parent	14309
Ġincredible	14309
sci	14308
speed	14306
Ġprescribed	14306
ĠFeb	14306
ĠScale	14298
Ġairport	14297
Ġemploy	14294
Video	14292
"};	14292
Day	14291
Ġstorm	14290
nary	14289
ĠHE	14289
Share	14288
mut	14287
Ġrestore	14285
mil	14284
ĠRay	14283
GP	14281
Ġsilence	14280
essing	14277
Ġrape	14276
rious	14275
Ġmood	14272
tive	14270
gm	14268
Ġdating	14268
Ġmanaging	14267
jar	14266
Ġattorneys	14266
iga	14265
Ġfold	14264
ĠAB	14263
Ġacceptance	14262
Ġcontroversial	14261
Close	14260
Ġhat	14260
spi	14258
Ġuna	14258
nc	14255
ital	14255
Ġinc	14254
|{\	14253
Ġbriefly	14251
à¥į	14245
XF	14242
ĠGal	14231
ĠException	14230
ĊĊĠĠĠĠĠĠĠĠĠ	14230
Ġatomic	14229
Ġattachment	14225
rap	14224
\)	14222
Ġcocaine	14221
Ġroads	14219
Ġindictment	14218
ĠMassachusetts	14218
:</	14213
Ġacknowledged	14213
Ġviolations	14211
ĠGene	14207
ĠMethod	14206
Ġhom	14205
Ġemissions	14205
thing	14202
ĠHO	14202
bic	14199
Ġpeptides	14197
aca	14192
Mark	14192
Ġdramatic	14190
Public	14189
Ġpartly	14187
ulator	14185
eers	14185
151	14183
icular	14182
Ġsurely	14181
Ġcontention	14178
toString	14175
sign	14175
teen	14174
Ġreject	14172
ĠNature	14171
Ġoffices	14170
157	14168
Ġdietary	14167
Super	14164
people	14162
direct	14160
gor	14159
Ġprotecting	14158
Ø±	14156
mass	14155
asc	14155
Ġletting	14153
Red	14151
Ġparticipating	14150
ĠMuseum	14149
aden	14148
Ġresin	14148
Ġrandomized	14147
cht	14145
Ġsavings	14144
Ġinvestigating	14141
Ġexp	14140
176	14139
Ġbird	14139
Ġintersection	14134
Ġprovince	14132
ĠSk	14130
ĠHas	14130
Ġfelony	14129
Ġshadow	14126
&#	14123
Ġsigning	14123
square	14120
share	14120
gre	14120
NV	14117
Ġracial	14117
uing	14116
Ġunnecessary	14116
custom	14113
ĠCNN	14113
Ġio	14111
pla	14110
ĠIns	14106
lyn	14101
olic	14100
OI	14099
omer	14098
),$$	14097
umb	14096
dw	14095
gia	14090
Ġmediated	14090
tee	14088
HF	14088
161	14088
rov	14087
History	14087
{$	14085
uro	14085
ĠCoast	14085
PK	14084
![](	14081
plane	14078
Ġrepresentatives	14077
OUT	14074
033	14072
ĠLie	14072
Ġ{"	14071
Ġconservation	14059
ĠStation	14058
Ġproportional	14056
ĠUpdate	14056
Ġfranchise	14054
Rule	14052
ĠAllen	14052
Ġcha	14050
DN	14047
Ġmodifications	14045
Ġintrinsic	14045
Ġloves	14044
Ġadvised	14044
Ġlit	14036
Ġoutstanding	14031
âĢĻ,	14026
ĠNatural	14020
Icon	14019
Ġmembranes	14013
)-\	14012
Ġremarkable	14012
Ġburn	14011
Ġplots	14010
Ġlovely	14009
ĠPrior	14009
Ġartist	14008
019	14007
Ð²	14003
1986	14002
ĠKevin	14000
ĠScotland	13995
cz	13994
POST	13991
+(	13991
Ġcrack	13988
Ġcoating	13987
ONE	13986
Ġwarned	13985
ĠSpirit	13985
erp	13984
Ġsentences	13983
Ġpurified	13982
Ġpat	13982
Ext	13978
Ġflu	13977
amino	13975
Ġtherein	13974
zing	13973
erc	13972
Ġconfigured	13972
ign	13971
Ġemotions	13971
Ġreset	13968
Ġelectrodes	13967
ĠCHECK	13967
ĠFunction	13966
pend	13965
Ġimpaired	13964
Ġcooperation	13961
tles	13958
sex	13958
aq	13958
anes	13956
Ġrelate	13956
abstract	13955
Ġinhibit	13953
yd	13951
Trans	13951
blog	13950
lea	13947
ista	13947
ĠAssert	13947
sso	13946
Ġlucky	13946
Ġnursing	13940
Ġinfant	13939
Ġwing	13938
Ġconstructor	13938
Ġactively	13938
Ġsake	13933
Ġdrove	13933
rators	13923
Ġmoon	13918
Ġoverlap	13915
Ġ119	13915
ĠPlus	13906
ilo	13905
Ġcopper	13904
ĠInclude	13903
[(	13901
Ġmess	13900
otes	13899
prefix	13897
Ġaccomplished	13894
ĠAvenue	13893
Ġshipping	13892
\|\	13889
Ġlaugh	13889
arian	13886
:/	13884
ĠFather	13884
))/(	13882
Ġmed	13879
ĠUkraine	13877
dol	13876
ĠĠĠĠĠĠĠĠĠĠĠĠĠĊĊĠ	13873
aled	13872
ĠHTTP	13871
ensive	13870
ĠFisher	13870
ury	13869
)->	13869
Ġencouraged	13864
Example	13862
âĢ¦.	13861
nia	13861
Ġpixels	13861
ĠCy	13860
----------+	13859
Ġintestinal	13858
Ġdiscloses	13858
ĠSon	13858
>;	13856
Init	13855
Ġ^{	13855
iar	13850
Writer	13847
Ġinitiated	13847
record	13846
Ġwider	13846
pus	13844
ression	13843
Ġinfants	13843
ĠWE	13843
ĠCF	13843
rank	13842
LV	13842
Ġrelies	13840
Ġmutual	13840
Ġcancel	13839
Ġdisaster	13835
Ġarrow	13835
disp	13833
fts	13832
Ġproxy	13831
Ġprivilege	13830
kie	13827
cli	13825
ÃĲÂµÃĳ	13824
driver	13823
mapsto	13815
Ġradial	13815
eil	13813
sure	13811
Ġcircles	13810
three	13809
TED	13809
174	13809
Ġsecretary	13809
à¤¾	13808
Ġpositively	13808
Ġgenerations	13807
Ġdiff	13802
ĠĊĠĠĠĠĠ	13802
Ġboss	13799
215	13796
eel	13793
phy	13790
!!!	13790
Ġfunctioning	13789
ĠDI	13789
Ġexplored	13786
tÃ©	13785
displaystyle	13781
ĠES	13779
five	13776
Ġstops	13776
Ġdominated	13774
NOT	13772
154	13769
ĠFuture	13767
Ġrings	13766
Ġaccomplish	13764
shire	13763
IVE	13763
ĠFair	13762
ĠMajor	13761
Ġimportantly	13760
Common	13758
ĠMag	13757
far	13755
Ġimpose	13754
ĠSort	13753
library	13752
Ġcrossing	13752
tn	13750
dro	13750
Ġsec	13749
metadata	13747
205	13746
ĠBMI	13746
pmatrix	13744
ĠBrian	13744
Ġmock	13743
sg	13740
expression	13740
æĺ¯	13738
Ġpermits	13738
arb	13733
Ã¡Âº	13732
Cor	13730
kit	13728
eria	13728
Ġbathroom	13727
cum	13726
LICENSE	13726
mond	13724
ĊĉĠ	13721
Ġattacked	13715
ĠTA	13715
AGE	13713
Ġbrothers	13711
Ġreasoning	13710
Ġfirms	13709
nic	13705
Queue	13705
ĠKen	13704
Ġcorruption	13702
Ġboo	13701
hen	13700
Ġcontinuously	13700
ĠSI	13700
ĠGOP	13697
>>>	13692
Ġupcoming	13689
ssa	13688
aran	13688
Microsoft	13686
Ġsal	13685
ĠSS	13684
ĠRose	13684
Names	13683
dling	13681
ĠAug	13681
ĠKong	13680
omy	13679
Ġconflicts	13677
ĠCook	13677
264	13673
)*-	13673
Ġdownstream	13670
ĠMaryland	13668
nst	13666
Ġannouncement	13666
atable	13663
="../../	13663
Ġconvinced	13661
Ġprofits	13657
Us	13655
ĠLabor	13651
ĠGovernor	13649
Win	13647
Ġexpertise	13643
stro	13641
INFO	13640
east	13639
icing	13638
Given	13637
\|_{	13636
vir	13634
223	13631
Ġinvest	13626
yi	13625
Ġcomputational	13623
half	13622
EST	13622
Ġretained	13619
Ġdatasets	13617
owed	13616
Ġgrateful	13616
ĠGrant	13615
Ġquoted	13614
ĠNavy	13614
312	13613
nut	13612
Ġwebsites	13611
Ġwash	13609
Ġfluctuations	13609
Ġproposition	13605
cle	13604
sam	13603
Ġgains	13603
\+	13601
oration	13600
Ġscanning	13594
Ġgraduate	13594
Ġbags	13594
gles	13593
HTML	13591
ĠĊĠĠĠĠ	13591
Ġrelied	13590
Ġfeatured	13589
Ġcanonical	13588
bas	13584
mate	13580
enc	13580
Ġethanol	13579
Ġbench	13579
YS	13578
ĠSanders	13577
Evaluate	13575
Ġediting	13574
rent	13570
_+	13569
ĠNothing	13569
Ġguaranteed	13568
ĠJeff	13567
Ġ1979	13566
ĠCore	13560
Methods	13559
Ġstrategic	13556
Ġperi	13555
ĠWeek	13552
results	13551
ĠIrish	13549
inline	13547
Ġcontemporary	13547
pb	13545
Ġcomply	13545
ĠRO	13543
ento	13542
account	13542
tone	13538
Ġgathered	13538
Ġoh	13536
anic	13534
ĠUnit	13534
Release	13532
Ġconsistency	13532
ĠOregon	13532
xin	13531
021	13531
Ġdrama	13531
164	13530
Ġindicator	13530
Ġdeposit	13530
Ġstimuli	13529
rene	13524
Ġchromosome	13521
Mc	13515
Ġincubation	13515
Ġtobacco	13514
agon	13510
ĠBBC	13508
Ġhoney	13502
Ġentrance	13502
ochemical	13500
limit	13499
Ġpublish	13499
Ġ123	13499
Ø	13498
Screen	13498
lev	13494
Ġaffinity	13494
184	13493
transform	13492
rell	13492
195	13489
024	13489
}'	13487
031	13486
linked	13485
Ġ}}	13485
ĠClinical	13484
erating	13483
Ġwriters	13482
Ġdimensional	13478
ocyte	13474
Ġfiring	13471
Ġstudio	13470
quality	13469
Ġmacrophages	13469
rand	13468
Ġreaches	13468
expected	13467
Ġought	13466
ĠHaving	13465
ĠBre	13465
gli	13464
;"	13464
Ġinstitutional	13464
Ġtooth	13462
Ġtetra	13462
ania	13461
Ġtie	13460
Ġinnocent	13460
ĠKIND	13458
Ġaccounting	13455
Ġexpectation	13453
Ġconsisted	13451
Â¡	13450
Ġdrives	13450
Ġburning	13449
166	13448
Ġclothing	13447
iana	13446
Ġsyntax	13446
Ġmanifold	13443
Ġlacking	13443
ĠdÃ©	13442
ĠGA	13442
ĠCat	13442
scan	13438
ĠPL	13437
would	13436
SCs	13434
Ġsolvent	13434
ĠMid	13434
Ġunexpected	13429
ĠLatin	13428
URE	13427
FX	13422
ĠÐ²	13420
ĠHim	13419
Engine	13417
420	13415
DV	13414
224	13414
Ġconf	13414
topic	13410
Ġgenerates	13410
Ġstruggling	13409
Ġent	13409
Ġsanctions	13408
209	13407
Ġlesion	13404
Parser	13402
172	13402
Ġstaying	13402
Ġdrag	13401
Layer	13395
mper	13393
Ġwrap	13392
[-	13391
Em	13388
ĠArea	13384
rav	13383
===========	13383
wy	13381
mir	13381
Ġretired	13378
ĠExecutive	13376
yed	13375
MV	13374
rium	13373
Ġsubstances	13370
Ġmedications	13366
sheet	13365
Four	13365
}),	13364
Ġcarries	13361
lap	13360
Ġcorrected	13359
ssen	13357
Ġenormous	13354
exe	13349
ĠMuslims	13346
1989	13343
rds	13341
Ġdecent	13341
Ġslope	13340
Member	13338
ĠBA	13338
ĠHarry	13334
bol	13332
Ġrs	13331
Ġreplacing	13325
til	13323
ĠScientific	13322
Ġju	13321
ĠAsh	13321
Ġminimize	13316
asse	13314
Ġopens	13314
MU	13313
Ġ114	13313
ĠUbuntu	13311
207	13310
odi	13309
)));	13309
ĠKan	13306
utf	13302
rah	13302
Ġcons	13302
Ġcollision	13301
Ġfragments	13298
}}}(	13297
Ġpredictive	13297
Ġderive	13295
require	13291
Ġreporters	13283
Gu	13282
ĠLook	13282
scriptstyle	13280
Ġterrorist	13279
containing	13278
oked	13276
ctive	13272
cke	13271
West	13270
ĠGM	13270
iving	13268
ĠWas	13267
ĠLeft	13266
Ġentropy	13264
Ġethnic	13263
\(	13261
Ġexceptions	13254
Ġspinal	13253
Ġroutes	13252
ature	13249
260	13248
aid	13247
sas	13246
emi	13244
Ġcontributing	13244
Ġscenarios	13243
tem	13240
303	13240
ground	13238
WT	13236
Ġservers	13236
Ġinitiative	13235
Ġentertainment	13235
ĠDB	13233
children	13231
Ġopt	13230
apply	13229
ÑĢ	13226
ĠChange	13223
032	13222
Ġdreams	13222
ĠNick	13220
tail	13219
ĠHillary	13219
Ġgastric	13218
ĠVI	13218
Ġlu	13217
Ġcomplement	13215
region	13214
Ġimpression	13214
ĠHollywood	13212
Ġshifts	13208
Ġsmell	13207
ety	13206
Real	13202
ĠSmall	13201
ĠDar	13200
163	13199
uel	13198
WR	13195
Ġ1977	13195
}$-	13194
)$-	13194
Ġschemes	13193
Ġshaft	13190
LES	13189
Ġstraightforward	13188
Ġcake	13188
Ġinhibitory	13185
Ġnonlinear	13184
dec	13183
Ġtendency	13183
bank	13179
Ġpossibilities	13178
ĠClark	13174
lists	13172
ables	13172
ĠMiami	13171
Ġbroader	13170
depth	13168
\}$.	13168
Ġguilt	13168
otype	13167
sper	13166
ÂłÂłÂłÂłÂłÂłÂłÂł	13164
Ġplacement	13164
citing	13163
Ġlicensed	13163
ĠEdward	13160
Ġpoorly	13159
Ã§	13157
ï¼ļ	13155
hon	13155
Ġtrick	13155
Ġslot	13155
270	13153
ITY	13152
pot	13151
254	13150
Ġallele	13150
ĠPhiladelphia	13148
Ġhired	13147
Ġpresenting	13145
Ġbegun	13145
ĠLanguage	13143
viruses	13141
ĠCommon	13139
price	13138
ĠAlabama	13138
say	13137
Ġfitted	13136
mation	13135
Ġdetecting	13135
odo	13133
Ġneighbors	13133
mine	13129
ĠFC	13128
dge	13126
ĠWay	13126
Ġspokesman	13125
Ġlawyers	13123
Ġencountered	13123
gif	13122
ĠPen	13120
rak	13119
ĠCells	13117
ĠSimilar	13116
ĠOklahoma	13116
Ġplacebo	13115
Ġassociate	13115
tran	13110
ILL	13109
Ġships	13109
Ġmerit	13109
got	13108
onal	13107
ĠColor	13103
Ġnoting	13100
ĠStart	13098
rar	13097
Ġ$${\	13096
Ġordering	13095
Ġenforce	13095
hold	13092
zu	13090
Ġcurvature	13089
Ġequity	13085
NH	13084
Ġwanting	13084
Ġinvasive	13084
Ġanalysed	13084
stor	13083
149	13083
Ġgi	13083
yc	13081
}}^{\	13079
dial	13079
Ġreconstruction	13079
ĠMB	13079
Ġpersistent	13078
Ġinconsistent	13078
Ġdebtor	13078
ĠSH	13077
[*	13076
Ġindividually	13076
Ð¿	13075
ibilities	13073
mming	13072
Ġmanagers	13072
Ġsphere	13070
Ġaligned	13070
MIN	13069
Ġfishing	13069
Will	13067
VS	13067
Ġneuronal	13067
tig	13066
Ġdiagonal	13065
Hash	13064
Ġshame	13064
Ġoccupied	13064
ptic	13063
035	13063
$;	13062
Ġsquad	13062
tests	13058
Ġmeals	13058
itive	13055
Mon	13052
orb	13051
>::	13051
lson	13040
Ġ1978	13039
Ġstolen	13037
ĠHong	13037
182	13029
ĠSN	13029
))/	13028
Appellant	13027
Ġraises	13027
Null	13025
ĠComp	13020
Ġcitizen	13019
Ġchemicals	13017
rman	13016
allow	13016
Ġundefined	13016
Ġdelicious	13015
aton	13014
Ġbelt	13014
ÙĨ	13011
Ġdistribute	13011
hman	13006
Ġsys	13005
stock	13004
ght	13003
Ġgenotype	13003
ACE	13002
reset	13001
ĠJavaScript	13001
rance	13000
callback	13000
Fo	12999
ĠOverall	12998
minute	12997
Âĩ	12996
Ġaffairs	12993
Ġlogin	12992
Ġhomogeneous	12992
Ġspecimens	12991
026	12990
Ġarch	12990
ĠDiego	12989
Directory	12986
293	12983
Ġinspection	12983
Ġdont	12981
Ġcytokines	12981
ader	12979
oil	12978
properties	12976
ĠStudent	12976
Ġgrace	12974
Ġsurrounded	12970
Ġpositioned	12969
Ġlegislature	12969
Da	12968
Ġloud	12967
grade	12964
Express	12962
LK	12961
Ġformulation	12960
Ġlocalized	12958
Ġaddressing	12957
ĠNight	12956
Ġpromotion	12955
Fl	12954
ĠBureau	12951
208	12948
Ġupset	12948
Ġdot	12947
ĠSw	12947
041	12945
ĠEs	12944
âĢ©	12942
Ġhandled	12942
ĠSky	12942
ĠCredit	12939
ĠCapital	12938
DEBUG	12937
Ġarises	12937
ska	12933
Ġ127	12932
ĠEric	12931
itr	12929
VP	12928
Ġnegotiations	12928
Ġbirthday	12927
ĠTask	12927
lite	12926
Matrix	12925
Ġexclude	12922
ĠÂ«	12918
rg	12917
1984	12916
springframework	12915
Ġalien	12915
ĠPrince	12912
Ġgu	12911
Ġbeings	12911
Bl	12910
ĠLLC	12909
Obj	12908
=====	12908
fg	12905
ÙĬ	12904
Ġwh	12904
Ġext	12904
uto	12903
Remove	12902
mans	12901
iller	12901
pair	12897
ĠSeattle	12896
White	12893
trial	12890
Age	12890
666	12890
Ġgrants	12890
operative	12888
Ġurine	12888
âĦ¢	12886
ĠInvention	12886
ĠFort	12885
Ġplug	12883
Ġlets	12883
ĠTrade	12882
ĠFive	12881
Stop	12879
Ġconvenience	12875
))$	12874
âĶĢâĶĢâĶĢâĶĢ	12873
oria	12871
Ġcorporations	12871
genes	12870
ĠCE	12869
uth	12868
-.	12868
Ġtermination	12867
tol	12864
rite	12864
Ġcompile	12864
Ġquit	12863
Ġverified	12862
factor	12857
028	12856
Ġ121	12856
Ġstyles	12855
ĠCSS	12849
Ġhearts	12844
Ġorgans	12836
ĠReturn	12836
ĠOil	12836
Ġci	12835
San	12834
ĠLabour	12827
Ġconsiderations	12825
Ġtransient	12824
Ġdispersion	12823
kov	12822
1988	12822
Ġchairman	12822
shared	12821
wed	12819
ĠProcess	12819
fy	12816
ĠSearch	12816
Ġrolling	12813
1985	12812
301	12811
ppat	12810
Ġhighlighted	12810
lent	12807
Ġclubs	12807
iques	12806
Trump	12805
>();	12805
eti	12802
ĠForeign	12802
ĠTry	12801
375	12799
race	12795
Ġsheets	12793
Ġcarriers	12792
uity	12790
sit	12785
Ġmethyl	12785
ĠFootball	12785
ished	12783
;}	12782
dman	12781
Ġham	12779
iam	12777
zar	12776
opa	12775
ĠAF	12775
commit	12774
esi	12772
191	12772
loss	12770
yy	12768
Ġoccasionally	12768
ĠTra	12768
Ġhydro	12767
Ġinsights	12766
Factor	12764
Ġsimulated	12761
_;	12760
tern	12758
Ġimplements	12757
gie	12756
Ġengaging	12756
nite	12754
atin	12754
_*	12754
199	12754
Ġgran	12754
Ġexpanding	12754
Ġsuggestion	12752
uts	12745
Ġshapes	12745
Ġflexibility	12745
Ġbarriers	12745
ĠWord	12743
iya	12742
Ġprescription	12741
_(	12739
olin	12738
GF	12738
ĠSyrian	12737
UG	12734
UB	12729
Ġapproached	12728
Ġdistricts	12723
Ġcalm	12723
fast	12720
uns	12719
Ġdistress	12719
Ġbreathing	12718
Ġsk	12717
LINE	12716
Ġremarks	12714
Ġrealistic	12713
asi	12711
Ġremedy	12706
owner	12705
Ġmonitored	12704
Ġtournament	12703
Ä±	12698
ution	12697
maker	12695
Ġ116	12693
nas	12691
Ġdishes	12691
plan	12690
Ġmodulation	12690
drop	12689
ĠÎ¼M	12689
ĠCommand	12689
Ġincredibly	12687
Ġangles	12687
Ġvolunteers	12686
){\	12685
osome	12683
aching	12683
ĠManager	12683
imal	12679
Mod	12679
550	12676
Ġneedle	12676
sq	12675
Ġtitles	12673
brief	12672
Ġinference	12672
Ġimpacts	12671
sia	12666
^{*	12665
Ġvolumes	12665
area	12664
Ġslice	12664
Ġpol	12663
Ġdeleted	12663
TOR	12662
Ġdevelopmental	12661
Email	12660
Ġanchor	12659
JSON	12658
Display	12655
Ġ02	12655
Ġbold	12654
Ġtongue	12653
Ġsleeping	12652
Ġmathematical	12652
Ġpostoperative	12651
ĠFI	12650
Home	12649
Ġhook	12648
Ġ(<	12647
à¬	12645
Pl	12643
Ġsolving	12642
bullet	12641
Ġdistant	12640
Ġconversations	12638
vc	12637
aches	12637
Dec	12637
Ġkg	12637
without	12633
abc	12633
ĠÃħ	12632
Ġyours	12632
Bio	12630
Ġdisposed	12628
ĠOrganization	12628
Ġmandatory	12625
ACK	12624
Ġabandoned	12624
Ġencoded	12622
kh	12621
ĠOxford	12621
iterator	12620
Ġdeclaration	12620
Ġgarlic	12619
åľ¨	12618
escent	12618
-{\	12618
Ġdying	12618
Ġmerge	12616
ige	12615
252	12614
Ġfilename	12613
Ġepi	12607
ĠClick	12605
Ġ113	12603
Ġimply	12602
engine	12601
Ġextracts	12601
oir	12600
ential	12600
ĠPrice	12600
Ġpurely	12598
sym	12597
=$	12597
Ġsuppressed	12597
Ġtran	12596
Ġlemma	12596
Ġupgrade	12594
Ġtranslate	12594
Stack	12592
Ġbalanced	12592
ĠSy	12591
Ġtan	12590
ĠÂ»	12587
Ġspoken	12585
1987	12583
Ġadhesion	12583
ĠWatch	12583
Ġ1975	12583
Math	12581
===	12581
Ġsubstitute	12579
Network	12574
Ġligand	12572
ĠFull	12572
}{{\	12571
tool	12571
Wait	12569
Ġarrays	12567
SHA	12564
Ð¹	12563
Ġhitting	12562
Ġinf	12560
Ġpal	12559
,âĢĻ	12557
225	12556
027	12555
Ġapproximate	12551
Ġproceeds	12549
FM	12547
cel	12546
Ġsecretion	12546
both	12545
189	12545
Ċĉĉĉĉĉĉĉĉ	12544
Ġnutrition	12538
Ġmotivation	12538
ports	12535
ĠCas	12535
Ġinnovation	12531
Ġfocuses	12531
David	12530
Ġaccordingly	12529
Ġcontroversy	12528
ctions	12527
Ġpromoted	12521
hist	12518
ĠThrough	12517
returns	12516
Ġsta	12513
hed	12512
Ġpulling	12512
})$.	12511
Ġtransitions	12511
pho	12510
Ġappend	12510
Args	12509
Ġconsiderably	12507
Ġarguing	12507
ĠTNF	12507
tim	12505
ĠTheory	12504
Ġpleased	12501
Ġnarrative	12500
Ġdozen	12500
riv	12499
ĠMissouri	12499
Ġoutdoor	12494
ViewController	12493
193	12492
hidden	12491
Ġterror	12491
ãģ¯	12490
ĠDisney	12490
Ġseal	12488
Ġexplaining	12488
Ġexhibits	12488
aste	12487
MY	12487
0006	12487
Ġcalendar	12487
Ġanalytical	12485
ĠVisual	12485
aar	12484
169	12484
Ġtrap	12483
Ġcraft	12482
Ġrev	12481
Ġtranscripts	12479
Ñĩ	12477
ĠOnline	12476
ĠNation	12476
Ġmorphology	12475
cou	12474
Ġphoton	12474
ĠGR	12472
uous	12471
Ġscroll	12471
ĠLin	12471
Import	12469
ĠKr	12468
228	12466
vor	12465
Ġintact	12461
Ġoperational	12459
Ġethical	12459
Ġmobility	12458
).\	12457
bg	12456
Life	12456
plain	12455
nity	12455
Ġanonymous	12455
="/	12454
esa	12452
NB	12451
west	12450
Those	12446
Descriptor	12444
parameter	12439
cons	12439
Ġsixth	12439
ĠSurvey	12438
roid	12437
Ġfever	12435
Ġcompromise	12435
Ġchat	12435
Ġtransit	12433
NY	12429
atu	12425
Ġmanufacture	12425
*\<	12424
tsu	12423
HU	12422
ĠOUT	12422
840	12419
ĠSelect	12419
="../	12417
Ð´	12414
Ġasserted	12414
401	12413
ART	12412
Ġties	12410
Users	12409
178	12408
////	12408
Ġconducting	12408
325	12407
Ġplacing	12407
ĠHotel	12407
Ġevaluating	12405
Ġfounder	12404
gos	12402
ĠBel	12401
sensitive	12399
Ġreviewing	12399
(!	12397
iously	12396
Ġreserve	12396
aph	12395
Channel	12391
urg	12390
ĠShi	12388
Ap	12385
tto	12382
Ġphones	12382
Ġgolf	12382
Ġfate	12382
Ġenemies	12381
ĠRelated	12381
)",	12380
rang	12378
440	12378
original	12373
Ġprefix	12373
~-	12370
Ġreportedly	12370
Ġdesk	12367
etz	12366
dic	12366
handler	12363
Ġcannabis	12363
LB	12362
ĠBox	12362
Ġocean	12359
ĠBuild	12359
Ġwaters	12358
Flags	12355
Ġtmp	12353
Ġmagnet	12351
God	12350
Ġlegally	12349
Ġclip	12349
ĠMessage	12349
ffer	12347
Ġprayer	12347
network	12345
173	12345
Ġposting	12344
ĠNBA	12344
itic	12342
Ġimplementing	12342
Ġcoat	12341
cloud	12340
Ġofficially	12339
ĠWithin	12339
029	12338
``	12334
conv	12333
Edge	12331
Ġblockchain	12331
ĠâĢĭ	12330
*:	12329
Ġgamma	12328
school	12326
Storage	12325
Ġnurse	12325
ologic	12323
Ġhormone	12321
Ġfavour	12321
Ġ1976	12321
305	12316
Ġ09	12314
aked	12312
Ġsustainable	12312
ĠâĢĻ	12311
Ġballs	12311
sse	12309
Ġvaries	12307
ĠYouTube	12307
ĠRapids	12306
testing	12304
Ġacquire	12304
ĠLive	12303
bie	12301
Ġthrew	12300
Ġcounting	12298
158	12294
ĠHol	12293
Ġrecruitment	12290
__(	12289
arl	12288
eren	12286
Policy	12285
0008	12284
inv	12283
Ġgang	12281
simple	12278
tru	12277
Ġgastro	12277
))?	12274
245	12272
ĠMean	12268
Ġolive	12265
wait	12262
Ġconstitutes	12260
Res	12258
fixed	12253
Jo	12253
*),	12253
etta	12251
Ġtraveling	12249
480	12244
arma	12243
ĠAA	12243
MAP	12242
ĠFactor	12242
ĠMotion	12240
Ġmethodology	12239
anne	12238
Ġpollution	12238
Åį	12235
igh	12232
elled	12231
[:	12224
EXPECT	12224
Ġlands	12224
dz	12223
PU	12223
Ġmetastasis	12223
Ġdenoted	12219
Ġshifted	12215
Ġappellate	12212
Ġlessons	12211
Ġspeaker	12210
Ġvalidate	12206
NM	12204
ĠSelf	12204
ĠCOURT	12204
Ġnuclei	12203
Ġgen	12203
nad	12201
Ġasync	12201
Ġextracellular	12199
Ġworship	12198
Ġtears	12195
Ġtro	12194
Ġprobation	12194
ogra	12193
ĠBP	12193
etti	12192
ĠRelease	12192
NL	12190
Ġbiology	12189
ĠCG	12188
ĠTer	12187
ĠDallas	12187
ĠPalestinian	12186
Api	12180
Ġinnovative	12179
ĠCt	12179
ĠAlexander	12178
_{{{\	12177
osi	12176
Ġlesser	12175
Ġappearing	12175
Ġindirect	12171
Ġsusceptibility	12170
loaded	12169
'-	12168
Ġsubstrates	12166
Ġraces	12166
043	12165
/"	12164
Ġwages	12164
Ġretro	12163
izers	12159
Ġhanging	12155
ĠOs	12154
188	12153
Ġimmigrants	12152
Auth	12150
Ġgather	12150
Ġcrypto	12150
;;	12149
twitter	12145
delim	12145
IAL	12143
Ġconfigurations	12142
Ġwheat	12140
aris	12139
Ġrally	12138
exit	12137
Ġviable	12137
Ġobjectives	12137
Ġorganisms	12135
Ġcups	12134
ĠNet	12133
ĠGolden	12133
Ġreproduce	12132
Ġstepped	12131
noun	12129
)/((-	12128
Ġcam	12128
Ġmerits	12127
ĠUpon	12122
Ġsteam	12120
exists	12117
Ġdiscussing	12116
Ġsubtle	12115
Hu	12114
Ġabilities	12114
Obv	12113
eis	12112
Ġdramatically	12112
Ġinfluenza	12111
ĠRemove	12111
330	12110
generated	12109
Ġbelonging	12109
Ġasserts	12109
Ġprostate	12108
deg	12107
ĠHamilton	12107
ĠContent	12106
nell	12104
Ġlos	12101
Ġtransverse	12097
ĠTE	12097
ĠFinancial	12097
Ġcharging	12094
Ġinvestigators	12093
ĠFrancis	12092
arin	12091
ĠRules	12091
Ġhighlights	12090
Ġdevelopments	12090
Ġfallen	12089
may	12087
Ġpig	12086
ulin	12085
Ġrobbery	12085
Ġcrop	12082
Light	12080
183	12075
Ġsettle	12071
ĠCON	12070
ĠTennessee	12069
Ġproducer	12067
Ġlengths	12067
dynamic	12066
Ġsingular	12066
045	12065
$),	12065
submit	12064
Ġwisdom	12064
Ġnecessity	12063
ĠSingapore	12062
ĠCurrent	12062
Ġtopological	12060
,(	12059
Ġadoption	12057
ĠChannel	12055
Ġriding	12053
found	12052
ĠWould	12050
Ġfluorescent	12049
integer	12046
Ñģ	12044
rock	12044
}}=	12043
zel	12041
Ġoperates	12041
Ġexcitation	12041
ĠARE	12034
Ġcra	12033
DY	12032
Ġhumanity	12032
ĠMRI	12032
ĠPURPOSE	12030
ĠDocument	12030
Ġrobot	12028
ĠTan	12026
Ġ118	12025
Ġpub	12024
Ġdrops	12023
hot	12022
Ġcredibility	12022
Ġassertion	12020
onate	12019
ĠOP	12019
Ġgrab	12018
ĠVA	12018
iah	12017
Ġconvex	12015
Ġfreely	12014
uli	12013
Ġoxidation	12012
Ġprevents	12011
ĠMorgan	12011
xF	12010
Ġsafely	12010
ĠSummer	12009
ĠPol	12008
Ri	12007
&=&	12007
Ġpacked	12007
ĠForest	12006
060	12004
ĠDefault	12003
ifndef	12002
Ġhetero	12002
OE	12001
due	11999
ĠDel	11998
distance	11995
Ġincorrect	11995
neg	11994
did	11994
187	11994
ÂĴ	11993
Pointer	11993
Double	11992
Ġstopping	11990
Ġprojected	11990
Ġmesh	11987
Ġaffordable	11986
Ð»	11985
Ġunfair	11983
Ġattending	11981
mock	11980
Msg	11980
Ġtriggered	11980
Ġins	11979
Ġfucking	11979
cla	11978
bh	11978
Ġlighting	11978
Ġalterations	11978
extern	11977
ĠBR	11973
iden	11971
Ġdonors	11971
Ġhanded	11970
ĠSix	11970
198	11967
Ġhorror	11967
Ð	11966
Ph	11966
acting	11962
875	11959
Ġadaptation	11959
ĠEP	11957
Ġunity	11956
Ġpromises	11955
kn	11954
Ġcas	11954
Ġcatalyst	11953
Platform	11950
Ġsustain	11950
(__	11948
bad	11947
Ġconfirmation	11945
â	11944
ĠMexican	11943
astic	11942
cul	11941
Ġ\*	11938
mul	11937
Ġmeets	11934
Ġcombining	11934
åı	11931
flag	11930
ashi	11930
ĠNE	11930
}.\	11929
Ġamplification	11929
rian	11928
HH	11925
218	11925
Ġnurses	11925
ĠChampionship	11924
Ġcameras	11923
inator	11920
Ġutilize	11920
Ġresort	11916
Ġrelaxation	11915
$^	11914
Ġinherent	11913
^](#	11912
Ġretention	11912
uce	11910
oda	11909
cont	11909
hir	11908
Ġathletes	11907
Assert	11906
Ġdeficit	11905
Ġconditional	11905
---|---|---	11902
Ġinitiation	11899
vr	11896
eor	11896
Ġdensities	11894
ĠProtection	11892
Ġcure	11891
Ġgolden	11887
job	11885
FN	11885
username	11884
ĠSquare	11883
lts	11882
dimen	11882
Ġmetrics	11882
Health	11876
render	11874
erb	11874
Ġblot	11874
ĠMeanwhile	11874
Ġoccasions	11873
dit	11872
Contact	11871
NER	11870
ĠWHERE	11870
Selected	11867
Ġinvestments	11867
plo	11866
ĠFL	11866
Ġgeometric	11864
Ġdeserve	11863
Ġclimb	11862
SY	11861
Ġartists	11861
è¯	11860
1980	11860
esse	11859
groups	11857
Doc	11857
ĠTB	11856
UTF	11855
ĠMus	11855
raz	11854
bury	11854
Ġhomo	11854
196	11852
Ġarbitration	11852
tian	11851
Black	11850
lating	11849
atch	11847
ĠAuthority	11847
wire	11846
Ġprotests	11846
Ùħ	11838
esc	11837
Ġtort	11836
Ġanimation	11832
235	11831
Ġinspiration	11830
TABLE	11827
AIN	11827
Iterator	11826
Ġtestify	11825
Ġdivorce	11824
Ġty	11823
Summary	11822
177	11821
Ġtriple	11821
cken	11815
---|---|---|---|	11815
ĠWrite	11813
Ġdemo	11811
Ġmistakes	11810
ĠRF	11809
ĠJason	11809
Ġcompiler	11806
ĠSarah	11805
coming	11804
tags	11802
ĊĊĊĊĊĊ	11802
TAL	11801
Ġfloating	11801
Ġads	11801
302	11799
}:	11798
xsl	11797
ppa	11797
Ġsocket	11797
Ġdatabases	11796
904	11795
leb	11793
Ġscratch	11788
}})$	11787
ÙĪ	11786
Ġmotivated	11786
ĠStudio	11786
}>	11785
ĠLicensed	11784
hur	11783
Ġensuring	11783
Ġphospho	11781
Ġeu	11781
zed	11779
tica	11777
editor	11777
888	11777
640	11774
Ġbaking	11773
Plugin	11772
Ġremand	11771
hic	11770
cong	11770
ĠED	11769
tif	11768
Subject	11767
ĠExample	11767
Account	11764
Ġrespons	11764
Ġactivists	11763
cpu	11762
cot	11761
233	11759
ĠAddress	11759
Ġabundant	11758
required	11757
alu	11757
lec	11755
Ġearnings	11755
5000	11754
WI	11752
boy	11749
410	11748
Ġlake	11748
train	11747
ĠFinal	11747
Ġpremises	11746
ĠWalker	11745
gun	11744
enta	11744
Ġamongst	11744
ĠRI	11743
since	11740
vee	11739
fen	11739
=[	11738
Ġexhaust	11738
ĠGuide	11738
Argument	11735
ews	11734
Try	11734
dus	11733
ĠDun	11733
ĠHoward	11732
058	11731
Ġthrowing	11731
poly	11730
Ġtear	11730
tery	11728
Ġdowntown	11727
Ġprognosis	11726
ĠCard	11726
Ġyard	11725
ĠGil	11722
ĠExpress	11722
à´	11721
odot	11721
Ġsha	11719
Ġdated	11718
Ġboards	11717
MAC	11715
Har	11715
Ġtherapies	11715
Ġinsertion	11714
Ġslip	11709
Ġconvention	11709
vation	11704
Ġshops	11704
cip	11700
scr	11699
ĠATP	11699
501	11694
Ġanalog	11694
ĠBUT	11693
rion	11690
Ġindustries	11690
FIG	11689
ĠTony	11687
Ġjudges	11686
sma	11683
Ġrepository	11683
Ġwise	11682
ĠKar	11682
304	11681
===============	11679
Ġjustified	11674
mouse	11673
Ġchopped	11673
Ġenum	11672
rei	11671
hex	11670
INE	11670
VO	11669
ĠBerlin	11669
Ġspeaks	11668
ĠMountain	11666
lene	11665
Ġhire	11665
lates	11664
eous	11664
Cal	11662
ndr	11660
Ġuniversities	11660
Ġreactive	11660
dles	11658
ĠJean	11658
Ġpassenger	11656
ĠMet	11656
Ġmanufacturers	11655
Ġ"",	11655
Ġbackup	11653
priv	11651
virtual	11650
uls	11650
DK	11649
1982	11649
ĠABC	11648
clean	11644
Ġcursor	11644
hem	11642
ĠSenator	11639
special	11638
events	11636
Ġantibiotics	11636
650	11634
Ġobligations	11632
)>	11630
rized	11629
315	11629
.<	11629
ĠcDNA	11627
ĠPARTICULAR	11627
Ġemails	11624
Security	11623
MN	11623
Ġpackaging	11623
ologies	11622
BASE	11622
Ã´	11621
hine	11621
Dim	11621
Ġempirical	11621
Sample	11618
opo	11617
,.	11617
Ġaveraged	11617
Ġrefuse	11616
Enter	11615
Ġsupplement	11614
ĠEditor	11614
Ġind	11613
ĠEvent	11612
720	11610
ĠTor	11610
Ġveteran	11609
186	11608
Ġavoided	11608
Ġfought	11606
Game	11605
ega	11604
ĠVery	11603
Ġfruits	11601
404	11600
dfrac	11598
endo	11596
AST	11596
yle	11595
Ġbasal	11595
ĠElizabeth	11593
Ġshirt	11592
Ġhorizon	11592
Ġmainstream	11589
Ġratings	11588
Ġmicroscope	11588
Ġdialog	11586
ĠUP	11585
ĠDutch	11585
ault	11584
384	11584
Ġchips	11584
ãģ§	11582
034	11582
Ġholder	11581
ĠIM	11576
Ġexperiencing	11575
509	11574
Ġadventure	11574
Ġpreserved	11573
Ġbare	11573
ĠCam	11571
194	11570
resp	11568
come	11568
dent	11567
Ġalternatives	11563
ĠSenior	11563
uu	11561
XX	11561
Ġ"%	11561
BN	11559
rish	11557
osp	11556
cout	11556
Ġip	11556
ĠCOVID	11556
Ġcausal	11555
Ġgranting	11554
ffs	11552
Empty	11551
treatment	11550
Ġdec	11550
CHAR	11548
Ġadvances	11548
Ġintelligent	11547
ĠCruz	11544
Ġsearched	11543
ĠEM	11543
Timeout	11542
Player	11540
Ġmal	11539
yth	11537
Ġbrilliant	11537
Ġagricultural	11536
score	11535
rik	11533
%%	11533
gio	11532
Ġvoluntary	11532
Copy	11531
|^{	11530
039	11529
323	11527
1983	11527
ĠFilm	11526
iano	11525
Ġhappiness	11525
Ah	11521
ĠTur	11519
lement	11518
Kind	11516
Ġsol	11515
ĠInteger	11515
ĠMember	11514
\-	11513
Ġupstream	11513
Ġcats	11513
Ġexceed	11512
380	11511
Ġintensive	11510
ĠChild	11510
eder	11509
hc	11508
counter	11508
Ġpink	11507
Ġmayor	11507
ĠCOM	11507
Save	11503
Job	11503
Ġresidue	11503
]-[@	11502
XML	11501
Texture	11501
Ãº	11500
Ġeastern	11500
ĠExpression	11500
bid	11498
ĠVector	11498
ĠMoon	11497
ĠFITNESS	11497
ĠBesides	11497
tip	11496
.....	11492
Ġsusceptible	11492
fat	11491
Ġ1950	11491
Ġrevised	11490
Ġcontamination	11490
159	11488
Ġ350	11487
Ġlemon	11485
isi	11482
Ġevolutionary	11481
GN	11480
601	11480
variable	11479
too	11479
ĠWales	11478
usa	11476
Information	11474
Ġselecting	11471
xl	11470
UA	11470
Ġ122	11470
241	11468
Ġtumour	11468
ĠCollection	11468
signed	11467
_-	11467
Metadata	11466
Ġbuttons	11465
identifier	11464
................	11464
Ġdiabetic	11462
Ġclinically	11460
sync	11458
ĠLE	11458
×	11456
itu	11455
rical	11453
Ġ117	11452
Binding	11449
ĠTech	11445
ĉĉĉĉ	11442
lav	11439
076	11439
Ġstationary	11436
Å	11434
Ġviability	11433
Ġconsumed	11432
Ġdisclose	11431
ĠNotice	11431
ĠUSB	11429
program	11428
Ġprimers	11427
bers	11424
Ġillustrate	11422
das	11420
OLD	11420
Ġ1973	11420
same	11418
gui	11418
Ġranked	11418
Ġabsorb	11417
Ġloads	11416
unique	11415
Ġ``	11415
}&	11414
ĠPoly	11414
bis	11413
Ġrecipes	11413
386	11412
Ġskip	11411
Ġrelevance	11411
Ġcounted	11409
parallel	11408
ĠUtah	11408
ometry	11407
lau	11405
Ġthereafter	11403
quoting	11401
Ġpainful	11401
ĠVietnam	11401
Ġpremium	11400
ĠKit	11399
ĠSF	11396
ĠSol	11393
Further	11392
Ġcy	11391
Au	11387
âĸ	11386
ssel	11382
ĠCaptain	11380
903	11379
))\	11372
Ġallocation	11372
Ðº	11371
dell	11370
251	11369
yg	11366
Ve	11366
yk	11365
Ġappellants	11364
were	11362
aur	11362
Â£	11361
platform	11360
mf	11360
Ġarts	11360
Ġsucceed	11359
Ġincomplete	11358
Ġhabit	11357
ĠDown	11355
Ġendogenous	11354
Ġbuf	11354
ĠResponse	11353
0020	11351
Ġfigured	11349
197	11345
Ġintroducing	11345
Ġfuck	11345
pkg	11344
ĠTreatment	11344
Ġfurniture	11343
Ġcenturies	11343
Ġhill	11342
omb	11341
Enum	11341
Ġpredetermined	11341
ĠOtherwise	11341
uis	11340
Ġcone	11339
Ã¥	11338
^*$	11332
six	11330
cg	11330
Ġtickets	11330
aking	11329
execute	11327
North	11327
ĠYu	11327
ĠLouisiana	11326
Ġaffidavit	11325
Ġaf	11325
ĠPy	11324
itÃ©	11323
ĠWo	11321
ĠAssistant	11321
xsd	11320
eric	11320
general	11318
Ġgoogle	11318
ĠLater	11317
Ġreception	11315
Ġprolonged	11315
ĠMusic	11314
çĶ¨	11312
ĠDouble	11312
fileID	11310
acs	11310
VER	11309
Ġlips	11309
TCH	11308
Ġincidents	11307
controller	11306
=>	11306
Ġgraphics	11305
|$	11303
Mu	11302
Attributes	11302
179	11302
lov	11301
Ġcrossed	11301
Ġ$|\	11298
rai	11297
mons	11297
ĠDark	11297
Register	11296
itor	11294
gc	11291
Ġgrey	11291
pas	11290
hee	11289
Ġprospect	11289
0007	11288
Ġfetal	11288
340	11287
167	11286
ĠArts	11281
xon	11280
3000	11278
Ġtackle	11278
Ġ124	11273
ached	11272
Ġ1972	11272
eding	11270
(-\	11269
Ġinfectious	11269
ĠPhysics	11268
ĠHad	11266
Ġseemingly	11263
gp	11262
Ġcho	11262
offs	11261
ĠâĢľ[	11261
ĠĠĠĠĠĠĠĠĠĠÂł	11261
Ġcorrections	11260
erly	11258
Ġventricular	11258
Ġcertified	11255
tric	11254
rose	11254
Util	11253
equals	11251
STATE	11250
iot	11248
Invalid	11247
ç»	11246
cis	11246
GH	11244
Ġrecommendation	11244
Ġinsured	11244
ĠROS	11241
rif	11238
Ġevolved	11235
enz	11234
player	11233
piece	11233
mx	11231
Related	11230
ĠCro	11230
Lib	11228
ache	11227
alloc	11226
Ġabdominal	11225
into	11222
Memory	11222
625	11221
Ġdismissal	11221
tier	11220
306	11220
gnu	11217
ĠCM	11217
ĠNASA	11216
ĠAffairs	11216
Ġregret	11214
arXiv	11213
Ġemployers	11213
Ġbrands	11212
rise	11209
RX	11209
BER	11208
olog	11207
ĠNetherlands	11207
pending	11206
Ġgravitational	11206
ĊĠĊ	11205
AAA	11203
ĠiPhone	11202
aha	11201
)~	11201
wall	11200
ĠJun	11200
ĠStore	11199
Ġundergoing	11198
Ġrotating	11198
Ġcurious	11198
Ġ08	11198
Ġtwelve	11197
Ġorthogonal	11195
Ġhyp	11195
à²	11193
Ġ.$$	11193
CHECK	11191
ĠZa	11191
ophy	11190
====	11189
Ġ[$	11189
agg	11188
Ġawards	11188
oS	11186
Ġdemonstrating	11186
)](#	11184
pler	11183
ĠMERCHANTABILITY	11183
ĠFarm	11182
ĠMount	11180
Simple	11178
Ġ05	11178
229	11176
hbox	11170
Ġdx	11168
Ġdynamical	11165
Ġsheep	11163
âĢ	11162
}}}_{	11159
IND	11157
ĠUnlike	11157
Ġenv	11155
pay	11153
ĠDirect	11153
430	11150
.""	11150
Ġrecombinant	11150
Ġcouples	11148
nio	11147
cx	11147
tid	11146
ortion	11146
Fr	11144
Ġfeasible	11144
Should	11142
402	11141
}}({\	11140
]$.	11139
Package	11138
311	11138
ulations	11137
lop	11137
cmp	11137
Ġpublications	11137
Ġachieving	11137
ä¸Ģ	11136
Ġâī¤	11136
Ġblade	11135
ĠTokyo	11135
FU	11134
Comment	11134
Ġorbital	11133
Ġdrain	11132
Ġdear	11132
resistant	11130
lint	11128
ĠAG	11126
illo	11125
Ġtopology	11124
ĠCi	11123
mini	11122
Ġpressed	11122
Internal	11121
Following	11121
ĠCounsel	11120
ĠSOFTWARE	11119
arth	11117
Ð¾Ð²	11114
urn	11114
227	11114
Ġdebug	11114
Ġsorts	11112
Ġenrolled	11112
obo	11111
.");	11109
Ġcylinder	11109
Ġlesson	11108
ĠAppendix	11108
PY	11105
Ġdialogue	11105
ĠTex	11104
ĠIl	11104
Ġflip	11102
ĠStone	11102
Ġhoped	11100
Print	11099
520	11099
regulation	11098
independent	11098
243	11097
Ġexcuse	11096
subject	11095
opathy	11092
SYS	11092
055	11092
ĠSimon	11091
Ġupload	11089
Ġhorses	11089
Ġrigid	11088
cade	11087
Support	11087
urable	11086
Ġspontaneous	11086
served	11085
405	11084
Ġswimming	11078
Ġbow	11078
Ġoutputs	11076
ĠMayor	11076
ĠJacob	11073
Ġcontacted	11072
ĠSW	11072
cost	11069
Ġinappropriate	11069
à¦	11067
).](	11066
TES	11065
Ġdeletion	11064
Ġactivate	11064
hab	11062
iology	11060
036	11059
ĠRos	11059
Ġphenomena	11058
PRE	11055
Ġunemployment	11055
ĠResources	11055
emphasis	11050
Ġlabour	11050
ĠBra	11049
Ġ1974	11049
236	11048
+++	11047
Ġschema	11044
Book	11043
Ġdisplacement	11043
Ġconjunction	11043
247	11042
Ġretrieve	11042
groupId	11041
edic	11039
Ġneighbor	11039
Ġconvictions	11036
large	11035
Ġcerebral	11035
ĠEngineering	11035
Therefore	11033
ÂĮ	11032
nine	11032
Ġexponential	11031
Ġdebut	11031
ethyl	11029
IES	11029
365	11029
ĠUSE	11023
vit	11022
PRO	11022
044	11022
ĠNeither	11022
Ġtowns	11019
EDIT	11018
&=	11018
Ġpromotes	11018
icate	11016
Ġjo	11016
modal	11014
ĠDrug	11014
ToString	11012
ĠMaterial	11012
Keep	11011
Ġcontributes	11011
Ġtubes	11010
Ġfatigue	11010
Ġcmd	11009
GFP	11008
guard	11005
Len	11005
Ġineffective	11005
Ġbabies	11005
Ġvaccination	11004
Ġundergo	11004
Ġspecification	11004
Ġsends	11004
pit	11003
chs	11003
Ġthreads	11002
ĠKeep	11002
ĠDisease	11001
Ġ,\	11001
Ġloving	10997
erin	10995
Lock	10995
ARY	10995
Ġrental	10995
ĠRome	10994
oping	10993
President	10990
ĠJerusalem	10990
Ġmad	10989
Ġloops	10989
chin	10988
Ġ"âĻª	10988
ĊĉĊĉ	10988
Scale	10987
Sam	10986
Ġvon	10985
nee	10984
izz	10980
ĠÎ¼m	10980
Ġscared	10976
hea	10975
Arg	10974
AMP	10973
Ġkinetic	10973
ochemistry	10971
iable	10971
gger	10970
Ġextensions	10969
Ġdefence	10969
Ġoccupation	10967
Ġlocus	10967
Ġattract	10966
Ġantenna	10966
flex	10963
Db	10962
TAG	10961
pk	10960
burn	10959
Socket	10959
Ġaqueous	10959
ĠBeing	10958
ĠFourier	10956
307	10955
ĠLPS	10955
ancing	10954
"],	10954
radius	10953
lle	10952
alg	10952
Ġproposals	10951
Ġmodest	10951
Ġinstability	10947
STATUS	10944
'''	10944
Ġextraordinary	10941
logs	10940
:[	10940
pub	10939
pha	10937
artifactId	10937
Âı	10934
ÙĦ	10933
agan	10929
UV	10929
ĠTy	10929
ĠPremier	10929
Ġ'/	10929
anz	10925
667	10925
\](	10920
Ġconcentrated	10920
Ġbeneath	10920
ĠRequest	10920
ĠCloud	10920
Ġinterrupt	10918
Ġapt	10916
Ġaccommodate	10916
Match	10915
Ġweighted	10915
Ġuniformly	10915
Ġdistinguished	10913
Ġinstructed	10911
formula	10908
Bundle	10908
062	10908
izable	10906
Ver	10904
Ser	10904
hp	10902
Ġtransfected	10902
Ġlegacy	10902
Ġdemocratic	10902
utt	10901
Ġdrinks	10901
Ġheated	10900
nik	10899
gus	10899
ĠGraph	10899
months	10897
>)	10897
Ġmag	10896
ĠEmpire	10895
skip	10894
physical	10894
Ġfacial	10894
Ġinadequate	10889
stan	10887
Ġtrailer	10886
ĠThompson	10886
EU	10885
Ġmut	10882
Ġdistal	10882
Ġclustering	10882
forward	10881
Files	10879
Ġnegatively	10879
ĠDetroit	10879
Ġwrapped	10877
Ġjunction	10877
qua	10872
INSERT	10872
Ġcooked	10872
Ġcriterion	10871
Vi	10870
'))	10870
sided	10869
Ġburst	10869
Ġ(âĪĴ	10869
226	10868
Ġqueries	10868
Ġdirectors	10868
Ġinfluences	10865
dler	10864
ĠZe	10864
Ġsynthesized	10863
Ġstocks	10861
iper	10858
Bean	10854
Ġabroad	10851
valid	10850
ĠVice	10850
ĠAustin	10849
Ġbacked	10848
ĠOntario	10848
074	10847
Ġtranslated	10847
Ġsurveys	10846
cluster	10842
driven	10841
321	10841
sville	10840
ĠWright	10840
049	10839
manager	10837
rj	10835
thal	10834
Ġhopefully	10833
Ġautomated	10833
pies	10831
Ġwithdrawal	10831
ĠâĨĴ	10829
Ġdeciding	10829
Ġproducers	10828
Ġwithdraw	10826
ĠSweden	10826
ugh	10825
ĠRecently	10825
South	10822
loading	10821
Ġexploration	10818
042	10817
ĠSafety	10816
Ġdependency	10814
tax	10813
Ġcervical	10813
bor	10808
hin	10806
Ġwhilst	10806
Ġharmful	10806
their	10805
Ġstatutes	10804
Ġ126	10804
Ġreleases	10803
Ġdrew	10803
rays	10802
MODE	10802
Ġvalidated	10801
Ġenterprise	10801
ĠInf	10801
Ġpose	10798
Program	10796
ĠJS	10796
Ġcomprised	10795
Ġsons	10794
Ġpanic	10794
Ġsensory	10793
$:	10792
ĠLORD	10791
motion	10790
ĠGET	10790
Wa	10787
bigl	10786
LIB	10786
Ġrubber	10786
219	10785
Ġacceleration	10784
ĠCIA	10784
1981	10783
OW	10782
BY	10781
ĠCondition	10780
login	10779
xff	10778
Ġutilizing	10778
../	10777
308	10776
Ġmyocardial	10776
Ġë	10775
Ġpediatric	10775
Ġbilateral	10775
ĠSaint	10774
best	10773
journal	10771
ĠSteven	10771
Ġlas	10770
Ġethics	10770
ĠVideo	10770
Ġridiculous	10768
Ġplotted	10768
svg	10767
Sch	10766
Ġtunnel	10766
'"	10765
xb	10764
Ãª	10762
hpp	10762
Ġrevision	10761
ĠDemocrat	10759
Ġpsychiatric	10758
RING	10757
vable	10756
Ġhouseholds	10756
Ġrod	10755
037	10754
ĠAss	10754
Ġshower	10753
Ġbiopsy	10753
Ġdiscipline	10752
rail	10751
910	10749
Ġunstable	10748
vant	10747
lh	10744
Ġphosphate	10743
{|	10742
Ġdig	10742
props	10740
Ġmount	10740
Ġheaders	10740
Ġcollecting	10739
ĠAnthony	10739
Java	10738
Database	10738
Ġeliminated	10737
Ġ135	10737
trace	10735
Ġrendering	10735
icated	10732
???	10732
082	10731
Ġrestored	10730
Ġfractions	10730
Ġshaped	10729
iÃ³n	10727
hra	10727
Ġvacation	10725
eating	10724
Ju	10724
ĠPor	10724
Proxy	10722
299	10720
working	10719
Ġhabits	10719
Ġcharacterize	10719
ĠBuilding	10719
ĠWild	10716
096	10715
,*	10715
Ġmapped	10715
})=	10714
Ġ]{}	10713
Ġterrorism	10712
smallcaps	10709
yst	10707
Ġparam	10704
wen	10701
functions	10700
Ġsy	10700
RAL	10698
Ġ03	10698
237	10697
safe	10695
Ġconscious	10695
Ġbrush	10694
Ġcytokine	10693
idity	10692
Ġopposing	10692
Selection	10691
Ġ700	10691
created	10690
DING	10690
998	10689
graphs	10688
tat	10684
oured	10684
Mac	10684
roo	10683
Ġcelebrate	10682
ĠRen	10681
Ġsubjective	10680
tens	10679
RNAs	10678
Ġpic	10676
à¤°	10675
DX	10675
Ġquestioned	10675
Ġcalibration	10675
pres	10673
Ġgrows	10671
ylation	10670
bold	10670
234	10670
ĠFourth	10670
})$,	10669
ĠMother	10668
Ġaluminum	10667
ĠMas	10666
ĠĠĠĠĊĠĠĠ	10666
bridge	10665
=\{	10665
Ġears	10665
aman	10664
Ġpaste	10664
eca	10663
sx	10662
Ġcomedy	10660
cro	10659
Ġfn	10659
rect	10658
PORT	10658
Google	10658
Ġdeposited	10658
Ġdemanding	10657
Ġregards	10656
Ġencouraging	10655
Xi	10654
Ġtranscriptional	10653
Ġenabling	10653
uge	10652
chloro	10650
Ġmic	10649
Ġexploring	10649
Ġchemistry	10649
288	10648
anted	10647
GD	10645
ĠSummary	10645
Unc	10644
Ġrounds	10644
Ġessence	10643
Delegate	10638
Ġillustrates	10636
ulo	10635
nies	10635
Ġelite	10634
annotation	10632
Ġlane	10632
390	10631
Ġpride	10629
aan	10628
Details	10627
Ġrefugees	10627
Ġdesktop	10626
Ru	10625
ĠOlympics	10625
ĠMR	10625
protected	10624
Ġremembered	10622
tet	10620
Ġsubsection	10620
Ġoffenses	10619
ĠMeta	10619
Ġmusical	10618
ĠVar	10618
756	10615
MEM	10614
811	10614
Ġdf	10614
ÂłÂłÂłÂł	10611
dden	10611
Ss	10611
Ġdrift	10611
Ġexamining	10610
Ġequivalence	10610
Ġpole	10609
ĠCulture	10609
ĠLady	10607
Ġcumulative	10606
Ġpsycho	10601
Ġassessing	10601
ĠMY	10600
Ġhepatic	10599
success	10598
umi	10597
Ġns	10597
Ġcoaches	10597
Ġapi	10597
nings	10596
Ġimproper	10596
Ġdemographic	10596
Ġ256	10595
Ġdining	10594
Ġjournalists	10592
tres	10591
(:	10591
073	10590
Ġwrit	10590
Ġtap	10590
Ġknock	10589
Ġpassive	10585
052	10584
081	10583
Ġbeef	10583
324	10581
089	10580
Ġexpecting	10579
TON	10578
038	10578
Ġwalks	10578
Ġanticipated	10578
ĠANOVA	10577
ules	10576
ception	10576
Ġtons	10576
ĠFDA	10576
Ġbitcoin	10575
Ġforcing	10573
TW	10572
Ġmetals	10572
hos	10571
Meta	10571
article	10569
čĊčĊĠĠĠĠĠĠĠ	10568
]*	10566
Ġprimer	10566
ĠSize	10566
Mintage	10565
1111	10565
ĠINTO	10564
Ġopponents	10563
ĠMich	10562
fing	10561
ĠAtlanta	10561
mad	10560
Ġfin	10560
Ko	10559
801	10559
zh	10557
549	10557
oney	10554
nish	10554
Seq	10552
Ġedited	10552
Ġallocated	10551
Ġmounting	10550
gne	10549
ĠET	10547
á	10546
Ġgit	10546
Ġ131	10543
ĠBowl	10542
social	10541
lium	10540
ĠEPA	10539
NES	10538
Effect	10537
Ġchampionship	10536
KO	10535
Ġspray	10535
Ġscrew	10535
Ġpreceding	10534
Ġexc	10534
agen	10533
Ġelevation	10533
ĠExchange	10532
Ġmechanics	10530
itated	10529
Ġflesh	10529
omers	10528
ĠBlood	10527
Ġalarm	10525
_**	10523
prev	10520
anu	10520
Ġslower	10520
ĠNT	10519
ĠDeputy	10519
ĠCarter	10519
Ġcru	10517
ĠFestival	10517
510	10514
padding	10513
ĠDR	10513
ðŁ	10511
season	10511
inen	10511
555	10511
Ġì	10511
Ġko	10511
Ġconsist	10510
hall	10508
275	10507
ĠSoc	10507
ĠBarack	10506
amount	10505
Ġbandwidth	10502
/)	10499
Ġfatal	10496
})^	10495
LG	10494
Ġhem	10493
phe	10492
Ġscrap	10488
KI	10487
ĠSim	10485
071	10483
oan	10482
710	10482
Ġfil	10482
]{}.	10481
Ġantibiotic	10479
ĠSupplementary	10479
ulus	10478
ivo	10477
Ġwashing	10477
Ġadaptive	10477
Ġhosted	10476
visible	10475
\!\	10474
Ġqualify	10474
ĠCB	10474
Ġdeparture	10472
ĠGreece	10470
051	10468
Ġallies	10468
Ġauthentication	10467
ĠMoscow	10466
Ġcontainers	10464
proto	10462
fff	10461
Ġoz	10460
sul	10459
inity	10459
Ġ360	10459
ESS	10458
ĠCould	10457
atum	10456
Great	10456
Ġpancreatic	10455
Ġavoiding	10455
Ġutil	10454
boot	10450
Best	10450
403	10449
ĠLED	10449
Ġsitu	10448
ĠSeven	10448
boolean	10447
Ġur	10447
Ġvirtue	10446
Ġthroat	10446
Ġsimplicity	10446
ĠCONDITIONS	10446
ĠRoss	10445
ĠDist	10445
Ġtra	10444
Ġacc	10442
ĠLaboratory	10441
Ġsummarized	10440
ggy	10438
bigr	10436
Single	10435
Ġstat	10435
Ġpassengers	10434
entity	10433
=\"	10432
Ġelect	10432
ĠManchester	10432
ĠDuke	10432
middle	10431
Ġregulating	10431
0100	10430
Ġthoroughly	10429
inson	10425
Ġpropagation	10425
Ġborders	10424
Ġagrees	10422
jan	10421
Ġwhereby	10421
Ġfiltered	10419
Ġnights	10418
Ġclearance	10418
244	10417
Ġjoke	10416
EK	10415
083	10415
Ġcaptain	10415
Ġadequately	10415
Ġattitudes	10413
something	10412
ĠRes	10409
Ġoutlined	10408
Ġ129	10408
ĠHam	10407
kon	10405
elin	10405
burg	10405
ĠKh	10405
Ja	10404
Ġmalignant	10403
ä¸į	10401
Ġthy	10401
Ġtransmit	10400
Proof	10399
Ġinfer	10397
ĠBO	10397
Ġrecipient	10396
432	10395
Ġsurvived	10394
272	10393
erce	10392
imm	10391
]+	10391
constitutional	10389
Ġcoalition	10389
tate	10388
lex	10388
frequency	10387
Ġ04	10385
cept	10382
616	10382
Ġdelta	10382
dine	10380
ACH	10380
esta	10379
Ġhandful	10379
Ġcontinuum	10379
utes	10378
ario	10378
ĠPatrick	10376
Ġrejection	10375
xo	10374
dst	10374
ĠNP	10373
âĤ¬	10372
\}$,	10371
Ġcrude	10369
ĠDoctor	10369
Ġenrichment	10368
Ġperformances	10367
Ġgeo	10367
pert	10366
city	10366
ĠCountry	10366
313	10365
370	10364
Ġblend	10363
Øª	10361
Ġsymptom	10360
Ġdeadly	10359
design	10356
Ġqualitative	10356
ĠLevel	10355
Ġproving	10354
ÎºB	10353
oly	10351
\!\!	10351
Ġ132	10350
LOW	10349
Ġ170	10348
ĠGas	10347
ĠLI	10345
Ġluminosity	10344
Ġsensing	10343
^.	10336
242	10335
Move	10334
ERT	10332
Ġappellee	10332
092	10331
ÃŃa	10330
friendly	10330
setting	10329
Ġorganisation	10328
typename	10326
Ġsink	10325
Ġinteracting	10325
loader	10323
Sorry	10323
}_{{\	10321
gb	10321
925	10321
âĪ	10319
thin	10318
ĠWarren	10318
Ġdirty	10317
Ġhighway	10315
ÐµÑĤ	10314
097	10314
ĠDS	10314
Ġpreferences	10312
Conclusion	10310
ĠBad	10310
830	10309
ĠOl	10309
Ġnovo	10308
union	10307
ĠWHO	10305
sA	10304
:"){	10304
tables	10303
Ġmaintains	10298
Ġcritics	10298
Ġcampaigns	10298
webkit	10297
322	10297
069	10295
Ġdeck	10295
Ġforeach	10293
Ġdeployment	10293
Ġtheft	10292
Ġspecialized	10292
goto	10291
hou	10289
Ġquotes	10289
Ġclone	10289
Ġbesides	10289
Sy	10288
ĠMotor	10286
}_{-	10285
vubuntor	10285
Ġproductivity	10285
Ġembrace	10285
ĠBASIS	10285
Ġendo	10284
toc	10283
Ġconnectivity	10282
ĠHAVE	10282
backs	10281
Ġmit	10280
456	10279
Ġgoverned	10277
Unknown	10274
'+	10273
native	10271
Ġprobes	10271
Ġactin	10271
ĠCooper	10270
proof	10269
ĠBlock	10269
policy	10267
pcbi	10264
Ġcompiled	10264
=============	10263
Exp	10262
ĠEarly	10261
Ġproximity	10260
ĠFO	10260
uter	10259
pie	10259
focus	10259
Power	10256
Native	10255
Ġhub	10254
ĠMonte	10254
nop	10252
Ġreversal	10250
Ġinvoke	10250
Ġcyber	10250
ĠGra	10250
Ġlisting	10249
ĠTaiwan	10247
ĠMcC	10247
:-	10246
Ġengines	10246
Card	10245
allo	10244
ĠHS	10244
Ġcurrents	10243
rina	10240
memory	10240
Send	10240
present	10237
="-	10237
Still	10236
Ġrolled	10236
lish	10235
Xml	10235
Ġidentifier	10235
Ġelementary	10234
Ġmem	10233
~.	10232
Ġbeans	10232
Ġautomobile	10232
theme	10231
oic	10229
ICK	10229
Ġtower	10229
external	10228
Ġharassment	10227
KING	10226
Ġpotentials	10226
HTTP	10224
ĠEconomic	10224
Flow	10221
Ġmeters	10221
Ġjunior	10221
Ġcoll	10219
Ob	10217
Ġbanking	10217
460	10216
Ġenriched	10216
Ġconvince	10216
ĠSar	10216
Ġsituated	10215
Ġchampion	10213
omycin	10211
Ġstake	10211
shot	10210
Ġperforms	10210
Ġdisable	10210
wr	10209
Ġcompanion	10209
Ġequals	10208
ĠFranklin	10208
eland	10207
Ġlam	10206
077	10205
ĠDes	10205
ĠAnimal	10205
)},	10204
Ġrecruited	10204
ĠHy	10204
Ġspite	10203
Ġburied	10202
Several	10200
Ġhar	10200
holder	10199
ĠAng	10198
Stat	10196
oud	10195
444	10193
Ġdefeated	10193
ĠReference	10193
Ġindicators	10192
bul	10191
Ġcatheter	10190
ĠSite	10189
í	10186
ä»	10186
Ġrelax	10186
anto	10183
Ġshoulders	10183
Ġquarterback	10182
Ġgaming	10180
pra	10179
onne	10178
aza	10178
866	10178
Ġki	10178
ĠStatus	10178
Standard	10177
important	10176
068	10176
.__	10175
Ġapple	10175
ĠGulf	10174
olate	10173
Ġnucle	10173
though	10170
storage	10170
Ġextensively	10170
Ġ192	10170
Ġfoster	10169
Ġemotion	10167
ĠSeason	10166
ĠBro	10166
course	10165
090	10165
Ġelastic	10165
Ġdevoted	10164
ĠStatistical	10164
LED	10162
Ġvolunteer	10159
mented	10158
ĠMM	10158
Ġsaline	10157
Ġcoronavirus	10157
+}	10155
Ġsyn	10155
Ġpronounced	10154
Folder	10153
ĠHeart	10153
ĠAtlantic	10152
atives	10151
Ġproto	10151
Ġmountains	10151
Ġdeployed	10151
ÑĢÐ°	10149
Ġirrelevant	10149
Ġanalytic	10149
nea	10148
Library	10148
omics	10147
8000	10147
Ġdielectric	10147
Ġabnormalities	10146
Ġprocedural	10145
ĠmiRNA	10145
Ġceremony	10145
Pool	10144
Ġracing	10144
294	10143
054	10143
Ġtouched	10143
Ġstrikes	10143
Ġministry	10143
Ġthemes	10142
Ã©r	10141
vd	10141
mens	10140
ĠGer	10138
ĠHay	10137
Follow	10135
infected	10134
dma	10133
331	10133
xd	10132
emp	10132
Ġ240	10132
Ġascending	10131
going	10130
Ġdamn	10130
ĠPT	10130
253	10129
upper	10128
Ġresponding	10128
ĠTarget	10128
ĠNative	10128
Ġabused	10126
Paul	10125
standing	10124
ĠDigital	10122
aku	10121
prec	10120
bun	10120
Ġgrasp	10120
902	10119
Ġdepicted	10117
hide	10116
Ġoverview	10116
PIN	10115
Ġarrangements	10115
Ġdeb	10114
ĠFin	10114
links	10112
Ġsto	10112
Ġparental	10112
Ñħ	10111
/$	10111
Ġcyclo	10111
aru	10110
091	10110
Ġconsequently	10110
soft	10108
components	10108
ĠDen	10108
between	10107
>'	10107
Ġram	10105
238	10104
Ġresection	10101
Meanwhile	10099
Ġimmun	10099
Ġfixing	10098
Ġbullet	10098
Ġ[$\	10098
inos	10097
Ġexercises	10097
ensis	10096
ĠJay	10095
usion	10094
scal	10094
Ġputative	10093
dow	10092
nate	10091
Expr	10091
jquery	10088
Ġaccepting	10088
track	10087
IK	10087
895	10085
ĠJane	10083
Ġprompt	10082
stu	10081
ebe	10081
Ġzones	10080
ĠIron	10080
309	10079
Ġroyal	10079
Ġfears	10078
^{+	10077
Ġgra	10077
Ġranks	10076
Ġimplicit	10076
gmail	10075
Ġfeaturing	10075
Ġreproductive	10074
uated	10073
502	10072
047	10072
third	10071
860	10070
Ġpla	10070
Ġinterfaces	10068
Ġadhesive	10068
QU	10067
1979	10067
lai	10065
Green	10065
Hz	10063
Ġwishes	10063
iw	10062
-[	10062
Ġasymptotic	10062
712	10060
Ġ07	10060
1004	10059
0011	10059
Ġdecree	10058
Ġhunting	10057
425	10056
National	10054
ĠBody	10054
PAR	10053
Ġportable	10053
Ġdemanded	10053
Ġrestrict	10052
Func	10050
iki	10049
Ġnotable	10049
Ġgaps	10049
560	10048
azole	10046
ĠUC	10042
Ġheaven	10041
835	10039
toggle	10037
Ġnotification	10037
ĠIranian	10037
pir	10036
662	10036
098	10036
Ġtrips	10036
Though	10035
English	10035
Ġforgotten	10035
rain	10033
Ġdeputy	10033
Ġsophisticated	10032
single	10031
ĠReserve	10031
HB	10030
Ġcompositions	10029
ĠDeath	10029
Ġ'<	10029
lx	10026
enes	10026
dll	10026
Î½	10024
Ġrabbit	10023
phosphate	10019
#.	10019
Byte	10017
Ð½Ð¸	10016
Ġmorph	10016
ĠAli	10016
ĠChen	10015
react	10013
ience	10013
Ġproductive	10013
ĠGP	10013
Ġscar	10012
ifi	10010
Ġsearches	10009
Ġbubble	10007
cation	10005
**:	10002
cep	10000
ĠProcedure	10000
ulates	9999
Visible	9999
Ġbiochemical	9999
]$,	9997
ction	9996
Ġmer	9996
Ġcentered	9996
Ġspreading	9995
gence	9994
Ġprintf	9993
ĠFifth	9991
emb	9984
clock	9984
Ã£o	9983
}|\	9983
LAR	9983
Ġjournalist	9982
ĠSl	9982
Tu	9981
Variable	9980
Encoding	9980
261	9980
ĠInternal	9980
squ	9979
504	9978
290	9978
Ġpound	9978
Ġcli	9978
schemas	9977
Ġdiscount	9977
hoo	9976
LER	9975
Ġcirculation	9975
ä¸Ń	9974
paper	9972
phen	9971
lins	9969
Ġvoices	9969
Ġprohibited	9969
Ġpension	9969
Ġarrows	9969
feature	9966
Ġpit	9966
panel	9965
fil	9965
Mock	9964
kb	9963
Ġaccompanying	9962
ĠRan	9959
olds	9958
530	9958
Short	9957
Ġcalculating	9956
cra	9954
looking	9953
Ġshed	9953
som	9952
apt	9952
Ġven	9951
Ġneglect	9950
Ġclicking	9949
ĠWARRANTY	9949
898	9948
ĠBeijing	9947
ived	9946
ĠRobinson	9946
ĠArabia	9943
265	9942
čĊĠĠĠĠĠĠĠĠĠ	9941
GU	9940
Ġassembled	9940
620	9939
Ġciting	9939
ĠRad	9939
ĠArthur	9939
uj	9938
intestinal	9937
phys	9936
Ġgently	9935
Ġbones	9935
AW	9934
Ġchemo	9933
ĠFer	9931
mv	9928
Ġtemple	9928
Ġadmits	9928
period	9927
ä¸º	9926
scripts	9924
Ġclarify	9924
Ġwx	9923
Ġmes	9923
319	9922
easy	9921
REA	9920
812	9919
Ġpathogenesis	9919
}</	9918
506	9918
344	9915
Ġultrasound	9915
Ġmas	9915
Wi	9912
INS	9912
Ġinfusion	9912
agent	9911
Men	9911
Ġgathering	9910
kis	9909
Ġcirc	9909
Ġ[âĢ¦]	9909
Ġhist	9908
Ġdough	9907
850	9905
TRUE	9904
Ġpredominantly	9904
Ġharsh	9904
nder	9903
eurs	9902
Ġoutbreak	9902
acted	9901
Ġteaspoon	9899
Ġsongs	9899
NAL	9897
Ġwaited	9896
Ġportfolio	9896
Ġcattle	9896
672	9895
ĠTH	9895
gd	9894
ession	9893
Ġnucleotide	9892
Ġlanding	9892
contact	9891
Ġsoccer	9890
ĠActive	9888
833	9887
ĠFla	9887
744	9886
Ġquantified	9886
Ġrevenues	9885
ĠDead	9885
Ġguided	9882
Ġcre	9882
ĠDef	9880
915	9879
266	9879
Ġstructured	9879
ĠEve	9878
Place	9877
Ġphotographs	9877
ĠBall	9877
SSL	9875
exception	9871
Ġtrait	9871
lide	9869
alk	9868
sect	9867
accept	9867
Ġimproves	9867
ĠSept	9865
Ð±	9862
Ġflex	9862
ĠKennedy	9862
Sign	9860
Ġquark	9860
(@	9859
Ġconsiders	9857
nable	9856
Transform	9856
Ġwooden	9856
Ġalkyl	9856
;<	9854
olytic	9853
Ġanalyzing	9853
works	9852
Ġinjunction	9852
516	9851
ĠUs	9851
income	9850
rog	9849
Ġpressing	9849
Ġskilled	9848
tit	9847
Ġpriest	9846
Having	9845
TZ	9843
Ġgifts	9843
Private	9842
Ġmanufactured	9842
ĠCommerce	9842
ione	9841
ĠLegend	9841
socket	9840
Ġstimulated	9840
Ġseverely	9840
mix	9839
license	9838
Parse	9838
ĠYES	9838
ados	9837
Blue	9837
804	9837
Ġsoluble	9837
Ġcotton	9837
ĠSand	9835
Ġpolls	9834
ĠSecret	9834
hak	9832
Ġurged	9832
Ġcollateral	9832
tonic	9831
Ġtin	9830
parser	9827
Could	9827
806	9827
Ġtypename	9826
Ġaut	9824
ÑģÑĤ	9823
ĠCou	9823
dled	9821
LAN	9821
Ġinteractive	9821
eux	9819
ĠIE	9819
hum	9818
Ġspherical	9818
Ġdressed	9818
Ġoutlet	9817
Ġcortical	9816
cial	9813
412	9813
273	9812
Ùİ	9808
shop	9808
Ġdarkness	9807
Ġantioxidant	9807
Ġjavax	9805
ĠAccount	9805
orm	9803
except	9803
Ġbadly	9803
fact	9801
Ġranged	9801
ãģĮ	9800
WD	9800
Ġprisoners	9800
Ġplasmid	9800
Ġterminated	9799
leo	9798
BG	9798
Ġimprisonment	9797
ĠSimple	9796
ĠGuard	9795
nett	9794
ĠKentucky	9793
783	9792
Ġspecialist	9792
Tri	9791
NU	9791
obi	9790
oline	9789
configuration	9789
atus	9789
Ġcro	9789
ĠDelhi	9788
Ġarterial	9787
Ġswitched	9785
Ġcontend	9784
iating	9783
cess	9783
batch	9783
Ġdashed	9782
ibe	9780
}%	9779
EW	9779
Ġdictionary	9779
ĠCreek	9779
Ġvapor	9777
Ġfriction	9777
bach	9776
048	9775
Ġredirect	9775
Ġbugs	9774
ĠGraham	9774
posing	9773
meter	9773
ĠFE	9773
Ġ220	9773
processing	9770
icus	9770
239	9770
ĠFred	9770
rex	9769
Ġpaired	9769
918	9768
Ġvarieties	9768
ĠNK	9768
Âĳ	9767
Ġinch	9766
Ġwaiver	9765
Ġ1971	9765
Ġsealed	9764
Mat	9763
Notes	9761
Ġatt	9761
ĠPP	9761
Ġsectors	9760
iste	9758
ĠNMR	9757
Ġinability	9756
Ġep	9756
Ġbuilder	9756
lik	9755
oit	9754
usive	9753
Ġlogo	9753
880	9752
ĠRs	9752
REF	9750
070	9750
ryl	9749
layers	9749
Ġbladder	9749
Ġacres	9749
nv	9746
891	9746
Ġcontractor	9745
Ġrefusal	9744
Ġpie	9744
ĠReact	9744
815	9743
Ġter	9743
Ġconstituted	9743
nw	9742
Ġsym	9742
Ġcoil	9741
worth	9740
dog	9738
Ġshelter	9738
="@	9737
ĠHot	9735
ult	9734
Ġspo	9733
ĠEvidence	9732
fluoro	9731
Living	9731
Ġmanipulation	9731
ĠWang	9730
iota	9729
ÛĮ	9728
VALUE	9727
)}}	9726
calc	9723
Ġprognostic	9723
ĠAdams	9723
Ġexpressly	9721
operation	9720
Ġcop	9720
ĠDow	9719
pton	9717
Ġfiltering	9717
Ġembryos	9716
=""	9714
Ġpsych	9714
ĠSEC	9713
*[	9711
dag	9708
416	9708
extra	9707
encing	9707
Ġpray	9707
ĠMatthew	9707
821	9706
ĠHarvard	9706
Ġtransistor	9704
ĠSupp	9704
moving	9703
Ġsoup	9703
ĠStop	9703
Ġuncertain	9702
ĠShort	9702
ĠPay	9702
Ġincorporate	9701
Ġdeploy	9699
ATT	9697
dale	9696
Ġtransplantation	9695
Statement	9694
ĠIO	9694
824	9693
ĠMedicare	9692
Ġaforementioned	9691
oko	9690
Ġsplitting	9690
Ġoverexpression	9688
ĠMobile	9688
ĠCap	9687
Michael	9685
Ġfla	9685
ĠTurkish	9684
ĠTraining	9684
736	9683
Ġsupplemented	9682
Ġgarage	9682
336	9681
1002	9681
MES	9680
Direct	9680
+)	9680
ĠML	9680
Center	9679
Ġsubstituted	9679
Ð½Ð¾	9678
Ġswing	9678
Ġdesigner	9678
ĠIntroduction	9678
wel	9677
Consider	9677
Mor	9676
ctl	9675
tailed	9674
Ġcookie	9674
Ø¯	9673
olysis	9672
ibly	9672
het	9670
ĠSpec	9670
Ġdozens	9669
ĠTele	9669
Ġseized	9668
Ġmetadata	9668
dable	9666
Ġruntime	9663
HG	9662
Ġsupervision	9662
edy	9661
286	9661
nex	9660
505	9660
cles	9658
Rearrange	9658
ĠEND	9658
writer	9657
books	9657
345	9655
ĠrÃ©	9655
}\,\	9654
ĠPetitioner	9654
ĠCriminal	9654
Ġax	9653
ife	9652
rip	9651
285	9651
ĠTGF	9651
condition	9650
Ġdir	9647
dependency	9646
("%	9646
inous	9645
ĠSL	9645
olar	9644
Mask	9644
414	9643
937	9642
ought	9640
Îµ	9639
&=\	9639
Î¿	9638
osity	9638
ĠItem	9637
clone	9636
\;\;	9636
Ġmineral	9636
framework	9635
bmatrix	9635
Struct	9635
Ġana	9635
099	9632
ĠTru	9632
Ġoptimized	9631
Ġmol	9631
sho	9630
Ġcompetent	9629
Ġcompelling	9629
Ġessay	9628
901	9627
Ġunreasonable	9627
Ġcleared	9627
292	9626
ĠNelson	9626
pattern	9625
Fu	9625
ĠKin	9623
Vertex	9622
Ġpainting	9622
ĠCox	9622
×ķ	9621
056	9621
cate	9620
Ġbeside	9620
ĠCN	9618
ĠGFP	9617
country	9616
anch	9616
Ġtender	9616
Ġproximal	9616
Ġlifted	9616
\,{\	9615
FOR	9615
ĠGordon	9615
Ġdefinite	9614
})}	9613
hill	9613
Scope	9613
ĠTree	9612
Cre	9610
Help	9609
Ġlogistic	9607
Ġpresumably	9606
Ġmill	9606
Ïģ	9605
Symbol	9605
HM	9605
411	9605
Ġelectromagnetic	9604
RET	9603
540	9603
ĠEverything	9603
locked	9602
Interval	9602
Ġstochastic	9601
team	9599
angular	9598
Character	9598
780	9598
ĠAnt	9598
Ġensures	9597
}{(	9596
553	9596
ĠRepresentative	9596
Ġrefresh	9595
Ġimplicated	9595
Ġbeating	9595
ride	9594
Ġtimeout	9593
ĠMil	9593
503	9592
stri	9590
mie	9590
Ġproves	9590
wk	9589
cause	9589
ĠDifferent	9589
stra	9586
920	9586
uded	9585
enabled	9585
Ġvec	9585
Ġintend	9585
ĠBruce	9585
ĠTC	9583
Ġpathogen	9580
832	9579
Ġbears	9577
evo	9575
Figures	9575
Ġdissolved	9575
RAM	9574
ĠEu	9574
Ġrush	9573
Ġenvelope	9573
Ġtex	9572
Ġmicrobial	9569
Ġfocal	9569
ĠPet	9569
bolic	9568
amen	9568
*"	9568
Ġplanes	9568
Ġclaimant	9568
services	9567
collect	9567
ĠLegislature	9567
046	9565
Ġassumes	9565
Ġspectroscopy	9564
Ġsignatures	9564
Ġpathological	9563
ATA	9562
Ġenjoying	9561
Ġdump	9561
Ġ1968	9560
dump	9559
${\	9559
Ġrecurrent	9559
vey	9558
Ġceiling	9558
ĠSydney	9556
536	9555
organ	9553
ĠDenver	9553
ĠLearning	9552
ĠIRS	9552
Ġdealt	9549
Ġconfigure	9549
osomes	9547
Ġunfortunately	9547
Connect	9546
alla	9545
|_{	9544
Ġbite	9544
mutex	9543
0009	9542
cond	9541
ãģ¨	9540
Ġvein	9539
511	9538
Ġjuvenile	9536
Ġgraft	9536
Ġ133	9536
}$]{}	9534
660	9534
]{}(	9533
ĠLincoln	9533
training	9531
ĠStory	9531
ĠRemember	9531
Ġnullptr	9530
lary	9529
Ġports	9529
Ġhierarchy	9529
ĠRomney	9529
microsoft	9527
Ġdocumentary	9527
elif	9526
Ġmandate	9526
ĠAlaska	9526
lett	9525
TK	9525
Ġaggregate	9525
Ùĩ	9524
Ġbreakdown	9523
Ġagriculture	9522
Ġattr	9520
Ġdischarged	9519
Ġwarnings	9518
Ġtor	9518
este	9515
Ġcolored	9515
}}}}	9514
onte	9514
ĠMars	9514
Ġanalogous	9513
Ġadolescents	9512
Ġcanvas	9511
341	9507
ĠYa	9507
rified	9506
Events	9506
Ġleather	9506
ĠRam	9505
science	9503
ĠAk	9503
^{{\	9502
DateTime	9502
:#	9500
249	9497
Ġalternate	9496
ĠSign	9496
uru	9493
stats	9493
Boolean	9492
Ġcute	9492
Ġcontributor	9492
BIT	9489
314	9489
HW	9488
Ġnanoparticles	9486
ĠjQuery	9486
contains	9485
Progress	9485
basic	9482
Ġcoherent	9482
ĠSNPs	9481
AQ	9480
yz	9478
343	9478
antly	9476
cey	9475
Off	9474
Ġski	9474
Ġsuspicion	9472
pages	9471
ĠComm	9471
332	9470
gins	9469
Ġhr	9469
issue	9467
ĠBL	9465
eclipse	9464
0015	9463
Ġstadium	9463
065	9462
ĠSR	9462
ĠBoolean	9461
lesssim	9460
Pu	9460
Ġsalad	9460
ĠDatabase	9460
Ġthreatening	9458
icating	9457
435	9457
tti	9456
ACC	9456
Ġuntreated	9456
ĠLD	9456
Watch	9455
877	9455
ĠInterest	9455
ĠResource	9454
reported	9453
SEC	9453
ĠStewart	9453
Runtime	9451
864	9451
Ġparliament	9451
Ġ144	9449
Ġ##	9449
gly	9448
Ġviolate	9447
094	9446
MER	9445
Ġgenus	9444
mk	9443
ĠBaltimore	9443
ĠCV	9441
Ġcoin	9440
Ġattracted	9439
ĠBas	9438
cellular	9434
912	9434
415	9433
Ġfibrosis	9433
Password	9431
health	9429
Ġfer	9429
sad	9427
bia	9427
apo	9427
uda	9426
atom	9426
ĠRussell	9426
March	9425
ĠMississippi	9424
Ġendpoint	9423
ĠBea	9423
Normal	9422
ĠWars	9422
skin	9421
ĠConvention	9421
848	9419
Ġmetabolites	9418
iko	9415
Ġdisadvantage	9415
ĠSingle	9414
ĊĊĠĠĠĠĠĠĠĠĠĠĠĠĠĠ	9414
stylesheet	9413
Err	9411
Ġopponent	9411
resources	9410
eco	9410
326	9410
Ġdelivering	9410
ĠStadium	9410
Ġurinary	9409
Ġduct	9408
Ġoverflow	9406
ĠPhase	9406
repeat	9405
Ġsing	9405
Ġisomorphism	9405
lips	9404
ether	9404
could	9403
287	9403
Ġlogging	9403
Ġdependencies	9403
ĠTI	9402
Ġthorough	9401
ĠMont	9401
Ġhockey	9400
289	9399
know	9398
Ġlap	9398
Ġiteration	9398
story	9397
lant	9396
USER	9396
Bit	9395
317	9393
scroll	9392
nodes	9391
Ġpeaceful	9391
oner	9389
Ġsits	9388
Ġmarrow	9388
sectional	9387
imate	9387
gro	9387
Ġpizza	9387
ĠSn	9386
Language	9384
FG	9384
ĠLas	9384
790	9383
455	9383
Ġctx	9382
\}\	9381
MASK	9381
078	9380
Pattern	9378
ĠBattle	9377
061	9376
Ġnevertheless	9376
particle	9374
ĠCharlie	9374
805	9373
Ġconcentrate	9373
aug	9372
515	9372
Ġunlawful	9371
mobile	9370
827	9369
621	9368
Ġcart	9368
fulness	9367
Ġrelatives	9367
Ġrehabilitation	9367
VT	9366
mple	9364
Ġchromatography	9364
ĠTal	9364
ĠProtein	9362
wick	9361
Ġâ	9358
longrightarrow	9357
ĠProduct	9356
ardo	9354
819	9354
READ	9351
uin	9350
Ġpun	9350
Ġcrops	9349
Ġaud	9349
1007	9348
ĠiOS	9348
Ġcomplementary	9348
ĠMom	9347
cols	9346
ĠSat	9346
ĠAntonio	9346
Yet	9345
Ġsubsets	9345
inating	9344
="{	9344
Ġmisconduct	9343
sight	9341
:*	9340
Ġcoordination	9340
Ġretrospective	9339
Ġadjusting	9339
ĠVictoria	9339
activated	9337
Ġregulator	9337
Ġalleges	9337
ruby	9336
TIME	9336
695	9336
Ġsubmission	9336
oman	9335
Temp	9335
602	9334
Ġovarian	9334
economic	9333
ĠWA	9333
316	9331
Ġbanned	9331
Î´	9330
Ġchurches	9330
ĠIndependent	9330
Render	9329
Ġdye	9329
856	9328
Ġkeyboard	9328
Ġdelays	9328
Ġconstrued	9328
Ġdisappeared	9327
ĠChairman	9327
Ġ"^	9326
Cap	9324
ajax	9323
ĠDean	9323
~/	9322
Ġconductive	9322
immer	9320
amin	9320
Gl	9319
Feature	9319
Ġlat	9319
246	9318
sound	9316
OME	9314
yce	9313
erie	9312
064	9312
==============	9311
-)	9311
volume	9309
Ġslices	9309
Drop	9308
408	9308
Ġformally	9308
parameters	9307
Rep	9307
810	9307
controlled	9306
Ġutilization	9306
CCC	9305
291	9305
series	9303
Ġloc	9303
Ġpursuit	9302
Ġmuseum	9302
ĠBow	9300
ĠIr	9298
compare	9296
079	9296
Ġshield	9296
Ġattach	9296
hering	9295
Ok	9295
899	9294
ready	9293
uta	9291
runtime	9291
oons	9291
ylated	9290
Ġ(_	9288
olation	9287
Ġoldest	9287
Ġdepartments	9287
Ġpod	9285
Ġoverwhelming	9285
Ġsubstitution	9284
Ġdesert	9283
localhost	9282
Ġaddiction	9282
Ġ145	9282
Word	9281
Ġfailures	9281
ĠRecord	9281
Ġexceptional	9280
ĠCur	9280
electric	9278
PAGE	9277
392	9276
dark	9275
Ġpopularity	9275
Ġcatalog	9275
={\	9274
ĠâĢĿ	9274
resolution	9273
duced	9273
Welcome	9273
Ki	9273
777	9273
Ġmyth	9273
alia	9271
053	9269
Ġbp	9269
lei	9268
518	9268
sports	9267
market	9267
"`	9267
Ġflood	9267
many	9266
Ġfavourite	9266
mia	9265
fty	9264
Cluster	9264
Ġcombustion	9264
eyed	9263
vartheta	9260
Ġds	9260
ĠLink	9260
Ġreflecting	9259
fw	9258
Ġromantic	9258
proc	9256
bian	9255
.'"	9255
Ġmold	9255
ĠFreedom	9255
grant	9253
Ġvenue	9253
Ġthyroid	9253
Ġbonus	9253
Ġachievement	9253
ĠFun	9250
adr	9249
Ġsimpler	9249
ĠmiRNAs	9249
ĠEnvironmental	9249
rill	9248
701	9248
883	9247
Ġcont	9247
chel	9246
Shape	9246
yal	9245
Ġmetastatic	9245
Ġconsultation	9245
mous	9244
Ġnowhere	9244
ĠFermi	9244
lights	9243
890	9243
Ġcirculating	9242
Ġwings	9241
ĠBasic	9240
istically	9239
887	9238
Ġsurprisingly	9237
}}{{\	9236
Ġunchanged	9236
Ġkiller	9236
086	9233
Ġphotons	9233
Ġfantasy	9233
281	9232
Ġracist	9232
Ke	9230
ĠSur	9229
virus	9228
DW	9228
ĠNHL	9228
Va	9227
Ġtrajectory	9227
818	9225
Area	9224
389	9224
Ġforegoing	9223
279	9222
271	9222
checked	9221
Ġoriented	9221
fly	9220
Ġmalaria	9220
density	9219
roy	9218
stand	9216
Ġol	9216
Fields	9215
ĠSep	9215
Mesh	9213
trophic	9212
262	9212
Ġcorrespondence	9212
proxy	9211
Ġusername	9210
Ġbore	9210
Ġ06	9210
nah	9209
Ġjumped	9208
iat	9207
oidal	9206
James	9206
ĠsiRNA	9206
Ġprecedent	9206
ĠBrexit	9206
ĠAnna	9206
Ġgentle	9205
Ġassessments	9205
extension	9203
marks	9202
580	9202
Ġburned	9202
Domain	9200
Ġproblematic	9200
igen	9199
Ġrap	9199
expr	9198
870	9197
ĠJonathan	9197
VB	9196
CREATE	9196
ĠRh	9196
FLAGS	9195
rification	9193
culture	9193
KK	9193
isto	9192
database	9192
857	9192
342	9189
Ġdist	9188
Ġbitter	9188
lw	9186
Resources	9186
257	9186
Ġowns	9186
Ġ({\	9186
909	9185
)&	9185
Ġ\~	9185
Ġclarity	9184
ĠCurrently	9184
Ġspine	9183
tiles	9182
896	9182
ifiers	9181
sby	9179
initial	9179
318	9179
Ġproc	9179
Ġlaptop	9177
Ġdeadline	9177
vic	9176
Ġcredits	9175
ĠCleveland	9175
spring	9174
fmt	9174
BV	9174
ROW	9172
Ġluxury	9171
10000	9170
Ġcheaper	9170
ĠMetro	9170
Year	9169
Ġfifteen	9169
Ġfestival	9169
Ġaggregation	9169
1978	9168
328	9167
ĠEveryone	9167
Desc	9166
680	9165
1977	9165
Ġ"_	9165
Ġcatalytic	9164
egg	9163
efs	9163
ĠStock	9163
1976	9162
ĠPRO	9159
ĠOlympic	9157
prototype	9154
348	9154
Ġinferior	9152
Ġgrams	9152
Ġannually	9152
Ġtrains	9151
259	9149
lag	9148
Ġcyt	9145
ĠScottish	9145
Ġscripts	9144
Ġbull	9144
ĠGary	9144
ADD	9142
Ġquestioning	9142
ĠAirport	9142
stal	9141
789	9141
,,	9141
Ġfinishing	9141
-|	9140
Ġheterogeneity	9139
ãĤĭ	9137
Ġkingdom	9135
Ġincoming	9134
\^[	9133
encies	9131
Robert	9129
Ġventure	9129
Ġsorted	9129
Ġballot	9128
Ġpsychology	9127
Å¡	9126
ĠFM	9126
Ġgrip	9125
University	9124
814	9123
Ġunrelated	9123
etics	9121
781	9121
{$\	9120
Ġappearances	9120
Perhaps	9119
363	9119
Ġ!==	9119
leqslant	9118
grad	9118
?:	9118
ĠStep	9115
ĠGI	9115
268	9114
Ġcomic	9114
Ġdisruption	9113
Ġtwist	9112
Ġliberty	9112
Ġtrapped	9111
Ġsender	9111
Ġchunk	9111
polar	9110
sense	9109
823	9109
708	9109
355	9109
Ġfifty	9109
Ġsco	9108
cca	9107
Ġinventory	9107
errors	9106
Ġstoring	9106
Ġlogs	9105
Ġexpects	9105
ĠDave	9105
rational	9104
primary	9104
UPDATE	9104
Ġstreams	9104
ISH	9103
Ġzinc	9103
Ġsmiled	9103
astro	9102
717	9102
Ġconfined	9102
919	9101
Low	9100
Logger	9100
Ġspeeds	9100
nai	9098
cfg	9098
760	9098
Ġprimitive	9098
Ġgirlfriend	9098
micro	9097
ĠMari	9097
IONS	9095
906	9095
Ġpurchasing	9095
Ġ136	9095
Tra	9093
Ġnested	9093
ASS	9092
Ġinterfere	9092
Ġeigenvalues	9092
nier	9091
jet	9091
063	9091
Ġrect	9090
Ġquant	9088
ĠCustom	9088
attributes	9087
610	9087
respond	9081
ARD	9081
Ġmarginal	9081
Ġaccessed	9081
859	9080
ĠÂ§Â§	9080
ĠModern	9080
Ġthermo	9079
cover	9078
citation	9077
Ġroller	9077
amy	9076
535	9076
Ġfracture	9075
Ġdropping	9075
Ġdivine	9075
ĠSto	9075
ĠFre	9075
fore	9074
pod	9073
coding	9069
ĠCohen	9069
}},\	9068
nick	9067
ĠLat	9067
čĊčĊĉ	9067
Ġwanna	9065
Ġcomprise	9065
SX	9063
åħ	9062
xt	9062
Ġpathogens	9061
Among	9060
Ġislands	9060
Ġapproaching	9058
June	9057
284	9057
Ġ|=	9056
GER	9053
422	9053
Ġpackets	9053
Ġain	9052
ĠHel	9052
sea	9051
Ġhumor	9051
atta	9050
Ġ$,	9049
ĠOcean	9048
258	9047
ĠĊĉ	9047
865	9046
263	9046
ĠPri	9046
ĠMorris	9045
820	9044
383	9044
929	9043
629	9042
Cy	9041
Generator	9040
921	9040
Ġunions	9039
ĠProof	9039
ask	9037
Install	9037
ĠSci	9037
fm	9036
ĠHP	9036
AZ	9035
setup	9034
Ġpharmaceutical	9034
plex	9032
lom	9031
Ġrecipients	9030
Ġcos	9030
Âĭ	9029
863	9029
Ġpressures	9029
Ġprecursor	9029
Ġclouds	9029
vision	9028
*).	9028
Ġcaution	9028
Ġ404	9028
omic	9027
Ġintegrate	9027
Instead	9026
Extension	9026
Ġflower	9025
Ġ450	9024
erty	9023
453	9022
072	9022
Ġwars	9022
424	9021
Ġlinking	9021
ĠCAN	9021
ï»¿	9019
Ð¼	9019
Ġeconomics	9019
Ġannounce	9019
/?	9018
Ġ1969	9018
Ġpertinent	9017
ĠGray	9017
GW	9015
ê	9014
ĠRon	9014
Ġcoaching	9013
Ġpathology	9012
Ġimpressed	9012
882	9008
effect	9007
735	9007
Ġcolony	9006
}^*	9004
Ġspeakers	9004
timeout	9002
/#	9002
ĠLO	9002
sequence	9001
mile	9001
Ġton	9001
Ġps	9001
ridge	9000
rox	8995
nem	8994
chat	8994
Ġ\_	8994
ĠWhit	8993
yb	8992
eos	8992
Ġcricket	8991
ĠFollow	8991
iol	8989
eye	8989
ĠTechnologies	8989
shadow	8987
MX	8987
Ġhereby	8986
916	8985
807	8985
Ġsuits	8985
Ġproton	8985
Initial	8983
787	8981
ĠFound	8981
genic	8980
downarrow	8980
,...,	8980
ĠSwitzerland	8980
Ġlacks	8978
Ġfence	8978
Ġappropriately	8978
dig	8977
)}_{	8977
aciÃ³n	8976
Ġrival	8975
Ġsexually	8974
Ġadhere	8973
àº	8971
stre	8971
CAT	8971
Ġbun	8971
448	8970
Ġundertaken	8969
Ġepidemic	8969
ĠTABLE	8969
progress	8968
ĠBetween	8967
Ġfetch	8966
276	8965
ĠRegional	8965
mour	8964
hib	8964
Ġlawmakers	8963
Ġlamp	8963
Ġapprove	8963
Price	8962
gz	8961
334	8961
liness	8960
464	8960
Ġtrafficking	8960
Ġrated	8960
Scroll	8959
075	8958
gis	8957
mpe	8956
Ġsimultaneous	8956
Ġnutritional	8956
dL	8954
451	8954
,\,\	8954
cop	8953
Ġmonetary	8953
Py	8952
885	8952
817	8952
actin	8951
Ġelimination	8950
Ġdisplaying	8950
Han	8949
Dictionary	8949
Art	8949
Ġreminded	8949
ĠDick	8948
ssl	8946
407	8945
[...]
