.	51137017
,	43785932
Ġthe	41288634
Ġof	23446705
Ġand	19922067
Ġto	19264834
-	15955208
ĊĊ	15734916
Ġa	15625551
Ċ	14967932
Ġin	14289715
_	9977951
Ġis	9699568
Ġ(	8498982
Ġthat	8319109
)	7675522
Ġfor	7487313
:	6961753
Ġ	6258669
1	6097706
Ġwith	5757388
2	5611448
(	5574705
Ġ"	5234819
Ġon	4914657
s	4846871
/	4655006
Ġas	4490429
Ġbe	4381951
Ġwas	4358297
Ġit	4290775
ĠI	4273266
Ġby	3931768
Ġare	3893826
Ġ=	3866897
0	3792649
ĠĠĠĠĠĠĠĠĠĠĠĠĠĠĠĠ	3761531
;	3730107
Ġ-	3571868
Ġthis	3395472
ĠThe	3348325
Ġfrom	3296739
Ġ$	3285689
Ġat	3278410
Ġyou	3260456
âĢĻ	3220277
{	3212783
Ġor	3183762
Ġnot	3148776
Ġ\	3141921
*	3127386
}	3034751
Ġhave	2950853
\	2868305
's	2857493
3	2839490
Ġan	2821529
"	2698921
ĊĠĠĠ	2623873
Ġ0	2557168
>	2521676
Ġ1	2468912
Ġ*	2421007
Ġwe	2309909
Ġcan	2125723
Ġwere	2087040
."	1974431
Ġwhich	1950806
$	1950480
4	1948426
="	1934104
Ġhas	1881192
Ġ+	1803253
ĊĠĠĠĠĠĠĠ	1784794
Ġ{	1778839
Ġbut	1769880
t	1756030
The	1755968
Ġwill	1703215
Ġhe	1694742
?	1693666
Ġ2	1688466
d	1686539
).	1671069
A	1649229
x	1639315
Ġall	1637813
5	1629565
a	1615765
Ġif	1611574
ĊĠ	1575383
Ġhis	1571016
Ġone	1567432
I	1552174
Ġthey	1506788
ĠA	1501775
n	1434513
B	1426290
Ġtheir	1404632
Ġmore	1397576
**	1354346
S	1333607
Âł	1329865
i	1317706
_{	1289951
C	1289475
Ġhad	1274394
]	1265720
Ġ$\	1264810
Ġbeen	1263535
<	1231410
Ġalso	1227917
Ġyour	1225724
'	1214002
Ġ<	1212223
),	1203620
);	1194561
ĠIn	1185211
Ġ3	1184735
Ġabout	1175677
Ġwhen	1161905
Ġwould	1159603
=	1147620
Ġtime	1139618
ĠS	1138095
Ġout	1134888
Ġthere	1130516
p	1129862
Ġso	1124242
b	1113748
Ġother	1110767
't	1109100
^	1098529
6	1083851
Ġmy	1077544
ĠâĢľ	1076233
c	1073731
Ġwho	1071153
Ġdo	1046391
m	1043557
ĠC	1041433
Ġthan	1040091
Ġno	1036710
Ġup	1034933
Ġ[	1020097
[	1016516
----------------	1015370
ĠĠ	987102
Ġits	982543
Ġinto	974839
Ġ'	968882
Ġ&	965312
8	962038
Ġ}	960097
ĊĠĠĠĠĠĠĠĠĠĠĠ	951640
f	948471
Ġour	945789
Ġonly	939419
Ġtwo	935094
Ġsaid	925698
Ġher	925367
Ċĉ	913088
e	910298
Ġlike	904659
Ġwhat	904406
7	903511
Ġany	898602
D	890658
Ġ4	888669
Ġsome	884169
Ġmay	880444
Ġnew	879437
ĠIt	866377
ĠThis	859543
k	852417
Ġsuch	846933
%	846763
Ġfirst	843889
ĠP	830268
Ġthese	828252
P	824982
T	823165
g	818209
R	816408
r	809757
Ġ5	805444
ĊĠĠĠĠĠĠĠĠĠĠĠĠĠĠĠ	801752
Ġover	796354
Ġthem	796030
Ġget	792700
Ġme	785539
ref	783805
F	780893
E	780754
ĠM	780400
in	779679
Ġuse	778124
9	774555
type	773873
Ġthen	772763
Ġjust	769573
ĠB	762928
Ġafter	761830
Ġbetween	756701
ĠT	743324
+	729132
M	728440
Ġused	719896
Ġcould	715169
Ġwhere	714236
ĠWe	712974
Ġdata	711818
.,	711379
",	701835
ĊĠĠĠĠĠ	699286
h	694044
ĠD	693257
N	687686
</	687628
Ġpeople	685165
Ġp	685156
Ġv	682909
In	670986
ing	670247
Ġshe	663687
Ġusing	662343
L	657442
j	655628
Ġbecause	654673
H	653130
#	650087
Ġi	649069
ĠF	640748
10	640208
v	640205
{\	636256
Ġshould	626213
Ġ[@	614609
ĠL	613242
!	609931
Ġwell	608194
}\	604723
Ġhow	603239
ĠH	601575
Ġs	601500
ĠR	600642
Ġmost	598094
Ġ.	596404
ly	591860
Ġeach	590828
){	590122
Ġ10	589598
y	588948
ed	588375
Ġcase	586653
ĠE	584654
Ġhim	582804
ĠG	581731
G	578460
Ġclass	573256
Ġ|	571290
Ġunder	570993
ĠN	568305
Ċĉĉ	556278
Ġmake	556000
Ġm	555170
~	549998
Ġwork	549280
Ġthrough	543563
u	539730
ĠĠĠ	538966
ĠU	538146
Ġsame	537909
Ġ@	537596
Ġway	536557
ĠHe	536032
Ġsee	530840
Ġeven	524858
Ġ6	522648
Ġthose	522124
->	520277
frac	520266
Ġyears	519941
Ġvery	519924
Ġnow	518982
X	517764
Ġboth	516511
Ġknow	515724
Ġset	509660
Ġbeing	505758
Ġdid	500818
Ġmany	498999
Ġ_	498946
Ġneed	498603
Ġbefore	494986
Ġnumber	490799
?"	490714
Ġreturn	490558
Ġc	490179
Ġdifferent	489276
Ġright	487759
()	486940
âĢī	486644
](#	483829
l	483345
right	482534
Ġback	480810
}$	478600
Ġhere	473051
::	471956
to	471057
Ġdon	470221
00	467353
com	466974
Ġre	466773
left	466767
ĊĊĠĠĠ	464317
">	463882
z	462360
Ġmade	458553
Ġvalue	458308
--	457391
12	457369
Ġus	453263
Ġde	452845
Ġ\[[@	452581
fig	451855
Ġwhile	451646
Ġt	450789
âĢĿ	450265
ĠâĢĵ	450248
the	449762
q	449307
Ġsystem	446528
://	446095
Ġfound	444178
Ġhigh	443297
ĠK	442238
Ġd	437874
K	435402
Ġmuch	434816
":	433761
Ġ**	433255
Ġstudy	432160
.âĢĿ	431477
Ġe	430097
Ġstate	429827
Ġfunction	429722
Ġthree	428429
Ġgood	427539
ĠFor	424825
w	424675
Ġwant	424062
Ġpatients	423172
Ġpublic	422811
J	422163
Ġ7	422153
ĠIf	421286
Q	419560
Ġwithout	418602
Ġduring	417446
11	414528
Ġcells	413412
Ġname	411660
ĠLet	410846
Ġcourt	410591
_{\	410363
What	409985
W	408053
Ġdoes	407992
,"	407147
ĠĠĠĠ	406884
We	404555
Ġb	404485
th	401548
Ġthink	401479
Ġorder	401466
Ġ8	401268
Ġ//	400304
Ġ:	399975
$,	398700
Ġnon	397354
',	396264
Ġyear	395364
Ġx	394755
V	392897
Ġf	391603
ĠJ	390729
Ġn	389489
ĊĠĠĠĠ	387892
Ġgroup	387255
ĉ	387091
It	383848
Ġpart	382357
Ġagainst	381687
Ġdown	381437
end	379289
Ġend	379201
Ġun	376230
Ġlong	375071
Ġtake	373853
Ġstill	371409
//	370466
$.	369531
}{	368624
Ġmust	368136
Ġlast	367978
ĠĊ	366899
Ġtype	366697
("	365741
re	365016
Ġgo	364605
ĠV	362831
get	361865
Ġinformation	359925
(\	359145
ĠBut	357528
Ġr	357388
Ġsecond	353750
ĠO	353454
O	352653
Ġday	352513
|	352254
Let	350366
This	350052
and	348942
Ġ,	347735
mathcal	347533
Ġresults	346820
int	345668
...	344409
Ġg	340686
();	340591
Ġfollowing	339993
ĠAs	335341
Ġoff	334895
^{	334728
Ġgoing	333851
Ġh	333825
âĢľ	333091
ĠW	332316
Ġlife	331966
Ġfind	331958
čĊ	331282
Ġal	329759
or	329166
Ċĉĉĉ	329070
Ġwithin	327872
],	327446
'm	324560
o	324413
ĠYou	324361
ĊĠĠ	324359
Ġaround	323400
].	320536
Ġsince	320336
alpha	319606
Ġpoint	319082
ĠAnd	318626
&	317648
Ġl	316442
Ġcontrol	316405
,âĢĿ	315158
id	315093
Ġmodel	314770
Ġ*/	314684
Ġanother	314105
if	313161
)$	312929
Ġ12	311847
Ġ9	311523
000	311254
20	309325
U	309262
âĢĵ	308520
Ġ</	307124
Z	306183
Ġam	305717
Ġown	305407
Ġexample	304610
Ġincluding	302560
Ġline	302181
Ġself	302134
Ġtoo	301740
]\].	301463
You	300089
ĠĠĠĠĠ	300008
Ġevery	298938
Ġshow	298403
Ġgiven	298109
Ġhelp	297363
16	296541
15	296503
Ġreally	294666
CR	294642
Ġmight	294502
Ġworld	294360
Ġcell	293260
Ġsay	293068
Ġresult	293037
Ġet	292605
Ġtest	292571
ĠHowever	292105
ĠNo	289787
Ġprocess	289737
Ġ{#	289557
ĠThey	289454
Ġ20	289147
Ġfile	288096
Ġ#	287545
name	287408
01	286758
're	285905
\]	285821
Ġbased	285195
13	284858
Ġ$$\	283756
Ġsupport	283276
Ġpresent	283172
Y	281729
Ġper	281058
Ġform	279556
mu	277667
Ġanalysis	277473
ers	275079
Ġnext	275052
Ġbest	274862
ĠâĢĶ	274280
Ġevidence	274117
ĊĊĠ	273834
Ġ\[	272910
Ġsomething	271930
Ġleft	271069
Ġchange	270759
Ġsmall	270008
Ġmethod	269990
Ġwhether	269901
Ġhome	269349
14	263568
}(	263491
Ġk	262677
Ġplace	262010
ĠĠĠĠĠĠ	261641
Ġpower	260171
Ġfact	259751
âĢĶ	259706
ĠThere	258965
Ġimportant	258812
Ġ11	258491
ĠWhat	257825
Ġfew	257513
Ġbetter	257451
ĠNew	257343
text	257200
,\	257094
Ġabove	256752
Ġlarge	256256
32	255511
Ġwater	254395
data	254037
Ġ15	253781
Ġless	253490
Ġlevel	253107
ĠTo	252771
Ġtrue	252761
Ġnever	252493
label	251884
Ġy	251834
To	250919
mathbb	250553
Ġtreatment	248966
Ġleast	248749
Ġlittle	248152
Ġpossible	247883
Ġ{\	247240
Ġthings	245942
Ġproblem	245520
Ġdue	244620
Ġcome	244151
Ġlow	242384
Ġlaw	242339
ĠĠĠĠĠĠĠ	241487
is	241413
}}	241259
div	241064
ĠX	241009
Ġgreat	240113
Ġlook	238915
Ġfield	238150
ĊĠĠĠĠĠĠĠĠĠ	237912
Ġu	237504
ĠSo	237436
Ġ--	237388
Ġhaving	236299
Ġdays	236042
er	235879
Ġshown	235605
Ġw	235539
Ġgive	235456
begin	234412
Ġeffect	234296
)\	233993
set	233519
Ġgot	233447
Ġcommon	233425
Ġ/	233382
Ġint	233178
Ġtrial	232721
18	232161
Ġfurther	230820
!"	230382
))	229651
If	229066
Ġgame	228686
Ġsize	228285
Ġhealth	227975
Ġlet	227793
Ġcode	227188
pi	226860
Ġexpression	226713
Ġprovide	226661
Ġalways	225792
Ġcurrent	225427
Ġagain	224708
Ġgovernment	224465
Ġ30	224382
Ġfree	224308
of	223896
al	223804
Ġeither	223742
@	223235
Ġknown	223037
Ġfour	222908
Ġcalled	222613
ĠState	221916
li	220934
ĠThese	220919
('	220842
Ġuntil	220448
As	220345
Ġavailable	220211
Ġo	220112
Ġfamily	220032
17	219972
ĠUnited	219899
Ġsingle	219492
Category	219298
Ġman	218823
Ġelse	217934
Ġhuman	217517
aligned	217493
ĠShe	217406
ĊĊĠĠĠĠĠĠĠ	217271
Ġside	216902
Ġmeans	216647
Ġaction	216587
ĠCourt	216489
ĠĠĠĠĠĠĠĠ	215240
\[	215195
Ġ==	214897
Ġvalues	214674
Ġlocal	214558
Ġcases	213838
Ġable	213786
Ġlight	213610
Ġchildren	213589
rm	213408
table	213395
pone	212884
):	212717
Ġmean	212686
Ġseveral	212395
19	211920
For	210773
lambda	210535
Ġhigher	210456
usepackage	210436
Ġreal	210334
Ġpost	210121
ĠThat	209886
Ġarea	209581
Ġtop	209551
've	209433
this	209318
Ġstudies	209076
Name	208921
http	208813
Ġco	208740
up	208709
}$$	208697
Type	208662
Ġbody	208534
able	208430
"}	208323
import	207128
Ġtimes	207032
Ġsignificant	207009
Ġcare	206366
Ġteam	206295
Ġrate	206035
Ġerror	205847
25	205792
span	205766
Ġwhy	205670
Ġ)	205396
Ġput	205136
Ġfull	204970
Ġenergy	203861
Ġstart	203777
30	203502
Ġ16	203403
Ġrun	202354
Ġtotal	202073
ĠStates	200696
Ġ14	200299
Ġspace	200020
Ġsimilar	200018
Ġalready	199299
================	199262
es	199255
Ġdidn	199181
ÃĲ	198349
}_	197939
Ġopen	197469
Ġassociated	197310
Ġlevels	196880
Ġsub	196374
Ġj	196330
Ġresponse	195591
Ġhand	195579
Ġperson	195438
And	195337
Ġ100	195287
org	195278
ĠAll	195182
Ġ13	195072
ĠWhen	195053
Fig	195032
Ġgeneral	194763
---	194743
Ġfinal	194015
Ġlot	193755
><	193212
Ġissue	192953
Ġquestion	192913
ness	192581
Ġrequired	192532
_\	192424
Ġkey	192396
Ġwomen	192289
'll	192174
Ġdone	192021
];	191794
mathbf	191791
Ġaway	191600
Ġsays	191224
ĠĠĠĠĠĠĠĠĠ	191020
Ġoften	190032
Ġ${\	189883
sum	189355
Ġpre	189248
Ġlist	188952
Ġspecific	188670
Ġterms	188086
Ġcall	187898
Ġactivity	187837
string	187823
sec	187534
ĊĊĊ	187382
Ġ=>	186532
Ġlater	186193
for	186130
Ġgroups	185862
Ġhowever	185840
Ġamong	185807
},	185763
21	185468
Ġreported	185377
Ġ18	184910
Ġthing	184586
Ġsure	184499
He	184373
Ġfar	184225
beta	184162
out	183061
Ġcourse	182781
Ġenough	182735
Ġage	182656
ĠY	182545
05	182392
Ġ`	182128
Ġtold	182083
ve	181753
Ġthough	181686
un	181432
sigma	181375
de	181009
Ġcompared	180871
Ġalong	179694
Ġprovided	179180
Ġmaking	179108
></	178709
Ġposition	178434
Ġread	178266
Ġinclude	178192
ĠOn	178151
ĠCo	177727
Ġworking	177419
return	177252
Ġhead	177143
Ġupon	177119
Ġconditions	176797
Ġweek	176330
Ġrole	176245
But	175826
Ġpotential	175630
Ġ%	175392
Ġlower	175370
Ġvoid	175112
Ċĉĉĉĉ	174916
Ġz	174625
}_{	174431
Ġincrease	174333
Ġrange	174323
on	174211
Ġdevelopment	174168
Ġeffects	174155
Ġresearch	174033
Ġseen	173867
Ġrisk	173629
]).	173582
Ġold	173547
Ġplay	173533
No	173360
Ġdoesn	172914
Ġsection	172634
Ġchanges	172535
Ġprogram	172170
24	171771
Ġ([@	171688
Ġtogether	171454
Ġmoney	171412
bar	171083
ĊĊĉ	171051
Ġconst	170596
Ġproperty	170555
ĠâĢĺ	170513
ization	170486
Ġmain	170098
Ġincreased	169931
Ġbecome	169903
Ġkeep	169783
Ġservice	169725
ĠRe	169322
Ġprotein	169312
`	169237
}^{	169235
Ġimage	169203
www	169145
Ġfactors	169083
22	169051
time	168982
^{\	168879
Ġ([	168767
Ġaddition	168628
Ġsource	168350
Ġcannot	168350
Ġobserved	168261
Ġlove	168258
ĠZ	168227
html	168216
Ġ24	168167
Ġbusiness	168114
td	167971
Ġdisease	167605
Ġschool	167317
ĠUniversity	166584
Ġuser	166528
ĠSee	166269
Ġaccording	166164
Ġmonths	166111
"}).	166038
Ġtry	165748
Ġthird	165595
\_	165506
Ġparticular	165001
Ġearly	164948
Ġdoing	164921
Ġ50	164770
ally	164423
Ġcreate	164344
Ġmultiple	164193
Ġcountry	163781
ĠĠĠĠĠĠĠĠĠĠ	163233
Ġanti	163203
Ġstructure	162868
Ġdefendant	162636
Ġdescribed	162115
mathrm	161859
ID	161447
sqrt	161416
Ġview	161345
Ġprivate	161301
Ġthought	161114
Ġpositive	160980
Ġactually	160955
man	160906
key	160847
code	160545
Ġcompany	160491
There	160352
Ġpoints	160318
Ġversion	160015
Ġbase	159870
Ġobject	159757
Data	159724
pm	159428
Ġ25	159089
Ġacross	158973
Ġcontent	158944
no	158806
ĠĠĠĠĠĠĠĠĠĠĠ	158719
gamma	158087
Ġothers	158047
line	158011
Ġreport	158004
class	157655
value	157475
50	157164
Ġperiod	157137
Ġsurface	157099
Ġrather	156958
Ġonce	156740
");	156570
Ġshort	156412
String	156049
Ġstring	155791
delta	155682
Ġlikely	155508
Ġfive	155210
ation	154915
Ġhard	154791
Ġshows	154770
Ġmillion	154616
Ġperformed	154566
Ġshowed	154452
Ġbelow	154349
Ġamount	154343
Ġid	153969
Ġadd	153969
ist	153874
Ġmatter	153810
23	153755
Ġclear	153555
ĠAmerican	153428
Ġfeel	153332
Is	153234
ized	153228
Ġsystems	153122
Ġseason	153083
Ġstandard	152843
bib	152336
phi	152255
Ġfalse	152203
ĊĠĠĠĠĠĠĠĠ	152181
Ġcause	152145
'd	152124
Ġsite	152062
Ġcame	152033
Ġobtained	151767
.)	151543
tr	151471
Ġtook	151404
ĠAt	151398
ul	151287
}^	151209
Ġ17	151078
ĠAn	151016
Ġinterest	150948
Ġfood	150471
Ġwhole	150449
min	150354
Ġ(*	150083
Ġmakes	150002
)(	149981
Ġever	149972
Ġapplication	149943
size	149875
[@	149687
Ġcancer	149627
Ġq	149485
Ġexperience	149476
test	149446
Ġbig	149384
Ġpast	149337
pt	149158
Ġsocial	149079
001	148967
Ġvarious	148848
st	148506
Ġtaken	148488
Ġaccess	148449
Ġterm	148366
Ġconsidered	148114
Ġfuture	148052
Ġadded	148050
Ġrelated	147798
rho	147564
Ġfactor	147492
Ġ>	147419
02	147163
So	146950
Ġyet	146874
as	146819
Ġmen	146467
Ġdefined	146124
ĠOne	145918
Figure	145640
Ġbelieve	144999
ĠGod	144759
Ġproject	144703
")	144320
Id	144183
Ġapproach	144018
100	143939
ĠThen	143453
Ġsolution	143375
)/	143276
64	143230
Ġcommunity	143150
Ġblood	142931
/*	142511
nu	142498
Ġwent	142361
Ġminutes	142355
partial	142164
Â°	141518
Ġdecision	141454
Ġstates	141420
ĠAfter	141323
Ġindividual	141309
Ġbit	141243
%)	140825
le	140417
omega	140127
Ġdevice	139980
times	139699
Ġtrying	139629
Ġreason	139534
Ġincluded	139513
Ġclose	139430
^{-	139371
Ġmajor	139184
ĊĠĠĠĠĠĠ	139136
theta	138884
Ġregion	138801
Ġ$(	138462
Ġmembers	138281
On	138070
Ġtoday	137999
Ġmaterial	137984
ity	137957
Ġrespectively	137953
Ġkind	137889
tau	137772
ĠSt	137699
ÂĤ	137520
ĠUS	137299
],[@	137191
Ġreceived	137128
Ġpercent	136775
Ġwon	136732
Ġadditional	136713
Ġdi	136615
var	136561
Ġtext	136262
Ġcity	136245
Ġsignificantly	136171
Ġanything	136165
ĠQ	136059
Ġpatient	136030
Ġ},	135876
ĠĠĠĠĠĠĠĠĠĠĠĠ	135403
Ġchild	135328
eq	135318
et	135262
Ġevent	135250
Ġface	135235
Ġcertain	134964
Ġhalf	134830
am	134703
Ġclaim	134692
ism	134660
Ġgrowth	134432
Ġneeds	134259
Ġasked	134180
Ġnull	133849
include	133798
co	133782
Ġnight	133749
Ġdeath	133702
Ġ21	133414
Ġgetting	133407
Ġsimple	133315
log	133148
Ġnormal	133042
Ġhistory	133008
by	132528
Ġproduct	132482
ions	132384
Ġen	132102
}{\	132073
Ġcar	132057
Ġ19	132028
Ġlooking	131888
Ġdifference	131415
leq	131343
03	131172
Ġhref	131114
Ġmethods	131064
Ġseries	130972
Ġreview	130969
Ġroom	130832
âĢ¦	130822
Ġvia	130758
Ġperformance	130740
ge	130587
at	130533
Re	130409
Ġproblems	130351
Table	130278
27	129980
Ġparty	129919
self	129917
based	129906
Ġ\\	129886
ĠMr	129850
Ġtarget	129799
$-	129782
Ġthus	129763
Ġissues	129492
Ġinvolved	129487
infty	129330
Ġnetwork	129249
Ġalmost	129205
Ġprevious	129025
Ġnothing	128810
Ġhours	128745
Ġcheck	128677
Ġservices	128624
year	128602
Ġtherefore	128587
40	128566
ll	128471
ad	128442
Ġneeded	128347
Ġexpected	128333
it	128064
Ġpay	128000
List	127902
When	127764
see	127555
ted	127510
Ġpolice	127503
Ġmass	127452
Ġheld	127448
Ġconsider	127280
Ġrecord	127188
How	127142
Ġpopulation	126899
Ġinstead	126846
new	126777
Ġla	126693
list	126647
Ġpaper	126545
Ġunderstand	126431
ĠĠĠĠĠĠĠĠĠĠĠĠĠ	126352
https	126333
Ġcondition	126287
Ġgene	125998
Ãĥ	125845
Ġair	125575
Ġcomplex	125565
Ġrecent	125372
Ġseems	125129
hat	125035
Ġidea	124760
*,	124757
Ġprior	124635
en	124619
Ġlines	124614
Â±	124191
Ġplan	124171
Ġcost	124044
Ġloss	123990
Ġjob	123916
Ġfilm	123765
Ġhouse	123754
ĠÂ§	123681
Ġstep	123680
Ġpolicy	123647
Ġmotion	123579
file	123572
28	123498
čĊĠĠĠ	123339
Ġdesign	123312
Ġweight	123234
Ġcomes	123196
Ġstudents	122892
Ġproduction	122732
Ġmove	122553
Ġquality	122532
Ġ22	122342
04	122230
Ġtell	122175
Ġ...	122132
Ġlead	122101
Ġsomeone	122071
ling	121932
Ġmodels	121835
ment	121780
Ġpage	121579
Ġtaking	121466
Ġstarted	121452
ĠYork	121389
ell	121382
Ġ(-	121339
Ġmedia	121296
Ġmarket	121220
ant	121188
Ġblack	121084
Ġtable	120943
Ġprovides	120851
26	120832
Value	120775
Ġspecial	120727
Ġdistribution	120688
Ġstrong	120635
Ġlive	120603
Ġitself	120548
ĠThus	120349
Ġvar	120312
Ġnecessary	120306
less	119452
ĠDe	119394
Ġaverage	119381
ĠBy	119049
80	118957
Ġsignal	118912
Ġ40	118722
eta	118679
define	118606
Ġallow	118541
ings	118390
px	118355
Ġrights	118343
Ġcon	118257
35	118215
Ġprobably	118089
Ġstory	117987
ors	117937
ms	117902
em	117729
Ġphase	117698
That	117646
ab	117634
ĠTrump	117615
^\	117606
Ġshall	117547
31	117261
Ġclinical	117183
Delta	117154
ations	117121
Ġsample	117078
Ġaccount	116956
net	116585
Ġoriginal	116579
add	116551
Ġlength	116404
ĠNational	116381
Ġfunctions	116275
param	116230
Ġsimply	116191
Ġproducts	116181
Ġbook	116154
Ġsequence	115967
Ġ||	115959
Ġturn	115787
rs	115684
Get	115612
Ġyoung	115550
Ġespecially	115550
));	115544
Ġtemperature	115438
ĠTHE	115422
ĠIs	115420
Ġwords	115266
xi	115108
Ġpath	114801
ley	114780
Ġproperties	114750
]{}	114734
Ġinput	114687
ĠĠĊ	114574
ĠOF	114123
ĠĊĊ	114015
ĠĠĠĠĠĠĠĠĠĠĠĠĠĠ	113942
Ġaddress	113910
Ġ!=	113831
br	113818
Ġoutside	113642
ty	113614
Ġcomplete	113576
Ġheart	113490
Ġsix	113442
Ġmind	113327
Ġpresence	113274
ĠCity	113150
Ġdetermined	113140
Ġmedical	113133
ĠMa	112968
Ġcolor	112820
Ġsense	112688
Ġstatic	112644
Ġevents	112585
ĠWith	112473
age	112361
os	112243
ĠMy	112092
im	112078
old	112008
be	111997
Ġpolitical	111952
all	111939
')	111852
Ġpressure	111780
Ġarray	111695
Ġnear	111679
Ġwhite	111623
Ġdate	111620
Ġsubject	111383
ry	111345
Ġeffective	111171
All	111093
}}\	111091
Ġoutput	110992
Ġinside	110980
Ġworks	110977
Ġprimary	110953
Ãĳ	110859
Ġlanguage	110786
Ġgenes	110767
Ġfollow	110500
ne	110442
Ġeverything	110358
Ġ$$	110071
Ġ23	109917
Ġtypes	109761
Ġelement	109709
Ġphysical	109663
ĠÂ±	109625
Ġlonger	109596
Ġfeatures	109596
Ġbad	109574
ĠĠĠĠĠĠĠĠĠĠĠĠĠĠĠ	109387
Ġstop	109370
Ġdetermine	109239
Ġfront	109063
29	109013
33	108954
Ġpresented	108872
";	108865
Ġeasy	108841
not	108768
Ġdis	108711
]\]	108611
ion	108601
Ġjudgment	108551
09	108541
Ġquite	108511
Ġidentified	108455
Ġcreated	108377
With	108317
Ġcross	108218
Ġrunning	108132
Ġbreak	108077
Ġrespect	108076
Ġsamples	108009
Ġmember	107905
Ġbasis	107832
08	107729
ns	107632
-\	107594
Âĥ	107572
Ġ&&	107505
Ġformer	107412
Ġparameters	107367
ĠMay	107331
Ġwanted	107252
array	107109
Ġinitial	107009
Ġstatus	106994
Ġfollows	106981
Ġstatement	106810
io	106779
Ġground	106772
my	106742
AS	106454
ta	106294
Ġareas	106223
](	106154
public	106145
path	106064
Ġpersonal	105958
âĢĲ	105945
ĠString	105925
ĠLicense	105744
Object	105569
Ġisn	105487
ĠCa	105477
Ġelements	105442
($	105433
Ġago	105427
ian	105384
My	105182
Ġweeks	105167
Ġdirectly	105064
led	105057
als	105010
Ġmulti	104762
ĠInc	104702
bf	104511
Ġquestions	104483
Ġsearch	104429
Ġrequest	104249
Ġrelationship	104229
an	104028
Ġmemory	103904
Ġpro	103862
Ġforce	103755
}$,	103477
Ġgames	103412
ments	103385
Ġvideo	103374
Ġtheory	103363
rangle	103276
Ġ28	103123
Ġtraining	102983
Ġnatural	102979
Ġcontext	102829
tilde	102820
Ġsuper	102797
__	102481
..	102277
Ġindex	102234
ac	102199
}(\	102107
Ġcontinue	102070
Ġwrong	102031
])	102019
void	102011
ic	101847
(-	101617
Ġ(\[	101563
son	101545
Ġbuilding	101539
Ġbehind	101496
ful	101486
dy	101434
ĠDr	101374
ak	101350
View	101294
Ġgreater	101025
\\	100942
over	100882
Ġnews	100859
Ġapplied	100852
Ġ/*	100819
Ġdifficult	100801
Ġdeal	100742
Ġlimited	100591
so	100533
Ġacid	100481
est	100452
Ġcharacter	100433
mm	100431
Ġmice	100425
ÃĤ	100412
})	100401
ĠSuppose	100380
let	100341
Ġmonth	100334
Ġrelease	100297
sp	100197
Ġdistrict	100178
Ġred	100174
Ġpreviously	100166
ĠDNA	100131
Ġtitle	99920
Ġrest	99900
Ġincludes	99888
Ġreduced	99873
Ġdrug	99700
ĠTherefore	99697
Ġrequire	99669
cdot	99641
str	99625
const	99624
me	99565
ca	99549
Ġtax	99451
ary	99439
Ġability	99430
ĠJohn	99335
Ġstyle	99241
ex	99130
field	99111
width	99008
Ġmessage	98988
do	98985
Ġknowledge	98838
Ġclaims	98736
Ġdeveloped	98688
Ġbuild	98623
Ġsaw	98589
Ġarticle	98525
psi	98506
from	98354
".	98305
Ġindependent	98251
Ġlayer	98235
with	98226
ĠOur	98059
ĠAl	98047
Ġgas	98022
off	97981
Ġ60	97939
ability	97810
Ġcontact	97710
Ġsoftware	97572
res	97548
Ġinvention	97468
Ġex	97424
ize	97392
max	97370
Ġwrite	97348
ans	97321
Ġhttp	97299
ning	97253
Ġmap	96946
\])	96873
ĠPresident	96776
45	96740
Ġnumbers	96601
Ġplayers	96592
Ġwritten	96580
().	96578
ated	96521
Ġoil	96419
Ġreference	96386
:**	96369
Ġflow	96291
Ġfollowed	96262
Ġcoming	96188
Ġ2012	96167
File	96156
An	96107
Ġparticularly	96082
+\	96081
one	96004
ĠCounty	95937
Ġleave	95770
Ġpain	95729
lib	95650
Ġdirect	95622
ma	95598
Ġunit	95574
Ġactive	95555
Ġsecurity	95339
Ġobtain	95288
34	95273
)}	95164
Ġimpact	95153
ĠSince	95066
Ġhope	95023
Ġnegative	95018
Ġdefault	94964
Ġnote	94885
ine	94879
Ġ26	94817
he	94733
}$.	94648
ance	94472
ĠWhile	94468
Ġentire	94375
36	94281
Ġdouble	94281
ĊĠĠĠĠĠĠĠĠĠĠĠĠĠ	94233
ĠHis	94188
gs	94175
cal	94165
ch	94087
op	94054
Ġrule	94035
Ġcut	94005
state	93994
Ġspecies	93983
Ġusually	93973
![	93767
Ġnature	93638
Ġrates	93634
Ġdifferences	93623
Ġliving	93512
Ġoffice	93445
ins	93418
Ġword	93353
Ġanswer	93327
Ġalthough	93288
ner	93267
ting	93194
Ġwhose	93190
Ġcom	93120
use	93093
Ġ[*	93060
Ġ2013	93021
Ġpractice	92999
Ġtried	92924
Ġetc	92873
Ġargument	92797
Ġglobal	92766
ap	92753
ĠWorld	92670
Ġonline	92652
At	92620
=\	92608
Ġwar	92586
Ġhold	92568
user	92485
Ġcorresponding	92280
Ġ2016	92226
like	92218
Ġgenerally	92215
ate	92179
Ġlost	92140
Ġforward	92121
base	92093
Ġrecently	92068
script	92005
Ġact	91920
function	91898
ĠAct	91866
Ġbrain	91830
ar	91824
ton	91735
Ġthemselves	91679
Suppose	91675
Ġplaintiff	91573
ED	91513
red	91499
Ġnational	91489
Ġfederal	91461
Ġ2014	91460
Ġanyone	91448
Ġlate	91374
06	91340
Ġtakes	91328
Ġproposed	91260
Ġcountries	91248
Ã©	91223
ĠHere	91157
ks	91120
Ġagreement	91120
60	91011
ive	90948
Ġpurpose	90943
Ġsaying	90677
Ġdensity	90523
Ġshare	90520
ĠDo	90483
js	90454
epsilon	90415
app	90361
ĠâĪĴ	90347
con	90247
ating	90227
Ġtreated	90195
Ġch	90177
item	90138
07	90126
sub	89959
Ġhimself	89851
Key	89754
One	89737
Gamma	89611
ĠChina	89529
Ġlegal	89472
Ġsituation	89402
Ġblock	89387
Ġenvironment	89378
Omega	89377
Ġland	89306
ĠHouse	89293
ise	89210
By	89197
chi	89155
ĠAmerica	89130
ĠMarch	89091
au	89052
$\	89009
ĠSouth	88973
Ġ27	88968
Set	88964
land	88957
Ġcenter	88931
Ġinter	88925
Ġmicro	88915
ĠII	88914
ter	88874
Ġbecame	88716
Ġbar	88667
Ġrelative	88611
Ġpretty	88517
ir	88431
Ġ2015	88343
Ġfailed	87959
Ġways	87845
Ġoffer	87816
Ġpublished	87791
ek	87746
Error	87702
ĠDepartment	87326
Ġ?	87325
varepsilon	87271
Ġfocus	87237
Ġnode	87226
top	87224
Ġhighly	87169
document	87160
Ġwoman	87078
Ġ);	87033
Ġ/>	87006
AP	87003
Ġfindings	86931
ĠSome	86927
Ġprice	86847
that	86832
Ġderivative	86825
Ġallowed	86821
el	86816
ah	86725
Ġcharge	86709
Ġselected	86623
Ġtalk	86582
Ġmoment	86550
Ġdegree	86505
39	86375
Ġoperation	86374
ĠNorth	86303
Ġcomponent	86267
Ġwin	86193
day	86176
Ġlimit	86100
Ġstage	86053
Ġcontract	86052
..."	86024
Ġlarger	85995
Ġdesigned	85986
Ġmeasured	85980
Ġgave	85948
Ġse	85943
42	85928
ĠSystem	85906
Ġinstance	85893
Ġjury	85831
ĠGeneral	85761
Ġbring	85744
Ġdetails	85600
iv	85464
po	85461
cl	85438
ber	85437
Ġindividuals	85420
ĠFirst	85349
Ġconstant	85305
###	85286
ates	85223
Ġpass	85158
Ġeveryone	85130
Ġcurrently	85051
Ġcaused	85027
Ġimages	85007
Ġdirection	85006
Ġalone	84995
term	84838
MS	84808
Ġfriends	84730
Ġ29	84719
Ġlocation	84693
Ġproteins	84629
Ġbehavior	84605
ph	84604
Ġwasn	84500
ha	84461
Ġgives	84384
Ġ2011	84357
ĠCD	84339
Ġdef	84330
38	84312
mo	84258
Ġcomponents	84211
ial	84129
Ġattention	84040
Ġask	84005
link	83988
ists	83970
ĠAlthough	83906
Ġ2010	83893
Ġmatrix	83880
Ġchoice	83876
lo	83864
ĠJune	83821
Ġscale	83814
Ġbackground	83789
Ġrequires	83692
ite	83631
len	83452
ĠFig	83391
Ġ:=	83385
Ġfixed	83383
Ġappropriate	83370
ron	83217
Ġcompanies	83170
čĊĠĠĠĠĠĠĠ	83049
Ġknew	83013
Ġbegan	83003
we	82906
index	82899
pa	82733
Ġleading	82727
ĠHow	82665
Ġoptions	82643
Ġeyes	82616
Ġratio	82568
Ġ///	82483
ol	82472
ĠPa	82419
Ġfailure	82416
Ġ2017	82361
Ġmother	82349
Ġart	82211
Ġfinancial	82124
Ġmanagement	82123
Ġfrequency	82102
}}$	82073
čĊĠ	82031
Ġeducation	82029
(),	82022
Ġdisplay	81897
Ġ31	81883
)=	81870
Ġunique	81868
Ġ;	81859
');	81724
Ġ->	81634
od	81595
Ġusers	81562
ds	81553
Ġtechnology	81522
"><	81393
Ġorg	81393
static	81379
Ġcontains	81377
si	81328
Ġ[**	81315
ĠBe	81298
{{\	81285
She	81257
Ġprime	81091
ĠLa	81080
Ġdivided	81064
fn	81039
Ġcompletely	81007
Ġincreasing	80967
Ġled	80939
ĠCir	80896
Ġcosts	80775
Ġconnection	80744
ig	80738
bi	80709
Ġsent	80686
ical	80543
izing	80525
Ġmode	80443
Ġparts	80434
());	80404
Ġlack	80402
Ġseem	80396
Ġoption	80395
Ġbi	80393
lin	80361
ities	80347
Ġapply	80333
Ġgoal	80318
Ġheat	80293
Ġindustry	80290
Ġparties	80283
ĠNow	80268
Ġexpect	80231
Ġsuggest	80208
ae	80184
Ġserver	80136
Ġfiles	80103
Ġfine	80078
Text	80069
ĠJanuary	80066
Ġdistance	80032
003	79992
69	79943
ana	79907
Ġearlier	79898
ĠApril	79893
title	79827
._	79695
Test	79604
Ġexpressed	79577
Ġoverall	79472
map	79402
Now	79396
varphi	79316
ĠJuly	79315
Ġsupported	79274
Ġequal	79228
Ġgenerated	79219
Exception	79180
Ġ\<	79131
Ġestablished	79104
Ġstated	79065
di	79059
Ġallows	79044
From	78981
ator	78976
Ġdevices	78930
They	78904
PS	78901
oc	78886
Ġcorrect	78798
Ġuseful	78768
Ġeasily	78732
Ġ32	78725
se	78708
Ġlink	78650
Ġcopy	78626
Ġstay	78617
cm	78559
.'	78532
Ġsites	78382
Ġcontaining	78359
Ġpattern	78352
Ġreasons	78311
go	78282
Ċĉĉĉĉĉ	78280
Ġstress	78242
Ġfinding	78095
ba	78094
CA	78081
Ġreduce	78076
dev	78062
Ġfire	78010
)$.	77807
ys	77787
Ġmeasure	77774
Ġhighest	77771
Ġsoon	77766
37	77714
Ġlocated	77713
Ġcount	77667
RE	77640
ast	77581
Ġparameter	77546
"/>	77541
Ġproduced	77504
group	77490
ters	77446
Ġactivities	77431
Ġsign	77399
Ġeconomic	77389
44	77385
cks	77337
Ġexcept	77306
ology	77277
ĠMo	77233
ker	77213
Ġhost	77213
ga	77174
Ġnotice	77147
ĠNot	77130
den	77072
Ġrelevant	77066
Ġfiled	77044
Ġcritical	76951
)^	76926
Ġclearly	76913
ina	76855
48	76834
ens	76783
){#	76778
men	76732
ino	76671
41	76644
Ġ<<	76623
Ġappeal	76616
Ġvariable	76568
Ġfelt	76559
Ġopinion	76524
Ġhit	76506
Ġcentral	76457
vec	76341
Size	76255
43	76235
back	76168
)-	76077
TA	76069
Ġstore	76039
Context	76033
Ġwriting	76026
*.	75943
are	75908
ĠSa	75883
}_{\	75847
Ġwebsite	75820
Ġpresident	75765
State	75717
Ġboard	75710
Ġson	75695
bo	75680
Ġinjury	75672
ster	75657
Ġchanged	75636
Ġapp	75633
Ġbrought	75623
overline	75546
Ġactual	75538
la	75536
ent	75518
py	75472
Ġshowing	75464
Ġweb	75442
ok	75420
bb	75400
Ġreceive	75383
95	75354
Ġsmaller	75351
Ġvs	75277
}^{\	75260
Ġgoes	75252
Ġcommand	75198
ĠAND	75189
Ġuses	75187
Ġexperiments	75167
Ġlearning	75049
Ġstaff	75002
*-	74998
Ġwidth	74970
Ġauthors	74968
Ġ2008	74966
Ġappears	74954
Ġvector	74918
pr	74896
)).	74874
operatorname	74862
ĠLe	74851
};	74819
ĊĊĊĊ	74819
Ġitems	74807
free	74793
langle	74787
TS	74744
Ġbeyond	74658
Ġlooks	74650
ĠOR	74641
IP	74626
ger	74609
Ġheard	74608
Ġrules	74606
Path	74600
Ġremains	74596
ut	74590
Ġculture	74553
sim	74516
Ġbuilt	74437
SC	74426
SA	74391
iz	74341
ox	74321
Ġ__	74310
box	74296
way	74269
der	74263
ĊĊĠĠĠĠĠĠĠĠĠĠĠ	74222
ler	74212
Ġhearing	74206
Ġbox	74188
Item	74186
ĠSh	74162
Ġskin	74152
After	74141
Ġunderstanding	74131
Ġmeet	74125
true	74084
Ġmatch	74017
ane	74015
$$	74007
Ġtumor	73941
form	73907
Ġlooked	73898
ned	73844
Ġle	73835
Ġturned	73813
53	73794
Ġworked	73729
Ġmin	73728
Ġtowards	73662
Of	73612
Info	73522
Ġdoor	73508
Ġcampaign	73504
Ġmajority	73455
\].	73417
ie	73409
ob	73392
Ġsuccess	73344
Ġappear	73288
App	73259
Ġproduce	73247
Ġplease	73246
True	73238
Ġbinding	73230
ically	73217
}=	73212
Ġregarding	73201
Ġvariables	73185
lan	73143
Ġinternal	73124
ag	73119
Ġlearn	73090
='	73077
Ġspeed	73043
Ġones	73034
':	73028
cr	72999
Ġexists	72997
Ġ!	72994
Ã¡	72971
big	72920
king	72875
Ġtherapy	72875
Ġnor	72832
Ġbenefits	72816
Ġfully	72770
ia	72769
CO	72754
color	72751
ĠHealth	72716
ĠFrom	72689
Ġconcentration	72640
node	72639
ĠDistrict	72636
AT	72634
Ġtissue	72593
Ġimprove	72592
ĠCh	72572
lu	72568
Ġcomputer	72534
Ġparents	72495
ase	72494
Ġ($	72472
Ġreports	72455
Ġmilitary	72419
ii	72398
Ġrandom	72388
ĠWest	72379
['	72349
ĠAugust	72345
pre	72344
Ġresulting	72344
ud	72281
Ġfriend	72251
Ġ2009	72242
ĠIN	72210
ding	72162
ĠId	72120
Ġfast	72098
our	72075
Ġexactly	72064
Ġprevent	71931
Ġextra	71929
Ġindicated	71894
Ġinfection	71795
Ġvolume	71793
Ġcouple	71791
mi	71749
def	71739
Ġsetting	71708
read	71707
db	71706
Ġwrote	71681
Ġfather	71663
ĠOctober	71622
Ġmorning	71555
length	71526
Ġwide	71498
75	71442
Ġdecided	71428
Ġauto	71300
ets	71279
PA	71238
ui	71236
Ġmaterials	71226
Ġzero	71204
Ġreading	71176
Ġvehicle	71157
ence	71142
Ġplayed	71095
nbsp	71064
Ġadministration	71058
Ġhands	71034
struct	71017
Ġfeature	70996
ĠSeptember	70922
Ġavoid	70816
Ġmeeting	70707
500	70687
Ġseparate	70687
ĠDecember	70667
Ġgets	70598
Ġreasonable	70536
IN	70532
ous	70464
ised	70442
Ġtransfer	70394
Ġproof	70392
Ġdefine	70353
Ġmedium	70336
case	70321
Ġplayer	70306
002	70300
Ġreaction	70298
Ġandroid	70272
ĠOr	70232
ĠPhys	70231
Ġmet	70216
Ġfields	70208
sin	70193
]:	70180
Ġheight	70147
Ġconstruction	70138
Ġfun	70124
Ġstarting	70101
Ġapplications	70097
ĠBo	70066
Ġ2018	70061
.\	70049
info	70035
err	70017
Do	70005
na	69993
ĠMar	69985
OS	69982
ĠData	69945
ĊĠĠĠĠĠĠĠĠĠĠĠĠ	69920
Ġthroughout	69874
Ġdrive	69867
Ġinteresting	69851
Ġparticipants	69811
non	69810
java	69777
Ġtask	69776
Ġnoted	69706
Ġdamage	69701
ro	69684
Ġprocesses	69676
Ġmaximum	69675
55	69658
Ġregions	69622
Ġformation	69590
Ġchar	69585
Ġlinear	69552
Ġconnected	69538
Ġfall	69517
per	69496
Ġfit	69469
lls	69463
Ġsafety	69462
54	69426
sh	69425
Sec	69415
Ġpoor	69404
Ġlives	69347
Ġclosed	69342
Ġdomain	69330
Ġbecomes	69314
Ġformed	69310
rightarrow	69307
Ġitem	69303
ats	69281
te	69264
90	69261
input	69254
Ġ35	69241
Ġinternational	69231
Ġsources	69189
":"	69160
ee	69142
ĠBecause	69134
Ġ^	69061
Ġdocument	69054
ny	68995
New	68952
Ġrevealed	68925
######	68822
)$,	68799
bin	68790
Ġeye	68764
Ġhospital	68762
Ġinteraction	68653
uk	68651
Ġinfluence	68648
ĠBa	68554
Ġotherwise	68510
Ġcollection	68508
ĠSection	68483
Ġvisit	68436
\,	68419
Ġbasic	68409
SE	68366
Ġtests	68365
ped	68305
ĠNovember	68297
)*	68278
Ġimmediately	68236
Class	68225
Ġscore	68199
which	68179
us	68179
sa	68172
Ġequation	68155
200	68139
ĠMoreover	68069
99	68040
Ġstand	68035
ĠCenter	68030
view	68009
Ġcolumn	68009
gu	67962
ĠCon	67959
[^	67898
ming	67869
AC	67853
Ġmis	67844
CD	67831
Ġreduction	67824
Ġreleased	67805
Ġactions	67802
Ġdefense	67670
';	67625
Ġopportunity	67616
49	67614
Ġexist	67602
Ġtoward	67585
med	67583
mer	67579
ĠUSA	67578
Ġ80	67542
Ġwindow	67521
ĠOf	67518
Ġpaid	67517
Ġgiving	67482
Ġmechanism	67481
ons	67432
ur	67427
ship	67418
ĠSan	67403
SP	67362
Ġcombination	67360
Ġcontrast	67351
ars	67315
ĠWashington	67315
php	67265
ible	67229
Ġstar	67221
Ġque	67209
image	67196
dd	67149
ij	67144
Ġidentify	67057
Ġtown	67050
Ġconsistent	67047
ĠÃĲ	67036
Ġfigure	67031
Ġtesting	67002
Ġdeep	66973
Ġerr	66894
Ġrelatively	66815
Ġphone	66768
mathfrak	66726
Ġensure	66704
su	66701
Ġsometimes	66689
quad	66665
****************	66655
Ġcounsel	66636
yl	66614
ĊĊĠĠĠĠĠ	66613
om	66611
Ġroot	66609
geq	66593
Co	66588
row	66580
Ġ90	66578
Ġresources	66569
Ġresistance	66559
Ġforms	66551
Ġcover	66546
Ġchance	66486
}}_	66481
Ġroad	66481
Ġbottom	66470
ce	66458
ded	66414
ei	66407
ged	66385
70	66375
val	66365
um	66346
Ġquickly	66301
error	66300
51	66285
ĠMc	66251
Ġchoose	66207
ĠRo	66186
Ġfunctional	66182
body	66177
Ġmiddle	66169
its	66110
56	66092
Ġthinking	66076
Ġclient	66076
ĠĠĠĠĠĠĠĠĠĠĠĠĠĠĊĠ	66071
ders	66012
ĉĉ	65938
Node	65930
Ġsex	65926
Ġmyself	65896
Ġhappen	65883
Ġprocedure	65844
ren	65809
Ġsolid	65793
Time	65751
Ġplaying	65708
Ġnearly	65635
source	65628
Here	65625
Ġremove	65609
cs	65556
IS	65546
Ġportion	65507
Ġproviding	65481
Ġmovement	65468
Ġmoved	65435
Ġdetected	65424
Ġchannel	65421
ĠSchool	65419
Ġagree	65416
ew	65413
Ġhappened	65393
^{(	65384
Ġdatabase	65379
Ġconducted	65372
ĠHa	65345
\],	65316
lt	65308
Ġregular	65303
Ġhear	65258
Ġsum	65230
Ġexisting	65220
ĠObama	65215
Ġobjects	65198
Ġmoving	65184
ri	65176
Ġten	65162
Ġbenefit	65137
eo	65127
Ġready	65126
47	65125
%,	64997
Ġstd	64970
Ġreach	64970
Ġdaily	64916
Ġscreen	64869
ps	64833
Ġcalculated	64783
related	64739
av	64718
ĠAr	64709
Ġfacts	64708
ĠCalifornia	64700
Ġbuy	64684
ti	64681
Ġfinally	64675
ci	64638
az	64593
Ġanimals	64593
Ġsteps	64555
Ct	64547
Ġindicate	64489
Ġyourself	64428
Ġattack	64413
rb	64383
Ġupper	64332
ST	64327
Ġdemonstrated	64294
Ġhot	64285
Ġnearest	64252
Ġemail	64246
Ġblue	64246
Ġwall	64241
ore	64237
ants	64225
Ġtrade	64198
ality	64176
.[	64160
Ġseven	64134
ĠTable	64124
Ġcore	64065
*~	64041
start	64037
Ġremain	63999
LE	63991
ĠPublic	63975
Ġ(**	63960
False	63938
0000	63920
ĠAlso	63907
Ġunits	63904
sy	63877
Ġdefinition	63863
CC	63859
Ġprove	63784
Ġcomments	63784
nd	63756
ard	63734
bs	63618
ĠNULL	63618
Ġremember	63600
ĠWar	63551
II	63512
","	63509
Ġrepresent	63506
ero	63467
Ġcapacity	63436
Ġshape	63425
Event	63401
Ġ200	63388
Ġplant	63347
())	63345
Ġcarried	63324
Ġsufficient	63317
59	63302
Ġremoved	63302
ef	63260
Ġplaced	63246
Cs	63242
DS	63241
Ġ/**	63239
52	63237
MA	63236
AL	63203
fa	63193
ping	63168
Ġprocessing	63158
Ġsound	63148
46	63100
Not	63067
Ġframe	63063
Ġcomment	63047
point	63028
ĠMore	62999
bm	62995
AD	62976
Ġbegin	62976
SS	62970
Ġvariety	62957
Ġst	62915
ĠIS	62875
Ġwife	62839
Ġsp	62785
Ġsafe	62742
,-	62669
Ġsets	62629
Ġoperator	62618
Ġdistributed	62557
api	62554
ĠIL	62544
ĠFebruary	62422
dis	62409
Ġmachine	62334
Ġselection	62333
Ġonto	62297
Ġma	62237
Ġsend	62214
Ġhair	62202
Ġ2007	62196
pro	62171
Ġsuggested	62171
ray	62167
OR	62159
]\],	62117
amp	62073
Ġmg	62067
IC	62056
Ġborder	61990
Ġperfect	61956
dot	61949
gr	61927
De	61912
ĠFigure	61872
ara	61862
ĠWhite	61836
Ġ(\	61828
Ġprograms	61774
Color	61750
Ġnamed	61735
Ġcomparison	61690
ium	61652
Ġworkers	61635
els	61628
ide	61603
Ġrace	61602
Ġim	61581
Ġhealthy	61528
Ġincreases	61471
using	61454
Ġworth	61428
Ġsh	61398
Ġmagnetic	61392
ko	61354
Ġexposure	61292
Ġserious	61248
ik	61234
ĠRa	61221
ĠEuropean	61221
##	61215
Ġtool	61214
rp	61195
Ġsort	61173
content	61154
Ġpassed	61140
Ġmaybe	61130
CT	61125
Ġletters	61105
Ġgreen	61072
Ġplaces	61056
action	61052
Ġstr	61036
Ġphoto	61036
Ġresponsible	61012
Ġupdate	61004
IL	61003
Ġmeasures	60989
Ġdiscussed	60970
cap	60961
ep	60951
Ġreplacement	60946
ao	60931
ĠApp	60924
sed	60869
Ġdevelop	60866
url	60831
Ġmanner	60830
ĠIndia	60820
Ġapproximately	60808
Ġsave	60803
config	60798
Ġpicked	60731
Ġinsurance	60708
Î±	60676
Ġcharacteristics	60671
Ġincome	60669
Ed	60664
but	60623
il	60566
ĠResearch	60562
ra	60560
Ġsymptoms	60548
ĠBoard	60540
Code	60528
ĠEven	60504
94	60497
char	60486
ĠGet	60468
ĠMe	60398
version	60382
Ġrow	60359
Ġprint	60359
Ġdark	60359
Index	60345
^*	60340
Ġcircuit	60340
Ġdrugs	60280
Ġstructures	60255
Ġchallenge	60203
Ġlog	60197
Ġtalking	60159
port	60137
ĠSe	60106
Ġbeginning	60098
Ġeight	60096
Ġessential	60052
ĠPM	60017
Ġletter	60008
ea	60004
core	59996
Ġpair	59996
ies	59986
Ġcontinued	59976
era	59956
57	59941
SD	59916
ĠTO	59813
Image	59805
ke	59790
Ġmodern	59781
Ġmale	59736
Ġtree	59729
Ġround	59718
Ġmo	59713
ala	59704
Ġtestimony	59692
well	59691
Ġ45	59688
Ġinvestigation	59686
Ġassume	59677
Ġtransition	59620
DE	59618
cking	59617
*)	59601
IT	59588
Ġeffort	59588
Ġactivation	59552
ics	59538
Ġedge	59526
Ġ95	59524
Ġreturned	59519
Ġdead	59516
Request	59508
"},	59448
Ġhappy	59445
US	59438
CH	59421
AR	59417
Ġload	59409
Ġ70	59409
ĠFurthermore	59338
ÃĹ	59333
Ġdetection	59291
ale	59277
Ġnice	59218
ten	59184
Ġ37	59175
)/(-	59118
Ġpa	59104
ering	59096
Ġconduct	59086
Ġ});	59063
čĊĉ	59059
pl	59036
ĠUK	59031
object	58935
ni	58915
Ġstrength	58887
down	58859
\<	58849
ice	58846
Ġmusic	58829
Ġkids	58780
St	58779
ification	58757
Ġpopular	58749
sen	58704
\{	58702
Ġad	58697
Ġexercise	58674
Ġproper	58642
ang	58585
Ġdescription	58571
specific	58560
Phi	58537
ari	58516
cc	58491
dt	58465
Ġpanel	58453
ÂŃ	58438
ĠDi	58403
Ġtruth	58396
Ġauthor	58389
run	58329
ev	58315
Ġstuff	58289
count	58287
65	58283
ĠEnglish	58260
Oh	58257
lon	58226
[]	58165
Ġinterface	58103
Ġspecifically	58029
Ġspent	58025
Ġdenied	58007
/(-	57990
Ġplans	57966
Ġsurgery	57950
NS	57908
Ġfamilies	57874
Ġaffect	57854
Ġstrategy	57826
({\	57823
vi	57821
Ġperform	57820
Ġclean	57794
ĠHigh	57788
Ġsolutions	57769
Ġsleep	57758
ĠÂł	57750
Ġalternative	57749
ĠCongress	57717
Â¾	57709
Ġtested	57670
Map	57653
Ġmeaning	57647
Ġofficials	57574
ĠInternational	57561
Ġwait	57547
ug	57545
rd	57541
Ġcareer	57538
ez	57532
Ġcouldn	57503
Ġsummary	57481
sc	57472
ran	57463
Ġserve	57459
Ġwants	57438
Ġmentioned	57428
ldots	57344
Ġelection	57303
}}(	57290
page	57243
ho	57207
Ġ2006	57183
ax	57172
Ġ2000	57152
Ġ\,	57098
fs	57071
Ġprepared	57026
ents	57014
Ġstudent	57005
da	56972
.](	56958
ĠNa	56952
]^	56949
ĠUn	56927
/**	56910
Ġofficial	56882
**)	56869
Ġdespite	56860
Ġleads	56840
Ġfemale	56784
Ġunless	56777
ata	56751
)**	56701
Ġcycle	56690
Ġagent	56672
ze	56652
Ġstudied	56647
Ġnil	56646
ser	56625
çļĦ	56592
Ġimproved	56570
83	56512
Ġtypically	56477
ĠPro	56475
Ġjudge	56462
Ġcombined	56445
ml	56438
Ġnuclear	56438
Ġexplain	56425
col	56420
num	56385
ru	56368
bit	56344
Ġpackage	56331
hi	56328
gen	56328
date	56323
ME	56268
ip	56265
Ġbillion	56263
Ġsurvival	56243
mon	56227
Ġexperimental	56222
Ġselect	56219
Ġmetal	56212
Ġplus	56200
Ġgrowing	56194
Yes	56190
Ġ36	56178
Ġcontrols	56163
mod	56153
pping	56144
Ġsuccessful	56137
Ġcommunication	56132
Ġ((	56111
Ġbound	56108
Ġvote	56091
Service	56088
Ġentry	56087
Ġ48	56023
Ġmodule	56017
ĠHo	56007
Ġpr	55982
Calculate	55970
Ġattempt	55919
ĠGo	55902
LA	55890
Ġ-->	55882
Ġconfirmed	55872
ya	55858
ong	55797
cu	55792
Ġkilled	55787
ts	55786
oe	55768
qu	55763
Ġhour	55759
Ġparent	55741
Ġstock	55727
Ġminimum	55723
ĠYour	55719
prime	55677
Lambda	55647
Ġshot	55637
Ġcontain	55633
Ġforeign	55626
ret	55604
Ġmolecular	55590
Ġwatch	55557
Ġjava	55549
Ġcircumstances	55515
Ġsociety	55502
Ġinduced	55496
eb	55495
Ġguy	55495
Ġpiece	55485
Ġperhaps	55459
ung	55433
CS	55427
fi	55422
ue	55403
Ġwave	55385
Ġagreed	55382
Ġca	55376
Ġ33	55368
Ġpar	55353
Ġhttps	55333
Ġraised	55323
ered	55317
Ġoperations	55291
Ġimport	55289
},\	55283
IA	55279
Ġmid	55279
github	55267
af	55249
Ġanalyzed	55249
Why	55196
Ġreached	55185
ĠDavid	55174
Ġgun	55165
Ġwhereas	55151
ĠHer	55144
Ġaffected	55130
Ġwalk	55114
Ġlinks	55107
ĠNote	55106
"></	55095
otimes	55086
bl	55085
Ġdied	55077
Ġassociation	55063
ou	55042
Ġfeet	55023
Ġcalls	55020
Ġtools	55018
DA	55015
Ġhandle	55014
Ġofficer	55006
Ġemployees	54994
Ġclasses	54983
style	54965
Ġsentence	54916
Ġvalid	54907
IR	54856
Ġtrans	54854
Well	54844
Ġnames	54843
Ġcauses	54795
ses	54775
lly	54756
Ġprotect	54739
Ġ~	54716
]{	54713
Ġwouldn	54692
Ġpick	54683
âĢ¢	54656
oi	54632
ging	54625
mar	54617
Ġprobability	54609
68	54603
AA	54600
Ġkept	54515
ably	54514
Ġcriminal	54486
Ca	54485
side	54440
GA	54390
level	54388
Ġefforts	54381
Ġcollected	54362
Date	54343
ris	54322
Ġpicture	54320
Ġ]	54317
eh	54300
Ġhuge	54288
Ġoccurred	54247
ĠBr	54245
open	54242
.[@	54236
Ġmental	54236
ill	54228
Ġvoice	54221
Ġradio	54212
ld	54211
ĠList	54202
Ġoccur	54200
boldsymbol	54182
ĠCode	54175
src	54158
Ġcorrelation	54145
Ġtraditional	54139
Ġrelation	54112
Ġintroduced	54080
Our	54034
Ġdu	53998
Ġdiscussion	53993
Ġsuggests	53987
ay	53983
RS	53940
Ġcredit	53903
ĠCA	53898
Ġestimated	53883
User	53881
Ġcertainly	53856
ĠMost	53855
Ġpress	53836
Ġbed	53828
wa	53803
Ġexplained	53801
Ġstorage	53796
Ġtechniques	53775
ute	53767
PR	53762
86	53760
*(	53721
Ġmovie	53705
While	53699
Ġdiagnosis	53687
ĠLondon	53649
Ġstatute	53614
ney	53596
ish	53593
ja	53588
where	53587
Ġremaining	53569
ato	53542
Ġprotection	53528
Ġ(!	53528
Sigma	53504
Ġsexual	53494
Ġgone	53475
Ġsrc	53465
Ġappellant	53451
Ġbuffer	53438
ros	53424
Ġprofessional	53374
init	53372
ĊĊĉĉ	53351
Ġliquid	53345
Ġchain	53297
Ġforces	53279
Ġalgorithm	53274
create	53273
RA	53266
du	53252
ery	53229
Ġwhom	53221
ĠGroup	53187
rk	53169
NO	53150
Ġrequirements	53115
AM	53065
Ġbiggest	53052
Ġcounter	53047
ĠIsrael	53044
ç	53020
Ġ2005	52984
tor	52960
ĠLi	52960
Ġball	52939
Ġpoly	52912
)?	52909
Ġspin	52902
ach	52873
Big	52861
model	52838
EL	52816
ver	52801
lim	52791
Ġabsence	52779
Ġrecords	52773
ĠMan	52764
sk	52759
Ġbill	52759
ines	52756
ot	52721
don	52710
Ġgeneration	52650
ying	52648
tter	52600
cker	52552
TH	52535
Ġexchange	52532
Ġolder	52517
Ġorganization	52494
Array	52467
Ġresponses	52455
Ġmissing	52444
Ġ42	52442
ham	52421
Ġserved	52420
|\	52381
_.	52366
Ġlaws	52356
Ġtrack	52341
Ġadding	52325
head	52320
ĠCommission	52274
ots	52268
Ġoffers	52264
Ġoptical	52252
čĊčĊ	52252
58	52242
rate	52241
kin	52233
ĠCar	52230
ĠCO	52201
ĠEach	52195
Ġquantum	52184
Ġderived	52146
ĠPat	52128
Ġpo	52125
Ġcreating	52107
âĪĴ	52084
EC	52045
Add	52030
Ġscience	52023
Ġsubjects	52018
Ġpurposes	51994
Î²	51921
Model	51911
nk	51882
Ġeconomy	51871
ĠTexas	51854
See	51842
material	51793
Ġexternal	51790
ras	51776
dir	51757
Ġideas	51728
Ġsummer	51713
Ġintended	51702
Ġschools	51677
mbox	51642
Ġ("	51631
cos	51592
ĠNews	51591
((	51579
ĠCan	51573
ene	51555
Ġanimal	51544
ier	51522
Ġnone	51522
Ġproperly	51517
Ġcapital	51492
}-	51472
Ġrepresents	51458
CL	51442
induced	51434
ĠEast	51424
Ġresolution	51420
Ġdirector	51418
tra	51412
Ġextent	51385
ĠLo	51383
Ġdie	51370
Field	51358
Un	51349
Ġstation	51289
Ġdecreased	51287
fully	51285
pos	51268
Ġ34	51267
main	51247
ama	51223
ai	51209
Ġachieve	51184
result	51180
ĠEn	51164
ern	51158
(&	51154
ĠTr	51149
ĠBritish	51143
ĠTV	51137
ica	51117
oma	51084
Ġfresh	51065
ĠSupreme	51059
Ġauthority	51041
ĠPark	51041
ali	51017
nonumber	50992
ĠPaul	50991
Ġmechanisms	50985
ec	50965
Ġvirus	50955
Ġprotected	50944
Â»	50906
Ġlargest	50881
čĊĠĠĠĠĠĠĠĠĠĠĠ	50879
Ġattorney	50848
Ġfeeling	50842
*]{}	50840
bu	50838
ĠEurope	50812
Ġtrust	50780
ere	50759
cell	50757
Ġ""	50738
Ġinterests	50731
kappa	50719
tu	50705
Ġmembrane	50652
Ġassert	50649
Ġtechnique	50645
ensuremath	50640
Ġteams	50637
kes	50632
However	50603
ile	50587
gl	50586
Ġofficers	50580
Ġcrime	50577
Ġsa	50563
Ġcontained	50502
ĠCal	50501
ĠJust	50496
MI	50489
ĠGoogle	50444
Ġslightly	50439
ano	50409
Ġbio	50372
ini	50369
ng	50364
ĠPeople	50286
ced	50278
ĠID	50180
ĠCouncil	50136
Ġfight	50122
**]{},	50120
block	50118
Ġloop	50084
circ	50077
Ġdriver	50064
Ġshared	50036
Ġguys	50023
").	50002
Ġcharged	49998
PC	49988
Ġnovel	49964
Ġopening	49947
Ġrise	49940
Ġcharacters	49918
Ġconcept	49913
67	49890
rf	49884
write	49870
Ġerrors	49869
Ġbool	49863
Ġlatest	49859
Message	49846
Ġprojects	49828
reg	49808
ological	49803
Ġfloor	49800
âĢĿ.	49774
Ġoffered	49747
ĠBar	49714
Ġholding	49686
Ġconventional	49669
ĠCanada	49669
Ġhyper	49664
ade	49646
Ġcoverage	49646
ĠChinese	49638
og	49626
Ġsevere	49625
Ġannounced	49621
ash	49614
Ġscript	49609
ĠFoundation	49551
System	49523
63	49519
ĠStreet	49517
ified	49505
ass	49490
)"	49487
Ch	49463
Ġdescribe	49456
ĠRNA	49446
Ġentered	49442
can	49381
Ġagents	49337
Ġinteractions	49333
CI	49317
mp	49309
arg	49298
scale	49263
Ġgain	49260
che	49241
Ġsupply	49213
Ġformat	49179
tal	49175
ĠGr	49161
Ġband	49134
dr	49108
Ġdecrease	49107
ative	49058
ven	49057
func	49026
First	49024
Ġagency	49000
Ġswitch	48985
vert	48971
Ġanalyses	48960
default	48958
Ġsoft	48955
summary	48946
Ġprofile	48939
Ġfilter	48939
Ġwild	48938
Ġdose	48932
SH	48931
ĊĊĠĠĠĠĠĠ	48899
Ġwish	48895
Ġconcentrations	48885
Ġprogress	48882
ĠCalculate	48882
izer	48844
Count	48816
Ġoutcome	48795
Ġarm	48741
Ġtravel	48733
fe	48732
97	48724
âĢĬ	48693
Â½	48684
Ġreceptor	48684
Ġgirl	48683
ĠRev	48679
Ġviews	48677
']	48652
Ġgenetic	48628
Ġnation	48627
Ġfear	48622
TR	48620
ures	48605
ĠGreen	48600
^[@	48599
Ġha	48599
ĠTwo	48588
Ġexistence	48546
Ġcommercial	48546
Ġfinite	48542
oy	48539
LL	48533
range	48523
74	48512
Ġpossibility	48508
Ġequipment	48508
lang	48506
Ġplants	48473
Ġdrop	48463
Ġoperating	48450
Ġdriving	48449
Ġexperiment	48415
Ġsales	48394
Ġcompleted	48386
ix	48382
Ġ+=	48366
ĠSuch	48350
Ġreturns	48335
Ġquery	48324
Ġdog	48317
tro	48307
Ġbeautiful	48302
Ġpatterns	48284
df	48281
order	48269
Ġinteger	48261
space	48258
EN	48257
Ġdoubt	48248
Ġsignals	48231
Ġwhatever	48229
rr	48223
Ġheavy	48215
Ġ38	48201
Ġenter	48171
ory	48158
Ġidentity	48153
61	48113
ians	48092
ĠJames	48091
rt	48078
Ma	48059
Ġ2004	48042
Ġsi	48031
}.	48010
Ġblog	48010
Ġdiseases	48006
Ġinterested	47986
Ġgenerate	47986
SI	47984
Ġalleged	47975
]),	47973
ĠBlack	47965
ess	47963
.*	47935
Ġstable	47903
°	47894
ees	47894
pped	47886
ĠService	47886
Ġbutton	47870
æ	47860
Manager	47855
rin	47843
Ġcatch	47832
Ġcard	47827
und	47803
ĠFriday	47790
Ġequivalent	47786
Ġappeared	47779
Ġmotor	47773
Ġstars	47753
Ġindicates	47753
ĠSi	47753
Ġmaintain	47745
DI	47733
ĊĠĠĠĠĠĠĠĠĠĠ	47719
sted	47713
Ġinner	47711
property	47701
Ġimportance	47697
BA	47691
ĠAM	47682
400	47667
MP	47657
Ġspectrum	47630
mes	47607
72	47583
nabla	47575
Ġmobile	47551
Ġconfiguration	47549
Ġcontrolled	47529
check	47503
77	47492
pp	47479
Ġ"[	47477
Ġ};	47467
Ġadvantage	47462
Ġholds	47452
widetilde	47448
Ġcold	47448
88	47422
Ġconclusion	47412
mat	47400
Ġsequences	47387
Group	47383
Ġne	47380
lm	47360
has	47352
Ġruns	47342
Ġstraight	47309
Ġbank	47304
rts	47299
Ġdes	47277
Ġnet	47271
ora	47265
ĠWestern	47228
Ġhappens	47224
Ġmouse	47214
ick	47199
:"	47193
Ġdemand	47166
apache	47163
Ġparticles	47148
eg	47106
Ġempty	47103
MC	47101
ein	47086
Ġfat	47080
Ġsecondary	47048
Ġbalance	47046
Ġdefendants	47044
Ġreality	47037
({	47030
cer	47029
300	47014
Ġaren	46977
istic	46970
ey	46959
tag	46957
Ġ2019	46957
att	46950
ena	46941
Ġstruct	46933
Ġnoise	46926
SM	46917
Ġmax	46898
Ġslow	46888
ï¼Į	46861
uc	46850
you	46839
Ġreferred	46818
Ġmeasurements	46805
81	46798
Ġshift	46769
66	46746
TC	46737
ĠTheorem	46737
ĠBoth	46709
CP	46700
85	46689
Ġdigital	46649
Ġsession	46640
62	46632
car	46626
sch	46617
board	46590
Ġcontinuous	46585
ĠInstitute	46547
Ġthrow	46523
Some	46515
Ġseemed	46514
false	46509
ĠKa	46506
ement	46501
ĠRed	46478
Ġdeveloping	46466
ub	46428
ux	46421
Ġaccept	46399
Ġstatements	46377
LI	46368
ening	46353
height	46340
ķ	46337
Ġspeak	46317
ĠSmith	46315
Ġlibrary	46242
Ġalcohol	46242
post	46215
ft	46186
93	46168
Ġremainder	46162
IM	46156
è	46151
ib	46146
position	46136
Ġexpress	46134
ved	46126
PL	46112
ĠEx	46096
les	46086
ĠMonday	46084
ĠAccording	46083
gt	46068
ĠKing	46055
EA	46029
ĠÃĹ	46028
zeta	46006
Ġrepresentation	45998
Ġleaders	45971
sm	45957
Ġadult	45956
Ġring	45954
ify	45950
Ġsu	45938
Ġliterature	45938
dimensional	45924
Ġchemical	45918
rl	45914
long	45898
hr	45893
Ġcollege	45890
ĠMichael	45884
Ġfaith	45877
Ġapproved	45870
Or	45859
ĠCompany	45855
tting	45851
aw	45842
Ġfish	45831
util	45805
TI	45773
Ġchronic	45763
ĠLaw	45755
xe	45750
Ġsale	45745
ides	45743
Ġjobs	45733
Ġcarry	45731
Ġlatter	45721
ĠEq	45717
2015	45693
tab	45677
Ġissued	45676
ģ	45657
Ġexception	45640
Ġenvironmental	45632
Ġ500	45624
her	45613
Ġsquare	45604
Ġextremely	45584
AB	45579
Ġclub	45557
Ġspeech	45552
par	45521
ĠCommittee	45518
Ġplasma	45508
Ġliver	45485
Ġborn	45485
Ġknows	45482
Ġleader	45470
ĠFacebook	45434
Ġestimate	45411
Ġtri	45409
Ġexamples	45371
Ġabuse	45367
tan	45357
Ġcovered	45357
DB	45354
Ġtransmission	45342
ani	45331
RO	45328
Ġcharges	45281
Ġgraph	45264
Ġplatform	45252
Ġahead	45246
Ġregulation	45245
event	45204
light	45181
Ġscene	45165
ĠCI	45161
ĠPr	45151
CE	45131
Ġfair	45130
Ġaware	45126
Ġserum	45122
Ġeat	45121
Ġinterview	45118
ĠJapan	45116
font	45102
Ġsubstantial	45094
Ġsigned	45088
Ġguess	45088
Ġopened	45079
Ġhusband	45075
TT	45072
}}}	45045
ked	45038
Ġimplementation	45026
Ġqu	44998
exp	44991
BC	44983
98	44957
.</	44951
ĠSet	44916
Ġpurchase	44908
Ġchurch	44903
DC	44900
Ġcustomers	44899
ku	44883
Al	44861
ĠEl	44852
------	44841
ă	44835
inter	44830
Ġoccurs	44826
ES	44807
Property	44795
Ġlo	44783
.$$	44777
Ġ${	44771
ind	44769
Ġextension	44758
ĠLeague	44755
ura	44746
čĊĉĉ	44732
Ġrecorded	44718
ĠFOR	44716
Int	44708
Ġdelivery	44693
Ġcompounds	44689
ola	44686
Ġfix	44686
message	44662
Ġdecisions	44655
Ġdiscuss	44645
SO	44641
Ġweak	44614
Ġdigit	44608
PP	44572
)*(	44568
dependent	44556
Ġfootball	44535
Ġreceiving	44531
Ġevaluated	44523
tle	44515
RT	44506
Ġnetworks	44491
first	44483
Ġvisual	44475
OL	44461
Ġallowing	44450
Ġcalling	44445
Ġextended	44435
004	44427
ĺ	44421
Ġleaves	44421
ure	44407
oa	44397
Ġviolence	44385
Ġbirth	44376
kers	44359
ĠAmericans	44343
}+	44330
Button	44321
Ġpercentage	44316
Ġhaven	44305
Ġestablish	44291
79	44281
Ġoutcomes	44271
Ðµ	44252
Ġem	44232
ĠFrench	44230
ĠBank	44230
Ġconcerns	44227
TO	44200
Ġleaving	44197
Ġassessment	44189
Ġsubsequent	44185
ĠSunday	44183
ĠUnion	44169
Ġthousands	44162
endif	44146
Ġ()	44131
Ġtestified	44102
Ġhelped	44100
Ġowner	44097
Ġmuscle	44085
Ġflat	44081
Ġ2003	44074
sing	44073
Ġmostly	44072
Ġtr	44067
ford	44056
ĠCollege	44052
Ġunderlying	44042
Ġimmune	44035
Ġevolution	44021
OP	44013
Ġarguments	43999
Ġfluid	43975
ites	43974
ĠUnder	43946
Ġefficiency	43935
ĠFinally	43912
iss	43905
Ġthank	43882
za	43870
ĠPe	43869
nting	43833
dots	43822
cked	43787
ĠWhy	43785
Ġcriteria	43782
Ġtraffic	43774
Ġrepresented	43765
ĠDon	43756
ĠGa	43754
AF	43751
ram	43744
null	43729
Ġkill	43724
star	43723
BS	43720
Ġcentury	43710
Ġraise	43694
ĠAm	43684
Ġbaby	43665
LD	43660
ĠGovernment	43617
fl	43612
ves	43593
Ġgreatest	43586
Ġexamined	43573
cher	43559
)=\	43558
Ġgrow	43525
}}{	43519
Ex	43511
ľ	43502
Element	43502
NA	43489
tic	43479
ĠAssociation	43469
pers	43462
ners	43462
Ġlearned	43461
Ġspecified	43458
ĠDuring	43451
aa	43441
Ġmm	43435
Ġexact	43435
})$	43424
Ġcivil	43414
sto	43410
Ġeventually	43408
Ġsemi	43402
ĠUsing	43374
RI	43372
ĠBig	43368
Ġbreast	43360
2013	43353
Ġpowerful	43346
low	43333
ches	43315
tors	43314
Ġcandidate	43289
Ġplane	43285
Ġcurve	43279
Ġtransport	43255
Ġdepends	43206
ĠOther	43204
oo	43194
Ġport	43192
Ġscheme	43189
Ġlimitations	43189
Ġsmooth	43150
ada	43147
Ġpositions	43129
Ġlicense	43129
Ġthin	43117
Ġspread	43111
Source	43061
Ġecho	43054
print	43037
sts	43033
Ġpeak	43031
section	43024
Ġvoltage	43021
Ġsurvey	43009
'.	43006
ĠJudge	42980
RP	42971
ĠYes	42967
Ġinvestigated	42922
ĠTuesday	42915
Ġra	42903
ĠGermany	42903
These	42899
Ġtrain	42882
Ġenjoy	42874
Ġachieved	42831
ĊĠĠĠĠĠĠĠĠĠĠĠĠĠĠ	42810
Ġtypical	42783
2014	42774
UI	42769
gan	42768
ils	42747
Ġbooks	42736
Ġpathway	42734
Ġcustom	42728
ĠScience	42717
Client	42716
xml	42706
][	42695
Ġmixed	42685
Ġ75	42681
tri	42666
Ġchanging	42657
cor	42644
Ġsold	42640
Ġran	42637
Ġpolicies	42634
Ġsea	42626
ched	42620
Ġ${{\	42609
current	42607
Ġglass	42606
Ġformula	42548
Ġprocedures	42531
ĠPA	42530
Ġstandards	42523
Ġstream	42516
ĠNone	42505
supplementary	42499
Ġrecovery	42477
ss	42475
jo	42463
$(	42456
96	42453
Ġapplicable	42451
ulation	42440
ka	42433
Ġgranted	42430
Ġcomplaint	42420
Ġspend	42405
ĠMany	42402
isation	42387
Ġfilms	42386
MO	42378
ĠTh	42366
Ġ2001	42355
format	42341
Ġsun	42336
button	42317
Then	42303
ĠNOT	42303
Ġel	42281
Ġgoals	42264
ack	42245
Ġfavor	42230
ky	42220
Ġar	42198
Ġacts	42192
Ġisolated	42183
ely	42164
some	42163
json	42160
Ġmurder	42157
ico	42135
2016	42119
2012	42095
Ġlabel	42086
Ġquick	42071
ose	42068
Ġdesired	42068
Ġevaluation	42044
Ġdelay	42042
Ġyes	42033
Ġseeing	42033
84	42030
71	42029
ĠDay	42029
ency	41999
Ġeasier	41968
local	41952
Ġsubstrate	41926
ened	41911
?âĢĿ	41897
Ġsections	41856
cast	41855
Ġsuit	41855
ively	41849
uint	41848
han	41841
Ġindeed	41841
Ġrelief	41831
Ġstrongly	41829
č	41822
Ġbus	41814
ĠPo	41814
:\	41813
oid	41797
Ġdetailed	41797
Ġfunds	41783
eps	41778
Ġval	41774
nn	41766
Ġprob	41765
Ġcarbon	41764
Ġinvestment	41759
Ġ39	41758
lic	41744
Ġli	41740
Ġinvestigate	41737
Ġobvious	41717
Ġchosen	41700
Ġjoin	41698
GL	41675
Pa	41669
78	41669
sup	41657
Ġbrief	41652
Ġentitled	41637
Ġcool	41633
rv	41631
ĠPress	41616
dle	41602
ov	41591
ĠWhich	41590
Ġ41	41590
sl	41583
Ġfourth	41575
ĠIII	41556
Ġ64	41550
Ġfreedom	41549
vers	41537
Con	41534
Ġcategory	41525
Ġstored	41523
ators	41520
Ġcluster	41509
uring	41507
ptr	41500
"),	41497
lf	41459
Ġcommitted	41437
tin	41433
tz	41430
Ġ{{\	41418
gi	41408
ography	41402
aring	41400
Ġdaughter	41400
win	41389
^âĪĴ	41385
Ġconclude	41371
kg	41370
Ġduty	41368
Ġmeant	41366
73	41355
gg	41347
Ġconsidering	41339
La	41331
ita	41325
Ġdirected	41297
ching	41292
oh	41283
ĠSu	41280
Ġassay	41276
Config	41272
RC	41255
$$\	41253
rat	41252
module	41244
lk	41236
ath	41235
ĠEngland	41217
Ġpayment	41214
LC	41204
Ġthanks	41189
tes	41184
ette	41184
Ġelectron	41170
PI	41169
doc	41165
work	41161
Ġprices	41159
ĠWeb	41149
}}_{	41146
Ġvictim	41146
Ġinstall	41139
Ġsell	41130
FA	41119
art	41109
context	41097
Ī	41096
Ġdocuments	41095
Ġreligious	41082
ĠFlorida	41081
else	41057
Ġforced	41047
UN	41036
ĠParty	41030
status	41022
Ġintervention	41005
....	40998
Ġlisted	40990
{{	40983
ĠFree	40981
Ġdebt	40976
76	40972
arr	40938
load	40917
Ġ65	40906
Mo	40904
Ġclick	40891
,'	40881
bed	40875
ĠTime	40865
Ġconflict	40857
Ġworse	40848
Ġapparatus	40840
tered	40839
Ġdetermination	40839
Ġstories	40821
Ġequations	40815
oon	40813
Ġskills	40811
Ġfocused	40796
005	40779
Ġbroad	40777
2000	40770
late	40763
Ġpush	40755
Ġdepending	40755
ges	40753
Override	40751
ER	40736
Ġplate	40729
tel	40720
Ġwaiting	40709
Ġconcern	40706
Ġlose	40698
Ġvirtual	40665
Ġdistinct	40665
ĠNO	40640
Ġexcellent	40639
ĠCopyright	40631
ado	40630
ual	40629
Ġresulted	40628
++	40623
}}^	40620
active	40618
ĠAS	40613
CG	40612
va	40592
Ġ2002	40582
las	40570
Ġmeasurement	40557
media	40550
Ġdry	40549
ĠTa	40524
Ġobservations	40519
Ġburden	40518
Ġpossibly	40513
\/	40494
Ġversus	40486
Ġuint	40482
Ġcup	40478
Ġmodified	40468
ĠRussia	40462
Ġ44	40454
Ġplays	40449
ĊČ	40446
Ġbelieved	40443
Result	40440
ĠâĢ¦	40436
ĠGeorge	40421
cdots	40419
ĠChurch	40417
Version	40376
Ġregard	40376
Ġfans	40320
Ġprotocol	40308
Ġdiet	40303
Ġassuming	40300
[\	40296
Ġtouch	40263
ĠCircuit	40259
"}.	40250
ĠBu	40250
ores	40248
Ġop	40236
En	40229
Ġhousing	40226
Ġneither	40223
2017	40220
Ġangle	40202
ĠHIV	40191
Ġreplace	40189
mid	40178
Ġfees	40173
Ġincident	40169
Ġoffense	40154
yn	40153
Since	40134
tre	40128
0001	40127
91	40125
Ġfloat	40103
ĳ	40102
Ġtwice	40101
ination	40088
ĠAdd	40086
house	40069
server	40068
120	40068
Ġemployed	40062
Ġapproaches	40048
Ġcommunities	40042
Ġfoot	40036
ĠThursday	40022
Ġresource	40019
_{{\	40010
Ġdecide	40007
Ġdamages	40004
eng	39991
Ġdetail	39989
mers	39988
rine	39987
FS	39986
Ċĉĉĉĉĉĉ	39978
acy	39967
Ġstreet	39935
tt	39933
Be	39932
ln	39929
**]{}	39928
Ġconfidence	39923
Ġnodes	39895
Ġ55	39893
Ġplanning	39882
ĠGu	39870
ĠOpen	39868
Ħ	39852
ĠTest	39852
rie	39832
Ġmanager	39830
ving	39828
Ġwind	39805
Ġstanding	39765
AN	39746
Ġ300	39733
last	39727
Base	39691
ĠWednesday	39688
Ġcompare	39684
Ġpe	39682
Number	39681
target	39680
yer	39679
lers	39670
Ġnine	39646
Ġaccuracy	39644
CF	39639
Ġfunding	39618
ĠWindows	39595
Ġtreat	39590
ire	39577
PT	39569
Ġconcerned	39569
Ġhelps	39566
¡	39562
]--[@	39562
md	39548
ring	39535
Ġefficient	39535
aj	39526
92	39526
IO	39521
Ġtrials	39521
ella	39513
Ġscores	39513
client	39506
parent	39486
Ġsensitivity	39476
part	39456
layout	39447
Ġ00	39442
ĠSaturday	39440
ony	39437
Which	39434
2011	39428
ust	39422
rc	39412
Ġmainly	39400
Ġguilty	39388
2010	39369
Ġboundary	39360
Ġasking	39352
}=\	39350
82	39346
android	39329
rus	39324
89	39324
Ġadults	39324
Ġrelationships	39320
128	39309
ĠĊĠĠĠ	39304
any	39293
cha	39290
Ġspot	39272
Ġelectronic	39266
ĠPost	39264
Ġmaster	39242
Ġinvolving	39236
Ġexperienced	39227
onic	39216
Method	39205
cd	39197
Content	39197
ãĢĤ	39176
Ġevaluate	39171
Ġfinished	39168
Ġneuro	39164
hu	39161
References	39150
Ġexposed	39147
ĠSolve	39146
ĠJapanese	39128
)^{	39125
Can	39121
âĢĿ,	39111
Ġexpansion	39109
Ġcontribution	39107
ÃŃ	39097
Ġsignaling	39081
£	39079
Ġadvice	39068
Psi	39063
Ġextends	39050
Note	39041
Bar	39041
ese	39030
tar	39010
och	38998
Ġemployee	38984
gar	38976
ces	38961
Ġacute	38959
ĠJesus	38950
Ġframework	38942
ole	38936
Ġcontinues	38913
entry	38908
Ġcapable	38898
pc	38892
Ġmeta	38891
Ġfundamental	38891
sta	38881
select	38862
Ĥ	38855
Ġcomposition	38825
Ġsettings	38806
Ġro	38805
ries	38799
Ġpeace	38787
âĢ²	38777
Ġassessed	38770
Ġintensity	38766
Ps	38740
%.	38726
\|	38716
**(-	38716
ĠBi	38709
OT	38692
SU	38686
nt	38672
zz	38669
ĠAustralia	38667
ius	38663
.**	38657
ĠInternet	38628
IF	38613
pper	38608
rel	38602
ĠFrance	38600
Ġordered	38575
ĠOffice	38573
Ġdemonstrate	38571
ori	38569
Ġbiological	38565
TE	38563
Ġadvanced	38562
Ġpartner	38560
mg	38557
Ġres	38550
Ġplaintiffs	38546
ĠFederal	38530
book	38525
ĠFile	38520
ams	38517
Ġ_{	38516
Ġrelates	38514
Ġguide	38500
87	38498
pu	38463
ĠWell	38443
~~~	38419
Le	38416
Ġpersons	38398
Don	38377
Ġth	38352
Ġscope	38352
Action	38351
Simplify	38344
Ġap	38327
frame	38319
more	38316
Ġchallenges	38312
Ġpotentially	38306
Ġgold	38305
ĠĊĠ	38302
Ġinterval	38301
Ġsuitable	38298
eu	38289
BP	38284
Ġimaging	38283
Ġ43	38277
eri	38269
png	38255
Ġhumans	38252
Ġvelocity	38251
]);	38229
EP	38224
\"	38220
Ġconference	38214
Ġorigin	38211
ĊĊĠĠ	38206
ĠType	38198
lock	38189
LO	38189
Ġrats	38187
ĠCr	38180
Ġstopped	38179
Box	38171
Ġdraw	38170
Me	38132
Ġstatistical	38132
ls	38128
Click	38108
Ġimprovement	38108
Ġbrother	38081
Ġsalt	38054
Handler	38051
Ġtend	38042
Ġfuel	38036
TP	38034
Ġfirm	38025
Ġengine	38018
request	37997
ĠDefendant	37997
Ġclaimed	37981
čĊĠĠĠĠĠ	37975
Ġcent	37974
\*	37966
Ġremained	37966
Ġta	37963
Ġparallel	37957
Just	37952
Ġopposite	37942
rem	37918
hes	37912
According	37877
Ġended	37861
Ġdepartment	37833
Ġjoint	37828
Ġcash	37821
Ġunknown	37814
Ġduration	37797
wi	37791
Web	37788
lem	37779
$)	37761
Ġreflect	37758
Line	37756
Ġroute	37751
Ġsuggesting	37748
ĠPer	37744
Ġfl	37742
ĠPlease	37741
Ġspring	37737
ona	37732
msgstr	37726
hl	37725
ique	37720
Ġreverse	37720
DR	37696
ĠAfrica	37695
Ġfrequently	37689
Ġdiscovered	37679
ances	37673
uri	37668
sf	37661
Ġhence	37660
lie	37632
ł	37614
Ġpool	37607
Ġpartial	37597
cy	37590
ĠÂ£	37589
Response	37581
ĠRussian	37577
)]	37573
Ġstrain	37564
ĠUse	37563
Ġargues	37518
ĠRule	37511
ow	37510
gers	37507
600	37497
ĠAir	37481
Sub	37475
ĠFurther	37474
ising	37472
package	37471
ple	37465
Ġlimits	37463
PO	37451
build	37445
ĠRepublican	37438
Ġnecessarily	37434
```	37426
ĠLord	37422
Į	37415
Ġpara	37412
PD	37405
Ġsides	37400
eds	37390
ĠMi	37339
Ġannual	37338
wood	37337
Ġarms	37329
Page	37286
ious	37285
ĠANY	37283
tics	37282
iled	37275
-(	37273
ĠSun	37272
Ġcourts	37261
Ġseconds	37239
web	37229
Ġradiation	37223
Ġvariation	37215
Ġassembly	37207
other	37206
Ġstability	37191
Ľ	37190
AI	37180
Ġbone	37159
ĠSp	37159
Ġideal	37148
img	37116
ĠHence	37116
150	37106
End	37093
Ġwidely	37087
que	37085
ĠRiver	37080
»	37074
Read	37064
ĠMinister	37062
ional	37058
yr	37053
Ġsit	37045
Ġice	37035
Ġantibody	37024
Ġthereby	37020
NAME	37019
itis	37018
FF	37005
Ġintent	37001
Ġgrant	36999
Ġfail	36991
eve	36984
Ġdefinitely	36978
ĠGerman	36978
§	36977
Ġthreshold	36968
search	36966
rit	36962
Ġabsolute	36957
Se	36956
Ġprovision	36940
ĠTwitter	36936
ĠSub	36934
arm	36913
Ġ49	36899
number	36894
/\	36890
eno	36875
Ġlinked	36871
Ġaspects	36856
Ġ51	36852
een	36849
Ġoral	36835
ito	36834
ĠJohnson	36829
dl	36823
ĠChristian	36820
Ġattacks	36811
Ġnumerous	36807
Ġkeeping	36795
ops	36788
Ġimplies	36788
ĠAc	36785
ĠMI	36781
Ġpopulations	36765
Ġcamera	36761
put	36755
Ġindicating	36752
ĠPre	36752
Any	36736
Ġbudget	36717
Ġrelations	36710
ured	36692
Ģ	36690
ston	36690
used	36688
Ġforth	36687
Ġmixture	36684
Ġidentification	36669
ices	36650
Ġrich	36646
Ġstarts	36645
ĠRobert	36632
"})	36625
icon	36620
Ġaccepted	36611
ĠJustice	36606
Ġaxis	36605
ows	36587
/(	36585
ĠAny	36584
Â·	36582
ett	36576
vo	36574
match	36574
ND	36569
fo	36568
next	36559
Ġinterpretation	36553
Ġmortality	36546
Ġunable	36543
Ġcoach	36530
Ġinstructions	36527
Ġentirely	36525
Ġviolation	36523
Ġenable	36516
ĠPC	36509
author	36500
Ġpull	36498
Ġtruly	36481
ĠOnce	36475
lis	36468
Ġrecognized	36464
std	36462
Ġsupposed	36455
inal	36452
ases	36450
rol	36439
msgid	36439
Ġcellular	36436
Ġmission	36431
Ġgonna	36431
atory	36429
Ġscientific	36394
yo	36388
Ġcontribute	36387
ĠClass	36387
Ġpractices	36386
ĠOnly	36382
Ġlung	36379
sha	36378
Ġaward	36369
Ġgirls	36364
Ġfraction	36356
Ġ46	36346
Ġchief	36327
Ġnotes	36316
cat	36311
2018	36310
har	36307
Status	36292
Ġends	36284
ĠArt	36273
Ġmassive	36270
ages	36269
Point	36265
Ġdegrees	36261
Ġban	36250
eas	36247
Ġsupporting	36247
ON	36241
ave	36234
Ġboy	36214
**,	36213
Ġdoctor	36213
Ġfan	36203
Ġtrip	36202
ĠGive	36185
Ġab	36176
ket	36170
tering	36168
split	36167
Solve	36154
Ġrefer	36138
Ġminute	36129
Ġresponsibility	36123
sting	36099
Last	36099
ĠNS	36098
ĠHospital	36097
Ġbecoming	36090
Ġsigns	36082
ration	36080
Ġemployment	36076
Ġmiles	36068
SR	36048
([	36025
ĠSenate	36020
Ġattached	36017
stream	36012
Ġappearance	36003
show	35993
Ġrare	35975
Ġseek	35973
Ġtechnical	35969
CM	35965
nes	35962
ĠBrown	35954
Ġmu	35941
Ġaim	35936
ĠSecond	35914
Ġsupra	35908
Ġelectric	35890
Ġcompound	35890
Ġresidents	35877
Ġmanaged	35877
RF	35871
Input	35857
tch	35853
Ġdisk	35843
Ġdependent	35837
Ġdynamic	35820
ward	35819
pe	35816
ĠMac	35811
was	35803
Ġ56	35801
Ġvitro	35800
Ġ47	35800
Ġmolecules	35789
widehat	35787
OK	35785
>(	35782
Ġconcluded	35774
Ġhole	35770
ki	35750
Filter	35750
#:	35727
ĠIndian	35722
mann	35718
ĠSuper	35718
Ġfill	35703
ends	35689
site	35683
Ġamounts	35679
Ġcommonly	35677
ich	35673
000000	35666
vin	35665
vis	35659
Ġplot	35658
option	35655
IV	35629
query	35620
call	35613
Ġassigned	35612
Ġconsideration	35608
MB	35605
Ġsplit	35598
ĠLife	35595
Di	35584
Ġ52	35573
Your	35557
ifying	35545
aging	35532
Ġunderstood	35523
mail	35519
ĠAPI	35515
Ġarticles	35512
Ġdynamics	35508
Ġda	35501
ĠAd	35492
Ġsought	35488
control	35487
Ġassess	35485
Ġrequirement	35478
osis	35464
ĠThomas	35450
Ġyield	35449
Please	35447
Ġgender	35446
GE	35430
Ġexpert	35429
Ġeffectively	35426
Ġaccurate	35425
Ġac	35425
ĠInstead	35421
Ġthread	35420
ored	35417
act	35416
ids	35410
Two	35407
>,	35404
output	35401
ited	35395
Ġimmuno	35392
Sh	35374
try	35372
Ġsensitive	35358
GC	35348
van	35346
["	35339
ĠTheir	35325
¥	35323
Ġestimates	35315
Ġjurisdiction	35310
)[	35298
Ġship	35295
Ġquarter	35246
Ł	35242
Ġfilled	35220
Ġtemplate	35217
800	35209
ĠPlaintiff	35178
ien	35177
LS	35147
Ġmark	35142
Ġdecades	35112
Ġusual	35111
ĊĠĠâĢĥ	35109
Log	35099
nch	35095
++)	35088
*/	35080
ijms	35079
gel	35074
Ġgap	35074
Ġmessages	35072
Ġfell	35072
Ġbinary	35057
ele	35051
Ġestate	35049
lp	35047
css	35046
ville	35036
Ġjustice	35036
Ġspending	35012
Ġdetect	35012
]\	35008
sis	35005
Pre	34993
del	34980
Ń	34971
Ġseeking	34956
160	34950
\]).	34941
Ġinfo	34941
Ġsenior	34929
Ġadmitted	34924
ami	34915
iation	34880
Ġfavorite	34876
Ġwww	34867
Ġsugar	34862
ining	34856
Ġconsumption	34844
Ġ72	34819
Ġtelevision	34818
fr	34793
Ġstrategies	34766
prop	34758
Ġobjective	34744
tty	34733
Cl	34728
ji	34717
oke	34706
Ġoxygen	34695
Ġcr	34694
&\	34688
ear	34684
ĠMark	34683
Ġsqrt	34675
Ġdepth	34673
ĠChrist	34671
Create	34666
Ġbroken	34651
center	34650
ail	34641
Ġassistance	34641
Ķ	34636
eal	34634
Ġcharacterized	34620
Ġtrouble	34612
Yeah	34610
Ġconsent	34600
DM	34588
ĠMon	34588
==========	34583
ĠTimes	34558
private	34553
EX	34549
EM	34544
mas	34543
float	34514
Ġsmallest	34500
Ġbattle	34499
2008	34495
Ġadvance	34483
Ġcompetition	34463
Ġcast	34446
Ġpredicted	34435
rated	34434
ĠNe	34433
1000	34428
Â¸	34423
Ġemission	34413
Ĩ	34412
ĠOver	34406
lam	34394
ĠIndeed	34394
NC	34389
Ġtissues	34377
Pr	34371
UR	34347
Ġminor	34347
uck	34343
Ġamazing	34328
mL	34325
Ġamino	34324
Ġorders	34321
Ġwitness	34317
Ġexpensive	34305
ĠEarth	34305
iner	34297
ake	34295
abs	34291
Label	34274
uff	34242
Ġneurons	34231
Ġprinciple	34214
Ġzone	34185
Ġmargin	34184
HA	34174
ĠMS	34163
Ġmarriage	34158
subset	34151
iter	34149
inger	34148
ĠInformation	34134
ken	34123
Ġrecommended	34114
Ļ	34113
Ġcustomer	34100
Ġmod	34087
Ġsupports	34079
dx	34078
ingly	34073
amine	34055
Ġmouth	34047
nis	34043
Ġparticle	34043
izes	34009
Ġpages	34001
;&	33999
Ġpieces	33996
ĠFe	33983
Ġles	33977
').	33971
Ġdimension	33956
pes	33954
nan	33952
Ġmanuscript	33947
ives	33944
FC	33926
hn	33921
Ġwatching	33916
ĠPi	33910
sn	33898
Ġfinish	33897
ĠMedical	33895
PE	33891
tl	33885
ye	33884
ĠGen	33877
Ã³	33856
Ġspaces	33855
real	33850
ral	33833
Ġcausing	33833
Ġthreat	33817
<?	33816
Ġsuccessfully	33808
obj	33801
MT	33800
rad	33797
Ġurl	33795
Ġchannels	33791
2009	33785
FI	33781
Ġarrest	33771
ones	33766
Ð°	33764
Ġbaseline	33761
Ġcorner	33745
rey	33743
mark	33740
template	33730
Ġtargets	33730
sky	33725
///	33717
Ġnorth	33709
ĠStar	33681
Ġwaste	33672
rich	33659
MM	33658
Ġcrisis	33651
Ġreducing	33649
}}{\	33635
Ġte	33632
ĊĊĠĠĠĠ	33627
00000	33617
tus	33612
Pi	33595
Ġouter	33595
met	33589
Ġrecommend	33588
oss	33584
Ġ1999	33582
rum	33579
Ġsitting	33576
eth	33575
Ġcomposite	33575
zy	33570
vs	33568
Ġimpossible	33567
Ġlargely	33560
Ġrepresentative	33541
ĠFa	33536
ĠCentral	33536
Ġunion	33535
Ġinhibition	33525
omo	33524
oli	33508
home	33491
MD	33488
Ġautomatically	33481
Ġrespond	33477
ales	33476
ĠMA	33476
Ġpetition	33472
Ġwear	33467
ua	33446
Ġinstalled	33433
Ġinformed	33433
ĠSc	33406
Ġho	33399
Ġauthorities	33398
Ġmi	33397
Start	33395
Ġpromote	33393
Ġdiabetes	33388
Ġresearchers	33366
ĠUI	33361
root	33360
Ġstructural	33347
Where	33345
Next	33295
Ġ120	33280
Ġconversation	33279
ĠDa	33271
aries	33268
ĠMath	33268
Ġ150	33252
Ġexamination	33245
Ġdisorder	33242
Ġmarried	33239
san	33223
Ġorganic	33219
ĠSoftware	33211
Thanks	33202
ĠSch	33198
Ġpl	33187
ĠCom	33181
ied	33177
ean	33127
Ġearth	33123
tis	33106
OD	33100
Ġtag	33095
Ġvisible	33090
Ġstrains	33088
ble	33087
ãĤ	33086
ela	33083
ĠHar	33068
options	33066
ison	33063
CIT	33059
Mr	33057
Ġweekend	33054
Ġproportion	33054
ĠLemma	33048
Ġputting	33046
Ġbag	33046
Ġturns	33043
Although	33036
Ġsector	33028
Ġdebate	33022
only	33007
Ġjoined	33004
Ġconfig	33003
Ro	32996
Ġfaster	32992
ĠChicago	32982
Ġconcerning	32974
Ġsur	32967
lum	32951
Ġreplaced	32950
Ġobservation	32945
Ġfacilities	32944
ĠField	32942
Another	32933
Ġsolve	32933
ĠLu	32924
ĠFIG	32923
Ġconnect	32888
Ġherself	32881
ties	32877
ĠIts	32863
EE	32861
rest	32856
ĠTe	32856
ĠAfrican	32837
fold	32814
ubuntu	32813
Ġacting	32807
DD	32805
Ġlabor	32802
rea	32801
Ġwilling	32798
DO	32797
Ref	32795
Ġĉ	32779
Ġillegal	32775
Ġlayers	32774
Ġcm	32766
ļ	32763
.-	32752
Ġmention	32750
ĠProject	32750
SL	32749
lor	32747
Ar	32744
Ġsin	32741
]{},	32739
Ġcitizens	32738
cent	32724
Ġantibodies	32712
high	32702
Ġdangerous	32699
Tr	32690
lus	32688
ĠBill	32688
Ġprison	32685
find	32681
į	32680
Ġassumed	32679
Ġseat	32675
Ġcandidates	32674
ĠClinton	32666
Style	32664
ĠKo	32660
ĠGreat	32660
Ġinvolves	32645
Ġrepair	32635
append	32628
ĠmRNA	32626
Ġmenu	32619
Ġmerely	32610
Ġmatters	32606
ĠBay	32599
Ġtherapeutic	32595
ĠpH	32595
mor	32593
sters	32592
Ġemergency	32592
Ġ54	32590
eli	32581
^+	32578
ĠGe	32564
uted	32554
elle	32551
)}\	32535
(*	32526
ĠIran	32525
¾	32524
MR	32519
Ġret	32519
"]	32507
description	32497
ĠRu	32497
Ġperspective	32482
Ġexperiences	32477
Ġhundreds	32468
Ġmix	32451
Ġcontainer	32449
Ġhundred	32448
sensors	32445
ĠSecurity	32442
Ġ1990	32424
ĠAnother	32412
Ġpassing	32397
Ġdepend	32395
Ġlowest	32394
Ġexecutive	32393
buf	32384
})\	32383
Sa	32383
Ġpairs	32383
bc	32374
Default	32374
gn	32371
Ġdetermining	32366
ĠEU	32353
ãĥ	32321
^,	32306
Ġcat	32298
Ġoffset	32293
equiv	32274
Ġnative	32274
Ġ2020	32273
Ġfa	32259
cur	32256
hand	32250
Ġaspect	32247
Ġbias	32245
Ġclosely	32238
Ġmilk	32237
Ġpan	32227
Ġlived	32225
^+^	32203
ĠÃł	32199
Ġcompact	32194
ĵ	32176
Ġproved	32165
method	32163
Ġdirectory	32161
ĠCor	32139
Ġmanage	32132
Ġiron	32131
Ġaid	32128
Ġwalking	32119
Ġsignificance	32113
Ġpolitics	32107
Ġposted	32103
ĠHuman	32101
ula	32100
tion	32098
Ms	32098
Ġfeed	32087
Ġliability	32060
txt	32054
Ġprincipal	32054
DF	32049
Ġsecret	32045
Ġwrt	32042
ann	32025
Ġargue	32020
Ġtrees	31992
Ġsweet	31985
Update	31979
101	31979
ome	31970
ĠPCR	31968
ju	31962
ost	31958
ational	31956
Ġ---	31955
oz	31949
\]),	31945
foo	31939
Ġmonitoring	31937
Ġtelling	31933
tree	31932
´	31931
ĭ	31930
Ġprimarily	31930
Ġil	31922
ĠBl	31922
110	31920
NT	31914
Ġinitially	31870
Ġ53	31866
ĠControl	31865
Ġleg	31856
Ġloved	31850
é	31847
Ġbranch	31845
mode	31839
Ã¶	31817
une	31813
lines	31811
ther	31807
ĠDu	31801
minimal	31800
Format	31799
Ġwonder	31796
Ġvivo	31796
Ġcities	31794
RN	31790
Go	31788
under	31787
Ġoperators	31765
ĥ	31749
ĠIP	31745
Ġpi	31744
ĠObject	31742
Ġsc	31725
jpg	31714
Ġdollars	31692
Ġsecure	31686
Ġlots	31685
Ġinjuries	31682
}/	31680
ĠLike	31677
called	31670
Ġeating	31670
Ġsouth	31655
Ġleague	31653
Ġsl	31642
Ġdelivered	31642
Control	31640
Ġimplemented	31636
documentclass	31633
itt	31628
Ġmaps	31627
Ġblocks	31626
ĠAD	31625
Ad	31623
Ġvision	31620
Ġdrink	31619
Ġdisorders	31613
ads	31599
${	31594
close	31588
nor	31578
Ġgrown	31577
wer	31572
Ġbusinesses	31566
ĠEd	31546
dly	31544
Ġref	31538
Ġbo	31535
Ġ[]	31532
Mode	31528
Ġconsists	31528
Ġcontributions	31526
ĠJones	31515
Ġinjection	31514
Ġaccordance	31484
Ġhomes	31483
aly	31465
**(	31461
ographic	31460
Ġbigger	31435
Ġenhanced	31428
Ġremoval	31426
Ġcloser	31425
Ġnano	31424
Ġ*)	31422
Ġoptimal	31421
Ġba	31420
ĠAb	31420
Ġfont	31416
});	31406
Rs	31387
system	31386
iso	31382
Ġdifferential	31370
Ġsports	31359
ĠÎ²	31358
Ġ1998	31351
250	31346
ĠGood	31332
update	31329
Ġbodies	31323
Ġprevalence	31313
Ġleadership	31309
Ġpure	31306
Ġlaser	31286
each	31282
)+	31280
rick	31274
iling	31272
ains	31261
Ġaccounts	31239
ĠNi	31238
Ġcaught	31233
Ð¸	31231
Ġsurgical	31227
Ġorganizations	31222
TYPE	31220
ture	31218
Ġgenome	31217
Pro	31215
Ġtransform	31215
ric	31203
Ġapparent	31203
meta	31198
Ġlocations	31196
ily	31192
Ġ99	31192
Ġwa	31190
Ġsynthesis	31182
Ġextend	31176
ĠJa	31176
sel	31171
END	31165
Ġconsequences	31164
Ġapproval	31154
Ġopportunities	31149
Ġsorry	31140
Ġmon	31125
mb	31122
]^.	31120
Ġelectrical	31120
^-	31111
neq	31109
Before	31107
ati	31103
service	31086
Ġmono	31083
Ġcorrectly	31081
pdf	31078
ios	31072
Ġbeam	31069
Ġmaintenance	31053
Ġfigures	31048
aps	31038
Ġrepeated	31028
ĠVi	31025
ert	31024
oni	31018
Ġdenote	31010
Ġarrived	31006
strong	31001
Ġspectra	30992
Ġfacility	30982
Out	30979
rer	30977
Ġwarm	30976
Buffer	30969
Ġthermal	30953
Ġterminal	30952
.$	30947
HS	30928
Ġclosest	30921
ĠÃĳ	30917
ĠHall	30917
ĠName	30916
Ġpathways	30913
ĠHome	30912
Ġau	30910
Ġthoughts	30902
oring	30897
otic	30888
VA	30884
TD	30882
BR	30875
Ġaccident	30871
¦	30869
je	30869
Ġsyndrome	30858
Ġextract	30855
Ġdownload	30852
lc	30851
Ġtight	30847
RR	30839
law	30824
2006	30821
Ġcur	30812
Ġinternet	30776
¤	30768
Ds	30768
)/(	30752
ĩ	30746
Ġpointed	30746
Ġdisplayed	30746
OU	30745
sz	30744
LP	30743
Ġsurrounding	30742
ĠHu	30740
ĠCl	30739
Ġcharacteristic	30736
Ĳ	30729
align	30723
ending	30715
Ġmutations	30713
ups	30688
Ġabsolutely	30684
Ġfruit	30681
=======	30678
Ġgl	30677
google	30667
Ġpractical	30667
Ġcap	30667
ums	30665
Ã¤	30662
More	30661
Ġbrand	30644
Ġexplore	30636
Ġcreation	30630
2007	30622
ogenic	30618
ope	30611
Ġapparently	30598
ition	30597
RB	30594
BL	30587
Ġupdated	30581
Ġintegrated	30581
Ġbacteria	30577
ING	30574
Ġpp	30565
ym	30561
Ġstages	30520
Ġhypothesis	30499
Ġsensor	30494
ĠDemocratic	30489
Ġremote	30486
{(	30485
čĊĉĉĉ	30482
ĠON	30480
ı	30468
006	30453
ware	30447
cf	30443
ATION	30440
Ġgr	30440
ush	30434
Ġclients	30418
Ġhelping	30413
hal	30398
Ġdepression	30391
Ġcommittee	30376
Ġevening	30370
Ġcoupling	30365
Ġscreening	30360
Ġconviction	30357
2019	30347
Ġimplied	30345
Ġincidence	30334
Ġmedian	30332
Ġ1997	30330
Ġregression	30329
Ġsounds	30325
Ġtopic	30318
Ġadopted	30316
Net	30315
PH	30314
Ã	30311
Ġsubmitted	30297
Ġregime	30296
Ġintra	30291
Ġfo	30290
ĠAppellant	30284
Ġkitchen	30283
Ġemotional	30283
auto	30282
Ġ400	30280
Ġmine	30275
NE	30260
à¸	30254
din	30242
Ġdomestic	30234
Cell	30231
Ġlen	30230
ET	30228
air	30195
iting	30187
Ġ[[	30180
Ġiso	30176
wise	30174
Ġconstructed	30163
args	30150
Ġargued	30150
ĠTom	30138
Ġdescribes	30134
Factory	30129
Ġcoffee	30129
ĠCup	30118
Ġdogs	30117
bd	30112
ain	30105
Query	30102
shed	30093
Ġsolar	30093
Ġprovisions	30091
Ġconstruct	30074
Ġexamine	30072
Ġtrend	30066
Ġepisode	30066
etic	30062
Ġimplement	30045
aro	30040
ĠCu	30034
Ġclassical	30033
¹	30031
'$	30027
Ġplastic	30023
Ġbu	30012
ider	30010
Component	30010
####	30010
BE	30005
ĠDis	29996
Ġcounts	29987
eer	29973
cho	29963
Ġessentially	29960
ĠRE	29960
700	29957
Ġsheet	29949
TER	29927
Ġpark	29917
ff	29913
Ġmarked	29913
Ġbright	29908
bool	29905
eration	29896
mal	29894
vector	29885
ivity	29885
tions	29873
FE	29873
Ġtotally	29873
ema	29867
>>	29863
Ġencoding	29863
ular	29854
*^	29852
Ġ\{	29850
Ġexplanation	29847
}{-	29842
Ġmarkets	29839
header	29834
ues	29832
ump	29829
ERS	29825
math	29821
Ġdiscretion	29819
nm	29817
Ġcategories	29810
Ġspatial	29807
ĠPar	29796
comp	29795
Ġflag	29785
Ġtaxes	29776
Are	29773
Ġtasks	29771
dia	29763
Ġrapid	29760
ĠPolice	29760
Ġguidelines	29756
FT	29752
setlength	29736
Ġ"(	29722
dom	29716
]$	29698
Ġspeaking	29694
Resource	29690
ĠPower	29690
Ġmaintained	29685
Options	29684
Ġdesire	29677
Ġ\>	29665
ĠPeter	29665
vol	29664
Ġsoil	29661
Ġchapter	29645
Ġcl	29644
nds	29642
iding	29642
Ġrat	29641
Ġminimal	29638
Ġlaunch	29635
loc	29621
Ġdeclared	29621
Äģ	29618
band	29617
Ġrecording	29616
ctor	29611
trans	29607
gh	29607
Ġimmediate	29602
cup	29596
Ġ1000	29589
Ġultimately	29586
amsmath	29568
2001	29565
Ġconsole	29563
mps	29558
Ġfamiliar	29535
Ġcognitive	29532
Ġoffering	29518
Ġcol	29515
][@	29506
Ġ1996	29486
Open	29484
graph	29481
}+\	29466
Ġtaste	29460
ĠServices	29456
Ġbreath	29455
ĠWa	29446
stone	29445
Ġorgan	29445
Ġtells	29444
Ġshop	29435
·	29428
Ġfeedback	29427
dc	29424
¼	29414
={	29412
pen	29410
gue	29403
card	29387
Br	29381
Ġsat	29368
Ġrecognition	29359
Ġreporting	29357
ĠAre	29353
isa	29352
Ġpreparation	29352
Ġidentical	29338
Ġtreatments	29329
Ġforget	29329
dal	29322
ace	29317
Results	29313
amssymb	29312
Ġraw	29310
types	29307
ĠEnd	29306
Ġregister	29298
bound	29296
ball	29294
Length	29286
ink	29284
lies	29280
Â¼	29274
Ġclassification	29268
Mar	29265
alt	29261
ias	29256
small	29255
Token	29252
,$	29238
Ġrealize	29235
amsfonts	29221
ĠTrans	29221
ĠUN	29219
Ġtransformation	29218
molecules	29213
Frame	29212
uss	29211
Ġti	29202
Ġmodify	29200
Ġbond	29192
Ġregulations	29188
Ts	29186
rim	29181
Ġneutral	29176
HE	29174
oph	29164
¬	29161
Ġmeat	29161
ì	29159
Ġrespective	29156
Ġserving	29148
mathrsfs	29142
Ġcurves	29142
Ġobviously	29140
amsbsy	29135
Ġprinciples	29133
Ġspoke	29132
Ġrequested	29132
upgreek	29131
Ġbars	29131
Ġche	29121
ĠKorea	29117
child	29114
©	29106
rot	29103
2005	29103
oddsidemargin	29098
wasysym	29091
âĢĺ	29084
los	29080
yan	29072
Ġdiscovery	29070
ĠProgram	29064
Because	29060
Ġsituations	29056
Ġfinds	29056
nh	29055
pal	29052
response	29049
Ġ96	29039
Ġtranscription	29038
Ġbeat	29019
Ġna	29017
qquad	29015
ald	29015
:(	29012
Ġthick	29011
Ġqui	29011
Ġinstruction	29004
IE	29002
ĠJo	28998
Ġtu	28995
OM	28994
ĠCol	28980
Rev	28978
ently	28973
}^\	28971
ĠAT	28964
ct	28959
wers	28950
ection	28947
Ġtumors	28945
tted	28934
***	28934
ĠApple	28910
ĠIsland	28904
Ġparticipate	28902
Ġfee	28900
Tab	28896
180	28893
word	28891
DP	28891
assert	28881
Ġconfirm	28879
ĠIll	28873
two	28869
ĠSecretary	28864
Ġnum	28850
ĠAdditionally	28847
Ġrotation	28836
Ġlies	28831
Ġtube	28826
approx	28825
rent	28821
berg	28817
Ġshooting	28811
ĠLong	28809
Ġexcess	28802
102	28790
ĠCorp	28790
raw	28778
ĠMicrosoft	28769
step	28764
Ġcompliance	28764
Ġ$(\	28762
Ġworst	28761
Ġ"""	28750
make	28743
ĠÎ±	28736
oth	28734
ĠBen	28725
Ġclimate	28723
Ġalpha	28714
Ġ59	28708
Ġbought	28702
Find	28698
dh	28691
Command	28685
ĠDE	28681
TM	28675
after	28668
Ġpulled	28654
Ġassets	28650
%),	28649
Ĺ	28643
lat	28637
PM	28634
Other	28626
inc	28621
Bo	28608
HR	28605
Ġbehaviour	28603
RM	28602
Ġstem	28598
ĠDemocrats	28596
Ġfiber	28592
ĠDonald	28592
Ġion	28590
then	28587
nie	28584
eau	28577
Ġsomewhat	28575
Ġtransaction	28566
Ġrequests	28565
ŀ	28564
how	28564
Layout	28564
ways	28557
ĠOS	28555
dp	28554
Ġguard	28543
Ġowners	28538
Ġworry	28531
ĠJournal	28526
Ġarrested	28521
Ġhelpful	28518
buffer	28510
Ġcontents	28494
Ġenforcement	28493
nton	28486
outs	28476
GO	28476
Ġruling	28474
Ġapart	28472
å	28470
uses	28466
Supplementary	28466
Ġconvert	28457
Ġgrid	28454
Ġfashion	28445
Ġdrawn	28444
GS	28434
ĠWi	28426
Ġlay	28418
Ġteaching	28416
ĠSociety	28415
ĠSP	28411
owing	28405
ili	28400
Right	28397
00000000	28387
Sp	28384
Ġ58	28378
ĠCT	28377
Configuration	28376
Ġpreferred	28376
Ġglucose	28376
Ġcentre	28369
LY	28364
matic	28358
Ġpossession	28353
Check	28348
Ġintelligence	28335
Ġpictures	28333
Ġdel	28331
ected	28319
ress	28315
Ġhurt	28313
Ġ85	28310
lip	28308
Ġlogic	28307
ĠLee	28305
Ġhidden	28304
Ġhate	28303
----	28300
Ġinfected	28292
bottom	28282
Ġschedule	28267
Ġdeaths	28264
125	28262
Ġdriven	28248
Ġweather	28244
Op	28240
)),	28221
NET	28211
==	28202
lar	28201
ono	28195
Ġenzyme	28189
ĠDirector	28177
Ġfighting	28174
ĠIraq	28161
Ġapplying	28156
Ġpicking	28143
Ġnormally	28136
ogen	28118
Ġvoters	28118
arc	28115
Ã¼	28090
)*(-	28081
Ġrel	28074
kins	28073
nz	28060
location	28056
Ġnoticed	28052
aged	28049
Ġweapons	28048
ĠThose	28044
Ġescape	28039
nav	28038
256	28037
Ġproliferation	28028
ĠDC	28011
element	28010
Ġcarrying	28010
Ġrealized	28006
Ġcounty	27991
~,	27987
People	27985
]]	27981
Ġ62	27977
mos	27971
Ġgrade	27966
Ġdivision	27965
ĠAP	27961
Ġpermission	27955
ĠBio	27954
Ġspectral	27951
Ġassumption	27949
Ġroles	27948
Ġextreme	27947
water	27944
eman	27935
Ġcontroller	27932
Ġvertical	27928
Ġdischarge	27919
ĠIV	27916
BI	27912
Ġok	27902
Ġmechanical	27883
ĠMor	27882
ÂĢ	27878
Ġ57	27878
Ġreads	27877
Ġcultural	27870
SF	27866
ava	27865
Ġfund	27861
Ġtough	27851
Ġoverride	27851
Ġourselves	27848
war	27844
eed	27828
Ġregistered	27813
Ġpin	27812
Ġacids	27800
============	27796
Dr	27793
Ġsubstantially	27793
Ġattempts	27788
msg	27783
Ġinfections	27781
ĠWilliam	27773
tc	27765
Ñĥ	27762
des	27753
Ġhappening	27737
olo	27732
Ġ&\	27713
Ġ],	27707
Ġfi	27705
Row	27702
OH	27698
ĠIT	27698
None	27696
NI	27692
Ġboolean	27692
ĠInter	27687
Ġdraft	27686
Block	27685
kh	27681
ĠEducation	27679
emo	27678
Ġaccused	27677
ĠValue	27675
hing	27669
rant	27661
007	27661
ode	27659
Ġimagine	27656
eck	27648
Ġmillions	27647
Ġexcited	27642
URL	27641
ĠPR	27636
Ġseparated	27625
Ġes	27612
=(	27600
Stream	27596
ste	27588
Ġresolve	27586
Ġconversion	27584
Ġexperts	27582
Ġcrystal	27582
Ġlegislation	27563
Ġdiameter	27556
Ġwine	27542
Ġpaying	27535
Ġmetric	27534
Ġdropped	27530
pin	27526
Ġpatent	27516
tm	27514
ī	27513
Ġmedicine	27510
Ac	27505
Ġcrucial	27503
Ġuniversity	27499
Ġcorrelated	27484
Ġ61	27469
ĠDivision	27456
ĠMartin	27446
ller	27443
flow	27442
Ġrec	27439
Form	27430
>&	27426
filter	27415
Ġplanned	27413
Ġgate	27404
even	27398
Up	27397
ades	27393
Ġradius	27391
EF	27389
ĠChris	27383
break	27380
lg	27371
Ġintroduce	27370
rous	27369
xy	27367
Ġpermit	27357
Ŀ	27356
Server	27350
bre	27349
Width	27349
2004	27345
Ġsister	27343
Ġinstant	27342
lets	27336
tom	27335
Ġformal	27335
ĠAttorney	27323
project	27320
tos	27319
Ġpowers	27315
Ġinstitutions	27314
vy	27289
EG	27281
Ġconsumer	27281
rac	27276
AG	27274
room	27272
fc	27269
env	27267
ĠFr	27267
qui	27253
ĠGNU	27253
Ġpurchased	27248
Lo	27243
she	27241
Ġsmart	27240
Ġsimulation	27237
Ġknowing	27233
Ġsizes	27230
git	27228
ĠMs	27216
Ġ>=	27215
note	27211
DIR	27210
Ġreactions	27208
push	27197
Ġfeels	27193
ort	27191
Ġdocumentation	27191
unt	27186
ĠDevelopment	27182
Ġsetup	27177
Ġdream	27173
lla	27171
Ġneck	27170
Ġposts	27169
Ġcorporate	27169
ĠRead	27167
{-	27153
attr	27153
Max	27139
Ġbl	27139
Ġopposition	27137
Ġpromise	27134
Ġ63	27130
Ġbeta	27121
$_	27110
About	27108
cp	27103
Ġreligion	27098
Ġreliable	27098
Ġcars	27095
cpp	27091
iro	27087
}^{(	27086
Ġconstitutional	27086
eon	27085
Ġincreasingly	27070
ĠSocial	27066
icity	27064
Ġsharing	27060
ĠSA	27056
Ġviral	27049
¯	27043
Ġowned	27043
Ġokay	27042
life	27041
mathsf	27038
positive	27031
nts	27030
Ġhi	27030
Si	27023
Ġtransferred	27023
Ġsymbol	27019
vel	27014
Ġkinds	27014
TV	26999
Ġ66	26990
Ġindustrial	26977
Ġloan	26975
Ġsubstance	26974
Ġentity	26969
Description	26965
Ġcomplicated	26956
;</	26948
Ġanswers	26947
ck	26946
ĠAmendment	26942
pon	26936
.^[@	26935
Ġvictims	26935
}"	26930
Ġrapidly	26924
fer	26920
Ġrecognize	26916
Ġoriginally	26907
Ġforming	26907
Also	26892
Controller	26885
host	26884
ĠBE	26877
ĠHill	26874
È±	26872
0002	26872
AY	26868
Hey	26863
Ġsw	26863
OO	26854
normal	26851
now	26849
Instance	26845
Ġslowly	26845
Ġextensive	26843
Ġbrowser	26843
Ġdecade	26834
FR	26818
111	26813
fu	26802
ĠSam	26800
ĠWilliams	26799
ĠWhere	26790
Ġharm	26781
ater	26775
Thank	26774
Ġanyway	26773
Ġacquired	26772
Ġtheorem	26747
tile	26737
010	26725
ĠRoad	26725
HO	26721
Builder	26710
Ġintegral	26706
Man	26702
ĠMexico	26701
ips	26696
Ġinduction	26695
{"	26692
fd	26688
Ġrestaurant	26678
Ġbattery	26655
(_	26654
ock	26644
Ġaddressed	26643
Ġnarrow	26638
Ġrisks	26637
Ġ1995	26636
ext	26626
Ġregulatory	26626
Ġprobe	26621
double	26619
Hi	26617
ĠDO	26606
"}),	26599
store	26596
Ġheader	26590
Âģ	26571
Ġpayments	26571
Ġreviewed	26564
CN	26561
Ġwinning	26561
Ġstatistics	26550
Ġcolumns	26546
Output	26540
Ġrecall	26539
Ġintegration	26536
Ġpresentation	26535
)}$	26528
Ġfairly	26524
ë	26514
American	26514
Ho	26510
Car	26510
201	26501
Ġinflammatory	26501
sor	26499
Ġlie	26499
Project	26494
VE	26490
Ġaudience	26490
ĠSer	26486
ĠLake	26470
Many	26460
Ġfu	26456
ĠPD	26447
Ġbug	26434
VI	26433
Ġenhance	26430
ĠWho	26430
Ġtea	26426
hy	26425
Ġce	26415
Ġclusters	26403
\'	26400
Ġmomentum	26400
Reference	26385
sd	26384
atic	26383
Ġmigration	26376
ĠCheck	26375
Ġcompensation	26371
Ġgoods	26370
Ġhotel	26369
Ġvan	26366
ike	26363
BO	26360
ĠmM	26360
dan	26357
ond	26347
ĠVersion	26343
sw	26342
Ġcopyright	26341
unk	26339
Ġfails	26339
inner	26337
123	26335
aker	26334
Li	26315
)}{	26314
ila	26312
lit	26307
cb	26297
nov	26291
Ġtwenty	26288
por	26286
Ġregardless	26278
ĠmiR	26278
III	26269
lab	26267
ĠAC	26267
ith	26266
Ġwire	26263
Ġtemperatures	26262
Ġyouth	26249
ĉĉĉ	26249
Window	26244
Ġwindows	26238
Ġpursuant	26238
Ġflux	26232
ãģ®	26230
ĠPl	26229
treated	26219
Mi	26217
sol	26215
Ġear	26212
bert	26211
ida	26206
ame	26206
)))	26203
Ġchoices	26200
Ra	26199
ĠHi	26196
ĠCH	26192
ĠMu	26188
Ġcomfortable	26177
Ġengaged	26176
ĠQu	26176
ski	26175
mc	26175
itch	26174
Ġwarning	26173
month	26161
Ġvehicles	26161
Ġcapture	26144
Ġadverse	26144
Ġsimulations	26135
¨	26131
acc	26131
Ġhydrogen	26131
ĠFo	26130
AND	26127
Ġsurfaces	26125
Ġpublication	26122
common	26107
mn	26106
RNA	26106
Ġuniform	26106
GT	26105
rid	26095
sion	26090
ħ	26089
example	26087
Â¶	26085
ĠMaybe	26083
mol	26069
Ġ1980	26068
103	26067
Ġyounger	26066
Ġkilling	26050
Ġedges	26048
uer	26046
aka	26041
mt	26039
ĠChief	26038
Ġshock	26037
ĠSE	26024
Ġ:)	26024
Ġlaboratory	26018
Ġoperate	26008
eat	26007
Ġcoupled	26004
Ġ"\	26003
Ġdeliver	25999
]"	25993
Ġsuffered	25990
Ġscenario	25990
CB	25986
ander	25984
ĠMrs	25984
ĠOhio	25979
Ġera	25968
Ġroll	25964
²	25963
Ġseparation	25959
ĠInt	25959
ĠSC	25957
ĠCharles	25943
uv	25942
Ġcalculate	25939
Ġwonderful	25937
Ġaside	25935
Ġstores	25933
Â´	25931
ĠNA	25922
Ġsubsequently	25921
ĠAppeals	25907
Ġturning	25903
Ba	25895
nin	25890
dn	25890
Ġbanks	25887
menu	25885
tx	25883
aves	25879
ote	25876
nel	25875
ĠWill	25863
Ġdelete	25856
printf	25854
Ġrefused	25850
Ġdependence	25847
Ġpor	25842
Location	25840
ined	25834
Ġcalculation	25834
TL	25830
Ġbuildings	25830
Ġalign	25822
tas	25818
Ġattempted	25817
Ġproducing	25814
nar	25811
}\\	25809
Ġnm	25807
ĠModel	25802
ĠVirginia	25791
Ġfamous	25790
Ġexpand	25790
Ġelectrode	25787
¸	25782
ises	25781
Ġinhibitor	25781
Ġsmoking	25779
DT	25776
Ġsuffering	25772
ĠLos	25770
remove	25762
ait	25762
lv	25761
ĠOut	25759
ands	25758
THE	25753
Ġvi	25752
Ġstimulation	25751
Ġwriter	25750
Ġflight	25749
Ġproposal	25744
Ġwalls	25742
Ġstrike	25742
ĠST	25738
none	25737
Ġclock	25737
Ġwood	25727
Ġstood	25726
ĠSO	25723
Ġcorresponds	25713
values	25712
ths	25707
Ġapoptosis	25697
2003	25690
Ġemployer	25689
Ġeditor	25679
ĠJewish	25677
Use	25676
Ġng	25668
ĠCanadian	25667
AV	25659
Ġbelief	25651
ord	25648
Ġdual	25646
Ġcamp	25646
offset	25645
Ġversions	25626
tur	25623
Ġcolors	25622
sys	25617
ares	25616
Ġwelcome	25616
Ġcontributed	25614
Search	25613
ulate	25602
ª	25594
Ġboys	25592
Ġrepresenting	25590
Ġreader	25590
Ġbeer	25587
stat	25585
his	25584
Ġminister	25582
illa	25581
Ġplenty	25577
Ġproceedings	25568
mel	25563
Ġstack	25563
Ġbasically	25562
Ġfacing	25559
,$$	25555
ĠJan	25539
zi	25538
Ġsuperior	25532
Ġgrounds	25528
Ġexit	25523
Ġinflammation	25509
Even	25507
ĠMiddle	25506
ove	25502
Ġexecution	25498
ois	25497
Ġreceptors	25495
}\,	25484
Ġ-\	25483
Ġvillage	25478
Ġrepeat	25476
cts	25471
Ġshut	25448
NN	25446
ough	25442
Ġprogression	25439
Ġmapping	25439
Ġarbitrary	25438
CU	25435
ĠThree	25428
Ġchamber	25427
ĠRepublicans	25423
Ġinclusion	25421
Ġ\-	25414
Ġattribute	25411
ndi	25401
&&	25384
ĠGame	25384
Ġspirit	25382
Ġteacher	25376
Ġstick	25373
Ġplain	25368
Ġinvolvement	25366
ĠAmong	25366
bp	25364
sal	25363
ĠRichard	25362
Ġprepare	25356
Ġwalked	25348
Ġ68	25347
Ġmodes	25341
(\[	25336
Ġequally	25335
Ġcoefficient	25331
Ġbr	25330
asing	25325
rds	25324
.âĢĻ	25320
uting	25317
IG	25317
ech	25314
Ġdinner	25312
Ġverdict	25310
Ġcircle	25303
hm	25302
Ġisland	25302
Ġconsumers	25299
Ġassault	25299
Ġopposed	25297
mit	25287
uz	25284
Ġthrows	25282
Ġperforming	25281
yes	25277
ĠCarolina	25277
Local	25274
ĠTi	25269
Ġ1994	25268
sco	25266
Î	25260
231	25260
omic	25258
Ġjourney	25252
Ġobserve	25240
Ġapplies	25232
ima	25230
ever	25224
UT	25221
Ð¾	25219
Es	25219
aming	25212
Address	25205
Ġmoves	25204
ĠAccordingly	25196
Ġagencies	25186
before	25181
Ġdiversity	25176
LT	25169
Who	25166
Ġregional	25164
Ġadjacent	25153
Ġcontrary	25149
ural	25144
Ġpregnancy	25134
Ġcomp	25130
rist	25127
opt	25114
Ġbacterial	25112
Ġperiods	25111
Ġdecline	25108
Ġsatisfied	25105
iel	25097
Ġ===	25097
Ġ-------	25091
Ġstronger	25087
ident	25081
ĠMary	25077
140	25076
Like	25074
ĠGiven	25072
Header	25071
files	25070
tary	25067
Ġsegment	25062
Ġmissed	25061
Ġlock	25054
ĠReview	25053
sey	25045
Good	25045
ĠHan	25040
mus	25036
ester	25021
Ġwherein	25015
Ġdimensions	25014
Ġpermanent	25012
ĠUp	25011
Ġmagnitude	25010
ient	25006
cia	25006
MENT	24999
Ġstatistically	24998
Ġmutant	24997
Ġcreates	24996
ngo	24993
Ġrank	24979
bra	24978
ĠWater	24978
ifies	24974
Ġsaved	24968
Ġrows	24960
Ġshares	24951
Ġongoing	24950
Ġbegins	24950
Ġmoderate	24943
Ġprofiles	24938
internal	24937
Ġthereof	24935
ĠView	24934
}-\	24924
%;	24917
Ġgrand	24912
Ġcoefficients	24910
Ġmoral	24906
limits	24902
Ġdecreasing	24898
Ġbear	24896
ĸ	24892
Com	24884
ĠBush	24881
Ġexcluded	24878
Ġstands	24875
Ġmarkers	24875
Ġbringing	24875
Change	24873
2002	24872
Ġcutting	24872
sia	24870
}[	24866
Function	24862
alo	24859
Ġwinter	24858
Ġnewly	24855
prod	24854
API	24849
Ġconnections	24848
mem	24843
Ġacademic	24840
¶	24839
Ġdiffer	24838
Ġimp	24837
Ġos	24831
byte	24823
Ġsky	24821
Expand	24819
Tex	24810
sets	24806
Ġsymmetry	24799
wrap	24798
Url	24797
Top	24791
Ġcomprehensive	24789
Ġefficacy	24778
Ġteachers	24773
Ġanxiety	24772
Ġrender	24771
Ġvictory	24767
Ãħ	24763
255	24755
Ġ67	24753
Ġconsequence	24748
mathscr	24740
âĢĥ	24736
Ġrequiring	24735
dra	24734
Ġlosing	24725
weight	24717
arity	24715
Ġintermediate	24715
Ġrep	24714
nl	24713
rates	24708
Ġcards	24704
Ġmanufacturing	24702
die	24701
Ġinstrument	24699
Ġselling	24698
\#	24692
ĠIm	24691
bus	24672
Ġadequate	24672
Ġcomplications	24669
Ġyellow	24665
Ġer	24664
Ġrecover	24661
Ġdiagnostic	24659
Ġextracted	24658
Ġshell	24654
Ġtargeted	24653
"}](	24644
Ġsubset	24643
Over	24640
Ġlisten	24637
ĠNext	24637
UP	24636
ĠEm	24625
NP	24617
sons	24614
iers	24603
Ġlesions	24602
eral	24599
Ġinjured	24599
External	24595
112	24592
town	24591
³	24587
Ġver	24585
Ġdealing	24582
ctx	24579
Ġfoods	24579
Ġuniverse	24575
}_\	24569
erman	24567
ĠSimilarly	24567
Ġhell	24564
Ġsuspect	24554
Ġpu	24551
Ġpredict	24550
ĠReal	24548
ĠRi	24539
Ĭ	24538
UL	24535
lot	24527
Ġkeys	24523
ĠKey	24522
Ġtrained	24517
ĠGL	24514
Most	24502
axis	24500
ĠScott	24494
process	24490
Vert	24489
Fe	24488
ĠYet	24488
pel	24486
ece	24478
OB	24478
ĠBlue	24472
Ġmiss	24449
IB	24444
Po	24441
nus	24440
Ġstrange	24435
Ġusage	24430
Ġmutation	24419
Ġvaluable	24415
'_	24414
Ġbridge	24403
ĠSD	24402
namespace	24400
Ġafternoon	24398
Ġfarm	24395
Ġplanet	24388
ENT	24386
Ġcomputed	24379
Â²	24372
Ġinstances	24369
Ġbrings	24367
via	24357
device	24353
Ġseed	24352
Ġconservative	24348
Ġwearing	24346
Ġshouldn	24344
Ġprefer	24343
Ġdiagram	24342
Ġpop	24340
Ġmoments	24338
ĠME	24334
<\	24326
bt	24325
¿	24317
ĠArmy	24312
Ġreserved	24303
ban	24298
had	24294
Post	24290
'\	24286
ĠBoston	24280
bel	24276
Ġcalculations	24274
addr	24273
Ġtip	24267
Ġdifferentiation	24260
Ġactivated	24257
such	24249
Per	24249
Ġtechnologies	24249
xa	24240
BD	24240
Ġkernel	24231
have	24229
Ġreviews	24222
Ġni	24222
008	24220
Ġapartment	24219
á»	24216
empty	24195
Ġfaces	24195
oto	24191
eto	24181
Ġrely	24181
ede	24178
replace	24176
Ġdecay	24173
Ġlib	24168
ĠCell	24164
ibility	24160
ĠTop	24154
HI	24148
tte	24146
RG	24133
Ġbroke	24129
eme	24125
ej	24124
ĠNon	24124
tain	24118
oro	24111
104	24107
ĠChristmas	24104
rating	24102
Application	24100
ĠAnalysis	24096
Ġser	24094
Ġsatisfy	24093
Column	24092
ĠFROM	24092
wide	24087
Ġallegations	24087
pass	24084
dict	24076
Ġalgebra	24073
asp	24071
Ġcardiac	24062
Ġ1993	24059
including	24058
Ġchicken	24057
Ġelected	24056
there	24052
leg	24045
address	24044
ĠRT	24044
wing	24042
Ġchecked	24030
when	24024
Ġexhibit	24024
Ġodd	24023
Ġintroduction	24022
uch	24021
Ġdedicated	24021
ĠCorporation	24021
Ġclassified	24017
Ġ1992	24017
thm	24014
Ġfellow	24011
Ġchose	24007
Ġunsigned	23999
Ġsurprise	23996
Ġseriously	23994
Ġordinary	23991
Ġjump	23987
Ġrenal	23979
rom	23974
Ġrevenue	23973
Ġinvolve	23972
Ġfly	23972
product	23970
Ġvary	23963
Ġdistributions	23958
Ġinduce	23954
oles	23951
AST	23947
ĠMike	23947
ĠUser	23946
________________	23942
ĠBased	23942
>\	23941
Ġgalaxies	23937
TF	23936
Ġanywhere	23932
Ġaged	23929
ĠNetwork	23922
1999	23914
Ġhistorical	23913
cin	23897
rib	23896
Ġ<-	23895
Ġ<=	23888
iate	23887
RD	23884
eter	23880
Ġsemiconductor	23872
ĠDespite	23872
iu	23868
ĠEvery	23868
During	23866
Ġcu	23866
Ġthickness	23865
nr	23860
Ġgift	23857
Ġpresents	23852
Ġmatches	23852
tf	23850
Ġge	23843
bot	23838
iated	23836
ĠTrue	23831
Ġtheoretical	23828
Ġden	23828
Ġwarrant	23822
gent	23818
Ġ),	23818
Os	23815
Ġlattice	23803
Ġperfectly	23802
cing	23801
ĠLight	23799
Ġtoken	23780
Ġstrict	23776
Ġpartners	23775
parse	23770
105	23763
Ġdiagnosed	23756
\}	23744
Ġillness	23741
ours	23740
Ġmetabolic	23739
tmp	23737
ĠFi	23736
Fs	23732
Ġprediction	23730
}]	23728
Ġtheme	23725
Ġlaunched	23710
ards	23708
quot	23707
Attribute	23707
itz	23702
SN	23702
ĠRight	23680
Ġincubated	23677
Ġdataset	23672
Core	23667
dar	23665
nom	23662
master	23656
rz	23652
ĠKi	23652
\!	23646
ĠTeam	23643
Ġcarefully	23641
hs	23639
ĠYOU	23625
sb	23621
play	23621
blue	23618
Ġtranslation	23617
Ġafford	23616
Ġbits	23614
Ġstatutory	23613
white	23604
rows	23604
ape	23604
Ġill	23603
cus	23597
Ġbytes	23597
iff	23593
Ġyesterday	23589
Ġurban	23588
what	23583
Ġride	23583
\,\	23577
Ġgauge	23576
Target	23575
wn	23571
ais	23566
hor	23556
ĠAu	23551
Ptr	23549
ĠFl	23549
Ġfraud	23548
Ġinsulin	23546
Ġstaining	23542
Ġaudio	23533
Ġ250	23529
eur	23521
fit	23520
Ġmonitor	23513
Ġthousand	23508
ĠAngeles	23494
Ġinfrastructure	23488
Ġbreaking	23485
Call	23480
Ġhardware	23479
'),	23474
ĠClub	23471
Ġ110	23469
Ġeducational	23468
Ġtrace	23461
Ġrounded	23456
ĠMake	23455
wl	23446
Ġkid	23426
Ġmetabolism	23419
Task	23418
ĠDetermine	23416
011	23415
Ġdomains	23415
rop	23414
OC	23412
Th	23411
ĠOh	23405
column	23404
El	23401
Ġloaded	23399
Ġcloud	23399
nx	23395
Ġdrinking	23394
Ġcarrier	23394
Ġphotos	23391
Ġdivide	23389
ott	23388
±	23387
ĠConstitution	23387
Inter	23384
Ġsufficiently	23381
Ġreferences	23379
ĠMin	23378
ĠParis	23376
Ġroutine	23375
Ġcontends	23375
making	23373
Introduction	23360
gate	23359
Ġintake	23358
Ġwest	23356
ĠError	23354
final	23349
}},	23346
Ġcomplexity	23346
Ġpartially	23342
Ġneighborhood	23334
Ġimposed	23334
Listener	23331
izations	23330
Ġengage	23329
layer	23328
ĠOrder	23312
Ġdev	23309
Ġ71	23308
elo	23297
OF	23286
Ġsomewhere	23286
Ġdisclosed	23285
mediated	23276
Tag	23276
iness	23272
conf	23272
Range	23272
ĠThanks	23272
tant	23266
BB	23264
lay	23262
Ġyields	23260
Ġdanger	23252
Ha	23245
Ġcontrolling	23242
oes	23239
Ġdenominator	23238
Bi	23235
Ġ69	23232
Ġstroke	23229
ĠURL	23227
ancy	23223
Ġreveal	23220
GF	23219
ĠDec	23219
Ġ$|	23218
Ġprofit	23217
\^	23216
ule	23209
ĠJava	23209
vid	23199
}|	23197
Ġdr	23195
session	23193
Offset	23190
Ġdiscrimination	23189
Ġnumerical	23188
Ġcomparable	23188
377	23184
Ġevil	23183
Ġbelieves	23178
ĠĊĠĠĠĠĠĠĠĠĠĠĠ	23163
ĠSyria	23158
ĠDoes	23146
Select	23145
Ġsampling	23140
Ġconstraints	23138
rio	23136
Ġbehalf	23136
they	23135
gal	23130
ãģ	23127
214	23121
bing	23112
Ġcommit	23112
Ġperipheral	23111
ĠBefore	23102
tp	23095
Ġadmission	23094
Ġtrigger	23093
full	23088
tw	23084
spec	23084
Ċĉĉĉĉĉĉĉ	23080
Ġlens	23076
Ġmarketing	23066
107	23057
ĠHTML	23056
ples	23052
eling	23052
Connection	23042
Ġserves	23041
ended	23040
ĠSpecial	23012
docs	23010
alism	22999
Ġsick	22994
Ġcollect	22984
ĠBritain	22976
Ġdust	22973
Ġpassword	22966
Ġhandling	22962
His	22961
methyl	22959
ĠPart	22948
Ġchallenging	22943
world	22941
Ġexplicitly	22938
||	22926
textbf	22922
ĠWomen	22922
params	22919
Ġalive	22910
Ġ77	22910
nas	22904
Ġeast	22903
Ġgrew	22898
nc	22895
Ġtables	22891
Ġcited	22890
Finally	22887
should	22878
Ġcache	22878
wal	22873
linear	22868
Ġsimultaneously	22867
rial	22865
ĠReport	22861
ĠVa	22857
CK	22840
Ġ84	22839
--------	22834
ulated	22833
Does	22833
Ġ{}	22833
Ĵ	22831
inated	22828
Current	22826
ĠYoung	22826
days	22822
John	22815
sti	22809
ĠBur	22802
Ġclassic	22801
ĠFind	22799
edu	22794
Ġtruck	22789
lb	22777
Link	22767
Ġvariations	22765
ĠAustralian	22765
Ġneural	22756
Ġhealthcare	22752
Ġchest	22752
nb	22750
ete	22745
Ġgreatly	22745
ĠAsia	22732
Ġtele	22731
power	22728
Ġuniversal	22723
materials	22722
ĠCare	22720
defined	22717
Ġflash	22710
="#	22708
Ġresponded	22702
Ġsharp	22699
ĠBusiness	22693
\}$	22688
Ġprovider	22687
Ġamplitude	22687
lig	22685
Ġcompute	22682
Ġchi	22673
Ġproven	22671
Ġcopies	22668
KE	22667
eus	22666
Ġimproving	22664
ĠNor	22663
ĠTechnology	22656
Ġquantity	22654
.;	22651
GG	22650
rium	22642
Ġsteel	22637
Ġste	22635
Ġpulse	22631
Ġingredients	22628
Ġfewer	22628
Ġmarker	22626
years	22620
Ġadministrative	22620
BU	22619
ĠAL	22618
Ġfr	22616
¢	22614
Spec	22608
Ġcha	22607
Ġpenalty	22603
Ġcorrection	22599
Ġbrown	22595
pd	22588
Ġexplicit	22586
cache	22581
%).	22580
Dis	22578
sent	22576
µ	22570
Ġriver	22570
ĠPage	22569
sql	22568
Ġmales	22566
Dir	22565
lation	22564
Ġsuffer	22562
Ġapproximation	22562
xc	22558
Ġmail	22548
lton	22545
Ġ78	22543
)_	22542
Gr	22536
Ġcohort	22532
Ġ98	22532
usr	22531
Ġsending	22526
iy	22525
Ġmovies	22523
Ġelevated	22523
itable	22522
arn	22520
pri	22519
ĠLA	22519
ĠJr	22519
Ġgarden	22517
Ġdrivers	22515
anti	22510
Ġnamely	22496
cky	22493
Ġpet	22490
ĠMedia	22490
Ġcrowd	22477
Ġomitted	22476
Ġrooms	22470
Ġnearby	22468
DL	22459
aine	22454
ĠImage	22454
bal	22451
than	22444
Ġcomparing	22444
Ġpowder	22441
uf	22439
ĠValley	22438
Ġsignature	22436
Ġdifficulty	22436
Ġ------	22436
second	22433
Ġ88	22433
dam	22426
Cr	22420
cre	22411
mic	22410
Ġrejected	22410
Ġpapers	22410
Ġsubmit	22409
Ġvariance	22408
pan	22394
Ġscan	22394
ĠRock	22394
pla	22388
ĠIllinois	22386
unit	22384
Ġcouncil	22384
310	22382
Ġcommitment	22372
SB	22363
ĠJackson	22361
RY	22354
Ġfrequent	22354
Ġprecisely	22353
yp	22351
ially	22347
rage	22346
Script	22345
Ġfifth	22339
Ġest	22332
Na	22327
oun	22325
Ġinequality	22318
OW	22313
009	22305
Ġreceiver	22305
Ġdivisor	22300
ont	22299
ĠJoe	22295
ĠSQL	22294
inf	22293
sid	22292
Once	22292
Ġovercome	22287
edge	22277
Ġinvestors	22277
ĠMer	22272
place	22271
Ġcodes	22271
Su	22268
Ġmachines	22267
Ġhasn	22260
utes	22254
Ġabsorption	22246
rec	22244
Ġrock	22244
Ġatoms	22243
Ġscientists	22241
Ġmatching	22241
Ġbuying	22229
''	22221
display	22218
ĠItaly	22217
Ġfemales	22214
Ġtail	22208
Char	22207
ior	22206
LF	22205
ĠForce	22204
sar	22203
Ġcompetitive	22203
-----	22202
Ġnaturally	22194
dim	22193
Ġbusy	22181
Ġclosing	22178
born	22176
ired	22174
fire	22172
Ġdoctors	22168
Ġsight	22160
ody	22157
ĠMichigan	22157
à¤	22156
gy	22142
ender	22136
Ġ73	22133
ĠFire	22101
pid	22100
900	22100
½	22098
Ġparticipation	22098
ĠToday	22098
217	22097
RL	22092
Ø§	22090
!âĢĿ	22089
will	22085
llen	22080
Ġmeasuring	22080
aco	22079
ĠSea	22079
Ġscored	22076
Ġed	22074
Ġelections	22073
nant	22071
Ġmask	22068
aya	22065
Ġrestricted	22062
Ġcoordinates	22057
Ġcheese	22057
Ġ::	22055
Min	22054
Ġmom	22052
Height	22051
Ġargs	22050
ĠEnergy	22050
ĠAmazon	22039
PG	22034
Ġder	22034
RU	22031
]{}]{}	22030
Ġcareful	22021
Ġsurprised	22018
Ġprivacy	22018
Ġvast	22016
Ġmodification	22012
Ġenabled	22010
Ġreduces	22009
)$$	22007
ĠGold	22005
done	22004
tech	22003
Ġadjusted	22003
Ġ74	22002
ĠCatholic	22001
stein	21998
<!--	21997
ĠDate	21987
mac	21979
ulating	21978
about	21971
Ġcomfort	21966
Ġscheduled	21965
week	21956
Ġdiverse	21954
Ge	21949
////////////////	21949
Ġfunc	21948
Ġnotion	21946
Entry	21937
cas	21936
bes	21935
232	21933
!!	21930
care	21923
Ġindependently	21923
Ġfeelings	21923
FP	21920
Ġheads	21915
Ġcomposed	21914
ĠResults	21898
Position	21896
ect	21894
front	21892
PER	21889
matrix	21885
Ġve	21882
Ġprop	21880
Â¿	21877
Gen	21876
Ġmistake	21874
SIZE	21869
known	21864
ĠAR	21860
ĠRef	21855
ually	21853
Ġarmy	21849
Ġcovering	21847
Ġanymore	21847
IX	21846
ĠYear	21844
Ġcontinuing	21843
bling	21842
vm	21839
ĠLocal	21837
Left	21835
/>	21833
Ġsuppose	21833
Ġkinase	21830
stop	21827
sso	21825
Ġadds	21824
Build	21821
Ġtiming	21820
Ġbulk	21817
Ġsettlement	21815
Ġpresidential	21812
aining	21811
Ġhash	21810
Ġcable	21809
Impl	21806
ĠAg	21799
lder	21797
Ġcheap	21793
Ġ101	21790
face	21783
ĠBest	21780
Ġ**(	21780
Ġcook	21779
Val	21778
Ġloading	21770
Thread	21765
Ġcommission	21765
ĠVan	21764
Ġreform	21762
handle	21753
Ġ94	21752
np	21748
tto	21745
Under	21743
ĠAnti	21743
Entity	21728
Ġprogramming	21728
Ġtalked	21715
amer	21714
Ġcommunications	21707
ĠSec	21706
108	21701
Ġcrimes	21699
ando	21694
Ġanalyze	21693
Ġaircraft	21692
Ġlipid	21686
ĠDavis	21683
Ġ76	21683
send	21675
-*	21673
Ġ&=	21670
Using	21669
EQ	21668
Ġyards	21668
Ġherein	21667
Ġgenerating	21667
ĠJe	21666
Provider	21664
Debug	21661
game	21655
export	21651
anc	21650
Ġprecise	21644
Ġopinions	21639
Ġwi	21638
ĠMO	21638
Ġ97	21624
hw	21614
Ġexecuted	21612
ĠGlobal	21605
Ġ81	21601
ĠCreate	21599
Ġlists	21598
ĠSource	21594
eting	21589
ĠCe	21588
ued	21587
total	21585
210	21584
Ġwealth	21582
xx	21580
Ġpriority	21580
Ġpetitioner	21574
İ	21573
aba	21573
130	21569
Â®	21561
ories	21561
Ġcorrespond	21560
sive	21559
erson	21557
ograph	21556
Ġlocally	21555
}({\	21542
Come	21541
():	21540
Ġdisc	21540
Template	21539
Ġ$\{	21539
Ġafraid	21538
333	21537
debug	21536
Phys	21536
Ġlegs	21534
Ġvectors	21533
ION	21530
Ġradical	21526
^{-\	21525
ĠCross	21520
Level	21514
family	21512
Ġpolymer	21512
click	21507
INT	21507
Module	21503
ĠChapter	21500
ials	21499
Ġfailing	21498
106	21494
Ġtour	21491
Ġrefers	21489
fill	21486
Ġwhenever	21486
Ġcrazy	21485
Ġwaves	21477
Ġsuddenly	21476
sson	21472
una	21469
edi	21466
Ġrain	21461
container	21460
inder	21459
ĠPrime	21456
Ġattend	21454
117	21451
Ġcuts	21451
sil	21448
116	21445
ERROR	21444
Ġsnow	21437
Ġdeclare	21431
Ġaimed	21428
[[	21424
Ġ91	21423
sic	21413
SET	21413
ĠGrand	21413
Ġhouses	21412
cut	21404
VM	21404
Ã¢	21402
Ġrational	21402
Ġ1991	21399
Ġinhibitors	21395
','	21388
Ġtaught	21387
ĠManagement	21385
COM	21380
Ġtemporary	21380
Theta	21378
nia	21374
Ġforum	21372
Ġinit	21371
Ġquiet	21369
ĠAnn	21363
ira	21360
LR	21359
Ġencourage	21359
Main	21356
Non	21353
shape	21344
Ġ..	21342
Ġexpenses	21341
Ġfore	21339
Im	21335
Ġcultures	21334
}}^{	21332
domain	21332
Ġweapon	21322
EB	21319
copy	21314
ĠSpace	21314
Okay	21311
iii	21305
ĠNumber	21305
ĠCivil	21305
ĠOK	21298
ĠKe	21293
Ġproduces	21292
shi	21289
Back	21289
Ġconsecutive	21287
ĠPolicy	21285
áĢ	21284
ĠTR	21284
connect	21281
ĠAction	21280
rx	21271
Ġupdates	21266
aff	21265
SON	21265
AE	21264
sr	21262
Ġalert	21261
Ġsilver	21249
ĠCR	21249
Ġteeth	21242
anda	21237
Ġatmosphere	21237
avi	21234
sty	21232
Write	21229
Ne	21229
Ġwestern	21229
Ġwatched	21229
115	21228
sur	21222
)|	21222
Ġ82	21222
EY	21221
Ġchair	21221
ANT	21220
ĠKu	21207
just	21205
cz	21201
GR	21201
emia	21199
Ġplurality	21195
wards	21194
Ġattributes	21194
xed	21193
Section	21193
Ġproviders	21191
Ġnerve	21189
).$$	21186
Ġreasonably	21180
Ġdominant	21177
lying	21171
ĠRights	21171
Ġappreciate	21170
Ġorientation	21164
Ġshoulder	21162
Ġignore	21160
Ġlunch	21159
Ġfrequencies	21159
ĠDescription	21153
ense	21152
ĠTu	21152
Ġvertex	21143
Ġtrading	21141
Ġprocessed	21140
ssi	21138
imp	21133
Tree	21133
ĠApplication	21129
tbl	21125
Ġru	21117
Ġ92	21106
email	21105
sem	21104
Ġawareness	21096
Parameter	21094
TU	21093
Ġstreets	21093
Ġlosses	21093
iva	21092
det	21081
eva	21080
dies	21080
Pe	21078
Ġtiny	21075
Collect	21073
Ġ83	21061
Ġfed	21060
Ġvalve	21057
Ġga	21057
Ġassist	21054
pet	21047
erm	21047
Ġlawyer	21045
Ġpersonnel	21039
Ġwitnesses	21038
osa	21037
ĊĠĠĠĠĊĠĠĠ	21037
most	21034
points	21027
ĠIC	21027
Ġimprovements	21020
DATA	21019
Bu	21014
Supp	21001
Ġsomehow	20998
Ġplates	20996
irs	20985
ĠMat	20976
Long	20975
aling	20973
Ġgeneric	20966
Did	20963
Ġstruggle	20960
Title	20959
Make	20956
Ġant	20944
Ġaffirm	20944
Ġfluorescence	20941
Ġcor	20933
Ġexplains	20931
Ġtab	20929
ĠFox	20927
Qu	20923
/.	20923
sus	20921
DH	20917
hash	20911
FL	20910
Ġ93	20904
Ġtemporal	20901
cam	20898
Ð½	20895
Ġtalks	20895
Ġholes	20894
cel	20893
AX	20888
Ġpen	20887
iles	20879
who	20878
oking	20878
Ġorganized	20874
ogenesis	20870
Ġgoverning	20869
echo	20868
wd	20867
Ġreturning	20867
dic	20860
ĠThank	20859
ading	20855
ML	20846
Ġvideos	20839
ĠÃ©	20835
Ġmanufacturer	20834
ĠPh	20826
reference	20823
SK	20816
km	20807
Ġsoul	20806
application	20800
>.	20800
Ġrespiratory	20798
gging	20797
Ġweren	20796
Ġinterior	20796
Ġplea	20795
Ġ($\	20795
Ġobj	20794
Ġunlikely	20791
Ġroughly	20783
cri	20776
Ġ})	20775
ALL	20773
),\	20770
Ġmarks	20768
Ġpassage	20767
ĠWilson	20766
dem	20764
}^{-	20762
dor	20762
Ġpermitted	20755
Ġou	20750
ital	20747
Ġarchitecture	20746
ĠReg	20743
Ġnervous	20740
Ġdirections	20738
Ġboat	20736
ĠWork	20731
Container	20721
Ġrecipe	20721
Ñĭ	20716
ication	20716
chen	20716
aver	20715
Ġcooking	20706
ull	20705
tex	20704
Ġmodules	20704
aut	20703
Ġbyte	20703
|^	20702
Ġ++	20701
Ġuncertainty	20698
illed	20697
ometric	20696
lio	20695
{}	20692
Ġelsewhere	20689
gram	20670
thing	20666
itude	20653
abi	20652
HC	20652
PCR	20649
IVE	20643
Ġrestriction	20642
ĠER	20642
ĠBY	20640
ĠRepublic	20635
ĠText	20634
Ġparking	20632
Ġgeometry	20632
ÂĹ	20629
Ġdeviation	20629
change	20625
RES	20618
Ġbounded	20616
Ġsystematic	20611
Ab	20610
Ġspiritual	20609
Ġfolder	20599
Ġcovers	20599
Ġsodium	20592
ims	20589
Ġconsisting	20586
ĠFed	20584
,{\	20579
sman	20573
EST	20572
BM	20569
ĠMiller	20568
desc	20567
ols	20565
Ġtelephone	20562
Ġcycles	20562
ĠMuslim	20559
Ġextraction	20551
ĠPlan	20551
ĠAuto	20548
elli	20545
Ġinvasion	20545
Ġvascular	20544
Ġutility	20541
Ġ79	20531
Ġpaths	20530
Auto	20526
Ġleaf	20524
kl	20523
Ġmarijuana	20521
Ġmar	20518
lr	20516
Ġcontracts	20516
Ġdisability	20514
Ġseasons	20511
fx	20506
ĠDan	20505
enn	20503
ĠIsraeli	20499
ĠProposition	20498
Ġalgorithms	20497
Ġaffects	20492
Ġconclusions	20491
aching	20477
tools	20473
Î³	20472
ika	20470
rh	20468
Ġpoll	20464
Ġcreative	20464
ĠPI	20463
Ġ---------	20462
Ġconcrete	20461
equal	20460
Ġgiant	20460
ility	20459
ĠJack	20459
Ġ1970	20458
LM	20457
mis	20454
Trans	20453
Ġkeeps	20443
sher	20441
Ġoffensive	20441
hon	20433
him	20433
Ġ}\	20426
Ġcleaning	20426
Ġpeptide	20423
Ġtheories	20421
Ġmedication	20421
tam	20416
ĠĠĠĠĠĠĠĠĊĠĠĠĠĠĠĠ	20411
fb	20409
Ġconverted	20407
ĠLast	20403
ĠChe	20402
zero	20401
ume	20397
DNA	20397
rain	20396
mean	20396
Ġconsiderable	20396
ĠAN	20392
elling	20391
Ġmeal	20384
eries	20379
Step	20375
Ġlip	20371
eller	20370
aid	20364
Ġdispute	20359
pur	20357
Ġavailability	20355
Ġking	20354
DER	20353
security	20351
textrm	20339
dagger	20339
Ġrobust	20333
spe	20332
Ġ{{	20332
Ġdoctrine	20331
OV	20330
tol	20324
UD	20323
green	20321
zo	20319
.]	20319
Ġshoot	20311
Ð	20309
aga	20309
Ġcream	20309
Ġresolved	20308
osh	20307
Ġfault	20306
ree	20300
Ġviewed	20300
lated	20298
1998	20298
Ġrural	20296
119	20295
Ġprofessor	20295
cil	20293
ĠMen	20293
background	20285
Ġmaintaining	20285
ĠJersey	20284
Am	20282
rog	20278
Ġelectro	20277
Http	20273
Ġpushed	20266
ĠFood	20265
underline	20260
EV	20259
Total	20258
Ġpersonally	20257
rations	20256
Ġ89	20255
ĠSouthern	20249
Ġfinger	20248
Ġgay	20241
Ġpilot	20239
Ġprevention	20237
LU	20234
lah	20231
ĠCommunity	20226
Ġ01	20225
kar	20224
Ġsong	20224
Ġcompletion	20224
Ġentries	20222
`,	20220
CV	20217
Ġrev	20216
ĠTotal	20215
Ġstrings	20213
121	20206
Ġri	20204
Ġconvicted	20203
[**	20202
Ġadvantages	20195
192	20194
Ġguarantee	20182
Ġmirror	20179
para	20175
gra	20174
pot	20171
Ġ((-	20171
ĠTrust	20168
Ġbarrier	20167
ĠOfficer	20167
\>	20156
Ġblind	20156
ĠPakistan	20155
Ġdress	20147
Ġfired	20146
MAX	20145
Device	20145
280	20145
«	20143
token	20142
Ġsurvive	20136
Ġdiscussions	20135
Ġsequencing	20133
113	20129
Ġexport	20128
Ġonset	20122
Ġscattering	20117
wedge	20116
Unit	20114
ark	20110
mbo	20102
nit	20100
nian	20099
Ġteach	20099
Ġ-----	20099
Ġphenomenon	20096
Ġcal	20096
Ġcomm	20095
Ġ-----------	20092
essed	20089
ĠLine	20089
ĠJu	20085
Ġfiling	20082
Ġownership	20079
Ġvacuum	20077
Ġquasi	20067
Ġexclusive	20067
Ġ(âĢľ	20066
actions	20065
Ġregularly	20063
oids	20060
access	20050
Ġlymph	20044
ĠCEO	20043
Ġcompeting	20042
?'	20041
pack	20038
anes	20034
Ġoperated	20024
Ġ86	20024
=-	20023
Ġrice	20022
lower	20016
Ġabstract	20012
ĠWITHOUT	19996
Ga	19994
ĠCentre	19994
*]{},	19989
gov	19988
Ġcomprising	19987
127	19986
uni	19985
Sc	19983
equ	19981
Ġquantitative	19980
Ġpseudo	19980
unsigned	19976
support	19975
WA	19968
Ġcenters	19958
ĠWin	19958
'}	19951
Ġverify	19950
Ġthinks	19950
Ġ>>	19950
ĠAge	19945
rav	19942
rse	19938
ime	19929
\.	19929
VC	19928
Ġjudicial	19928
Ġentering	19927
Ġliberal	19926
{{{\	19923
Ġcolour	19919
zen	19917
oll	19917
ht	19917
Col	19917
nf	19910
Ġrear	19910
nal	19899
Ġancient	19889
Ġhorizontal	19888
ELL	19885
phone	19878
comment	19877
cmd	19877
Ġworker	19874
ĠNY	19874
Ġsustained	19869
248	19862
ido	19861
ĠVo	19860
Ġgovernments	19859
Ġdegradation	19859
oked	19856
Ġsatisfies	19856
Ġaccumulation	19855
Ġfalling	19854
Ġmild	19853
shift	19847
High	19842
Ġcaptured	19840
Ġproud	19836
ĠSpanish	19831
Ġtomorrow	19830
Ġpot	19829
aki	19825
Ġpump	19813
ĠConference	19811
enum	19810
ĠHenry	19809
Ġstone	19807
Ġreaching	19801
Ġnamespace	19800
arch	19798
Ġexpanded	19797
Ġdemands	19792
Ġinterventions	19790
nth	19787
Ġremoving	19779
install	19775
Ġdismissed	19773
hood	19771
Ġcolleagues	19770
Ġ87	19769
Ġbundle	19765
Ġcrew	19764
loop	19763
language	19763
Ġ----------	19762
Ġrecommendations	19760
SV	19758
posed	19755
Ġhonor	19753
012	19752
kt	19751
ĠĊĠĠĠĠĠĠĠ	19751
Ġsad	19749
170	19747
clear	19745
ously	19738
ĠBack	19733
Ġ\"	19729
Ġbottle	19728
ĠGO	19727
Ġknee	19726
Ġqualified	19725
ĠSha	19724
ister	19722
Ġcoast	19722
subseteq	19720
Document	19720
Ġpas	19717
Utils	19715
etal	19713
Ġportions	19710
Ġfe	19710
ĠCC	19705
0005	19704
âĢĭ	19703
Ġfalls	19703
Ġincorporated	19699
ĠÂ°	19695
ĠStandard	19692
black	19691
oper	19690
Ġcoding	19682
ĠWhether	19677
Ġpsychological	19676
ĠServer	19676
hep	19675
abe	19672
**.	19671
ĠAlex	19665
foot	19664
bn	19661
Ð»	19659
aks	19656
person	19654
Ġworldwide	19654
task	19650
cli	19649
itation	19647
FD	19643
ĠOld	19642
ĠSal	19637
ĠFrancisco	19637
UC	19636
Ġkidney	19633
ried	19632
Ġpour	19630
Ġmasses	19630
Ġdestination	19629
Ġgradient	19628
SW	19626
Cache	19622
ĠCha	19620
ĠNov	19617
Ġstations	19616
ĠRoyal	19615
Ġarise	19610
Ã¨	19606
EO	19606
Ġadministered	19604
omer	19603
HD	19598
Edit	19598
_{(	19596
Work	19593
Ġ1989	19591
enti	19581
Ġassays	19581
ĠDefendants	19581
.(	19580
Ġsole	19573
ĠMax	19561
}}}$	19560
Ġsizeof	19559
Ġtemp	19556
Ġscales	19555
cular	19554
Ġresidence	19553
ota	19551
fin	19550
screen	19548
Ġboo	19542
sie	19541
Ġseparately	19536
Ġinterference	19531
round	19529
ĠApache	19524
eil	19523
Ġeggs	19522
Ġ\;	19521
Ġreaders	19516
Fa	19513
Ġ--------	19513
Ġbutter	19511
}$$\	19508
ologist	19507
Ġdecreases	19506
čĊĠĠĠĠ	19503
wan	19502
aws	19499
}}$.	19496
OUT	19488
ĠItalian	19484
pad	19480
Ġphysics	19479
ĠNFL	19466
220	19463
Ġob	19463
stack	19462
Ġintervals	19462
Session	19461
Ġprominent	19459
Ġvotes	19458
Ġfaced	19455
Ġmounted	19454
Ġbowl	19453
Ġfriendly	19451
Ġmini	19445
Bs	19443
Ġegg	19443
VF	19441
135	19432
ĠGar	19429
command	19427
gon	19421
Ġstuck	19418
tron	19411
TX	19408
Ġtoxic	19408
Ġtargeting	19406
zer	19402
mag	19401
Ġaddresses	19400
Ġalter	19395
Ġdisagree	19393
associated	19392
join	19391
Ġkit	19389
sig	19375
lea	19375
ifier	19368
Ġ1988	19365
825	19364
.),	19363
Ġfoo	19362
Ġfolks	19355
AK	19352
Ġprofessionals	19349
ĠAsian	19348
erry	19346
dre	19344
ĠGeorgia	19342
nation	19337
Ġass	19337
ĠKim	19335
109	19334
114	19329
short	19323
hh	19321
PF	19320
Ġroots	19318
GET	19317
news	19309
Ġvariants	19309
iving	19308
thy	19307
Ġpromoter	19307
Ġspan	19306
tts	19304
ĠShow	19304
ĠMP	19304
binding	19302
Ġbomb	19292
:=	19290
pose	19287
Ġedit	19285
amo	19281
,\,	19278
translation	19277
Vs	19277
Ġprotective	19275
Ġappointed	19270
ego	19268
SELECT	19268
Ġappeals	19268
Ġrising	19267
hour	19266
Settings	19266
hen	19264
lee	19263
Ġconstitute	19262
Ġflexible	19261
hard	19260
lia	19259
rst	19257
Ġhonest	19257
122	19256
lian	19252
Ġheavily	19248
vc	19244
ĠStudies	19243
setminus	19239
Ġdrawing	19234
Ġpasses	19233
Ġexpressions	19232
emic	19230
atr	19229
ĠTaylor	19229
Ġboost	19228
ĠCP	19223
Ġlikelihood	19222
Ka	19219
ĠLan	19218
Ġ------------	19216
Ġseverity	19214
Ġreflected	19214
ĠLett	19213
Ġexpectations	19209
ĠMain	19209
nat	19207
Ġhousehold	19207
idine	19204
Ġinfinite	19203
iser	19196
Ġinsufficient	19196
ĊĉĠĠĠ	19194
ectomy	19192
Ġrose	19192
IST	19191
Ġinsert	19190
Ġprotest	19186
Ġbeach	19182
ĠPut	19179
168	19170
ĠOp	19168
Types	19164
dge	19163
Ġalignment	19160
iti	19154
Ġbind	19150
fix	19146
igh	19145
dm	19145
Ġratios	19143
Ġlimitation	19143
global	19138
Ġinform	19136
Ġmovements	19135
Ġsolely	19134
ington	19130
Ġsoldiers	19127
Ġsimilarly	19124
Ġadmit	19123
Ġvaccine	19120
Ġbike	19117
uo	19116
ĠIR	19116
iring	19113
Ġfoundation	19113
Ġadvertising	19113
Ġvice	19112
cons	19110
Ġrelating	19109
Ġconstantly	19107
ĠSM	19107
ĠIF	19107
Ġyeah	19104
Ġhypo	19100
Ġ-------------	19100
ĠWall	19099
phase	19090
Ġneo	19086
Ġhospitals	19084
^)	19082
Ġseeds	19081
Ġstupid	19080
Ġrid	19080
ĠPu	19079
Ġenzymes	19076
sca	19074
oxy	19073
images	19069
channel	19069
Ġbeauty	19068
May	19066
ease	19062
umb	19060
Ġawarded	19057
press	19053
aire	19053
Ġanswered	19052
ĠPatients	19044
kel	19039
Ġrestrictions	19039
EI	19037
Ġcoordinate	19037
Ġpackages	19031
Ġja	19029
very	19027
lier	19027
Ġengineering	19027
Ġabsent	19026
sample	19023
ĠMD	19016
owned	19013
Ġsubjected	19011
º	19008
Store	19008
Ġbands	19008
Ġrad	19007
ĠNorthern	19007
kr	19003
0003	19003
Ġmanual	19001
Ġmeetings	18999
tive	18996
ĠAcademy	18994
0004	18990
ener	18986
â	18985
Ġcomprises	18983
insert	18979
Ġsupplied	18978
window	18976
Ġwheel	18971
ãĢģ	18965
Ġ102	18964
ulator	18959
\_[	18956
Ġintention	18955
Ġprosecution	18952
Ġbeneficial	18952
STR	18951
ESS	18946
Ġdiv	18946
Ġpixel	18945
Ġhoping	18944
Ġvarying	18943
Ġprojection	18933
inate	18927
ĠMedicine	18923
Ġdad	18918
Ġproceed	18917
ĠAndroid	18915
Ġexecute	18911
PV	18910
Ġinteract	18910
ished	18908
ente	18908
lac	18902
Ġproceeding	18902
ijerph	18896
Ġ"$	18896
tum	18893
\[[@	18892
Ġenjoyed	18892
Ġaccessible	18892
ĠPennsylvania	18892
Ġsn	18890
Ġnations	18890
ĠThough	18887
TY	18885
rod	18884
Ġimmunity	18883
erg	18881
"))	18881
Ġimplications	18881
ĠJoseph	18880
ril	18878
aus	18878
tles	18877
Ġphysician	18877
own	18875
ĠPE	18875
nos	18872
izable	18868
Ġgel	18864
Ġlayout	18859
here	18857
Ġvalidation	18855
Vector	18854
Ġchecks	18853
ĠPlaintiffs	18850
aria	18848
+(	18846
020	18843
Ġwh	18841
rig	18840
uan	18837
Ġcarcinoma	18835
}}$,	18833
fed	18833
Ġclothes	18829
yt	18825
ĠSU	18825
urs	18822
Ġserial	18821
ĊĊĉĉĉ	18817
nity	18815
kan	18814
ssen	18811
ĠLouis	18806
Ġacquisition	18803
------------	18801
NG	18800
Ġages	18799
Ġpartition	18794
132	18793
Ġsmile	18787
OA	18785
Ġdismiss	18784
xs	18781
ffer	18778
aq	18764
ĠIslamic	18764
Ġantigen	18763
Ġsuicide	18762
Ġdb	18759
Ns	18756
Str	18755
TN	18754
Ġlaid	18744
®	18735
âĢħ	18729
Fi	18727
Ġcalcium	18725
Access	18722
015	18719
Ġsymmetric	18718
ĠMulti	18716
Order	18703
FB	18702
Ġabundance	18700
Ġdefines	18696
Ġ"/	18695
AU	18691
Ġnorm	18688
Ġfeeding	18688
ĠFund	18687
ĠFBI	18685
rious	18682
Ġheating	18677
diff	18675
cells	18674
eff	18670
kov	18667
iction	18657
Ġcorporation	18641
Ġ104	18640
}}}\	18639
.[]{	18638
Ġhide	18638
Ġchip	18638
Ġartery	18635
FILE	18619
Ġâī¥	18619
-------	18618
Ġpack	18618
nam	18617
Ġchart	18617
Ġhorse	18616
Ġfusion	18616
member	18615
753	18615
Ġvitamin	18615
Free	18611
ĠPS	18610
Ġsees	18609
Ġcolon	18608
Ġdestroyed	18606
Ġdestroy	18606
Ġspecify	18604
Ġmountain	18604
ĠTake	18604
Ġranging	18602
======	18601
Ġpadding	18601
Rect	18596
iant	18595
uous	18594
rag	18594
amide	18592
ĠLinux	18590
connection	18589
Ġautomatic	18589
Ġinstallation	18584
mate	18583
Ġgear	18582
Ġbonds	18580
Ġadopt	18580
ĠLy	18580
Ġimmigration	18579
Ġdefensive	18579
Ġinvalid	18572
ĠAdministration	18572
Ġassignment	18565
ĠCase	18563
typedef	18553
Ġdesirable	18551
ĠFollowing	18548
Ġdevelopers	18543
arrow	18542
utter	18533
Ġsmoke	18530
ude	18525
Ġeligible	18521
OX	18516
]{.	18512
ĠIndex	18512
ĠCS	18509
ĠDesign	18507
Ġ$-	18506
Ġerred	18499
Ġarmed	18492
erate	18488
Ġunusual	18487
Ġinsight	18485
Ġaltered	18483
Ġacceptable	18475
ĠNevertheless	18475
AH	18472
Only	18470
Ġeffectiveness	18470
Ġbreach	18467
FO	18465
ady	18463
Ta	18460
Ġearned	18459
Look	18458
ĠBeach	18455
ECT	18452
Ġpreliminary	18452
cn	18450
Three	18449
ĠâĢ¢	18441
Ġstruck	18440
ĠPatent	18439
apa	18435
Ġunclear	18434
Ġwake	18431
Ġconsistently	18431
čĊĉĉĉĉ	18428
Ġskill	18424
Ã©s	18422
ĠAp	18422
ground	18421
'(	18419
ĠRyan	18419
ĠTHIS	18418
Reg	18415
ĠPoint	18410
Menu	18405
Ġroof	18403
Ġoccurrence	18403
negative	18402
Ġph	18399
direct	18398
Ġsand	18398
Ġsessions	18395
TB	18394
Ġwound	18394
Ġvisited	18393
Ġmatrices	18393
ĠFour	18393
Ġvoting	18392
Interface	18387
Ġprecision	18386
ĠLtd	18386
multi	18384
stin	18382
Ġguidance	18378
night	18377
ety	18376
}}(\	18374
Activity	18368
adi	18367
scope	18366
CON	18363
fts	18361
Ġtract	18360
Ġatom	18360
ĠBan	18359
esh	18358
Ġfacilitate	18358
$]{}	18357
hit	18356
KEY	18355
ĠPython	18352
Ġnormalized	18348
>"	18347
Ġinline	18346
Ġoverlap	18343
Par	18340
Ġperceived	18339
Ġbin	18337
Ġpacket	18333
Ġtracking	18329
Ġmolecule	18327
Ġending	18327
\|_{	18325
Ġeverybody	18325
>>>	18323
Ġregistration	18322
component	18319
Ġawait	18319
946	18316
Ġtank	18316
Ġarrangement	18316
cht	18311
mr	18301
ĠOs	18297
ici	18296
yc	18294
Ġlights	18294
}.$$	18289
]}	18288
!)	18282
ppy	18279
Ġkm	18278
Ġangular	18276
utils	18275
350	18275
grade	18271
Ġneur	18269
Ġease	18268
126	18260
Num	18256
Ġshopping	18254
Ġ['	18251
ĠColorado	18251
Ġhadn	18250
BT	18247
tg	18241
Second	18239
Ġsteady	18235
Ġidentifying	18235
ĠBer	18235
Ġcomplexes	18232
Ġluck	18231
usion	18227
ĠWT	18225
Ġattractive	18224
sure	18222
Part	18222
Ġrarely	18222
oration	18220
Ġrandomly	18219
help	18217
Ġtreating	18215
Ġruled	18213
gene	18211
fp	18210
Comp	18209
Ġattended	18207
Ġbelong	18206
tk	18204
interface	18202
ĠIreland	18201
zing	18198
lev	18198
"));	18196
Ġpromising	18196
rte	18193
Down	18188
anna	18187
Ġinstitution	18187
tha	18185
Ġchildhood	18184
Ġlab	18182
""	18180
Ġshorter	18178
Ġpoliticians	18176
Ġdesigns	18176
--------------	18175
Ġtape	18174
212	18169
ĠSteve	18168
wave	18167
ĠMal	18167
erated	18166
Ġaging	18165
ĠUnfortunately	18162
ĠJews	18161
Ġultimate	18160
Ġ\#	18159
ires	18154
Ġexp	18153
ĠMaster	18153
Ġviolent	18152
ĠArizona	18152
Ġvital	18151
flags	18149
HP	18148
Ġintegrity	18148
pf	18144
Ġtransportation	18142
Ġflu	18140
Ġvo	18138
ĠAgreement	18137
release	18136
oj	18134
ĠPan	18133
Her	18127
away	18126
Ġtips	18126
gas	18125
Ġmacro	18123
omas	18122
Ġchemotherapy	18122
Ġpointer	18121
save	18119
Ġbunch	18117
anger	18116
ival	18115
pat	18114
Ġwashed	18111
Ġclause	18107
Ġpregnant	18103
Ġ600	18103
Ġdeeply	18100
ived	18098
Ġoxide	18097
Ġ+/-	18097
Ġlifetime	18096
Ġ180	18095
ention	18094
Ġultra	18094
Ġ$[	18091
Ġsentencing	18090
Ġcollective	18085
pic	18083
stage	18079
Ġconcepts	18075
Ġ--------------	18075
Ġhybrid	18073
}}_{\	18072
Te	18064
ĠJSON	18062
ĠFrank	18061
Ġharder	18056
ĠÑģ	18055
NK	18053
iest	18052
tb	18049
names	18049
KS	18049
ĠVe	18047
quality	18043
ĠStudy	18042
cases	18033
ille	18032
esis	18032
AIN	18031
Ġeverywhere	18030
hom	18024
ĠVal	18023
---------	18020
hol	18019
ĠUV	18015
Ġwet	18014
Ġresidues	18013
Ġforever	18012
ĠFamily	18007
Ġlabels	18005
oral	17999
ãĥ¼	17996
Ġamended	17996
ria	17995
Ġjson	17994
bind	17987
Ġallegedly	17984
yne	17975
Dialog	17975
}})	17962
Ġ=\	17962
AO	17957
Ġdisabled	17955
Ġpaint	17954
Ġbirds	17954
Body	17952
Expression	17951
Ġphases	17951
;\	17948
ĠMass	17945
Ġcons	17937
ĠCount	17937
Ġretain	17935
Ġ----	17934
hspace	17928
Ġfunny	17920
ento	17918
ature	17917
Ġ1983	17917
MF	17916
ĠCancer	17916
1996	17912
iler	17909
tten	17907
Put	17902
Ġnewspaper	17900
ĠBre	17898
Ġva	17897
NR	17892
Ġcomputing	17892
Ġcert	17890
Ġcampus	17890
awa	17882
Hello	17881
Background	17881
Ġfabric	17879
made	17873
Ġcollapse	17873
orn	17872
icular	17872
analysis	17871
vic	17869
Ġcurrency	17868
enta	17867
fields	17864
ocyte	17863
Ġdense	17861
ĠInclude	17860
lement	17855
Ġcrash	17853
Record	17852
Ġ('	17849
uh	17846
Ġmonthly	17846
MOESM	17844
ĠSeries	17842
ĠSeveral	17841
Ġdoors	17839
sex	17834
lson	17833
Ġutilized	17830
Ġrepeatedly	17828
Ġlegislative	17823
Ãł	17821
Ġperi	17814
ĠVol	17812
Ġflavor	17811
Ġpipe	17802
ĠAbout	17799
Ġenemy	17793
Run	17792
-------------	17790
ĠWood	17790
}}}_	17789
tone	17787
Ġwrites	17787
Ġaccompanied	17782
ello	17781
Ġmixing	17780
349	17778
Ġdiscover	17773
cen	17772
ishing	17771
tical	17769
pha	17768
Ġexhibited	17768
Ġbankruptcy	17768
dist	17764
ÑĤ	17761
BF	17756
rep	17755
Ġviolated	17751
Ġreporter	17749
Ġarranged	17748
Ġlying	17746
×	17744
Ġarch	17743
Ġpatch	17737
Ġjoy	17735
Ġsport	17734
1997	17733
202	17732
queue	17730
240	17726
sg	17725
Ġ109	17725
Ġpulmonary	17716
Ġvessel	17714
zone	17713
eni	17712
ĠFu	17711
ĠBob	17711
Ġenvironments	17709
Ġchecking	17709
Ġcoli	17708
Def	17705
Ġforest	17703
aud	17692
etc	17688
Ġsurveillance	17688
Ġfitting	17686
arily	17682
ĠHistory	17681
Ġbread	17679
025	17674
ĠForm	17672
Ġoccurring	17670
Ġmitochondrial	17668
ĠBitcoin	17661
ĠDaniel	17658
ben	17655
`.	17653
gin	17652
Ġreveals	17651
nda	17649
Ġlanguages	17644
Ġbra	17644
sort	17641
ĠSpain	17636
014	17635
ĠMiss	17635
Ġtopics	17632
Ġstudying	17632
Ġlift	17631
ships	17630
Ġdistinguish	17629
050	17628
Ġresist	17625
Ġpos	17621
Ġphilosophy	17621
.*]{}	17618
Ġscalar	17617
Ġvoted	17613
Ġreadily	17613
Ġpropose	17612
Ġtranscript	17611
118	17607
Ġdeclined	17605
ĠHE	17605
ĠRep	17603
ĠHam	17602
ifications	17598
Ġsal	17597
Ġrecovered	17596
-----------	17594
Ġperception	17591
ĠIns	17590
Ġadjust	17589
dk	17588
ÎĶ	17585
Ġsupporters	17582
Ġeq	17582
Ġrough	17580
GI	17578
Ġaut	17578
Ġ128	17577
qua	17573
HT	17573
aste	17571
ĠRA	17569
-,	17565
Ġ(@	17565
ĠTim	17561
Ġreversed	17558
ĠSen	17552
Ġpanels	17545
124	17544
tons	17541
Identifier	17539
Ġderivatives	17539
ĠKingdom	17538
Ġ1986	17537
uts	17533
ĠAgain	17532
ĠDue	17529
aking	17528
ĠVer	17524
draw	17515
ĠIslam	17514
Ġunlike	17513
Ġdefects	17513
Ġdoses	17511
WE	17508
Ġinterpreted	17508
Ġembedded	17508
Ġir	17506
145	17500
----------	17498
Ġtransactions	17498
users	17497
ĠRegister	17489
SQL	17488
ĊĊĠĠĠĠĠĠĠĠ	17488
({{\	17484
Ġtrauma	17484
nate	17483
Ġcorrelations	17481
SG	17479
Ġsouthern	17476
Ġmere	17472
enter	17471
Ġstellar	17469
Tool	17468
Ġ106	17465
temp	17464
ĠWal	17463
PB	17459
Ġputs	17459
dec	17454
rator	17453
Ġpad	17449
Ġtroops	17448
ĠEastern	17443
Ġliked	17442
random	17439
ĠMed	17439
Sort	17434
Ġhall	17431
Ġblow	17431
131	17430
Ġcholesterol	17428
verse	17426
999	17423
ĠMethods	17422
ĠLove	17422
bro	17421
Ġ<!--	17421
Collection	17419
ĠÂĹ	17418
gle	17412
+^	17410
ago	17406
*~*	17406
Ġwedding	17405
ĠMap	17405
Ġfibers	17403
Ġdiscrete	17403
border	17400
Case	17399
ĠBC	17398
ologically	17395
Ġduties	17394
Ġprinted	17393
instance	17389
-------+	17387
Ġtensor	17387
tho	17386
ova	17385
Ġjail	17385
Ġsystemic	17383
angle	17377
Ġ105	17374
uing	17373
nen	17372
Ġmat	17372
xf	17371
Ġprosecutor	17370
cycle	17360
rev	17358
[$	17357
Ġlabeled	17357
ĠLand	17357
ante	17356
bon	17354
Ġrating	17354
129	17353
Ġcooling	17349
rule	17348
ologists	17346
Ġexciting	17344
nj	17340
elt	17337
Ġauthorized	17336
Ġnorthern	17335
Ġtone	17330
Ġevident	17330
Ġdiffusion	17324
pol	17322
Ġactor	17317
pool	17315
Ġexpressing	17312
Ġplug	17310
Ġinfluenced	17305
Windows	17303
Ġillustrated	17302
mented	17300
144	17298
Ġ1987	17298
ĠWARRANTIES	17297
Ġassociations	17296
Ġdefeat	17295
fun	17292
.).	17292
013	17290
rna	17289
aha	17288
ĠChildren	17286
Ġcourses	17282
.:	17279
Ġgained	17275
resource	17273
category	17273
Ġprinting	17271
asm	17263
erable	17259
Ġisolation	17254
Ġraising	17249
Ġpending	17249
Ġphenotype	17248
1995	17247
ĠALL	17247
Ġpal	17246
ĠTri	17243
req	17241
delete	17241
133	17241
ences	17235
Ġattitude	17234
čĊĠĠ	17232
ÑĢ	17228
thi	17227
ĠHave	17226
pop	17225
Integer	17220
Ġloans	17216
hole	17213
Ġconnecting	17212
JS	17211
022	17210
Multi	17207
plugin	17206
ĠLog	17206
Ġvalidity	17204
Ġinspired	17204
Have	17199
rier	17194
Ġtension	17192
United	17185
ained	17184
vent	17181
Ġexcessive	17178
profile	17174
Ġgalaxy	17173
uid	17167
perp	17163
450	17162
rative	17157
forming	17156
Ġtens	17154
idx	17151
Ġhopes	17149
Ġsomebody	17145
Ġpitch	17144
bur	17140
igo	17139
Ġignored	17137
222	17134
ĠImages	17134
|-	17131
Ġinvariant	17129
uro	17128
Ġcontacts	17126
ĠPacific	17126
ĠMatt	17124
Ġpepper	17122
048	17121
Ġguest	17121
operative	17120
Equal	17120
Ġawesome	17120
ĠTown	17114
Ġtolerance	17109
Ġresonance	17109
cross	17108
cit	17107
Ġdefect	17107
ocytes	17105
because	17105
Var	17104
Ġpol	17104
Ġorbit	17104
_,	17103
136	17092
ĠThird	17091
Ġmagic	17090
Ġdenotes	17085
amb	17084
dg	17083
ĠPath	17083
Product	17082
ĠTax	17080
ITY	17077
human	17073
Ġ(%)	17073
lli	17070
imm	17069
Ġcardiovascular	17068
Ġ["	17067
(){	17062
Ġpreventing	17061
Ġshit	17060
Ġphosphorylation	17059
mil	17056
activity	17056
ĠWithout	17046
Ġequilibrium	17042
uit	17041
Operation	17039
ĠAgency	17036
tie	17034
Ġglad	17034
Ġtransmitted	17032
Ġhtml	17030
TG	17028
GB	17028
licenses	17027
Ġestimation	17026
Ġhum	17025
Ġliterally	17022
ĠZealand	17013
Reader	17009
à®	17006
arian	17004
ĠSw	17004
tia	17001
Ġstretch	16997
Ġprospective	16995
čĊčĊĠĠĠ	16990
Ġembodiment	16988
Ġeliminate	16988
Ġpounds	16987
forall	16984
craft	16982
Ġpur	16980
mask	16979
oses	16977
030	16977
Ġcombine	16977
Ġfactory	16976
ĠÂ¶	16975
dest	16972
stic	16970
inn	16967
iam	16964
eda	16963
Ġgenuine	16962
Ġswitching	16960
Ø±	16953
oplus	16951
aled	16950
Ġpublicly	16950
Ġgravity	16945
super	16944
ĠGi	16940
Ġgross	16939
expected	16938
Ġovernight	16936
Ġtonight	16935
DG	16931
cle	16928
lands	16927
Ġblank	16927
javascript	16921
Ġdysfunction	16920
being	16917
Ġelectricity	16916
Ġflour	16913
Ġregulated	16908
Ġworried	16907
sv	16904
ĠChi	16903
Ġphysically	16902
Ġobesity	16902
ĠStephen	16901
\{\	16900
tta	16899
Ġreg	16897
Lu	16892
Ġamendment	16892
)</	16891
ometer	16889
iar	16887
Ġ103	16887
Ġdifficulties	16885
Ġconstitution	16882
åı	16879
essing	16875
Ġdestruction	16873
Ġdelayed	16873
Ġboxes	16872
Ġspecificity	16871
Ġaggressive	16870
ĠAnderson	16868
Each	16866
aux	16864
Ġpace	16862
Ġdenial	16860
_>	16859
Ġassumptions	16857
ĠDid	16853
RV	16852
Ġepisodes	16850
ih	16847
Ġblame	16838
Ġsir	16835
rw	16833
Params	16832
Ġfounded	16829
Ġpoverty	16827
imi	16824
idi	16822
sper	16819
formed	16814
Ġpolar	16814
ĠConsequently	16812
rons	16808
bic	16808
Ġsearching	16807
rÃ©	16806
rone	16805
ctions	16805
Ġattributed	16803
overs	16800
dling	16800
dit	16797
URE	16791
ĠGames	16790
energy	16785
Ġcommunicate	16785
TING	16783
Param	16781
Ġhardly	16779
Ġwireless	16778
Show	16776
ĠHead	16775
Ġcoal	16770
Ġacknowledge	16768
Ġsynthetic	16767
degree	16764
Ġdisplays	16764
License	16755
ĠEC	16750
bles	16748
Ġinverse	16748
Ġblocked	16748
tage	16746
roll	16746
Ġcompatible	16744
Ġabortion	16742
Ġweird	16741
Ġarg	16739
ĠOct	16734
eron	16731
ĠIowa	16730
assertEquals	16726
ĠPhoto	16726
Ġhits	16724
ĠSI	16721
ĠFar	16718
ĠWITH	16716
edo	16713
Ġflags	16710
ght	16709
Ġretail	16709
;">	16708
ĠPerhaps	16707
Ġtradition	16704
Ġrevolution	16702
iously	16700
-$	16700
204	16699
wp	16698
Ġbeliefs	16695
ĠProfessor	16691
ĠWil	16689
Ġrescue	16685
Ð·	16683
512	16683
ologic	16679
ential	16677
bio	16677
grid	16675
ĠčĊ	16674
thr	16673
Ġoven	16671
++;	16668
Ġpermissions	16667
ctive	16665
Ġbet	16662
ution	16661
Star	16661
Ġadapt	16659
Ġpartnership	16655
take	16653
lable	16649
ĠSanta	16647
ign	16644
bble	16644
Ġenables	16644
Ġobtaining	16638
also	16635
Ġaffecting	16635
Ġvisits	16634
Ġ1985	16634
Abstract	16630
backs	16626
Ġdefend	16624
Ġgenerator	16622
Maybe	16620
plot	16619
worth	16618
Ġgotten	16613
Ġ{@	16609
rai	16605
Additional	16601
Ġ130	16599
acting	16597
Ġicon	16590
uy	16589
edit	16589
pit	16585
elled	16585
Ġins	16585
ONE	16583
Ġdifferently	16583
ĠBA	16583
terminal	16582
Values	16581
modules	16580
ĠDM	16574
rian	16573
$^{-	16573
good	16572
aches	16571
OI	16571
ĠSpecifically	16571
Ġweights	16566
caps	16565
Ġguns	16563
Ġdescribing	16563
oin	16562
ĠTra	16561
forms	16557
Ġbehaviors	16557
colon	16555
ICE	16555
Ġtill	16555
Ġreflects	16547
ĠMC	16544
python	16541
Ġfits	16538
enable	16536
Ġloud	16533
Items	16532
iac	16526
Ġfunctionality	16522
Ġdemocracy	16522
ĠCL	16522
Ġasks	16521
Ġconf	16518
Ġjet	16514
Ġbearing	16514
Ġfilling	16512
Ġdesignated	16511
tÃ©	16510
Ġbatch	16510
Ġpy	16509
Ġdeals	16508
Ġhydro	16507
Ġcommands	16506
cid	16503
ĠAdditional	16502
Ġcallback	16501
ĠChar	16500
ĠColumbia	16499
Ġunderwent	16493
Ġclinic	16492
ĠES	16490
Ġms	16487
Ġhu	16486
variant	16485
Ġjuice	16485
ĠMinistry	16485
Ġselective	16481
Ġpredictions	16480
Ġpolynomial	16479
Ã©e	16478
Ġtrends	16478
Ġinvestigations	16477
Ġagenda	16474
Ġequality	16472
'-	16471
ĠBase	16471
Ġinterviews	16469
erd	16459
party	16457
Ġshoes	16456
Ġmaximal	16455
Ġdoc	16455
Ġorange	16452
Ġprogressive	16443
ĠJordan	16443
ĠDA	16443
Ġemphasis	16439
ĠRather	16438
oul	16437
)}{\	16434
Today	16427
'>	16427
Ġbroadcast	16426
lts	16425
Ġtexture	16420
iga	16419
ĠArray	16416
four	16414
ĠJim	16414
Ġag	16413
213	16412
Ġbreaks	16411
Ġgu	16410
spo	16408
Ġprogramme	16405
ĠSta	16403
ĠFalse	16398
âĢ	16395
ĠBell	16395
ĠMethod	16394
Ġgen	16392
ĠSH	16392
ĠStill	16390
lad	16386
amm	16386
Ġpython	16386
Ġkick	16386
Ġsegments	16385
ĠNatural	16379
ACT	16373
Ġlistening	16373
mont	16372
ĠAward	16368
Ġmortgage	16361
Ġweekly	16360
Ġfitness	16357
ĠLow	16357
\;	16352
MAN	16352
Ġcombat	16351
Ap	16349
square	16347
kind	16346
Ġav	16346
lec	16341
1994	16337
Ġdetector	16336
Ġfarmers	16333
Ġpm	16332
ĠUpdate	16332
Ãª	16331
dol	16328
âĢ¯	16325
opa	16324
Ġconspiracy	16324
Ġxmlns	16321
tric	16317
ĠTitle	16314
rity	16312
Ġhypertension	16309
ipe	16308
Ġsilence	16308
Ġfocusing	16307
ĠMag	16304
sun	16299
Ġboundaries	16299
Ġinserted	16297
while	16296
Ġune	16293
ĠSupport	16293
obs	16290
berry	16290
Ġvariant	16289
Ġlit	16287
your	16285
Ġintellectual	16281
Handle	16276
Ġbid	16273
Ġattempting	16268
1993	16267
Ġhist	16267
\|\	16266
Ġtrivial	16266
ĠSciences	16261
chan	16256
---------------	16256
ĠEr	16250
atin	16247
Ġangry	16246
Ġvertices	16244
Ġphrase	16243
TED	16242
Grid	16237
condition	16236
das	16234
NV	16234
illi	16233
Ġcrack	16232
Ġfavorable	16230
Ġfranchise	16228
ĠFA	16228
Ġhom	16227
live	16226
derived	16226
efs	16224
Ġindices	16222
Ġconsciousness	16220
?)	16218
Ġcomputers	16218
.\[[@	16217
uma	16216
risk	16215
023	16215
Convert	16214
Cal	16213
Ġconfident	16211
Ġadapted	16207
040	16202
chain	16197
Ġ1984	16197
Ġrendered	16196
Ġregulate	16193
Ġintracellular	16192
burg	16191
Ġsauce	16189
Ġterrible	16188
Ġphysicians	16188
Ġvaried	16187
Ġapps	16186
Ġham	16176
HL	16175
ĠFord	16175
rence	16174
Ġexclusion	16173
Ġconvenient	16168
asa	16166
Ġchocolate	16163
Ġfatty	16162
$;	16161
alis	16159
Ġ125	16159
ately	16156
Ġinc	16155
Ġcombinations	16153
Ġaims	16153
Ġsk	16150
Ġdeeper	16150
ĠGreek	16150
ptic	16149
)_{	16148
Ġedition	16147
hel	16142
Ġreflection	16141
ĠBrazil	16141
Ġnu	16138
Ġsettled	16128
ĠGC	16125
eval	16124
Ġfragment	16124
ĠSpirit	16123
Ġfunded	16118
ĠCall	16118
Ġnegligence	16114
Child	16112
impl	16110
Ġdy	16108
../../../	16105
Ġ$.	16105
Ġrestaurants	16104
Ġintense	16102
Despite	16100
$).	16098
Ġpeaks	16094
Ġdates	16092
)}(	16091
ĠMod	16090
Ġsuspension	16089
Ni	16088
vor	16086
Ġmatched	16085
()->	16084
Ġlimiting	16084
Ġslight	16082
-{\	16081
password	16080
bat	16079
Ġretirement	16076
Ġdisclosure	16076
Callback	16072
ARD	16071
Ġ108	16071
Ġarc	16070
Ġquantities	16065
Ġepithelial	16065
Ġmagazine	16060
âĢ²-	16059
Ġprejudice	16059
Ġrail	16057
ensive	16054
uls	16051
Process	16050
Ag	16050
155	16049
Ġsucceed	16040
Ġtransparent	16038
Ġconsensus	16028
owed	16026
tran	16025
ĠCPU	16025
Ġ***	16022
ĠPO	16021
simeq	16019
Chapter	16018
Ġscoring	16018
LOG	16016
Widget	16011
Ġbreakfast	16011
nutrients	16002
Us	15998
rank	15997
Ġchoosing	15997
Ġvulnerable	15995
nil	15991
Ġfingers	15987
people	15985
Bytes	15984
Ġscaling	15981
Ġsatisfying	15980
Global	15979
Ġlawsuit	15979
Å	15977
ĠMicro	15975
Ġmanually	15974
phenyl	15969
ĠRound	15969
Ġpreferably	15967
ĠFI	15967
Ġdamaged	15965
ĠAccess	15964
itive	15962
CODE	15962
143	15962
mental	15960
Ġdollar	15960
Ġburn	15960
_{-	15951
spi	15949
Ġink	15946
seq	15945
Ġinterpret	15943
Ġstrictly	15942
actor	15940
Ġrepresentations	15939
Ġlikes	15937
TEST	15935
Ġdans	15930
Ġphysiological	15927
pg	15926
Ġholiday	15926
WS	15923
ĠWE	15921
ĠCoast	15921
isc	15918
ckle	15917
Ġlateral	15917
ĠHD	15916
auth	15913
NF	15913
Ġsupplies	15910
Ġdeveloper	15910
ĠBook	15910
Ġquote	15907
Ġlegitimate	15903
ĠCommonwealth	15903
Ġwondering	15902
margin	15896
goto	15896
LB	15896
Ġ+\	15896
Init	15893
ĠHA	15893
bibr	15890
thread	15889
Ġresidual	15888
fish	15887
1990	15886
pies	15884
REG	15883
ĠPBS	15883
320	15882
tern	15881
165	15881
Ġshots	15880
register	15878
Ġisolates	15874
yd	15873
cke	15871
Ġbounds	15870
âĢĻ.	15869
gc	15868
ĠLittle	15867
tv	15865
vt	15863
sized	15863
211	15861
Bl	15860
ĠSir	15857
chy	15853
admin	15852
oir	15851
ĠPlace	15850
items	15849
ĠGl	15848
works	15842
Ġpushing	15842
Ġ\|	15840
oco	15838
Panel	15837
Ġgra	15836
ury	15834
Ġì	15833
Ġcry	15829
Ġvisitors	15828
Ġentities	15825
Ġions	15824
ĠRun	15823
regulated	15822
Ġ"#	15821
cio	15817
train	15815
Ġassistant	15814
Ġreputation	15812
ĠTen	15810
ĠParliament	15809
Ġobjection	15803
ĠMinnesota	15803
,[	15802
Ġviruses	15797
icing	15795
println	15794
.",	15793
Ġbills	15792
Ġpeer	15791
Ġlogical	15791
Ġhip	15791
uation	15787
Ø	15785
Ġtied	15783
NULL	15777
*\	15777
Ġdeposition	15777
Ġprote	15771
Ġ"<	15771
ĠAdam	15766
uce	15761
apt	15761
ĠSoviet	15761
selected	15757
rn	15757
Â³	15751
141	15751
doi	15747
wiki	15746
uity	15746
ached	15746
Ġloose	15744
ĠBible	15739
Ġparse	15738
ĠSte	15731
USE	15730
Ġbench	15728
ĠĊĠĠĠĠĠ	15726
ige	15725
cot	15725
Names	15724
ĠHim	15724
bled	15720
Ġgrass	15720
ĠProperty	15719
Ġemerging	15716
Ġnucleus	15714
ĠPen	15714
ãĤĴ	15712
Ġreferring	15711
ERT	15710
Ġposterior	15710
Ġequipped	15710
uth	15708
Helper	15706
ĠHTTP	15698
ĠTurkey	15697
134	15694
Ġinquiry	15694
ĠGaussian	15691
Ġjournal	15690
widget	15689
Photo	15684
Schema	15680
Cu	15679
erly	15678
rand	15677
Ġpocket	15677
ASSERT	15675
018	15675
Ġcertificate	15675
,_	15673
ĠAssembly	15672
)\,	15671
ĠArticle	15669
imo	15668
################	15668
Ġcavity	15666
nst	15665
ĠFair	15665
ĠPHP	15663
Ġdeficiency	15661
Discussion	15651
ĠCambridge	15651
Ġterritory	15650
Ġsensors	15650
Ġxe	15648
Ġtoxicity	15647
GM	15646
asc	15645
structure	15641
Ġdeny	15640
Ġund	15638
Ġplatforms	15637
Ġoxidative	15635
~*	15633
Round	15631
Enabled	15630
Ġinvited	15629
watch	15627
rance	15626
Ġarrive	15626
Ġvessels	15623
Ġstomach	15623
017	15622
fall	15620
Ġbirths	15620
lings	15618
Ġpromised	15618
once	15617
Json	15616
DU	15615
Ġchains	15615
Ġdish	15609
Ġframes	15606
ĠMad	15606
views	15605
)^{\	15605
Ġextending	15605
<<	15604
Ġmuscles	15604
Ġsaving	15602
Ġdefining	15602
hd	15601
ĠOff	15599
Ġhealing	15596
wed	15595
Ġodds	15595
ulin	15594
Ġpipeline	15592
Ġparticipated	15590
Ġmodeling	15589
Ġnurse	15588
Ġagreements	15588
ĠLewis	15588
dz	15587
custom	15587
Ġpreserve	15581
Ġhighlight	15581
ologies	15580
ĠUnless	15579
roid	15578
Ġcontest	15578
Ġdance	15577
Ġrent	15574
Ġobligation	15574
Ġstrategic	15572
astic	15571
ĠRadio	15570
Ġhetero	15569
ĠCook	15568
Ġsta	15563
Ġbaseball	15563
ĠHamiltonian	15562
}}^{\	15559
inch	15557
Adapter	15557
ĠYeah	15557
ĠNF	15555
eum	15553
agon	15550
))/(	15550
Ġinjected	15548
CY	15546
Ġtired	15545
Ġaccurately	15543
linux	15541
ĠMajor	15541
Ġtech	15540
cout	15538
sas	15534
record	15533
Ġbehavioral	15533
Return	15531
Ġ|\	15531
Ġencounter	15531
ĠStr	15531
General	15529
til	15528
~\	15527
Ġnobody	15525
dus	15523
Ġ140	15523
Ġsuspected	15521
ĠLC	15516
Ġinflation	15515
ãģ«	15514
ãģĦ	15513
Ġsha	15513
pus	15512
Ġestablishment	15512
Ġimpressive	15511
ĠIndiana	15509
ugh	15507
Ġvol	15506
FONT	15505
Ġregarded	15503
CONFIG	15502
Ġgrateful	15501
Ġpublish	15500
Ġnavigation	15500
Ġcortex	15496
kit	15492
ĠDefense	15492
Ġexpense	15491
âĸ	15490
ĠAfghanistan	15490
bas	15488
Â§	15485
Custom	15485
Ġlease	15483
Ġdeemed	15481
Ġplugin	15479
Ġsuspended	15473
ĠAndrew	15472
Ti	15470
role	15469
Mon	15469
216	15469
203	15467
dos	15466
mond	15459
Option	15456
ĠToronto	15455
rou	15454
Ġresistant	15454
endo	15453
Ġtalent	15453
Ġresident	15452
Ġstayed	15451
Take	15448
ĠPL	15445
Ġreliability	15444
Ġml	15444
esi	15443
century	15442
ĠKorean	15437
pine	15434
Ġarising	15434
Ġpromoting	15433
Ġcoll	15432
keys	15431
~)	15429
ĠBridge	15424
plus	15422
omi	15420
omy	15419
[*	15418
Ġindication	15417
exec	15416
Ġcomparisons	15416
Ġelectrons	15415
odi	15413
175	15410
Ġassign	15410
Ġmicroscopy	15408
ĠGal	15407
Ġgenomic	15406
ĠFather	15403
Ġendothelial	15401
Ġelderly	15400
)^{-	15399
pending	15396
Changed	15396
Ġadjustment	15395
ĠNu	15394
yst	15391
Ġmanifest	15388
ĠLibrary	15385
Ġartificial	15382
_(	15381
NER	15379
hai	15378
NY	15377
mM	15376
Ġenergies	15375
666	15370
Ġpersonality	15370
bx	15365
emi	15364
Root	15364
ĠDaily	15364
Ġdemonstrates	15363
Mc	15362
Ġlifestyle	15357
Ġbranches	15356
rap	15354
Four	15350
iq	15349
PN	15347
Î¼	15342
KA	15342
Ġspots	15341
Ġarrival	15340
through	15337
Ġexisted	15337
Ġdistances	15333
Ġthreats	15331
Ġparagraph	15331
Ġinputs	15328
omics	15325
Ġdefinitions	15325
Ġsuppression	15322
Ġengagement	15320
ĠHouston	15319
Ġstrip	15316
bigg	15313
Ġinhibited	15311
plan	15310
Ġvariability	15305
lish	15303
Host	15303
Null	15302
147	15302
Font	15301
Ġpointing	15300
225	15298
Ġvisiting	15298
230	15297
require	15296
Ġdocumented	15295
Ġ1981	15292
ression	15290
Ġmeaningful	15286
ĠSystems	15286
Has	15283
ĠCas	15283
Ġgovernor	15282
Active	15276
Ġtends	15274
Ġhoney	15272
$_{	15271
nings	15267
Ġranges	15265
Ġsatisfaction	15262
dio	15261
Ġhandler	15261
Ġwarranty	15259
*=	15257
Ġ---------------	15256
Ġlibraries	15255
ault	15254
eria	15248
1992	15248
Ġreply	15248
iri	15243
Ġtall	15243
ĠEs	15243
Ġminority	15240
ĠQueen	15239
otype	15238
yard	15233
ĠBR	15232
Ġclosure	15231
say	15227
Ġpunishment	15227
Ġfinance	15227
RK	15226
Ð¹	15223
Gs	15222
Ġconfusion	15222
itr	15218
Ġcomplaints	15216
Ġ&=&	15216
Ġyeast	15215
Ġcapabilities	15215
Ġheaded	15214
Ġuni	15213
tim	15211
iller	15210
Ġgray	15207
cip	15206
Ġnose	15205
bor	15202
norm	15201
Ġdecimal	15199
sign	15197
Ġje	15196
ĠPort	15196
move	15194
Ġnitrogen	15194
Ġuptake	15190
rov	15188
'],	15181
138	15180
DX	15177
ĠMoore	15176
MEM	15175
Ġthirty	15175
Ġalongside	15174
177	15173
UM	15171
ART	15171
uel	15169
ĠSaudi	15168
dw	15166
kk	15165
0000000000000000	15162
OG	15157
Ġemerged	15155
court	15150
wt	15149
tail	15149
ĠmL	15149
Ġsurprising	15146
Ġdenying	15145
Ġsuggestions	15142
Ġoccasion	15136
Ġfake	15136
enc	15135
Ġbla	15133
1991	15129
aran	15128
153	15128
onia	15127
221	15122
ĠEgypt	15122
World	15118
0010	15118
ĠSon	15117
ĠInterestingly	15114
hold	15113
2020	15112
Ġpassion	15112
topic	15106
./	15105
ĠNode	15105
Ġparticipant	15102
ska	15101
Ġgran	15099
Ġdental	15097
ĠDar	15097
$^{	15095
Ġ111	15092
Load	15090
Ġfaculty	15090
rak	15089
Ġ1960	15089
lating	15085
Ġ''	15084
Ġpreparing	15079
ĠPlay	15079
Ġcompete	15078
lz	15077
shell	15071
*\<	15069
ĠHz	15069
ilo	15068
found	15068
Ġinduces	15067
hil	15054
Ġsilicon	15054
spin	15047
mation	15046
152	15046
Ġlandscape	15043
Ġwinner	15042
Ġtransformed	15038
bol	15037
yu	15036
eding	15036
eqn	15034
Ġcollaboration	15032
force	15031
VR	15030
Ġheading	15029
switch	15028
gia	15025
Ġvirtually	15024
)\\	15022
iana	15020
Ġbasketball	15020
Ġhosts	15019
gor	15018
Ġtrail	15013
Jo	15012
ĠTA	15010
162	15009
ĠSports	15008
Ġbases	15005
Ġpotent	15004
ĠRoman	15003
orb	14998
asi	14996
ĠNations	14996
imal	14995
btn	14990
ĠNC	14990
Properties	14989
*(-	14987
sten	14986
Ġtransient	14985
gles	14978
Ġhy	14978
Ġwelfare	14977
Ġsyn	14977
Ġclaiming	14977
Pos	14976
ĠSk	14975
ĠMAP	14975
Ġ'\	14975
}:	14974
bg	14970
Ġticket	14968
Ġasset	14966
cine	14961
east	14960
Ġconstraint	14957
Ġ160	14956
Ġreceives	14955
Ġpossess	14955
ĠBra	14954
Based	14953
Ġblocking	14953
Ġrespondents	14949
Ġuna	14947
ĠBal	14946
Ġcoronary	14945
;"	14942
ws	14940
},$$	14939
Ġprobable	14939
opy	14930
Ġlocked	14930
Ġfrozen	14929
Ġlongitudinal	14926
fast	14925
dman	14917
stable	14916
Ġslide	14914
complete	14912
DN	14908
sided	14907
{%	14906
mov	14900
190	14899
Ġbleeding	14898
tn	14891
Ġwage	14891
Ġrecurrence	14890
Ġchances	14889
Ġaffirmed	14889
uen	14888
ĠShould	14884
Ġprotocols	14882
Ġoptimization	14875
Ġ112	14875
shire	14871
bits	14870
Â¤	14869
Ġhistoric	14869
poly	14864
Ġconstants	14862
ĠSilver	14862
TK	14861
Ġfiscal	14861
Ġdecomposition	14861
Ġev	14860
models	14859
Ġcas	14859
ĠHO	14856
Port	14854
ĠHor	14854
west	14851
ĠÎĶ	14851
ĠCommissioner	14851
rene	14850
ifdef	14847
Ġwavelength	14847
Ġsubgroup	14844
Ġcultured	14843
142	14842
Ġnonlinear	14842
osomes	14838
gos	14837
Report	14836
Delete	14836
yed	14835
SY	14834
Ġshortly	14834
Ġbrush	14834
alle	14833
Ġparams	14832
settings	14830
Ġpleasure	14827
Ġanger	14826
Ġappreciated	14824
Ð¿	14823
Ġcircular	14822
Ġsudden	14820
Ġdetermines	14819
Ġtimely	14817
oil	14815
lessly	14814
unc	14813
commit	14813
ÃĲÂµ	14812
Ġdonor	14811
ĠPor	14809
Ġ255	14809
Ġjustify	14806
Ġdistinction	14806
137	14803
ĠGA	14801
Full	14800
Ġgrain	14799
Ġdistress	14799
Ġsolved	14797
Ġappointment	14795
à¬	14793
ndr	14791
ĠÂ»	14787
cade	14785
UE	14783
Ġalt	14783
ERR	14782
Definition	14780
Ġmembership	14779
ĠSky	14779
ogram	14778
Ls	14776
Ġext	14776
Ġ02	14776
Ġcookies	14769
750	14768
cv	14767
Ġefficiently	14767
gathered	14764
Ġmutants	14764
Both	14761
Ġlocalization	14761
wo	14759
]=	14758
Ġcriticism	14757
lent	14756
Ġthrown	14756
Ġpursue	14756
Ġsecured	14755
206	14752
Ġum	14749
Ñı	14747
ACK	14747
ĠTHAT	14747
Ġcli	14745
omes	14739
hbar	14739
GFP	14737
Ġtags	14737
sq	14735
139	14734
ĠHarris	14734
}})$	14732
Ġpostoperative	14732
Ġthreatened	14730
Ġboot	14730
Ġreward	14729
ĠGene	14726
Ñĩ	14723
nies	14722
vascular	14721
Ġheaven	14721
ĠĠĠĠĠĠĠĠĠÂł	14721
Ġcustody	14720
Ġmemories	14719
factor	14717
Ġnp	14715
cess	14709
-.	14708
Ġstimulus	14708
Graph	14702
Ġsilent	14700
olds	14697
ITE	14697
Ġstriking	14696
Ġreplication	14695
Ä±	14693
Ġoptional	14688
Ġearn	14688
News	14686
schema	14683
Ġsuppress	14681
Ġabnormal	14681
Ġanybody	14680
360	14679
gm	14677
Every	14675
Ġcancers	14672
escent	14668
ĠIFN	14664
ĠInsurance	14661
Ġcircuits	14660
Ġinstruments	14659
bytes	14657
anne	14656
ĠConsider	14656
eV	14653
Ġflying	14652
Ġfantastic	14650
nea	14647
ĠHR	14646
Ġmath	14641
standing	14639
pn	14636
arms	14636
âĢĿ)	14635
Thus	14635
156	14632
Ġbat	14628
Ġ1982	14628
nary	14626
Pointer	14626
Ġliable	14626
Ġfactual	14626
Ġmature	14624
Ġchallenged	14622
Ġlitigation	14620
ĠSpring	14620
}}=	14617
ifi	14616
Ġtraits	14616
%%	14614
Cor	14610
Ġram	14607
Ġtries	14606
âĢĶâĢĶ	14605
cou	14603
VERSION	14603
Ġconserved	14603
ĠFort	14603
ffs	14602
ATE	14602
Ġeveryday	14598
Ġtracks	14597
Ġhero	14597
}'	14596
ĠMel	14595
Ġxml	14594
Parameters	14592
ĠHoly	14592
Au	14588
sci	14587
aris	14587
ĠMarket	14586
engine	14584
Res	14582
Ġacted	14582
Ġ![	14579
Mod	14577
Ġinches	14577
ĠXML	14577
ports	14576
Ġcalm	14573
Ġconvergence	14572
ĠChristians	14570
Ġbelongs	14568
Ġ800	14568
Ġdried	14567
three	14565
Ġvegetables	14565
Ġmathematical	14565
Ġqueue	14564
dable	14562
ĠIgG	14561
ÃĲÂµÃĲ	14560
attribute	14560
standard	14559
Ġtra	14557
ĠTNF	14557
ĠĠĠĊ	14555
mir	14554
Async	14554
Ġstained	14554
Ġgod	14552
Eq	14550
gre	14549
Api	14549
Ġ107	14547
genes	14546
Ġretro	14544
181	14543
ĠWisconsin	14541
Ġhang	14540
lop	14539
ÃĦ	14538
Ġmic	14538
Ġsatellite	14537
ĠAI	14535
report	14533
Ġresidential	14533
171	14531
Ġexc	14531
Ġmining	14530
Public	14529
edic	14527
Ġreact	14526
Media	14524
Ġmile	14517
ĠStat	14517
mine	14516
Ġmsg	14516
Import	14515
YS	14512
inflammatory	14511
Ġgraphs	14510
ĉĉĉĉĉĉ	14510
Ġfilters	14506
ĠÎ¼g	14504
Ġexclusively	14504
shaped	14502
Ġasthma	14502
Ġseats	14500
ĠSS	14499
Ġflows	14498
zip	14496
Ġgradually	14496
sley	14493
sym	14491
MG	14490
Ġbedroom	14490
rob	14489
Ġprevented	14488
GP	14484
Ġwins	14484
mission	14482
ĠâĤ¬	14482
hman	14480
Ġsubstitute	14479
148	14475
Ġsentenced	14475
Ġperiodic	14474
Ġ",	14473
Ġimpairment	14472
ĠTur	14471
ĠReturns	14467
Ġflowers	14463
EK	14462
ĠDocument	14457
Ġwidespread	14456
Ġestablishing	14455
Ġsimilarity	14454
Ġbath	14454
Ġrespondent	14453
Ġgeneralized	14453
Ġlady	14449
Ġnucle	14446
wall	14445
Flags	14444
ĠÐ²	14444
Ġactors	14444
Author	14442
Ġmothers	14442
VD	14441
Ġmaternal	14441
ĠTH	14441
ĠArab	14439
Display	14436
filename	14433
Ġpig	14433
Ġcorn	14433
Ġstating	14432
Ġnotation	14429
Ñģ	14426
arma	14426
oop	14423
Ġmotivation	14423
figure	14419
Ġspec	14418
Ġindependence	14417
gling	14415
ĠLie	14415
-->	14412
LV	14411
Ġminds	14408
inity	14404
Ser	14404
Ġknife	14404
Ġreplied	14401
Ġconfused	14401
Ġdescending	14398
hydroxy	14397
Ġjoining	14397
Ġbarely	14389
may	14387
Ġ).	14385
ĠKelly	14378
hem	14377
mut	14372
Ġseeks	14371
Ġgut	14370
rina	14367
Ġsymbols	14366
}$)	14364
RED	14363
Ġanterior	14362
Ãº	14361
Ġpolarization	14361
Ġscenes	14359
Ġmethylation	14359
Ġmotions	14358
888	14357
ĠSometimes	14357
Editor	14356
Float	14355
Ġcord	14355
Ġwash	14354
)+\	14352
Ġcomputation	14350
Ġguests	14348
iance	14346
185	14344
Ġviewing	14344
Ġpreference	14344
ĠdÃ©	14344
\)	14342
Ġsalary	14342
Ġocean	14338
146	14337
Ġrealistic	14337
video	14335
pgen	14335
eous	14335
Ġquestionnaire	14335
Ġprocessor	14328
tat	14326
Ġcompression	14323
ĠGR	14323
Space	14318
051	14318
Ġenhancement	14318
Ġcapability	14317
enberg	14314
ĠKansas	14314
rays	14313
Share	14313
Parent	14311
Ġ115	14310
Ġincredible	14309
XF	14308
"};	14308
Du	14306
Ġprescribed	14306
ĠFeb	14306
speed	14304
016	14299
ĠScale	14298
ĠHy	14298
Day	14297
Ġairport	14297
iology	14296
IES	14296
jar	14295
Ġemploy	14295
ĠRay	14294
Video	14293
Ġartist	14290
wait	14288
ibe	14288
dro	14287
ARE	14287
Ġrestore	14285
|{\	14283
design	14283
Ġstorm	14277
Ġrape	14276
Ġmood	14274
Ġdating	14273
Ġdys	14271
ĠKen	14271
Ġunfair	14270
Obj	14267
Ġmanaging	14267
Ġattorneys	14266
ĠHas	14265
Ġfold	14263
erc	14262
Ġgather	14262
Ġacceptance	14262
Close	14261
Ġcontroversial	14261
PATH	14260
019	14258
Ġ}}	14258
ÂłÂł	14256
Ġsec	14255
Ġbriefly	14251
bie	14249
Ġhat	14249
à¥į	14245
Mark	14245
Super	14243
chr	14235
ĠTer	14235
Ġfla	14234
151	14233
esa	14231
ĠStart	14230
ĠException	14230
Ġroads	14228
azole	14226
Ġatomic	14226
pho	14225
Ġattachment	14225
itic	14222
Ġcocaine	14221
arin	14219
Ġindictment	14218
ĠMassachusetts	14218
:</	14214
157	14214
Ġacknowledged	14213
urb	14212
Ġviolations	14211
Ġemissions	14205
olic	14202
ĊĊĠĠĠĠĠĠĠĠĠ	14202
_+	14200
NU	14200
Ġpeptides	14197
Life	14193
Ġdramatic	14190
Ġfavour	14188
Ġpartly	14187
215	14185
eers	14184
cis	14183
Ġsurely	14181
mass	14180
Ġcontention	14178
teen	14176
[:	14173
toString	14172
Ġreject	14172
ĠNature	14171
Ġoffices	14170
Ġethnic	14170
Ġdietary	14167
MAP	14166
Ã§	14164
Channel	14164
Ð²	14161
Ġacquire	14160
share	14159
PK	14159
HF	14158
037	14158
Ġprotecting	14158
ĠĠĠĠĠĠĠĠĠĠĠĊĊĠ	14155
ĠRob	14154
Ġletting	14153
aden	14150
Ġparticipating	14150
ĠMuseum	14149
ĠCG	14149
Red	14148
ĠAB	14148
Ġrandomized	14147
Ġsavings	14144
Ġresin	14143
Ġbird	14142
\!\	14141
Ġinvestigating	14141
aton	14134
Ġintersection	14134
{$	14133
Ġprovince	14132
&#	14129
Ġfelony	14129
090	14128
Ġshadow	14128
Ġsigning	14123
Ġracial	14117
Ġunnecessary	14116
ĠCNN	14114
PORT	14113
MY	14110
cmp	14109
LOW	14109
161	14109
),$$	14097
tax	14096
plane	14093
Ġgolf	14091
Ġmediated	14090
History	14087
![](	14081
Util	14077
Ġrepresentatives	14077
Ġ{"	14074
Ġresort	14072
Ġio	14070
Ġcho	14069
otes	14067
lap	14067
Ġconservation	14059
ĠStation	14058
Ġproportional	14057
Rule	14052
trial	14050
nic	14049
Ġmodifications	14045
Ġintrinsic	14045
Ġloves	14044
Ġadvised	14044
cul	14038
Bundle	14037
mons	14036
044	14033
Ġoutstanding	14031
Icon	14030
ista	14025
ache	14025
âĢĻ,	14024
176	14023
ĠĊĠĠĠĠ	14023
Ġmembranes	14013
)-\	14012
Ġremarkable	14012
Ġplots	14010
ĠPrior	14010
Ġlovely	14009
POST	14007
UG	14006
Ext	14004
calc	14003
ĠAllen	14003
033	14001
ĠKevin	14000
ready	13999
1986	13999
ĠNation	13998
ĠScotland	13995
clean	13994
Ġcoating	13987
DV	13986
Ġwarned	13985
Ġreset	13984
è¯	13983
Ġsentences	13983
ĠSy	13983
Ġpurified	13982
amino	13979
MIN	13979
gio	13977
cong	13977
Ġtherein	13974
Ġemotions	13972
Ġconfigured	13972
viruses	13970
dled	13968
Ġelectrodes	13967
ĠCHECK	13967
VS	13965
Scroll	13965
Ġimpaired	13964
Ġcooperation	13961
ĠFunction	13957
[(	13956
Ġrelate	13956
Ġinfant	13956
abstract	13955
-)	13953
Ġinhibit	13953
Ġlucky	13947
hist	13945
ĠAssert	13945
ĠCF	13944
kie	13943
bury	13943
rized	13942
ĠRose	13942
blog	13941
Ġwing	13940
Ġnursing	13940
Ġlu	13940
Ġconstructor	13938
Ġactively	13938
Ġflo	13937
ĠIrish	13937
yg	13936
uli	13933
Ġsake	13933
Ġdrove	13933
ĠDI	13930
167	13926
pend	13921
Ġmoon	13918
Ġ119	13912
iden	13910
Ġcopper	13907
anic	13906
FU	13906
ĠPlus	13905
Ġinf	13898
prefix	13897
ĠBro	13897
ssa	13896
Ġaccomplished	13894
Ġ^{	13894
Ġmess	13893
ĠAvenue	13893
Ġshipping	13892
Ġlaugh	13890
âĢ¦.	13883
Texture	13879
159	13878
!!!	13877
ĠUkraine	13877
omb	13876
ĠFisher	13875
alloc	13874
lyn	13873
Ġoc	13871
Ġlam	13870
Writer	13869
)->	13868
Ġencouraged	13865
hex	13864
>;	13864
lists	13862
gli	13862
Example	13862
nop	13861
Ġpixels	13861
Ġintestinal	13858
Ġdiscloses	13858
Ġshield	13854
got	13851
tig	13850
eder	13849
ĠHol	13848
Ġinitiated	13847
Ġwider	13846
rar	13845
far	13843
Ġinfants	13843
olog	13842
Ġrelies	13840
Ġmutual	13840
Ġcancel	13838
disp	13837
Ġdisaster	13835
Ġarrow	13835
BASE	13834
Ġrobot	13834
Ġproxy	13834
plain	13831
Ġprivilege	13830
ĠDel	13826
ÃĲÂµÃĳ	13824
driver	13823
Ġbre	13823
Ġradial	13816
mapsto	13815
hea	13811
Ġspi	13811
Ġrap	13811
Ġcircles	13810
Ġsecretary	13809
à¤¾	13808
Ġpositively	13808
tery	13807
HER	13807
Ġgenerations	13807
ables	13804
ĠSix	13801
phy	13800
etti	13800
Ġboss	13800
Ġdiff	13799
noun	13796
rable	13792
stro	13789
Ġfunctioning	13789
Fl	13787
Ġexplored	13786
Ġbur	13786
displaystyle	13781
Ġstat	13781
Ġstops	13776
five	13775
ĠGOP	13775
hee	13774
Ġdominated	13774
^{+	13773
174	13770
Ġendo	13770
ĠFuture	13767
Ġrings	13766
Ġaccomplish	13764
Ġscratch	13763
Common	13761
ĠSort	13761
Ġimportantly	13760
Ġwise	13759
ĠDown	13759
ĠKr	13757
xon	13756
Ġimpose	13754
library	13752
Ġcrossing	13752
Ġep	13748
metadata	13747
ĠBrian	13746
pmatrix	13744
ĠBMI	13744
Ġmock	13743
expression	13740
pb	13739
æĺ¯	13738
Ġpermits	13738
ĠChild	13737
cum	13733
Ã¡Âº	13732
hp	13732
tate	13731
AGE	13729
154	13727
Ġbathroom	13727
LICENSE	13726
Ġax	13726
ĠCro	13721
Ġattacked	13715
yon	13713
,,	13712
Ġreasoning	13710
Ġbrothers	13710
Ġfirms	13709
Ġthermo	13706
Queue	13705
Ġcorruption	13702
ĠResponse	13701
rators	13700
Ġcontinuously	13700
Em	13699
KI	13698
hill	13695
Ġupcoming	13689
jan	13688
Microsoft	13686
Fr	13685
ĠAug	13684
agg	13682
Ġdownstream	13677
Ġconflicts	13677
ĠMaryland	13676
052	13674
)*-	13673
erating	13672
mx	13671
ĠKong	13669
vir	13668
Ġquoted	13668
Ġannouncement	13666
atable	13663
="../../	13663
piece	13662
Ġconvinced	13661
lion	13660
Gu	13657
Ġprofits	13657
Evaluate	13649
ĠGovernor	13649
ĠLabor	13647
priv	13644
Ġexpertise	13643
ĠTy	13643
WI	13641
264	13640
Given	13638
Game	13638
Enum	13638
pas	13636
eis	13636
XML	13633
INFO	13632
half	13631
Win	13631
sse	13626
INS	13626
Ġinvest	13625
ĊĉĠ	13624
076	13623
Ġcomputational	13623
Ġretained	13619
Ġdatasets	13617
ĠNavy	13614
ĠGrant	13613
Ġwebsites	13611
223	13609
Ġfluctuations	13609
LES	13605
Ġproposition	13605
\+	13603
Ġgains	13603
205	13602
nut	13601
HTML	13598
IAL	13596
Ġscanning	13594
Ġgraduate	13594
Ġbags	13594
Ġrelied	13590
FIG	13589
Ġcanonical	13588
Ġfeatured	13586
ĠFC	13584
ĠTex	13582
312	13581
Ġethanol	13579
ĠSanders	13577
Ġediting	13574
209	13572
ĠCy	13572
TCH	13571
ĠNothing	13569
Ġguaranteed	13568
ĠJeff	13567
ĠVI	13566
>::	13565
Ġ1979	13565
179	13562
Methods	13559
ĠCore	13559
Doc	13558
lite	13555
Ġcausal	13555
variable	13554
ĠWeek	13553
xin	13551
Ġoh	13548
results	13547
Ġcontemporary	13547
Ġcomply	13545
eric	13543
account	13543
625	13543
general	13539
Ġgathered	13538
ĠUnit	13538
Release	13537
rell	13536
inline	13534
Ġdrama	13534
Ġju	13532
Ġconsistency	13532
ĠOregon	13532
Ġindicator	13531
Ġdeposit	13530
Ġstimuli	13529
tee	13528
usa	13527
Ġflex	13521
Ġchromosome	13521
scan	13516
Ġincubation	13515
Ġtobacco	13514
ĠCE	13513
oly	13511
FX	13511
olar	13508
ĠBBC	13508
Ð³	13507
031	13506
tem	13503
Ġentrance	13502
Screen	13500
limit	13499
transform	13498
Direct	13498
)~	13497
ä¸	13495
Ġaffinity	13494
served	13490
DY	13490
667	13487
Ġ123	13486
184	13485
ĠClinical	13484
linked	13483
Ġinstitutional	13483
Ġexceed	13483
olin	13482
Ġwriters	13482
plo	13479
Ġdimensional	13478
ĠLatin	13478
dles	13477
Ġtie	13472
yy	13471
Ġfiring	13471
ĠRO	13471
Ġstudio	13470
Ġmacrophages	13470
cles	13469
Ġreaches	13468
ibly	13467
Ġought	13467
420	13466
ĠHaving	13465
024	13464
Ġtooth	13462
Ġmanifold	13461
Db	13460
Ġinnocent	13460
ĠKIND	13458
Ġaccounting	13455
Ġexpectation	13453
ĠSN	13453
ĠClark	13452
Ġconsisted	13451
Â¡	13450
Ġdrives	13450
Ġburning	13449
Ġlos	13448
Ġclothing	13447
Ġsyntax	13446
MV	13445
Ġlacking	13443
bid	13442
NM	13441
BG	13441
Ġsolvent	13441
207	13440
wen	13431
Tra	13431
ifiers	13430
166	13430
021	13430
Ġunexpected	13429
would	13428
901	13426
WR	13422
exe	13418
Engine	13417
172	13416
marks	13415
325	13415
dell	13414
wy	13411
inson	13411
cx	13410
Ġgenerates	13410
Ġstruggling	13409
Ġsanctions	13408
ĠKan	13406
ask	13405
Ġlesion	13404
Parser	13402
Ġstaying	13402
ĠBO	13402
224	13399
ĠMember	13399
Layer	13396
Ġdrag	13394
===========	13391
Ġwrap	13391
ĠArea	13389
nable	13383
Ġflip	13383
ĠRI	13381
Ġretired	13378
ARY	13377
Ver	13376
ĠExecutive	13376
ĠWA	13372
aur	13370
Ġsubstances	13370
sheet	13366
å®	13365
yle	13365
Ġmedications	13365
PU	13361
Ġcarries	13361
logs	13360
Ġcorrected	13359
}),	13357
Ġdebug	13357
\(	13355
1989	13355
words	13354
Ġenormous	13354
bia	13353
ĠIr	13347
ĠWo	13346
ĠMuslims	13346
Ġdecent	13344
yi	13341
Ġslope	13340
Member	13338
[-	13334
ĠHarry	13334
164	13331
ĠGM	13330
Ġreplacing	13325
ĠScientific	13322
polar	13320
Ġopt	13320
Ġminimize	13319
Ġmed	13319
}}}(	13317
utf	13315
Ġplacebo	13314
Ġrs	13313
Ġopens	13312
260	13311
ĠUbuntu	13311
)));	13309
dale	13303
Ġcollision	13301
Ġ114	13300
:/	13299
Ġfragments	13299
Ġpredictive	13297
Ġderive	13295
same	13292
KT	13290
ĠDB	13288
Ġterrorist	13285
Ġtran	13283
Ġreporters	13283
scriptstyle	13280
containing	13278
073	13273
Dec	13271
ĠLeft	13270
ride	13269
ĠNick	13268
eren	13266
West	13265
Ġentropy	13264
195	13261
UB	13256
Ġspinal	13255
Ġexceptions	13254
Ġroutes	13252
pton	13248
ĠChange	13247
WT	13246
LIN	13245
Ġcontributing	13244
Print	13243
Ġscenarios	13243
iot	13242
Ġbuf	13238
Pl	13237
)$-	13237
Ġservers	13237
Ġinitiative	13235
Ġentertainment	13235
Real	13234
cluster	13233
children	13232
apply	13232
Ġgi	13231
ĠLook	13229
ĠOUT	13226
hed	13222
149	13222
032	13222
Ġdreams	13222
rah	13221
Ġacc	13221
ĠHillary	13219
Da	13218
Ġgastric	13218
Ġcomplement	13215
region	13214
Ġimpression	13214
303	13212
ĠHollywood	13212
Ġshifts	13208
Ġsmell	13207
imate	13202
$:	13202
ĠSmall	13202
}$-	13195
Ġ1977	13195
NL	13194
Ġschemes	13193
ĠCM	13192
054	13190
Ġshaft	13190
icated	13189
Ġcake	13189
Ġstraightforward	13188
091	13185
Ġinhibitory	13185
bank	13184
Ġtendency	13183
ulates	13181
anted	13181
tian	13180
squ	13179
163	13178
Ġpossibilities	13178
ania	13172
ĠMiami	13171
Ġbroader	13170
depth	13168
\}$.	13168
Ġguilt	13168
fil	13167
citing	13167
ĠTask	13166
270	13165
ÂłÂłÂłÂłÂłÂłÂłÂł	13164
Ġplacement	13164
Ġlicensed	13163
AW	13162
Ġpoorly	13159
odo	13158
ĠEdward	13158
Ġtrick	13156
Ġslot	13156
ï¼ļ	13155
Ġ$${\	13155
254	13153
Ċĉĉĉĉĉĉĉĉ	13151
Ġallele	13150
Ġhired	13148
ĠPhiladelphia	13148
price	13147
Ġpresenting	13145
Ġbegun	13145
ĠMB	13145
ĠCommon	13144
ĠLanguage	13143
lint	13142
lag	13142
LK	13142
ĠWay	13138
ĠAlabama	13138
regulation	13137
Ġfitted	13136
Ġdetecting	13135
esc	13133
Ġneighbors	13133
Ðº	13131
ĠWas	13130
osp	13129
gif	13129
Ġspokesman	13125
Ð´	13123
Ġlawyers	13123
Ġencountered	13123
iya	13119
ĠSimilar	13116
ĠOklahoma	13116
ĠCells	13116
Ġassociate	13114
Socket	13113
Ġmerit	13109
Ġships	13108
ĠColor	13107
elin	13103
dial	13100
Ġnoting	13100
Proxy	13095
Ġordering	13095
Ġenforce	13095
hum	13094
à	13091
Ġcurvature	13089
549	13086
ĠCOM	13086
Ġequity	13085
Ġwanting	13084
Ġinvasive	13084
Ġanalysed	13084
Ġpersistent	13083
Ġreconstruction	13079
prec	13078
Ġinconsistent	13078
Ġdebtor	13078
safe	13077
Ġsys	13076
Ġindividually	13076
duced	13075
ĠIM	13074
ibilities	13073
LIB	13073
Ġmanagers	13072
present	13071
Ġsphere	13070
Ġaligned	13070
Ġfishing	13069
Ġneuronal	13067
Ġshame	13065
Ġdiagonal	13065
Ġoccupied	13064
tests	13062
Ġsquad	13062
conv	13061
onate	13060
Ġmeals	13057
pay	13056
Platform	13055
182	13055
Hash	13054
Ġscroll	13052
208	13051
Ġdiscipline	13048
pair	13047
ĠJun	13047
ĠZe	13045
Will	13044
))/	13044
Ġ1978	13039
mates	13037
Ġstolen	13037
Ġtetra	13033
710	13032
reset	13030
allow	13030
Appellant	13027
Ġraises	13027
Xml	13026
spect	13022
ife	13021
035	13019
Ġcitizen	13019
Ġchemicals	13018
028	13017
Ġundefined	13015
Ġdelicious	13015
Ġcam	13015
ĠHong	13015
Ġbelt	13014
ÙĨ	13011
Ġdistribute	13011
stock	13010
inator	13008
NH	13007
Ġcelebrate	13007
Ġgenotype	13003
ĠBox	13002
ĠJavaScript	13001
minute	13000
callback	13000
ĠOverall	12998
Âĩ	12996
Ġaffairs	12993
{|	12992
Ġhomogeneous	12992
pir	12991
Ġspecimens	12991
Ġlogin	12991
Ġdot	12991
skip	12990
ĠDiego	12989
heat	12988
ĠComp	12987
Directory	12986
osi	12984
âĶĢâĶĢâĶĢâĶĢ	12983
mph	12983
Ġinspection	12983
mans	12982
Ġcytokines	12981
Ġdont	12978
properties	12976
ĠStudent	12976
Ġgrace	12974
onal	12972
Ġsurrounded	12970
Ġpositioned	12969
Ġlegislature	12969
rman	12967
199	12963
gie	12962
Express	12962
Sample	12961
Ġlocalized	12960
Ġformulation	12960
comb	12957
Ġaddressing	12957
ĠNight	12956
293	12955
Ġpromotion	12955
ĠChannel	12955
920	12954
VP	12953
yth	12952
ĠBureau	12951
Seq	12949
801	12949
ĠÐ¿	12949
026	12948
Ġupset	12948
xo	12947
fg	12944
Ġhandled	12944
âĢ©	12942
oons	12942
iques	12942
ancing	12939
041	12939
Ġ127	12939
ĠCredit	12938
ĠCapital	12938
DEBUG	12937
Ġarises	12937
ĠEric	12933
Ġnegotiations	12928
Ġbirthday	12927
Matrix	12925
hin	12923
Ġexclude	12922
ðŁ	12921
ACE	12918
ĠÂ«	12918
ĠVA	12916
springframework	12915
1984	12915
Ġalien	12914
fen	12913
ĠPrince	12913
San	12912
))$	12912
ĠLLC	12912
Ġbeings	12911
Remove	12910
Hu	12910
Ġtan	12910
race	12909
Effect	12907
=====	12907
ĠLin	12906
Ġtro	12905
ÙĬ	12904
loading	12902
Ġpla	12900
uto	12898
White	12897
Stop	12896
ĠSeattle	12896
'"	12892
ĠPerson	12892
Age	12891
icate	12890
gic	12890
Ġgrants	12890
Ġurine	12888
âĦ¢	12886
ĠInvention	12886
Ġ121	12884
Ġlets	12883
ĠTrade	12882
osity	12881
ĠFive	12881
fy	12878
motion	12876
Ġconvenience	12875
Ġcorporations	12871
ylation	12867
oria	12867
Ġtermination	12867
Ġcompile	12864
Ġquit	12863
Ġverified	12862
mf	12859
Ġstyles	12855
valid	12852
ĠCSS	12850
301	12849
^](#	12848
;}	12848
izers	12846
Ġhearts	12846
roo	12845
ÙĦ	12844
Ġproto	12842
ĠFL	12841
ĠReturn	12837
Ġorgans	12836
MU	12834
ppat	12833
ĠOil	12833
191	12832
Trump	12830
ĠLabour	12827
Ġconsiderations	12825
1988	12823
Ġdispersion	12823
Ġchairman	12822
ĠProcess	12820
TOR	12819
shared	12818
Ġsto	12817
ĠSearch	12816
inv	12815
Ġrolling	12813
Ġtor	12811
uded	12810
1985	12810
Ġhighlighted	12810
=$	12808
oping	12807
Ġclubs	12807
iper	12805
>();	12805
zu	12804
_;	12803
aca	12802
ĠForeign	12802
rg	12798
Ġsheets	12793
Ġmagnet	12793
Ġcarriers	12792
ĠMcC	12792
zar	12788
ivo	12786
Ġmethyl	12785
ĠFootball	12785
>)	12779
Ġauthentic	12776
INE	12773
resp	12771
Ġoccasionally	12768
rip	12767
375	12767
Ġworship	12767
Ġinsights	12765
}{{\	12764
Factor	12763
vable	12761
Ġsimulated	12761
ORY	12760
Ġimplements	12757
ĠVideo	12757
Ġengaging	12756
Ġexpanding	12754
029	12752
Ġsuggestion	12752
Ġshapes	12745
Ġflexibility	12745
Ġbarriers	12745
Ġprescription	12741
cra	12740
ĠCi	12739
sul	12738
ĠSyrian	12737
oic	12734
kb	12733
Meta	12733
Ġphoton	12731
Ġapproached	12728
owner	12725
Ġmag	12724
NOT	12723
Ġdistricts	12723
LINE	12720
Ġbreathing	12718
cont	12717
_*	12716
gus	12714
Ġremarks	12714
opo	12712
aar	12711
189	12709
vant	12707
bh	12707
Ġremedy	12706
Ġmonitored	12704
RAN	12703
Ġtournament	12703
Ġaccommodate	12700
ĠOl	12698
encing	12695
Fo	12695
maker	12693
South	12693
Ġ116	12693
ĠÎ¼M	12692
HU	12691
Ġdishes	12691
Ġmodulation	12690
ĠCommand	12688
physical	12687
){\	12687
Ġincredibly	12687
Ġangles	12687
Ġvolunteers	12686
550	12685
096	12685
Ġent	12684
ĠManager	12684
idity	12683
sit	12682
Ġeu	12680
ochemical	12678
ViewController	12677
Enter	12676
Ġneedle	12676
027	12674
brief	12673
Ġtitles	12673
area	12672
Ġinference	12672
Ġimpacts	12671
Ġdevelopmental	12670
ĠShi	12670
Ġci	12667
loss	12665
Ġvolumes	12665
Ġslice	12663
ĠAF	12663
169	12662
Ġdeleted	12662
Ġenv	12661
Email	12660
NB	12659
Ġanchor	12659
Ġdistant	12658
rei	12657
Ġhook	12657
JSON	12656
Ġki	12656
ĠLive	12656
mad	12655
aph	12655
Ġbold	12654
Ġtongue	12653
ĠTry	12653
Ġsleeping	12652
atum	12650
osome	12648
ulus	12643
abc	12643
Ġ(<	12643
Home	12642
Ġsolving	12642
bullet	12641
Ġkg	12639
Ġspray	12638
Ġconversations	12638
without	12634
&=	12633
ĠÃħ	12632
Ġyours	12632
ĠOrganization	12629
Ġdisposed	12628
Network	12625
Ġmandatory	12625
stit	12624
Ġabandoned	12624
Ġencoded	12622
ĠOxford	12621
Ġdeclaration	12620
Ġgarlic	12619
åľ¨	12618
Ġdying	12618
Ġmerge	12616
ĠED	12615
phys	12610
Math	12610
252	12610
eating	12609
Ġfilename	12605
ĠClick	12605
Ġimply	12603
ĠPrice	12602
Bio	12601
Ġextracts	12601
ĠCat	12601
iterator	12599
Ġpurely	12598
Ġsuppressed	12597
Ġlemma	12597
===	12596
pres	12595
Ġupgrade	12595
Ġtranslate	12594
Ġpat	12594
Ġ113	12594
Stack	12592
edy	12590
Ġtmp	12589
proof	12587
Ġinstruct	12587
Ġbalanced	12586
Ġspoken	12585
Ġadhesion	12583
Ġ1975	12583
etz	12582
ĠWatch	12582
1987	12580
RNAs	12574
,âĢĻ	12574
PLE	12572
Ġligand	12572
Wait	12570
ĠFull	12568
oney	12567
198	12566
Ġarrays	12566
FM	12565
mpl	12564
leb	12563
Ġhitting	12562
tool	12561
ĠAsh	12556
âĪ	12555
345	12553
Ġapproximate	12551
Ġproceeds	12549
(!	12548
Ġsecretion	12546
both	12545
Ġcra	12544
kn	12542
056	12542
616	12540
oud	12539
Ġnutrition	12537
Ġinnovation	12531
Ġfocuses	12531
David	12530
Ġaccordingly	12529
620	12528
Ġcontroversy	12528
ĠEvent	12528
ĠContent	12528
228	12521
Ġpromoted	12521
Args	12520
Ġepi	12519
ĠThrough	12517
returns	12516
rite	12515
EXPECT	12512
Ġpulling	12512
})$.	12511
Ġâ	12511
Ġtransitions	12511
Ġappend	12510
Ġterror	12507
Ġconsiderably	12507
Ġarguing	12507
^{*	12506
061	12506
ĠTheory	12504
Ġsy	12503
Ġpleased	12502
Ġnarrative	12500
Ġdozen	12500
eor	12499
ĠMissouri	12499
ĠMid	12495
sma	12494
Valid	12494
Ġoutdoor	12494
scr	12491
hidden	12491
ãģ¯	12490
Ġseal	12490
Ġfatal	12490
ĠDisney	12490
Ġexplaining	12488
Ġexhibits	12488
Ġtrap	12487
Ġcalendar	12487
ĠRes	12486
Ġanalytical	12485
ĠVisual	12484
Ġcraft	12483
Ġoperational	12482
oda	12481
hou	12480
Ġtranscripts	12480
drop	12479
Ġautomobile	12479
success	12477
ĠOnline	12476
Ġmorphology	12475
178	12474
miss	12469
protected	12467
0006	12467
ction	12465
).\	12465
ĠEP	12465
="/	12464
Ġpri	12464
SHA	12462
Ġintact	12460
dst	12459
Cy	12459
840	12459
Ġethical	12459
Ġmobility	12458
Ġsol	12456
cloud	12455
Ġanonymous	12455
Those	12446
Cap	12445
ĠWord	12445
Descriptor	12444
Ph	12443
Ve	12442
GN	12441
parameter	12439
Ġsixth	12439
ĠDirect	12439
ĠSurvey	12438
Ġfever	12435
Ġcompromise	12435
Ġchat	12435
ĠTan	12435
ĠAA	12435
shop	12434
Ġvolunteer	12433
401	12429
*:	12429
Ġtransit	12429
>'	12428
Ġimmun	12427
440	12426
Ġmanufacture	12426
stri	12425
="../	12417
////	12417
ĠSelect	12417
Users	12416
yb	12415
network	12415
Ġmorph	12415
Ġasserted	12414
Ġoptim	12412
Ġties	12410
Ġconducting	12408
Ġplacing	12407
Ġevaluating	12405
ĠHotel	12405
Ġfounder	12404
ific	12399
Ġreviewing	12399
sensitive	12398
xF	12397
193	12397
Ġreserve	12396
Pool	12395
ĠBel	12394
illary	12393
atives	12390
original	12388
Ġ09	12387
~-	12384
shot	12383
)",	12382
Ġphones	12382
Ġfate	12382
Ġenemies	12381
ĠRelated	12381
ĠCurrent	12381
Ġwaters	12376
hine	12375
Func	12375
ĠMessage	12375
Ġprefix	12373
obi	12371
Ġreportedly	12370
Ġdesk	12368
handler	12365
0008	12363
Ġcannabis	12363
ĠBuild	12358
Ġclip	12357
ĠNE	12357
fing	12355
Ġeigen	12353
158	12352
olytic	12351
ament	12351
Ġlegally	12349
Double	12348
Ġprayer	12347
tsu	12344
Ġposting	12344
ĠNBA	12344
Ġimplementing	12342
ĠWithin	12340
ĠâĢĻ	12339
Ġofficially	12339
wr	12337
Ġdeb	12337
Edge	12335
Ġprofession	12334
__(	12333
Ġblockchain	12331
spa	12330
ĠâĢĭ	12330
Ġgamma	12328
equals	12325
Storage	12325
Ġhormone	12321
Ġ1976	12321
school	12320
``	12320
uin	12317
Ġsustainable	12312
Ġballs	12309
Ġvaries	12307
ĠYouTube	12307
acher	12306
ĠRapids	12306
testing	12304
Ġthrew	12300
480	12298
Ġgang	12298
Ġcounting	12298
rical	12294
ccc	12294
&=&	12292
305	12291
urg	12290
Ġrecruitment	12290
Policy	12285
ĠSim	12283
))?	12280
ĠMean	12271
ican	12269
FN	12269
9999	12268
173	12268
Ġolive	12265
simple	12262
visible	12260
Ġconstitutes	12260
ogra	12259
*************	12258
collect	12256
Mac	12256
âĤ¬	12255
Ġip	12255
Ġcont	12254
*),	12250
Ġtraveling	12249
emb	12248
ĠPy	12245
ĠCON	12245
ĠFactor	12244
ĠMotion	12240
245	12239
Ġmethodology	12239
Ġpollution	12238
Ġphospho	12236
Åį	12235
/"	12235
integer	12234
Ġcatheter	12232
330	12231
rif	12229
Ġlands	12224
Ġmetastasis	12223
ĠSelf	12222
Ġdenoted	12219
VALUE	12215
Ġshifted	12215
ĠBP	12213
cious	12212
188	12212
Ġappellate	12212
Ġlessons	12211
rise	12210
Ġspeaker	12209
ĠTB	12208
Ġvalidate	12206
ĠCOURT	12204
tid	12203
Ġnuclei	12203
Ġcoat	12203
vr	12202
Ġasync	12202
God	12199
Ġextracellular	12199
_{{{\	12198
Ġtears	12195
Ġprobation	12194
ĠRequest	12192
ĠRelease	12190
Ġbiology	12189
Ġcritic	12188
early	12187
ĠDallas	12187
ĠPalestinian	12186
raz	12185
did	12185
fore	12183
illo	12181
MN	12181
crypt	12180
Ġinnovative	12179
Ġconv	12179
ĠAlexander	12178
emp	12176
TEXT	12176
Ġlesser	12175
Ġappearing	12175
Ġindirect	12172
classes	12171
course	12170
Ġsusceptibility	12170
loaded	12168
Byte	12168
ĠProcedure	12167
Ġsubstrates	12166
Ġraces	12166
Sch	12165
Ġwages	12164
fixed	12161
gger	12159
Ġthy	12158
character	12157
Ġhanging	12155
;;	12154
ä»	12153
Auth	12151
Ġrein	12151
Ġimmigrants	12151
Ġwheat	12150
,(	12149
delim	12147
BIT	12146
twitter	12145
Ġconfigurations	12142
nell	12141
187	12141
Ġrally	12138
Ġviable	12137
Ġobjectives	12137
ĠGolden	12136
exit	12135
Ġorganisms	12135
Ġcups	12134
Ind	12133
Ġreproduce	12132
adr	12131
Ġstepped	12131
)/((-	12128
Ġmerits	12127
ĠMet	12126
ĠUpon	12122
Ġsteam	12121
exists	12118
Ġdiscussing	12116
ĠFrancis	12116
Ġsubtle	12115
Ġabilities	12114
ĠCt	12114
Obv	12113
flag	12112
Ġdramatically	12112
Ġinfluenza	12111
generated	12110
city	12110
ĠOP	12110
Ġprostate	12109
Ġbelonging	12109
Ġasserts	12109
ĠRemove	12108
ĠHamilton	12107
zel	12103
deg	12103
ortion	12101
043	12101
Black	12100
Ġprompt	12100
Ġtransverse	12097
ĠFinancial	12097
064	12094
Ġcharging	12094
Ġinvestigators	12093
Ġfallen	12092
(:	12091
ĠRules	12091
tru	12090
Ġhighlights	12090
Ġdevelopments	12090
860	12085
Ġrobbery	12085
ä¸Ń	12084
PRO	12084
Light	12084
Ġcrop	12082
uber	12081
ĠRad	12080
anu	12078
rock	12075
Ġgastro	12074
Ġsettle	12072
ĠTennessee	12069
vit	12068
dynamic	12067
Ġlengths	12067
Ġsingular	12066
Ġproducer	12066
$),	12065
submit	12064
obo	12064
Ġwisdom	12064
Ġnecessity	12063
ĠSingapore	12062
Ġtopological	12060
660	12058
Ġadoption	12057
183	12054
Ġriding	12053
Ġalloc	12053
eti	12052
Ġ118	12051
ĠWould	12050
Ġfluorescent	12049
ĠPol	12049
Ġoperates	12041
Ġexcitation	12041
tens	12040
060	12035
Ġec	12034
536	12032
Ġhumanity	12032
ĠPURPOSE	12030
ĠMRI	12030
ĠARE	12027
Ġinvoke	12025
Ġdrops	12025
neg	12024
Ġcredibility	12022
Ġassertion	12020
IDE	12017
Ġgrab	12017
ult	12016
ĠSummer	12016
Ġconvex	12015
Ġfreely	12014
hic	12012
063	12012
Ġoxidation	12012
Ġprevents	12011
ĠMorgan	12011
Ġsafely	12010
Ġpacked	12007
Ġtex	12006
due	12004
ĠDefault	12003
ifndef	12002
hir	12002
ĠPay	12002
iah	12000
Ġke	12000
iat	11998
etta	11997
distance	11995
Ġincorrect	11995
ĠMY	11995
Ġtender	11994
ÂĴ	11993
Ġstopping	11990
Ġprojected	11990
Ġmesh	11990
ĠForest	11989
Ġaffordable	11986
mock	11985
045	11982
Ġpub	11982
Msg	11981
Ġattending	11981
Ġtriggered	11980
Ġineffective	11979
Ġfucking	11979
ĠTE	11979
SX	11978
Ġlighting	11978
Ġalterations	11978
218	11977
XY	11976
zed	11975
ashi	11975
Ø¯	11971
780	11971
Ġdonors	11971
Ġhanded	11970
Ġhorror	11967
extern	11966
pressed	11961
upper	11959
sburg	11959
positions	11959
Ġadaptation	11959
Ġunity	11956
Ġpromises	11955
Ġcatalyst	11953
job	11952
except	11951
Ġsustain	11950
bad	11949
ĠDist	11949
lh	11948
(__	11948
cfg	11947
Ġconfirmation	11945
infected	11944
ĠMexican	11943
ãģ¨	11941
}.\	11938
ometry	11937
875	11937
880	11936
Hz	11935
Ġmeets	11934
Ġcombining	11934
Mat	11933
Ġdemo	11932
ought	11931
mk	11929
Ġamplification	11929
ĠRF	11929
oks	11926
gun	11926
Ġnurses	11925
$^	11924
Ġgerm	11924
ĠChampionship	11924
Ġcameras	11923
=-\	11922
UTF	11921
Ġutilize	11920
Ġscar	11920
Ġrelaxation	11915
Ġinherent	11913
ĠKar	11913
Ġretention	11912
Ġ\*	11912
058	11910
Assert	11909
tif	11908
Ġconditional	11908
ç»	11907
locked	11907
Ġathletes	11907
Ġdeficit	11905
vl	11902
---|---|---	11902
TAL	11899
Ġinitiation	11899
armed	11898
HH	11896
Ġdensities	11894
render	11893
mens	11893
ĠProtection	11893
enes	11892
Ġcure	11891
OE	11888
Ġgolden	11887
MON	11885
072	11885
username	11884
Ġmetrics	11883
ĠSquare	11883
cken	11881
ĠAG	11881
ĠPur	11880
}{(	11876
gne	11876
Health	11876
acted	11875
('#	11875
bis	11874
Ġblot	11874
ĠMeanwhile	11874
Ġoccasions	11873
Contact	11871
Ġdeserve	11871
ĠWHERE	11870
Ġcre	11869
Selected	11867
Ġinvestments	11867
Ġgeometric	11864
1980	11863
Ġartists	11863
Cre	11862
Ġclimb	11862
ATED	11860
ppa	11856
inary	11856
Ġcrypto	11855
ĠFinal	11855
groups	11854
Ġtriple	11854
Ġarbitration	11852
0020	11851
Ġtort	11850
yk	11847
urable	11847
hc	11847
_-	11847
ĠAuthority	11847
Ġprotests	11846
196	11845
wire	11844
Ġur	11842
ĊĊĊĊĊĊ	11839
Ùħ	11838
}>	11837
lant	11832
Ġanimation	11832
Ġinspiration	11830
lle	11828
Short	11828
Med	11828
Iterator	11826
Ġtestify	11825
Ġdivorce	11824
Summary	11823
IZ	11822
ĠNet	11821
ACH	11820
urn	11818
---|---|---|---|	11815
sectional	11814
640	11814
ĠWrite	11812
Ġmistakes	11810
}&	11809
sect	11809
ĠJason	11809
410	11808
235	11807
Ġcompiler	11806
ĠSarah	11806
coming	11804
books	11804
850	11803
701	11802
tags	11801
UX	11801
Ġfloating	11801
ĠPremier	11800
hant	11798
xsl	11797
TABLE	11797
Ġsocket	11797
Ġdatabases	11796
eering	11792
340	11791
license	11788
ÙĪ	11786
Ġmotivated	11786
ĠStudio	11786
vision	11785
ĠLicensed	11784
Ġensuring	11783
hur	11780
editor	11779
093	11776
302	11774
mix	11773
Ġbaking	11773
ĠDun	11773
904	11772
00001	11772
UA	11771
Plugin	11771
Ġremand	11771
Subject	11767
ĠExample	11767
Account	11764
Ġrespons	11764
boy	11763
5000	11762
Ġactivists	11762
ĠUP	11762
vee	11759
ĠAddress	11759
Ġabundant	11758
=[	11755
Ġearnings	11755
operation	11754
hos	11754
ĠFred	11754
required	11753
ĠWalker	11752
rik	11751
241	11751
Ġlake	11748
Ġdec	11748
otherapy	11747
Ġpremises	11746
Ġamongst	11744
since	11740
ews	11740
ĠGuide	11739
Ġexhaust	11738
station	11737
Ġtear	11737
odot	11736
Argument	11734
hot	11733
ĠHoward	11732
Ġthrowing	11731
ĠJane	11731
DK	11729
Ġdisadvantage	11728
233	11727
Ġdowntown	11727
Ġprognosis	11726
phe	11725
Ġyard	11725
ĠExpress	11722
à´	11721
650	11721
501	11720
vation	11718
Har	11718
Ġdated	11718
Ġboards	11717
ĠBerlin	11717
Ġtherapies	11715
Ġinsertion	11714
*[	11711
evo	11709
509	11709
.....	11708
cellular	11705
Ġslip	11705
Ġshops	11705
ĠATP	11699
Ġconvention	11698
Ġanalog	11694
erator	11693
ĠCaptain	11692
ĉĉĉĉ	11692
uj	11691
uu	11690
Ġindustries	11690
clock	11689
Dim	11688
ĠTony	11688
ĠABC	11688
ĠBUT	11687
Ġjudges	11686
layers	11683
Ġrepository	11683
===============	11682
mul	11676
hra	11676
)>	11675
Ġjustified	11674
Ġenum	11674
tonic	11673
mouse	11673
039	11673
Ġchopped	11673
ulo	11672
ĠTech	11672
720	11671
ĠHS	11671
Ġspeaks	11668
cg	11666
ĠMountain	11666
Ġhire	11664
lov	11661
Ġuniversities	11660
Ġreactive	11660
virtual	11658
pk	11658
lav	11658
Ġcontend	11658
Ġbackup	11656
Ġpassenger	11655
Ġmanufacturers	11655
Ġ"",	11655
Ġspo	11653
1982	11652
Try	11648
particle	11647
304	11647
Ġlap	11647
uru	11644
Ġcursor	11644
events	11642
ĠMas	11642
asse	11641
cep	11639
aan	11639
ĠSenator	11639
special	11638
Ġantibiotics	11636
tica	11633
dent	11633
Ġobligations	11632
.<	11629
sam	11627
ĠcDNA	11627
ĠPARTICULAR	11627
SED	11624
Ġads	11624
Security	11623
Ġpackaging	11623
Ġemails	11623
Ã´	11621
BN	11621
Ġempirical	11621
Ġaveraged	11620
health	11616
bian	11616
Ri	11616
Ġrefuse	11616
Ġsupplement	11615
777	11614
Ġaf	11614
ĠEditor	11614
535	11612
Ġveteran	11609
cpu	11608
Ġavoided	11608
,.	11607
isi	11606
Ġfought	11606
ĠVery	11603
Scope	11601
Ġmainstream	11601
Ġfruits	11601
Ġ]{}	11601
rend	11599
dfrac	11598
621	11597
315	11596
890	11595
Ġbasal	11595
ĠElizabeth	11593
Ah	11591
539	11589
Ġmicroscope	11588
XX	11587
HM	11586
Ġdialog	11586
Ġholder	11585
Ġchips	11585
ĠDutch	11585
Ġratings	11584
rish	11583
ãģ§	11582
Ġceiling	11582
**/	11581
186	11580
Ġexperiencing	11575
380	11574
Ġadventure	11574
Ġpreserved	11573
Ġupstream	11572
Ġbare	11572
come	11571
034	11569
|^{	11568
Ġhorizon	11568
404	11567
cost	11566
ĠLE	11565
Ġ"%	11564
Ġalternatives	11563
ĠSenior	11563
lips	11562
enz	11562
wk	11560
anch	11557
\-	11557
Ġshirt	11557
ĠCOVID	11556
CHAR	11555
TIME	11554
Ġgranting	11554
itu	11553
dS	11553
IND	11553
803	11553
treatment	11551
Empty	11551
Ġadvances	11548
Ġintelligent	11547
thal	11546
ĠStock	11546
Ġmal	11545
ĠTor	11545
too	11544
ssl	11544
859	11544
|$	11543
194	11543
Ġsearched	11543
Timeout	11542
Ġflood	11542
Ġcy	11542
Player	11540
Ġbrilliant	11537
Ġagricultural	11536
384	11534
science	11533
Ġvoluntary	11532
GH	11531
Copy	11530
870	11529
1983	11528
onne	11527
åħ	11526
ĠFilm	11526
Ġhappiness	11525
Ġgraft	11524
sync	11521
059	11518
Ġpink	11518
ĠROS	11515
ĠInteger	11515
Ġ117	11515
formation	11514
Kind	11514
Ġcats	11514
RAM	11510
680	11510
Ġintensive	11510
ĠYu	11508
activated	11507
Job	11507
Ġmayor	11507
fact	11504
Loader	11504
Ġresidue	11503
]-[@	11502
former	11501
ĠExpression	11500
expl	11499
Ġeastern	11499
HY	11498
ĠVector	11498
oS	11497
ĠFITNESS	11497
ĠBesides	11497
Ġ350	11497
Ġ1950	11497
057	11496
pert	11495
bers	11494
score	11492
Ġsusceptible	11492
ĠMoon	11492
counter	11491
Ġunlawful	11491
Unc	11490
Ġrevised	11490
Ġcontamination	11490
ĠCam	11489
Ġpsych	11488
ÑĢÐ°	11486
Save	11486
601	11485
Ġlemon	11484
ĠEM	11484
mini	11483
LED	11482
Ġevolutionary	11481
ĠWales	11478
Information	11474
................	11473
Ġpod	11472
Ġselecting	11471
MAC	11469
Ġtumour	11468
ĠCollection	11468
signed	11467
Metadata	11466
eland	11465
Ġbuttons	11465
identifier	11464
allo	11464
Scale	11463
MX	11462
Ġdiabetic	11462
Ġsuspicion	11461
Ġclinically	11460
Ġ122	11459
Ġsco	11457
CALL	11456
ĠJean	11454
erra	11452
Binding	11450
pattern	11448
olysis	11447
810	11446
067	11444
sense	11443
áº	11441
å¤	11440
lene	11438
tip	11437
ĠSl	11437
Ġstationary	11436
xl	11435
erce	11434
Ġviability	11433
ĠUSB	11433
program	11432
Connect	11432
Ġconsumed	11432
ĠNotice	11432
Ġdisclose	11431
VO	11430
Ġprimers	11427
ĠConvention	11427
serving	11425
ĠCruz	11422
Ġillustrate	11421
Ġ1973	11420
386	11418
Ġskip	11418
Ġranked	11418
Ġfer	11417
Ġabsorb	11417
AAA	11416
Ġloads	11416
unique	11415
Ġ``	11414
Ġrecipes	11413
ĠSF	11413
Ġrelevance	11411
initial	11410
ĠSur	11410
Ġcounted	11409
ĠCN	11409
parallel	11408
ĠUtah	11408
ĊĠĊ	11405
Ġthereafter	11403
323	11402
251	11402
quoting	11401
Ġpainful	11401
ĠVietnam	11401
ĠShort	11401
six	11400
Ġpremium	11400
itor	11397
gui	11396
519	11396
))\	11396
wick	11392
Kit	11392
Further	11392
Wa	11384
osomal	11380
fm	11379
USER	11378
uis	11374
Ġko	11373
Ġallocation	11372
197	11371
tier	11367
Âµ	11366
som	11365
0007	11365
cla	11364
Ġappellants	11364
Â£	11361
Ġarts	11361
platform	11359
^*$	11358
Ġincomplete	11358
ĠDes	11357
Exp	11356
Ġendogenous	11354
were	11353
pkg	11353
903	11351
Ġbitter	11351
itÃ©	11350
Off	11349
Ġfigured	11349
Ġfuck	11346
stal	11345
Ġintroducing	11345
ÃŃa	11344
ĠTreatment	11344
Ġfurniture	11343
Ġcenturies	11343
Ko	11342
Ġhill	11342
Ġpredetermined	11341
ĠOtherwise	11341
atu	11340
Ã¥	11338
=>	11338
Ru	11335
Ġcone	11335
ĠAss	11332
3000	11331
Mu	11330
Ġtickets	11330
Ġmit	11330
pra	11329
KK	11329
AMP	11329
fusion	11328
execute	11327
North	11327
"\	11326
ĠLouisiana	11326
Ġaffidavit	11325
cro	11324
acs	11324
ĠDark	11324
Invalid	11322
ĠAssistant	11321
xsd	11320
iano	11319
229	11319
Ġgoogle	11319
Ke	11317
ĠLater	11317
Ġprolonged	11316
ĠMusic	11316
Ġreception	11315
gp	11314
\!\!	11313
çĶ¨	11312
Ġmer	11312
rose	11311
fileID	11310
Ġlips	11309
Ġincidents	11307
ssel	11306
aper	11306
Ġgraphics	11306
ĠDouble	11306
ĠHen	11305
controller	11304
Ġty	11303
Attributes	11302
rang	11301
Ġcrossed	11301
Ã©t	11299
Register	11298
Ġ$|\	11298
472	11296
dimen	11293
dash	11293
VER	11293
Ġgrey	11292
ĠProduct	11290
mand	11289
Ġprospect	11289
Ġfetal	11288
erin	11287
Ġtackle	11278
offs	11277
Ġhabit	11277
Ġmyth	11276
cept	11275
Ġannounce	11275
toc	11273
Ġind	11272
Ġ1972	11272
Ġinfectious	11269
(-\	11268
ĠPhysics	11268
Ġ124	11268
Simple	11266
Ġseemingly	11263
genic	11262
ĠâĢľ[	11262
ophy	11260
Ġcorrections	11260
Ġventricular	11258
ĠCard	11256
Ġcertified	11255
085	11250
430	11246
FOR	11245
Ġrecommendation	11244
Ġinsured	11244
dea	11238
Lib	11236
player	11235
Ġevolved	11235
Render	11231
Related	11230
into	11229
chin	11227
Ġabdominal	11225
ĠStore	11224
}}}_{	11223
Memory	11222
Sy	11221
Ġdismissal	11221
ulatory	11218
Ġbail	11216
ĠNASA	11216
ĠAffairs	11216
909	11215
Ġregret	11215
gnu	11213
arXiv	11213
STATE	11213
Ġemployers	11213
Ġbrands	11212
ĠArts	11212
Ġ[$	11211
Ġrubber	11208
Ġ08	11208
ĠNetherlands	11207
mous	11206
Ġgravitational	11206
Ġcro	11205
hbox	11204
ĠiPhone	11202
ĠHad	11202
oidal	11201
306	11200
plastic	11199
Ġundergoing	11198
Ġrotating	11198
Ġcurious	11198
Ġtwelve	11197
Ġorthogonal	11195
Ġfracture	11195
Ġdx	11195
à²	11193
TES	11193
Ġ.$$	11193
different	11191
CHECK	11191
Ġcart	11190
pto	11189
Ġmor	11188
Ġawards	11188
Ġdesert	11187
Ġdemonstrating	11186
liness	11185
)](#	11184
ĠMount	11184
RX	11183
ĠMERCHANTABILITY	11183
ĠAli	11183
nio	11178
icit	11176
Package	11176
====	11176
ulations	11175
EDIT	11175
Ġatt	11173
stan	11171
Ġ05	11171
311	11169
ĠSupp	11169
ĠSol	11169
548	11166
ĠFarm	11166
Ġdynamical	11165
Ġsheep	11163
igen	11160
ĠInf	11159
lei	11157
ĠUnlike	11157
ĠFO	11157
520	11155
Ġordinance	11153
sche	11152
fol	11151
Ġdist	11151
Ġrecombinant	11150
Ġcouples	11148
flex	11147
ĠSimon	11147
402	11146
.""	11146
Ġquant	11146
utt	11145
Ġfeasible	11144
ĠPoly	11144
Should	11143
227	11142
}}({\	11141
guard	11141
alk	11139
]$.	11139
Ġjo	11139
aci	11137
Ġpublications	11137
Ġachieving	11137
ä¸Ģ	11136
Ġâī¤	11136
ĠTokyo	11135
Comment	11134
Ġblade	11134
ĠFer	11134
Ġorbital	11133
Ġdear	11133
Ġdrain	11132
sight	11131
resistant	11131
Vi	11128
bil	11126
Ġtopology	11124
Ġbun	11124
Ġpressed	11122
Internal	11121
Following	11121
ĠCounsel	11120
,\\	11119
ĠSOFTWARE	11119
ograms	11117
lw	11115
Ġlesson	11113
Ġsorts	11112
Ġenrolled	11112
í	11110
arth	11110
ĠIl	11110
Ġcylinder	11109
nik	11108
ĠAppendix	11108
Ð½Ð¾	11107
Ġdialogue	11105
BER	11100
Ġhoped	11100
independent	11098
social	11097
Ġexcuse	11096
subject	11095
820	11095
ĠDrug	11095
247	11094
ĠKit	11093
Mor	11092
Ġupload	11089
Ġhorses	11089
Ġrigid	11088
243	11087
Ġspontaneous	11086
Ġë	11085
uge	11084
etics	11084
ĠLO	11084
Support	11083
Ġbow	11083
.");	11082
+{\	11079
Ġswimming	11078
Ġoutputs	11076
ĠMayor	11075
ĠJacob	11074
bul	11072
PAR	11072
603	11072
Ġcontacted	11072
wh	11070
cate	11070
ĠSW	11070
opathy	11069
Ġinappropriate	11069
SYS	11068
à¦	11067
tit	11067
).](	11066
+++	11065
ĠPri	11065
Ġdeletion	11064
Ġactivate	11064
Ġphenomena	11063
pub	11061
Lock	11061
stre	11057
nine	11057
nw	11055
Ġunemployment	11055
ĠResources	11055
Book	11054
405	11054
Uh	11052
emphasis	11050
Ġlabour	11050
ĠCustom	11050
onomy	11049
Ġ1974	11049
este	11047
itated	11046
fty	11046
760	11044
Ġschema	11044
Ġdisplacement	11043
Ġconjunction	11043
Ġretrieve	11042
groupId	11041
036	11040
Ġneighbor	11039
ĠEngineering	11037
Ġconvictions	11036
Ġcerebral	11035
serve	11034
ĠCB	11034
Therefore	11033
ÂĮ	11032
Ġdebut	11032
Ġexponential	11031
nee	11030
365	11030
236	11029
HQ	11028
aman	11027
756	11027
nish	11026
Ġtin	11026
large	11025
chlor	11024
Ġcmd	11024
erty	11023
'''	11023
ĠKeep	11023
ĠNeither	11022
Ġtowns	11019
ĠZa	11019
Ġ,\	11019
Ġpromotes	11018
gis	11017
esse	11017
576	11017
modal	11016
amy	11014
ToString	11012
ĠMaterial	11012
Keep	11011
Ġtubes	11011
Ġcontributes	11011
Ġfatigue	11010
pts	11006
Ġbabies	11006
ĠÎ¼m	11004
Ġvaccination	11004
Ġundergo	11004
Ġspecification	11004
Ġsends	11004
ĠStone	11004
ĠRome	11004
Ġthreads	11003
ethyl	11001
ĠDisease	11001
LG	10999
Ġloving	10997
sequence	10996
READ	10995
Ġrental	10995
ĠSingle	10995
ĊĉĊĉ	10995
088	10993
President	10990
EU	10990
307	10990
Ġloops	10990
ĠJerusalem	10990
nex	10989
Ġ"âĻª	10988
Len	10986
Ġvon	10986
ĠStatistical	10986
rj	10985
hak	10984
066	10984
information	10980
ĠFin	10978
Ġscared	10976
Ġ'/	10976
eco	10974
iable	10973
Ġkinetic	10973
iol	10972
Timer	10972
ochemistry	10971
Ġextensions	10971
Ġdefence	10969
ĠFE	10969
049	10967
Ġlocus	10967
TAG	10966
Ja	10966
Ġoccupation	10966
Ġattract	10966
Ġantenna	10966
ĠTour	10965
Ġisomorphism	10963
ĠLPS	10963
Ġaqueous	10959
burn	10958
Power	10958
ĠBeing	10958
DING	10957
"],	10957
ĠFourier	10956
radius	10954
Ġrelax	10954
768	10953
Ġproposals	10951
Ġmodest	10951
Ġinstability	10947
hoe	10946
Ġextraordinary	10941
STATUS	10940
531	10940
Ġawake	10940
hab	10939
artifactId	10937
Âı	10934
ionic	10931
Ġdig	10931
\](	10927
:[	10923
sville	10920
neu	10920
Ġconcentrated	10920
Ġbeneath	10920
ĠWHO	10920
ĠCloud	10920
BY	10918
Ġinterrupt	10918
Match	10915
Ġweighted	10915
Ġuniformly	10915
Ġpharmaceutical	10915
uda	10914
Ġdrunk	10914
Ġdistinguished	10913
ĠUSE	10913
fat	10911
Ġinstructed	10911
'))	10910
Ġmarginal	10910
1001	10909
Ġmil	10909
formula	10908
hang	10902
Ġtransfected	10902
Ġlegacy	10902
Ġdrinks	10902
Ġdemocratic	10902
907	10901
Ġheated	10900
ĠGraph	10900
months	10898
ĠEmpire	10895
Ġfacial	10894
Ġapt	10893
oit	10892
Ġhomo	10892
ĠSm	10892
081	10890
Ġpanic	10889
Ġinadequate	10889
Ġtrailer	10886
ĠThompson	10886
ĠPres	10885
Ġdistal	10882
Ġclustering	10882
Ġsm	10881
ctrl	10880
forward	10879
Files	10879
Ġnegatively	10879
ĠDetroit	10879
Ġwrapped	10877
Ġjunction	10877
virus	10876
INSERT	10875
ĠMeta	10874
Ġcooked	10872
Ġcriterion	10871
Ġmut	10869
Ġburst	10869
Ġ(âĪĴ	10869
PY	10868
062	10868
Ġqueries	10868
Ġdirectors	10868
urd	10867
Ġsynthesized	10867
ãĥ³	10866
Ġinfluences	10865
Ġcaution	10865
321	10864
rix	10861
Ġstocks	10860
gro	10857
Bean	10855
ĠVice	10854
ĠMg	10852
Ġabroad	10851
ĠAustin	10849
Ġparam	10848
Ġbacked	10848
ĠOntario	10848
Ġtranslated	10847
reading	10846
Ġsurveys	10846
manager	10845
308	10844
Ġbull	10843
906	10842
ĠRon	10842
driven	10841
Ġrush	10841
ĠWright	10840
ĠJS	10839
226	10837
Ġmad	10837
Ġautomated	10837
ĠDick	10837
NES	10836
complex	10834
299	10834
Ġhopefully	10833
hun	10832
082	10832
Ġwithdrawal	10831
ĠâĨĴ	10829
Ġproducers	10829
Ġdeciding	10829
Ġwithdraw	10826
ĠSweden	10826
usive	10825
ĠRecently	10825
Ġ"-	10825
911	10820
615	10818
../	10818
Ġexploration	10818
910	10817
ĠSafety	10816
antic	10815
TON	10815
Ġcirc	10815
Ġloo	10814
Ġdependency	10814
Ġcervical	10813
their	10808
hall	10807
PRE	10807
Ġwhilst	10806
Ġharmful	10806
042	10805
Ġstatutes	10804
ĠGil	10804
ĠGET	10804
Ġreleases	10803
Ġdrew	10803
Program	10801
MODE	10801
Ġvalidated	10801
Ġenterprise	10801
074	10800
eca	10799
Ġpun	10799
RING	10797
iary	10796
Ġpose	10796
rect	10795
Arg	10795
Ġcomprised	10795
trace	10794
best	10794
Ġsons	10794
Ġhem	10794
Ġ126	10794
Ġsensory	10793
Ss	10791
Ġlas	10791
ĠLORD	10791
Ġremind	10789
xb	10788
isms	10788
dler	10788
OSE	10788
:'	10788
1981	10788
bigl	10786
ĠCIA	10786
comm	10785
Ġacceleration	10784
ĠSpec	10782
igan	10781
Nu	10780
ĠCondition	10780
xff	10779
Static	10779
Ġutilizing	10778
lain	10777
Ġmyocardial	10776
login	10775
???	10775
572	10775
Ġpediatric	10775
Ġhor	10775
Ġbilateral	10775
ĠSaint	10775
ĠRen	10773
ĠAnt	10773
svg	10771
journal	10771
ĠSteven	10771
Ġethics	10770
KING	10768
Ġridiculous	10768
Ġplotted	10768
605	10766
Ġtunnel	10766
rational	10764
TW	10764
Ġtap	10764
Ġproc	10762
hpp	10761
Ġrevision	10760
ĠDemocrat	10759
Ġpsychiatric	10758
})=	10757
thesis	10757
iological	10756
Ġhouseholds	10756
998	10755
ĠInterest	10755
604	10754
Ġbiopsy	10753
Ġshower	10752
Ġunstable	10748
Ġrod	10748
ĠPara	10745
zh	10743
rica	10743
Java	10743
Ġphosphate	10743
rail	10741
props	10741
quant	10740
Ġmount	10740
Ġheaders	10740
237	10739
Ġcytokine	10739
Ġcollecting	10739
ĠAnthony	10739
Database	10738
Ġwal	10738
=\"	10737
Ġeliminated	10737
navbar	10735
Ġrendering	10735
natural	10733
Ġrestored	10730
Ġfractions	10730
Ġshaped	10729
Ġchemo	10729
089	10728
cover	10727
iating	10725
National	10725
Ġvacation	10725
Ġpic	10725
ĠET	10724
Ġterrorism	10723
Ġ135	10723
Ġpsycho	10722
ĠBuilding	10720
working	10719
ANG	10719
Ġhabits	10719
Ġcharacterize	10719
lif	10718
lai	10718
Ġfort	10717
Ġmapped	10715
gb	10714
ĠBla	10714
RAL	10713
,*	10713
219	10712
Ð¶	10711
smallcaps	10709
iw	10708
EXT	10708
lik	10703
functions	10700
=\{	10700
Ġly	10700
leton	10698
sx	10697
Ġ700	10697
Ġconscious	10695
288	10694
Ġopposing	10692
Selection	10691
created	10690
graphs	10688
CAT	10688
oured	10684
lash	10684
Ġ03	10684
defendant	10683
ĠTw	10682
ĠPal	10681
bold	10680
Ġsubjective	10680
567	10678
Ġelastic	10678
GD	10677
ĠĠĠĠĊĠĠĠ	10677
cred	10676
à¤°	10675
Ġquestioned	10675
Ġcalibration	10675
iÃ³n	10673
390	10673
posing	10671
Ġgrows	10671
ĠFourth	10670
})$,	10669
olation	10669
1111	10668
ĠMother	10668
Ġfn	10667
Ġaluminum	10667
Ġconvey	10666
Google	10665
Ġears	10665
Ġpaste	10664
Ġswap	10662
ĠLib	10661
Ġcomedy	10660
ĠWild	10660
Ġdeposited	10658
Ġdemanding	10658
ÐµÑĤ	10657
esta	10656
Ġregards	10656
ĠAuthor	10656
Ġencouraging	10655
Ġtranscriptional	10653
Ġenabling	10653
Ð±	10652
iki	10650
Ġexploring	10649
Ġchemistry	10649
Xi	10648
Ġhyp	10648
udi	10646
umi	10645
055	10645
Repository	10644
234	10644
Ġrounds	10644
ĠSummary	10644
Ġessence	10643
Notification	10641
Details	10640
borne	10639
607	10639
Delegate	10638
ĠMR	10638
811	10636
Ġillustrates	10636
Ġembedding	10636
Ġelite	10635
ORS	10634
038	10633
annotation	10632
pv	10630
Ġlane	10630
Ġpride	10629
Ġdesktop	10628
Ġrefugees	10627
ĠOlympics	10625
ĠNP	10624
Ġremembered	10622
Ġpole	10622
è¿	10621
enic	10621
Ġsubsection	10620
Ġoffenses	10619
Ġmusical	10618
uta	10617
nv	10617
242	10615
Ġsep	10614
Ð¾Ð²	10612
ÂłÂłÂłÂł	10612
Ġven	10612
Ġexamining	10610
Ġequivalence	10610
Ġdrift	10610
612	10609
ĠCulture	10609
575	10608
ĠLady	10607
bridge	10606
Ġcumulative	10606
Ġns	10604
Ġdf	10604
reflect	10602
LER	10601
Ġassessing	10601
})^	10599
606	10599
Ġscandal	10599
ĠDen	10598
0100	10597
Ġcoaches	10597
Ġimproper	10596
Ġdemographic	10596
čĊčĊĠĠĠĠĠĠĠ	10596
Ġdining	10594
wel	10593
Ġhepatic	10593
Ġjournalists	10592
Ġ256	10592
Ġwrit	10590
Ġtons	10590
Ġapi	10590
Ġknock	10589
dden	10588
905	10586
states	10585
Ġpassive	10585
ĠComm	10585
Ġmetals	10584
Ġbeef	10583
ĠVar	10582
upon	10581
510	10581
tet	10580
otr	10580
ĠMarx	10580
Ġexpecting	10579
ĠMich	10579
STRING	10578
Ġwalks	10578
Ġanticipated	10578
ĠFDA	10578
ĠANOVA	10577
ception	10576
agen	10576
Ju	10576
324	10575
Ġbitcoin	10575
icating	10574
Ġforcing	10573
_**	10572
article	10571
331	10569
antly	10568
]*	10568
season	10567
chs	10566
Ġprimer	10566
ĠSize	10566
makers	10565
Mintage	10565
ĠINTO	10564
Ġopponents	10563
ĠAtlanta	10561
ĠDev	10560
^.	10556
gest	10554
Ġedited	10552
Ġ131	10552
Ġgit	10551
Ġallocated	10551
Ġmounting	10550
proto	10547
á	10546
rice	10546
cult	10546
Ġintimate	10545
inen	10544
ules	10543
ĠBowl	10543
534	10542
Ġbru	10540
ĠNT	10538
UV	10537
Ġchampionship	10537
ĠEPA	10537
071	10536
Ġscrew	10536
vine	10534
Ġpreceding	10534
Ġelevation	10533
ĠCarter	10533
sle	10532
ĠExchange	10532
prev	10530
Ġmechanics	10530
ĠBlood	10530
Ġflesh	10529
Ã©r	10527
Ġinfer	10526
Ġcru	10526
Ġalarm	10525
Ġadmin	10524
mple	10523
lua	10522
Ġslower	10521
ĠDeputy	10519
stra	10518
/)	10517
ĠFestival	10517
555	10516
ĠMus	10516
padding	10514
908	10513
thin	10512
itan	10509
DIS	10509
LONG	10508
ĠBarack	10506
amount	10505
Ġconsist	10505
gins	10503
Ġbandwidth	10502
ĠSoc	10502
703	10501
æľ	10499
KO	10494
Person	10493
ĠEX	10491
ĠMonte	10490
]+	10489
ĠPhil	10489
Ġscrap	10488
]{}.	10485
Mapping	10484
sA	10483
Ġmes	10483
talk	10482
275	10481
Ġactin	10481
Ġantibiotic	10479
ĠSupplementary	10479
ĠMM	10479
them	10478
Ġwashing	10477
Ġadaptive	10477
Ġhosted	10476
ĠRoss	10476
Ġqualify	10474
Ġ129	10474
Ġfil	10472
Ġdeparture	10472
ĠGreece	10470
Ġallies	10468
ANCE	10467
Ġauthentication	10467
Ġsubscription	10466
ĠMoscow	10466
Ġ360	10465
apo	10464
Ġcontainers	10464
fff	10463
Ġgro	10463
690	10461
Ġsitu	10461
ĠRC	10461
670	10460
DEF	10459
Ġutil	10457
ĠCould	10457
Great	10456
EW	10455
Best	10455
Ġpancreatic	10455
Ġavoiding	10455
Ġana	10453
ggy	10449
dish	10449
537	10449
boolean	10448
ĠSeven	10448
ĠLED	10447
Ġvirtue	10446
Ġthroat	10446
Ġsimplicity	10446
ĠEu	10446
ĠCONDITIONS	10446
dow	10442
ĠLaboratory	10441
xt	10440
Ġsummarized	10440
boot	10439
bigr	10437
Ġclo	10436
ĠDS	10436
Single	10435
Ġpassengers	10435
ĠDuke	10435
Ġsil	10434
éĢ	10433
entity	10433
lex	10432
ĠManchester	10432
middle	10431
Ġregulating	10431
Ġthoroughly	10429
403	10428
Ġpropagation	10425
Ġborders	10424
Ġagrees	10422
Ġwhereby	10421
utation	10420
bell	10420
370	10419
Ġnights	10419
Ġfiltered	10419
Ġclearance	10418
ATT	10417
Ġoz	10417
ĠStep	10417
Ġjoke	10416
Ġcaptain	10415
Ġadequately	10415
950	10413
Ġattitudes	10413
ĠKh	10413
something	10412
Ġoutlined	10408
ĠRevolution	10408
Ġmalignant	10403
ä¸į	10401
272	10400
Ġtransmit	10400
orm	10399
Proof	10399
069	10399
REA	10397
083	10397
Ġrecipient	10396
Ġsurvived	10394
704	10393
Ġtremendous	10393
Ġdelta	10393
Ġradi	10392
097	10391
dine	10390
constitutional	10389
Ġcoalition	10389
frequency	10387
Wal	10387
ICK	10387
}^*	10386
432	10385
ĠYa	10385
elles	10384
952	10384
Ġextr	10381
Ġhandful	10379
Ġcontinuum	10379
clo	10376
Normal	10376
ĠPatrick	10376
244	10375
Ġrejection	10375
\}$,	10371
sque	10370
Ġcrude	10369
ĠDoctor	10369
Ġenrichment	10368
Ġperformances	10367
ĠCountry	10366
scape	10363
Ġblend	10363
Ġfin	10362
Øª	10361
092	10361
Ġ04	10360
Ġsymptom	10359
Ġdeadly	10359
ĠLar	10359
uter	10358
effective	10358
Ġ170	10357
RW	10356
Ġqualitative	10356
ĠLevel	10355
ANA	10354
Ġproving	10354
ÎºB	10353
vd	10351
lined	10350
ĠLI	10348
pie	10347
460	10347
kon	10345
Ġ132	10345
Ġluminosity	10344
Ġsteal	10343
Ġsensing	10343
ĠStatus	10342
Ġsens	10341
dag	10339
830	10338
typename	10337
union	10336
ĠRos	10335
Move	10334
setting	10333
Ġmas	10333
Ġappellee	10332
friendly	10330
Ġsink	10330
Ġorganisation	10329
084	10327
Ġinteracting	10325
loader	10323
Sorry	10323
MW	10322
:-	10322
Ġbrutal	10322
}_{{\	10321
duc	10320
ĠWarren	10318
Ġdirty	10317
Ġhighway	10315
925	10314
Ġsnap	10314
Ġpreferences	10313
uding	10312
Conclusion	10310
ĠDR	10308
nem	10307
HB	10306
:"){	10305
iens	10304
Mask	10304
ĠAlaska	10304
313	10303
collection	10299
Ġclone	10299
087	10298
Ġmaintains	10298
Ġcritics	10298
Ġcampaigns	10298
webkit	10297
Ġtel	10297
tables	10296
Ġequ	10295
Ġforeach	10294
pac	10293
322	10293
Ġdeployment	10293
native	10292
gd	10292
068	10292
Ġtheft	10292
Ġspecialized	10292
Ġcyber	10292
fur	10289
TOP	10289
Ġquotes	10289
Ġbesides	10289
Ġdeck	10287
inating	10286
vubuntor	10285
'+	10285
Ġproductivity	10285
Ġembrace	10285
ĠBASIS	10285
/$	10284
Ġcourage	10282
Ġconnectivity	10282
Ġgeo	10281
ĠHAVE	10280
stu	10278
574	10278
Ġgoverned	10277
ĠBlock	10276
Unknown	10274
ĠCooper	10274
ario	10272
Ġprobes	10271
bolic	10270
545	10270
storage	10269
gets	10268
}_{-	10267
policy	10267
ardo	10267
PIN	10266
pcbi	10264
Ġcompiled	10264
ĠEarly	10263
ĠHay	10261
Send	10260
611	10260
Ġproximity	10260
focus	10259
Ġmem	10259
ĠFlo	10259
Native	10255
GER	10254
Ġhub	10254
=============	10252
ĠPas	10251
="-	10250
Ġreversal	10250
anto	10249
Ġnovo	10249
Ġlisting	10249
Ġdra	10249
Ġ'<	10249
ĠTaiwan	10247
~.	10246
Question	10246
>{	10246
Ġhint	10246
Ġengines	10246
456	10245
Ġcurrents	10243
ĠHel	10241
memory	10240
external	10239
Still	10236
........	10236
Ġrolled	10236
theme	10235
Ġidentifier	10235
plex	10234
Ġelementary	10234
Ġbeans	10232
glu	10231
Ð½Ð¸	10230
571	10229
aru	10228
Ġtower	10228
omycin	10227
Ci	10227
Ġharassment	10227
Ġthromb	10226
Ġpotentials	10226
cation	10224
ĠEconomic	10224
Ġconvince	10223
xd	10222
essive	10222
HTTP	10222
Flow	10221
Ġmeters	10221
Ġjunior	10221
546	10219
077	10219
holder	10218
tti	10217
react	10217
Ġequals	10217
Ġbanking	10217
sexual	10216
Ġenriched	10216
Ġsituated	10215
614	10214
Ġchampion	10213
Ġstake	10212
Ġdisable	10211
Ġbehave	10211
Ġperforms	10210
scroll	10209
309	10209
Ġcompanion	10209
ĠFranklin	10208
590	10207
scal	10206
631	10205
ĠAnimal	10205
617	10204
Ġrecruited	10204
Ġspite	10203
ĠLea	10203
Pop	10202
Ġburied	10202
Ã£o	10201
)},	10201
Several	10200
lins	10197
ĠGulf	10196
important	10195
shadow	10194
Ġdefeated	10193
ĠReference	10193
Ġindicators	10191
ĠSite	10190
Tu	10189
ĠSar	10189
ebe	10188
613	10188
444	10188
+}	10188
though	10187
sound	10187
0011	10185
dma	10184
.__	10184
Ġshoulders	10183
Ġquarterback	10182
Ġgaming	10180
Ġapple	10179
poo	10178
Standard	10178
238	10178
does	10177
symmetric	10175
ĠTarget	10174
Ġ192	10171
bun	10170
705	10170
551	10170
Ġfoster	10170
Ġfluor	10170
Ġextensively	10170
ffe	10168
ĠSeason	10168
vey	10164
Ġemotion	10164
Ġdevoted	10164
ryl	10163
Folder	10160
ÛĮ	10159
Ġsaline	10157
Ġcoronavirus	10157
grant	10156
8000	10156
709	10155
Ġpronounced	10154
Ġdisrupt	10154
ĠHeart	10154
ĠAtlantic	10152
Ġmountains	10151
Ġdeployed	10151
validate	10150
Expr	10150
Ġirrelevant	10149
Ġanalytic	10149
Library	10148
door	10147
Ġdielectric	10147
866	10146
Ġabnormalities	10146
ĠDigital	10146
Ġprocedural	10145
Ġceremony	10145
Ġracing	10144
ĠmiRNA	10144
ĠPT	10144
jit	10143
Ġtur	10143
Ġtouched	10143
Ġstrikes	10143
Ġministry	10143
Ġconsult	10143
IK	10141
Ġthemes	10141
Ġ240	10140
Ġhind	10139
dri	10138
mia	10137
Ġascending	10137
Follow	10135
links	10134
going	10131
Paul	10130
mutable	10129
Ġresponding	10128
ĠNative	10128
ĠGas	10128
Ġabused	10126
Ġcyclo	10122
)}}	10121
Ġdamn	10121
panel	10120
Ġgrasp	10120
047	10119
erie	10118
SSL	10118
Card	10118
253	10117
Ġdepicted	10117
track	10116
Ġoverview	10116
ĠÐ´	10115
Ġarrangements	10115
ĠGer	10115
565	10113
294	10112
Ñħ	10111
hide	10111
Ġparental	10111
ĠCur	10111
soft	10110
Ġkiss	10110
Ġconsequently	10110
ĠIron	10109
Sw	10108
902	10108
between	10107
Trace	10107
components	10106
Ġtoilet	10106
mie	10105
ensis	10102
608	10101
Ġresection	10101
Ġ[$\	10101
494	10100
Meanwhile	10099
Ġfixing	10098
Ġbullet	10098
286	10097
Ġexercises	10097
gmail	10096
eurs	10096
Ġputative	10093
lx	10090
098	10089
jquery	10088
Ġdam	10088
Ġaccepting	10088
LAN	10087
Ġthumb	10086
astro	10085
Vo	10081
anas	10080
1979	10080
Ġzones	10080
ĠDeath	10080
Ġroyal	10079
Ġfears	10078
Ġranks	10076
Ġimplicit	10076
Ġfeaturing	10075
Ġreproductive	10074
ĠBody	10074
Ġ07	10073
third	10071
895	10071
712	10070
Green	10069
-[	10069
Ġinterfaces	10068
Ġadhesive	10068
oba	10067
Ġwishes	10063
Ġasymptotic	10062
proj	10058
Ġdecree	10058
502	10057
Ġhunting	10057
TZ	10054
Ġportable	10053
Ġdemanded	10053
Ġrestrict	10052
ĠYES	10050
ĠBad	10050
1004	10049
Ġnotable	10049
Ġgaps	10049
924	10046
serial	10045
ilation	10040
toggle	10037
generation	10037
Ġnotification	10037
Ġhar	10037
Ġgri	10037
ĠIranian	10037
Ġtrips	10036
Âĳ	10035
Though	10035
English	10035
Ġforgotten	10035
ĠRoy	10035
Ġdeputy	10033
662	10032
Ġsophisticated	10032
single	10030
hoo	10030
Ġcompositions	10029
ĠReserve	10029
560	10027
dll	10026
Î½	10024
inic	10024
#.	10023
Ġrabbit	10023
ĠGP	10023
lessness	10022
Ġelect	10022
Html	10021
ĠTC	10021
ĠRan	10020
phosphate	10019
290	10018
ience	10017
ione	10016
FLAG	10014
425	10014
Ġproductive	10013
Ġparadigm	10013
lom	10010
Ġsearches	10009
dig	10008
alg	10008
930	10008
530	10008
261	10008
Ġvis	10008
835	10007
Ġbubble	10007
**:	10006
Ġol	10005
rup	10004
luc	10004
ĠrÃ©	10004
898	10003
Ġjournalist	10001
Visible	9999
Ġbiochemical	9999
sea	9998
gence	9998
]$,	9998
Tri	9997
635	9997
Ġcentered	9996
Ġspreading	9995
EAT	9992
Ġphotograph	9992
Ġmineral	9991
ĠFifth	9991
ĠChen	9989
}|\	9988
QU	9988
944	9985
Ġinvent	9983
Ġpred	9982
ĠML	9982
Encoding	9980
ĠInternal	9980
Ġpound	9978
schemas	9977
Variable	9977
Ġdiscount	9977
Ġcirculation	9975
paper	9973
Mock	9973
Ġvoices	9969
Ġstri	9969
Ġprohibited	9969
Ġpit	9969
Ġpension	9969
Ġarrows	9969
562	9968
feature	9967
504	9967
ĠFla	9964
Men	9963
Ġaccompanying	9962
Va	9959
265	9958
oline	9957
Ġcalculating	9956
Ùĩ	9955
looking	9954
Ġshed	9954
Ġpharmac	9952
Ġneglect	9950
ĠClean	9950
Ġclicking	9949
ĠWARRANTY	9949
ĠBeijing	9947
ĠRobinson	9946
656	9945
ĠArabia	9943
čĊĠĠĠĠĠĠĠĠĠ	9943
HW	9941
ĠJay	9941
Ġciting	9940
Ġassembled	9940
mv	9939
gz	9939
Ġbones	9939
ĠArthur	9939
Term	9938
intestinal	9937
ĠMic	9937
lateral	9935
Ġgently	9935
ĠGov	9935
apple	9934
uated	9933
707	9933
Ġaccord	9933
kis	9932
hering	9932
Ġtemple	9928
Ġadmits	9928
ĠPRO	9928
ä¸º	9926
period	9926
573	9925
odd	9924
Ġclarify	9924
scripts	9923
Ġwx	9923
Ġirregular	9921
LAR	9920
812	9920
Ġequi	9920
}</	9919
Ġpathogenesis	9919
Gl	9917
618	9916
ĠSimple	9916
MER	9915
Ġultrasound	9915
ĠPhilip	9915
easy	9913
344	9913
Ġinfusion	9912
Ġgathering	9910
ĠUC	9909
ĠBall	9909
Ġcotton	9908
Ġdough	9907
agent	9904
VB	9904
Ġpredominantly	9904
Ġharsh	9904
TRUE	9903
...)	9902
Ġoutbreak	9902
ĠDef	9901
Ġteaspoon	9899
Ġsongs	9899
ĠWu	9897
contact	9896
Ġwaited	9896
Ġportfolio	9896
Ġcattle	9896
WH	9893
Ġensemble	9893
ession	9892
Ġnucleotide	9892
Ġlanding	9892
Ġinsult	9892
ĠDead	9891
744	9890
Ġsoccer	9890
iota	9888
ĠActive	9888
DW	9887
Ġquantified	9886
Ġ[âĢ¦]	9886
Â	9885
question	9885
Ġrevenues	9885
Ġrh	9884
Ġguided	9882
506	9881
Ġintegr	9880
respond	9879
Place	9879
existing	9878
Ġstructured	9878
672	9877
Ġphotographs	9877
ĠInd	9877
ĠMotor	9876
dep	9874
accept	9874
Sign	9874
exception	9871
inos	9868
ĠSept	9868
sho	9867
239	9867
Ġimproves	9867
915	9866
iste	9865
936	9865
ĠKennedy	9862
gly	9861
Ġquark	9860
arti	9858
266	9858
encies	9857
Ġconsiders	9857
Transform	9856
Ġvapor	9856
Ġalkyl	9856
Ġwooden	9855
OVE	9854
;<	9854
833	9854
Selector	9853
Ġanalyzing	9853
Ġinjunction	9852
income	9851
725	9851
{(\	9850
516	9850
Ġforecast	9850
559	9849
Ġpressing	9849
Ġskilled	9848
Ġpriest	9847
Having	9845
Ġarterial	9845
lett	9844
Ġgifts	9843
bach	9842
Private	9842
Ġmanufactured	9842
ĠCommerce	9842
patient	9841
ĠLegend	9841
ĠIE	9841
socket	9840
ados	9840
Ġstimulated	9840
Ġseverely	9840
Parse	9839
ĠNK	9838
Blue	9837
Ġsoluble	9837
nÃ©	9836
Ġlogistic	9835
ĠSecret	9835
809	9834
Ġpolls	9834
})}	9833
Ġurged	9832
Ġcollateral	9832
ĠEND	9829
ĠAng	9828
Could	9827
flu	9826
ĠÐº	9826
parser	9825
552	9823
Ġinteractive	9821
Ġspherical	9818
Ġdressed	9818
ĠUs	9818
Ġredirect	9817
Ġoutlet	9817
918	9816
Ġcortical	9816
Ġtypename	9815
ĠEve	9810
Ġmaxim	9809
Ùİ	9808
Ġtrait	9808
Ġdarkness	9807
Ġantioxidant	9807
Ġjavax	9805
ĠAccount	9804
wit	9803
Ġbadly	9803
Ġdisappear	9802
Ġathletic	9802
Ġranged	9801
ãģĮ	9800
070	9800
Ġprisoners	9800
Ġplasmid	9800
ĠSL	9800
ĠPP	9800
568	9799
Ġterminated	9799
Ä	9798
ĠEvidence	9798
ffi	9797
cial	9797
806	9797
Ġimprisonment	9797
}}}}	9796
804	9796
637	9796
ĠGuard	9795
412	9793
ĠKentucky	9793
Ġspecialist	9792
opts	9791
configuration	9789
cca	9789
Ġswe	9789
batch	9788
783	9788
ĠDelhi	9788
mur	9787
273	9787
ĠDer	9786
Ġ220	9786
Ġswitched	9785
Ġeager	9785
Ġpie	9783
789	9782
Ġdashed	9782
ĠHard	9782
+)	9779
Ġdictionary	9779
ĠCreek	9779
ĠStory	9778
686	9777
Ġfriction	9777
}%	9776
740	9776
atus	9775
ĠReact	9774
ĠGraham	9774
Ġbugs	9773
Admin	9772
891	9772
ĠSEC	9772
TCC	9771
Ġinch	9771
processing	9770
Ġpaired	9769
dance	9768
099	9768
Ġvarieties	9768
Ob	9767
nett	9765
Ġwaiver	9765
Ġ1971	9765
meter	9764
Ġsealed	9764
egg	9763
ĠRam	9762
Notes	9761
=""	9761
Ġsectors	9760
ĠAppellee	9760
Feed	9757
ĠNMR	9757
Duration	9756
Ġinability	9756
Ġbuilder	9756
\;\;	9755
ĠTar	9755
Ġlogo	9753
claim	9752
chloro	9749
Ġbladder	9749
Ġacres	9749
æľī	9747
statement	9747
Ġcontractor	9745
Ġrefusal	9744
zie	9743
HG	9743
644	9743
Ġconstituted	9743
Ġcoil	9743
cie	9741
770	9741
="@	9740
Ġcop	9739
dog	9738
ITION	9738
Ġshelter	9738
ĠHot	9735
Ġlin	9734
eze	9733
Living	9731
Ġmanipulation	9731
urge	9728
around	9727
815	9726
518	9726
563	9725
Ġsym	9725
ĠTI	9724
940	9723
Ġprognostic	9723
ĠAdams	9723
Ġdisregard	9722
Ġrot	9721
Ġexpressly	9721
extra	9720
atz	9720
ĠMars	9720
äº	9718
Ġfiltering	9717
Ġembryos	9716
pered	9711
706	9710
Ġpray	9710
TEN	9709
GU	9709
Ġrecurrent	9708
821	9707
ĠMatthew	9707
ĠHarvard	9706
Ġtransistor	9704
ĠStop	9704
moving	9703
Ġuncertain	9702
Ġsoup	9702
Center	9701
Ġincorporate	9701
Ġdeploy	9699
âĪĹ	9698
tec	9696
ĠEN	9696
Ġtransplantation	9695
ĠIO	9695
inge	9694
Statement	9694
Ġsimpl	9693
ĠMedicare	9692
Ġaforementioned	9691
Ġsplitting	9690
416	9688
Ġoverexpression	9688
ĠWang	9688
ĠRs	9688
ĠMobile	9688
Michael	9685
561	9684
ĠTurkish	9684
ĠTraining	9684
ctl	9683
Ġsupplemented	9682
Ġgarage	9682
714	9681
charge	9680
336	9680
Ġsubstituted	9679
Ġdesigner	9679
Ġcookie	9679
824	9678
Ġswing	9678
Consider	9677
ĠIntroduction	9677
592	9675
tailed	9674
andra	9673
Wi	9669
MASK	9669
Ġdozens	9669
Ġseized	9668
Ġmetadata	9668
ĠLD	9668
}\,\	9667
writer	9667
ĠBat	9667
Ð¼	9665
ĠMil	9665
WD	9664
Ġvec	9664
Ġruntime	9663
polymers	9662
505	9662
Ġter	9662
Ġsupervision	9662
Rearrange	9660
Ġdir	9660
1002	9659
Ġsup	9659
Ġmarry	9659
ĠPetitioner	9655
582	9654
ĠCriminal	9654
ĠTGF	9651
'=	9650
ĠCV	9650
937	9648
eson	9647
dependency	9646
IH	9646
ĠNL	9645
ĠItem	9645
("%	9643
736	9642
675	9642
540	9642
Îµ	9639
Âª	9639
trained	9639
algebra	9639
Î¿	9638
clone	9638
asser	9638
Struct	9638
&=\	9636
framework	9635
bmatrix	9635
het	9632
Ġoptimized	9631
Ġfur	9630
Ġcompetent	9629
Ġcompelling	9629
411	9628
Ġessay	9628
hara	9627
arra	9627
0009	9627
Ġunreasonable	9627
Ġcleared	9627
lington	9626
\,{\	9626
414	9626
Ġsim	9626
ĠNelson	9626
ĠCox	9626
*"	9625
ĠGFP	9624
}$]{}	9623
ĠGra	9623
Ġpainting	9622
×ķ	9621
711	9621
285	9621
Ġbeside	9621
ĠPet	9621
inous	9620
Ġton	9620
ĠFront	9620
blo	9619
319	9618
Ġproximal	9616
Ġlifted	9616
Ġdilution	9616
country	9615
Interval	9615
Ġbypass	9615
ĠGordon	9615
Vertex	9614
Ġdefinite	9614
icus	9611
Help	9610
Ġpresumably	9606
Ïģ	9605
Symbol	9605
ĠTree	9605
Ġelectromagnetic	9604
angular	9603
RQ	9603
0000000	9603
ĠEverything	9603
bies	9602
Ġstochastic	9601
Character	9598
Ġensures	9597
ĠRepresentative	9597
|_{	9595
Ġtimeout	9595
Ġrefresh	9595
Ġimplicated	9595
Ġbeating	9595
cause	9592
enabled	9591
REF	9591
Ġproves	9590
March	9589
730	9589
ĠDifferent	9589
ĠCou	9589
ĠBruce	9589
619	9587
FG	9585
Ġintend	9585
ĠGE	9585
Ġquar	9583
team	9582
Ġpathogen	9580
yz	9579
Ġbears	9577
dump	9575
Figures	9575
Ġdissolved	9575
292	9574
Ġmol	9574
832	9573
Ġenvelope	9573
ĠTru	9573
ĠDor	9573
Ð»Ð¸	9572
national	9572
cov	9572
503	9572
289	9572
APP	9571
737	9570
553	9569
Ġmicrobial	9569
Ġfocal	9569
Ġdump	9569
services	9568
fluoro	9568
Ġplanes	9568
Ġclaimant	9568
ĠLegislature	9567
DQ	9566
Ġassumes	9565
SEC	9564
Ġspectroscopy	9564
Ġsignatures	9564
Ġpathological	9563
cond	9562
Ġ1968	9562
317	9561
Ġenjoying	9561
${\	9559
Ġbrains	9558
vian	9556
ĠSydney	9556
ĠTele	9555
Ġconcert	9554
ĠDenver	9553
511	9552
ĠLearning	9552
ĠIRS	9552
DATE	9551
Tx	9550
Inf	9549
Ġdealt	9549
Ġconfigure	9549
046	9547
Ġunfortunately	9547
elif	9546
]{}(	9546
Ġactress	9546
organ	9545
ivation	9545
526	9545
taking	9544
mutex	9544
^{{\	9544
Ġbite	9544
CCA	9543
Ġmill	9542
249	9541
341	9540
Ġjuvenile	9536
Ġvein	9535
ĠLincoln	9533
training	9532
ĠRemember	9531
morph	9530
Ġports	9530
Ġnullptr	9530
microsoft	9529
Ġhierarchy	9529
ĠRomney	9529
ctr	9528
079	9528
Ġdocumentary	9527
Ġvir	9526
Ġmandate	9526
Ġaggregate	9525
Ġgym	9524
Ġbreakdown	9523
Ġ133	9523
Ġagriculture	9522
AQ	9521
ä½	9520
ĠKin	9520
Ġdischarged	9519
ÑģÑĤ	9518
Ġwarnings	9518
ĠSign	9517
Ġurgent	9515
Ġcolored	9515
="{	9514
Ġanalogous	9513
Ġadolescents	9512
Ġcanvas	9511
opp	9510
rified	9508
Events	9506
:#	9506
078	9506
Ġleather	9506
amin	9504
ĠSn	9504
Ġ##	9504
stats	9503
electric	9503
DateTime	9502
ĠProp	9502
Ġdan	9501
775	9499
Ġalternate	9496
story	9494
ĠDow	9494
Boolean	9492
Ġcute	9492
Ġcontributor	9492
Robert	9488
icable	9487
Ġnanoparticles	9486
ĠjQuery	9486
contains	9485
Progress	9485
ĠCap	9485
Ġvague	9483
basic	9482
Ġcoherent	9482
ĠTed	9482
ĠSNPs	9481
848	9478
877	9476
314	9476
ĠBow	9476
Ġemb	9475
Ġhal	9473
RON	9472
phen	9471
pages	9469
issue	9469
334	9469
Ġcoup	9468
eclipse	9464
ĠBea	9464
Ġstadium	9463
VT	9462
ĠBoolean	9461
lesssim	9460
Ġsalad	9460
ĠDatabase	9460
sad	9459
Ġtub	9458
Ġthreatening	9458
iko	9457
332	9457
435	9456
Ġuntreated	9456
reported	9454
amen	9454
ĠResource	9454
Watch	9453
ĠStewart	9453
\}\	9452
Ġworkplace	9452
Ġrum	9452
ĠRh	9452
Runtime	9451
Ġparliament	9451
Ġhr	9451
cey	9450
899	9450
0015	9448
Ġviolate	9447
meric	9446
287	9445
ether	9444
Gre	9444
Ġgenus	9444
ĠBaltimore	9443
ĠBL	9443
oti	9441
790	9441
dark	9440
864	9439
(@	9439
Ġattracted	9439
RET	9438
KY	9438
IONS	9438
065	9438
proc	9436
912	9436
Ġwafer	9436
Ġfibrosis	9433
Ġ144	9433
inst	9432
622	9432
Password	9431
Bit	9431
343	9431
094	9431
ĠBor	9430
ĊĊĠĠĠĠĠĠĠĠĠĠĠĠĠĠ	9430
Ġcoin	9429
jc	9428
ĠRussell	9426
ĠMississippi	9424
ACC	9423
Ġendpoint	9423
ĠAk	9421
ĠWars	9419
rome	9418
Ġmetabolites	9418
Ġintercept	9418
serv	9417
246	9417
ovo	9416
Err	9416
Ġsing	9414
Ġpremature	9414
Ġconform	9414
stylesheet	9413
Ġtwist	9411
Ġopponent	9411
resources	9410
ador	9410
415	9410
Ġsho	9410
Ġdelivering	9410
ĠStadium	9410
598	9409
326	9409
Ġurinary	9409
LN	9408
Ġduct	9408
ĠPhase	9408
diag	9407
[...]
