Ġ	94799280
Ċ	64266476
.	52969702
,	44830148
Ġthe	41280894
Ġof	23444597
Ġand	19919674
to	19915290
a	19273651
-	16585272
s	16372119
Ġin	15214119
t	10234759
_	10142993
1	10003493
Ġis	9737667
)	9578136
"	8792851
Ġ(	8683656
0	8595806
Ġthat	8317646
e	8190349
h	8003840
Ġfor	7578224
2	7200845
:	7110278
*	6889833
(	6846189
d	6623061
ĉ	6497796
r	6310001
l	6134226
\	6074352
Ġon	5871292
Ġwit	5762087
/	5458396
$	5446426
n	5446360
{	5277700
p	5201342
Ġbe	4983190
i	4852729
f	4827324
ĠĠĠĠĠĠĠĠĠĠĠĠĠĠĠĠ	4753720
ĠĠĠĠĠ	4744362
}	4720263
Ġas	4512005
an	4481959
Ġwas	4357490
Ġit	4287048
Ġno	4257702
ĠI	4175315
Ġby	3951910
;	3924854
Ġare	3892437
3	3891639
m	3861398
Ġ=	3857459
u	3810365
Ġ\	3776213
ed	3721771
c	3711432
ing	3646076
Ġ-	3542844
5	3488833
Ġat	3444712
ĠThe	3393653
o	3385571
Ġthis	3370621
Ġfrom	3295494
Ġor	3268306
Ġyou	3263168
âĢĻ	3253454
S	3185362
C	3175310
>	3047144
Ġhave	2950005
's	2849460
4	2777149
+	2676690
Ġ*	2671352
g	2644667
y	2637408
T	2629094
A	2604505
Ġs	2595166
x	2572745
ly	2450864
b	2385633
Ġwe	2375537
?	2353446
k	2327923
Ġcan	2326417
Ġc	2319545
in	2279093
L	2240556
v	2232870
]	2222111
I	2206119
Ġi	2190400
ĠA	2150362
O	2146033
Ġwere	2086929
Â	2065523
re	2055303
w	1992204
."	1991332
="	1981597
Ġwhich	1953299
<	1920269
Ġhas	1903786
).	1889738
[	1882358
6	1871245
ĠĠĠĠĠĠĠĠĠĠĠĠ	1858813
D	1824384
Ġhe	1806729
7	1803410
_{	1796310
Ġall	1787771
th	1780896
et	1779797
The	1776976
Ġbut	1768078
Ġwill	1736640
8	1677361
R	1620434
B	1617441
id	1592462
ĠC	1585400
M	1583648
Ġhis	1571076
Ġone	1566928
Ġthey	1506803
Ġ2	1506661
E	1491162
al	1466301
H	1459555
=	1441822
ł	1428873
9	1427025
10	1420705
Ġd	1413803
Ġtheir	1408297
Ġme	1405541
Ġmore	1397364
^	1375135
Ġso	1360951
en	1344675
Ġe	1336983
âĢĿ	1330085
ma	1325452
P	1319420
'	1314746
Ġre	1308971
Ġ$\	1299065
ĠS	1291716
j	1288772
Ġhad	1279157
ĠB	1267537
Ġother	1267163
Ġbeen	1263599
ĠP	1259838
ar	1253449
st	1251750
),	1249999
č	1240966
N	1236727
);	1234847
Ġalso	1227801
Ġyour	1226304
F	1178713
Ġabout	1175634
Ġout	1169563
ĠL	1168567
Ġwhen	1163083
Ġwould	1158656
{\	1154084
ĠIn	1152318
Ġr	1151806
on	1146497
es	1140467
Ġtime	1136629
't	1133309
Ġthere	1131407
Ġup	1106524
it	1101442
who	1097588
%	1094998
Ġmy	1093744
Ġ3	1085810
Ġdo	1082167
ĠâĢľ	1081372
Ġn	1077610
ow	1071699
ĠĊ	1054167
Ġ<	1053057
Ġ'	1052863
Ġ[	1045676
Ġthan	1039230
G	1023820
te	1017102
our	1010573
ot	989076
Ġinto	982652
Ġits	982596
Ġf	969866
ment	964195
</	963278
---------------	955659
Ġ&	949875
ic	947243
Ã	947070
Ġany	945568
Ġtwo	935404
#	935220
Ġher	927025
Ġsaid	925721
as	912242
W	912066
z	906044
Ġsome	904652
Ġwhat	903791
Ġlike	903541
Ġover	901040
ĠF	893695
Ġnew	893364
Ġthem	890045
is	878926
Ġmay	878610
Ġk	876086
ĠIt	871191
or	862394
Ġun	858609
ĠThis	857414
Ġsuch	846868
Ġfirst	846403
ation	834994
ĠT	834204
Ġthese	829074
K	825158
Ġla	818863
Ġ4	818118
Ġgo	817024
ĠM	805288
--	801137
Ġunder	799743
Ġget	795752
Ġb	793375
Ġcase	785861
//	778693
Ð	777910
Ġuse	776169
type	776090
Ġthen	773684
ĠWe	769340
Ġjust	767142
V	765269
Ġafter	765084
ion	762515
Ġpro	762306
U	760000
Ġbetween	756602
ra	754014
ach	742288
11	735806
ies	729104
Ġu	722985
Ġused	719883
X	715075
Ġcould	714356
Ġwhere	713341
Ġde	712894
",	711996
.,	711677
~	710478
Ġdata	709182
ĠH	707148
Ġmake	705731
ĠG	705455
ĠR	702662
!	688661
In	685789
Ġpeople	685108
}}	680329
Ġm	677748
Ġshe	667327
ĠĠĠĠĠĠĠĠĠĠ	667291
Ġusing	660673
om	656293
16	655176
Ġbecause	654513
ro	650321
ie	644806
Y	639418
ac	633311
Ġpart	632399
Ġneed	632227
q	626076
Ġshould	625164
|	621442
be	616526
Ġwell	615586
Ġ[@	613291
lic	613215
la	612218
ta	610371
ĠK	608744
Ġagain	606449
ame	605404
Ġhow	604201
â	603270
){	602077
15	601900
Ġmost	598705
able	595245
ĠHe	585789
if	583314
Ġhim	582917
Ĳ	575604
">	573184
Ġ6	570264
Ġsee	564615
Ġclass	563292
Ġ|	562834
ĠE	559605
Ġwork	558023
Ġle	558001
tion	557547
Ġeven	557520
ã	553791
ec	551941
ity	550615
ĠU	549796
ĠJ	548402
Ġ8	546188
J	543908
Ġthrough	543689
Ġway	536277
->	536194
the	533432
frac	530842
Ġ@	529341
ge	528623
Ģ	528170
Ġnow	524952
Ġfunction	524889
Q	523636
Ġthose	522083
ch	521074
Ġyears	519909
Ġvery	519907
Ġboth	516569
ĠN	516110
de	516079
å	515022
":	512943
ate	509437
}$	506427
Ġbeing	505713
Ġset	505384
Ġim	504110
](#	503599
Ġ_	502786
Ġmany	498807
Ġback	498738
Ġbefore	496666
Ġnumber	496047
Ġdifferent	494652
Ġg	493655
We	493615
Ġright	490698
all	489915
ent	489895
Ġsta	488577
Ġhere	485903
Ġdon	482953
âĢī	482370
right	480641
Ġam	480558
"}	479108
::	478282
and	476395
Ġy	472625
left	472127
ter	469323
Ġvalue	463186
Ġform	461649
Ġhigh	461276
Ġgood	459487
el	458777
Ġmade	458683
:/	458507
fig	458413
til	457485
[[@	453943
}{	452839
Ġen	451856
ĠO	450880
cal	450536
ģ	450500
ĠâĢĵ	449629
Ġwhile	448261
@	447812
Ġsystem	445361
Ġfound	442026
int	438517
Ġmuch	436021
Ġex	434277
Ġstudy	432225
..	431531
port	430856
Ġwan	430596
su	430439
&	429801
Ġthree	429076
Ġpub	428884
get	425295
Ġpatients	423172
ĠIf	420329
Ġwithout	418466
Ġduring	417386
Ġcourt	417354
Ġnon	416652
at	416137
Ġcells	415923
Ġorder	415881
Ġreturn	415443
Ġ7	415263
ĠFor	412680
$,	412328
ount	410623
What	410115
Ġdoes	407786
io	406759
Ġthink	405578
Ġend	405548
,"	405288
Ġcon	405256
Ġname	403898
ph	402221
rt	401862
Ġsecond	400664
°	400593
Ġyear	398597
age	398577
his	397805
est	397451
("	396686
Ġdown	395770
',	394421
Ġ:	394291
Ġ9	394291
\]	392184
Ġh	391502
eg	388300
use	387799
ide	387541
na	387342
Ġgroup	384986
It	384404
lin	384317
$.	383417
ial	381145
Ġlong	379777
os	377995
000	377644
name	377425
Ġtest	377230
Ġtake	375000
Ġid	374590
Ġmust	374061
Ġstill	370877
ve	370733
ever	370470
ul	369178
um	368901
ib	367876
19	367869
ir	366714
oc	366518
æ	366085
ad	365613
Ġinformation	363925
ĠBut	363548
Ġ,	362682
^{	359932
Ġtype	359850
Ġday	358250
Ĥ	358149
20	358127
100	357906
Ġpre	356384
ive	355702
Ġreport	355521
Ġprocess	353479
âĢľ	353098
ĠV	352041
Ġpoint	351796
32	350919
op	349790
ĠAs	347655
ist	347064
Ġper	347004
Ġsh	346927
Ġresults	346596
alpha	345336
01	345224
Ġcontrol	344382
ig	343455
Ġoff	342685
)$	341898
();	341803
Ġfollowing	340270
ice	340151
###	338558
Ġfind	336779
Ġlife	332780
Ī	331199
Ġresult	329305
'm	328686
Ġwithin	327944
Z	326686
ĠNo	326546
Ġsince	326228
tter	325863
ĠYou	325663
Ġaround	323379
Ġsm	322218
ĠĠĠĠĠĠĠĠĠ	319729
ke	318637
18	317825
Ġmodel	317420
ga	317144
Ġanother	314060
âĢĵ	313626
ĠAnd	313020
Ġtreat	312999
CR	312830
mu	312403
gin	311936
un	311677
Ġline	309995
ess	309610
ey	309606
text	309341
}(	308996
ence	308844
Ġown	308813
eq	308557
Ġgreat	307168
Ġfield	306305
em	305700
var	305244
Ġexample	304382
Ġpr	303865
ry	303649
¾	303347
set	303267
he	302965
Ġincluding	302495
]\].	302379
,\	301001
You	300694
Ġsel	300307
Ġtoo	300188
Ġcondition	299930
Ġhelp	298979
To	298796
Ġevery	298796
Ġmight	298379
Ġgiven	298137
Ġcell	297864
Ġquestion	296788
Ġshow	296128
pack	294836
Ġreally	294662
Ġworld	293815
val	293353
nd	292964
Ġsay	292147
ĠSo	291860
ĠHowever	291708
Ġet	291167
uc	290887
man	290729
Ġ20	290722
ization	290529
ai	289403
tu	289365
ĠThey	289332
ĠW	289199
Ġ{#	288781
Ġ$$\	288010
Ġfile	287192
Ġpresent	286637
're	286247
Ġbased	285408
21	285341
Ġbl	285091
Ġstar	284503
}_{	284156
mma	284108
Ġcomp	283840
Ġsupport	283157
})	282800
Ġread	281947
Ġless	281693
for	281685
Ġhome	281346
Ġreal	281290
ers	280738
ay	280518
ĠTo	280422
Ġ#	280134
Ġsize	279733
Ġman	279125
Ñ	279106
Ġanalysis	277438
sp	276936
Ġbest	276029
ize	275032
Ġmethod	274511
ĠâĢĶ	274348
Ġnext	274169
Ġevidence	273928
Ġ*/	273537
17	272979
No	272524
hat	272514
âĢĶ	272165
Ġsomething	272139
Ġwhether	269751
Ġchange	269749
ient	269488
30	269264
¼	268331
Ġleft	268149
Ġpur	266713
ans	266576
return	264415
Ġapp	263725
ĠNew	263309
label	263305
data	263212
ory	262951
As	262593
½	262440
Ġfact	262436
Ġconst	261344
Ġdis	261322
of	261253
ER	260900
Ġplace	260437
ĠThere	260391
ĠWhat	260182
ĠRe	259684
25	259625
Ġpower	259466
ĠX	259266
rs	259209
Ġvo	258480
Ġfew	257985
ts	257964
¸	257812
Ġlaw	257360
Ġ19	257291
Ġabove	256694
ĥ	256652
div	255644
Ġcome	255249
mathbb	254707
Ġlevel	254417
Ġhan	254070
iv	253960
02	253819
Ġwater	253502
ure	253454
04	253201
Ġtrue	252873
Ġinter	252074
ĠSt	251129
td	251004
Ġgot	250662
/*	249833
Ġdue	248872
Ġleast	248732
Ġ18	248707
Ġprote	248473
ting	248270
Ġlittle	248207
Ġpossible	247686
da	247580
Ġ</	247577
Ġmain	246919
Ġthings	245929
Ġproblem	245467
Ġposition	245251
Ġmember	245075
igma	244744
ole	244645
Ġlow	244492
ary	242707
Ġeffect	242471
Ĺ	241263
Ġhum	240589
ine	239721
Ġlook	239260
Ġred	238061
min	237571
ĳ	236965
Ġhaving	236271
à	236242
Ġgive	236139
Ġdays	236069
Cat	235778
On	235717
Ġshown	235631
Ġview	235483
!"	234720
Ġcommon	234673
ical	234489
br	234479
Ġfurther	234442
Ġgame	234404
('	234145
Ġclaim	233238
Ġtrial	233094
rea	233002
}^{	232823
If	232641
Name	232570
ä	232357
this	232057
Ġcode	231169
Ġperson	230803
$$	230207
Ġlight	230155
aligned	229242
ness	228926
Ġki	228601
ted	228346
ĠShe	228300
Ġhealth	227984
}$$	227032
Ġprovide	227001
Ġexpression	226569
Ġfree	226214
ab	225910
Ġstr	225802
Ġalways	225741
line	225679
sh	225134
Ġmark	224750
Ġgovernment	224257
±	224183
Ġcurrent	224094
Ġsingle	223763
Ġser	223762
Ġeither	223685
Ġfour	223679
Ġsub	223620
Ġob	223411
Ġfi	223317
Ġ)	223222
Ġknown	223121
\[	222720
Ġcalled	222526
time	221708
Type	221648
ĠCourt	221318
ĠThese	221000
ĠState	220887
Ġlet	220638
===============	220454
},	220277
Ġavailable	220102
Ġlocal	220087
ance	220078
ula	220057
Ġfamily	219943
ĠUnited	219224
`	219071
sec	219055
Ġ30	218409
table	218156
Ġ--	218018
mil	217808
ex	217452
Ġperform	217391
ca	217257
23	217192
)}	216914
ough	216863
out	216129
Ġ==	215732
Ġrun	215665
Ġaction	215150
Ġvalues	214196
Ġable	213859
Ġtop	213358
»	213295
Re	213241
Ġchildren	213194
Ġseveral	213062
}_	212749
lose	212029
Ġdescribe	211458
Ġcare	211421
http	210763
ĠThat	210686
ĠBa	210684
Ġhigher	210436
lambda	210418
Ġarea	210145
Ġmaterial	210130
ç	209757
Ġweek	209370
Ġkey	209256
):	209247
've	209105
Ġstudies	209076
Ġtimes	208801
am	208750
Ġteam	208629
Ġtotal	208518
Ġsignal	208078
Ġspace	207518
tor	207417
Ġbody	207264
è	207242
come	207237
Ġsignificant	206979
For	206844
Ġ17	206765
Ġfollow	206337
import	206270
Ġrate	206205
Ġput	206172
40	206147
Ġwhy	205795
Ġgeneral	205341
Ġbig	204887
Ġerror	204438
span	204187
Ġelse	203961
Ġpost	203919
Ġenergy	203856
27	203553
ode	203249
Ġspecific	202706
09	202326
Ġdidn	202117
Ġfull	201933
tes	201741
ty	201699
pm	201280
Ġsolution	201118
ĠStates	201104
ĠDe	200743
24	200268
Ġlove	199981
Ġalready	199252
Ġopen	199079
Ġna	198969
Ġdef	198948
bar	198876
ĠAll	198864
pro	198586
Ġmon	198532
ĠWhen	198351
gram	198144
au	197485
Ġassociated	197352
Ġlevels	196896
64	196457
Ġfinal	196444
Ġz	196294
Ġapproach	196084
ative	196083
hen	195721
gen	195490
Fig	195483
ore	195351
Ġcall	195336
Ġresponse	194602
And	194570
26	194476
Ġbi	193819
Į	193292
Ġ25	193210
Ġlower	192795
Ġwomen	192685
Ġissue	192266
'll	192028
string	191827
Ġdone	191806
mathbf	191789
Ġanti	191753
Ġaway	191688
ĠZ	191639
Ġrequired	191629
Ġsays	191239
];	190972
31	190902
ct	190182
Ġoften	190030
Ġ${\	190023
ĠOn	189867
width	189602
sa	189166
Ġmove	189141
org	189055
ave	189048
Ġstep	188954
ew	188850
Ġ24	188612
Ġterms	188057
Ġactivity	187700
bo	186732
Ġlist	186137
Ġage	185930
Ġgroups	185869
Ġ%	185859
Ġhowever	185788
Ġamong	185787
String	185569
Ġdevelopment	185352
Ġthing	185262
Ġsure	185169
Ġold	185140
_\	185129
28	185067
âĢ¦	184664
Ġfar	184638
Ġlater	183816
Ġperiod	183766
Ġturn	183654
35	183549
Ġ=>	183268
Ġcourse	182869
ls	182747
Ġtold	182087
Ķ	181960
Ġthough	181635
Ġ`	181118
ull	181068
go	180881
Ġcompared	180863
Ġresp	180028
icular	179970
Ġresearch	179914
duc	179722
Ġalong	179637
Ġ50	179438
xi	179359
001	179206
Ġworking	179174
Ĵ	179086
Ġprovided	179086
Ġmaking	179086
]\]	179038
Ġq	178953
How	178907
ĠAt	178905
Ġplay	178749
ism	178685
Ġinclude	177832
Ġmod	177410
Ġhard	177275
Ġterm	177256
º	177217
Ġupon	177059
Ġrisk	176323
Ġdoesn	176203
^{\	175819
Ġel	175762
ous	175681
Ġpotential	175596
ĠLi	175453
Ġaccord	175360
Ġrange	174842
Ġsection	174830
But	174726
ran	174718
*******	174591
Ġincrease	174316
Ġeffects	174144
Ġseen	173842
ized	173635
Ġact	173345
Ġchanges	173220
Ġaddition	173110
vice	173060
Ġkeep	172913
ood	172788
Ġbase	172732
Ġstructure	172703
Ġsource	172625
]).	172571
sel	172554
Ġimage	172429
33	172126
There	172115
ral	171632
act	171430
Ġ([	171385
Ġtogether	171384
Ġbr	171308
Ġbusiness	171201
Ġ([@	171172
Ġhead	170396
Ġ--------------	170301
Ġproperty	170139
Ġincreased	169928
Ġschool	169759
mar	169744
Ġmultiple	169190
Ġfactors	169038
80	169035
ĠâĢĺ	168986
Ġobserved	168251
Ġrelease	167932
ĠSee	167868
ns	167810
Ġpat	167693
Ġdisease	167598
Ġcomplex	167589
Ġcountry	167524
html	167426
Ġthird	167292
Ġshort	167257
Ġspec	167133
ten	166873
Ġcap	166702
ĠUniversity	166528
Id	166378
ble	166175
Ġmonths	166077
60	166042
ba	165785
ivate	165606
45	165521
hi	165332
Ġnormal	165309
Ġdoing	165243
Ġearly	164928
Ġproject	164873
ag	164849
ĠAn	164831
Ġuser	164698
Ġpositive	164388
class	164237
90	164105
Ġadd	163941
sy	163938
Ġcreate	163926
ud	163804
=\	163463
value	163308
List	163110
Ġdefendant	162460
ck	162340
Ġtry	162196
str	161920
\_	161409
sqrt	161297
ook	160967
Ġactually	160928
by	160624
ian	160529
41	160438
Ġcompany	160432
Ġcomm	160409
Ġpoints	160266
Ġthought	159954
Ġtrans	159779
Ġversion	159573
08	159417
Ġsurface	159187
Ġcar	158984
Ġacross	158969
rn	158548
Ġweb	158513
Data	158218
{{	157598
put	157572
Ġcontent	157568
'd	157546
ason	157465
Ã©	157366
oo	157301
Ġrather	156928
rho	156894
Ġpage	156882
Ġonce	156748
size	156333
)/	156218
delta	156155
Ġstring	155921
temp	155858
Ġcame	155856
Ġmatter	155810
Ġpe	155587
Ġfive	155530
Ġlikely	155493
Ġreview	155099
06	154910
Ġshows	154885
Ġfactor	154810
Ġmar	154706
Ġshowed	154440
}^	154348
Ġbelow	154304
ight	154267
Ġfalse	154217
ħ	154141
Ġwar	154040
Ġroom	154013
ĠAmerican	153966
Ġclear	153916
Ġ$(	153914
Ġfeel	153842
Ġmanage	153835
Ġpar	153825
Ġmillion	153699
Ġ>	153366
¿	153319
Ġpast	153305
ili	153141
Ġsystems	153136
Is	153097
Ġpaper	153045
¯	153027
Ġsocial	152937
ED	152655
Ġsent	152592
ĠGod	152501
Ġcause	152149
Ġmen	152120
Ġsite	152012
Ġfuture	152008
Ġobtained	151733
Ġseason	151653
Ġtook	151550
pose	151280
¹	150945
.)	150920
®	150892
Dr	150701
ĠFig	150665
Ġstandard	150499
ally	150451
dia	150049
Ġ(*	149975
Ġvarious	149924
Ġwhole	149849
Ġever	149739
Ġcancer	149624
Ġapplication	149510
Ġexperience	149445
unity	149327
tic	149129
Ø	149124
')	149090
Ġtaken	148481
36	148392
ver	148218
ax	148158
Ġconsidered	148090
ning	148074
Ġadded	147967
§	147955
eb	147953
Ġrelated	147787
]{}	147763
theta	147705
^{-	147674
Ħ	147671
75	147378
AL	147291
29	147259
ĠOne	147187
ves	147184
Ġplan	147184
Ġbit	147100
ring	147086
Ġass	146878
ĠY	146815
per	146135
Ġdefined	146069
ij	146035
partial	146001
ĠQ	145912
Figure	145781
Ń	145701
70	145670
Ġsum	145445
¨	145162
34	145126
func	145066
pay	145011
Ġaccess	144975
ĠIs	144971
Ġbelieve	144970
");	144640
SE	144417
Ġface	144368
")	144184
ķ	143865
IT	143791
95	143650
ĠThen	143545
ward	143522
way	143293
ho	143040
tau	142975
ah	142972
Ġblood	142915
oot	142711
}{\	142709
Ġdesign	142630
Ġmajor	142556
Ġstates	142454
Ġminutes	142402
ĠMi	142378
Ġwent	142369
Ġproduct	142287
*)	142264
Ġmin	142254
Ġhouse	142246
ka	142192
times	142083
ob	141742
Ġdecision	141331
Ġindividual	141228
ĭ	141150
ier	141117
į	140936
ĠDo	140934
Ġwon	140886
ling	140798
omega	140342
self	140297
bl	140071
Ġtex	139906
cdot	139826
Ġcheck	139805
let	139797
](	139760
Ġtrying	139618
Ġdevice	139561
Ġincluded	139484
fter	139403
pen	139220
Ġph	139027
Ġprov	139002
js	138816
Ġnight	138733
tyle	138698
include	138573
38	138560
od	138541
Ġtoday	138507
Ġenvironment	138452
Ġremain	138371
ak	138370
Ãĥ	138362
¥	138342
Ù	138216
37	138200
96	138084
Ġrespectively	137933
par	137908
ated	137752
Ġregion	137739
ÂĤ	137520
ı	137490
],[@	137187
ĠCh	137135
Ġreceived	137058
Ġadditional	136638
Ġsimple	136427
ear	136415
Ġvia	136399
Ļ	136251
Ġcity	136214
ľ	136169
Ġanything	136162
Ġsignificantly	136159
Ġpercent	135750
stand	135731
ams	135717
Ġchild	135642
ria	135570
Ġcertain	135543
fe	135490
Ġsuper	135434
ĠMe	135405
55	135399
Ġsepar	135254
Ðµ	135131
ĠÂ§	135106
39	135039
Ġhalf	135029
+\	135027
Ġevent	134901
Ġtax	134856
Ġgrowth	134848
Ġem	134626
loss	134547
Ġtel	134339
loc	134336
Ġneeds	134246
Ġasked	134165
93	134148
ĠUS	134098
Ġarticle	134026
51	133967
44	133768
ĩ	133762
date	133720
Ġdeath	133652
ds	133562
ample	133448
71	133448
Ġgetting	133403
ĠDu	133397
Ġden	133172
²	133077
Ġmot	133048
Ġhistory	132935
Ġprior	132823
Ġ21	132159
Ġneg	132041
Ġcross	131991
Ġlooking	131884
Ġfilm	131795
ven	131452
Ġdifference	131371
rl	131003
Ġmethods	130949
ĠMr	130905
Ġparty	130896
Ġseries	130856
Ġhref	130750
Ġperformance	130690
Ġproblems	130343
pected	130342
ding	130229
Ġheart	130063
based	129910
AR	129851
TA	129772
Ġthus	129745
Ġrecord	129677
$-	129653
!=	129651
Ġinvolved	129469
Ġissues	129465
62	129354
Ġtarget	129323
View	129306
Ġad	129292
Pro	129270
Ġalmost	129196
Ġnetwork	129143
Ġnothing	128900
tive	128882
/**	128834
Ġprevious	128830
IC	128811
account	128803
Ġhours	128746
infty	128706
eu	128692
à¤	128675
Gr	128643
Ġcost	128580
Ġtherefore	128542
49	128514
year	128495
Ġservices	128413
RE	128411
99	128337
ĠThu	128292
Ġcomment	128122
ĠDi	128045
Ġfocus	127953
^\	127939
IS	127800
Ġpolice	127778
col	127686
Ġtri	127574
ï	127549
Ġheld	127436
ĠCon	127406
Ġgene	127365
Ġconsider	127243
Ġmass	127210
Ġpopulation	126914
Ġ...	126874
Ġinstead	126820
é	126768
ating	126635
Ġweight	126613
Ġphysical	126518
add	126465
´	126417
https	126413
ock	126045
94	125643
Ġrecent	125638
Ġbegin	125546
Ġproduction	125463
Ġseems	125130
Ġlines	125110
AS	124976
Ga	124867
Ġlive	124817
ify	124592
91	124559
Ġ200	124460
Ġcomplete	124115
Ġsix	124074
Ĩ	124027
like	124009
Ġjob	123913
hy	123911
vin	123830
__	123820
46	123814
Value	123738
ys	123737
pos	123595
uir	123558
ger	123510
ze	123304
Ġcomes	123299
Ġdevelop	123215
Ġstudents	123150
edge	123092
Ġstory	122736
file	122609
Ġquality	122504
eal	122488
Ġtable	122447
fic	122366
Ġsomeone	122366
ĠTHE	122240
All	121984
73	121923
ĠInc	121914
Ġtaking	121821
Ġ60	121809
ite	121804
Ġmodels	121791
ĠBy	121785
ule	121628
app	121563
Ġmind	121554
Ġair	121537
Ġstarted	121412
Ġwrite	121397
Ġpolicy	121276
ĠYork	121223
Ġelement	121142
Ġlength	121100
Ġmicro	121080
ĠNor	121026
*,	120934
ext	120925
list	120887
Ġprovides	120806
Ġ22	120724
Ġdistribution	120602
Ġstrong	120586
Ġitself	120518
}}\	120327
fo	120305
Ġnecessary	120260
48	120142
ī	120069
yl	119969
ĠNational	119951
ui	119920
Ġ},	119807
Ġdecide	119591
cle	119499
ration	119453
Ġaverage	119335
á	119327
cre	119136
Ġcorrespond	119111
../	118999
Ġ40	118719
-\	118638
public	118605
Get	118548
Ġoriginal	118491
Ġpath	118430
Ġrights	118353
$\	118323
define	118112
${	118071
Ġprobably	118071
px	118060
Ġpick	118058
ĠTrump	117974
Ġque	117786
Ġstore	117718
ĠMy	117705
Ġphase	117633
TI	117508
NG	117398
ĠLicense	117386
py	117316
Ġsequ	117284
see	117257
¤	117180
param	116771
Delta	116769
owl	116693
Ġexact	116664
Ġworks	116657
Ġshall	116477
Ġ||	116415
DE	116402
Ġfunctions	116255
Ġsimply	116172
Ġproducts	116162
Ġorgan	116133
![	116036
Ġmedical	115963
Ġsense	115770
200	115762
ĠOF	115757
Ġwalk	115658
Ġmulti	115599
Ġespecially	115544
An	115536
Ġtemperature	115386
son	115358
Ġwords	115277
Ġaffect	115241
over	115209
)*	115119
ĠWa	115069
Ġdate	114710
Ġcolor	114542
ler	114497
aw	114486
Ġpersonal	114326
Ġproperties	114318
Ġinside	114317
option	114156
Ġgas	114029
ª	113788
Ġstatic	113658
Ġaddress	113638
Ġoutside	113602
Ġnear	113570
Ġpressure	113481
Ġpresence	113481
Ġdirect	113468
old	113437
Ġyoung	113421
Ġdetermined	113232
($	113225
LE	113172
cm	113013
ĠCity	113000
003	112933
ĠLa	112848
sub	112744
item	112575
ek	112523
Ġrest	112511
Ġhappen	112452
Ġevents	112413
Ġgenes	112399
With	112391
));	112174
My	112163
ĠWith	111978
Ġpolitical	111939
arra	111874
Ġreceive	111858
Ġmode	111781
Ð¸	111735
Ġmoment	111270
mon	111250
Ġeffective	111142
Ġwhite	111087
Ġtypes	110967
ya	110814
Ġ28	110719
Ġprimary	110715
Ġlanguage	110645
ĠCD	110558
Ġstop	110543
Ġ^	110414
Ġeverything	110377
Ġsubject	110314
back	110274
AC	110217
Ġexplain	110203
Ġarray	110047
ov	109695
Ġreq	109595
Ġlonger	109589
Ġfeatures	109551
ĠÂ±	109411
Ġfront	109402
Ġbreak	109391
Ġoutput	109390
52	109343
Ġdetermine	109253
Ł	109224
65	109148
ber	109144
ali	109092
66	109082
Ġindex	108988
])	108903
Ġdirection	108895
Ġcorrect	108877
Ġpresented	108842
Ġeasy	108828
ping	108753
Ġago	108753
Ġ23	108681
script	108619
Ġquite	108531
site	108470
Ġidentified	108437
Ġjudgment	108433
lit	108395
Ġprocedure	108323
Ġsign	108306
Ġcreated	108300
Ġse	108196
ped	108114
Ġrunning	108107
Ġsamples	107978
Ġbad	107837
Ġbasis	107797
ath	107671
path	107518
Ġisn	107494
}$,	107488
Ġprim	107329
Object	107327
ain	107307
ĠAct	107287
Ġwanted	107235
tt	107212
Ġstatus	107151
Ġparameters	107068
Ġfollows	106856
const	106764
Ġstatement	106657
ass	106625
Ġlimit	106518
term	106429
Âĥ	106353
42	106347
ĠPa	106345
Ġground	106240
Ġareas	106225
Ġ&&	106210
ana	106162
lt	106018
Î	105644
ando	105497
ĠJohn	105403
Ġelements	105331
68	105204
Ġweeks	105170
Ġinitial	105127
ĠKo	105123
}(\	105077
Ġdirectly	105036
hea	105008
rol	104950
Ġnotice	104855
53	104729
order	104557
Ġcharacter	104555
Ġwind	104467
Text	104302
ĠString	104284
Ġrelationship	104149
Ġmont	104071
Ġreplace	104028
92	103878
ĸ	103833
ÑĤ	103822
Ġreference	103792
Ġmemory	103751
Ġtraining	103677
Ġgames	103516
from	103415
Ġvideo	103379
Ġtheory	103351
Ġsearch	103119
Ġtumor	102970
Ġrequest	102967
rangle	102917
At	102911
wide	102899
den	102838
002	102789
ging	102719
void	102658
Ġlegal	102619
hind	102607
";	102604
¡	102500
Ġ(\[	102288
Ġlayer	102240
hr	102213
Ġnational	101929
Ġnews	101621
body	101564
ĠDNA	101536
Ġbuilding	101505
PA	101465
dy	101446
OS	101396
Ġforce	101343
def	101291
avoid	101224
Ġmice	101111
Ġsitu	101020
Ġgreater	100965
Ġmap	100945
ument	100913
ĠPresident	100828
Ġapplied	100810
Ġdifficult	100793
sion	100751
Ġcontext	100721
Ġauto	100624
Ġlimited	100560
ĠSuppose	100484
Ġprob	100466
ĠIN	100284
43	100167
Ġpreviously	100145
Ġdeal	100123
Ġdistrict	99965
ible	99945
Ġwrong	99919
Ġincludes	99852
Ġ45	99850
Ġreduced	99846
Ġdrug	99620
¬	99572
\,	99566
ĠTherefore	99477
Ġsound	99472
Ġsaw	99457
Un	99440
Ġability	99412
arn	99389
Ġinvention	99298
Ġestimate	99256
AA	99229
61	99194
Ġdiscus	99157
with	99155
ĠCO	99058
ish	98916
Ġcontinue	98865
Ġword	98854
Ġdeveloped	98684
////	98540
max	98521
Ġoil	98431
Ġpract	98405
Ġtitle	98371
length	98353
:**	98277
·	98272
Ġindependent	98234
Ġmessage	98067
Ġcut	98012
Ġimpact	97984
47	97926
Ġland	97924
}$.	97919
().	97884
pain	97833
ick	97818
Ġbuild	97805
Ġnote	97803
Ġsoftware	97530
Ġcontact	97527
By	97445
ification	97291
File	97283
58	97277
Ġvi	97247
Key	97116
Ġetc	96984
pect	96972
ok	96964
har	96876
Ġunit	96840
Ġplayers	96617
Ġnumbers	96607
Ġwritten	96508
89	96454
Ġ2012	96420
Ġcoming	96383
Ġparticularly	96075
ren	96041
ator	96037
Ġcontract	96022
Set	95963
ĠCounty	95897
ense	95829
try	95819
hic	95802
Ġlate	95595
Ġactive	95585
ĠII	95556
¦	95550
Ġfun	95508
Ba	95443
Ġ/>	95376
con	95375
Ġcom	95352
Ġobtain	95346
79	95320
member	95279
Ġsecurity	95234
Use	95221
ĠSince	95221
uce	95136
ĠHis	95023
".	94961
Ġnature	94956
Ġhope	94937
Ex	94823
Ġart	94797
jo	94667
base	94527
Ġ26	94489
Ġbar	94392
ser	94330
fort	94326
Ġ[*	94304
field	94233
ĠWhile	94223
ĠMA	94188
Ġspecies	93974
Ġmis	93968
Ġusually	93965
Ġentire	93956
Ġdouble	93888
Ġrates	93634
java	93628
Ġdifferences	93621
Ġrule	93582
US	93553
³	93546
(-	93508
Ġliving	93504
onent	93472
day	93433
Ġhost	93426
Ġoffice	93399
Ġalthough	93293
Ġanswer	93227
Ġ2013	93166
Ġwhose	93163
Ġhttp	93084
state	93076
ons	93070
88	93066
Ġhold	92983
Ġtried	92920
hil	92910
ĠHere	92865
dd	92855
ace	92852
Ġglobal	92773
Ġpet	92706
star	92698
Ġargument	92695
Ġonline	92651
ko	92608
ĠWorld	92606
Ġ2016	92483
Ġdefault	92349
top	92326
Cont	92320
ĠSome	92214
ome	92201
Ġgenerally	92190
Ġlost	92168
Ġwall	92115
ret	92083
EN	92063
Ġrecently	92063
Ġstay	92042
rate	92037
ĠIS	92013
PR	92006
light	91983
gn	91942
ond	91903
arm	91821
ĠGeneral	91803
Suppose	91745
85	91698
Ġ2014	91665
ito	91587
Ġplaintiff	91497
Ġanyone	91494
Ġfederal	91393
)-	91383
land	91368
Ġtakes	91312
ost	91300
Ġproposed	91241
mega	91217
ĠAmerica	91211
izing	91196
ĠUn	91186
ĠHouse	91167
ĠSouth	91150
Ã¡	91143
Error	91088
Ġagreement	91062
ĠPhys	91054
ĠMar	90914
ĠMarch	90807
xed	90806
Ġsaying	90672
rb	90649
ern	90504
Ġblock	90501
Ġdensity	90497
Ġscale	90480
xe	90452
lar	90397
Ġbrain	90317
cont	90233
Ġtreated	90183
db	90163
ume	90080
Ġcenter	90023
oop	90019
Ġ__	90008
Ġhimself	89846
Ġadult	89804
ĠDepart	89795
Ġextra	89733
Ġstage	89592
ley	89566
ĠChina	89512
Ġ80	89498
Ġconfig	89481
ĺ	89473
She	89471
ĠAdd	89224
78	89208
af	88954
LA	88876
ET	88861
ĠFirst	88746
Ġcharge	88736
Ġbecame	88709
ĠNot	88683
epsilon	88675
âĢĥ	88647
×	88569
Ġ2015	88500
Ġpretty	88496
Ġrepresent	88441
Ġcollect	88377
Ġrelative	88373
Ġways	88344
Ĭ	88284
}}$	88278
ĠSa	88257
App	88059
win	88033
Ġprice	87999
Ä	87891
Ġfailed	87873
Ġoffer	87870
Ġfit	87866
men	87809
Ġpublished	87772
Ġtalk	87765
Res	87721
Ľ	87687
hip	87660
ors	87627
IR	87495
lib	87454
ĠPA	87420
Ġmeasurement	87342
varepsilon	87230
ker	87177
Ġhighly	87164
Ġwoman	87160
Ġfire	87029
fs	86981
Ġfindings	86904
du	86892
83	86863
RA	86833
Ġderivative	86822
Ġplease	86786
Ġ[**	86730
ata	86709
Ġallowed	86626
side	86566
ĠRo	86516
97	86514
ĠCir	86483
Ġdegree	86450
image	86446
ĠHow	86446
..."	86365
ĠSen	86275
ft	86264
IP	86242
Ġselected	86212
duced	86186
Ġgave	86178
67	86106
Ġlarger	85993
Ġmeasured	85969
Ġdesigned	85969
ĠHeal	85951
Ġattack	85944
Ġnode	85835
Ġhandle	85786
Ġjury	85778
ional	85770
ept	85668
Ġoperation	85649
Ġfine	85636
ium	85635
AD	85585
Ġdetails	85523
Ġinstance	85495
Ġindividuals	85405
lia	85373
Ġwasn	85300
Ġeveryone	85294
Ġportion	85195
Ġcentral	85154
Ġimages	85076
fa	85061
ĠOR	85052
ron	85041
Ġcurrently	85038
Ġcaused	85007
Ġalone	84985
book	84886
Mo	84876
color	84803
Ġreach	84787
lev	84743
Ġfriends	84732
Item	84727
Ġ2011	84673
ank	84668
Ġproteins	84630
}=	84624
ĠOr	84455
tend	84442
Ġlocation	84431
EA	84396
Test	84342
ĠJune	84328
Ġgives	84288
Ġbehavior	84270
Ġask	84249
Ġeyes	84237
Ġ:=	84148
Ġconfirm	84130
Ġcomponents	84087
.'	84077
Ġ2010	84045
Ġlac	83976
.[	83908
Ġvis	83780
Ġuseful	83780
case	83740
ĠNow	83730
Ġfiles	83707
abil	83677
Ġchoice	83667
Ġ);	83646
Ġmatrix	83640
Ġrequires	83568
Ġdel	83539
ĠAlthough	83518
Ġsuccess	83515
Ġcombination	83491
Ġbackground	83443
Ġ31	83429
operator	83428
Ġflu	83397
Ġattention	83390
Ġappropriate	83337
static	83182
Ġsuit	83181
Ġcompanies	83157
Ġbegan	83019
Ġknew	83004
Ġ?	82914
Ġpi	82910
iation	82801
='	82798
Ġwo	82727
198	82711
Ġleading	82698
\].	82632
87	82630
.\	82555
Ġ2017	82496
off	82447
Ġmale	82424
Ġpass	82419
art	82372
Ġhyper	82346
Ġ27	82282
Ġround	82270
Ġfailure	82222
(),	82204
Ġfinancial	82111
Ġfrequency	82079
iving	81994
Ġusers	81970
Ġunique	81929
Ġframe	81894
Ġeducation	81862
}}^	81856
*/	81805
Ġratio	81724
ĠSyst	81710
omy	81649
Ġmother	81586
Ġdisplay	81578
Ġten	81573
Ġ70	81548
dir	81533
Ġtechnology	81517
Ġ///	81456
Ġoptions	81444
ks	81329
Ġcontains	81262
ĠChi	81096
Ġdivided	81078
map	80996
Ġcompletely	80996
Ġincreasing	80963
iding	80929
ĠWest	80873
|\	80834
ĠSan	80797
Af	80781
Ġcosts	80759
Ġeconomic	80728
rin	80672
Ġpattern	80665
vest	80639
74	80566
Ġmagnet	80557
Ġseem	80492
Ġpor	80488
Ġhearing	80407
Ġparts	80372
Ġindustry	80280
Ġwin	80243
Ġconnection	80219
Ġparties	80211
¶	80204
index	80150
Ġ48	80113
Ġsuggest	80096
Ġgoal	80048
Ġapply	80023
ĠJanuary	79950
Ġdistance	79937
ĠApril	79901
Ġearlier	79883
From	79830
king	79768
*.	79730
vis	79679
Ġexpressed	79561
ĠDa	79536
Ġson	79503
Ġheat	79494
ME	79469
Ġpresident	79457
tan	79396
Ġ($	79375
rightarrow	79371
amb	79367
Ġhit	79366
title	79348
());	79344
Ġ;	79322
AM	79320
varphi	79311
Ġserver	79296
ĠJuly	79239
Ġsupported	79223
Ġgenerated	79167
gl	79123
Ġstated	79074
Ġestablished	79071
Ġspeed	79062
They	79057
ÂłĠ	79054
Ġallows	79037
oun	79019
view	78987
Ġdevices	78943
Ġequal	78919
ĠGo	78838
._	78803
pol	78784
Of	78779
İ	78768
ŀ	78736
Ġeasily	78722
BA	78671
trans	78651
Ġboard	78598
count	78567
Ġ29	78554
Ġsites	78412
};	78354
Ġcontaining	78313
gh	78308
Ġreasons	78286
77	78281
State	78194
Ġfinding	78053
hu	78033
Ġsoon	77955
font	77896
Ġconsist	77802
Ġmeasure	77744
Ġhighest	77737
Ġcritical	77730
Ġlocated	77706
54	77693
EM	77681
Do	77608
98	77552
Ġ35	77549
Ġ->	77503
Ġcopy	77464
Ġprofessional	77459
Ġactivities	77412
CD	77408
dev	77370
load	77331
oma	77256
Ġassess	77172
Ġ})	77150
Ġfiled	77139
Ġfelt	77092
Ġ32	77067
Exception	77058
PS	77050
Ġones	77014
box	76960
Path	76955
Ġ38	76932
Ġclearly	76885
ny	76788
______	76750
){#	76748
Ġauthors	76735
Ġactual	76699
ĠHer	76663
down	76535
Ġvariable	76479
Ġopinion	76479
Ġ36	76436
)$.	76398
Ġ<<	76358
"/>	76223
iz	76214
Ġcommand	76154
sing	76112
Ġskin	76108
Ġwriting	76011
Ġexcept	76007
âĢ¢	75995
ĠâĪĴ	75969
True	75966
Ġpoo	75957
Ġfair	75955
Ġshowing	75923
ĠAND	75879
oard	75870
Ġbinding	75805
Info	75644
Ġinjury	75634
Ġbrought	75609
Ġchanged	75529
EL	75516
Ġunderstanding	75515
overline	75450
Ġparameter	75402
Ġsmaller	75346
Ġlearning	75295
Ġ42	75233
Ġstaff	75173
Ġexperiments	75170
Ġuses	75152
run	75149
ĠPat	75120
Ġhands	75076
Ġ2008	75064
langle	75060
}^{\	75053
Ġcontrast	75020
Ġimplement	75009
dict	74945
Ġbox	74943
Ġappears	74942
Ġbool	74906
Ġ\<	74902
Ġrules	74864
cli	74856
Ġab	74842
Ġvector	74704
Ġlooks	74666
Ġfast	74653
Ġbeyond	74636
Ġheard	74629
sure	74604
Ġcomputer	74591
Ġdoor	74573
Ġculture	74571
oy	74523
Ġpoly	74521
Ġcampaign	74515
Ġ37	74412
ign	74410
Ġbuilt	74408
ĠId	74379
Ġitems	74368
free	74283
mic	74192
Ġdev	74068
Ġmorning	74058
Ġmatch	74022
ĠCan	73950
');	73901
Ġlooked	73893
RT	73889
ES	73871
Ġturned	73808
Ġreasonable	73767
ĠTO	73747
Ġworked	73725
ĠFe	73677
Ġconstruction	73672
Ġtowards	73659
Ġcouple	73610
ray	73498
cs	73480
Ġdrive	73453
Ġmajority	73436
Ġmeet	73424
ides	73297
Ġ95	73279
Ġtrade	73165
Ġregarding	73159
Ñģ	73132
Ġfall	73125
Ġvariables	73120
group	73063
^{(	73042
ĠFrom	73037
media	72991
ĠCal	72989
ote	72944
Ġexists	72932
ì	72931
write	72918
ĵ	72906
ĠPublic	72884
Ġtherapy	72870
IM	72841
Ġlog	72797
Ġbenefits	72795
Ġfully	72749
Ġformation	72716
Ġimprove	72714
rk	72670
Ġconcentration	72635
Ġtissue	72589
Ï	72561
Ġoccur	72557
ļ	72551
Ġbal	72513
}}(	72512
ĠDistrict	72493
Ġparents	72474
mbo	72466
Ġreports	72452
Ġmilitary	72416
Tim	72415
Class	72364
Ġ2009	72350
Ġresulting	72333
ĠAugust	72230
]^	72220
true	72174
car	72132
Ġfather	72098
Ŀ	72043
des	72012
Ġtask	71976
Ġprevent	71943
0000	71925
cap	71887
Ġindicated	71876
che	71849
Ġinfection	71792
Ġsex	71782
ort	71744
Ġvolume	71729
Ġwrote	71678
Ġmedium	71668
Ġsetting	71648
NA	71605
Ġinteresting	71557
ĠOctober	71544
63	71535
Ġinternal	71515
gres	71409
ld	71294
sim	71201
vert	71186
open	71157
Ġzero	71156
Ġvehicle	71124
Ġplayed	71094
Ġadministration	71049
Ġ(\	71031
IE	70946
nbsp	70895
ĠSeptember	70843
Ġgets	70842
«	70831
Ac	70796
Ġstrength	70785
api	70765
track	70705
vec	70676
Ġtransfer	70664
ĠData	70633
)).	70614
Ġhospital	70613
Ġsolid	70611
ĠDecember	70596
Ġensure	70577
Ġfeature	70566
node	70503
\{	70393
Ġdefine	70390
ural	70367
gle	70328
Ġproof	70306
Ġreaction	70304
TH	70272
Ġ2018	70251
you	70233
ection	70210
Ġlinear	70179
150	70160
Ġapplications	70099
inter	70090
Ġfriend	70089
Ġstarting	70050
Ġplayer	69990
Ġmeeting	69975
Ġthroughout	69868
Ġlives	69863
oat	69855
New	69807
II	69803
Ġparticipants	69800
Ġmaximum	69791
Ġcolumn	69789
inal	69725
ĠObama	69716
Ġnoted	69696
Ġprocesses	69671
Ġdamage	69660
Ġregions	69594
ND	69591
input	69588
vol	69567
Ġconnected	69489
Ġsafety	69446
Ġdomain	69437
./	69430
Com	69389
Ġnor	69373
Ġminim	69356
cul	69335
Ġmet	69319
ama	69306
Ġalternative	69266
bit	69264
Ġinternational	69225
Ġpopul	69214
fin	69210
Ġbenefit	69205
Ġbecomes	69205
Ġsources	69192
even	69140
ource	68970
Ġphone	68966
tal	68961
Ġrevealed	68923
Ġtests	68906
ĠUSA	68891
Ġseven	68886
Ġinteraction	68841
pc	68732
ato	68718
ĠBecause	68686
Ġdeep	68675
uf	68653
Ġonto	68650
nc	68616
which	68592
ĠÃĹ	68511
Exp	68465
Ġbasic	68463
Ġotherwise	68416
ĠEl	68381
Ġcollection	68355
ile	68341
ĠCenter	68277
Ġequation	68230
ĠSection	68230
sm	68221
Ġimmediately	68216
Ġradio	68209
ĠNovember	68195
*-	68187
Ġscore	68106
gs	68084
Ġstand	68041
Ġdes	68018
[^	67981
ĠMoreover	67903
ivation	67883
Ġerr	67873
ĠMore	67852
Ġinfluence	67820
Ġdocument	67794
Ġreduction	67793
Ġactions	67784
Ġrecommend	67683
Ġresistance	67602
Ġopportunity	67588
Ġtoward	67577
cell	67568
Ġbuy	67543
Ġmechanism	67475
Ġgiving	67475
acy	67474
Code	67443
Here	67440
Ġitem	67402
Ġcover	67378
ĠIL	67289
ĠWashington	67281
Ġ\,	67272
iver	67260
ĠCI	67188
ĠOf	67137
Ġregular	67129
call	67105
ade	67040
Ġtesting	67001
Ġfigure	66999
eh	66983
Ġexist	66979
eri	66911
IL	66866
Ġrelatively	66814
False	66730
ĠID	66698
Ġsometimes	66685
Ġforms	66666
[\	66654
Ġ~	66653
Ġgain	66650
geq	66638
)$,	66530
"},	66518
NE	66416
Ġresources	66404
work	66397
ations	66353
Ġquickly	66298
Ġchar	66279
Ġbottom	66233
Ġtool	66207
Ġmiddle	66179
ric	66175
Ġchoose	66170
Ġthinking	66089
Ġeye	66083
Tr	66010
acity	65974
Ġ(**	65966
bold	65941
Ġmyself	65893
Ġ75	65862
Ġremove	65817
Ġge	65810
Ġroad	65809
error	65720
Ġplaying	65713
Ġselection	65669
tim	65657
ĠSh	65649
Ġnearly	65633
Not	65573
Ġcore	65573
Ġclient	65424
Ġmoved	65418
Ġready	65408
Ġdetected	65399
dt	65395
Ġhappened	65390
ĠSchool	65390
Ġagree	65382
lim	65373
Ġsafe	65364
Ġconducted	65362
Ġboy	65347
Ġgreen	65322
())	65306
Ġplant	65306
Ġdatabase	65270
urs	65255
Ġmoving	65234
Ġstation	65174
ĠEm	65165
Ġexisting	65144
Ġobjects	65140
Ġchannel	65135
Ġreflect	65020
]:	65009
wn	64979
:"	64950
Ġ55	64936
del	64915
Ġdaily	64911
Ġfell	64840
tail	64835
sin	64809
related	64781
Ġcalculated	64779
Ġfacts	64745
ose	64692
mis	64679
Ġincome	64663
Ġ((	64641
ĠHigh	64633
point	64626
Ġrace	64625
Ġanimals	64602
err	64581
NC	64547
Event	64547
Ġ39	64487
Ġupper	64475
Ġindicate	64475
)]	64473
EX	64470
Ġtend	64462
ĠEuropean	64446
Ġyourself	64427
Ġtown	64400
known	64394
Ġmeaning	64380
msg	64361
Ġfinally	64348
Ġpan	64340
Ġdemonstrated	64289
En	64277
oh	64263
Ġnearest	64233
((	64195
Node	64089
Ġ52	64081
IA	64022
ĠFO	63985
ĠTable	63956
Ġproto	63954
gest	63945
Ġemail	63935
Ġserious	63909
Ġunits	63880
UN	63835
roid	63795
Ġworth	63787
Ġdefinition	63754
%,	63727
ĠWhite	63721
£	63712
Ġperfect	63692
GA	63675
Go	63658
ĠList	63653
dot	63613
ĠDE	63613
Ġhot	63608
char	63598
},\	63595
can	63531
mark	63521
AI	63512
DS	63487
Ġmg	63426
don	63408
ĠCalifornia	63331
\],	63316
Ġcarried	63316
osing	63298
Ġshape	63291
Ġsufficient	63288
Ġ49	63271
Ġremoved	63257
Ġplaced	63242
Ġmachine	63219
era	63202
Ġmanner	63117
ions	63110
Ġstuff	63104
quad	63046
Ġcontrib	63031
ĠNULL	63012
Ġvariety	62952
Ġsets	62918
Ġargue	62914
)**	62911
Ġwife	62838
Ġhear	62778
ĠPaul	62729
Ġadv	62713
content	62681
Ġwish	62661
|-	62639
)/(-	62620
ĠBar	62601
';	62507
RN	62471
Ġdistributed	62468
Ġoperator	62466
Ġthrow	62464
Map	62422
Ġsend	62375
ĠFebruary	62336
Ġtransition	62290
ĠArt	62212
eat	62209
({	62200
CS	62191
Ġsuggested	62146
Ġ46	62132
Ġ44	62081
Ġsun	61966
Ġwait	61868
Ġnorth	61814
Ġnamed	61814
Ġprograms	61789
mas	61744
lies	61706
Ġ41	61637
Ġworkers	61607
ean	61597
comp	61588
Ġcomparison	61585
Index	61581
Å	61540
-------	61540
Ġhealthy	61528
ged	61526
Ġwatch	61468
Ġincreases	61468
Ġtruth	61441
ĠRev	61441
Color	61413
EE	61398
osis	61360
PI	61334
ĠEx	61331
Ġdetection	61310
Ġscreen	61288
Ġexposure	61274
Image	61267
iden	61256
sf	61169
Ġmaybe	61157
Ġpassed	61113
Ġletters	61098
Ġauthor	61095
Ġpartial	61086
Ġ51	61086
Ġplaces	61051
Ġresponsible	60993
Ġmeasures	60981
ĠTex	60980
Ġdiscussed	60962
parent	60937
ĠGet	60916
Ġletter	60874
Na	60863
ĠIndia	60863
Phi	60839
Ġspin	60835
Ġapproximately	60791
Ġintervention	60788
imony	60783
Or	60733
Ġrefer	60723
Ġ34	60703
Ġedge	60692
Ġinsurance	60688
Ġcharacteristics	60678
Ġsave	60671
Ġsymptoms	60557
Ġ64	60456
ĠMc	60440
","	60398
Ġcircuit	60341
Ġquar	60326
*(	60323
Ġdrugs	60286
Ġbill	60286
Ġstructures	60251
Ġmodern	60203
Ġ65	60177
Ġtalking	60159
BI	60146
TS	60135
ĠTh	60133
IF	60121
SC	60097
ĠWi	60073
Ġessential	60039
ĠResearch	60018
df	59963
Ġcontinued	59963
ĠUK	59851
Ġroute	59759
mid	59737
ĠPC	59715
ĠSch	59667
Ġinvestigation	59664
Pr	59647
Ġeight	59646
Ġtree	59610
using	59568
Ġ]	59535
Ġdimension	59531
Ġhair	59489
Ġreturned	59451
Ġclean	59442
Ġhappy	59441
pn	59337
Ġchallenge	59300
Ġpanel	59259
ĠFurthermore	59247
Ġweak	59163
See	59155
Ġforeign	59148
ming	59137
specific	59110
sco	59062
Ġdrop	59062
IV	59050
zi	59018
Ġwild	58997
config	58939
Î²	58906
Ġparent	58903
Ġrapid	58889
Ġpair	58845
Ġrow	58843
Ġproper	58816
Ġkids	58796
Ġblog	58773
µ	58681
Ġ2000	58671
Ġexercise	58642
Ġdark	58629
cord	58607
ĠMS	58569
Request	58544
IB	58527
Ġliqu	58477
ology	58429
Ġfill	58425
Ġconduct	58417
/(-	58407
tab	58401
ĠSP	58370
Ġinterface	58363
check	58354
Ġbound	58339
Ġmusic	58265
version	58258
Ġload	58242
Ġ56	58230
Ġcouldn	58226
ĠAM	58224
ĠCar	58221
ĠEnglish	58205
ĠNi	58185
RS	58165
ĠMon	58161
Ġ00	58134
Ġmental	58093
Ġandroid	58073
Ġcustom	58067
Ġspent	58045
Ġfavor	58032
Ġ-->	58010
Ġspecifically	58008
rar	57981
Ġplans	57971
Ġ54	57959
Ġbillion	57952
ĠPl	57949
Ġsurgery	57947
Ġcontain	57928
pert	57925
Î±	57922
Ġfamilies	57870
Ġsat	57863
poses	57849
Ġserve	57809
Ġstrategy	57775
Ġnovel	57760
Ġselect	57758
']	57743
page	57721
Ġ(!	57692
ĠCongress	57685
Ġtested	57648
hood	57629
Ġcareer	57589
Ġdead	57585
Ġofficials	57574
ĠInternational	57548
Ġnone	57496
Ġformat	57491
Ġwants	57452
align	57450
Ġrelation	57439
Model	57432
Ġmentioned	57420
ĠCode	57418
ppa	57408
ldots	57342
Ġhole	57336
last	57335
Ġvoice	57325
SD	57267
Ġhuge	57263
Ġ2006	57233
Č	57227
Ġinfo	57213
Ġnil	57167
dar	57153
Ġplus	57114
aring	57059
110	57039
Ġcycle	57013
Ġenter	56986
Ġprepared	56975
Ġ47	56935
tar	56912
Ġ53	56882
Ġofficial	56872
Ġdespite	56863
Ġleads	56847
Ġsleep	56827
©	56776
Ġfemale	56759
Array	56731
Ġstudent	56714
Ġstudied	56647
Int	56638
Ġunless	56630
Calculate	56613
Ġpress	56603
Ġagent	56594
çļĦ	56592
Ġimproved	56572
Ġemploy	56569
AG	56562
Ġnuclear	56547
Ġdescription	56510
Ġenjoy	56506
kg	56503
Ġtransport	56484
Ġtypically	56474
Ġmetal	56458
gar	56442
Ġcombined	56435
Ġ43	56395
style	56347
ake	56347
Ġmm	56318
------	56305
apo	56295
Ġsuccessful	56283
Ġabuse	56279
Ġsurvival	56243
Ġstock	56240
Ġexperimental	56235
fer	56227
Ġgrowing	56204
ĠDon	56196
prime	56183
dom	56175
Ġcontrols	56154
Ġcommunication	56122
Ġvote	56061
ĠInter	56029
object	56022
Ġwave	56011
Ġminimum	55991
Ġcard	55952
ĠNS	55938
Add	55913
din	55858
Ġpiece	55835
Ġneighbor	55798
Ġtrust	55794
Ġkilled	55786
src	55785
BU	55730
Field	55694
ĠAP	55693
Ġ("	55690
Ġpicture	55688
ĠDavid	55684
Ġoptical	55668
ĠBen	55649
ero	55648
Ġjava	55611
Ġpackage	55584
Ġmolecular	55582
Ġguy	55580
ami	55553
Ġchain	55553
BS	55540
fla	55538
Ġsociety	55500
ĠTV	55498
Ġexternal	55497
Ġinduced	55490
Ġcircumstances	55466
Ġperhaps	55453
Ġwouldn	55434
MP	55404
Ġagreed	55365
Ġlicense	55359
{}	55328
Ġraised	55306
Ġhour	55288
github	55278
board	55268
104	55262
Ġoperations	55261
Ġtools	55256
Ġcalls	55249
Ġanalyzed	55247
uate	55229
Ġassociation	55218
Why	55216
zo	55208
Ġnames	55192
Ġlinks	55189
Ġrad	55187
Ġreached	55170
Ġachieve	55155
Ġwhereas	55152
Ġjudge	55149
ates	55126
PT	55125
Ðº	55100
Ġdied	55090
CF	55073
dl	55068
Ġfeet	55065
Ġje	55054
ctor	55020
ao	54991
Ġhttps	54989
ora	54985
~~~	54976
Ġofficer	54972
coming	54970
105	54959
Ġemployees	54956
Ġclasses	54933
Service	54867
Some	54856
Ġmanager	54845
long	54813
Ġcauses	54793
ater	54772
Ġsp	54701
ĠYour	54645
=".	54614
Ġprobability	54595
Ġkept	54515
Ġ33	54508
Ġcredit	54497
ĠGu	54459
Ġcriminal	54446
}.	54411
otimes	54406
result	54404
ics	54392
Ġefforts	54383
ă	54378
ĠOther	54310
Ġshift	54304
Ġsoft	54291
Ġtraditional	54284
ĠMost	54264
ug	54250
}-	54245
Ġoccurred	54225
*^	54216
Ġho	54188
Ġcorrelation	54116
ĠNote	54106
Ġest	54080
Ġintroduced	54073
Ġfaith	54067
Ġbuffer	54037
Ġeat	54033
else	53982
Ġsuggests	53972
'}	53958
model	53939
ĠPark	53934
Ġorig	53927
hom	53855
Ġcertainly	53855
Ġsens	53843
ĠRNA	53814
Ġtechniques	53782
Ġstorage	53770
Ġadvantage	53751
Ġequivalent	53709
Ġminor	53694
Ġ57	53689
Ġelectric	53683
Ġdiagnosis	53681
Ġmovie	53667
ĠLondon	53638
Date	53619
Ġgeneration	53608
Ġgone	53596
ĠLaw	53591
Ġrender	53565
00000000	53556
Ġstatute	53550
Ġprotection	53510
Ġremaining	53486
Ġsexual	53485
ising	53480
Ġsummer	53422
Ġappellant	53406
ĠSha	53394
010	53358
print	53354
ĠGroup	53325
Ġwhom	53308
Ġforces	53281
Ġalgorithm	53212
ĠEn	53207
Ġecon	53197
Message	53178
Âµ	53101
Can	53087
Ġrequirements	53073
Ġgenera	53059
Ġ2005	53013
Ġrecords	52943
Ġnet	52938
ado	52935
ky	52912
Ġholding	52881
Ġ58	52877
Ġguess	52854
OD	52786
Ġabsence	52763
Ġspa	52759
¢	52732
Ġcatch	52716
aa	52678
Ġprefer	52658
ĠDO	52658
ĠRu	52633
Ġconventional	52628
Pre	52602
ĠIC	52559
Ġolder	52552
.](	52545
NY	52541
xs	52517
Ġexchange	52487
ĠNews	52473
*]{}	52451
Ġfear	52442
Ġfloor	52435
ĠSet	52427
init	52419
Ġmissing	52409
Ġserved	52407
ĠGreen	52400
Ġlaws	52391
Ġ61	52383
Log	52378
how	52377
Ġextent	52348
Ġ72	52335
Con	52325
Ġadding	52314
Ġresponses	52306
ë	52289
ĠEast	52277
Ġoffers	52264
System	52259
Ġcapital	52238
cha	52207
\*	52202
Ġquantum	52183
Ġ()	52164
Ġche	52120
Ġsevere	52113
Ġcreating	52083
rom	52078
006	52059
well	52053
Ġderived	52040
Ġscience	52021
Ġsubjects	52015
Ġgun	52000
Pos	51987
where	51944
level	51939
ĠFace	51902
Ġgir	51878
Ġanimal	51857
ĠSer	51857
xy	51836
Ġbed	51811
ĉĠĠĠĠ	51807
rove	51781
Ġideas	51735
102	51712
ano	51703
Ġschools	51687
Ġmono	51663
lf	51654
md	51651
ĠBl	51644
\|	51563
Ġ59	51535
({\	51530
Ġproperly	51493
PO	51492
nce	51470
"></	51445
Ġrepresents	51444
Ġ62	51432
gt	51427
ĠStreet	51415
Ġresolution	51392
Ġdecreased	51288
aj	51283
Ġexperiment	51276
Ġdirector	51276
108	51227
cast	51205
induced	51191
ÂłÂłÂł	51167
ĠIsrael	51159
ĠBritish	51138
mbox	51115
ras	51093
Ġregard	51025
ĠComp	51014
ĠSupreme	51012
Ġauthority	51008
ĠIP	51000
nonumber	50990
Ġdie	50987
oor	50986
Ġmechanisms	50983
Ġlose	50979
Ġdoubt	50966
Ġvirus	50962
cing	50944
hin	50926
amp	50914
local	50898
cd	50888
Ġlargest	50874
ĠQu	50861
Ġfeeling	50853
ĠEurope	50851
lied	50830
....	50823
Ġattorney	50781
ime	50743
Ġtip	50733
Ġ66	50732
ada	50728
ĠFoundation	50727
Big	50723
Ġinterests	50719
default	50713
Ġteams	50708
equ	50661
Ġmembrane	50658
Mar	50656
tp	50654
Ġbalance	50642
Ġtechnique	50629
Ġbranch	50594
Ġcrime	50584
Ġofficers	50580
Ġband	50580
First	50522
Ġtravel	50505
Ġfish	50477
Ġcontained	50477
(&	50476
ĠGoogle	50471
Ġslightly	50436
/(	50422
Ġprotected	50399
ĠPost	50396
_.	50394
Ġsecure	50371
luster	50310
Ġos	50294
Count	50293
^[@	50276
ĠPeople	50243
ĠSA	50240
ire	50177
PC	50163
Ġsales	50163
Ġcold	50132
ĠCouncil	50127
Ġfight	50103
lying	50072
Ġprofile	50052
Ġguys	50032
Ġconclude	50031
Ġslow	49994
ĠCommission	49982
Ġcharged	49980
Ġshared	49946
Ġopening	49929
Ġcharacters	49927
ku	49906
Ġlatest	49843
Ġchemical	49838
Ġprojects	49803
2015	49775
Ġstream	49774
ĠHan	49759
Ġoffered	49737
Ġvisual	49730
Ġerrors	49729
Ġ[]	49720
**]{},	49715
ĠCanada	49648
osition	49627
ĠBlack	49626
Ġannounced	49621
Ġcoverage	49611
ĠChinese	49594
Ġinit	49554
ster	49543
Ġnoise	49531
ĠOver	49496
Ġring	49490
Ġdriver	49489
num	49456
TG	49423
Ġentered	49408
ann	49381
Ġagents	49333
Ġinteractions	49331
,'	49319
sha	49312
ĠNO	49282
xa	49257
Ġsupply	49206
fac	49184
ised	49183
Ġdose	49146
Ġdecrease	49099
Ġcm	49099
ĠTwo	49097
.[@	49084
ĠCalculate	49083
Ġaccept	49071
Ġspread	49013
Ġanalyses	48960
summary	48948
Ġagency	48939
usion	48938
ĠEq	48925
dots	48915
ĠFriday	48904
Ġconcentrations	48888
ĠCL	48872
Ġdigital	48786
Ġoutcome	48768
Ġborn	48767
Ġgenetic	48699
âĢĬ	48693
Ġexistence	48689
Ġreceptor	48674
ĠJames	48629
ction	48595
ĠSuch	48578
Ġfinite	48542
ected	48537
Ġcommercial	48528
Ġexpress	48525
ĠJust	48515
Ġpossibility	48496
Ġequipment	48496
Ġstars	48494
range	48484
Ġplants	48484
Ġcarbon	48455
Ġ"[	48454
Ġspeech	48444
Source	48443
Ġoperating	48438
'.	48380
Ġfilter	48351
SU	48348
Ġcompleted	48346
Ġap	48341
Ġ+=	48308
Ġfore	48303
Ġbeautiful	48302
ico	48293
Ġpatterns	48269
Ġwhatever	48226
Ġreturns	48220
Ġheavy	48209
het	48186
Ġliver	48161
Ġbrand	48159
Ġimmuno	48158
Ġ2004	48106
Ġsmooth	48103
Ġidentity	48082
Ġinteger	48081
property	48037
ĠAD	48025
ĠUnder	48014
Ġdiseases	48010
Ġmobile	48005
Ġinterested	47981
Ġscene	47966
Ġstable	47964
Ġdog	47956
Ġalleged	47948
Ġtransmission	47934
Ġsalt	47876
Ġscript	47792
Ġappeared	47775
oid	47764
Ġrich	47750
Ġimportance	47747
Ġindicates	47737
Ġaren	47695
comm	47688
Ġchronic	47663
mos	47652
ĠService	47637
Ġspectrum	47615
Ġbank	47604
Ġruns	47571
Ġhusband	47534
Ġcontrolled	47509
}+	47498
").	47484
height	47477
widetilde	47446
Ġbutton	47439
0001	47437
nabla	47415
BL	47400
Ġconclusion	47390
Ġdemand	47385
ĠSun	47385
alt	47381
Ġsequences	47381
ĠWal	47351
ĠBoth	47345
dow	47246
ĠWestern	47204
Ġspirit	47190
Ad	47184
Ġholds	47184
pan	47183
Ġmouse	47182
Ġparticles	47168
false	47162
expr	47145
Ġ2019	47122
Ġvoltage	47063
Ġyield	47054
Ġstraight	47037
Ġreality	47035
Ġag	47019
ÃŃ	47004
Ġdefendants	46995
Ġtour	46993
itivity	46985
ĠCT	46978
Col	46925
Ġinner	46922
Ġempty	46919
Manager	46916
chase	46914
igate	46901
Ġbreast	46879
Ġdecline	46869
ĠMonday	46852
Ġlatte	46850
Ġformula	46824
Ġmotor	46812
Ġreferred	46807
ĠChrist	46797
ĠTrans	46772
FT	46757
ĠInstitute	46754
circ	46739
ĠCor	46703
ked	46638
Element	46619
aise	46602
Ġrepresentation	46588
Ġcontinuous	46574
Ġseemed	46512
\!	46507
Ġgraph	46469
ĠUp	46460
{"	46440
scale	46433
ĠBank	46431
ination	46395
Ġthank	46389
Ġ68	46377
Ġ500	46356
Ġremainder	46339
hol	46333
Ġspeak	46309
dep	46298
Ġstatements	46273
late	46253
Ġmaintain	46246
Ġsuffer	46215
ĠSunday	46195
ala	46191
}})	46174
Ġnation	46169
Ġfat	46164
Ġfoot	46144
Mod	46143
Ag	46136
Ġintra	46124
Ġlibrary	46120
009	46105
rob	46097
Ġsemi	46087
Ġjobs	46083
Ġsession	46046
Ġplasma	46033
dimensional	46031
Ġassembl	46003
Ġleaders	45974
Ġhaven	45970
ĠRes	45960
]),	45943
Ġliterature	45935
ĠAccording	45908
Ġpromote	45904
Ġ67	45901
Ġcollege	45886
Ġapproved	45858
ĠInt	45847
Ġworse	45840
Ġgrand	45833
ĠCompany	45818
Ġflat	45808
ĠMichael	45804
iew	45803
Ġstruct	45775
Ġ85	45771
Ġcarry	45704
Ġissued	45664
ĠPress	45645
Ġinterview	45644
Ġextremely	45574
tz	45571
either	45526
child	45513
Ġsquare	45510
ried	45507
ĠCommittee	45505
QU	45491
Ġknows	45478
ĠSmith	45449
ened	45445
2016	45430
lum	45412
Ġalcohol	45406
ich	45373
Ġplatform	45358
Sol	45356
Ġleader	45355
Ġcovered	45347
Ġexamples	45345
Ġcharges	45342
011	45308
)"	45296
Ġserum	45287
just	45273
ĠSub	45254
Ġahead	45250
Ġregulation	45217
ĠUnion	45194
Ġclub	45175
++	45172
Ġcool	45161
INT	45156
Ġaware	45099
Ġexception	45094
ĠJapan	45090
CON	45089
apache	45066
Di	45061
Ġopened	45061
ĠMac	45061
Ġsubstantial	45060
message	45045
Ġsigned	45045
Ġ99	45038
2013	44987
ji	44976
ALL	44969
.$$	44931
ĠMI	44928
Ġcustomers	44918
Ġclick	44905
ford	44904
Ġchurch	44900
2014	44890
ENT	44888
format	44878
pons	44857
Ġoccurs	44839
tag	44831
mod	44807
ĠDay	44784
ĠDen	44771
tric	44770
position	44758
Ġfootball	44753
ĠLeague	44752
pea	44749
Ġrecorded	44709
Ġcompounds	44691
Str	44687
Ġdelivery	44680
Be	44664
ĠBrown	44654
cp	44643
Ġdecisions	44643
Ġextension	44598
Ġcalling	44576
med	44541
Ġir	44538
Ġreceiving	44525
Ġnetworks	44508
Ġassay	44508
Ġevaluated	44506
Ġdiet	44486
Ġpowerful	44484
Ġfreedom	44480
\"	44475
_{{\	44450
LD	44442
Ġallowing	44430
Ġviolence	44424
DB	44415
plo	44411
Ġextended	44409
Ġ71	44403
Ġleaves	44399
Ġlib	44354
.</	44353
ĠAmericans	44347
ĠNOT	44332
endif	44329
cke	44321
null	44295
Ġpercentage	44294
Ġplate	44288
flow	44285
Ġestablish	44258
Ġoutcomes	44252
yn	44239
ĠTime	44233
Ġsale	44227
Ġconcerns	44215
ĠFrench	44196
Ġleaving	44190
cin	44186
Ġsubsequent	44182
Ġassessment	44175
Ġ2003	44155
Box	44147
ĉĊ	44136
Ġpush	44130
Ġthousands	44122
cover	44118
Ġmargin	44108
Ġhelped	44096
first	44076
Ġtestified	44074
Ġmuscle	44073
sb	44069
Ġmostly	44068
hs	44066
Ġimmune	44058
ĠCollege	44030
Ġban	44021
Ġevolution	44020
Ġ};	44008
ĠUN	44006
)/(	43986
Ġgrow	43928
Ġefficiency	43926
UL	43890
Ġowner	43862
ably	43846
Ġecho	43846
Ġbooks	43842
2012	43833
ĠWhy	43831
Ġarguments	43829
Ġcult	43791
Button	43749
Ġrepresented	43747
zeta	43746
Ġbirth	43730
Ġcriteria	43726
itis	43724
Ġcentury	43710
word	43695
olog	43680
ĠFinally	43679
oon	43674
Don	43674
exe	43662
Ġapparatus	43633
iel	43610
ĠAC	43607
pin	43588
ĠGovernment	43584
Ġsan	43583
ĠPS	43576
Ġexamined	43569
**,	43555
Ġvirt	43550
Ġentitle	43547
Client	43511
Ġbudget	43499
dim	43491
Ġlearned	43452
ĠAssociation	43446
Ġplane	43428
115	43425
dependent	43419
ĠChar	43416
ĠKing	43406
Ġeventually	43400
2000	43398
Ġspecified	43380
active	43361
Ġenhance	43360
/\	43350
ĠUsing	43310
iate	43299
rus	43270
repo	43270
Ġcandidate	43251
Ġtea	43232
Ġcurve	43232
Ġscheme	43192
ux	43184
Sc	43175
Ġer	43161
Ġincident	43145
Ġdepends	43141
Ġlabel	43133
Ġlimitations	43098
These	43084
ĠChurch	43067
}=\	43048
product	43026
Ġsupposed	43013
MD	43000
Click	42999
Ġdistinct	42992
Ġbattle	42991
Ġsurvey	42988
.*	42987
Ġgen	42969
ech	42958
Ġideal	42955
Ġfuel	42941
opt	42936
Ġinvestigated	42926
ĠYes	42907
ĠTuesday	42903
dle	42901
ĠGermany	42880
ĠOpen	42866
FF	42860
ĠJudge	42846
ĠIran	42842
Ġtraffic	42829
Ġachieved	42828
TF	42823
Ġfirm	42819
Ġfloat	42793
Ġtypical	42780
Bar	42772
ãĢĤ	42762
rig	42740
Ġpathway	42733
Ġgoals	42715
sist	42712
ĠScience	42712
2017	42696
match	42688
ĠFile	42685
ĠSH	42676
berg	42666
Ġpin	42655
Ġchanging	42652
Number	42643
Ġmixed	42641
Ġseat	42628
Ġpolicies	42622
Ġglass	42609
img	42601
Ġspend	42601
augh	42594
Ġ2001	42586
context	42576
Ġdry	42542
current	42526
Ġstandards	42517
Ġfilms	42517
supplementary	42494
$(	42477
Then	42469
Ġrecovery	42464
ĠMany	42450
&\	42436
Ġthreat	42433
Ġapplicable	42420
Ġgranted	42411
button	42398
Ġneuron	42383
Ġbiological	42372
Ġ96	42370
Ġcomplaint	42363
ĠIII	42358
Va	42350
tone	42346
PL	42329
Ġcivil	42327
rev	42323
Ġquick	42316
Ġignore	42281
ĠTR	42259
Ġstrain	42240
Ġbaby	42224
Ġpolar	42203
Ġexpansion	42197
Ġisolated	42185
Ġacts	42178
BR	42167
Ġjoin	42152
cer	42141
ĠDC	42111
Ġox	42098
cf	42067
lement	42063
Ġdesired	42049
Ġseeing	42041
Ġevaluation	42019
Ġmaster	42006
ĠWeb	42000
ture	41973
Call	41956
ĠNone	41956
Ġsubstrate	41925
Ġstanding	41919
Ġdelay	41902
Ġ77	41882
std	41875
ĠTest	41857
Ġindeed	41854
Ġsections	41849
Thr	41845
300	41844
Ġstrongly	41825
Ġrelief	41799
Ġinstall	41795
Ġdetailed	41789
Ġelectronic	41785
.**	41780
Ġfunds	41771
Ġinvestment	41751
ĠGeorge	41725
Ġ73	41721
Ġobvious	41710
Ġangle	41699
lie	41697
Ġchosen	41676
Ġfourth	41671
fes	41609
ĠAss	41600
ague	41593
Ġkill	41590
imal	41578
ney	41554
Ġsell	41541
ĠSal	41528
{(	41498
GC	41482
twi	41481
Ġ{{\	41480
"}.	41473
section	41464
Ġru	41444
EP	41436
Ġ81	41427
Ġthin	41412
Ġcommitted	41400
Ġdaughter	41396
tm	41394
rio	41393
ĠSuper	41361
Ġ300	41353
Ġduty	41340
Ġ74	41337
Ġcategory	41332
EF	41330
Ġconsidering	41330
hand	41293
Ġdirected	41285
ĠNF	41254
ĠEngland	41251
lation	41245
Ġdigit	41231
ught	41219
Ġwarm	41197
ĠCON	41194
Ġthanks	41190
Ġskills	41167
Ġprices	41160
-----	41149
Ġvictim	41131
uint	41122
Ġpayment	41114
Ġlit	41114
ĠIF	41110
114	41101
Ġexam	41094
Ġforced	41092
ĠExp	41090
Just	41086
Ġreligious	41079
Ġdocuments	41073
Ġ84	41064
ĠFlorida	41060
ĠParty	41051
Ġbroad	41047
ission	41044
Fe	41038
ĠType	41038
select	41036
Ġdebt	40999
Ġsecret	40996
rough	40991
its	40985
Ġlisted	40982
Ġill	40945
tom	40942
Ġappl	40937
target	40932
Ġresearcher	40920
Ġaccident	40919
ique	40914
Ġplays	40912
RR	40892
vent	40888
ape	40887
Ġmurder	40879
module	40860
ĠGerman	40832
Ġdetermination	40817
Ġequations	40816
Since	40795
:\	40773
Ġ2002	40770
Ġscope	40745
Ġvariation	40725
ĠDA	40722
Car	40712
Ġ76	40705
ĠSolve	40704
Ġsold	40692
Ġconcern	40683
Ġwaiting	40672
Ġloc	40667
RM	40666
Content	40666
Ġdiff	40666
break	40656
Ġexcellent	40638
enin	40625
anc	40614
116	40613
Ġfans	40604
emp	40584
Ġ78	40562
ĠRep	40553
Ġcup	40551
Ġbrief	40547
ĠSu	40538
Ġnine	40534
Ġobservations	40512
2011	40502
Ġpossibly	40490
=(	40476
ĠIns	40467
Ġparallel	40455
ĠRussia	40441
Ġbelieved	40437
Page	40405
ĠMD	40402
ĠCopyright	40391
Ġforth	40383
Ġversus	40381
ĠHall	40381
2010	40366
Ġspot	40342
layout	40300
%.	40299
Config	40295
Ġassuming	40293
ĠHIV	40257
stra	40249
Ġsolve	40241
Ġhousing	40224
sight	40223
uring	40189
gel	40174
Ġtouch	40163
ological	40158
Ġfees	40151
status	40139
Ġoffense	40103
Ġtwice	40088
ĠOffice	40085
ĠBill	40067
Ġnodes	40065
ql	40057
Ġemployed	40054
$)	40043
ĠLord	40043
Ġcommunities	40042
ĠPart	40040
âĢĿ,	40023
Ġ_{	40020
ĠThursday	40014
rst	40012
EV	40008
Ġexhibit	39998
Ġduration	39970
CU	39940
Ġdamages	39935
Ġconfidence	39896
Override	39891
ants	39890
Ġplanning	39884
Ġcompare	39862
Ġaward	39824
spec	39812
hold	39809
Ġmutant	39768
{-	39748
Sub	39746
small	39727
ĠGold	39713
Ġthread	39709
att	39707
++)	39701
ĠWednesday	39683
izer	39681
**]{}	39672
Ġstreet	39669
Ġscores	39668
ĠWell	39667
Ġfunding	39657
van	39647
ĠMark	39629
Ġwaste	39619
Ġaccuracy	39615
ĠClass	39608
Ġhelps	39601
pha	39598
icon	39591
**(-	39577
]--[@	39562
Ġconcerned	39561
ĠWindows	39560
RP	39553
ĠEs	39550
Ġtrials	39520
Check	39515
Per	39491
ĠOS	39486
Ġmetric	39448
ĠSaturday	39429
ĠEd	39373
Ref	39356
Ġguilty	39350
)))	39346
Ġasking	39346
Result	39343
Ġboundary	39337
Ġrelationships	39315
```	39308
HR	39307
Version	39306
rain	39295
Note	39288
loud	39280
"]	39246
Last	39236
Ġexperienced	39227
rap	39215
ani	39201
dc	39197
ĠCircuit	39192
ĠPan	39186
DC	39177
Ġelectron	39175
erg	39163
Ġsplit	39163
Ġburden	39159
Ġcir	39151
lp	39142
120	39139
Ġreverse	39137
she	39136
Ġexposed	39128
ĠJapanese	39107
Ġfinished	39097
ĠFrance	39082
Ġcontribution	39079
End	39057
Ġconsent	39042
Ġviola	39032
ĠNE	39023
Method	39015
Ġextends	39015
Ġ===	39010
ĠUI	38983
dit	38970
Ġcoach	38970
Ġinhibitor	38968
ĠUse	38964
ines	38962
Ġacute	38957
ĠJesus	38948
ĠMinister	38946
ĠLin	38929
Ġcontinues	38910
Ġframework	38909
other	38907
ght	38901
Ġemployee	38894
Ġfundamental	38886
Ġdraw	38879
Ġresource	38867
frame	38844
Read	38843
jun	38828
Mr	38825
ĠFederal	38824
Ġtrain	38816
WI	38802
ĠHome	38801
illa	38790
2018	38781
Ġuint	38773
Ġpark	38772
rf	38762
Ġdepartment	38759
Ġintensity	38758
\/	38754
ĠAny	38717
Filter	38713
)^{	38712
Â¶	38679
117	38673
Ã³	38672
ĠInternet	38655
Ġguide	38654
ĠWill	38640
Ġplot	38629
ĠAustralia	38626
Cs	38622
ĠMO	38603
eme	38589
sia	38584
ĠJustice	38580
Ġsettings	38576
Ġcompetition	38570
Ġsugar	38568
Ġice	38565
Ġmassive	38564
ĠLA	38560
Ġdemonstrate	38557
Ġadvanced	38557
Ġintent	38540
ress	38539
Ġordered	38532
Ġpull	38529
^+^	38515
unde	38510
Ġrelates	38507
Ġplaintiffs	38485
Ġgold	38477
odd	38470
Ġed	38446
Create	38424
Ġ*)	38417
"),	38399
400	38377
Ġgla	38364
Ġ120	38353
;&	38339
Ġbrother	38324
ict	38309
Ġchallenges	38300
Ġpotentially	38299
Ġimaging	38293
Ġmeta	38278
Ġhumans	38258
Ġjoint	38252
Ġvelocity	38228
Ġinterval	38218
Ġconference	38199
Ġrats	38189
Ġstopped	38159
ĠFIG	38146
Ġformal	38143
Ġstatistical	38135
Ġchief	38132
Ġidentification	38118
Simplify	38113
Ġdoctor	38112
Ġimprovement	38102
oul	38096
vy	38085
Ġsit	38076
Mi	38068
ville	38064
ult	38049
ĠBur	38042
Ġoperate	38034
Ġcourts	38018
Action	38010
ida	38003
132	37994
Ġclaimed	37970
Ġremained	37964
rif	37937
Ġopposite	37937
Run	37920
Ġengine	37904
Ġobjective	37885
Ġlung	37870
Ġended	37850
([	37843
cial	37838
ĠPlease	37829
Ġdownload	37828
Ġspring	37813
ris	37801
house	37796
Fin	37774
Ġsuggesting	37748
Ġpad	37744
ova	37739
asp	37734
TL	37694
Ġfrequently	37688
Ġrank	37673
Ġdiscovered	37666
Ġhence	37660
RY	37638
IG	37635
Ġgrant	37626
inator	37602
opy	37595
cup	37594
ĠRussian	37578
Ġiron	37541
Frame	37538
Ġsuppress	37537
Ġsweet	37512
Ġargues	37491
Web	37487
Ġjustice	37485
more	37477
ĠRepublican	37467
Ġprincipal	37453
Ġfragment	37452
ige	37441
ets	37440
plan	37437
ĠThom	37435
Ġgap	37433
ĠÂ£	37432
Ġnecessarily	37420
Ġlimits	37403
Psi	37402
Ġarms	37397
Base	37396
ĠRule	37395
133	37373
Ġearn	37361
Ġestate	37352
rog	37347
ĠFurther	37336
Ġrare	37331
Ġannual	37329
request	37311
Ġcat	37277
Ġretain	37275
Ġhabit	37254
Ġtens	37243
ĠMC	37231
Ġseconds	37218
Ġpool	37207
Ġstability	37190
pad	37179
Ã¼	37178
.-	37176
}]	37125
ĠGood	37125
Ġdependent	37105
ĠHence	37098
Ġwidely	37086
Ġgender	37075
]]	37071
next	37064
Ġoral	37048
ridge	37045
Ġantibody	37024
ĠDefendant	37018
Ġthereby	37014
wood	37004
ession	36987
Ġdefinitely	36976
tum	36968
=======	36962
Ġthreshold	36933
ĠJohnson	36925
Ġabsolute	36917
ĠTwitter	36915
Ġcast	36905
Â·	36904
Ġdisorder	36901
BE	36892
Ġprovision	36889
ials	36872
Ġlinked	36870
etch	36859
Ġaspects	36851
ces	36844
References	36826
Ġpeace	36824
Ġbone	36814
Ġattacks	36813
fy	36810
Ġstarts	36810
Ġnumerous	36802
mem	36801
Ġkeeping	36791
Ġpopulations	36771
Ġmor	36767
ĠAir	36765
Format	36758
Ġsupra	36750
Ġindicating	36737
output	36725
Ġstructural	36722
Ġrelations	36722
Ġcomposite	36678
Ġmixture	36674
ury	36658
COM	36653
ĠCP	36652
Ġsurround	36645
Ġcamera	36642
Ġaccepted	36592
ĠStar	36590
Ġinterpretation	36587
Ġ[[	36567
"$	36562
tmp	36556
Ġmortality	36546
Ġunable	36537
Ġdebate	36530
Status	36526
ĠVal	36523
Ġentirely	36519
was	36515
Ġends	36513
force	36508
Ġmission	36503
Ġtruly	36480
Ġprep	36476
ĠRobert	36466
Ġinstructions	36464
ĠChristian	36452
Ġrecognized	36447
131	36436
Ġcellular	36434
Ġgonna	36431
pdf	36417
auto	36403
ĠOnce	36396
ĠDirector	36393
Ġpractices	36386
});	36383
Ġscientific	36383
Ġrepair	36378
Ġgirls	36374
Ġaxis	36371
ĠTri	36366
^+	36333
query	36328
nia	36319
Ġenable	36313
ĠOnly	36303
Ġaim	36298
Ġarc	36277
Ġnotes	36272
Ġdegrees	36269
uge	36266
Ġspi	36256
Your	36242
Ġsupporting	36242
sch	36239
Line	36211
Ġemployment	36207
Ġfraction	36206
foo	36196
Handler	36195
msgstr	36185
118	36179
aki	36176
Ġ97	36175
Ġ\{	36166
ĠSl	36164
Ġbag	36159
rag	36158
aza	36150
private	36134
Start	36110
Ġresponsibility	36104
Ġseed	36093
cons	36089
Ġmouth	36088
Ġmiles	36086
ĠTimes	36065
Ġ191	36062
Ġprison	36053
Ġ86	36045
Ġminute	36040
ĠHospital	36024
Ġattached	35993
Ġappearance	35992
Ġvitro	35989
Ġextract	35985
rier	35980
Update	35977
Ġspo	35976
Ġmix	35967
Ġtechnical	35966
ĠGive	35965
wal	35935
Ġsensitive	35911
///	35909
ener	35890
Ġseg	35887
Ġdisk	35883
ĠObject	35876
Ġresidents	35874
Ġcompound	35857
linear	35848
\^	35825
ĠPeter	35807
Ġmolecules	35790
widehat	35787
Ġmenu	35780
ĠSecond	35770
Ġconcluded	35760
ĠGR	35752
press	35751
Ġcer	35742
ĠProject	35725
ĠIndian	35721
^-	35719
Ġdynamic	35714
TD	35692
Write	35689
ĠAPI	35676
Ġcommonly	35672
Ġamounts	35666
Ġcloses	35664
ius	35655
AV	35644
change	35637
wan	35635
Label	35633
earch	35622
Ġnarrow	35616
Ġtin	35610
OB	35607
obj	35601
ifier	35600
ĠOut	35599
Two	35596
Ġtag	35594
Ġassigned	35585
Ġconsideration	35581
Ġprolifer	35534
goo	35517
Ġunderstood	35516
Ġprev	35509
Ġdynamics	35498
oin	35482
genic	35467
ĠTheir	35463
neg	35457
\]).	35434
Ġrequirement	35432
Ġpp	35422
Ġeffectively	35420
Ġaccurate	35417
Ġprinciple	35407
Ġelectro	35403
Please	35400
ĠRad	35398
Ġexpert	35393
ucing	35357
ĠTom	35356
ĠInstead	35350
Ġexplore	35349
ĠRT	35335
ĠEC	35334
Ġes	35320
Ġestimates	35313
Ġoffset	35301
ĠAfrica	35286
Ġconnect	35280
Ġescape	35262
={	35259
css	35243
Ġharm	35243
iso	35238
sequence	35235
Ġspaces	35233
ĠAfrican	35213
Ġoxygen	35211
Ġfilled	35210
Ġjurisdiction	35207
Ġfail	35207
013	35170
omb	35154
ĠEr	35137
Ġearth	35136
Ġmodify	35128
Ġdecades	35112
Ġusual	35109
Ġter	35093
Ġ192	35075
Ġspending	35026
hm	35024
FFF	35007
Ġtemplate	35002
Ġzone	34993
Ġbinary	34993
ĠSur	34981
ĠHA	34975
Ġ91	34974
cb	34973
element	34966
yer	34953
#:	34934
Ġpun	34934
Ġseeking	34933
Ġmessages	34933
proc	34925
Ġsenior	34922
sed	34920
NAME	34914
Ġadmitted	34909
Ġfavorite	34888
ending	34882
ĠPCR	34876
Ġwww	34867
ĠPI	34861
==========	34841
Ġconsumption	34840
number	34834
Input	34830
Ġtrigger	34819
Ġtelevision	34818
yo	34812
had	34811
ĠStan	34793
Ġbaseline	34787
Instance	34762
Ġstrategies	34762
ĠRiver	34760
uis	34745
Ġ94	34721
Ġsq	34709
build	34706
ulating	34698
Ġlaser	34676
DD	34673
some	34667
Ġsqrt	34660
Ġassistance	34653
Ġbroken	34652
Ġcharacterized	34618
air	34599
ters	34598
Ġcog	34594
ĠCS	34591
ĠHuman	34572
dest	34571
weight	34567
Ġdepth	34559
show	34557
ĠEnd	34556
ski	34554
append	34544
Ġ98	34544
Ġorganic	34529
ĠMP	34529
2008	34528
Ġoptimal	34521
Ġamino	34507
014	34503
bed	34491
Ġsmallest	34487
Ġaid	34481
Pl	34471
cit	34452
Ġcompact	34431
Ġpredicted	34427
Ġstrike	34417
une	34415
Ġsal	34411
Ġhydro	34409
Im	34403
ĠGL	34396
Ġtissues	34379
Ġdangerous	34372
FP	34356
ben	34352
Ġbrow	34346
tol	34345
Tre	34336
ĠIndeed	34329
Ġamazing	34328
ĠLemma	34327
ken	34324
Ġorders	34309
Ġexpensive	34303
Ġwitness	34295
ĠIV	34292
Ġhi	34280
Ġ93	34270
center	34234
ĠPlaintiff	34223
Ġvision	34217
ically	34216
2009	34208
nes	34207
Ġmilk	34206
Ġdraft	34202
Xi	34201
Any	34185
Dis	34171
Ġretire	34158
mode	34138
Point	34138
Ġfan	34138
Ġpoll	34128
Ġlaunch	34121
ĠInformation	34102
Are	34099
template	34074
any	34073
Ġsupports	34066
ops	34057
fold	34049
eration	34046
000000	34046
ĠVer	34040
hit	34036
Ġpsy	34027
103	34011
144	34005
Ġparticle	33983
Ġpieces	33981
Ġcustomer	33976
ĠMedical	33947
Ġmanuscript	33945
ĠEarth	33944
ĠProgram	33932
Ġwatching	33923
sil	33918
subset	33908
Ġfund	33904
ures	33886
Ġsyndrome	33872
uit	33869
description	33865
Ġcausing	33827
Ġdiscretion	33826
Ġsuccessfully	33798
Ġqui	33790
Ġarrest	33790
options	33787
ĠpH	33787
Ġchannels	33760
ĠTE	33740
ĠNA	33732
Ġmeal	33706
Ġtargets	33689
Ġfont	33688
Ġmai	33685
Ġfruit	33680
ĠLee	33659
Ġcrisis	33651
Ġthermal	33649
Ġpure	33641
ĠHE	33638
Ġintroduce	33636
Select	33628
Ġ1999	33628
Ġbright	33613
isp	33604
san	33598
server	33583
Ġsitting	33571
Ġurl	33563
Ġlargely	33556
Ġimpossible	33556
Ġouter	33555
Sor	33535
ĠClinton	33530
Ġrepresentative	33525
Ġinhibition	33525
ario	33515
ĠCentral	33501
Ġunion	33486
lio	33478
Next	33459
matrix	33458
search	33453
Ġposts	33452
Ġautomatically	33451
Although	33448
GS	33437
conf	33425
Ġinstalled	33425
Ġinformed	33423
ĠSil	33408
kh	33401
Ġconstitutional	33401
Buffer	33400
Ġdiabetes	33388
Ġauthorities	33382
Find	33353
ĠIts	33331
}}{\	33329
ĠCorp	33328
ude	33312
Ġworry	33298
tun	33255
Ġconversation	33247
Ġsector	33245
ery	33219
Ġexamination	33218
Ġexit	33208
Ġcompete	33207
Layout	33199
Ġforget	33195
ĠSoftware	33184
Am	33179
Ġlabor	33178
graph	33162
Dec	33155
/>	33150
------------	33097
HP	33096
Ġstrains	33089
uted	33057
Ġputting	33044
Ġmiss	33037
Cell	33036
ĠON	33017
&&	33002
Ġfaster	33002
treated	32989
Ġjoined	32987
Ġseal	32984
Another	32972
Ġvisible	32971
Ġconcerning	32965
BP	32944
FS	32943
Ġreplaced	32924
Ġfacilities	32921
Ġattend	32904
Ġmeth	32903
Ġmeat	32902
1000	32897
Ġbarrier	32895
ĠEduc	32888
Ġherself	32878
Ġpitch	32870
ĠEU	32868
ril	32865
rated	32863
taste	32857
Has	32835
999	32816
VER	32810
Ġacting	32805
CIT	32775
Ġcreation	32771
Ġillegal	32761
Ġmention	32740
Ġcitizens	32736
Ġadvance	32736
Gi	32727
Ġfinish	32727
ĠGreat	32715
Ġantibodies	32712
Ġuniform	32710
Ġcorner	32707
Ġlayers	32698
Ġassumed	32697
ĠMor	32672
Ġcandidates	32639
130	32630
Ġinvolves	32623
ĠmRNA	32617
ĠField	32613
El	32611
root	32605
Ġplastic	32604
Ġmatters	32602
Ġmerely	32600
Ġtherapeutic	32594
after	32593
202	32581
\;	32580
Ġemergency	32579
Ġcolon	32574
method	32551
Ġleg	32543
Ġruling	32530
Ġmoral	32521
ats	32512
Ġdifferential	32494
Ni	32487
Ġtransform	32485
Ġobservation	32483
mag	32482
Ġexperiences	32477
Ġperspective	32474
Ġ1990	32470
Ġhundreds	32466
Ms	32463
Ġhurt	32462
ĠGen	32457
016	32455
Ġ2020	32443
Query	32442
Ġhundred	32440
Ġpassing	32430
een	32425
Ġhate	32411
sis	32409
iat	32409
Ġexecutive	32385
Ġbrowser	32383
Ġlowest	32379
ĠAnother	32369
Ġpairs	32361
ĠSecurity	32344
Ġoptim	32342
Ġdetermining	32340
').	32328
''	32309
Ġfeed	32297
ĠSec	32292
Ġlived	32280
Ġfamiliar	32255
uz	32248
Ġclosely	32240
Ġgrad	32233
Ġaspect	32230
diff	32222
most	32219
Ġattach	32217
ĠÃł	32193
Ġproved	32183
eting	32170
Ġwrt	32162
care	32156
ĠVa	32149
ione	32143
Ġdirectory	32119
Ġtelling	32109
Ġposted	32109
Ġpolitics	32107
Attrib	32105
Ġsignificance	32105
Ġscreening	32105
ogy	32091
room	32056
ĠCup	32055
Ġterminal	32051
Ġshooting	32047
vel	32046
Ġtrees	32043
Ġvivo	32040
Ġliability	32029
Ġserving	32028
Ġcontainer	32012
Ġdream	32007
CB	32006
ĠDM	31998
DL	31995
Ġhomes	31990
Ġregister	31980
Default	31976
ivity	31971
ners	31951
author	31950
Ġmonitoring	31935
Ġlymph	31923
tions	31920
Ġprimarily	31920
Ġmol	31872
Ġblocks	31872
Ġinitially	31864
Ġstack	31856
Where	31854
ĠControl	31843
ĠRead	31836
Who	31827
Ã¶	31816
Supplement	31816
Ġclassification	31815
%%	31811
More	31809
Ġcities	31788
bool	31786
Ġoperators	31783
parse	31776
Ġidentical	31761
dig	31741
Ġtrend	31732
155	31729
Ġlots	31721
ĠHO	31715
Ġregression	31708
Ġmaps	31707
cia	31705
Ġmedian	31705
ĠDevelop	31705
Ġdollars	31694
]\	31685
019	31679
Ġeating	31672
Ġinjuries	31671
]);	31664
Ġsouth	31650
Ġtranslation	31645
Ġdelivered	31640
Ġimplemented	31625
Ġion	31623
Ġdisorders	31616
Ġcre	31615
Ġclassical	31603
only	31601
documentclass	31593
Ġgrown	31591
Ġcloser	31591
Hi	31584
TYPE	31582
Change	31581
Open	31567
rest	31563
Ġtruck	31562
Ġbusinesses	31561
Ġthick	31535
Ġmal	31528
Ġcontributions	31528
Ġassault	31526
ĠLike	31519
Ġconsists	31518
strong	31515
Ġinjection	31513
ĠJones	31491
Ġaccordance	31472
Ġpossession	31449
Â»	31442
layer	31435
Ġbigger	31426
ĠĠĠĠĠĠĠĠĊ	31426
Ġship	31425
Ġenhanced	31425
>>	31422
graphic	31420
Ġremoval	31416
Ġleadership	31414
cation	31403
ĠPower	31399
approx	31385
ĠBea	31380
Ġsy	31376
----------	31371
fc	31368
Ġpu	31365
Before	31364
Ġ1998	31361
Ġstick	31358
Ġbodies	31321
Ġprevalence	31313
Ġpatent	31308
Ġneck	31296
atic	31287
txt	31262
Ġmechanical	31260
Stream	31255
ĠÎ²	31242
2007	31225
Ġsurgical	31225
Ġorganizations	31222
Ġgenome	31213
ĠLong	31209
Ġ400	31197
Ġaccounts	31194
Ġsynthesis	31177
Ġapparent	31169
drive	31166
Ġlocations	31162
Ġconsequences	31158
ĠSam	31157
Ġapproval	31144
Ġopportunities	31143
>,	31140
Ġsorry	31136
Ġelectrical	31128
Ġrig	31125
ĠFed	31124
Ġgarden	31109
aul	31100
Ġtil	31098
Ġups	31091
lay	31082
Ġcorrectly	31072
PH	31069
FL	31051
Ġfigures	31044
eps	31026
Ġrepeated	31023
Ġtough	31014
Ġarrived	31003
Express	30991
Ps	30989
Ġplain	30978
Ġshut	30972
Ġinternet	30961
Ġfacility	30960
Ġbeam	30947
meta	30942
Ġthoughts	30931
erv	30922
entry	30922
Ġquant	30914
Ġpathways	30913
Work	30898
Ġextend	30898
Ġrotation	30882
buf	30880
lect	30861
Ġsports	30859
iest	30839
ĠHas	30836
ency	30772
Ġtrouble	30764
Token	30761
American	30738
Ġera	30735
sen	30734
ÂĢ	30733
ĠLake	30730
buffer	30723
Ġdisplayed	30721
ĠPol	30717
Ġmutations	30710
Ġcharacteristic	30703
]^.	30685
Ġabsolutely	30684
itution	30682
aries	30675
ubuntu	30672
Ġpractical	30665
TP	30640
ĠIR	30634
Ġbacteria	30629
Ġremote	30622
final	30621
example	30617
Ġdiagn	30605
Ġdiameter	30601
Ġ1000	30601
Ġapparently	30594
Ġ{}	30590
ĠAB	30583
Ġintegrated	30582
aur	30581
Ġinstruction	30581
Ġemotional	30571
ĠDemocratic	30548
Ġstages	30524
Mu	30521
Ġupdated	30517
Ġhelping	30501
Ġhypothesis	30496
147	30493
Ġclients	30491
Ġexport	30489
Ġpos	30482
sensors	30470
Controller	30459
Ġsoil	30454
'$	30452
Bl	30445
Ġneutral	30439
Ġcentre	30435
AU	30422
Ġspectra	30399
Ġdepression	30395
Ġ1997	30394
ATA	30389
:(	30373
ĠMartin	30372
Ġcommittee	30370
Ġsheet	30369
dem	30366
Ġcoupling	30359
WE	30350
ĠMs	30348
00000	30346
Ġfashion	30344
Ġconviction	30337
Ġincidence	30330
ĠWilliams	30324
xc	30312
Ġadopted	30305
\]),	30302
ware	30298
Ġimmedi	30295
Ġgrid	30290
Men	30289
Ġkitchen	30283
Ġsubmitted	30278
bility	30267
Block	30254
ĠCF	30248
ĠPP	30242
Fl	30236
=-	30225
Ġrecall	30218
ĠDoe	30210
THE	30197
ĠCall	30179
Ġtopic	30173
="#	30161
Ġconstructed	30156
fill	30150
mus	30141
Ġdogs	30140
service	30135
Ġcoffee	30124
iff	30121
Ġdescribes	30119
Ġpictures	30116
via	30109
BB	30096
-(	30093
ĠDan	30077
Ġtransformation	30073
Ġprovisions	30065
Ġsensor	30060
Ġepisode	30048
sn	30039
---------	30030
rian	30023
Ġclimate	30018
Ġdemo	29994
Ġ"\	29994
atory	29986
Ġapart	29986
close	29964
yp	29963
Ġcounts	29962
Ġfer	29959
Ġessentially	29949
Ġmarkets	29933
Ġtab	29925
\}$	29922
edit	29905
Ġconversion	29903
ulated	29884
143	29876
Factory	29873
Ġtotally	29870
Ġtheorem	29868
bt	29857
filter	29855
END	29854
ĠEM	29844
ĠMai	29835
Ġexplanation	29833
Ġcopyright	29802
update	29797
Command	29791
Ġspatial	29791
Ġcategories	29764
Ġfeedback	29748
ĠPolice	29747
Ġguidelines	29743
Ġtasks	29731
ily	29726
Options	29726
Ġencoding	29726
195	29712
Builder	29709
Ġspeaking	29698
Ġmaintained	29679
etic	29659
]{},	29659
Spec	29659
Ġdesire	29646
cei	29643
ĠCare	29641
ĠAttorney	29640
Ġchapter	29626
Ġregime	29615
ength	29614
Ġdrink	29614
Ġdeclared	29613
Ġrecording	29602
irus	29584
Ġultimately	29578
Ġ1996	29575
Ġwire	29554
È±	29526
als	29519
Ġtrace	29514
ICE	29513
Ġoffering	29510
Local	29507
push	29506
Ġshock	29504
Because	29500
Ġcart	29496
2001	29467
Ġraw	29466
ĠChief	29466
wt	29448
Ġwonder	29446
Ġtells	29438
card	29433
Ġkilling	29430
ĠServices	29423
:=	29414
Ġcommission	29412
vector	29360
Ġreporting	29359
Ġrecognition	29353
ync	29352
Ġpreparation	29346
ids	29345
Ġfiber	29339
Ġtreatments	29333
urance	29292
Ġcarcino	29290
Ġpermit	29289
ĠMen	29281
2019	29278
Results	29274
while	29270
ĠFour	29265
ĠApple	29258
ĠAppellant	29258
Ġexpand	29225
Ġhelpful	29211
iy	29209
Ġ01	29204
itin	29196
ience	29195
RF	29181
Ġregulations	29171
Ġnm	29166
Ġbars	29165
Ġspoke	29163
Ġrespective	29163
Ġfinds	29161
Ġcurves	29137
Ġobviously	29135
Ġcamp	29134
upgreek	29129
Ġprinciples	29127
Component	29121
Ġcomprehens	29116
============	29110
192	29109
ĠBel	29095
wasysym	29091
Ġrequested	29083
conc	29080
gain	29079
ĠBlue	29078
Ġdomestic	29069
ĠÃ©	29068
limits	29056
Ġ\>	29054
Ġsituations	29053
Ġ"""	29052
Control	29047
Ġkern	29047
Ġdiscovery	29046
hes	29042
qquad	29010
Ġglo	29010
cise	28988
Ġmagnitude	28985
Ġ$(\	28978
place	28973
Ġok	28972
ĠForm	28958
256	28910
Ġbug	28910
Ġparticipate	28901
ĠHill	28887
Other	28877
MENT	28877
double	28871
Ġlies	28871
ĠLog	28867
ality	28862
Ġinhibit	28858
Ġbeat	28855
cn	28853
uel	28850
018	28849
ĠSecretary	28847
URL	28842
erm	28833
ÂłĠĠĠ	28830
Ġvan	28804
ĠMag	28802
Ġcrucial	28785
ĠNC	28782
ĠNet	28767
Ġuniversal	28766
Ġplanet	28763
None	28759
Ġyouth	28758
021	28751
otic	28749
Ġwash	28748
Ġcompliance	28741
ald	28740
142	28729
Ġsched	28725
Ġloan	28718
ĠMicrosoft	28708
Ġphotos	28704
Ġbought	28700
args	28689
.$	28679
Ġstem	28670
Ġnumerical	28670
}+\	28653
Ġpulled	28652
ĠCheck	28652
Ġwine	28649
Ġassets	28631
ship	28627
Ġbundle	28626
Ġsuperior	28623
Ġcalculate	28619
omic	28611
Ġhappening	28609
Ġfamous	28602
ĠDemocrats	28597
ERS	28596
Ġsetup	28591
Ġmapping	28590
ois	28587
rich	28581
two	28580
ĠDonald	28579
response	28572
Ġsomewhat	28571
Ġtube	28560
Ġtranscription	28547
}^\	28537
ĠRef	28537
Ġspectral	28534
Ġbehaviour	28534
Ġowners	28533
Ġlogic	28533
Ġarrested	28516
Ġacademic	28503
Resource	28500
bd	28499
Ġprogramme	28497
Ġdoc	28494
Ġrout	28490
Ġgrade	28490
Ġenforcement	28486
command	28465
Ġdrawn	28462
DT	28453
DP	28450
Ġrequests	28439
Ġcontents	28436
Ġteaching	28411
iu	28404
ĠSociety	28403
bottom	28402
Ġglucose	28401
gan	28382
icle	28378
cyt	28369
Ġtemp	28336
Ġintelligence	28333
Ġpreferred	28332
Ġ&\	28332
Ġpicking	28330
Ġbat	28322
Ġinfected	28303
ĠMake	28293
ios	28289
Ġdeaths	28282
Ġmask	28278
Ġprepare	28251
Ġdriven	28251
ĠIll	28236
ĠFund	28229
Ġweather	28225
Ġhidden	28221
system	28219
Ġwonderful	28212
(_	28188
**(	28187
Ġfighting	28184
Ġenzyme	28182
ett	28179
ĠModel	28173
phere	28171
Ġbun	28162
Ġcohort	28160
Ġapplying	28151
Ġgate	28136
Configuration	28129
Ġinstant	28120
Ġvoters	28117
Ġshop	28097
column	28085
123	28072
Ġweapons	28055
molecules	28045
Ġtract	28036
ĠThose	28026
People	28015
Ġcarrying	28006
Ġrealized	28005
ĠRoad	28005
fp	28004
cher	27964
Ġattr	27961
Ġdivision	27955
Ġ:)	27951
Ġextreme	27950
lk	27949
Ġassumption	27939
ĠSco	27930
Ġroles	27926
rium	27912
ĠKan	27907
Ġintegral	27906
Ġpermission	27894
Ġdischarge	27893
Ġobserve	27891
125	27885
Ġhist	27882
Ġreads	27865
ATE	27864
env	27860
His	27856
ĠÎ±	27851
Ġourselves	27848
ĠWho	27826
trial	27825
))*	27825
Ġsustain	27821
Ġacids	27801
ipa	27797
Ġvertical	27793
ĠmM	27789
Ġration	27788
Ġinfections	27783
arget	27777
2004	27777
stream	27774
Ġsubstantially	27772
âĢĭ	27769
Ġbeta	27751
Server	27750
vc	27744
mana	27738
Ġregistered	27718
Ġimagine	27708
Ġaccused	27672
Ġann	27669
URE	27664
ait	27657
Ġintermediate	27655
Ġmillions	27649
Ġexcited	27642
ĠTen	27638
Ġil	27635
play	27633
-----------	27630
elle	27600
Ġexperts	27579
Ġconstruct	27577
Ġoverride	27570
Ġflag	27568
Ġlegislation	27560
mac	27551
pal	27546
Ġintegration	27544
Ġtone	27543
FOR	27538
ĠJournal	27533
Ġpaying	27529
Ġdropped	27525
Ġpowers	27518
Ġmedicine	27506
Ġuniversity	27496
ĠDep	27495
Ġcorrelated	27480
Ġwood	27450
Ġviral	27444
ift	27432
ĠDivision	27429
Ġnavig	27427
Ġopposition	27418
ĠMount	27397
ĠMedia	27383
Ġdealing	27380
Ġconsumer	27371
ĠTop	27367
ĠParis	27357
Ġradius	27356
Ġbowl	27351
ĠFR	27350
Ġrecognize	27345
Ġsister	27339
Ġdinner	27339
ML	27335
<!--	27332
ĠThanks	27329
Ġ>=	27329
Inter	27326
Ġinstitutions	27317
mt	27286
ĠVI	27286
zon	27284
bound	27273
Ġnano	27270
Ġcars	27270
ĠMal	27257
Ġpurchased	27246
040	27241
Ġdocumentation	27237
)}{	27234
Ġknowing	27230
Ġsimulation	27224
Ġreactions	27209
Ġrock	27206
ĠGP	27202
Ġfeels	27198
vm	27192
ĠValue	27191
ohn	27179
Ġcrystal	27177
Ġcorporate	27170
Ġcol	27144
ĠGNU	27143
Ġwinning	27137
isplay	27135
ĠText	27128
Ġlip	27119
About	27118
Part	27112
Ġstroke	27105
night	27103
erc	27098
Ġphilosoph	27098
Ġreligion	27096
Ġpromise	27084
Ġincreasingly	27070
itation	27059
Ġsharing	27051
uh	27050
Ġokay	27041
Hey	27040
ĠWilliam	27032
ues	27030
Ġowned	27021
Ġkinds	27021
Ġspan	27012
Ġtransferred	27009
Also	27000
Ġsurprise	26992
Ġcomplicated	26985
types	26981
ĠOs	26978
Ġindustrial	26977
ĠReal	26970
Ġsubstance	26951
Ġanswers	26936
(*	26934
Ġvictims	26927
ĠBoo	26912
Ġdust	26911
Ġforming	26908
Ġdual	26901
Ġoriginally	26898
ĠAmendment	26873
ract	26866
)*(-	26859
Ġinduction	26859
Ġslowly	26845
Ġextensive	26841
Ġtee	26832
ĠMad	26830
Width	26817
ele	26816
Description	26810
Ġpy	26800
Ġ..	26799
Over	26793
Ġgift	26790
pb	26786
Ġlattice	26781
Ġacquired	26776
Reference	26756
Ġlie	26749
rick	26733
Ġconvert	26733
Ġticket	26729
,$$	26712
}"	26710
ket	26705
ĠGame	26705
Location	26696
Ġ1995	26693
ĠMexico	26691
km	26684
ĠWhere	26682
Ġrestaurant	26669
250	26665
Ġbattery	26664
Fi	26656
Ġrisks	26638
Ġpresentation	26638
"}),	26636
Ġaddressed	26636
ĠIraq	26628
ĠRock	26626
Ġregulatory	26618
ĠPlan	26614
Dev	26609
soc	26591
Ġwinter	26591
ĠConstitution	26572
Ġkinase	26567
Ġreviewed	26557
Output	26554
Ġpayments	26544
ĠHS	26543
Ġstatistics	26542
Ġfails	26530
Ġcompensation	26517
aps	26516
ĠPur	26512
Ġsno	26510
Ġresolve	26504
tok	26501
180	26501
Ġinflammatory	26500
Ġfault	26497
Ġaudience	26482
offset	26475
Ġfuck	26467
Ġhydrogen	26465
ĠAnn	26452
Ġshell	26451
ĠWater	26445
ography	26441
Ġpen	26437
Ġmigration	26437
Ġinfer	26427
Ġsuffering	26422
ĠmiR	26418
Ġwindows	26415
ĠMcC	26410
022	26404
Ġclusters	26403
Ġexcess	26396
$_	26395
Ġhotel	26385
mine	26357
rent	26324
Ġcolumns	26320
Ġ<-	26316
positive	26314
Ġflux	26313
ĠIsland	26313
ĠEvery	26313
live	26291
Ġhire	26291
Ġ-\	26289
bour	26285
Ġbin	26284
Ġtwenty	26278
Ġrows	26275
Ġregardless	26266
step	26265
Ġlisten	26265
Ġtemperatures	26264
ĠURL	26259
231	26238
Ġchoices	26230
TY	26225
ella	26219
ĠVirginia	26215
Ġ1980	26208
Ġfavour	26204
life	26200
Ġpassword	26192
Ġuniverse	26187
ĠVersion	26184
orin	26178
Ġcomfortable	26177
iative	26175
Ġstrip	26175
Ġengaged	26173
ternal	26166
Ġvehicles	26161
ĠScott	26160
Ġtempo	26147
Ġregional	26142
Ġsimulations	26137
Ġadverse	26136
Ġbanks	26134
Ġsurfaces	26117
Ġpublication	26112
ĠMaybe	26108
hed	26105
157	26101
Ġcapture	26099
Ġcook	26094
ĠTeam	26093
Ġentity	26081
Ġaside	26079
ĠAF	26074
ILE	26072
Ġyounger	26072
Many	26067
Ġdecade	26064
Ġheader	26058
Def	26054
Ġkeys	26053
cache	26037
âĢĺ	26036
FU	26031
ĠOrder	26030
Ġrear	26028
^,	26026
Ġguard	26019
Ġlaboratory	26018
values	26015
Ġcoupled	26014
Ġedges	26011
agree	26000
2003	25999
sse	25996
pass	25995
ĠMrs	25981
Min	25977
Even	25967
ĠOhio	25965
attr	25947
Ġstores	25947
Ġodd	25943
Ġvast	25941
ĠCol	25938
148	25937
ncy	25935
Â´	25931
Ġmutation	25921
Ġtail	25920
Ġdenom	25916
Ġsubsequently	25912
ĠSel	25904
Ġheads	25903
ĠGrand	25897
cio	25886
Ġdist	25877
164	25867
got	25866
ĠCase	25863
otype	25849
rne	25848
Ġdependence	25845
ĠAppeals	25845
Ġrefused	25843
Project	25840
\,\	25832
Ġelectrode	25832
,$	25826
Ġbuildings	25823
Ġdedicate	25818
Ġproducing	25812
Ġcalculation	25812
note	25807
Ġhell	25805
ARE	25802
RES	25800
Ġgrounds	25799
Ġdan	25784
acing	25783
Ġsymbol	25780
Ġsmoking	25776
ĠVan	25766
ĠKey	25750
Ġcolors	25733
Ġstood	25732
Ġproposal	25723
ĠPort	25714
Ġvillage	25708
ĠDes	25699
Ġapoptosis	25696
Ġmagic	25682
Ġroll	25679
Ġgather	25677
ĠJewish	25677
ĠMary	25675
unt	25671
Ġfarm	25667
Ġcorresponds	25667
ĠCanadian	25660
Ġbelief	25646
eding	25644
Ġstands	25642
Ġaccommod	25638
ĠNY	25638
Ġfacing	25631
namespace	25618
Equal	25614
Ġversions	25611
Ġbeer	25609
ĠBush	25608
Ġwelcome	25607
Like	25604
bp	25602
Address	25599
ĠDR	25593
EG	25586
ĠCarolina	25578
Ġplenty	25577
mol	25573
;\	25558
Ġbasically	25557
Step	25551
ĠMiddle	25546
Ġlens	25543
Ġinvolvement	25538
antic	25530
Ġproceedings	25528
Ġbreath	25519
ush	25518
Ġphenotype	25516
Ġminister	25513
Ġlob	25510
%;	25507
Os	25500
Ġreceptors	25496
--------------	25468
-------------	25467
ĠLouis	25466
gist	25454
Em	25449
Ġprogression	25443
Ġcream	25442
Ġyellow	25437
Ġarbitrary	25433
before	25431
ĠRepublicans	25428
bul	25425
Ġchamber	25413
Ġhall	25412
ĠThree	25409
Ġinclusion	25407
Ġgauge	25396
oxy	25387
Ġtheme	25385
Ġteacher	25375
ĠGiven	25357
Ġdrain	25353
Ġmodes	25345
ĠPrime	25345
Ġsnap	25337
Ġinst	25333
ĠAmong	25333
Ġequally	25331
Ġcoefficient	25322
Ġ103	25320
Ġencourage	25318
ĠZi	25318
tree	25304
Ġthickness	25304
ĠRichard	25304
Ġ1994	25299
Ġconsumers	25298
Ġpulse	25294
Ġopposed	25294
Ġverdict	25290
ĠAustralian	25289
Ġdisclose	25286
Ġisland	25279
Ġperforming	25273
PER	25268
Ġarg	25264
Ġjourney	25252
Ġbacterial	25242
Ġattribute	25242
Ġmoves	25236
RK	25224
ĠReport	25221
Ġdistinguish	25205
SY	25199
0002	25195
ĠLoo	25192
quit	25184
Ġhat	25181
Ġagencies	25176
Ġdiversity	25175
RB	25170
Ġfly	25167
800	25164
ĠJackson	25160
ĠJoe	25148
Ġadjacent	25145
Good	25144
2002	25139
"))	25136
Ġpregnancy	25133
Ġcontrary	25132
Ġfoods	25125
Ġrod	25122
Ġdelete	25112
149	25111
ĠJack	25108
UD	25106
Ġengage	25100
ĠLy	25095
uation	25094
Ġsatisfied	25091
Met	25088
Ġstronger	25088
internal	25074
Link	25074
Ġpour	25074
Ġhonor	25068
UB	25061
Ġmissed	25061
Ġbutter	25060
gger	25048
Ġassist	25045
ĠCell	25042
Ġ130	25041
WS	25038
Ġcreates	25028
ges	25027
;</	25013
Ġdeclare	25008
Ġpermanent	25001
Ġbulk	25000
Ġwherein	24998
Ġstatistically	24998
ĠMap	24998
refer	24990
Ġcards	24980
Ġbegins	24967
cpp	24960
ĠIm	24960
sys	24946
Ġongoing	24946
ĠError	24945
Ġclassic	24943
Ġshares	24942
tors	24939
Ġintake	24938
ctx	24928
Ġprofiles	24928
Ġsaved	24926
Ġthereof	24925
ĠYet	24910
Ġcoefficients	24907
ĠAge	24907
}\\	24900
Ġconnections	24900
ĠMike	24900
Ġdecreasing	24896
Ġexecution	24893
Ġmarkers	24889
Range	24887
ĠNon	24874
Ġbringing	24873
Ġcutting	24865
Ġexcluded	24854
ĠAccordingly	24849
fully	24847
ĠNetwork	24842
ement	24833
PORT	24831
ĠRI	24828
caps	24819
LY	24818
sle	24815
NET	24815
Ġevil	24815
sample	24813
ove	24802
Ġsymmetry	24794
NP	24792
Ġteachers	24775
Ġanxiety	24772
Ġvariance	24754
asc	24742
mathscr	24740
ĠOh	24734
ĠThan	24727
Ġrequiring	24720
Ġsubset	24716
aria	24714
121	24711
Ġshouldn	24711
Ġorientation	24708
each	24704
ĠReview	24701
Ġmanufacturing	24697
Ġblind	24697
190	24694
Ġselling	24693
byte	24691
Ġcomplications	24672
Ġreform	24669
Ġfinger	24663
Ġadequate	24662
ĠNumber	24660
Ġextracted	24647
Ġtargeted	24630
ĠCreate	24622
ĠAnti	24611
Form	24603
Ġlesions	24603
vt	24602
Te	24598
Ã£o	24593
Ġinjured	24592
AND	24583
Ġdism	24579
Ġradical	24569
ĠBow	24569
Ġeditor	24566
ĠLand	24563
Ġ$-	24563
Ġhash	24561
ses	24551
Ġsuspect	24550
Ġrobust	24540
fit	24532
STR	24523
Ġtrained	24514
{.	24511
ĠSimilarly	24507
Core	24506
ĠVA	24503
Top	24501
Ġaudio	24497
Ġtort	24495
Ġhypo	24495
158	24493
Ġ<=	24487
Ġinfrastructure	24485
stri	24472
ĠFire	24468
graphy	24459
amin	24457
Ġ\|	24454
Ġmut	24448
Ġmetabolic	24438
logical	24437
Ġstrange	24433
ĠMT	24431
will	24427
Ġja	24419
Ġvaluable	24413
TES	24409
ODE	24405
Function	24403
Ġafternoon	24398
ĠUser	24390
+^	24386
Ġprofit	24385
tx	24376
ivers	24375
DIR	24375
device	24374
Â²	24372
tory	24372
Ġbrings	24372
foot	24366
}_\	24364
214	24362
_{(	24356
!!	24354
Ġcomputed	24351
band	24350
Ġwearing	24349
Ġconservative	24346
Ġfolder	24340
Ġmoments	24339
Ġbind	24335
ĠArmy	24328
Ġfaces	24324
Ġinstances	24318
ĠAction	24309
ĠIsraeli	24304
ĠNext	24302
ĠTim	24293
Ġusage	24276
Ġcalculations	24273
ĠBoston	24273
Ġtape	24272
Ġ{{	24269
Ġherein	24269
Ġarchitecture	24267
Ġsharp	24264
Ġreserved	24258
Ġdifferentiation	24257
====	24256
Ġdiagram	24248
Ġtechnologies	24246
Ġactivated	24242
empty	24225
1999	24225
Ġvalidate	24223
Ġapartment	24218
plea	24210
inn	24200
Ġrely	24199
ATION	24197
white	24194
mean	24181
}-\	24178
ows	24166
Ġdecay	24160
ĠLast	24157
Column	24156
Ġbear	24142
click	24135
Au	24133
(\[	24133
remove	24132
impl	24124
including	24120
ĠChristmas	24111
Impl	24104
Ġcardiac	24089
Connection	24088
During	24087
FD	24078
bert	24069
IX	24068
ĠTrue	24061
Ġ1992	24060
Ġallegations	24059
Tex	24050
Auto	24048
Ġalter	24047
Ġsand	24045
Ġ::	24035
Ġgel	24034
what	24029
Ġresist	24025
Ġintroduction	24020
Ġchose	24018
Ġcache	24017
Ġclassified	24009
Ġanalyze	24004
ĠCorporation	23997
Ġseriously	23991
fire	23990
ĠPage	23989
Ġordinary	23986
ĠAnalysis	23982
Bi	23977
Ġbits	23970
Ġrevenue	23967
Ġdistributions	23958
qua	23953
ips	23952
Header	23947
itan	23945
Sup	23942
Ġpolymer	23941
Ġgalaxies	23933
INE	23929
Ġasp	23929
Ġaged	23928
Ġhistorical	23926
Ġvary	23925
Ġchecked	23924
Ġanywhere	23922
integ	23910
~*	23905
Ġtech	23897
install	23895
unit	23893
Ġdiscover	23891
Ġ128	23888
Ġpowder	23887
total	23883
Ġsemiconductor	23872
replace	23865
.^[@	23860
Ġpresents	23848
drop	23839
Ġalert	23839
Ġcolour	23835
dk	23833
ĠDespite	23830
Ġgiant	23829
{$	23826
Ġtheoretical	23825
Ġinstrument	23824
ĠEdit	23818
Ġstrict	23811
Case	23802
Ġperfectly	23801
blue	23799
ĠOfficer	23797
gon	23792
uana	23788
ĠBased	23782
Ġinvolve	23780
Ġio	23777
Ġcrew	23766
ĠClub	23760
Ġdiagnosed	23755
lish	23751
Ġmatches	23747
Ġimpair	23744
Ġstaining	23743
Ġmil	23743
Ġmom	23741
Ġillness	23740
vic	23736
ĠKen	23725
PCR	23722
esh	23721
Ġprediction	23716
then	23712
Ġchicken	23708
Ġlaunched	23705
eric	23701
Val	23688
Ġbytes	23678
Ġincubated	23677
Ġtele	23674
Ġchest	23674
tv	23667
Ġkidney	23659
Ġsec	23658
Ġmetabolism	23645
gun	23642
[[	23640
Ġcarefully	23639
front	23628
Ġeducational	23620
Ġbridge	23612
Ġafford	23612
Ġ"/	23601
ĠMel	23597
bigg	23592
sts	23591
pf	23591
Ġyesterday	23588
ĠImp	23587
Ġstatutory	23586
Ġurban	23583
eV	23580
Ġdataset	23577
159	23575
mann	23569
nz	23566
ĠSpecial	23544
Ġinsulin	23541
Ġcommit	23535
inate	23529
ulti	23519
ĠRight	23516
Ġbreaking	23513
EST	23503
Ġwest	23500
ĠAngeles	23496
Ġ\;	23479
Ġride	23476
ĠYOU	23476
Ġhardware	23474
Ġprompt	23465
lab	23464
Ġthousand	23462
ĠWT	23456
background	23449
NR	23448
)_{	23448
Ġmonitor	23448
eep	23440
)),	23427
uating	23418
Ġdrinking	23395
Ġdomains	23394
save	23392
Introduction	23381
Ġreplica	23381
Ġdance	23380
onal	23378
wl	23376
team	23375
Ġsufficiently	23375
Ġreferences	23366
Ġquantitative	23363
Ġcontends	23360
Ġmild	23357
making	23355
ĠWE	23353
ipo	23345
Ġloaded	23345
ining	23342
gov	23329
III	23323
ĠNP	23322
ĠFROM	23320
Ġimposed	23313
Ġtoken	23305
Ġsomewhere	23283
Ġcomparable	23283
Ġdisclosed	23279
cut	23265
Ġmess	23239
oom	23235
echo	23235
Ġcontrolling	23233
address	23223
Ġunsigned	23221
NK	23219
appli	23208
oil	23194
ĠWomen	23194
Ġbelieves	23187
Tag	23184
,{\	23182
),\	23181
Ġreveal	23181
Ġtables	23173
Ġabstract	23173
Ġdiscrimination	23172
Ġiter	23161
Ġsteel	23150
Ġyields	23148
Ġec	23141
Cu	23139
send	23137
anda	23130
Ġsampling	23126
ĠImage	23126
Ġbehalf	23108
Ġconstraints	23106
Ġperipheral	23103
Current	23101
ĠSpace	23100
full	23097
compl	23090
hop	23089
params	23085
Ġadmission	23082
rice	23072
Ġ&=	23070
ators	23061
^)	23053
ema	23052
ĠBritain	23052
Ġglu	23045
Ġserves	23043
equal	23038
should	23034
ĠHTML	23029
Ġbroadcast	23026
Ġholiday	23020
osi	23014
>.	23011
Ġhonest	23008
Ġpossess	23000
Section	22988
opp	22987
ents	22987
RL	22980
Ġhorizontal	22972
Ġhandling	22965
Sch	22962
255	22957
ĠFar	22953
Rec	22947
Ġpointer	22944
Ġcrack	22944
ĠForce	22943
Ġchallenging	22941
ĠPal	22940
Provider	22933
Ġexplicitly	22927
-*	22922
mr	22920
textbf	22918
Ptr	22918
Application	22918
ĠDetermine	22915
Ġ}\	22902
Url	22900
Ġgrew	22900
Ġalive	22900
Ġprotest	22890
?'	22882
Ġcited	22879
Ġneural	22874
framework	22871
Ġsimultaneously	22865
Ġ198	22854
elf	22852
Ġscan	22852
Ġ],	22851
ĠFox	22844
Ġtiming	22843
Ġabundance	22841
Ġ125	22828
Ġalgebra	22820
\|_{	22817
Ġaf	22815
Ġproven	22796
ĠYoung	22795
access	22793
Ġkit	22787
Ġlunch	22768
Ġquiet	22767
round	22763
ĠBefore	22758
Ġproud	22757
Ġvariations	22756
Ġcompute	22755
Ġhealthcare	22751
uild	22748
119	22745
ĠAsia	22741
Ġfiling	22740
Ġloading	22734
bus	22728
Ġultra	22717
ĠUV	22717
"#	22714
utation	22710
Ġ112	22710
Ġresponded	22698
tial	22696
Ġdress	22696
ĠLocal	22684
Ġamplitude	22678
Ġcovering	22677
Ġeast	22670
ĠBusiness	22668
Ġimproving	22663
>\	22657
Ġserial	22653
Ġcopies	22650
Ġcouncil	22649
ĠTechnology	22649
emia	22642
Ġ140	22640
Ġfed	22637
Ġingredients	22633
Ġfewer	22631
years	22629
Order	22626
pat	22617
ĠKar	22614
tk	22604
ĠJr	22599
sie	22596
Ġadministrative	22594
Ġpenalty	22588
ĠRel	22588
zero	22579
ror	22568
310	22564
Ġrose	22561
Ġapproximation	22557
anti	22554
í	22553
'_	22553
ĠRS	22551
Ġexplicit	22546
Ġassign	22540
Ġprovider	22539
hash	22533
Ġmatching	22533
Ġjump	22531
)}(	22530
gue	22529
Ġsending	22526
Ġelevated	22525
'),	22524
ĠPoint	22524
craft	22518
ĠFrank	22518
Ġpump	22517
files	22516
Ġmovies	22512
ĠPres	22509
ider	22501
Ġdrivers	22500
PU	22496
Ġcodes	22495
Ġnamely	22490
curr	22483
GN	22477
Ġfailing	22475
ĠOK	22467
Ġnearby	22464
instance	22463
draw	22454
Ġomitted	22443
Î¼g	22439
apa	22432
Ġdifficulty	22427
ĠValley	22427
Ġmarker	22420
\.	22419
ĠBou	22418
Ġ**(	22418
Ġblow	22414
Non	22403
Ġgeneric	22397
Ġsignature	22391
Ġrejected	22388
ĠSQL	22384
Once	22382
Ġ),	22376
bling	22371
Rule	22371
ĠDavis	22370
Ġsubmit	22368
Ġcommitment	22364
)_	22362
ĠMB	22359
ĠCivil	22352
Ġprecisely	22351
Ġfrequent	22351
ĠIllinois	22343
Ġbread	22333
ĠChapter	22330
nie	22325
tch	22318
Ġinequality	22317
[**	22312
patch	22308
ĠGla	22299
ĠDB	22294
050	22292
Ġovercome	22286
_{-	22285
Ġdivisor	22284
193	22283
zing	22281
TV	22281
Ġanalog	22279
found	22278
Ġinvestors	22276
game	22263
methyl	22261
Ġmachines	22260
'\	22257
ĠBest	22249
Ġscientists	22242
Ġnotion	22242
Ġatoms	22241
tg	22240
ĠRoyal	22240
Ht	22239
113	22236
Ġabsorption	22235
Ġclause	22234
Ġbuying	22228
Ġsmile	22225
Ġbusy	22223
ĠBase	22221
Ġfemales	22216
quil	22210
Ġwheel	22202
Ġcompetitive	22201
Ġcrowd	22193
Ġnaturally	22190
ĠYo	22185
normal	22178
Ġdoctors	22177
Ġdiverse	22174
Ġka	22167
wik	22161
Ġpropag	22161
Ġopp	22161
Ġconform	22158
ĠItaly	22158
Under	22156
ĠToday	22156
lone	22154
Additional	22145
ĠMichigan	22145
osa	22138
Mac	22136
tid	22128
Ġcareful	22124
ĠCap	22107
ulo	22098
Ġmill	22096
Ġverify	22092
Ġparticipation	22091
170	22090
Ġcuts	22089
Ġtensor	22081
Ġmeasuring	22079
Ġelections	22077
Ġscored	22072
Ġcheese	22057
Offset	22056
Ġrestricted	22055
ĠHave	22034
Ġdisrupt	22030
ĠYear	22030
Did	22025
Ġsurprised	22023
Ġcoordinates	22021
ĠArm	22016
actin	22014
API	22006
ĠEnergy	22003
Ġadjusted	21993
Ġprivacy	21985
xt	21981
Ġscheduled	21964
Ġreduces	21964
Ġcable	21962
yes	21959
Ġembed	21958
wd	21956
kle	21956
Ġcomposed	21925
Ġfeelings	21923
Ġindependently	21920
Ġ++	21912
ĠShow	21910
ĠRoman	21903
Only	21901
Ġadds	21888
about	21882
ĠResults	21880
Ġcheap	21879
Î¼m	21876
Ġdominant	21874
ugg	21869
Ġchair	21863
ĠBY	21862
spring	21860
Ġenabled	21858
Position	21857
Ġhide	21857
Ġmistake	21856
Ġarmy	21856
nuc	21853
Ġanymore	21847
dos	21845
Â¿	21841
Ġsuspend	21840
Ġpresidential	21839
Ġcontinuing	21839
ĠMaster	21831
ĠChris	21831
BD	21826
rive	21823
Ġskill	21823
ball	21813
Ġsight	21809
Ġalignment	21805
Ġinstallation	21803
Ġsilver	21800
ĠSyria	21799
Ġsettlement	21795
made	21789
Cache	21789
ĠSupport	21786
Ġlipid	21781
ĠAli	21781
'>	21780
ĠJud	21772
mul	21769
Ġ123	21760
sus	21747
Ġpseudo	21745
Ġhomo	21741
vey	21737
Using	21737
Ġcrimes	21733
Ġperi	21732
Ġlists	21730
FB	21725
Ġprogramming	21724
email	21718
Ġboat	21718
Ġtalked	21714
defined	21708
ĠCross	21706
Ġexecute	21705
Ġcommunications	21701
export	21690
Ġaircraft	21690
Ind	21687
ĠTG	21686
Ġmanifest	21685
Ġbroke	21669
genesis	21666
debug	21666
Ġgenerating	21664
ĠHD	21661
cam	21657
tension	21640
.]	21639
Ġopinions	21639
Ġyards	21628
Look	21620
Height	21611
pod	21606
Â®	21604
Ġexecuted	21597
GB	21594
nament	21586
Ġ\"	21583
Ġwealth	21580
Title	21575
Ġlegs	21572
Main	21570
Ġdanger	21559
Ġshoulder	21558
Ġasc	21558
ĠAdv	21558
Ġlocally	21554
Ġwaves	21553
Ġvectors	21553
Hom	21550
Ġmat	21549
ĠChem	21542
Ġafraid	21537
family	21526
handle	21525
Ġnorm	21520
ĠAsian	21519
Ġoccurrence	21512
Ġpartition	21498
Ġextraction	21495
ĠDate	21492
Ġrefers	21489
Ġpriority	21487
Ġcrazy	21487
ĠItalian	21484
Ġwhenever	21483
137	21478
Ġsuddenly	21474
Template	21472
Ġhouses	21460
ĠMax	21460
=>	21454
erh	21452
bas	21448
ĠGeorgia	21448
ĠGlobal	21446
Entry	21434
Ġaimed	21426
Ġargs	21414
Ã¢	21407
Ġjail	21399
Ġinhibitors	21395
Ġtaught	21385
Ġacquisition	21381
Okay	21375
Ġforum	21363
ĠFort	21362
chan	21359
AST	21358
ĠManagement	21354
Ġstreets	21349
ĠTake	21346
Each	21343
ERROR	21342
ined	21341
Entity	21336
Ġcultures	21335
Ġexpenses	21330
world	21323
icity	21323
Ġbreach	21312
ĠSource	21311
}}=	21304
,[	21301
PG	21300
stop	21292
Ġvital	21291
Ġtexture	21289
Ġ600	21289
Ġproduces	21279
Ġbuck	21278
ĠProposition	21276
Ġlease	21270
Ġconsecutive	21267
Ġupdates	21265
ĠOld	21259
rotein	21254
Ġtelephone	21254
bind	21249
ĠStud	21245
Ġsky	21244
ĠPolicy	21240
RV	21236
CV	21233
vas	21231
Dir	21228
Ġwestern	21228
Ġwatched	21228
Ġpit	21217
Es	21208
Ġsymmetric	21202
/.	21198
Ġplurality	21195
global	21188
122	21186
Ġnerve	21184
ĠRights	21183
ĠCook	21180
():	21178
ĠBell	21175
','	21171
ground	21168
Ġappreciate	21166
Ġreasonably	21161
addr	21155
Ġdish	21153
Ġfrequencies	21152
Port	21151
Ġvalve	21146
Ġsoul	21143
ĠBP	21139
Ġtrading	21138
docs	21137
Ġproviders	21133
ups	21126
ĠTor	21124
Ġgraduate	21122
Ġ>>	21122
pace	21117
Ġawareness	21106
Ġpsychological	21105
RAN	21104
Ġprocessed	21100
tte	21096
gem	21096
nr	21092
ĠRob	21089
Parameter	21071
Ġlosses	21069
ively	21054
Ġleaf	21046
Does	21037
Ġpersonnel	21032
ĠHy	21029
gua	21028
bn	21027
Ġwitnesses	21023
ela	21022
Ġplates	21020
Ġimprovements	21018
Ġvertex	21015
Ġsole	21014
Ġdestroy	21009
\_[	21008
Ġcrash	21005
Ġsauce	20990
abe	20989
Ġnamespace	20988
___	20982
Total	20981
0005	20972
Ġstruggle	20959
ĠDescription	20958
Ġvascular	20957
Ġweren	20955
Ġtank	20945
ites	20944
Option	20942
Ġlift	20942
Ġattributes	20942
Ġtalks	20940
tile	20936
Ġvideos	20936
Ġmarks	20935
Ġfluorescence	20934
ype	20930
Ġexplains	20929
Ġsponsor	20924
ished	20919
Ġaffirm	20912
Ġantigen	20902
Ġsimpl	20900
war	20899
Ġtemporal	20897
ĠMiller	20897
ĠWilson	20884
Ġtall	20883
Script	20881
ĠApplication	20878
ĠEN	20871
Ġcampus	20869
ĠLove	20866
Ġgoverning	20860
Ġpatch	20858
Ġreturning	20852
Ġ($\	20851
fb	20837
Ġmanufacturer	20832
Ġinvariant	20827
VAL	20820
041	20818
Ġ(%)	20801
\>	20798
Ġrespiratory	20797
ĠSN	20792
Ġinterior	20790
bly	20787
Theta	20787
Ġroughly	20783
Ġunlikely	20779
task	20778
lary	20771
abi	20771
-$	20771
tray	20767
ACT	20765
Ġpassage	20764
Ġawait	20763
ĠĠĠĠĠĠĠĠĠĠĠĠĊ	20760
Ġabortion	20755
unsigned	20753
Ġcreative	20752
Ġinteract	20749
Ġsem	20748
none	20747
Ġpermitted	20737
DG	20735
Ġnervous	20729
ĠCentre	20718
Ġchecks	20715
Ġrecipe	20714
Ġcooking	20713
ĠLine	20712
Module	20711
Wil	20707
Ġuncertainty	20698
tb	20697
Ġfoundation	20697
trauma	20687
Ġelsewhere	20682
ians	20673
town	20671
Ġcommunicate	20669
Ġeliminate	20668
Ġphotograph	20665
Ġdad	20665
tex	20657
Put	20647
usual	20642
Ġmodules	20642
rw	20641
Ġrestriction	20627
Ġparking	20627
Long	20618
ĠFore	20616
Ġapprox	20615
Ġsystematic	20606
Ġbounded	20604
ĠRepublic	20599
ands	20598
itz	20595
Ġcleaning	20592
Ġgeometry	20585
}.$$	20584
Ġconsisting	20583
Free	20577
Ġsodium	20575
ĠWin	20571
ony	20564
Ġcycles	20560
Ġlayout	20556
Ġkeeps	20548
Ġ1970	20548
doi	20540
ĠMuslim	20540
Ġinvasion	20535
Ġutility	20528
Ġwet	20527
Pres	20526
080	20513
Ġseasons	20513
Ġcontracts	20513
tir	20512
Ġevident	20508
Ġpeptide	20506
Ġviolent	20503
Ġdisability	20502
cv	20501
Debug	20501
Î³	20496
Ġpig	20495
Ġalgorithms	20495
Ġpipe	20494
Container	20491
Ġtub	20488
'(	20484
Ġpaths	20480
Ġconclusions	20478
Ġaffects	20477
Ã©s	20475
MAT	20471
Ġindirect	20459
Ġhook	20454
glyc	20449
Ġconcrete	20444
Ġoffensive	20441
MF	20436
hw	20430
Ġtheories	20420
Ġreject	20413
Ġmedication	20411
container	20402
Ġconsiderable	20396
afe	20395
PB	20392
Ġlab	20390
Ġfort	20381
ĠLett	20381
pec	20380
124	20380
Ġresonance	20380
Ġreaders	20378
Ġaccumulation	20374
mission	20369
1998	20361
Activity	20359
sky	20354
Ġdispute	20354
ika	20350
Ġonset	20350
Ġconverted	20348
ĠFood	20343
ĠGM	20339
Ġavailability	20335
ĠEt	20334
Store	20331
ĠServer	20328
Ġsong	20320
Ġdoctrine	20319
loose	20316
Types	20306
Ġhorse	20304
thread	20302
Ġsed	20300
Ġstrings	20297
Ġrural	20295
Ġmaintaining	20283
Ġprevention	20280
ĠJersey	20277
Ġpushed	20265
126	20263
Ġadopt	20261
Ġresolved	20259
Ġ187	20256
orrow	20254
Ġpersonally	20252
UND	20250
Ġphospho	20246
*(-	20239
Ġpilot	20239
ĠSouthern	20234
JS	20233
rating	20232
Ġaggressive	20231
ĠSon	20228
ÂĹ	20225
Ġ((-	20217
!)	20211
fix	20206
cript	20203
ĠEvent	20202
usa	20197
Ġadvantages	20195
Ġconvicted	20194
Ġ$[	20193
248	20192
RAM	20184
ĠCommunity	20183
Ġguarantee	20170
Ġphenomenon	20162
Ġfired	20162
Ġmirror	20154
Ġconvenient	20154
Ġinterference	20153
ĠÐ²	20151
Ġms	20150
ĠDesign	20147
Ġdysfunction	20145
Ġdiscussions	20134
Ġsurvive	20129
Ġsequencing	20128
Ġlifetime	20128
Ġownership	20126
Ġentries	20125
Ġending	20123
Ġcoll	20123
ĠMatt	20122
Ġpaint	20121
quot	20116
Level	20114
Ġko	20113
Ġ=\	20111
}}$.	20110
ĠLow	20102
domain	20088
\-	20086
Ġvacuum	20076
Ġregularly	20061
Ġexclusive	20058
audit	20050
Ġbull	20049
sci	20043
Ġcompeting	20041
connect	20032
NF	20018
Ġoperated	20018
191	20017
tbl	20009
bes	20009
ĠPut	19994
Ġcomprising	19987
Ġdig	19973
Ġflavor	19970
Ġguns	19969
Ġcenters	19968
Ġthinks	19962
Ġ\-	19957
ĠAuto	19957
rine	19955
green	19949
ĠFunc	19947
Ġ113	19932
Ġliberal	19931
ĠArab	19931
ific	19930
Ġentering	19929
Ġfusion	19927
Ġinsist	19924
ots	19922
Ġram	19918
erent	19915
Ġjudicial	19903
ĠWITHOUT	19903
wedge	19902
ĠÂ¶	19898
verb	19897
Ġancient	19889
Cor	19875
Ġgovernments	19863
Ġnp	19860
Ġsustained	19859
Ġdegradation	19858
Ġfalling	19857
Ste	19853
ĠMiss	19852
black	19850
inum	19843
Ġinverse	19841
ĠDid	19841
abl	19840
Ġease	19840
ages	19839
Ġsuite	19836
Ġcaptured	19834
DU	19831
Ġtomorrow	19829
uer	19826
Ġsatisfies	19824
Ġ188	19818
Ġinvalid	19817
======	19809
Ġhybrid	19804
Ġbatch	19803
cribe	19801
ĠSpanish	19799
ĠConference	19798
ĠHenry	19796
Ġdemands	19791
Ġworker	19787
Ġcla	19785
Ġcolleagues	19777
atu	19776
135	19772
Ġvice	19766
Ġremoving	19764
ĠVol	19758
ĠET	19758
Ġrecommendations	19755
Ġexpanded	19755
Ġdismissed	19751
Ġcoding	19743
+)	19737
Ġadmit	19736
SIZE	19735
Ġcoli	19734
Ġcos	19724
window	19720
Ġcoast	19720
Ġfalls	19715
Ġbottle	19711
Ġqualified	19710
ibly	19709
Num	19698
ĠÂ°	19697
Ġincorporated	19695
ĠDer	19693
Ġ121	19686
700	19682
Ġhon	19661
Fu	19659
DNA	19657
Ġworldwide	19654
dul	19652
shot	19650
Ġarise	19645
SELECT	19641
Ġprospective	19641
Ġ1989	19638
onic	19634
Ġmasses	19632
Ġprejudice	19630
ĠFrancisco	19629
emat	19628
Ġstations	19613
multi	19603
Ġpackages	19601
Ġadministered	19600
ĠApache	19597
burg	19595
Ġsmell	19592
Ġfaced	19592
stat	19591
alen	19583
Ġassays	19583
Ġexcessive	19570
ĠThough	19559
$^{	19554
Ġdip	19545
Ġscales	19544
Ġresidence	19543
Ġeggs	19534
bot	19531
Ġrape	19528
Ġseparately	19526
Ġfolks	19526
Ġdoors	19526
comment	19517
ĠPakistan	19516
Rs	19515
ĠLatin	19515
Ġkm	19510
rse	19508
fall	19503
cale	19503
anth	19503
Ġedit	19499
Ġstuck	19498
Ġscalar	19498
Ġchart	19498
Ġdecreases	19497
ĠFol	19488
Ġexploit	19484
ĠWord	19479
ĠTan	19479
Ġmortgage	19477
Ġcert	19473
Ġphysics	19471
ĠYu	19471
resolve	19462
Ġprominent	19459
*]{},	19458
Ġintervals	19457
Ġmounted	19453
Ġvotes	19452
175	19450
mote	19448
West	19444
ĠSir	19440
129	19436
enses	19435
Ġfriendly	19435
lease	19429
Ġsmoke	19429
ê	19423
wrap	19421
Ġwake	19413
Ġprotective	19413
associated	19410
220	19408
Ġtoxic	19407
Ġtargeting	19407
Ġ1988	19405
ĠEP	19404
igo	19400
Ġdestination	19400
NM	19397
ĠSher	19396
Ġum	19394
queue	19393
Ġegg	19391
seq	19386
fields	19383
ĠMajor	19379
ĠTas	19378
Ġbeach	19376
second	19373
Ġaddresses	19364
bh	19359
ĠCN	19357
Ġger	19344
$]{}	19338
subseteq	19335
ĠRun	19332
ĠWork	19317
border	19316
Ġbearing	19315
ĠSand	19315
Ġpromoter	19309
ĠDaniel	19304
205	19303
Off	19294
Ġvariants	19292
MAX	19288
Ġbands	19287
ĠPatent	19287
anno	19285
ĠGene	19278
Ġappointed	19265
binding	19263
Ġparagraph	19258
Ġflexible	19252
Ġconstitute	19248
Ġ+/	19248
Ġheavily	19247
setminus	19238
Ġpasses	19238
Ġappeals	19238
Ġ186	19237
Interface	19236
Ġsubstit	19236
Ġquasi	19233
ĠSL	19227
security	19220
ially	19219
ĠDefendants	19215
Ġreflected	19213
Ġlikelihood	19213
Ġexpressions	19212
ĠTaylor	19209
Ġexpectations	19207
det	19206
Ġjuice	19204
AGE	19195
Ġinsufficient	19191
Ġinfinite	19191
ELL	19188
Ġdrawing	19188
ette	19186
Ġseverity	19181
iner	19177
stack	19176
&=&	19173
rome	19170
Ġpace	19166
ĠUP	19165
aha	19157
Ġbike	19152
Ġratios	19144
SB	19142
Ġsuspension	19138
Ġ"<	19138
Ġmovements	19135
Ġsoldiers	19134
Ġyeah	19128
Ġsolely	19127
Ġbath	19126
Â»Â	19123
May	19123
Ġsimilarly	19123
Ġseeds	19123
Ġvaccine	19117
Ġpromotion	19114
ĠTour	19111
Ġtap	19110
Ġgod	19110
Ġconstantly	19107
lian	19106
Ġadvertising	19106
BM	19102
ĠWood	19101
Ġsees	19096
}}_{\	19092
NB	19091
Ġrelating	19090
Ġhospitals	19086
Ġswim	19082
Ġenzymes	19079
ĠIslam	19078
INF	19066
Ġbeauty	19065
DIT	19061
itate	19060
aya	19058
regulated	19052
ĠBeach	19051
.(	19050
Ġanswered	19049
uses	19044
}}$,	19042
ike	19038
Ġawarded	19034
Ġrestrictions	19033
Ġfabric	19031
Ġengineering	19029
ĠCount	19020
ĠCard	19014
Ġforest	19012
Ġsubjected	19008
Ġfeeding	19008
Ġcovers	19005
Ġmeetings	19000
ographic	18996
ĠNorthern	18987
*~*	18986
ĠNH	18985
Ġcomprises	18982
rity	18981
Ġmanual	18979
Ġvarying	18976
Ġdense	18974
channel	18973
Load	18973
ĠAcademy	18973
ember	18971
Ġear	18971
Ġassistant	18971
Ġdisclosure	18970
ĠAndroid	18968
ĠEA	18966
ãĢģ	18965
dition	18965
Ġsupplied	18957
help	18956
Access	18952
ĠRF	18952
session	18951
ĠPatients	18951
Ġresidual	18949
phase	18948
))$	18947
Ġbeneficial	18947
Ġhoping	18943
Ġprosecution	18936
Ġslight	18928
Document	18926
ĠJoseph	18925
fish	18924
ĠMedicine	18921
Ġflags	18915
ĠHead	18913
KS	18912
)/((-	18906
ĠFarm	18900
**.	18896
ĠTax	18895
Ġnations	18893
Ġenjoyed	18891
ĠMass	18889
Ġaccessible	18886
Ġexempt	18885
sens	18882
ĠINT	18881
Ġimplications	18880
Ġmag	18879
Ġlights	18872
IGN	18870
Ġimmunity	18864
Ġphysician	18863
ĠLev	18863
ĠAndrew	18854
super	18853
Ġcombat	18851
ĠPennsylvania	18848
ĠBon	18847
Ġclothes	18830
uy	18824
}}(\	18815
Ġexceed	18814
).$$	18811
power	18809
ĠIslamic	18809
Ġprivilege	18805
Ġlogical	18802
Ġages	18802
rows	18797
wid	18790
211	18790
Ġmaximal	18789
Cre	18788
Red	18786
Ġvalidation	18784
Ġbedroom	18764
Ġsuicide	18760
ĠFBI	18759
Ġsilicon	18751
Ġlaid	18750
Ġgut	18747
ĠHel	18732
ĠTotal	18728
Ġesc	18722
Ġcatal	18721
Ġbonds	18717
Ġcraft	18714
Ġcalcium	18702
hh	18695
Ġheating	18687
ĠTrust	18685
vision	18684
Ġstell	18677
week	18672
ĠRyan	18658
points	18657
Ġstorm	18652
colon	18650
Ġvitamin	18649
Ġdefines	18648
plus	18646
underline	18643
Ġknee	18638
349	18635
Ġartery	18635
`,	18630
aud	18625
Mean	18619
]{}]{}	18618
Ġcorporation	18611
Ġbas	18609
ĠPlaintiffs	18609
nin	18606
Ġranging	18602
Ġdestroyed	18599
Ġ202	18598
ĠPlay	18592
Record	18588
Ġspecify	18587
ulator	18581
Show	18580
Ġautomatic	18580
Ġimmigration	18579
disc	18578
Ġdefensive	18578
ĠLinux	18576
153	18572
enden	18570
component	18567
ĠAdministration	18567
Ġpipeline	18552
Ġdesirable	18548
hot	18546
Ġabsent	18544
Ġpose	18541
Ġdevelopers	18541
ĠNR	18534
Ġassignment	18530
Ġink	18528
Ġcollective	18524
eer	18513
ĠSteve	18513
Ġeligible	18510
Valid	18507
Ġgrass	18498
rable	18492
Ġarmed	18486
Ġerred	18484
ĠDue	18484
erin	18483
Ġaltered	18480
Ġacceptable	18478
dagger	18477
Ġluck	18473
Ġabsorb	18472
Three	18470
Ġeffectiveness	18470
ĠSanta	18463
citation	18461
Second	18461
Ġ****	18460
Settings	18451
280	18451
ĠLtd	18451
OOL	18449
Ġlateral	18449
[(	18445
pac	18443
ĠNevertheless	18440
ĠAsh	18439
Ġstruck	18438
ĠFollowing	18435
.),	18433
030	18432
Ġunclear	18431
Ġedition	18431
Ġconsistently	18430
rous	18425
ĠALL	18423
Ġsport	18422
Ġpreliminary	18420
Ġattractive	18418
Ġbuf	18413
fine	18410
Ġsessions	18408
ading	18402
Ġguidance	18402
Ġwound	18397
Ġmatrices	18389
ĠTHIS	18387
Ġvoting	18383
rise	18380
Ġstabil	18377
Ġprecision	18365
rip	18361
Ġassociate	18358
Ġloud	18356
cells	18355
OCK	18355
Ġhadn	18354
=$	18353
Ġintention	18352
Ġâī¥	18351
Ġfacilitate	18351
Ġvisited	18349
Ġperceived	18336
Ġmolecule	18324
Ġeverybody	18324
ĠPython	18324
Ġtracking	18321
Ġnormalized	18321
Ġarrangement	18314
Ġoverlap	18312
effective	18302
Ġregistration	18300
ĠBob	18284
Ġmetall	18282
Ġchil	18282
Ġcontest	18277
Ġexhaust	18273
Ġslope	18272
ĠJim	18260
Ġsystemic	18253
Ġshopping	18247
ĠColorado	18247
shape	18246
Ġintense	18243
Ġsteady	18235
Ġmountain	18234
Ġidentifying	18233
gers	18227
Ġadapt	18227
ĠTown	18227
Ġbirds	18225
Ġrarely	18221
Ġruled	18217
Ġrandomly	18216
240	18212
Ġangular	18212
perp	18209
Ġattended	18207
Ġshorter	18200
Ġpromising	18196
ĠIreland	18196
deg	18192
Have	18187
Ġchildhood	18184
Ġtransportation	18180
Ġpoliticians	18177
ĠJews	18177
031	18168
phone	18167
tech	18165
ĠSat	18163
opera	18156
Ġultimate	18155
Ġangio	18155
Ġ119	18155
Ġsync	18154
ĠUnfortunately	18153
Ġartificial	18152
ĠArizona	18145
east	18144
Ġ122	18142
support	18140
Ġintegrity	18134
ð	18133
Ġchemotherapy	18122
Ġwashed	18111
fast	18109
ĠAgreement	18109
Ġdeposition	18108
ONE	18106
Ġpregnant	18103
Ġdeeply	18100
tus	18091
GF	18091
Ġ$${	18085
Ġcalm	18082
Ġjoy	18081
145	18077
Session	18076
Ġconcepts	18074
Ġblame	18071
ĠKit	18068
Ġforgot	18065
qual	18059
Ġsentencing	18048
Ġdenial	18046
lau	18043
Vector	18035
136	18034
Ġeverywhere	18028
profile	18015
Ġresidues	18013
tool	18007
ees	18007
Ġpeer	18005
Ġdefect	18003
insert	18001
PF	18001
DH	17995
Ġmere	17988
Ġdefend	17987
INC	17986
Ġmixing	17981
ĠGrant	17981
Ġ1983	17981
_,	17978
Ġcallback	17978
Ġamended	17975
Ġallegedly	17975
Ġphases	17969
*).	17965
amine	17963
leo	17958
enum	17957
Ġprogressive	17955
ĠFamily	17955
ĠStudy	17950
ison	17945
Unit	17944
)</	17934
HM	17933
ĠIO	17921
Ġfunny	17919
language	17918
Ġfinance	17914
Ġclosure	17911
Dialog	17908
ound	17904
Hello	17902
Ġnewspaper	17900
Ġfold	17900
Ġcomputing	17888
ÎĶ	17882
1997	17880
ĠCancer	17872
ĠHor	17870
carbon	17864
ĠWas	17862
Ġcollapse	17847
MOESM	17844
Day	17844
United	17843
Ġmonthly	17837
Photo	17836
hspace	17832
Ġpacket	17832
ĠStil	17832
Ġutilized	17828
Ġ["	17827
Ġrepeatedly	17825
ĠPara	17823
Ġwrites	17815
Ġlegislative	17813
arse	17806
yme	17804
Ġlandscape	17800
ĠCPU	17798
ĠInclude	17793
\)	17787
ĠĠĠĠĠĠĊ	17785
Background	17780
Ġintellectual	17779
Ġaccompanied	17779
screen	17773
ĠSeries	17773
Ġenemy	17771
Ġoven	17770
Ġcurrency	17767
eqn	17766
ĠAbout	17766
Ġsilent	17764
Ġpie	17759
Ġdisabled	17759
ĠStep	17759
Ã¨	17756
xb	17754
cond	17751
Ġlying	17751
Ġarranged	17748
mM	17745
Ġlabels	17745
cultural	17744
Body	17743
human	17741
Ġskip	17739
Ġviolated	17738
Ġmitochondrial	17723
Ġreporter	17722
Ġmel	17722
ĠJSON	17722
Convert	17720
Ġgovernor	17719
Ġpulmonary	17715
ĠCarl	17709
ques	17708
Ġchecking	17708
cute	17705
Ġdiscrete	17702
Ġvessel	17701
Ġml	17701
ATT	17700
vern	17695
admin	17695
Ġbankruptcy	17693
Ġenvironments	17692
Ġabnormal	17692
sue	17691
gio	17687
ĠMM	17686
AH	17685
Ġsurveillance	17682
Ġgly	17681
ĠIndex	17680
inflammatory	17675
cancer	17674
Ġton	17673
Ġ(@	17664
ĠBitcoin	17660
connection	17651
Ġxe	17651
Ġreveals	17643
ĠHistory	17635
Ġstudying	17632
prote	17630
Ġlanguages	17629
Ġremed	17623
flags	17622
Ġtopics	17622
cz	17617
Ġrs	17616
edly	17611
ĠSpain	17611
Ġreadily	17609
Ġvoted	17608
ĠOct	17605
Stat	17604
========	17602
Ġresin	17601
Ġpropose	17596
Gl	17594
0010	17592
Ġperception	17589
Ġrecovered	17586
Ġsupporters	17583
.*]{}	17581
ching	17580
Ġ\*	17580
Ġatom	17578
Ġhet	17572
\[[@	17568
Ġmath	17564
Ġpanels	17559
Ġtunnel	17558
Ġski	17553
Ġ124	17549
Ġreversed	17539
ĠKingdom	17538
ESS	17534
Ġderivatives	17534
Ġjson	17528
NL	17524
ĠEastern	17524
BER	17514
Ġdoses	17512
Ġcoating	17508
Ġflip	17507
Ġdefects	17505
Ġinterpreted	17503
Ġtroops	17498
Ġflour	17498
Ġcorrelations	17494
Ġputs	17492
)'	17485
Ġsouthern	17476
Ġtransactions	17470
Ġpic	17463
Ts	17462
Ġanchor	17461
ĠMicro	17460
bie	17452
pub	17449
Ġliked	17445
Ġ185	17439
rene	17433
pers	17433
Ġfibers	17429
Ġdisaster	17429
throw	17426
category	17426
watch	17422
Ġcholesterol	17422
ĠPhil	17417
ĠMethods	17409
Ġwedding	17405
Ġwireless	17400
tools	17399
random	17397
Ġairport	17392
figure	17390
Ġlifestyle	17388
ĠÂĹ	17387
Ġprinted	17386
Reader	17385
Ġcombine	17385
ption	17384
ĠLau	17384
Ġcriticism	17382
TON	17381
Ġduties	17379
Assert	17376
ĠMarket	17376
Ġ---	17375
fly	17374
twin	17369
Ġax	17366
review	17363
Ġprosecutor	17359
rude	17355
Ġlabeled	17351
Ġcooling	17351
opic	17348
ĠDev	17346
Ġexciting	17344
Ġprinting	17342
Ġ1987	17342
ĠSW	17341
Ġactor	17337
ĠFull	17337
Ġphysiological	17333
pma	17330
Ġathlete	17328
ĠEu	17327
Ġqueue	17326
Ġowe	17325
Ġdiffusion	17324
ĠFair	17320
Ġrating	17317
fact	17313
Ġleuk	17313
Ġauthorized	17313
Font	17312
Ġexpressing	17310
ĠJun	17305
Ġinfluenced	17304
=============	17303
Ġwage	17301
Ġillustrated	17301
ives	17299
rage	17298
Ġknock	17297
Ġassociations	17294
^{-\	17292
gie	17291
Ġ|\	17291
Ġplug	17290
Ġnuclei	17288
ĠClark	17287
Ġdistinction	17284
Ġalum	17284
ĠPART	17284
pool	17283
ĠWARRANTIES	17283
ĠHard	17282
Ġcourses	17281
grid	17279
BT	17262
zed	17255
ched	17255
Ġisolation	17251
race	17250
because	17250
Rect	17247
Ġintersection	17247
Ġgenomic	17243
1995	17234
Ġattitude	17232
Ġloans	17229
(){	17226
Cons	17220
amo	17213
ĠChildren	17212
Ġconnecting	17207
Ġinspired	17205
vag	17204
Ġvalidity	17200
ĠProp	17197
large	17195
Ġcontention	17188
news	17182
)\,	17174
ĠSupp	17174
Ġgalaxy	17172
soft	17161
Ġhopes	17152
ĠImages	17150
Ġpending	17144
Ġsomebody	17143
ament	17136
ames	17135
Ġguest	17135
ĠKorean	17134
ÂĶ	17133
Ġgross	17126
plugin	17124
good	17123
Ġawesome	17120
ĠPacific	17117
tland	17111
Ġcake	17110
Ġcontacts	17109
Sal	17107
used	17102
AX	17096
Ġperiodic	17091
Ġtolerance	17088
^{*	17086
Ġdenotes	17083
Ġbrush	17081
Ġgentle	17080
ĠCommissioner	17076
season	17073
Ġdp	17073
Ġcardiovascular	17067
ĠSpring	17063
Ġslip	17060
Ġpreventing	17059
Ġphosphorylation	17059
ĠUnit	17056
uu	17046
ĠThird	17040
Handle	17035
ĠMean	17031
Ġtransmitted	17028
ĠAlex	17028
Ġcontin	17027
Ġestimation	17024
ĠAgency	17023
ĠGames	17022
Ġliterally	17021
move	17016
Ãł	17014
ĠZealand	17013
anis	17004
ĠWithout	16994
ĠAnderson	16993
Ġpounds	16991
resource	16990
Operation	16990
ĠTitle	16990
ĠHB	16990
Ġembodiment	16988
Ġswitching	16986
Ġkick	16981
Ġmotivation	16978
istry	16974
âĢ²-	16971
fore	16964
Product	16961
Ġgenuine	16957
Integer	16954
ĠGT	16954
Ġmsg	16949
\*\*	16948
Ġdest	16947
Ġalarm	16946
ester	16945
Ġorbit	16941
IST	16940
Ġpublicly	16938
Ġdestruction	16937
Ġovernight	16936
Ġtonight	16934
Ġgravity	16934
Ġbathroom	16933
enable	16927
short	16922
rift	16917
Ġnose	16912
Ġ129	16912
Ġabs	16910
350	16908
Ġworried	16906
Ġregulated	16906
ĠVar	16904
Ġobesity	16902
Null	16899
âĢĻ.	16893
inner	16892
Ġnecess	16892
uba	16886
Ġdifficulties	16885
Ġamendment	16882
Ġspell	16881
ĠRegister	16876
ĠĠĠĠĠĠĠĠĠĠĠĊ	16873
oplus	16868
ĠNat	16868
Ġ135	16868
ĠDist	16867
ifying	16865
eut	16865
Ġspecificity	16864
Ġcrypto	16860
ĠStephen	16860
Ġdelayed	16859
Ġassumptions	16854
bull	16849
Ġepisodes	16848
Ġboxes	16847
WH	16846
Ġfactory	16844
Ġconvent	16843
register	16841
Ġunexpected	16841
Ġ&=&	16838
KEY	16837
Ġsearching	16836
ĠStart	16835
ĠHamiltonian	16834
ĠNL	16829
Ġpoverty	16827
Ġfounded	16827
hard	16826
Ġoli	16824
Ġlaugh	16821
Ġattributed	16797
also	16794
VM	16788
ĠIowa	16782
Maybe	16780
Ġhardly	16775
âĢ¦.	16771
Ġdisplays	16769
Ġretail	16768
Ġsynthetic	16762
Ġacknowledge	16762
HTML	16759
erb	16757
ĠConsequently	16750
pher	16748
Ġtranscript	16746
ebe	16745
NUL	16744
IONS	16744
Args	16743
Ġweird	16741
Ġgang	16740
Multi	16739
Ġss	16738
Lin	16735
'"	16733
Ġblocked	16733
Ġcompatible	16731
Ġjustify	16730
toString	16728
Ġhits	16728
Ġwing	16726
_+	16716
Ġshoes	16709
Ġpunishment	16704
Ġrevolution	16702
ĠWITH	16701
Ġinterfer	16700
Ġsilence	16698
Ġindica	16698
Ġbel	16697
Ġbeliefs	16695
ĠProfessor	16688
sort	16687
Ġ1985	16687
wave	16680
Ġrip	16676
Ġ255	16667
Ġclip	16659
mium	16657
Ġpartnership	16651
ĠHim	16651
Ġboss	16648
Ġpleasure	16647
Ġvisits	16645
Ġenables	16638
ANT	16637
Ġaffecting	16637
Ġpermissions	16636
+(	16635
Ġobtaining	16631
Ġ126	16630
ART	16627
Abstract	16625
ĠFord	16625
Diff	16623
TX	16622
Ġmeaningful	16621
Ġpotent	16620
Ġtrends	16611
DK	16610
Ġlys	16609
obi	16589
Arg	16584
Ġdifferently	16583
Ġengagement	16577
ĠSaudi	16576
Ġhtml	16574
Collection	16568
ABLE	16564
Bio	16562
Ġrib	16562
Ġdescribing	16559
Ġdeclaration	16559
Ġbehaviors	16559
Ġscare	16558
Ġyeast	16554
ager	16552
San	16551
ĠPlace	16550
High	16549
Ġtradition	16549
password	16548
ĠAV	16548
Ġmerc	16547
ĠCore	16546
Ġbreaks	16542
Ġfits	16541
modules	16540
Ġreflects	16539
erl	16538
analysis	16538
Ġgenerator	16531
Ġdemocracy	16522
042	16521
Ġasks	16520
Ġamp	16520
rist	16518
Ġinnovation	16516
Ġdeals	16510
ĠKur	16501
Ġweights	16500
Ġdesignated	16500
ĠPass	16500
}})$	16497
Ġselective	16493
Ġfactual	16493
Ġunderwent	16492
Ġobstruct	16492
Ġrefuse	16490
ĠColumbia	16488
ĠCamp	16486
ĠMinistry	16485
Ġinterviews	16484
Ġagenda	16484
Ġkiss	16481
Ġintrinsic	16481
\#	16480
$^{-	16478
Today	16477
Ġinvestigations	16476
Ġcommands	16474
Ġpolynomial	16467
rite	16465
Ġpredictions	16464
ĠSpecifically	16456
Ġanger	16454
Values	16451
rank	16446
Ġ({	16443
Param	16442
Items	16441
Ġorange	16437
ĠJordan	16435
Ġapps	16434
Ġannouncement	16428
"",	16426
ritic	16423
Ġfitness	16412
Ġ".	16407
days	16405
ĠĠĠĠĠĊ	16397
Ġcoal	16393
ĠJon	16392
outs	16390
Ġpassion	16388
Full	16384
Ġtweet	16382
Ġequality	16382
stone	16379
ĠRather	16377
Ġlistening	16373
Ġ170	16371
ĠNatural	16367
Ġsegments	16364
gather	16363
ĠAward	16363
calc	16359
Ġweekly	16358
Ġspray	16352
Ġradial	16350
Ġprescription	16343
Ġfarmers	16335
door	16331
azi	16331
switch	16330
Ġpython	16327
âĢ¯	16325
Ġcomputational	16320
gli	16316
Ġvariant	16315
Et	16314
_{{	16313
kan	16311
Ġconsciousness	16309
ĠDV	16309
Ġfocusing	16306
Ġconspiracy	16306
person	16305
Ġboundaries	16296
Life	16289
ĠTel	16289
too	16281
condition	16280
party	16275
buntu	16275
ĠFac	16267
ĠSciences	16266
++;	16261
'-	16260
Ġtrivial	16260
Ġ1984	16257
Ġscaling	16250
cases	16246
Ġangry	16245
ĠAccess	16244
oline	16239
ĠTre	16231
Ġphrase	16228
Ġupgrade	16227
Ġcomputers	16227
Ġfranchise	16223
derived	16220
ĠMethod	16218
atch	16210
ĠFalse	16206
Ġadapted	16205
Hz	16201
organ	16199
Ġsep	16195
ĠBible	16193
Ġintracellular	16192
Ġregulate	16190
lly	16189
Ġphysicians	16189
Ġterrible	16188
Ġvaried	16186
Ġneglect	16183
Ġroads	16181
Ġexcuse	16178
Ġheading	16173
Ġimpressive	16169
}$)	16168
SQL	16167
trix	16165
Ġchocolate	16163
Ġfatty	16159
Ġexclusion	16159
ĠSk	16158
Ġaims	16153
Ġdeeper	16150
Ġdates	16150
Ġvertices	16146
ĠJS	16142
Despite	16137
Ġindices	16134
Ġ"-	16133
Ġsettled	16123
Ġfunded	16116
.:	16113
Ġ{@	16112
ĠDocument	16112
Ġimpression	16110
ĠAdam	16110
ody	16108
PLE	16106
energy	16105
Ġrestaurants	16104
ician	16103
Ġnegligence	16102
Ġpathogen	16100
Ġpeaks	16096
Ġracial	16091
ACE	16088
"));	16088
Ġlimiting	16083
Ġfounder	16083
Ġmature	16079
Ġchains	16077
Ġmood	16074
Ġquantities	16065
Ġepithelial	16064
Ġbelt	16058
Ġmagazine	16056
Ġfingers	16055
ĠFT	16052
ĠNode	16048
Ġmad	16047
activity	16044
Ġsatisfying	16043
Ġscoring	16041
Ġcatalyst	16037
Ġmatched	16034
ĠJul	16030
ĠSelect	16028
Ġconsensus	16027
Ġsucceed	16025
Ġfatal	16020
Ġdict	16016
Ġproposition	16014
Ġbreakfast	16011
simeq	16007
Ġfake	16004
plot	16003
ĠSky	16001
Identifier	15998
Ġchoosing	15997
Ġnov	15996
epa	15995
ĠColor	15993
Ġdollar	15986
Ġvulnerable	15985
_(	15978
()->	15977
Ġlawsuit	15977
ĠLas	15975
.).	15973
Ġrescue	15972
Ġmanually	15972
Ġconfident	15970
Ġdeserve	15968
ĠDH	15968
Ġdamaged	15965
Ġwondering	15963
Ġae	15962
ĠFactor	15960
Ġpreferably	15958
ĠTry	15958
ĠEnter	15958
tÃ©	15957
bibr	15957
152	15955
Ġlikes	15946
Pan	15943
Norm	15943
Ġassemble	15941
Ġstrictly	15937
Ġrepresentations	15934
Ġtied	15932
Ġreply	15932
HF	15920
tron	15918
Ġtur	15916
ĠCoast	15916
Params	15911
Ġsupplies	15909
)^{-	15906
Ġ05	15906
ĠNick	15905
Ġshots	15904
Ġcone	15903
Ġbelong	15903
Ġlegitimate	15892
ĠArea	15892
stage	15890
uous	15886
oct	15881
Ġisolates	15876
ĠIB	15875
aq	15872
sz	15866
Take	15862
MN	15862
ĠSm	15857
Ġpushing	15843
Ġbrew	15842
tip	15838
ĠDP	15838
ĠAngel	15837
Ġbehavioral	15836
ĠTro	15835
Ġions	15832
Global	15831
FLAG	15829
ways	15828
Ġvisitors	15827
Ġbounds	15826
171	15823
Ġ$.	15817
Ġbills	15816
Root	15811
ĠParliament	15809
Ġreputation	15808
;">	15805
Ġquote	15805
Ġgray	15803
Ġentities	15803
ĠMinnesota	15801
Ġobjection	15798
nou	15797
Ġviruses	15797
Ġcontend	15797
Json	15794
ĠNM	15786
fx	15784
Ġinspect	15781
ĠCommonwealth	15778
ĠTurkey	15777
Ġyours	15774
dian	15772
Ġdimensional	15769
WN	15768
Ġxmlns	15768
mia	15767
185	15767
ĠSoviet	15761
hai	15751
ĠFisher	15751
Discussion	15746
away	15739
ĠCorn	15736
aving	15734
Ġrestore	15732
222	15730
Â³	15729
connected	15727
Ġexclude	15724
Ġbaseball	15724
ĠHarris	15723
_>	15718
Ġpill	15717
165	15716
Ġemerging	15715
Ġnucleus	15714
ĠPath	15713
Ġhealing	15711
Ġyo	15710
Ã©e	15709
Ġequipped	15709
fail	15707
="@	15707
026	15706
Ġposterior	15706
ĠEli	15705
transform	15699
Author	15699
Ġtrail	15698
ysis	15697
ĠTNF	15691
Ġbirths	15690
lun	15688
dst	15678
Ġinquiry	15678
Ġsue	15675
idx	15674
python	15673
ĠGaussian	15672
Ah	15667
ĠUs	15667
Ġcavity	15666
Ġmembership	15664
Bel	15663
$^	15661
Ġpocket	15658
Ġdebtor	15657
ĠHTTP	15657
Ġdeficiency	15654
Ġsensors	15652
Ġpreserve	15651
Ġurge	15650
ĠCambridge	15650
Ġ134	15649
Ġtoxicity	15647
ĠLewis	15647
Ġterritory	15645
Ġcertificate	15645
Round	15642
AMP	15641
Ġoxidative	15635
ores	15633
Proto	15628
Ġsingular	15626
ĠAssembly	15626
Ġvessels	15623
024	15622
Ġstomach	15622
Ġinvited	15622
Ġarrive	15622
ĠMoore	15620
Ġplatforms	15616
Ġauthentic	15616
Ġpromised	15613
video	15610
>();	15610
Ġtired	15610
joint	15609
IZ	15607
chl	15604
zone	15603
Process	15603
Ġinspection	15603
Ġsaving	15602
Ġextending	15602
,_	15597
Ġdefining	15597
Ġmuscles	15596
Ġmodeling	15596
Ġodds	15595
ĠMAP	15589
Ġparticipated	15588
Ġgranul	15587
Ġhero	15585
Ġnurse	15583
Ġagreements	15582
player	15581
ĠFS	15581
ĠDL	15580
Ġ\_	15578
enced	15577
ĠBrazil	15574
033	15573
Ġstrategic	15571
ĠLive	15566
Ġinflation	15564
keys	15561
270	15556
Ġinjected	15548
ĠLittle	15547
Widget	15546
Ġpoi	15544
btn	15543
ĠYeah	15542
Ġpointing	15541
Ġaccurately	15536
Tran	15535
Ġtransit	15535
ĠProperty	15532
ĠĠĠĠĠĠĠĠĠĠĊ	15532
ĠVietnam	15531
General	15526
Ġencounter	15526
Ġopens	15521
Ġsuspected	15518
Ġestablishment	15510
138	15502
Ġsuck	15502
`.	15501
Ġregarded	15501
Ġgrateful	15501
ĠMas	15501
Ġcortex	15500
ĠIndiana	15493
4000	15492
Ġdivorce	15490
Ġtalent	15488
ĠAfghanistan	15488
Ġexpense	15480
ĠSpr	15476
Ġbird	15468
ĠException	15468
enter	15464
onder	15458
Ġresistant	15458
ĠToronto	15455
Ã§	15454
ĠUnless	15454
ĠâĢĭ	15453
Ġdecent	15451
Ġstayed	15450
Ġ184	15450
Ġscroll	15449
ulture	15448
Ġcomply	15444
ĠDefense	15444
Ġaden	15443
},{	15437
Ġpublish	15437
Ġresort	15434
Ġreliability	15434
FM	15432
Ġconstructor	15432
century	15431
Ġpromoting	15431
Ġ<!--	15431
NU	15428
Ġnarrative	15427
degree	15426
Ġeth	15426
âĦ¢	15425
Support	15423
Ġarising	15419
Ġcomparisons	15416
ishing	15414
Ġelectrons	15414
ĠRound	15414
ĠWay	15408
ĠFM	15406
ĠSpec	15405
Ġresident	15404
area	15403
Ġanalytical	15401
ĠFather	15401
Ġendothelial	15400
Ġelderly	15399
[-	15398
>'	15391
Ġ1981	15389
Ġ-------	15388
sex	15386
Ġplugin	15386
Ġadjustment	15386
YS	15377
ERN	15376
Ġenergies	15375
Ġemphasis	15375
cks	15368
Ġpersonality	15367
ccess	15366
>)	15366
ĠLibrary	15360
Ġdemonstrates	15358
compar	15345
Ġspots	15344
ĠDaily	15339
Ġaffidavit	15336
1992	15335
Ġexisted	15334
Ġarrival	15333
CONFIG	15331
Ġthreats	15330
Ġuptake	15329
Ġ136	15327
Ġcorn	15323
Ob	15316
Ġdefinitions	15316
ĠEL	15315
spin	15314
ĠPy	15311
Ġvariability	15305
Ġdistances	15304
ĠChen	15303
ĠHouston	15301
Ġvisiting	15295
ĠSports	15295
Ġcomplain	15294
READ	15293
Ġlocalization	15292
Ġdocumented	15291
ĠSystems	15290
ĠDam	15290
ĠTrade	15278
Icon	15272
156	15271
Ġlands	15265
elt	15258
Ġwarranty	15257
ĠDifferent	15255
Ġ***	15255
ĠND	15254
Ġsatisfaction	15253
Helper	15249
Ġlibraries	15244
Ġappellee	15242
eon	15240
1991	15240
ĠRest	15239
Jun	15225
Ġquit	15223
Ġsacrifice	15221
Ġconfusion	15219
ross	15218
Media	15218
Ġcomplaints	15214
Ġheaded	15212
Ġnucle	15211
ols	15210
Ġranges	15209
Ġ1960	15206
Based	15205
Ġwrap	15205
Ġgrip	15198
Ġnitrogen	15196
utils	15192
Ġinputs	15191
utt	15187
ĠQueen	15177
ĠChristians	15176
Ġalongside	15173
ply	15170
Ġthirty	15165
ncing	15164
attribute	15163
nutrients	15162
MAP	15161
10000	15161
sensitive	15159
_-	15156
Ġemerged	15155
Ġdental	15155
Ġsurprising	15144
sun	15138
Ġblot	15134
ector	15128
Ġinstruct	15128
Ġcapabilities	15128
Ġsuggestions	15127
Ġdenying	15126
court	15120
Ġbench	15120
ILL	15116
ĠInterestingly	15111
Ġwise	15110
ĠHeat	15107
EU	15104
Ġbasketball	15096
$).	15095
Ġparticipant	15092
$_{	15090
Ġfaculty	15087
ĠNations	15087
Ġfulfill	15085
filename	15078
825	15078
ĠCV	15078
"?	15075
Ġdecimal	15074
'],	15072
ĠKal	15071
ĠHz	15067
Ġinduces	15064
Ġ).	15064
Mc	15063
Close	15057
Ġtear	15055
ĠLeon	15055
imple	15049
Ġ800	15047
Ġhosts	15045
>"	15043
Ġoccasion	15043
ĠPay	15043
bid	15038
Ġsigning	15035
ĠEi	15034
selected	15033
ĠCt	15033
Ġwinner	15032
Both	15031
Ġcollaboration	15030
028	15027
cis	15022
Ġvirtually	15020
News	15018
Ġatomic	15007
Properties	15003
callback	14998
UV	14998
World	14996
vable	14995
Doc	14993
elli	14992
POST	14990
ĠEric	14988
ĠPrice	14982
Display	14977
Ġclaiming	14975
ancing	14973
Ġwelfare	14971
icing	14968
FIG	14968
Ġwaters	14958
Ġapi	14954
Ġrespondents	14946
ured	14945
Ġcoronary	14945
ĠAlb	14944
Ġfiscal	14934
Ġ``	14930
Ġinterpret	14927
Ġblocking	14927
Ġlongitudinal	14926
ception	14918
enic	14916
Ġfrozen	14916
Ġconstraint	14914
Thus	14911
ĠJi	14910
semi	14909
ĠGas	14905
Ġmas	14904
Ġlocked	14904
Ġtransformed	14901
Ġprotocols	14900
Ġbleeding	14898
Ġeu	14893
west	14892
Jul	14890
Ġchances	14889
Star	14886
models	14885
Ġrecurrence	14885
ĠDoc	14884
Ġaffirmed	14876
Ġblast	14874
ĠMis	14874
ĠContin	14869
Â¤	14866
Ġhistoric	14866
Ġcontra	14859
ĠIgG	14857
omer	14852
expected	14849
Ġdecomposition	14847
Delete	14846
Ġwavelength	14844
Ġcultured	14843
Ġdrama	14842
Ġsudden	14841
Ġsubgroup	14841
Ġconstants	14841
Ġasset	14839
uary	14836
ĠShould	14835
Ġshortly	14832
uid	14825
Ġwins	14825
actor	14824
Ġshower	14823
ĠMus	14821
chen	14820
ĠSort	14820
Ġshaft	14819
Ġcircular	14818
Panel	14812
osure	14808
ĠStore	14806
Ġtimely	14805
ĠContent	14805
Ġdonor	14804
Ġdetermines	14804
161	14803
ĠWis	14801
cours	14800
Ġdistress	14799
Ġtracks	14794
Ġappreciated	14792
reen	14790
Ġappointment	14789
Ġsolved	14787
ĠMU	14786
Thu	14781
Ġenterprise	14781
awn	14780
Ġlig	14774
Ġboil	14771
uil	14770
Editor	14765
ĠTHAT	14765
Ġcookies	14756
agen	14755
ister	14754
Ġrail	14754
pair	14752
aver	14751
Ġthrown	14751
Math	14746
Ġoptional	14743
ĠHP	14742
ĠOb	14741
ĠPhoto	14740
CRE	14737
linux	14734
Ġpostoperative	14732
ĠBlock	14730
ĠRM	14728
Âĳ	14726
ĠAllen	14726
pes	14724
Ġthreatened	14724
Ġtender	14723
eT	14722
Ġheaven	14721
Ġmemories	14717
TIME	14716
ĠDisease	14709
Ġstimulus	14707
Ġcustody	14706
Ġ1982	14705
Space	14702
NH	14698
Ġstriking	14695
Ä±	14693
TEN	14689
ivar	14685
nda	14684
ĠWatch	14681
ĠFeb	14675
Every	14672
Ġcancers	14672
tea	14668
Ġflood	14665
Ġmothers	14661
Ġinstruments	14660
Ġblank	14660
cious	14656
Ġcircuits	14656
ĠChange	14656
Ġflying	14655
ĠHoly	14653
ĠFinal	14651
Ġfantastic	14650
ĠMayo	14646
Ġtags	14644
Stop	14641
Ġrect	14641
stic	14635
lower	14631
orm	14630
Ġartist	14628
ĠHon	14628
Ġtriple	14622
Ġdamn	14620
Ġliable	14616
Ġalbum	14616
Ġshelter	14615
Ġchallenged	14613
ĠFilm	14612
pane	14607
yin	14604
bal	14604
Ġeveryday	14604
Ġentrance	14603
Ġdump	14601
Ġtraits	14597
Ġov	14596
ĠTer	14595
Kr	14594
Definition	14593
139	14593
Parameters	14589
Ġgrave	14587
ĠWel	14587
ational	14581
Ġinject	14580
Ġconserved	14576
Ġinches	14575
Ġconvergence	14569
Ġdispersion	14567
Ġvegetables	14566
Ġdried	14566
ĠTT	14565
Ġmathematical	14564
Ġresidential	14563
Layer	14561
Ġflows	14559
Ġbelongs	14559
wort	14555
ĠÎĶ	14554
Ġstained	14554
izations	14551
Ġovert	14549
vee	14545
hon	14544
hbar	14544
sid	14542
ĠOUT	14541
ĠCast	14539
!!!	14538
Ġsatellite	14536
Ġviewing	14533
ĠWisconsin	14533
ĠInst	14532
Ġshake	14530
Ġmining	14530
mind	14529
.\[[@	14529
Â£	14527
Ġphoton	14525
Ġadaptation	14522
174	14519
Ġminds	14517
Ġseats	14516
Ġgraphs	14515
Real	14511
Common	14510
Ġasthma	14502
ĠXML	14502
âĢĻ,	14499
Ġexclusively	14499
)^{\	14497
Ġgradually	14496
Ġreconstruction	14495
176	14487
ually	14486
settings	14486
TING	14485
Ġprevented	14485
Ġperpet	14485
Ġjournal	14485
handler	14484
ĠABC	14475
Parent	14474
PK	14473
Ġlady	14473
Ġconcur	14470
Ġinsertion	14468
Ġflowers	14468
Ġconjug	14466
ĠUSE	14466
rx	14464
PATH	14463
Ġwidespread	14456
Ġgeneralized	14451
Ġsimilarity	14450
Ġestablishing	14449
ethyl	14448
standing	14447
Ġconfused	14444
ĠâĤ¬	14443
Ġbore	14443
Ġmaternal	14441
Ġactors	14441
economic	14439
Ġrespondent	14434
FONT	14433
Ġjoining	14433
Ben	14429
Db	14426
ĠHF	14424
three	14422
[*	14420
Ġstating	14419
179	14418
Ġindependence	14417
Ġfilters	14414
ĠAU	14414
Ġachievement	14413
Ġmethylation	14410
otion	14409
WORD	14409
rolled	14408
names	14405
Ġbelonging	14404
ĠKelly	14404
Ġknife	14403
Ġdescending	14398
prefix	14397
Ġreplied	14397
Ġarr	14397
203	14392
Ġbarely	14389
Ġcompression	14387
ĠCooper	14384
Ġcrop	14382
Ġacceptance	14382
Ġspit	14380
Ġscenes	14377
solid	14376
eck	14373
Ġmate	14370
ĠSTATE	14369
Ġseeks	14368
ories	14364
Ġsquad	14364
rue	14361
rer	14360
Ġanterior	14360
Ġguests	14357
Ġloves	14353
operative	14350
Ġmyth	14350
ĠSometimes	14350
prise	14348
hydroxy	14347
URI	14346
ĠPV	14345
Ġmotions	14344
Ġflex	14344
âĢĶâĢĶ	14343
ĠGB	14340
Ġsymbols	14338
Ġocean	14338
ventricular	14337
Enabled	14337
ĠGil	14337
Ġscholar	14336
Ġbomb	14333
Ġquestionnaire	14332
Del	14331
printf	14330
}),	14328
Ġbold	14328
ĠMerc	14328
Ġhop	14325
Ġanimation	14322
Ġsalary	14320
Ġsake	14320
vp	14319
Ġplacement	14319
marks	14315
gif	14315
ĠKansas	14314
uple	14313
ssl	14310
Ġincredible	14309
Ġdeletion	14309
213	14306
Ġprescribed	14304
Ġcapability	14304
ĠBrian	14303
Ġesse	14302
Ġcanonical	14302
Wait	14297
ĠReturns	14287
zh	14284
Ġprocessor	14284
Ġdramatic	14284
Ġxml	14282
ĠSEC	14279
vein	14278
mass	14278
Ġdating	14275
ĠRon	14272
184	14267
Ġmanaging	14263
Ġunfair	14262
Ġcontroversial	14261
Ġshed	14259
complete	14256
Fs	14256
Ġattorneys	14255
Ġbriefly	14251
Ġspokes	14249
Ġlean	14244
words	14229
gate	14229
schema	14225
oan	14221
Opt	14221
Ġcylinder	14219
ĠNature	14217
Super	14216
aint	14215
asing	14211
Ġindictment	14211
ĠMassachusetts	14209
Ġacknowledged	14206
Ġcocaine	14205
VP	14204
Ġemissions	14204
CHAR	14203
ided	14202
="{	14198
Ġpeptides	14197
Ġviolations	14196
ĠProcess	14192
Ġpartly	14186
ĠSanders	14182
Ġsurely	14181
MIN	14180
ĠGE	14180
)},	14176
Ġoffices	14174
ĠOrganization	14174
ĠCNN	14174
Ġethnic	14170
Ġsubsid	14167
Ġdietary	14166
Ġempirical	14160
tics	14159
Ġundergo	14159
ĠShort	14159
Ġprotecting	14158
Ġstyles	14157
Ġletting	14152
ĠMuseum	14149
Ġparticipating	14147
Ġacquire	14140
Ġsavings	14138
Ġinvestigating	14138
shin	14134
Ġconservation	14131
Ġscrew	14128
ĠImmun	14128
Ġprovince	14124
Ġrom	14123
disable	14121
bytes	14117
Ġunnecessary	14113
Ġfelony	14110
ancies	14109
ĠAug	14107
Video	14105
ĠMars	14104
ĠMemo	14103
Ġgolf	14093
Ġmediated	14090
eman	14088
ĠSyrian	14088
ĠPlus	14087
ĠCome	14087
Ġrevision	14085
Ġadvised	14085
ĠGraph	14081
Ġrepresentatives	14076
ĠKas	14075
Ġtherein	14074
ĠIl	14071
Changed	14069
Ġ145	14066
standard	14065
ĠClinical	14064
ĠGOP	14060
ĠPub	14059
182	14057
Ġcancel	14054
ads	14051
Flags	14049
Appellant	14047
ĠStation	14044
Ġmodifications	14043
pent	14037
yle	14034
sting	14029
ĠInit	14028
println	14025
ĠArg	14023
Ġoutstanding	14022
Ġplots	14018
Ġphenomena	14018
Ġtutor	14017
Ġcopper	14017
ĠSol	14016
Ġduplicate	14014
Ġremarkable	14013
Ġmembranes	14013
~-	14012
Ġlovely	14009
)})	14008
wen	14007
History	14007
Custom	14006
five	14003
Ġparams	14002
chemical	14000
Ġcooperation	13998
ĠKong	13998
ĠKevin	13992
.",	13990
shaped	13989
Ġ138	13989
Ġwarned	13984
Ġ]{}	13982
occup	13981
Ġelectrodes	13976
Ġpc	13975
Ġemotions	13973
cong	13972
Ġsentences	13966
ĠBall	13965
Ġconfigured	13963
Ġimpaired	13962
Ġoutbreak	13960
Ġanal	13956
guid	13955
angle	13953
Ġmerit	13953
Ġtowns	13952
INI	13950
Ġgit	13947
ĠBMI	13947
ride	13946
Ġlucky	13946
sea	13941
Ġnursing	13939
Ġactively	13938
mir	13934
Bytes	13931
nity	13930
ĠIrish	13928
Ġdebut	13925
Ġqualitative	13924
ĠYe	13924
ĠNT	13923
Ġlisting	13921
ils	13913
037	13911
Ġ137	13911
Ġsecretion	13910
results	13906
ĠHotel	13905
users	13903
ĠKeep	13903
Ġemerge	13896
}$-	13894
Ġaccomplished	13893
Save	13891
ĠAvenue	13890
thumb	13889
Ġrings	13886
fan	13885
Ġmesh	13883
Ġdecor	13883
ĠDrug	13883
Ġrevise	13882
Ġrelate	13880
ĠUkraine	13875
Ġarb	13873
ĠSix	13871
Ġwider	13870
ĠSeven	13870
yth	13867
Ġorbital	13865
Ġencouraged	13863
risk	13860
phys	13860
Ġintestinal	13858
ering	13857
ante	13855
ĠSign	13854
fil	13851
Ġcorruption	13851
voice	13850
Ġshipping	13850
square	13849
GD	13847
Ġinitiated	13846
Ġlogo	13844
Ġinfants	13844
Ġdot	13843
Ġmutual	13839
ĠJeff	13839
PV	13833
Ġrelies	13832
anic	13830
038	13822
mapsto	13819
ĠAle	13818
$;	13815
===	13813
Active	13812
Ġposting	13811
Ġreasoning	13810
Ġsecretary	13809
Ġpositively	13807
Ġgenerations	13807
Ġcircles	13807
Ġdye	13803
ĠManager	13803
metadata	13801
Ġbirthday	13798
![](	13797
burn	13795
Ġslide	13788
herent	13786
Ġexplored	13786
Given	13782
Ġfiring	13779
Ġstops	13778
ĠBran	13778
ĠColl	13777
Ġanalytic	13776
displaystyle	13775
Ġgraft	13774
Ġdominated	13774
ision	13773
ĠAve	13773
Ġ350	13772
rative	13771
225	13767
Ġstudio	13766
Ġshade	13763
Ġaccomplish	13761
Ġimportantly	13760
ĠATP	13758
Ġelastic	13757
Adapter	13753
)*-	13752
ĠReact	13744
Ġshame	13741
phenyl	13740
0000000	13737
library	13734
LICENSE	13734
>>>	13734
)}{\	13732
},$$	13730
Ġpermits	13730
Ġbes	13730
Gene	13726
Ġnit	13723
ĠFuture	13723
Sy	13722
Ġtie	13722
Ġbrothers	13719
ordinary	13718
ended	13718
Ġscratch	13718
speed	13714
Ġmerge	13712
Ġinstitutional	13712
-+	13708
ĠMun	13708
Ġfirms	13707
ĠDirect	13706
zip	13704
Ġconsult	13704
ĠLabor	13700
Ġcontinuously	13699
uto	13698
Ġgains	13694
Ġethical	13694
Ġlesion	13692
ĠEgypt	13688
}}^{\	13686
Ġupcoming	13685
Lock	13683
ĠRose	13682
ĠBBC	13681
emma	13676
Ġconflicts	13675
PY	13673
ĠMaryland	13672
Ġdownstream	13665
DX	13662
Ġconvinced	13660
Ġprofits	13659
relevant	13656
ĠCommon	13656
Ġexpertise	13650
Microsoft	13648
Ġmayor	13647
ĠGovernor	13644
Ġtooth	13642
Ġquoted	13642
eom	13641
332	13641
ĠNavy	13638
oqu	13633
lite	13627
ĠAlt	13623
Ġ1979	13621
azo	13618
ĠTele	13612
Ġfluctuations	13610
Ġwebsites	13609
mental	13608
Ġbags	13605
Ġcausal	13595
would	13594
diag	13594
ĠDT	13592
ĠSummer	13588
Ġfeatured	13587
Ġscanning	13586
Ġdatasets	13584
Mic	13583
Ġethanol	13583
Ġdeduct	13582
Ġburning	13582
ÂłĊ	13578
owned	13577
Ġpest	13573
dated	13567
Ġpainting	13566
Ġguaranteed	13564
Ġdrives	13560
role	13558
Ġediting	13558
Ġantenna	13557
ĠPerform	13557
Ġfilename	13554
Ġdevelopmental	13554
Methods	13549
Ġchampionship	13548
Ġcontemporary	13546
ĠÂ»	13544
Ġtopological	13543
Engine	13541
idal	13539
ĠEF	13535
Ġvanish	13534
Ġterrorist	13534
Ġretro	13534
ĠIdent	13532
Ġelite	13531
Ġbackup	13531
Ġstimuli	13529
ĠOregon	13529
initial	13528
Ġcytokines	13528
Ġconsistency	13528
ille	13526
---|---|---|---	13524
CTION	13523
Ãº	13522
bee	13519
ĠPop	13519
ĠNothing	13517
ĠCollection	13517
XX	13515
Ġconditional	13515
Ġtobacco	13511
Ġchromosome	13511
Ġindicator	13506
ĠAE	13505
ĠElement	13503
tide	13500
Ġmodulation	13500
Ġaccounting	13494
Ġaffinity	13493
;;	13490
Release	13485
Ġwriters	13485
Ev	13482
Ġfate	13482
Ġrental	13475
ĠPrince	13475
share	13473
half	13472
ĠGuide	13472
Ġmacrophages	13471
Ġreaches	13469
Ġdeposit	13469
Ġought	13467
ernal	13464
ĠMessage	13464
Ġscrap	13463
Ġclothing	13461
Ġmanifold	13460
Ġsettle	13453
Ġconsisted	13451
ĠHong	13451
ĠVictoria	13450
ĠKIND	13447
uction	13443
Ġoz	13443
ĠTD	13443
chu	13442
Ġlacking	13442
ĠOil	13442
ĠRoss	13441
ĠClick	13439
Ġentertainment	13434
Ġexpectation	13430
Ġsolvent	13428
ĠGh	13428
Ġsyntax	13424
react	13423
âĪĴ/	13421
Network	13421
Match	13404
Ġgenerates	13404
Enter	13402
Ġtrailer	13402
Ġasymptotic	13402
HER	13400
Ġtemple	13398
(:	13394
Ġham	13394
Ġoccupation	13389
Ġproxy	13384
sip	13379
ĠVP	13379
Ġ139	13375
051	13373
Ġ181	13371
properties	13370
Ġmedications	13370
Ġtackle	13369
Ġsubstances	13367
ĠRab	13365
ĠExecutive	13365
ĠLeft	13362
vor	13358
Register	13358
Ġdear	13356
Ġcorrected	13356
uke	13355
ĠHaving	13355
221	13353
lands	13352
Ġcarries	13352
Ġenormous	13351
ĠMuslims	13348
Ġhr	13344
183	13343
Binding	13341
Ġ(_	13340
ĠRam	13335
xff	13334
Stor	13333
cluster	13329
Sign	13328
ĠHarry	13328
Ġservers	13327
Ġreplacing	13323
ĠShare	13323
Ġdistant	13319
ĠResponse	13317
ĠLevel	13317
ĠScientific	13316
containing	13315
Ġplacebo	13313
Ġhighway	13312
Che	13310
apply	13306
Ġantioxidant	13305
due	13303
ĠDD	13302
Â¡	13301
ĠTea	13300
ece	13295
Ġspinal	13292
Ġdensit	13288
scriptstyle	13286
ĠStrat	13285
fm	13284
Ġdreams	13284
Ġconscious	13282
===========	13277
Ġreporters	13276
Account	13274
ĠCole	13267
}^*	13263
Ident	13262
cost	13261
Files	13260
jan	13258
eco	13258
Ġpainful	13257
Ġentropy	13257
wire	13250
Ġ1977	13250
ĠMoh	13245
Ġscenarios	13243
ĠCent	13241
Ġcontributing	13240
ĠAcc	13240
ĠMonte	13228
Ġgastric	13227
ĠShan	13226
ĠTal	13225
Ġexceptions	13223
ĠHillary	13219
Ġshifts	13216
:[	13215
Ġships	13214
Ġnie	13214
Ġtar	13212
ĠHollywood	13212
uing	13201
Ġarchive	13199
ĠThin	13199
dL	13193
ĠHart	13193
Empty	13192
Ġschemes	13191
War	13190
emit	13188
Ġstraightforward	13187
Den	13183
Factor	13182
Ġtendency	13182
Ġpossibilities	13175
Ġguilt	13170
ĠMiami	13169
ĠSimon	13168
ĠARE	13168
420	13167
Ġbroader	13167
Obj	13164
amino	13161
(!	13159
Ġpoorly	13159
White	13155
ĠFred	13148
jet	13146
Ġbegun	13146
Ġcharacterize	13145
Ġallele	13145
Ġgastro	13144
uw	13143
both	13143
Ġ'/	13143
Ġpresenting	13141
Ġporta	13139
psy	13137
Remove	13137
ĠOff	13136
Ġfitted	13135
pw	13134
VERSION	13134
ĠPhiladelphia	13134
ĠAlabama	13131
ĠBit	13128
036	13126
Ġdeck	13124
Ġencountered	13119
Ġchairman	13119
Ġforecast	13118
Ġdetecting	13118
ĠOklahoma	13116
Ġlawyers	13114
ĠTy	13112
ĠCells	13110
ĠLLC	13109
XXX	13108
Ġnoting	13106
Ġdesperate	13102
ĠDefault	13102
job	13100
Ġsurf	13098
Ġneuronal	13098
ĠLanguage	13098
âĪĴ^	13097
KO	13097
Ġcease	13097
Ġroyal	13096
Ġ1978	13096
Ġkg	13094
ARG	13092
1987	13092
-.	13091
Ġcompiler	13091
wait	13090
Ġincubation	13090
ĠSimilar	13090
Ġcurvature	13089
ĠMatthew	13086
Ġwanting	13085
Ġanalysed	13085
Ġtrim	13084
Ġinvasive	13083
Ġenv	13082
ĠCSS	13076
Ġflower	13075
Ġindividually	13074
mur	13070
HAN	13068
Ġfishing	13068
Ġsphere	13066
Ġamid	13065
Ġinconsistent	13062
Ġoccupied	13060
(@	13057
"],	13057
ĠCommand	13055
Email	13051
1985	13051
Ġpivot	13050
Ġessay	13050
Ġdiagonal	13050
Schema	13049
Ġrack	13049
Names	13047
Ġdiscipline	13046
ĠMusic	13045
:</	13043
Ġlamp	13043
ĠConsider	13037
Ġstolen	13036
Api	13028
tests	13024
Ġpas	13024
Ġinfant	13024
Ġpaste	13021
Ġchemicals	13020
0006	13016
Pool	13015
Ġdelicious	13015
very	13008
Ġcelebrate	13007
SG	13004
Ġdont	13001
ĠFive	12998
ously	12996
dine	12995
ĠForest	12995
Ġdistribute	12994
Ġaffairs	12994
Ġvirtue	12992
Ġspecimens	12992
Ġdebug	12991
Ġhomogeneous	12990
ĠĠĠĠĠĠĠĊ	12990
region	12989
Ġexceptional	12989
ĠDiego	12989
ĠHad	12987
Pop	12983
\(	12981
VS	12981
reach	12980
ĠJavaScript	12978
ĠEdward	12978
Ġcontradict	12977
Cam	12975
protected	12973
record	12971
Ġsurrounded	12971
Ġgrace	12971
Ġ220	12971
minute	12970
cate	12968
Ġraises	12968
Ġlegislature	12968
ĠEpi	12968
MEM	12963
Ġurine	12962
Platform	12960
variable	12959
Ġformulation	12959
JSON	12958
COR	12958
Ġcitizen	12958
ĠPea	12956
glish	12954
Ġ179	12953
Ġundefined	12952
ĠOrg	12951
Ġoperational	12950
rode	12948
TED	12948
Sample	12948
Ġlocalized	12948
ĠBureau	12948
Ġallocation	12946
Ġstake	12945
warn	12943
Ġagri	12943
âĢ©	12942
Draw	12942
Ġlogin	12942
ĠMom	12936
[:	12933
Ġaddressing	12932
Ġbite	12930
ĠVit	12929
Ġarises	12927
ĠCapital	12926
Ġprostate	12925
Effect	12924
Ġnegotiations	12924
fat	12923
Ġshapes	12922
Ġplat	12918
Ġbarrel	12918
Ġbeings	12917
reset	12915
Ġ-------------	12915
Ġbail	12913
ĠÂ«	12911
Ġstir	12903
icks	12899
224	12899
Ġidentifier	12897
ĠMarine	12897
ffff	12895
ĠLabour	12893
ĠSeattle	12890
ĠChannel	12890
Ġdisappear	12888
Ġlets	12887
ĠInvention	12886
Ġ"_	12886
3000	12884
Ġord	12883
shared	12882
^{+	12882
Eq	12882
Ġgrants	12881
$:	12880
ĠMotion	12880
167	12870
ĠMoon	12867
ĠStudent	12865
Ã©c	12864
Ġthromb	12863
Ġcorporations	12862
Ġcompile	12858
sync	12855
adde	12855
ered	12853
086	12852
uar	12850
'=	12850
LINE	12849
Ġinnocent	12848
Ġcollision	12848
Ġsubstitution	12847
Ġslice	12847
snap	12844
Ġverified	12844
tically	12843
except	12842
:'	12841
Ġorgans	12841
Ġintensive	12840
ĠMeta	12838
sized	12835
elin	12833
Ġdesk	12833
ĠDU	12827
Ġrolling	12823
Ġns	12823
Ġconsiderations	12823
Ġclubs	12812
ĠFootball	12812
ĠRick	12810
Ġhighlighted	12805
bach	12804
ppat	12800
Ġcarriers	12800
XML	12799
*](#	12793
Ġsheets	12793
Ġlips	12792
Directory	12790
HH	12787
written	12786
Ġtransmit	12785
ĠNeuro	12785
EY	12784
ĠHT	12784
Ġdrill	12781
Package	12780
Ġtransplant	12780
ĠVideo	12775
ĠHeart	12775
rect	12771
did	12771
inger	12769
nil	12767
Pal	12767
Ġ%>	12767
Ġoccasionally	12766
without	12765
})$.	12761
essing	12760
parallel	12759
ĠCustom	12757
Ġsimulated	12756
Ġexpanding	12756
Ġengaging	12755
iterator	12754
Ġrestrict	12752
Ġvibration	12749
ĠÎ¼M	12747
Ber	12745
Ġleak	12743
Ġflexibility	12743
Ġsuggestion	12736
Ġ210	12736
Consider	12730
ĠMH	12730
Ġtick	12729
ĠVM	12723
Ġbreathing	12722
gling	12721
330	12721
Ġ360	12721
Ġĉĉ	12719
Ġdistricts	12718
Ġimplements	12717
Ġenvelope	12717
Ġsubscript	12715
Ġneedle	12715
South	12714
Ġ175	12711
xin	12707
Ġ204	12707
Ġremarks	12705
Û	12703
ORE	12700
223	12700
ĠVisual	12700
Ġweakness	12698
zie	12696
oral	12696
Ġmonitored	12696
ĠDoctor	12694
Ġdishes	12689
ĠGun	12689
Ġincredibly	12686
Ġvolunteers	12685
Ġvolumes	12685
Ġcurl	12685
Ġangles	12685
tia	12684
Ġtitles	12680
PLA	12677
Ns	12677
Ġimpacts	12672
ĠDad	12669
ender	12666
>;	12666
may	12665
Report	12664
ĠGov	12656
alon	12654
Ġsleeping	12654
Ġarrays	12654
ĠSearch	12654
Ġtongue	12653
Ġ-----------	12652
Ġterror	12650
Ġdeleted	12649
ativity	12648
around	12643
Ġsolving	12642
Ġ?>	12642
Bs	12639
Ġ1975	12639
ĠReturn	12637
340	12636
ĠRome	12634
Ġteaspoon	12629
Ġconversations	12626
ĠÃħ	12625
Ġdying	12624
Ġdisposed	12624
Ġabandoned	12621
Ġgarlic	12619
303	12618
233	12617
ĠOxford	12616
Import	12615
ĠĠĠĠĠĠĠĠĠĊ	12609
Ġcircum	12608
Ġjoke	12607
erence	12606
inary	12605
eral	12603
Ġextracts	12602
Ġaggregate	12601
distance	12600
aaa	12599
hidden	12595
Ġpurely	12595
Ġmandatory	12594
Ġbalanced	12593
Ġredirect	12592
ĠMill	12591
Matrix	12589
lier	12585
206	12585
Ġsuppressed	12585
Ġlemma	12584
Ġadhesion	12583
David	12582
Ġspoken	12582
Ġencoded	12576
Ġligand	12574
Ġimply	12574
brief	12569
Graph	12569
Ġlemon	12566
claim	12565
Miss	12562
Ġhitting	12561
render	12560
Ġballot	12559
ĠWrite	12558
Ġpension	12557
Ġsail	12550
Queue	12541
Ġproceeds	12540
allo	12539
proof	12531
Ġdisplacement	12531
inos	12530
Ġsteal	12530
Ġfocuses	12530
264	12527
Ġsixth	12525
Ġaccordingly	12525
ĠWy	12525
Ġretrospective	12524
Evaluate	12522
Ġpulling	12519
Ġ153	12516
original	12514
ĠProc	12512
piece	12511
ĠGarden	12508
Ġtransitions	12507
Ġconsiderably	12505
Ġ165	12503
ims	12501
Ġarguing	12501
Ġdozen	12500
ĠTheory	12496
ĠMissouri	12494
ajax	12493
ĠDisney	12490
isse	12488
Ġexplaining	12484
orous	12481
ains	12480
Pointer	12477
Ġtranscripts	12477
Ġexhibits	12477
Ġautomobile	12476
safe	12475
Ġmorphology	12475
Ġintact	12474
DV	12473
ĠOnline	12473
Those	12466
Ġconfirmation	12460
Ġstereo	12458
score	12457
Ġmobility	12457
BY	12454
levance	12442
lating	12442
Ġanonymous	12440
norm	12439
parameter	12438
Ġvolunteer	12432
Ġcompromise	12432
ĠNBA	12432
ĠMRI	12431
ĠWS	12427
SSE	12424
aves	12423
ĠSurvey	12423
Ġadoption	12417
aque	12416
ĠWolf	12414
Ġties	12413
Ġ700	12413
eus	12407
ĠAuthor	12407
Ġconducting	12404
ĠClo	12403
ĠJean	12402
Ġplacing	12401
MY	12400
ĠWithin	12400
Ġasserted	12397
Mart	12396
ĠFri	12391
208	12390
Ġreviewing	12390
pict	12387
AW	12387
Ġgamma	12384
ĠSquare	12382
ĠFrancis	12382
Ġreserve	12381
Ġmuseum	12381
Ġballs	12381
ĠHelp	12381
Ġphones	12377
Ġ141	12375
Ġexon	12374
Ġ1976	12374
require	12373
ĠAppl	12373
Ġspl	12371
Ġcheer	12369
required	12368
ĠVII	12368
ĠRelated	12368
natural	12366
Ġtrop	12365
ĠLes	12362
Ġrelaxation	12361
Ġrecruitment	12361
Ġsubsection	12360
MW	12356
Ġchips	12356
ĠBus	12355
amon	12352
Ġjud	12347
virtual	12346
Ġsew	12346
Ġprayer	12346
ĠâĢĻ	12341
ĠRapids	12341
Ġofficially	12338
hydra	12337
Ġimplementing	12337
uity	12332
Ġpink	12330
Ġblockchain	12330
Ġward	12328
Ġcf	12328
typedef	12326
Fla	12323
ĠTreatment	12322
Ġquarterback	12320
Ġhormone	12320
equals	12314
Ġbare	12314
Public	12313
trace	12312
dog	12310
Ġcounting	12310
ĠCle	12306
Ġvaries	12304
Ġmount	12304
logo	12300
Ġthrew	12300
Ġoutdoor	12295
ĠYouTube	12295
Plaintiff	12294
Ġriding	12293
oted	12292
Single	12285
/$	12285
oC	12284
platform	12281
Stack	12281
IGHT	12281
Ġintim	12277
Pat	12276
pathy	12274
jk	12273
ĠFP	12269
Ġ146	12266
Equ	12265
Ġtrap	12265
Wor	12261
Ġoverwhelming	12257
ĠCredit	12257
Ġconstitutes	12256
ĠWars	12255
Ġarrow	12254
Policy	12253
Ġfiction	12252
yy	12251
ĠGy	12251
FG	12249
ĠPoly	12248
ĠBUT	12248
Ġtraveling	12245
Ġfestival	12244
Ġchor	12243
hor	12242
Ġ152	12241
Ġmethodology	12238
itic	12237
Ġpollution	12237
Za	12233
Ġcatheter	12232
ĠPel	12230
ween	12229
same	12229
Ġmunicipal	12225
Ġmetastasis	12223
Ġclaimant	12221
worker	12220
Ġdenoted	12219
ĠRow	12218
lag	12216
ĠPlayer	12216
Ġcomparative	12214
ĠWild	12214
Ġtears	12209
Ġshifted	12209
ĠConn	12208
counter	12205
Ġprobation	12205
city	12204
Ġlecture	12203
Ġextracellular	12199
Ġlengths	12197
Ġventure	12193
Double	12190
Ġappellate	12190
Ġbiology	12189
eye	12188
cg	12186
Ġlesser	12186
ĠPalestinian	12186
ĠInf	12186
..\	12185
ĠSmall	12185
Invalid	12183
Ġcups	12183
Ġinnovative	12179
Ġappearing	12175
ĠAlexander	12175
Ġ------	12174
username	12173
mount	12173
ĠDallas	12173
Ġsusceptibility	12170
aux	12169
Ġraces	12168
Ġsubstrates	12166
Ġcurious	12165
Ġwages	12164
Ġadvocate	12164
Ġ256	12164
contin	12163
Ġdrops	12162
LAR	12160
Ġreproduce	12159
simple	12158
Ġwithdrawal	12155
Ġerroneous	12153
Ġimmigrants	12152
Ġwheat	12150
ĠSite	12150
ĠProcedure	12149
075	12147
Ġviable	12146
Ġbasal	12145
TEXT	12140
034	12138
Ġrally	12137
ĠMaria	12137
Ġspeaker	12136
Ġorganisms	12136
Ġconfigurations	12136
ĠLab	12136
Ġobjectives	12135
Pin	12133
aire	12132
ĠAssociate	12132
Ġstepped	12131
Ġoxidation	12128
Ġcaptain	12126
ĠMalay	12124
ĠNight	12122
avan	12119
Ġmerits	12116
Black	12115
Ġsubtle	12115
Ġdiscussing	12115
BN	12114
Ġabilities	12113
ĠWu	12113
ĠEuro	12113
Ġdramatically	12112
rupt	12111
cpu	12111
ĠRoberts	12111
Ġadditive	12110
DEF	12109
Basic	12109
ptic	12108
245	12107
Ġfallen	12107
ĠArch	12107
1001	12105
Ġmanipulation	12105
ĠCurrent	12102
Ġvacation	12099
Ġhub	12096
ĠRules	12096
Ġinvestigators	12095
SHA	12094
053	12093
kov	12092
Ġcharging	12092
iser	12090
Ġhighlights	12089
173	12088
Ġasserts	12088
ĠHub	12088
ĠFinancial	12087
Mask	12086
Med	12085
Ġcatalog	12078
ONG	12077
Ġrobbery	12077
Ġasync	12075
Ġtransverse	12072
nder	12070
ĠBerlin	12068
iste	12066
TK	12065
Scale	12064
Ġwisdom	12064
since	12063
Ġmig	12063
ĠTennessee	12062
OSE	12059
ĠSingapore	12058
Ġprize	12056
Kit	12052
Ġ---------	12050
Ġfluorescent	12049
ĠHU	12046
ĠConserv	12045
Ġdialogue	12041
ĠUpon	12041
081	12039
phin	12038
ĠBeck	12037
ĠWould	12036
ĠWalker	12035
Ġnutrition	12033
encode	12032
Ġhumanity	12032
~(	12029
mock	12028
ĠBarr	12028
Ġads	12026
Connect	12025
ĠPrevious	12024
Ġreceipt	12023
Ġgathering	12022
Ġassertion	12022
Watch	12021
Ep	12020
Ġcredibility	12019
ĠTony	12018
ccc	12017
_;	12016
Try	12016
Ġfreely	12013
ĠTur	12013
Trump	12012
Ġmodest	12012
ĠCOURT	12007
ĠMorgan	12006
Ġsafely	12005
Ġprevents	12005
ĠRequest	12003
312	12002
Ġpacked	12000
Ġ----------	11998
ÂĴ	11992
ĠRD	11992
Ġchemo	11988
ĠProtection	11988
ĠPURPOSE	11988
Ġstopping	11986
Ġaffordable	11986
Float	11985
Ġprojected	11983
ULT	11982
Ġincorrect	11982
Ġprefix	11979
410	11977
Ġpassive	11974
Ġdonors	11974
EK	11970
Ġhorror	11967
Ġalterations	11965
ĠMother	11964
Ġ196	11964
Ġunity	11962
ĠBad	11962
cene	11961
Contact	11960
ĠMorris	11959
continue	11953
Ġutilize	11952
ĠSep	11951
ĠJP	11951
Ġgolden	11949
Ġbow	11949
Ġinvoke	11944
Ġarbitration	11944
Ġzip	11943
Ġrobot	11943
~.	11939
Ġpromises	11939
theme	11938
Bin	11938
Ġconnector	11938
ĠMexican	11938
into	11935
ĠWorks	11935
Ġcombining	11934
ĠTyp	11934
Ġbother	11933
Summary	11932
Ġmeets	11932
Copy	11929
zm	11926
Ġsys	11926
Ġnurses	11925
1983	11924
Ġcameras	11924
Ġroller	11923
ĠChampionship	11923
)",	11920
Ġjar	11919
1980	11916
ioned	11914
[{	11914
Ġvet	11914
Ġbp	11914
Ġmp	11913
Ġretention	11909
plain	11908
Member	11908
Light	11907
>::	11905
Four	11903
ĠNAT	11903
Parser	11902
ĠInn	11902
Âĩ	11899
Ġconcert	11899
Ġdeficit	11896
period	11895
ĠJosh	11889
Ġinitiation	11886
ĠDark	11885
Auth	11882
Ġbroker	11882
Ġbonus	11880
Ġbitter	11878
ĠPremier	11877
Ġrival	11876
ĠSar	11875
Ġoccasions	11872
Ġinvestments	11866
ĠHawaii	11866
were	11865
Ġartists	11865
Cas	11864
ĠMeanwhile	11863
GFP	11862
,*	11862
(.	11861
Ġconsultation	11860
ĠReference	11859
Ġfence	11855
uter	11848
Ġprotests	11848
exists	11845
formula	11843
oen	11835
ĠAuthority	11833
Ġinspiration	11830
Ġdemocratic	11829
Ġ------------	11828
ĠLoad	11822
erd	11819
ĠSarah	11818
ĠHoward	11818
Play	11817
Ġinsured	11817
ĠThor	11817
Ġjudges	11815
Ġmistakes	11809
apl	11808
groups	11806
ĠJason	11804
!\	11803
ĠStone	11803
ingly	11802
ĠUSB	11801
Ġ225	11793
Ġdatabases	11791
Ġfloating	11788
agent	11786
1111	11783
Ġmotivated	11783
Ġensuring	11782
Ġdescend	11782
ĠStudio	11781
Dan	11780
Subject	11778
Ġpalm	11776
DER	11774
best	11773
Ġbaking	11773
()]	11772
bridge	11771
Ġdated	11770
293	11767
ĠBuilding	11767
Ġtherm	11766
ĠFU	11765
Ġdeparture	11764
Ġactivists	11764
arch	11763
Ġfacial	11763
Ġboards	11760
ĠEar	11759
Ġopera	11757
=\"	11756
Ġabundant	11754
cmp	11753
ĠBol	11753
Ġswap	11752
Ġearnings	11752
wb	11750
Argument	11750
Ġreactive	11747
reason	11746
mouse	11746
Ġdeployment	11745
Ġamongst	11744
Ġsoup	11742
Ġcow	11742
[]{	11741
Ġpremises	11741
itative	11739
ĠArabia	11738
Ġdf	11737
graphics	11736
242	11735
Ġtheater	11733
Ġduct	11733
Ġthrowing	11732
Ġwithdraw	11729
Ġoligo	11729
Ġdisadvantage	11728
Ġdowntown	11727
Ġantagonist	11726
Ġlag	11722
ĠDemo	11722
ĠAccount	11722
onn	11719
Ġexpenditure	11717
rock	11715
Ġtherapies	11715
Ġcats	11714
Ġshops	11711
topic	11709
ĠDem	11702
school	11700
Ġcardio	11699
ĠNK	11698
..............	11697
ĠRen	11686
ĠCaptain	11684
ĠDog	11682
ĠDick	11682
Ġschema	11681
Ġgrey	11680
-,	11675
Ġchopped	11673
CW	11672
present	11671
iology	11671
once	11669
nut	11669
ifer	11668
Ġspeaks	11668
Ġmob	11667
}$]{}	11665
dna	11665
ĠCruz	11664
Ġjustified	11662
Ġpole	11661
Ġuniversities	11660
Ġrush	11658
0009	11657
ĠExample	11653
North	11651
8000	11649
Ġpassenger	11649
Ġmanufacturers	11649
)$-	11647
Ġmusical	11647
Transform	11646
Join	11642
ĠDN	11638
ences	11637
Ġantibiotics	11636
EW	11634
vet	11633
izers	11632
Ġ[\	11630
Ġemails	11626
072	11623
Ġobligations	11623
ifndef	11622
Mat	11621
Ġpackaging	11621
Ġdismissal	11619
Ġaveraged	11619
ĠcDNA	11618
Ġtower	11617
Ġarts	11616
lton	11615
Ġplatelet	11614
Ġprofound	11612
Ġquota	11609
Ã¨re	11607
Ġveteran	11607
Ġ1950	11607
Ġfought	11606
ĠRei	11606
photo	11603
hero	11601
Ġmainstream	11601
Ġfruits	11598
375	11597
Book	11596
Ġaort	11593
Ġmes	11591
ĠInfo	11590
dfrac	11589
Ġalternate	11589
submit	11586
Ġratings	11585
ĠElizabeth	11585
infected	11583
Security	11579
Ġcaution	11579
Ġrepository	11578
Gal	11577
ĠHold	11577
Ġsequential	11575
Ġexperiencing	11575
Ġthroat	11574
ĠDutch	11572
Ġpreserved	11568
Ġhorizon	11560
ĠVector	11558
Ġupstream	11557
ĠCOVID	11556
Power	11551
Ġsteep	11551
ĠInteger	11548
lace	11547
Ġadvances	11545
Ġintelligent	11542
*"	11540
Ġkiller	11539
Ġgranting	11538
Ġbrilliant	11537
Ġplaque	11535
ĠBrad	11535
ĠSenior	11534
ĠLegend	11534
Ġadventure	11533
Byte	11532
Further	11531
Ġsearched	11531
bell	11529
rase	11525
Ġhappiness	11525
ĠWales	11524
ĠTurn	11523
Ġ205	11522
orate	11520
Ġvoluntary	11516
Ġrubber	11516
Ġexploration	11515
orma	11510
ĠVery	11508
Plugin	11503
ĠExpress	11503
Ġresidue	11500
]-[@	11499
Ġregret	11499
Ġeastern	11499
Ġ1973	11499
Ġ156	11499
shell	11496
288	11496
ĠBesides	11495
Cir	11490
Ġsubjective	11489
Ġexplosion	11489
ĠFITNESS	11489
supported	11487
Ġsusceptible	11487
Ġcontamination	11487
Ġcave	11482
orn	11481
Ġevolutionary	11481
ASE	11480
clock	11479
Ġcry	11479
ĠVC	11479
Ġ$|\	11471
Ġloads	11467
]))	11465
Mint	11464
Ġinfluenza	11464
Ġselecting	11463
Ġdiabetic	11462
Ġclarify	11462
Ġsuspicion	11460
Ġclinically	11460
Ġvas	11455
Ġdistal	11455
Ġresponsive	11452
ROC	11451
Ġcabinet	11450
mie	11449
Ġmedal	11447
hall	11446
ances	11443
SION	11442
GH	11441
etti	11436
Information	11435
Ġviability	11433
Ġyard	11431
Ġprimers	11431
amma	11429
Prim	11428
Func	11427
ĠLL	11426
Ġpride	11422
Ġillustrate	11421
ĠArts	11421
Ġconsumed	11420
Ġredshift	11418
Ġhint	11417
ĠNotice	11417
flag	11414
Ġstamp	11414
Ġranked	11414
ĠUtah	11413
ĠConvention	11413
ĠMos	11410
ĠLater	11410
corn	11409
Ġrecipes	11407
Ġcounted	11407
Enum	11406
Ġexponential	11406
Ġwaiver	11402
Ġmimic	11402
tero	11401
Ġhemat	11400
Ġthereafter	11397
lium	11394
Ġnut	11394
ĠVir	11393
Ġ161	11393
raft	11391
quoting	11390
chy	11390
))?	11390
?>	11388
Ġtranscriptional	11388
Ġbuttons	11388
Ġtrustee	11384
Ġ168	11383
Ġrocket	11381
720	11377
bx	11376
0015	11376
amount	11375
Place	11375
Ġposter	11375
273	11374
Ġembarrass	11373
Ġpeaceful	11370
ĠEquation	11370
ĠFlor	11369
Ġsubtract	11368
302	11364
ĠPhilip	11363
Ġincomplete	11361
Ġsie	11359
ĠExtra	11359
Ġfigured	11358
Ġ1972	11357
Ġendogenous	11354
Ġlake	11351
modal	11350
Ġfetal	11350
Ġappellants	11346
Ġbuilder	11345
Ġintroducing	11343
*{	11341
Ġdx	11341
Ġcenturies	11341
Ġpredetermined	11340
lst	11338
events	11338
Ġfurniture	11336
Sin	11335
pale	11333
ĠMember	11332
Ġui	11331
Ġremind	11331
gies	11330
Ġ162	11329
INA	11328
ĠExpression	11328
ĠLouisiana	11326
ĠWHO	11325
Sat	11324
Ġprinter	11324
Ġlaptop	11321
Ġbeef	11321
rD	11318
$),	11318
GEN	11317
ĠLV	11317
Ġreception	11315
Ġprolonged	11315
Comment	11311
urious	11310
Ġblade	11308
ĠEffect	11308
Ġclassroom	11307
ĠRelease	11307
Ġincidents	11305
ĠProvide	11302
compr	11300
Simple	11300
Ġprimer	11299
Ġbee	11297
272	11296
ĠSay	11296
TABLE	11295
Ġdeadline	11295
Ġamplification	11292
ĠBlood	11284
GRA	11283
Ġbreed	11283
480	11281
hill	11280
Ġinfectious	11279
Ġclearance	11275
stant	11274
Ġprospect	11274
)\\	11271
ĠAssistant	11270
engine	11264
corporate	11264
Ġconcurrent	11264
228	11262
Ġseemingly	11262
Ġrhythm	11257
eds	11255
Ġcorrections	11255
xh	11253
ĠWHERE	11253
Ġcertified	11250
Following	11249
ĠSeason	11248
Ġsheep	11247
Ġlocus	11244
Ġ.$$	11244
Paul	11241
ĠRemove	11241
ĠTrib	11240
JU	11238
Ġrecommendation	11236
Ġcarb	11236
ĠBroad	11236
Ġhorses	11235
Ġevolved	11235
Ġconjunction	11233
fileID	11230
\}$.	11230
Ġgraphics	11228
ĠVice	11228
Related	11227
boolean	11218
Obv	11216
Ġsing	11216
ĠAffairs	11216
forward	11215
Player	11214
ĠNASA	11214
Ġcube	11210
Ġsubspace	11209
Ġgravitational	11206
Ġholder	11205
Ġteen	11204
yna	11203
Tom	11203
ĠPLA	11203
ĠGET	11202
ĠiPhone	11199
Ġundergoing	11198
Ġcursor	11197
eded	11196
Ġtwelve	11194
Ġrotating	11193
Ġorthogonal	11193
ĠDouble	11192
Ġharvest	11190
Ġfracture	11190
Ġdynamical	11189
ĠSaint	11189
241	11188
Ġdesert	11188
Ġawards	11186
gro	11185
Ġdemonstrating	11183
ĠDave	11181
worthy	11178
upper	11176
ĠBeing	11170
information	11164
Ġupward	11162
Ġresume	11162
Sam	11161
ropic	11159
ĠStop	11152
ĠMERCHANTABILITY	11151
Bean	11150
Ġrecombinant	11150
Ġcouples	11150
Ġactin	11150
Ġinsurer	11147
))\	11143
Ġhex	11143
218	11141
ĠNormal	11141
Ġordinance	11139
entity	11137
Ġpublications	11137
Ġachieving	11137
Ġjournalist	11136
Ġfool	11136
ĠSize	11136
ĠTree	11135
Green	11131
1002	11131
ĠPRE	11131
Should	11129
Mer	11125
login	11124
ĠNigeria	11124
iamo	11123
Render	11123
Ġnights	11122
Ġ1974	11120
Ġsorts	11117
Ġign	11113
ĠElectric	11111
Ġenrolled	11110
Ġtopology	11105
Ġnest	11104
Ġ--------	11104
independent	11101
)](#	11101
Ġhoped	11101
ĠsiRNA	11099
Ġpressed	11096
ĠAppendix	11093
Ġfrag	11092
wei	11091
Ġempower	11088
Ġspontaneous	11086
ĠCIA	11086
nei	11084
resistant	11083
Ġglance	11080
;}	11079
ĠCham	11078
oal	11076
DIA	11075
Ġreside	11074
Ġgest	11073
Ġcontacted	11072
amer	11071
271	11069
Ġtubes	11067
Ġinappropriate	11064
Foo	11063
Ġapolog	11063
ĠPerson	11063
){\	11061
emphasis	11057
ĠKam	11057
kat	11054
ĠDin	11054
Ġunemployment	11053
Ġthreads	11053
program	11051
Ġintegrate	11048
ĠRod	11047
sent	11042
Memory	11042
conn	11040
Ġactivate	11040
ĠCart	11038
ĠEngineering	11036
Ġsends	11035
Ġretrieve	11031
Ġmicroscope	11031
ĠJacob	11031
('.	11030
Ġdirectors	11030
Ġconvictions	11028
ĠDom	11028
082	11026
miR	11025
Ġears	11024
Ġtoil	11023
404	11022
esis	11020
Ġoutputs	11019
Ġflame	11019
Ġcorrupt	11019
Ġtheft	11018
BX	11017
Ġpromotes	11015
Ġspine	11013
ĠSci	11013
ĠSDS	11013
ĠAddress	11012
Ġfatigue	11010
bos	11008
ĠCounsel	11007
Ġcontributes	11006
Ġbabies	11006
ĠResources	11004
Ġadaptive	11003
kil	11001
Ġcul	10998
Ġloops	10997
lys	10996
Ġloving	10996
ĠINS	10996
nas	10995
Ġfoster	10994
President	10991
ĠLock	10991
ĠJerusalem	10990
386	10985
Ġflesh	10983
Ġpile	10981
Ġâī¤	10976
ĠPractice	10975
Java	10973
/)	10972
Ġkinetic	10972
ĠStatistical	10971
ĠMaterial	10971
Ġapple	10969
ĠNeither	10969
ĠJar	10964
launch	10962
giving	10962
wk	10961
540	10961
Ġisomorphism	10960
Ġaqueous	10959
radius	10955
ĠFourier	10952
months	10951
Ġclustering	10950
console	10947
Ġinstability	10946
={\	10945
Ġproposals	10944
male	10942
Ġawake	10942
inu	10941
iers	10940
Ġrejection	10939
ĠExchange	10939
052	10937
Ġattain	10936
Ġinch	10931
Ġconcentrated	10931
Serial	10929
Ġconceal	10925
fect	10922
\](	10920
BG	10920
Ġbeneath	10920
Ġharmful	10918
Ġextensions	10918
CAC	10917
Ġuniformly	10914
Ġpharmaceutical	10914
-}	10911
Ġdistinguished	10911
tags	10910
Ap	10910
ĠWright	10909
324	10908
Us	10906
Ġsword	10906
Ġweighted	10905
Ġinstructed	10905
085	10904
Ġdrinks	10903
Ġtransfected	10902
Ġsig	10901
Â©	10900
amed	10899
Ġheated	10899
ĠAla	10899
onin	10895
Ġtrait	10894
Ġsons	10893
Ġlegacy	10893
ĠEmpire	10892
pun	10889
ĠEPA	10887
062	10886
Ġinadequate	10886
ĠNik	10883
Selection	10881
Ġnegatively	10879
Ġ230	10879
Ġjunction	10876
ĠDetroit	10873
itia	10872
Ġcooked	10871
ĠPetitioner	10871
Standard	10870
ely	10869
artifactId	10869
Ġwrit	10869
Ġgym	10868
Ġsynthesized	10867
props	10866
Ġane	10866
Ġinfluences	10864
Ġstocks	10863
Ġbacked	10863
}}+	10862
Ġfollower	10862
Ġcriterion	10862
Ġtrou	10860
ĠSav	10860
ĠThompson	10856
Ġabroad	10854
ĠOpp	10854
ska	10853
Ġeigen	10852
ifiable	10851
ASK	10849
cause	10848
ĠAustin	10848
Ġsurveys	10846
Ġlabour	10846
xon	10845
ĠQuant	10843
Ġwrapped	10841
Ġqueries	10841
304	10840
ĠCAN	10840
Ġfermion	10838
Ġautomated	10837
ĠAnna	10837
Scroll	10833
Ġhopefully	10833
Ġbrains	10831
ĠHamilton	10830
Ġtranslated	10828
ĠMol	10828
basic	10823
Ġhepatic	10823
Ġdeciding	10823
Ġtetra	10822
="-	10818
ĠRecently	10818
254	10813
Ġcervical	10812
281	10810
244	10807
ĠSweden	10807
Ġwhilst	10806
ĠDim	10806
Ġreleases	10804
Ġdrew	10804
ĠSafety	10800
typename	10799
ĠRU	10799
Ġlanding	10798
iac	10797
Ġcomprised	10795
ĠRespondent	10795
Ġstatutes	10791
Ġclimb	10791
ĠLORD	10791
Ġsensory	10790
idas	10788
243	10788
Ġhumor	10787
ĠMg	10787
single	10786
market	10781
Ġbiopsy	10779
wski	10776
hbox	10776
Ġutilizing	10776
Ġtoll	10776
Ġmyocardial	10776
ĠâĨĴ	10775
Ġrelax	10774
Ġbilateral	10774
CES	10770
Ġethics	10770
article	10769
Ġpediatric	10769
mathop	10768
Ġridiculous	10768
Ġacceleration	10768
National	10766
oking	10765
Ġplotted	10764
Ġ167	10760
JP	10759
Ġpion	10758
Ġpsychiatric	10755
Ġhouseholds	10755
hide	10751
Ġphosphate	10750
315	10749
Ġtact	10748
exception	10747
Ġunstable	10745
mum	10744
alent	10740
Ġdeploy	10737
Ġcollecting	10737
Ġdependency	10736
Ġeliminated	10735
Ġjam	10732
activate	10731
Ġseller	10730
ĠAnthony	10730
Ġshaped	10729
Ġfractions	10729
Ġrestored	10728
ĠHugh	10726
owner	10725
kul	10724
Ġterrorism	10724
Ġneutrino	10718
Ġ166	10717
DEN	10716
groupId	10715
322	10714
Google	10706
Ġlane	10706
Ġconsume	10705
apple	10704
Rate	10702
ĠDemocrat	10699
eller	10697
Ġpt	10697
Ġdelta	10694
fetch	10692
Scope	10692
Ġspare	10692
wed	10691
Ġopposing	10691
Ġmapped	10691
`)	10685
235	10683
ĠFDA	10682
iform	10677
Ġenrichment	10677
Ġcommut	10676
})$,	10675
Ġdir	10675
Ġquestioned	10672
Ġgrows	10670
Ġmounting	10669
nome	10667
ĠIron	10667
ĠGuard	10665
EH	10663
Ġcomedy	10660
364	10659
Bundle	10657
Ġencouraging	10655
expect	10654
Ġdeposited	10654
Ġdemanding	10654
Ġenabling	10653
Ġrounds	10652
thing	10649
Ġwars	10649
Ġexploring	10649
Ġchemistry	10649
ĠOk	10649
something	10645
Ġscandal	10642
talk	10641
Rad	10641
OAD	10641
ĠRs	10636
Ġfears	10633
Ġreservoir	10632
Ġillustrates	10631
Ġabandon	10631
scopic	10628
278	10628
Ġdialog	10628
STATE	10626
Center	10626
utch	10625
dB	10625
ĠOlympics	10625
Mock	10623
Android	10623
Ġprobes	10622
Ġremembered	10620
Ġrum	10619
),$$	10618
Ġ}$	10618
Ġpreclude	10617
Ġdesktop	10614
Ġoffenses	10613
Internal	10612
ĠLady	10611
ĠCarter	10611
Ġgoogle	10610
ĠSpa	10610
Ġpublisher	10608
Ġexamining	10608
Ġequivalence	10607
Ġconfidential	10607
Ġadhere	10607
uth	10604
Ġassessing	10600
Ġcumulative	10599
).\	10598
Ġcoaches	10598
Ġembedding	10597
ĠMarx	10597
Ġdining	10595
syn	10594
Ġwalks	10594
give	10593
Ġjournalists	10593
Ġsen	10591
Ġimproper	10591
Ġmetals	10590
Ġ$_	10590
ĠEE	10589
ometry	10587
Ġtuber	10586
ĠINTO	10586
:-	10585
sheet	10584
ĠAz	10582
Ze	10580
ĠSept	10579
Ã©m	10578
Ġanticipated	10576
Ġexpecting	10575
Ġbitcoin	10570
^*(	10569
urd	10568
bru	10568
Ġopponents	10564
erate	10563
384	10563
Ġobservable	10559
ĠAtlanta	10558
ĠANOVA	10557
morphism	10556
Ġedited	10549
tap	10540
Role	10540
+$	10539
ĠEngine	10539
Court	10538
father	10537
Ġmechanics	10537
Ġallocated	10537
Py	10533
Best	10531
Ġprecip	10531
ĠRR	10531
ĠHAVE	10530
bigr	10528
ĠStaff	10528
ĠSummary	10524
Ġslower	10523
Ġpreceding	10521
Ġmountains	10520
rance	10518
Ġconstitution	10518
ĠFestival	10517
ĠPlant	10516
aml	10515
Ġelevation	10514
Ġwir	10512
ĠPersonal	10512
ocyte	10510
Ġaes	10510
(__	10509
Ġgeometric	10509
bias	10506
ĠBarack	10506
Loader	10504
Ġgy	10501
iment	10500
ĠInput	10500
upload	10499
Sun	10499
Ġbandwidth	10494
Health	10492
aku	10490
lung	10489
047	10489
ĠWL	10485
ĠAK	10484
Ġaxial	10483
Ġanalogous	10483
Ġ%}	10483
Timeout	10481
Ġsentiment	10481
Ġantibiotic	10479
ĠLiberal	10479
ĠSupplementary	10477
Ġ0000	10477
ĠAbe	10474
Ġprofession	10472
Ġdrunk	10470
Ġallies	10468
Chu	10466
Ġqualify	10464
ĠMoscow	10464
Ġbypass	10462
elect	10461
ĠGreece	10461
Great	10460
built	10458
Proxy	10456
Ġauthentication	10456
Ġpancreatic	10452
ĠOT	10452
ĠEg	10452
Ġmaximize	10451
Ġcorners	10451
289	10450
Ġcontainers	10449
ĠModi	10449
Ġvec	10447
mother	10446
219	10440
ĠCould	10440
Ġsummarized	10439
Ġpassengers	10434
LES	10433
:$	10433
Ġbubble	10433
ĠManchester	10431
Vs	10430
Ġthoroughly	10429
Ġoverview	10429
NUM	10428
MODE	10428
illo	10427
constitutional	10425
ĠDeputy	10425
heart	10424
ĠLaboratory	10423
ĠBerg	10423
238	10422
Ġpropagation	10422
Ġwhereby	10421
Ġmonster	10421
Ġborders	10421
Ġwx	10418
Database	10416
BV	10416
Ġneutron	10414
Ġagrees	10414
uka	10412
Ġattitudes	10412
Ġprecedent	10411
Ġadequately	10408
Conclusion	10407
ĠRich	10407
ĠRevolution	10407
lux	10406
ĠNative	10405
Ġmalignant	10402
ĠLang	10402
Proof	10401
Ġoutlined	10400
Ġtremendous	10393
Ġsurvived	10392
Ġhomogen	10391
aar	10389
Ġcoalition	10389
ĠLarge	10387
frequency	10386
-->	10384
}_{{\	10383
ĠEight	10383
important	10381
ĠLB	10381
classes	10377
Ġrecipient	10376
Ġcontinuum	10374
Unknown	10372
229	10371
Ġperformances	10368
alloc	10367
Anti	10367
Ġalkyl	10366
ĠSTAT	10365
'_{	10364
Ġbeds	10360
foreach	10359
Ġheaders	10359
Ġdeadly	10359
Ġfiltered	10355
ĠPatrick	10355
GLE	10354
published	10352
305	10352
Ġlimb	10351
))))	10350
Ġcran	10350
Ġsymptom	10349
Ġsensing	10349
Ġproving	10349
ĠClose	10349
Ġdirty	10348
Ġlegend	10347
Sil	10345
ĠNazi	10344
Statement	10343
Ġluminosity	10343
Follow	10342
Descriptor	10342
Ġquest	10342
rates	10339
policy	10333
marine	10331
ĠContract	10331
hoo	10328
trivial	10327
ViewController	10325
Ġinteracting	10325
Ġtout	10322
Ġsandwich	10322
Ġpneumonia	10322
Ġbrutal	10322
Far	10320
lude	10319
bank	10319
Ġinteractive	10313
Ġpreferences	10311
Ġcritics	10309
ĠCountry	10309
Pass	10306
Ġcrown	10306
SON	10304
Still	10301
Ġexpose	10299
icker	10298
Ġcampaigns	10298
ĠObserv	10296
Ġquotes	10295
Ġorganisation	10295
potent	10293
Ġmaintains	10292
Ġspecialized	10291
citing	10290
Ġbesides	10288
Ġfixing	10286
Ġcel	10286
vubuntor	10285
Ġproductivity	10285
Ġcourage	10285
Ġbeans	10284
memory	10283
ĠBASIS	10283
Ġnotable	10282
Ġimmer	10282
Ġembrace	10282
Ġconnectivity	10279
USA	10278
Ġgoverned	10274
ĠPenn	10273
constant	10272
ĠNation	10272
Ġadmin	10271
]*	10270
ĠFall	10269
Ġcurrents	10267
Ġclone	10267
Include	10266
239	10265
ĠIntel	10265
Ġdeformation	10264
vention	10262
ĠScript	10259
general	10258
261	10258
Ġcompiled	10258
Ġsimul	10257
Ġproximity	10255
Ġaddiction	10255
ĠWard	10255
Ġnuts	10254
friendly	10252
collection	10252
components	10250
Blue	10250
Ġtale	10249
Ġgrasp	10249
ĠWR	10247
Ġconvince	10246
socket	10243
509	10243
Ġengines	10243
Ġcomic	10239
eel	10238
Ġharassment	10238
Ġrolled	10236
ĠTaiwan	10235
Arch	10233
!(	10232
ĠRelations	10231
science	10229
Ġtx	10229
Âı	10227
Ġpotentials	10227
ĠMarc	10227
Several	10226
kz	10225
ĠFranklin	10224
views	10223
ĠMF	10223
Ġmeters	10221
Ġbanking	10216
Ġsituated	10215
ĠEconomic	10215
Ġenriched	10214
ĠEarly	10213
Ġinhabit	10212
Ġchampion	10212
Ġperforms	10210
Ġain	10208
nds	10203
Ġrecruited	10202
Ġcute	10202
Ġburied	10202
ĠJose	10202
oids	10201
ĠÅ	10201
ĠTerm	10199
Ġ"'	10197
ĠTrial	10196
Ġcontraction	10195
083	10194
Ġdefeated	10193
Ġcytokine	10193
ĠGulf	10192
Ġindicators	10191
between	10189
batch	10189
Ġpronounced	10188
Ġequals	10186
Ġshoulders	10183
Ġgaming	10182
MAC	10180
087	10178
numbered	10177
ĠAnimal	10177
ĠGit	10176
Ġextensively	10170
mad	10169
Ġparental	10169
rix	10168
ĠCloud	10168
Ġsaline	10167
Ġmineral	10162
VR	10161
'])	10161
Ġsensation	10160
Ġpathological	10160
EDIT	10159
Ġracist	10158
Download	10157
Ġthemes	10155
HTTP	10151
ĠAtlantic	10150
Ġdielectric	10147
Ġabnormalities	10146
Ġdeployed	10145
Ġceremony	10145
Ġannounce	10145
Ġreplicate	10144
need	10142
Ġintimate	10142
-)	10140
Ġcd	10140
Ġcalibration	10140
stim	10139
ĠEver	10139
dash	10137
Ġtouched	10137
Ġcirculation	10136
ĠGreg	10136
Ġrelay	10134
282	10133
Ġgirlfriend	10132
ĠStatus	10130
274	10129
Ġammo	10129
ĠmiRNA	10128
Ġconceptual	10128
ĠEND	10126
Ġresponding	10124
+++	10122
ĠRoute	10122
089	10119
ogical	10118
Ġconverge	10117
alik	10116
1004	10115
Ġdepicted	10115
ĠDigital	10115
Ġarrangements	10114
uki	10113
storage	10112
jquery	10112
ĠLat	10112
extra	10111
Ġresection	10110
Ġconsequently	10109
416	10101
igned	10097
Ġmerger	10097
Ġlover	10097
Ġexercises	10096
pages	10095
meter	10095
Ġranks	10095
Ġspiral	10094
ĠBin	10092
Ġcreator	10091
dad	10090
Ġbrake	10090
Ġaccepting	10090
Ġwipe	10089
March	10088
Ġzones	10087
ĠStatement	10087
Ġhunting	10082
Ġdisable	10081
Ġmall	10078
ĠNMR	10077
Ġfeaturing	10075
Ġbullet	10075
ube	10074
Ġimplicit	10072
Ġhill	10071
sell	10070
ĠBed	10070
Conn	10069
Ġadhesive	10067
TAL	10066
Ġstranger	10066
does	10064
Nu	10064
Ġlb	10060
Ġinterfaces	10058
Ġgaps	10057
emic	10055
Library	10054
Ġcontour	10054
Coord	10052
Ġdemanded	10052
Ġdecree	10052
Ġ174	10052
uble	10051
ĠKC	10050
Ġtrips	10049
Ġparadigm	10049
ĠRobinson	10048
ĠCost	10048
Ġpound	10047
feature	10045
HAR	10045
personal	10044
1979	10044
rass	10043
ĠTed	10037
Ġcomme	10036
Ġdeputy	10032
Ġgaze	10031
Ġcompositions	10030
trust	10029
Poly	10029
ĠHistoric	10029
uche	10028
ĠAgent	10028
Ġsophisticated	10027
ĠDeath	10026
308	10024
ĠAdams	10024
Details	10023
Ġrabbit	10022
Ġalgebraic	10022
Socket	10018
ĠYES	10017
ĠReserve	10017
ĠNuc	10017
toggle	10016
ĠComputer	10016
Cast	10010
084	10008
Ġsearches	10008
Ġcyclic	10006
Ġheadache	10005
collect	10004
ouch	10002
Ls	10000
Ġbiochemical	9999
ĠBody	9998
Ġspreading	9997
Ġheal	9997
INST	9995
Ġdiffuse	9995
commit	9994
Low	9993
KB	9992
Ġcontradiction	9990
%"	9989
Ġoptic	9989
Ġtimeout	9988
Ġputative	9986
Ġcentered	9984
Ġbones	9983
Ġsuccessive	9980
Ġben	9980
"\	9978
Ġarrows	9978
Ġvoices	9971
ĠVS	9971
.<	9968
Short	9966
Ġobsess	9965
government	9964
283	9964
ĠWang	9964
Ġgenerous	9962
dai	9959
Iterator	9959
Ġexponent	9959
Ġprohibited	9958
ĠActive	9956
looking	9954
cott	9954
Ġcalculating	9951
ĠBreak	9951
generated	9950
Having	9950
Ġaccompanying	9950
ĠToo	9948
Ġsongs	9947
Ġclicking	9947
ĠWARRANTY	9947
Ġfriction	9946
TRUE	9939
Ġnotification	9938
Ġpuzzle	9937
ĠBeijing	9937
igious	9936
created	9936
Transaction	9935
Ġgently	9935
ĠDead	9934
ĠArthur	9934
Ġhes	9932
Ġbenchmark	9932
sets	9927
236	9925
ĠTol	9925
Mad	9924
Ġirregular	9921
Ġtransplantation	9920
ĠFront	9920
Ġpathogenesis	9918
ĠSound	9918
286	9917
Ġdough	9915
subject	9914
Ġultrasound	9914
ĠPharmac	9913
ĠLou	9913
SSL	9910
Ġpressing	9910
Ġ[âĢ¦]	9910
Ġfreeze	9907
Ġcotton	9907
Luc	9906
Ġcattle	9906
Ġpredominantly	9904
abc	9901
1100	9901
Ġii	9899
ĠMMP	9899
ĠKings	9899
unk	9897
Ġwaited	9895
Ġadmits	9895
Metadata	9893
Ġportfolio	9893
Ġinsult	9893
Ġnucleotide	9891
Ġnomination	9891
Ġgrap	9890
Ġsoccer	9889
ĠInternal	9887
,.	9884
Ġquantified	9884
Ġguided	9884
Ġensemble	9884
ĠSus	9881
#.	9879
Ġrevenues	9879
ĠFifth	9879
Ġphotographs	9877
Private	9876
Ġfoam	9872
456	9871
Ġwallet	9871
Ġcelebration	9870
shadow	9869
Ġimproves	9868
Ġemotion	9867
Ġadvise	9864
ĠProblem	9864
ĠKennedy	9862
tage	9859
~/	9857
Bit	9857
Ġgifts	9856
tart	9854
Ġwooden	9854
cutaneous	9853
Ġ}_	9852
Ġconsiders	9850
/-	9849
Ġanalyzing	9849
Ġskilled	9848
Ġarterial	9845
Ġattrib	9844
Ġ404	9844
Ġ1971	9844
Ġrestart	9843
Ġseverely	9840
Ġhomeless	9840
Ġmanufactured	9839
coding	9837
Ġsoluble	9837
Ġreass	9836
ĠSr	9836
Ġurged	9831
ĠCommerce	9829
alin	9827
defendant	9825
von	9824
341	9824
resources	9821
Ġdarkness	9818
Ġcollateral	9818
Ġdressed	9817
Ġcortical	9816
Ġspherical	9815
Ġjs	9813
Ġoutlet	9812
VG	9811
Ġoscillator	9808
slash	9807
405	9804
Ġregimen	9804
Ġbadly	9802
Ġathletic	9802
wx	9801
Ġspecialist	9801
Ġranged	9801
Ġprisoners	9801
ales	9800
Ġplasmid	9800
ĠMetro	9793
Ġbugs	9792
HN	9791
ĠKentucky	9791
ĠSecret	9790
ĠRoom	9790
Ġsectors	9788
ĠMann	9788
ĠLane	9788
Ġjavax	9787
ĠDelhi	9787
Could	9786
Ġswitched	9783
Ġza	9781
OME	9780
Ġdashed	9779
ĠCreek	9777
Ġterminated	9776
ĠPDF	9776
Ġimprisonment	9775
Notes	9772
Ġalias	9772
ĠGraham	9771
surface	9769
PN	9769
Ġacres	9769
Ġvarieties	9768
Ġredistribute	9768
Ġpaired	9766
osomal	9764
Ġot	9764
Ġsleeve	9763
MON	9762
Ġpolish	9761
Michael	9760
ĠMN	9760
nop	9757
Profile	9757
ĠWI	9756
).](	9755
Ġfen	9755
Ġ"{	9754
Ġinability	9753
ĠEstate	9752
ĠSide	9750
Attributes	9749
Ġbladder	9748
ĠEvidence	9747
Variable	9745
ĠACC	9745
Ġpleasant	9744
company	9740
Ġconstituted	9740
ĠBattle	9740
Prote	9739
ared	9738
lik	9736
Ġ900	9736
Ġdictionary	9735
radio	9734
249	9734
290	9732
ĠStory	9730
Ġrefusal	9729
adjust	9728
Ġstartup	9726
Ġembryos	9726
344	9724
oys	9723
ĠNeu	9721
Ġweigh	9719
Ġecosystem	9719
402	9718
pH	9717
Ġprognostic	9717
Ġdisregard	9717
enabled	9716
Native	9716
VB	9714
Ġlid	9712
Ġexpressly	9712
ĠEXPECT	9712
Folder	9710
ĠLip	9710
istent	9708
Ġrecurrent	9708
zan	9707
inine	9707
Ġfiltering	9706
graf	9705
VD	9705
ĠHarvard	9705
ĠRegion	9704
alias	9703
342	9703
054	9703
Ġtransistor	9703
Ġflush	9703
ĠTraining	9703
ĠMobile	9702
Ġhalt	9701
Ġuncertain	9699
utor	9697
Ġpledge	9696
ĠSex	9696
cj	9694
Ġdrum	9694
circle	9693
eks	9692
Region	9692
Ġconsultant	9692
Ġinoc	9691
Ġpunct	9690
REA	9689
Ġsplitting	9689
Ġaforementioned	9689
ĠMedicare	9688
Ġdesigner	9686
Ġ1968	9686
227	9684
correct	9683
Ġshear	9681
Ġai	9681
Ġsubstituted	9680
ĠTurkish	9680
Ġsupplemented	9678
tensor	9677
erson	9675
Ġdigest	9675
Defendant	9674
ĠBruce	9674
*[	9672
ĠTag	9672
Ġcyber	9671
Ġraid	9669
Ġdozens	9669
Ġcaps	9668
Ġsoy	9666
ĠPhase	9666
Ġseized	9664
ĠCit	9660
Ġmarry	9659
ĠCarol	9659
Ġinterrupt	9658
ĠGFP	9658
ndo	9657
760	9657
?!	9656
279	9655
mons	9653
boy	9653
ĠIntroduction	9652
Symbol	9650
aged	9649
Adv	9649
355	9647
ĠIRS	9647
Ġclamp	9646
Ġrevel	9645
Ġverbal	9643
Ġendless	9643
ffl	9641
DQ	9641
Ġadvers	9641
kyl	9640
Ġtons	9640
Âª	9639
\%	9639
Î¿	9638
<!	9637
treatment	9636
das	9635
Ġreversal	9634
progress	9633
pattern	9628
Ġoptimized	9627
ĠWM	9626
ĠNelson	9623
Ġ"^	9623
Ġjacket	9621
Ġdefinite	9621
Ġcompelling	9621
Ġcleared	9621
Ġaggregation	9618
Ġbears	9617
226	9615
Ġunreasonable	9615
Ġlifted	9615
TIF	9614
Through	9611
638	9611
Ġdilution	9611
ĠGordon	9611
Ġmalaria	9609
ĠEverything	9607
Ġwings	9605
Ġprohibit	9604
Ġpresumably	9604
Ġmonomer	9604
ĠAlan	9604
Ġelectromagnetic	9603
Ġstochastic	9601
union	9597
Ġbeating	9595
ometer	9594
Move	9594
Ġoptimize	9594
ĠFun	9594
fixed	9593
ĠBuild	9593
Ġimplicated	9591
pling	9590
glia	9588
Ġmelt	9588
Ġbust	9588
ĠRepresentative	9588
Ġproves	9585
ĠAirport	9585
ĠCriminal	9584
Ġtoe	9581
Figures	9579
scroll	9578
ĠGot	9578
Ġaide	9577
proxy	9575
logic	9575
Ġdissolved	9575
.'"	9572
Ġplanes	9572
Ġuh	9570
Ġdealt	9570
ĠIraqi	9570
Ġmicrobial	9569
Ġlien	9568
Ġspectroscopy	9564
tian	9563
ĠTai	9563
sag	9562
Ġtechnological	9562
ĠLearning	9562
Ġfocal	9561
,(	9560
Ġsignatures	9560
Ġroster	9559
Ġports	9558
yon	9557
Notification	9556
Ġfriendship	9556
ĠSydney	9556
ĠLegislature	9556
Ġamend	9555
contains	9553
Ei	9553
ĠSri	9553
hre	9552
Ġassumes	9552
("%	9550
Password	9549
Ġft	9547
Ġunfortunately	9546
Ġensures	9546
Ġactress	9546
lls	9545
ĠWind	9544
Ġthreatening	9543
ĠBand	9543
**:	9539
287	9537
Ġcookie	9537
Ġvin	9536
ĠPaper	9536
ĠAH	9536
Ġeuro	9534
Ġcolored	9534
electric	9532
ĠLincoln	9531
walk	9529
Ġjuvenile	9529
ĠRomney	9529
constraint	9528
Ġhierarchy	9527
Ġdocumentary	9527
ĠVin	9527
escence	9526
IRS	9526
Ġ\~	9522
eD	9521
Ġmetadata	9519
Ġagriculture	9519
ĠGill	9517
Rearrange	9516
Ġdischarged	9516
Ġacetyl	9516
Ġurgent	9514
Ġfare	9513
Ġadolescents	9512
Similar	9510
808	9510
ATC	9507
ĠWinter	9507
Ġcarbohydrate	9504
501	9503
Ġleather	9503
Ġaller	9501
CHECK	9500
ĠWH	9499
Ġjunior	9498
eating	9497
Ġlineage	9496
services	9495
237	9494
Ġroast	9494
Ġpresume	9494
Ġfade	9491
erts	9490
Ġdwell	9489
ĠItem	9489
JC	9487
Ġnanoparticles	9486
}).	9485
ĠSNPs	9484
ĠClient	9484
Yet	9483
Ġcoherent	9483
ĠBuy	9482
Ġknot	9481
Ġcontributor	9480
Ġhelper	9477
ĠMine	9477
Desc	9474
ĠVR	9469
Delegate	9463
Ġstadium	9463
ĠâĢĿ	9462
ĠCharlie	9462
Ġnutritional	9461
qt	9459
lesssim	9459
ĠAvi	9454
Ġparliament	9451
ĠAntonio	9451
Ġworkplace	9450
Ġnullptr	9449
Ġgenus	9449
XR	9448
Character	9447
ĠIndus	9447
ĠHell	9447
Ġviolate	9446
Ġulcer	9445
Ġate	9443
heel	9442
Ġbreathe	9442
ĠStewart	9442
Ġwarnings	9441
257	9440
Ġattracted	9440
ĠSubsequent	9440
ĠCos	9440
elled	9439
ĠLR	9439
WD	9438
Ġwafer	9436
amic	9433
Ġfibrosis	9433
ĠBaltimore	9433
Ġpolymerase	9432
profit	9429
Sept	9427
Ġdelight	9427
ĠChairman	9427
Ġtrash	9424
HING	9423
ĠRussell	9423
ĠMississippi	9422
idation	9421
Ġliteral	9420
oning	9419
Ġmetabolites	9419
ĠPope	9418
258	9417
ĠPrint	9417
]'	9416
]$.	9414
246	9413
Ġpremature	9413
prototype	9412
ĠEnvironmental	9412
Tal	9410
Events	9410
Ġharmonic	9410
ĠStadium	9410
Ġurinary	9409
Ġopponent	9408
unda	9407
Ġdelivering	9407
ĠCox	9406
0025	9404
Ġ$^{	9404
Ġcategor	9403
ĠSad	9403
520	9402
Ġhockey	9401
Ġbrick	9401
oste	9399
Est	9399
Ġtimer	9396
Pattern	9395
Ġsnack	9395
ĠHunt	9395
focus	9393
Demo	9393
Boolean	9392
AQ	9392
Ġconductive	9392
jin	9391
Ġsits	9391
nts	9390
ĠMG	9389
members	9384
ĠMod	9382
nell	9379
tical	9378
iger	9378
xis	9376
Ġelaborate	9376
ĠSingle	9376
ĠBoolean	9376
Ġsender	9375
Ġcommissioner	9373
actions	9372
Fields	9371
Ġnevertheless	9371
ĠĠĠĠĠĠĠĠĠĠĠĠĠĠĠĊ	9371
ĠSET	9370
Ġrelatives	9368
lact	9367
Ġundermine	9367
ĠGray	9367
Ġrehabilitation	9366
Ġtypename	9364
Ġlogs	9364
Ġchromatography	9364
ĠCover	9364
{%	9362
Ġutilization	9362
ĠNHL	9362
Î´	9360
Ġconcentrate	9360
Ġmeter	9358
ĠDatabase	9358
nodes	9357
longrightarrow	9357
chia	9357
Î¼L	9353
Ġdiploma	9352
549	9348
Ġcomplementary	9348
Ġcrops	9347
Ġsubsets	9345
ĠiOS	9345
Ġnail	9343
Des	9342
Ġendpoint	9342
284	9341
Selector	9339
Ġcoordination	9338
ĠDouglas	9338
Ġspeeds	9336
Ġregulator	9336
Drop	9335
Ġmisconduct	9335
306	9334
ĠRas	9334
Ġovarian	9333
Ġalleges	9332
rint	9331
Ġsurvivors	9331
ĠPap	9330
Ġdependencies	9329
ĠShin	9329
Year	9328
Ġchurches	9328
Ġbanned	9327
attributes	9326
Ġdisappeared	9326
Ġdelays	9324
webkit	9321
Ġinstitute	9321
Ġconstrued	9321
253	9320
sam	9319
OUNT	9319
Err	9318
Ġhike	9317
ĠIndependent	9315
Ġmyelo	9311
Ġ\*\*	9311
Ġcant	9308
download	9307
Ġformally	9307
ĠUSD	9307
ĠAlaska	9307
365	9305
Ġportal	9305
cracy	9303
Ġslices	9303
ikin	9301
Ġpursuit	9300
itions	9299
Ġcruel	9299
ĠWAS	9292
Ġfibre	9291
266	9288
ĠQuestion	9288
Ġdepartments	9287
localhost	9286
uated	9284
Though	9283
primary	9280
ĠRegional	9278
ĠFermi	9276
Ġpopularity	9274
Ġghost	9274
Ter	9273
ĠClean	9273
vine	9272
mill	9272
ĠCompl	9271
ARI	9270
ĠHER	9270
Ġprototype	9269
ĠResource	9269
Ġawful	9268
resolution	9266
Was	9266
zym	9264
Ġcombustion	9264
think	9258
Ġreflecting	9258
works	9256
Ġvenue	9255
ĠVillage	9254
056	9253
Ġthyroid	9253
WP	9252
Ġsimpler	9251
ĠmiRNAs	9251
Ġlocate	9251
1978	9250
holder	9249
ĠAustria	9248
Ġ[(	9246
Ġmetastatic	9245
ĠRio	9245
Ġnowhere	9243
Area	9242
Ġcirculating	9242
quin	9241
Conv	9241
jn	9240
Ġhunt	9240
Ġfailures	9238
Route	9236
Ġsurprisingly	9236
Ġmysql	9236
sectional	9235
317	9235
*\*	9235
Ġphotons	9234
umm	9233
Ġfantasy	9233
Warning	9230
REF	9230
ogram	9229
Ġwidget	9229
}}-	9227
DY	9227
Ġtrajectory	9227
vars	9226
ĠProduct	9226
Ġunchanged	9225
Ġgem	9225
tant	9224
rose	9224
iota	9223
Ġrevol	9223
Ġowns	9223
ĠSteven	9223
Ġquestioning	9222
extension	9221
:{	9221
Ġpraise	9221
fmt	9220
Ġoriented	9220
Ġlamin	9219
Ġritual	9215
Ġhonour	9214
Ġforegoing	9214
Ġtrains	9213
Ren	9212
0030	9209
Ġcorrespondence	9208
Ġcompanion	9206
ĠBrexit	9206
Ġassessments	9205
versa	9204
cape	9204
Ġjumped	9204
Ġburned	9201
Ġproblematic	9199
ĠjQuery	9199
kp	9197
ĠVis	9196
ĠĠĠĠĠĠĠĠĠĠĠĠĠĊ	9194
ĠJonathan	9192
Ġvulner	9190
ĠBlog	9188
ĠBasic	9188
cfg	9187
Ġclarity	9184
ĠPRI	9182
Ly	9181
1977	9181
zar	9176
ĠEveryone	9176
328	9175
ĠFried	9173
ĠEvans	9173
University	9170
Ġluxury	9170
Ġcredits	9170
Ġcheaper	9170
Ġfinishing	9169
Sync	9168
bian	9167
ĠCleveland	9167
Ġfifteen	9166
ĠCurrently	9163
catch	9162
ailing	9161
PAGE	9161
055	9161
346	9158
ĠModern	9158
oha	9157
ĠOlympic	9157
Ġagonist	9156
???	9155
Ġstreams	9151
quarter	9150
Ġannually	9150
Ġinferior	9149
Ġcruise	9147
Ġgrams	9145
ĠScottish	9143
ĠGary	9143
kers	9142
Ġclouds	9141
Ġscripts	9139
Ġincoming	9139
Ġheterogeneity	9139
hia	9137
Ġkingdom	9135
configuration	9134
aph	9134
aks	9134
Perhaps	9134
Ġselector	9134
UPDATE	9132
Ġcousin	9130
ĠKhan	9130
ĠTab	9129
Ġunfold	9127
Ġpsychology	9127
Ġcharter	9126
Ġcommander	9124
Resources	9123
Ġcanvas	9122
Language	9121
Ġunrelated	9121
Ġinventory	9121
oming	9120
Ġcrap	9120
201	9119
leqslant	9118
India	9118
Ġappearances	9118
ĠPhillip	9117
secret	9116
gian	9116
ĠMultiple	9116
ĠâĢī	9114
ĠFast	9112
_)	9111
gens	9110
Ġtrapped	9110
Ġliberty	9109
fon	9108
Ġcrush	9107
Ġdol	9106
many	9105
journal	9105
arily	9105
volume	9104
Ġworm	9104
April	9103
Ġsmiled	9103
Ġfifty	9103
Ġ1969	9103
Ġexpects	9102
Ġzinc	9100
Ġrenewable	9094
ĠTemple	9094
anie	9093
Ġpurchasing	9093
Ġconfined	9093
Among	9091
ĠTarget	9091
ĠColon	9089
unal	9086
Ġeigenvalues	9085
Progress	9084
Ġlogging	9084
392	9082
Ġverse	9082
"""	9079
Ġdropping	9075
though	9074
links	9074
dense	9072
esa	9071
Ġspeakers	9071
svg	9069
Ġaccessed	9069
Ġpathogens	9068
Ġprimitive	9067
Ġctx	9067
Ġdirt	9066
ĠShop	9066
Ġwanna	9065
wig	9063
268	9063
Ġspill	9063
Ġislands	9063
Ġ_{\	9063
\|_	9062
Ġgig	9061
Ġaxe	9059
Ġsupernatant	9058
Ġapproaching	9058
ĠWC	9058
347	9054
Ġsorted	9054
Ġdistortion	9054
ĠCohen	9054
1976	9053
ĠDevice	9053
Track	9050
352	9049
Ġtheolog	9049
gE	9048
Ġrefund	9048
Ġrebuild	9046
Ġnested	9045
going	9044
Ġfleet	9040
Ġattendance	9039
ĠProgress	9039
Ġunions	9038
ĠNewton	9037
plin	9036
Ġpressures	9035
Ġcanal	9035
ivities	9033
Ġpackets	9033
salt	9032
ĠProof	9032
bott	9031
Ġmentor	9028
Ġprecursor	9027
Ġamplifier	9026
980	9025
Ġunto	9024
Ġ320	9023
Ġlinking	9022
Ġeconomics	9022
Ġcertification	9022
Ġstun	9015
Ġpertinent	9015
Ġbay	9015
Ġdwarf	9014
Ġcoaching	9014
Copyright	9013
ĠGrad	9013
Ġpathology	9012
Ġrecipients	9011
Ġimpressed	9011
|=	9008
optional	9008
Ġcolony	9008
Ġintercept	9007
888	9005
Ġsmartphone	9003
Ġrifle	9003
Visible	9001
ruby	9000
visible	8998
Ġadvertisement	8998
stock	8997
particle	8996
Ġ206	8995
jit	8988
rek	8987
Cook	8987
Ġrailway	8987
Ġpall	8986
ĠTechnologies	8986
Depend	8985
Ġsuits	8984
Review	8983
Ġloci	8983
ĠSnow	8982
(<	8980
downarrow	8979
database	8977
Ġlacks	8977
)}^	8975
nium	8974
acon	8974
Ġsexually	8973
Ġappropriately	8973
ĠRange	8973
ĉĠĠĠĠĠĠĠ	8973
cter	8970
Ġepidemic	8969
Ġairway	8969
ĠSwitzerland	8969
Temp	8968
eR	8966
Keys	8965
ĠHawk	8965
Ġusername	8964
Ġrated	8963
Ġlawmakers	8962
Ġtrafficking	8959
Ġtorn	8959
Ġjustification	8959
Such	8958
Ġsimultaneous	8955
ĠTABLE	8955
ĠHot	8955
ctl	8954
Ġslave	8953
quote	8952
blin	8951
tell	8950
Ġreminded	8949
Ġneurological	8948
ĠWalter	8948
Ġdisplaying	8947
Ġmonetary	8946
Ġelimination	8946
six	8944
ERY	8943
mple	8942
keeper	8942
Ġmarine	8942
ĠDie	8942
phen	8941
stylesheet	8939
Ġdisappointed	8937
Ġsham	8934
Ġenters	8933
Ġengineer	8933
oration	8930
.");	8929
DateTime	8928
Gar	8926
abel	8923
Ġassured	8923
Domain	8922
ĠMale	8922
INSERT	8921
Ġcharity	8921
ĠComponent	8921
osin	8918
Ġgrains	8918
Ġaccounted	8918
Ġinterviewed	8916
FW	8915
INS	8911
Ġobey	8910
Ġcoated	8910
ĠNever	8910
ÎºB	8908
average	8907
Ġwondered	8905
ĠLiving	8904
ĠCampbell	8901
Ġwheels	8900
Ġtrusted	8897
Master	8896
ĠCurr	8896
bers	8895
Ġminus	8894
Ġhepat	8894
Ġballoon	8894
ocal	8892
Ġquantify	8891
rae	8890
Ġpoet	8890
lÃ©	8888
Nothing	8888
Ġmoisture	8888
ĠHREF	8887
Ġtaxpayer	8886
Ġemploying	8885
ĠMIT	8885
Ġdownward	8884
Ġ1967	8884
QT	8880
ĠLetter	8879
Ġ260	8878
Ġstays	8877
Ġcostly	8877
063	8876
ĠEmail	8874
critical	8872
ĠReed	8872
Ġsquares	8871
Ġstrongest	8870
Furthermore	8869
Ġamplified	8869
Ġtransgenic	8866
\}$,	8865
Ġflavour	8863
issue	8860
Fire	8859
Ġlaughed	8859
Ġ-----	8859
Ġguards	8858
significant	8856
Ġwick	8856
Ġsecurities	8856
Ġadviser	8856
Ġseventh	8855
TW	8853
Ġintegers	8853
ĠPeace	8853
Ġcommerce	8851
chat	8850
567	8850
Ġscream	8850
Ġintravenous	8850
Ġ231	8850
385	8849
ĠAlexa	8849
ĠNeed	8847
Ġdefective	8846
Ġarthritis	8846
moz	8845
ĠFix	8845
VL	8843
ĠQuality	8842
cook	8841
Ġviewers	8841
Ġdash	8840
statement	8838
Ġnormalization	8836
Ġstandardized	8835
Ġretreat	8835
Ġ211	8835
Special	8834
ĠSNP	8832
329	8831
Ġuncertainties	8830
ĠYang	8826
ĠWOR	8825
hift	8823
available	8822
ĠSTE	8818
Wall	8817
Ġ270	8815
ĠMachine	8811
gia	8808
Ġcomplained	8808
Ġfaint	8807
Ġaffirmative	8807
ĠCBS	8806
coat	8804
Ġcollagen	8804
protocol	8801
gM	8801
dag	8801
ĠMono	8801
Ġannotation	8800
ĠIntelligence	8800
ddl	8798
Kar	8797
/_	8797
Ġlabeling	8797
FROM	8796
}|\	8795
pedia	8795
Ġoverhead	8794
ĠSave	8794
ocytes	8793
Extension	8792
Ġcompassion	8792
Ġdelegate	8791
Ġhiding	8790
Ġslides	8789
Ġappealed	8789
pacing	8788
ĠAlbert	8785
loader	8784
ĠMORE	8784
buck	8783
Ġfirearm	8783
Ġdeprive	8783
Ġanniversary	8783
Ġleap	8777
bble	8776
Ġcc	8774
Ġelliptic	8773
TTC	8772
Sequence	8772
libs	8771
Would	8769
Ġpractically	8767
setup	8766
ĠMembers	8764
ently	8762
Ġvaccines	8762
ĠOriginal	8762
292	8759
Ġdemonstration	8758
Ġchiral	8757
"`	8756
Ġonion	8756
Ġlungs	8755
ĠSend	8755
Unfortunately	8753
ĠDeep	8753
ĠGram	8751
}}[	8750
ĠLad	8750
Ġthorough	8749
âī¥	8748
chs	8748
Ġhonestly	8747
Ġinitialize	8746
ĠVisit	8746
ulations	8745
chin	8745
Ġshallow	8743
Ġpicks	8743
Ġmt	8743
Ġdies	8743
)));	8739
ĠMaterials	8739
Ġoperative	8738
^*_	8737
Ġtemper	8737
olate	8735
Ġlicenses	8733
ĠKill	8731
Ġbolt	8730
Ġsketch	8729
ĠRV	8729
Ġreproduction	8728
ĠSuperior	8727
road	8726
ĠRecent	8726
Ġscholarship	8725
bye	8723
atl	8722
PW	8722
Ġstressed	8721
Ġbake	8721
Ġket	8720
parameters	8719
Ġ##	8719
?.	8718
ĠLICENSE	8717
Ġnewsletter	8716
Ġdressing	8715
Ġconjecture	8715
sep	8714
ders	8712
Ġascertain	8712
ĠTower	8711
origin	8710
Police	8709
ĠZn	8708
430	8707
Ġdrone	8707
Ġcollections	8707
Ġdepletion	8706
xFF	8705
Ġtile	8704
convert	8702
tml	8701
1234	8700
ĠTRUE	8699
ĠAlliance	8699
sizing	8698
Ġisolate	8698
Very	8697
Ġtexts	8697
Ġhorrible	8697
Ġcarpet	8696
Ġcapsule	8695
Ġsperm	8693
emptyset	8692
ĠASP	8691
Ġante	8690
navbar	8688
Ġpg	8688
Ġgenerators	8688
qi	8686
ĠOFF	8686
ĠIssue	8686
IFT	8685
Ġglasses	8684
Ġapologize	8683
qs	8681
Ġreminder	8680
aces	8679
Ġconn	8679
stats	8678
errors	8672
Ġattacking	8672
ĠElection	8672
%"}	8667
ĠPred	8667
Ġworthy	8666
amel	8663
Ġboa	8661
signal	8660
.__	8660
Ġprojections	8660
ĠCastle	8658
Ġlongest	8655
eaf	8654
Ġprecious	8654
Ġtemporarily	8649
Ġgotta	8649
ĠAlternatively	8648
iki	8647
grams	8646
Ġcompartment	8645
Ġseizure	8642
Ġinhibits	8641
Ġbreeding	8640
Ġmeso	8639
ĠFinance	8639
Ġholy	8638
Â¢	8637
ĠLawrence	8637
ĠDrive	8636
ited	8635
ĠBishop	8634
Ġgrabbed	8633
writing	8632
783	8631
Ġwells	8631
ĠLIMIT	8631
ĠDru	8631
Ġdopamine	8630
Ġheadquarters	8629
Ġtrunk	8628
348	8626
Ġpenalties	8625
ĠPrevent	8625
ued	8624
ĠPortland	8623
Ġeducated	8621
Ġadherence	8620
Å¡	8619
sson	8617
Timer	8615
Analysis	8615
Ġdetention	8615
generate	8614
Allow	8614
environment	8613
Ġresting	8613
)âĢĵ(	8612
Ġdiagrams	8611
Ġtokens	8609
'];	8608
$-$	8607
Ġwires	8606
ension	8603
Ġstrengths	8603
Ġmorphism	8603
pus	8602
detail	8602
ĠFramework	8601
building	8597
agne	8597
Term	8596
Ġsubunit	8596
Ġconvincing	8596
KR	8595
Ġstruggled	8595
inase	8593
XL	8593
Ġprotesters	8593
Ġmitochondria	8591
Ġcheek	8588
ctrl	8587
Ġrefresh	8583
Uh	8582
Moreover	8582
ĠGrid	8582
cry	8581
Ġelegant	8580
Ġdescent	8580
ĠAra	8580
Ġtreasure	8579
Ġsuffice	8577
ades	8576
Ġmorbidity	8575
Failed	8574
Ġphp	8574
oplasm	8572
ĠVegas	8571
kernel	8570
Ġpricing	8570
Tests	8569
Ġporn	8569
argument	8568
Ġsampled	8568
Ġretinal	8568
ĠCrime	8567
paper	8565
ĠHey	8565
Ġterrorists	8564
Ġdistract	8562
748	8560
sso	8559
film	8559
Ġhepatitis	8559
Site	8558
421	8558
Ġquadratic	8558
Ġprone	8558
Ġhiring	8558
Ġflowing	8558
charge	8557
ĠRate	8557
Ġpolynomials	8556
ĠDas	8556
plex	8555
IME	8552
ĠPutin	8552
('/	8551
-[	8550
Ġpotatoes	8550
Ġ[],	8550
adm	8549
!!!!	8549
Ġdementia	8549
brain	8548
Ġintentional	8547
Ġbatteries	8547
ĠGDP	8547
ĠFish	8547
Ġrefusing	8544
mart	8540
Ġparser	8539
Ġsubdivision	8538
Ġbeverage	8537
ĠFlu	8537
ista	8536
()).	8536
Ġpap	8536
Ġimported	8536
Ġbiomarkers	8536
ĠVEGF	8536
Ġflor	8534
ĠONE	8533
omorphic	8532
291	8532
640	8531
Ġsucceeded	8531
immune	8528
boldmath	8525
Fix	8524
299	8523
Ġpause	8522
Children	8521
assertEquals	8520
utter	8518
ĠUm	8518
ĠDiscussion	8517
Ġprobabilities	8516
Ġconstitu	8516
=%	8513
ĠIDE	8512
ĠDetect	8512
Ġcoup	8510
Ġregulators	8509
Ġdots	8509
China	8507
Ġinfrared	8507
ĠNum	8506
Ġ215	8506
Ġimagination	8505
Begin	8504
Ġwander	8504
ĠOcean	8501
Ġnoble	8499
Generic	8498
ĠStein	8497
Statistical	8496
Act	8491
Ġ*(	8491
Ġprotects	8490
Ġgreet	8490
ĠMotor	8490
Ġbot	8489
ĠTODO	8488
Ġveterans	8487
elling	8486
ĠAnne	8486
MIC	8485
Ġdescriptor	8485
ĠHope	8484
Ġoverseas	8483
Ġfrustration	8482
Encoding	8481
408	8480
->_	8480
ĠMuch	8480
Ġ224	8480
getElementById	8478
Ġperme	8478
ĠPoland	8477
Loop	8475
detect	8474
ĠIslands	8474
character	8473
680	8473
Ġfootage	8473
Ġcamps	8473
Ġtransparency	8472
Ġoils	8471
ĠCape	8470
Qt	8469
Ġsums	8469
Ġcalories	8466
ĠLem	8465
Ġcomo	8464
Fragment	8463
)[(	8463
ĠHttp	8463
ĠShaw	8462
Ġaccumulated	8461
demo	8460
Ġverification	8460
Ġmotif	8459
Ġsoap	8458
Ġreluct	8457
Ġreliance	8457
ĠCass	8456
ĠCoach	8451
wick	8449
archive	8448
Ġdiffers	8444
Ġconstrained	8441
Ġchase	8441
enas	8440
780	8440
ĠCommunications	8439
Ġinevitable	8438
ĠMind	8438
Fill	8437
STATUS	8435
Ġperturbation	8435
quant	8434
0013	8432
ĠFound	8432
tern	8429
athy	8429
Ġsqueeze	8429
ĠnM	8429
Ġ212	8429
Ġpond	8428
ĠXX	8428
TOM	8426
Ġfled	8426
Ġadvocates	8426
Ġnotify	8425
route	8424
ADE	8424
ĠMitchell	8424
ORS	8422
LIST	8422
Ġscattered	8422
Ġinitiatives	8422
ĠHonor	8421
Ġgp	8420
chart	8417
ĠOpera	8416
Ġpn	8415
osomes	8414
ĠGuy	8414
ĠEdition	8414
Ġforty	8413
Interval	8412
KING	8411
ichi	8410
Ġwaist	8410
Ġassisted	8409
Ġglobally	8408
dant	8407
XY	8407
Ġexplosive	8406
Ġinherited	8405
Ġrocks	8402
0017	8401
Ġtriangle	8400
Ġafterwards	8400
Ġtoy	8399
Ġmystery	8397
Ġ214	8397
ĠNag	8395
Ġugly	8394
Ġbutt	8393
ĠRosen	8393
TOP	8392
Ġlymphocytes	8392
Ġlang	8392
Ġdeform	8391
ĠColo	8390
Ġah	8389
City	8388
ause	8386
Ġqualities	8386
Ġobserver	8386
Ġbtn	8386
Ġcement	8385
dll	8384
Ġworlds	8384
Ġanalyst	8383
Sql	8382
RING	8382
Ġrope	8382
Ġinstalling	8381
Ġexterior	8381
ĠTogether	8381
Ġsubscribe	8378
Ġdefending	8378
ĠKenya	8378
Ġvagina	8377
Ġwinds	8376
Ġscreens	8372
acts	8371
Ġmelanoma	8371
Ġbasement	8371
mite	8369
066	8368
Ġstats	8368
Ġhosting	8368
aft	8367
Ġpays	8367
Bank	8366
ĠChrome	8366
Audio	8365
Ġrelaxed	8364
Ġdiluted	8364
Ġobservational	8360
Ġconsuming	8360
Tw	8359
Ġ\+	8359
Mel	8358
RH	8356
331	8356
Services	8355
Ġstunning	8355
ĠPET	8353
Speak	8351
Ġmediate	8351
processor	8350
)!	8350
Ġwrist	8350
Ġfires	8350
Initial	8349
Ġuncomfortable	8349
ASSERT	8347
Mapping	8346
SUB	8345
Ġpersuade	8345
Ġcharm	8345
ĠEqual	8345
Ġdire	8343
Ġinvested	8341
Ġclones	8341
allow	8340
()"	8339
Ġ222	8339
Ġopioid	8334
ĠExamples	8334
![**	8333
ĠSmart	8332
Ġpulses	8329
Ġcongressional	8329
ĠClearly	8329
tries	8328
Clear	8328
Ġcapitalism	8326
ĠGuardian	8325
Ġvoter	8324
065	8323
Ġpine	8322
Ġirradiation	8321
Ġconductor	8321
ĠProf	8320
Ġpigs	8317
ĠAqu	8317
+,	8316
Ġpastor	8316
Ġshocked	8313
ĠHyper	8313
Ġglobe	8312
ĠFALSE	8311
387	8310
Ġsubstantive	8310
ĠJerem	8310
Sum	8309
Ġfluids	8309
cion	8307
ĠResult	8306
ĠBris	8306
Ġinfinity	8305
eden	8303
iated	8302
Ġubuntu	8302
Ġimplant	8302
Ġcycling	8302
Ġ*/,	8302
ĠApr	8299
whether	8298
Ġspy	8298
ĠUniverse	8298
Ġ207	8297
borne	8296
Ġinvesting	8296
Ġ208	8295
Ġflee	8294
667	8293
ĠAppeal	8293
usually	8292
Ġgarbage	8290
schemas	8289
omas	8288
Ġtroubles	8288
Ġmd	8288
Ġcompleting	8288
Ġtransfers	8286
Ġtemplates	8286
Ġ*,	8284
Ġcleavage	8283
ĠConnecticut	8281
Hand	8280
Ġtransformations	8280
Ġplanets	8280
ĠDefinition	8278
Ġpatches	8277
ĠRH	8277
Ġparole	8275
blank	8273
Ġmultivariate	8273
rame	8272
Ġvillages	8271
icit	8270
Ġgenomes	8267
Ġhaem	8266
Ġlasting	8265
Ġgriev	8265
ĠOrange	8265
ĠDynamic	8265
Ġchloride	8263
ĠHindu	8260
brand	8259
Ġadapter	8259
Ġdimer	8256
Flag	8255
621	8254
Ġnutrients	8254
Ġcounterparts	8254
ĠCompared	8254
481	8252
ĠNV	8252
Ġillustration	8250
nus	8248
Ġsurrender	8247
ĠDream	8245
oles	8244
anies	8244
]$,	8243
Ġroutinely	8241
Ġaggravate	8240
Ġswallow	8239
Ġherb	8239
ĠEp	8239
Ġstent	8237
Ġbacking	8237
glob	8236
ctive	8236
vascular	8235
Ġreleasing	8235
sai	8234
gA	8234
Ġgraphene	8234
Ġacet	8234
agger	8232
Ġglory	8232
mph	8231
Ġstrap	8230
opathy	8229
Ġlod	8229
ĠELISA	8229
Comments	8227
Ġdivergence	8227
Ġalliance	8227
ĠMurray	8227
Ġ213	8227
devel	8226
Comparison	8226
Ġidx	8226
ĠMail	8226
Ġbottles	8225
Ġaqua	8225
ĠLG	8224
volution	8223
oting	8223
dialog	8223
()));	8223
issues	8220
ĠTalk	8220
Sym	8219
ĠYOUR	8219
ĠMn	8219
Without	8218
Animation	8218
ĠAlzheimer	8217
ĠMarshall	8216
tL	8213
rays	8213
idia	8213
RIC	8213
//!	8213
ĠBH	8213
HG	8212
Face	8211
ĠGia	8211
posing	8209
books	8209
ĠTool	8207
ĠassertEquals	8206
Tx	8205
forms	8203
Ġbuilds	8203
Ġmammalian	8202
Ġhungry	8202
Ġbuyers	8201
Ġabsorbed	8201
Ġknees	8200
lick	8199
Ġtrillion	8199
Ġvisa	8197
Ġ1964	8197
Ġorganism	8196
391	8195
Ġoccasional	8195
Ġtorque	8193
Ġfixation	8193
359	8191
Ġsilly	8191
objects	8187
Ġaltogether	8187
Ġpants	8186
Ġalgebras	8186
Monday	8184
Ġcounties	8184
Complete	8183
Ġspeculation	8181
ĠSusan	8181
cking	8179
Person	8179
ĠIndividual	8179
Ġchaos	8177
ĠEva	8177
ĠHills	8174
Ġmicrowave	8173
Ġincurred	8173
Ġcrying	8173
ĠEye	8173
Ġchin	8172
atives	8171
IAN	8171
Ġinferred	8171
tuned	8169
422	8169
ĠPalm	8165
ĠJustin	8165
ĠActivity	8164
Hub	8163
ĠSingh	8162
dates	8161
Ġmechan	8161
Present	8159
Chain	8159
560	8159
ĠStudents	8157
Ġhandles	8156
Ġadoles	8155
ĠProfessional	8154
ĠMaine	8153
eight	8152
Ġpatents	8152
factory	8151
Mouse	8151
Ġlord	8151
phag	8150
ĠORDER	8150
repeat	8148
Ġlacked	8148
701	8145
although	8142
Ġexperimentally	8141
ĠCONFIG	8141
Focus	8139
ĠÂłĊ	8139
Ġprospects	8139
Ġshook	8137
Ġcrystals	8136
story	8133
dq	8133
Ġversa	8133
Ġnecrosis	8133
iller	8132
Der	8132
Ġseasonal	8132
Ġours	8132
Ġdownloaded	8131
Ġpolymers	8130
Ġconductivity	8130
alert	8129
Ġwhites	8129
Ġsocieties	8128
Ġmachinery	8128
technology	8127
Ġfac	8127
Ġankle	8127
ĠChristianity	8127
ĠMoney	8126
ĠGUI	8126
Ġobserving	8123
Ġeditorial	8123
Ġcloth	8123
psin	8122
Ġrevealing	8121
ĠOtt	8121
ĠCorrect	8121
Ġoutfit	8120
ĠLuke	8120
ĉĉĠĠĠĠĠĠĠ	8118
ĠAssert	8117
MK	8115
Ġracism	8115
greg	8111
entine	8110
,...,	8110
335	8109
ĠLGBT	8107
ĠEat	8105
vre	8104
Install	8104
Ġpublishing	8104
Ġrelying	8103
Ġmicroscopic	8103
GW	8102
Ġreferral	8102
Ġgestation	8101
Ġcritically	8099
Uri	8098
Ġcontinuity	8098
Ġcascade	8098
372	8097
fied	8096
Ġagar	8094
marked	8092
Ġacoustic	8092
ĠNBC	8092
Ġchunk	8090
Nor	8088
Ġdifferentially	8088
ĠBorder	8088
skin	8087
Pet	8087
ĠProducts	8087
gst	8086
Bbb	8085
ĠWash	8084
STRING	8081
ĠIo	8080
Ġsatisfactory	8079
Ġpurple	8079
inar	8078
Ġpeers	8077
anon	8076
ĠClear	8075
deep	8073
Ġtoast	8073
Ġbronch	8073
uments	8071
Ġfixture	8071
ĠOracle	8071
Ġnominee	8070
Ġgenotypes	8070
ĠStanley	8070
lear	8069
Overall	8069
ĠPrivate	8069
distr	8067
425	8067
Ġflies	8067
Ġdecode	8064
337	8063
Pt	8062
Ġunderground	8062
Ġbonding	8061
ises	8059
corporation	8059
hover	8058
Ġairline	8058
Ġtomography	8056
Ġperpendicular	8055
oriented	8054
Question	8053
373	8053
Ġhug	8053
Ġcoincide	8052
Ġbackward	8052
lord	8050
Ġpredicting	8050
Ġnodded	8049
ĠPrimary	8049
ĠHost	8049
mathit	8048
920	8048
Ġfarms	8043
ĠWalk	8042
provider	8040
Ġconfusing	8040
PACK	8037
Ġtablespoons	8037
Ġspeculate	8037
pull	8036
Ġleverage	8036
Ġlanded	8036
Ġbinds	8033
Ġconditioning	8032
ĠCOMM	8031
Ġbent	8030
ĠCollins	8029
ĠForum	8028
offs	8027
Ġantigens	8027
ĠCorps	8026
Ġoverlapping	8025
Ġwinners	8023
Ġstance	8023
Ġ1965	8023
Ġtors	8022
dil	8020
ĠDh	8019
enol	8018
Air	8018
Ġwildlife	8017
anto	8016
Ġconception	8016
Ġcocktail	8016
ĠLikewise	8016
Ġterminals	8015
Ġpainted	8015
Ġneat	8013
Ġclash	8013
ĠPittsburgh	8013
ĠMedi	8012
ectomy	8010
Ġsimplified	8010
Ġwealthy	8009
ĠWP	8009
idad	8008
eron	8008
Ġrestoration	8007
Ġdonations	8007
Ġquantification	8006
Ġrotational	8005
Ġgates	8005
ĠHiggs	8004
motion	8002
Ġdescriptions	8002
Ġvegetable	8000
ĠOthers	8000
Ġdesc	7999
GCC	7998
Ġsequel	7997
Ġrhetoric	7996
Ġpellet	7996
hub	7995
Direct	7993
wrapper	7991
Ġreforms	7989
ĠEnvironment	7989
HEAD	7987
Ġlifting	7986
Ġconstructs	7986
Ġbarred	7986
Ġrelapse	7985
ĠTIME	7984
ĠParticipants	7983
Ġ330	7983
angular	7982
Inf	7981
Ġsummit	7981
Ġlime	7980
ĠMurphy	7980
ĠAlice	7980
AZ	7979
Ġqubit	7979
Ġcargo	7978
Ġboyfriend	7977
Ġapplicant	7977
Ġoffspring	7976
LIC	7974
Ġkicked	7974
lde	7973
ĠSpecific	7973
()))	7972
Ġconverting	7972
Ġantimicrobial	7971
)/((	7970
ĠRandom	7970
ĠNei	7970
thus	7969
Ġhistological	7969
tailed	7968
credit	7968
Ġemergence	7968
Son	7966
ĠOrleans	7966
Ġlinkage	7965
Ġligands	7965
Ġhung	7965
rica	7963
balance	7962
Ġdetectable	7962
ĠPast	7962
Ġsimplify	7961
Ġscientist	7961
macro	7960
ĠRace	7960
Ġstones	7959
Ġconfession	7958
ĠInside	7958
Ġtangent	7956
directory	7953
Ġacceler	7953
onia	7952
Pas	7952
Ġqueen	7950
ĠClassic	7950
Ġsubgroups	7949
740	7948
417	7948
rB	7947
475	7947
weak	7946
Ġsupportive	7945
Ġ\!	7945
Ġwounded	7944
Ġhomosexual	7944
Ġrepeal	7943
trim	7942
bean	7940
Friday	7940
YES	7939
CX	7939
Ġpurchases	7938
ĠSignal	7935
Ġ----	7933
iator	7932
hook	7932
Ġrepo	7932
Ġbroadly	7932
browser	7931
nto	7930
Ġpairing	7929
Ġjaw	7926
Ġsliding	7925
396	7924
Limit	7920
Ġtitled	7920
say	7919
acks	7917
Ġsv	7917
Ġoffend	7917
ĠMission	7917
ente	7916
Ġdosage	7916
clinical	7915
361	7915
.]{}	7914
Ġstreak	7913
moving	7912
Ġshortage	7912
Ġdrafted	7911
Yu	7910
Ġupdating	7910
Ġenact	7910
lift	7908
ĠFiles	7908
jackson	7907
Ġcoarse	7907
fox	7906
Ġnutrient	7906
Ġclue	7906
Ġambient	7906
Ġobese	7904
alog	7903
Ġcommented	7903
ĠRh	7903
jr	7902
850	7902
504	7902
rintf	7901
delay	7900
Ġnaked	7900
Ġcompensate	7900
peer	7899
anga	7899
Ġpermanently	7898
ĠMatter	7897
Ġpresumption	7896
Ġheritage	7896
Ġshoe	7894
Ġpatron	7894
Ġcivilian	7894
died	7892
NOTES	7892
Ġdeed	7892
Ġfirmly	7891
Ġaux	7891
Ġrationale	7890
Tell	7888
Ġharvested	7888
Ġdistinctive	7887
Ġdent	7885
ĠAMP	7885
oko	7884
DEP	7884
CSS	7883
enne	7882
ifiers	7880
Struct	7879
Ġquo	7879
Ġcorpus	7879
Ġsoak	7876
Ġpremise	7876
RED	7875
Ġvocal	7874
Ġdefinitive	7872
ĠSubject	7872
ĠAaron	7872
cart	7870
Weight	7867
Department	7867
ĠWorking	7867
zole	7866
functional	7866
ABC	7866
Ġcontexts	7866
Ġdeficits	7862
Ġreserves	7861
Ġfright	7861
Points	7860
Ġexchanges	7860
ĠEthics	7860
ĠChristopher	7859
ĠApply	7859
Getty	7856
cision	7855
Ġblanket	7855
ĠReuters	7855
ĠVALUES	7854
Ã¨s	7853
630	7853
Ġlaughing	7853
Ġselectively	7852
Html	7850
ello	7849
ĠReading	7848
Materials	7847
producing	7846
Ġtheatre	7846
ĠScha	7846
Fun	7845
Ġrecalled	7845
ĠParker	7845
Ġcubic	7843
ails	7842
Random	7842
Ġchef	7842
ovirus	7841
Â¬	7840
unes	7840
regular	7840
predict	7840
idin	7840
468	7840
ĠISIS	7840
plugins	7839
Hs	7839
Ġstitch	7839
emm	7838
Ġuniquely	7838
ĠVancouver	7836
ĠCraig	7836
Family	7834
424	7834
Ġthermodynamic	7832
Ġpolitician	7832
Ġtherapist	7831
ĠBN	7831
Compare	7830
/#	7830
.*,	7830
Ġtaxa	7830
ĠTrail	7828
uniform	7827
design	7827
Ġtraditionally	7827
Ġdesigning	7827
ĠCRE	7827
bundle	7825
Ġoccupy	7825
Ġarena	7824
Resolve	7822
Human	7822
ables	7820
462	7819
Ġaz	7819
ĠMcCain	7819
Ġdeviations	7817
ĠTaking	7817
ĠDraw	7817
Ġpowered	7816
-"	7815
wards	7812
health	7811
Ġsweep	7809
Ġqual	7809
swift	7808
Pad	7808
ĠCrim	7808
chic	7807
334	7806
business	7805
ĠJU	7805
Ġuncle	7804
Ġconverter	7804
ĠUL	7804
Ġmonoclonal	7803
ĠOutput	7803
phosphate	7802
mented	7802
Ġpreparations	7801
lers	7800
DAY	7799
295	7799
ĠArrayList	7799
Ġ301	7799
ĠPhD	7797
ĠRing	7795
plate	7794
Ġquietly	7794
Ġtightly	7791
Ġdaughters	7791
Assembly	7790
Ġlazy	7789
Ġbowel	7789
oper	7788
Ġsynaptic	7787
cH	7786
Team	7786
ISP	7786
respond	7785
:@"	7785
ĠSou	7785
cout	7784
Â¹	7783
Ġconfront	7783
ĠFILE	7783
Ġwhip	7782
Ġsilica	7780
Ġentre	7779
ĠVictor	7779
Ġpolitically	7778
Ġmultiply	7778
Ġcation	7776
Ġaccelerated	7775
ĠRuby	7775
Cancel	7774
Ġrecess	7773
Ġbeads	7772
ĠMem	7771
relation	7769
Ġsoldier	7769
ĠAssume	7769
ĠXP	7767
Ġsaturated	7766
Ġregistry	7766
ĠBiden	7765
uparrow	7764
maps	7762
Ġ().	7762
million	7761
ĠObviously	7760
tele	7758
503	7756
570	7755
Ġnewer	7754
Ġeternal	7754
ules	7753
vage	7751
Ġclerk	7751
ĠVenezuela	7751
ĠSwiss	7750
590	7749
ĠMathematics	7749
dies	7747
Ġdebris	7745
}}\,	7743
Counter	7743
ĠMarvel	7742
sche	7741
rish	7740
)\]	7740
istance	7738
Ġemitted	7738
ĠLiberty	7737
Ġsimplest	7736
,[@	7735
Ġinvitation	7735
ĠThings	7735
ĠPhoenix	7735
Ġmast	7734
ĠVL	7733
ĠCAP	7733
Design	7732
Ġmysterious	7732
near	7730
Ġemphasized	7730
held	7728
cgi	7727
Visual	7727
Ġpassionate	7726
367	7724
Ġunlock	7724
Ġteaches	7724
ĠDiet	7724
iful	7723
Ġrestrain	7723
FX	7722
ĠTwenty	7722
ĠNaCl	7721
headers	7720
Ġturbine	7720
Ġdairy	7719
ĠDakota	7719
Love	7718
Ġarchitect	7718
394	7717
Ġtablet	7717
Study	7715
Ġladies	7715
iah	7714
Robert	7714
Ġsisters	7714
oer	7712
ochemical	7712
455	7712
Ġtactics	7712
Ġcivilians	7711
ĠEinstein	7708
Kh	7707
Ġmega	7706
Linear	7705
Ġrailroad	7705
Ġoutlets	7703
Ġimg	7702
Ġasleep	7700
;-	7697
1974	7696
Ġdifferentiate	7696
ĠREG	7694
ANCE	7693
Dim	7692
*;	7692
Ġ{},	7690
Ġmosquito	7689
oyd	7688
Ġmissions	7688
Ġesophag	7688
dou	7687
Ġaperture	7686
541	7685
Ġuri	7685
Ġequitable	7685
Ġpero	7684
LER	7681
429	7681
Ġcis	7681
bury	7680
Quant	7680
Ġobs	7680
Ġflap	7680
Ġengineers	7680
ĠPep	7680
ĠVariable	7679
ĠInstagram	7679
Ġ201	7679
ĠRoll	7677
ĠBenjamin	7676
ĠUntil	7675
Sport	7674
ĠNash	7674
liness	7673
ATED	7673
Ġlethal	7673
Ġswitches	7671
358	7670
RON	7668
Ġcutoff	7668
evidence	7667
registry	7666
Ġsinging	7663
Ġearning	7663
ĠHist	7663
tica	7661
ookup	7661
Ġbovine	7661
ĠLiverpool	7661
Ġ216	7661
Ġwounds	7660
Ġale	7660
direction	7659
ĠOfficial	7659
mobile	7658
ĠBeat	7658
Ġpotassium	7657
Ġhears	7657
Ġaromatic	7656
ader	7655
ĠCertain	7654
anz	7653
Ġscreened	7653
Ġcreep	7652
Eu	7651
Something	7650
Ġ209	7650
Ġreductions	7647
ĠTreasury	7647
fair	7645
iques	7644
Phase	7643
Raw	7641
KM	7640
Ġ")	7640
athon	7638
aan	7638
Ġcurriculum	7638
details	7637
cele	7637
Ġfuneral	7637
Ġtouching	7636
lins	7635
Ġbeams	7635
hips	7631
Ġgroove	7631
checked	7630
ĠCarlo	7630
Ġregulates	7628
Schedule	7627
Ġinstinct	7627
Ġdeserves	7627
Ġfiltration	7626
ĠIdaho	7626
ĠComment	7626
SSA	7625
970	7625
Ġ235	7624
urban	7623
Ġsurgeon	7623
slot	7622
Ġpriorities	7621
Ġintentionally	7621
Ġtransporter	7620
ĠStyle	7620
Ġdraws	7618
)--	7617
Ġglycol	7617
ĠUniversal	7617
Ġsav	7616
Ġirreducible	7616
ÂĽ	7615
616	7613
Ġcastle	7613
SOC	7611
branch	7609
Ġidentities	7606
Ġhey	7606
Ġbrightness	7606
subscribe	7605
ression	7605
Ġcelebrated	7605
ĠMemory	7603
Peter	7602
Material	7601
Border	7601
ĠMIN	7601
ĠConnection	7601
functions	7598
Ġexcluding	7598
Ġplausible	7597
UGH	7596
Ġmisleading	7595
Ġdynamically	7595
ĠTurner	7595
Ġthrust	7593
forming	7592
wich	7591
effect	7591
Ġhelicopter	7590
Ġfascinating	7590
ĠRice	7590
brane	7589
rbrack	7588
Ġrotor	7588
Ġcooperative	7588
("\	7587
Ġray	7587
Ġtechnically	7585
Ġinstantly	7585
campus	7584
Ġlever	7584
Ġcaring	7584
435	7582
1970	7580
ĠKEY	7579
ĠSmo	7578
ĠRain	7578
Ġgram	7577
accept	7575
Ġeleven	7575
Ġdesires	7574
Ġactivist	7574
ĠSomething	7574
ĠAndy	7574
Ġdioxide	7573
ĠVia	7573
ĠModule	7573
Ġfond	7571
Ġadministrator	7571
067	7569
Ġlightly	7568
Ġdamp	7567
Ġembryo	7566
Ġbenign	7565
Ġcrystall	7563
Ġintentions	7561
YC	7560
371	7560
Ġcleaned	7559
ĠRoger	7559
ĠOkay	7559
Âħ	7558
Ġopenly	7558
picture	7557
Insert	7557
ĠDebug	7557
assets	7556
oxide	7555
KU	7555
Ġrc	7555
Ġlikewise	7555
Ġarose	7555
781	7554
Ġinhal	7554
Ġ401	7554
Ġjurors	7553
Ġguarantees	7553
0014	7552
ĠLoren	7551
>";	7549
Ġcritic	7549
Ġgaining	7548
ĠCollect	7548
Const	7546
Ġadditionally	7546
756	7545
ports	7544
Ġphylogenetic	7543
Ġcompatibility	7542
Ġdeposits	7541
MX	7540
Ġimper	7540
Ġreconsider	7538
national	7537
sters	7536
561	7536
Ġls	7536
beans	7534
Cur	7534
ĠHunter	7534
KEN	7533
Ġweakly	7533
Ġdetective	7533
ĠSwedish	7533
**_	7531
Ġexceeded	7531
Ġtwisted	7530
Ġlatent	7530
Ġcompressed	7530
ĠConsumer	7530
502	7529
todo	7528
oir	7528
October	7528
ĠÂµg	7528
Ġlighter	7528
WRITE	7527
Tuesday	7527
Ġviscosity	7526
ĠLeader	7526
lide	7525
Ġfraudulent	7525
Ġcof	7525
ĠContact	7524
Ġuseless	7523
Ġoversee	7522
Ġtalented	7521
gage	7520
Ġpayload	7520
Wrapper	7519
395	7519
Ġwrapper	7519
ĠWait	7519
ĠMovie	7519
inite	7518
August	7518
Ġexceeds	7518
ĠZhang	7518
}}$$	7517
Ġwherever	7516
Ġmodulate	7516
ĠQT	7516
Ġpoem	7515
Ġtanks	7513
Ġcostume	7513
ĠDee	7513
777	7512
Ġsaturation	7512
ĠConstruction	7512
Ġingredient	7511
Ġjudgments	7509
ĠStandards	7509
builder	7507
ĠCommunist	7507
Ġenacted	7506
Feature	7505
ĠMd	7505
sman	7504
Ġinvestor	7504
Ġbasket	7504
cts	7503
Ġcreatures	7503
products	7502
answer	7502
START	7501
ulsive	7499
ignore	7499
Ġdst	7499
Ġ1966	7498
restrict	7497
Tel	7497
Ġidentifies	7497
Ġepic	7497
iles	7496
Remember	7496
Live	7496
Ġtraveled	7496
ĠLearn	7496
makers	7495
Ġnotified	7495
Members	7493
Ġbend	7493
ĠMode	7493
ĠContext	7493
Ġaffair	7492
ĠBackground	7492
clusive	7491
Append	7490
Ġwitnessed	7490
history	7489
Ġimmunohist	7488
Ġabsurd	7486
ĠLimited	7485
ĠStatistics	7484
ĠFormat	7484
057	7483
Ġkeen	7482
ĠColumn	7482
Ġwished	7480
vL	7479
):=	7479
reader	7478
465	7478
Ġsnake	7478
ĠGlu	7478
Ġmakers	7477
Ġeighth	7477
Ġsooner	7476
ĠSpringer	7476
Ġcancellation	7475
rese	7474
Ġmargins	7473
Ġauthorization	7473
ĠLamb	7473
examination	7472
Ġmud	7472
Ġgrocery	7472
Ġsecular	7471
Ġcommute	7469
xE	7466
Ġdisposal	7466
Ġannul	7466
pragma	7465
MIS	7463
ĠJob	7463
ĠBrain	7463
rada	7462
<%	7462
Give	7461
525	7461
Ġnationwide	7461
Ġradar	7460
Ġdrilling	7460
ĠSpin	7460
ĠJoint	7460
ĠDy	7460
Ġsaliva	7459
^(	7458
online	7457
Direction	7456
Ġcares	7456
clip	7454
ĠHilbert	7454
Receive	7453
Bes	7451
ĠThailand	7451
Ġrust	7450
Ġcasting	7449
ĠOperation	7449
Ġbuyer	7448
......	7446
running	7445
ĠOak	7445
ĠMedicaid	7445
Ġrecombination	7444
nine	7443
Ġamplitudes	7442
olytic	7441
hire	7440
ttle	7439
ĠProvince	7439
âĢĿ).	7438
'/	7438
Ġ242	7438
rina	7436
bash	7436
ĠÎ´	7436
Ġearliest	7436
Ġcytometry	7436
ĠNeo	7435
lane	7433
ĠSolo	7433
Ġcommentary	7432
Ġ512	7432
ARCH	7431
expressing	7430
CAM	7430
ĠMHz	7430
Ġobjections	7429
NAL	7426
processing	7425
ĠStream	7425
ĠEgyptian	7424
Bottom	7422
Ġbicycle	7422
820	7421
Ġretrieved	7420
ĠMK	7420
ĠQt	7419
selector	7418
Ġcock	7417
ÂĿ	7416
Bind	7416
Ġalleging	7416
Forms	7415
Ġhospitalization	7415
ĠTris	7415
Ġchromatin	7414
opts	7413
ĠÂµ	7413
Ġsafer	7411
Ġchic	7411
myc	7410
Ġcolonies	7410
atz	7409
Ġbeaten	7409
Ġtomatoes	7408
Ġpleaded	7408
Old	7406
Nodes	7406
Ġpupil	7406
Ġhydrophobic	7405
auf	7404
Ġcolorectal	7404
ĠIndians	7404
Ġalleles	7402
Ġheterogeneous	7401
Ġmentally	7400
Small	7399
Ġyoga	7399
Ġgraphic	7399
Ġencl	7399
esian	7398
Enable	7398
Ġhotels	7398
ĠBegin	7398
,\\	7397
Ġpave	7397
801	7396
6000	7396
ĠRG	7394
these	7392
473	7392
Ġunitary	7392
Ġcleaner	7391
ĠPipe	7391
ĠAdvanced	7391
Ġunconscious	7390
Ġstairs	7389
890	7388
icals	7387
ĠLate	7387
contract	7385
Ġnewspapers	7385
Ġmissile	7385
Ġlender	7385
Ġunprecedented	7384
Ġheap	7384
Ġfancy	7384
ĠCameron	7384
Ġ221	7384
Never	7383
eing	7382
901	7382
ĠThread	7381
880	7379
Ġtelescope	7379
Ġmilitant	7379
Shell	7378
Ġquarters	7378
ĠWayne	7378
768	7376
ribution	7375
RUN	7374
Ġmarkedly	7374
Ġharbor	7374
ADDR	7373
Generator	7372
Ġrepress	7372
937	7371
Ġexcitement	7370
Ġpodcast	7369
Ġcollisions	7369
Ġanimated	7368
Wednesday	7367
ĠSalt	7367
rman	7366
ĠIQ	7366
FALSE	7365
Ġcommercially	7365
Ġbiased	7365
ĠMW	7363
Ġkar	7362
suppl	7361
ordered	7361
Ġtowel	7361
Ġdancing	7360
ĠTechnical	7359
construct	7358
apps	7356
'''	7356
ĠBooks	7356
ĠSample	7355
ĠJudges	7355
rust	7354
Ġcrisp	7354
ĠNano	7354
ĠLower	7354
ĠCrown	7354
Ġnorms	7353
Ġff	7353
ĠDAMAGE	7351
Ġhorn	7350
Ġadvisor	7350
Ġmistaken	7348
ĠLabel	7348
Ġfmt	7347
ĠMagic	7347
(%	7346
ĠSox	7346
Î¼M	7345
nica	7345
aes	7345
#,	7345
ĠCardinal	7344
Ġzoom	7343
Ġlocking	7343
Ġclever	7343
trophy	7342
ĠSki	7341
ĠPhilippines	7341
\$	7340
ĠViol	7340
ĠScreen	7340
poll	7337
Ġstatue	7337
ĠTrack	7337
Ġcolleges	7336
Ġ365	7336
tables	7335
iron	7335
Ġnick	7335
Ġlawful	7335
Ġbombing	7335
ĠSELECT	7335
Ġimposing	7334
Ġcigarette	7334
selection	7333
iable	7332
Ġexecutives	7332
Fri	7330
EIN	7330
ĠButton	7329
Ġ293	7329
Ġcosmic	7328
516	7327
Ġtraces	7326
Ġoutward	7324
ĠWorkers	7324
Ġsuspicious	7323
erman	7322
Customer	7322
Ġlact	7322
OPE	7321
Ġmerged	7321
Ġanalysts	7321
hello	7320
Ġaccidents	7320
Ġloyal	7319
482	7315
Ġtomato	7315
ront	7314
378	7313
SOURCE	7312
1973	7312
'));	7312
Ġbelieving	7312
Rows	7311
Ġnicely	7311
QC	7310
ĠDragon	7310
Ġcoconut	7305
Ġpredecessor	7304
Ġknockdown	7304
Ġaa	7304
ĠSpl	7301
Ġdelicate	7299
Ġsupervised	7298
ĠReform	7298
Bot	7297
Ġsour	7297
Ġfossil	7297
lance	7296
Ġconstructive	7296
inable	7295
ĠMega	7295
Early	7294
duration	7293
cave	7293
770	7293
Ġpockets	7293
Env	7292
Ġencode	7292
Ġconfess	7292
Ġkb	7291
enberg	7290
655	7290
Ġrim	7288
Ġhills	7288
ĠArkansas	7288
Ġregex	7284
ady	7283
Ġgovernmental	7283
matched	7282
Ġsupreme	7281
Ġcriticized	7281
ĠÎ³	7280
ĠParse	7280
Um	7279
Ġabolish	7279
ĠRiemann	7277
ĠPOS	7276
dler	7275
ĠBis	7274
ems	7273
Personal	7273
Ġtraded	7273
ĠOscar	7273
Dictionary	7272
ĠGN	7272
rq	7271
Ġelectronics	7270
itarian	7265
528	7264
Ġbracket	7264
Ġcompetitors	7263
Ġboats	7263
Ġbillions	7263
Ġ1920	7263
xia	7260
alter	7260
ĠClaim	7260
Ġbishop	7259
Ġlatency	7258
ĠWILL	7258
ĠEither	7258
Cross	7256
raction	7255
forcing	7255
ĠComparison	7255
Ġsecrets	7254
throws	7253
^âĪĴ^	7253
Ġparasite	7252
compile	7250
Bound	7250
Ġtraditions	7250
OTH	7249
ĠSteel	7249
ĠPs	7248
hearing	7247
Ġinvestigator	7246
ĠTransfer	7245
Agent	7244
Accordingly	7244
Ġpacking	7244
ĠKS	7241
Ġoverrule	7240
ĠDetails	7239
Ġowing	7237
Ġacetate	7237
Ġvolatile	7235
Ġgeographical	7235
ĠLess	7235
Ġvari	7234
Ġinformal	7234
ĠPolish	7234
icles	7233
Ġintersect	7233
Ġlistener	7232
Ġfunctor	7232
ĠNetflix	7232
inding	7231
Ġproportions	7231
Ġinsulating	7231
International	7227
Ġlately	7225
ĠAllah	7225
Ġboots	7224
Ġmaxim	7223
Pair	7222
Permission	7221
Ġschizophrenia	7221
ĠMali	7221
Ġfarming	7219
phant	7217
Ġava	7217
Ġplanar	7215
Ġinfluential	7215
Ġasymmetric	7215
.")	7214
505	7213
hours	7212
MIT	7212
910	7211
840	7211
Ġprisoner	7211
Ġoffender	7210
DEFAULT	7207
Ġdepressed	7207
FileName	7205
Ġauction	7205
Ġwinding	7203
Ġdamaging	7203
orted	7202
Ġreversible	7202
ĠDownload	7202
Care	7201
Ġremedies	7200
Ġ251	7200
!}	7199
Ġformulas	7199
Ġexplanations	7199
ĠGPS	7197
ijk	7196
binom	7196
audio	7194
Bigg	7194
0028	7193
izo	7192
MSG	7191
IED	7191
Ġlinearly	7191
Ġcentres	7190
Ġ))	7190
layers	7189
Ġreflex	7189
Ġsupplements	7187
Ġplayoffs	7186
Ġbiofilm	7186
changing	7185
Ġbean	7185
Ġ[-	7185
ĠAssessment	7185
choice	7184
ĠRisk	7184
pntd	7183
ĠHigher	7183
Ġ218	7182
Ġshooter	7181
Trace	7180
Ġscanner	7180
obacter	7179
Ġorganisations	7179
veh	7178
Ġcredentials	7178
Ġado	7178
ĠBird	7178
Ġconceived	7176
Ġsinglet	7175
Kl	7174
Ġarticulate	7174
oric	7172
601	7172
Ġsolo	7172
SEL	7171
":[	7171
hma	7170
Ġaveraging	7170
ĠCommons	7170
ĠHL	7168
ĠFen	7168
Ġclassifier	7167
Ġspecimen	7166
Python	7165
LAT	7165
Ġvm	7165
Ġdeliberately	7163
298	7162
esting	7161
iÃ³n	7159
erry	7159
Ġeliminating	7159
ĠChu	7159
Ġdissent	7157
Ġwarming	7156
Ġtriggers	7156
Ġmultiplication	7156
Ġformats	7156
Ġhydraulic	7154
397	7152
Ġattraction	7152
Ġrectangle	7150
Ġdeflect	7150
Ġawkward	7150
612	7149
OLD	7148
ĠAff	7147
typ	7146
Duration	7144
729	7144
ĠPalestinians	7144
ĠOliver	7144
Ġdrying	7143
Ġpredictors	7141
068	7140
ĠMeeting	7140
ĠJerry	7140
ĠNevada	7138
Tor	7137
Ġmeditation	7137
Ġbodily	7137
Ġsinger	7136
ĠSTA	7136
ĠNCAA	7136
Æ	7135
[...]
