Ġ	94697037
Ċ	64266669
.	52963208
,	44825553
Ġthe	41280888
Ġof	23444599
Ġand	19919496
to	19913815
a	19444209
-	16576974
s	16081053
Ġin	15199020
t	10247729
_	10141809
1	10003909
Ġis	9735643
)	9562632
"	8782516
Ġ(	8682005
0	8589553
Ġthat	8317644
e	8023188
h	7991708
Ġfor	7577863
2	7196824
:	7110397
*	6872656
(	6840247
d	6593190
ĉ	6171917
r	6165627
\	6023203
l	5999578
Ġon	5870124
Ġwit	5762085
/	5454585
$	5446454
n	5403284
{	5275370
p	5197191
Ġbe	4979998
f	4819203
i	4781079
ĠĠĠĠĠĠĠĠĠĠĠĠĠĠĠĠ	4753737
ĠĠĠĠĠ	4744427
}	4702144
Ġas	4510948
an	4473396
Ġwas	4357072
Ġit	4286485
Ġno	4256753
ĠI	4171606
Ġby	3951917
;	3927764
Ġare	3892441
3	3889675
Ġ=	3857643
m	3788747
Ġ\	3776157
u	3741043
ed	3658549
c	3597728
ing	3566276
Ġ-	3542857
5	3485538
Ġat	3443638
ĠThe	3392879
Ġthis	3370629
Ġfrom	3295498
o	3292168
Ġor	3267095
Ġyou	3263168
âĢĻ	3252437
S	3075755
C	3067122
>	3042083
Ġhave	2950010
's	2849156
4	2766974
+	2675395
Ġ*	2671362
y	2601906
g	2599343
A	2573457
Ġs	2570887
x	2550989
T	2546062
ly	2424411
Ġwe	2375536
b	2363354
?	2348324
Ġcan	2324813
k	2312135
Ġc	2289481
in	2245238
v	2218665
]	2216008
Ġi	2190855
L	2168095
I	2167835
ĠA	2133044
Ġwere	2086928
O	2047599
Â	2033483
re	2025404
."	1990604
="	1981006
w	1969808
Ġwhich	1953300
<	1912608
Ġhas	1903500
).	1886551
[	1874168
6	1868146
ĠĠĠĠĠĠĠĠĠĠĠĠ	1858813
Ġhe	1805356
7	1793779
Ġall	1786648
_{	1784911
th	1778281
The	1775643
et	1770261
Ġbut	1768078
D	1766332
Ġwill	1735733
8	1635501
B	1592212
id	1583986
Ġhis	1570387
Ġone	1566472
ĠC	1556433
R	1550846
M	1516855
Ġthey	1506803
Ġ2	1506675
H	1428772
10	1420919
ł	1414964
al	1414787
=	1414785
Ġtheir	1408297
E	1406802
Ġme	1403536
Ġd	1402810
9	1398741
Ġmore	1397364
Ġso	1356715
^	1340714
Ġe	1333059
âĢĿ	1324917
en	1314991
ma	1308520
'	1300472
Ġ$\	1299073
Ġre	1283190
j	1280654
Ġhad	1278882
Ġother	1266769
Ġbeen	1263599
ĠS	1253549
),	1247368
č	1240966
P	1238092
ar	1233688
st	1233433
ĠB	1232111
ĠP	1231918
Ġalso	1227808
Ġyour	1226304
);	1224100
N	1194201
Ġabout	1175634
Ġout	1167250
Ġwhen	1163082
Ġwould	1158656
ĠL	1148863
ĠIn	1148040
Ġr	1146616
Ġtime	1136630
F	1135847
't	1133046
Ġthere	1131407
{\	1125243
es	1106968
on	1105590
Ġup	1104484
who	1097395
%	1092022
Ġmy	1089195
Ġ3	1085810
ĠâĢľ	1080687
Ġdo	1078953
Ġn	1073802
ow	1067816
it	1063670
ĠĊ	1054164
Ġ<	1051728
Ġ[	1042536
Ġthan	1039230
Ġ'	1026520
te	1009060
our	1008171
ot	982951
Ġinto	982652
Ġits	982596
</	961745
Ġf	961330
G	959456
---------------	955667
ment	950021
Ġ&	949990
Ġany	944765
Ġtwo	935403
Ġsaid	925721
Ġher	925719
#	924942
ic	906585
Ġsome	904653
Ġwhat	903792
Ġlike	903540
Ġover	898089
as	894312
z	893219
Ġnew	892880
W	891191
Ġthem	889748
Ã	887021
ĠF	880583
Ġmay	878610
Ġk	873247
ĠIt	870819
is	861587
ĠThis	857074
Ġsuch	846868
Ġfirst	846398
or	838347
Ġthese	829074
Ġun	825608
ation	818258
Ġ4	818112
Ġgo	816167
Ġla	814331
ĠT	810004
--	797712
Ġunder	797307
Ġget	795150
Ġb	786667
Ġcase	785904
ĠM	782755
K	782107
//	778500
Ġuse	775632
Ð	774255
Ġthen	773686
type	771886
ĠWe	768185
Ġjust	767142
Ġafter	765082
Ġbetween	756601
Ġpro	755522
ion	743141
ach	741453
11	733934
ra	727250
Ġu	721562
V	720841
Ġused	719884
U	716958
Ġcould	714356
Ġwhere	712961
.,	711709
",	708614
~	707646
ies	705022
Ġmake	705005
Ġdata	704719
Ġde	703416
X	690746
ĠH	690107
Ġpeople	685108
!	683006
In	681986
ĠR	679845
ĠG	677543
}}	677098
Ġm	671313
ĠĠĠĠĠĠĠĠĠĠ	667317
Ġshe	666429
Ġusing	660674
Ġbecause	654513
16	648278
om	643547
Ġneed	632227
Ġpart	631785
ie	631688
Ġshould	625165
ac	620128
Ġwell	615586
ro	615066
q	614156
Ġ[@	613291
lic	610922
Ġagain	606449
ame	605141
Ġhow	603128
){	602030
|	598911
15	598812
Ġmost	598705
Y	593889
ĠK	592193
la	590326
ĠHe	584801
able	583964
Ġhim	582917
â	578497
if	575099
Ġ6	570263
">	568386
Ġsee	564615
Ĳ	564265
Ġclass	563293
Ġ|	562743
Ġeven	557520
Ġwork	556873
Ġle	556346
ã	552421
ec	549171
ĠE	546637
ĠU	546367
Ġ8	546186
Ġthrough	543689
tion	543184
Ġway	536276
ĠJ	536122
ity	533458
->	532944
the	530446
frac	529818
Ġ@	529342
Ġnow	524952
Ġfunction	524889
J	523824
ge	522722
Ġthose	522083
Ġyears	519909
Ġvery	519907
Ġboth	516569
å	515022
":	513036
ch	510002
de	505849
Ġbeing	505715
}$	505630
Ġset	505181
ĠN	504582
](#	502282
Ġ_	501501
Q	500201
Ġmany	498807
Ģ	498465
Ġback	498313
Ġim	497467
Ġbefore	496666
Ġnumber	496047
ate	494935
Ġdifferent	494652
We	493595
Ġright	490685
all	489689
Ġsta	487727
Ġg	485904
Ġhere	485419
Ġdon	482952
âĢī	482370
right	479954
Ġam	478494
::	478327
"}	477356
ent	477023
and	475203
left	472131
Ġy	471785
Ġvalue	463174
Ġhigh	461280
Ġform	460761
Ġgood	459186
Ġmade	458683
:/	458485
fig	458453
ter	456924
til	455514
[[@	454047
}{	450546
ĠâĢĵ	449133
Ġwhile	448270
cal	448016
Ġen	446862
@	445782
Ġsystem	445361
ģ	443797
el	442224
Ġfound	442028
ĠO	437899
int	437812
Ġmuch	435212
Ġstudy	432225
..	430346
Ġwan	430138
port	429141
Ġthree	429076
Ġpub	428887
Ġex	428635
&	428074
get	423909
su	423703
Ġpatients	423172
be	422028
ĠIf	420324
Ġwithout	418466
Ġduring	417386
Ġcourt	416776
Ġcells	415922
Ġorder	415883
Ġreturn	415520
Ġ7	415262
$,	412512
ĠFor	412271
Ġnon	412155
ta	411540
at	410608
What	410115
ount	409527
Ġdoes	407786
Ġthink	405578
Ġend	404238
,"	404117
Ġname	403895
Ġsecond	400664
Ġyear	398597
his	397414
io	397291
°	396938
age	395999
("	395538
est	394421
Ġ9	394292
Ġ:	394289
ph	393386
Ġdown	393348
rt	389050
Ġh	387979
',	386075
\]	385964
ide	385782
use	385458
Ġgroup	384982
It	384392
$.	383662
lin	382536
Ġlong	379542
000	377970
eg	377346
Ġtest	376034
Ġtake	374473
Ġid	374195
Ġmust	374062
name	373944
Ġstill	370322
ial	370015
ever	369093
æ	366085
os	366056
ve	365685
ad	364211
Ġinformation	363925
ĠBut	362841
ul	362456
Ġ,	360977
na	360649
19	360437
Ġtype	359852
Ġday	358250
ib	357702
100	357275
^{	357179
Ġreport	355521
20	355235
ir	354525
Ĥ	354004
Ġprocess	353478
um	352868
Ġpoint	351795
oc	351443
âĢľ	351258
32	348317
ive	348049
Ġpre	347674
ĠAs	347649
Ġresults	346596
alpha	345416
Ġper	344575
Ġcontrol	344384
Ġsh	341954
();	341802
Ġoff	341665
)$	340522
Ġfollowing	340270
ig	339976
01	339819
ĠV	338305
ice	338107
Ġfind	336779
op	335348
ist	335273
Ġcon	334697
Ġlife	332553
Ī	329517
Ġresult	329318
'm	328532
Ġwithin	327944
Ġsince	326228
ĠYou	325472
tter	325110
ĠNo	324688
Ġaround	323379
Ġsm	320501
ĠĠĠĠĠĠĠĠĠ	319728
18	318120
Ġmodel	317421
Ġanother	314060
âĢĵ	313217
Ġtreat	312999
ga	312052
ĠAnd	311857
gin	311207
mu	310989
Z	310781
ke	310543
Ġline	309998
Ġown	308812
text	308723
}(	308575
CR	308508
eq	307249
Ġgreat	307168
Ġfield	306303
Ġexample	304382
Ġpr	302786
¾	302627
Ġincluding	302495
un	302392
]\].	302379
ence	302198
em	302186
,\	300824
You	300686
Ġtoo	300189
Ġcondition	299930
Ġsel	299751
Ġhelp	298979
Ġevery	298796
Ġmight	298379
Ġgiven	298137
var	297034
Ġquestion	296788
set	296083
Ġcell	295880
To	294942
Ġshow	294861
ess	294721
Ġreally	294662
Ġworld	293815
pack	293135
Ġsay	292150
ĠHowever	291708
he	291219
nd	291170
Ġet	290743
Ġ20	290719
val	290631
ry	290136
ey	289812
ĠThey	289332
Ġ{#	288781
Ġ$$\	288010
Ġfile	287206
Ġpresent	286637
ĠSo	286478
tu	286392
're	286167
Ġbased	285409
21	285102
ai	284468
}_{	284092
Ġstar	283605
mma	283581
Ġsupport	283157
man	282946
uc	282747
Ġbl	282367
})	282260
ĠW	282090
Ġcomp	281459
ization	280590
Ġread	280395
Ġless	280287
for	280190
Ġhome	280108
Ġsize	279783
Ġ#	279300
ĠTo	278917
Ġreal	278351
Ġanalysis	277438
Ġman	276377
Ġbest	276030
Ġmethod	274511
ĠâĢĶ	274348
Ġnext	274174
ay	274024
Ġevidence	273928
Ġ*/	273547
17	272855
Ġsomething	272139
No	271874
âĢĶ	271809
hat	271598
ize	271547
Ġwhether	269751
30	269427
Ġchange	268710
Ġleft	268144
sp	267471
ans	265347
ient	265065
Ġpur	264831
return	263706
label	263313
ĠNew	263310
data	263240
Ġapp	263092
Ġfact	262436
Ġconst	261335
ory	260658
As	260632
Ġplace	260437
ĠThere	260390
ĠWhat	260182
25	259526
Ġpower	259467
ĠX	258415
of	258323
Ġfew	257985
Ġvo	257928
¸	257465
Ġlaw	257360
Ġ19	257291
½	256881
Ġabove	256695
Ġcome	255249
¼	255176
mathbb	254707
Ġlevel	254414
Ġhan	253670
div	252962
Ġtrue	252906
iv	252836
04	252817
Ġdis	252390
Ġwater	251577
02	251552
Ġgot	250663
td	250413
ers	250387
ĥ	250373
ts	250307
/*	249869
Ġdue	248872
ure	248766
Ġleast	248732
ĠRe	248368
Ġlittle	248207
Ġinter	247722
Ġpossible	247686
Ġ</	247554
Ġprote	247208
Ġmain	246918
###	246461
Ġthings	245929
Ġproblem	245467
Ġposition	245261
Ġmember	245075
da	244742
Ġlow	244493
igma	244470
ole	243667
Ġeffect	242471
ĠSt	240949
rs	240448
Ġlook	239260
ting	238648
Ġhum	237353
ary	237110
ĳ	236965
Ġhaving	236271
à	236242
Ġred	236201
Ġgive	236140
Ġdays	236069
On	235719
Ġshown	235631
!"	234690
Ġcommon	234673
Cat	234666
Ġfurther	234442
Ġgame	234404
Ġview	234312
Ĺ	233741
Ġclaim	233239
('	233227
Ġtrial	233094
}^{	232767
If	232653
ä	232357
this	232063
Name	231224
Ġcode	230727
Ġperson	230454
min	230029
rea	229760
Ġlight	229721
aligned	229242
ĠShe	228300
Ġhealth	227984
br	227582
ical	227554
Ġki	227048
}$$	227004
Ġprovide	227001
Ġexpression	226572
ine	226051
Ġalways	225741
Ġfree	225308
Ñ	225248
Ġstr	225215
$$	224999
Ġmark	224750
Ġgovernment	224257
Ġ18	224256
±	224183
Ġcurrent	224095
ab	223926
Ġsingle	223763
Ġeither	223685
Ġfour	223679
Ġknown	223122
\[	222745
Ġcalled	222525
Ġob	222330
ness	222050
Ġser	221666
ĠCourt	221317
line	221288
ĠThese	220999
ĠState	220888
time	220707
Ġlet	220642
Type	220523
===============	220435
Ġfi	220305
Ġavailable	220101
Ġlocal	220086
Ġfamily	219943
sh	219835
ĠUnited	219224
Ġ30	218407
Ġ)	218243
Ġ--	218021
table	217729
ted	217462
Ġperform	217390
mil	217163
)}	216701
ough	216338
ER	216029
sec	215952
Ġ==	215738
Ġrun	215668
},	215156
Ġaction	215148
23	214933
ance	214405
Ġvalues	214200
Ġable	213859
ula	213810
Ġtop	213364
Ġchildren	213194
Ġseveral	213062
}_	212698
ca	212461
out	212442
lose	212027
Ġdescribe	211458
Ġcare	211421
http	210811
ĠThat	210688
Ġhigher	210436
lambda	210416
ex	210268
Ġarea	210146
Ġmaterial	210130
Ġsub	209799
ç	209757
Ġweek	209370
Ġstudies	209076
've	209073
Ġtimes	208801
Ġkey	208783
Ġteam	208629
Ġtotal	208517
Ġsignal	208078
):	208035
Re	207546
Ġbody	207278
è	207242
Ġsignificant	206979
Ġspace	206894
come	206828
Ġfollow	206337
Ġput	206187
Ġwhy	205795
Ġrate	205737
import	205733
Ġgeneral	205341
Ġ17	205193
40	205160
»	204987
ĠBa	204953
For	204918
Ġerror	204435
span	204173
Ġelse	204000
Ġenergy	203856
Ġbig	203699
27	203462
Ġspecific	202706
am	202586
Ġpost	202335
Ġdidn	202117
pm	201284
Ġfull	201223
Ġsolution	201118
ĠStates	201104
24	200083
Ġlove	199981
ode	199921
tor	199280
Ġalready	199251
Ġopen	198728
ĠAll	198573
ĠWhen	198343
Ġmon	197825
Ġassociated	197352
gram	197007
Ġlevels	196896
Ġdef	196678
Ġna	196523
Ġfinal	196441
Ġapproach	196084
09	196071
64	196053
ĠDe	195888
pro	195723
Fig	195481
Ġcall	195332
bar	195218
Ġz	194943
ty	194870
Ġresponse	194603
And	194576
26	194334
tes	193885
au	193618
Ġ25	193209
hen	192973
Ġlower	192796
Ġwomen	192685
Į	192382
Ġissue	192266
'll	192026
Ġdone	191808
string	191794
mathbf	191789
ative	191769
ore	191711
Ġaway	191688
Ġrequired	191629
bet	191555
Ġsays	191239
];	190945
31	190914
Ġoften	190030
Ġ${\	190022
Ġanti	189980
Ġmove	189141
ĠOn	188923
Ġ24	188611
org	188507
width	188478
Ġstep	188397
Ġterms	188057
Ġbi	187709
Ġactivity	187700
ave	186976
`	186378
ew	186293
Ġage	185930
Ġ%	185874
Ġgroups	185868
Ġhowever	185788
Ġamong	185787
Ġdevelopment	185352
gen	185301
Ġthing	185262
ct	185254
Ġsure	185169
Ġold	185144
Ġlist	185132
28	185056
ĠZ	184814
_\	184628
Ġfar	184401
Ġlater	183815
Ġperiod	183766
Ġturn	183654
Ġ=>	183301
35	183201
Ġcourse	182869
String	182520
Ġtold	182087
Ġthough	181635
âĢ¦	181332
Ġcompared	180863
Ġ`	180265
Ġresearch	179914
Ġalong	179635
bo	179627
Ġ50	179436
Ġresp	179385
icular	179353
ls	179267
Ġworking	179174
Ġprovided	179086
Ġmaking	179086
001	179045
]\]	179039
ull	178905
How	178905
Ĵ	178417
Ġplay	178121
Ġinclude	177832
Ġq	177693
sa	177657
duc	177569
Ġmod	177135
Ġupon	177059
ĠAt	177003
xi	176955
º	176728
Ġterm	176688
Ġhard	176353
Ġrisk	176323
Ġdoesn	176203
Ķ	175957
^{\	175494
Ġpotential	175364
Ġaccord	175360
Ġrange	174842
Ġincrease	174316
Ġsection	174267
Ġeffects	174144
But	173950
Ġseen	173842
go	173544
Ġel	173434
Ġact	173343
Ġchanges	173220
ism	173209
Ġaddition	173109
*******	173037
Ġbase	172741
Ġstructure	172703
Ġsource	172620
]).	172573
vice	172399
ĠLi	172163
Ġkeep	172103
Ġimage	171928
ood	171768
33	171755
ous	171387
Ġtogether	171384
sel	171376
There	171330
Ġbusiness	171201
Ġ([@	171172
Ġ([	170582
Ġ--------------	170301
Ġproperty	170139
Ġincreased	169928
Ġschool	169306
Ġmultiple	169190
Ġfactors	169038
ĠâĢĺ	168986
Ġobserved	168251
ran	168137
Ġbr	168092
act	167982
ral	167950
Ġrelease	167929
ĠSee	167862
Ġpat	167693
Ġdisease	167598
Ġcomplex	167590
Ġcountry	167524
80	167479
html	167426
Ġthird	167292
Ġhead	167283
Ġshort	166761
ĠUniversity	166528
Ġmonths	166077
Ġspec	165896
mar	165879
Ġcap	165751
Ġdoing	165243
60	165192
ivate	165064
Ġearly	164928
Ġproject	164872
Ġuser	164701
Ġpositive	164388
Ġnormal	164294
class	164207
ten	164129
45	164006
Ġadd	163942
Ġcreate	163925
Id	163822
=\	163440
value	163301
ba	162865
Ġdefendant	162460
List	161929
ized	161837
Ġtry	161708
sqrt	161293
\_	161115
Ġactually	160928
sy	160773
ud	160620
ĠAn	160496
Ġcompany	160432
Ġpoints	160266
90	160159
ble	160158
Ġcomm	160007
Ġthought	159954
ook	159857
hi	159574
Ġversion	159571
08	159418
Ġsurface	159187
Ġacross	158969
Ġcar	158563
ns	157996
put	157596
Ġweb	157570
'd	157383
ag	157206
Ġrather	156928
ason	156927
Ġpage	156872
Ġonce	156748
Ġcontent	156523
by	156513
delta	156154
)/	156126
Ġstring	155919
Ġcame	155856
Ġmatter	155810
Ġfive	155530
Ġlikely	155493
temp	155355
size	155149
Ġreview	155099
ck	155027
Ġshows	154884
Ġfactor	154810
06	154695
Ġshowed	154440
rn	154426
Data	154399
Ġbelow	154304
}^	154300
Ġfalse	154261
41	154050
Ġclear	153918
Ġ$(	153908
Ġfeel	153842
Ġmanage	153835
ight	153707
ħ	153699
Ġmillion	153699
ĠAmerican	153552
oo	153401
Ġtrans	153286
Ġroom	153243
Ġsystems	153136
Ġpaper	153045
Ã©	152941
¿	152935
Ġwar	152935
¯	152810
Ġsent	152592
ĠGod	152501
Ġpast	152458
Ġcause	152148
Ġsite	152012
Ġfuture	152008
ian	151954
Ġmen	151855
Ġobtained	151734
Ġsocial	151732
Ġseason	151653
Is	151647
Ġ>	151644
Ġtook	151550
Ġmar	151031
Ġpe	151024
str	150690
ĠFig	150666
Ġstandard	150498
.)	150431
Ġvarious	149924
pose	149863
dia	149823
Ġever	149739
rho	149672
Ġpar	149647
Ġcancer	149624
Ġapplication	149510
Ġexperience	149445
Ġwhole	149353
unity	149336
Ø	149124
Ġ(*	148990
¹	148536
Ġtaken	148481
Ġconsidered	148090
36	148006
Ġadded	147967
§	147958
Ġrelated	147787
theta	147707
^{-	147513
29	147327
ĠOne	147185
Ġplan	147184
Ġass	146888
Ġbit	146757
ax	146387
Ħ	146274
Ġdefined	146069
partial	146000
{{	145997
ĠY	145973
ED	145901
Figure	145780
Dr	145473
75	145373
Ń	145258
ning	145250
Ġsum	145240
')	145175
¨	145162
ves	145126
ij	145047
Ġaccess	144976
Ġbelieve	144970
func	144834
®	144709
eb	144529
34	144477
Ġface	144369
ver	144261
")	144195
ĠIs	144052
]{}	143997
ķ	143865
");	143765
ĠQ	143761
ĠThen	143546
pay	143509
70	143093
tau	142957
ally	142748
Ġdesign	142630
}{\	142591
Ġblood	142591
Ġmajor	142556
ring	142495
Ġstates	142454
Ġminutes	142402
Ġwent	142369
oot	142308
Ġproduct	142289
*)	142165
times	142093
tic	141703
Ġhouse	141653
ili	141363
Ġdecision	141331
ward	141310
Ġindividual	141228
Ġmin	141194
Ġwon	140886
ĠMi	140158
į	140151
per	140145
omega	140113
95	140048
cdot	139826
Ġcheck	139813
](	139792
Ġtrying	139619
Ġdevice	139568
Ġincluded	139484
self	139482
fter	139399
Ġtex	139332
way	139064
ho	138774
ah	138742
bl	138712
include	138572
ka	138550
Ġenvironment	138450
37	138379
Ġremain	138371
Ġnight	138367
Ãĥ	138362
Ù	138216
38	138199
ĠDo	138166
Ġprov	138032
Ġtoday	137970
Ġrespectively	137933
Ġregion	137738
js	137612
ier	137302
],[@	137187
Ġreceived	137058
ÂĤ	136968
let	136767
Ġadditional	136638
Ġsimple	136427
Ġvia	136399
tyle	136370
Ġcity	136214
Ġanything	136162
Ġsignificantly	136159
Ļ	136010
Ġpercent	135753
Ġchild	135651
ear	135547
Ġcertain	135543
ak	135273
Ġsepar	135254
Ðµ	135131
ĠÂ§	135103
Ġhalf	135030
+\	134964
stand	134908
Ġevent	134901
39	134871
Ġtax	134856
Ġgrowth	134848
loss	134551
par	134524
ob	134457
96	134290
Ġneeds	134246
Ġasked	134165
51	134092
Ġsuper	134055
Ġarticle	134026
Ġdeath	133652
pen	133576
ample	133457
Ġgetting	133402
date	133350
ling	133330
ams	133138
Ġden	133015
Ġhistory	132935
Ġprior	132823
ĠUS	132620
Ġtel	132417
Ġ21	132158
SE	132113
fe	132030
ĠCh	131965
Ġmot	131955
Ġlooking	131884
55	131870
71	131862
²	131809
Ġfilm	131795
Ġem	131742
Ġcross	131399
Ġdifference	131371
Ġph	131149
Ġneg	131071
ĩ	131009
Ġmethods	130949
93	130927
ĠMr	130905
Ġparty	130896
Ġseries	130854
Ġhref	130751
Ġperformance	130690
ĠDu	130387
Ġproblems	130343
pected	130342
based	129913
44	129807
Ġthus	129745
Ġrecord	129677
!=	129642
$-	129627
ding	129497
ds	129485
loc	129471
Ġinvolved	129469
Ġissues	129465
Ġtarget	129326
Ġalmost	129195
Ġnetwork	129143
ven	129068
ria	129001
rl	128990
Ġnothing	128900
62	128839
Ġprevious	128830
/**	128829
Ġhours	128746
infty	128706
à¤	128675
Ġtherefore	128542
year	128491
ĠMe	128480
Ġservices	128413
ĠThu	128289
account	128280
Ġcost	128271
Ġad	128176
Ġcomment	128125
View	127973
Ġfocus	127953
IT	127805
Ġpolice	127778
Ġheld	127436
Ġgene	127365
49	127270
Ġconsider	127243
col	127214
Ġmass	127210
od	127122
Ġheart	127047
Ġpopulation	126914
Ġ...	126871
Ġinstead	126819
é	126768
https	126424
Ġweight	126228
Ġphysical	125973
add	125702
Ġrecent	125637
Ġbegin	125545
Ġproduction	125463
Ġseems	125130
Ġlines	125110
tive	125108
Ġlive	124817
^\	124562
Ġ200	124461
46	124229
Ġcomplete	124115
Ġsix	124074
like	124018
ock	124004
Ġjob	123916
99	123770
AL	123769
Ĩ	123720
Pro	123711
uir	123552
__	123540
ated	123407
Ġcomes	123299
ify	123252
Ġdevelop	123215
Gr	123185
Ġstudents	123150
edge	123095
Ġtri	123026
Ga	122955
Ġstory	122736
Ġquality	122504
Ġtable	122432
Ġsomeone	122366
Value	122263
ĠTHE	122247
94	122003
Ġtaking	121821
Ġ60	121809
Ġmodels	121791
ĠBy	121785
91	121599
Ġmind	121554
All	121477
¥	121417
Ġstarted	121412
Ġwrite	121400
ľ	121388
Ġpolicy	121276
ĠYork	121223
file	121219
Ġelement	121143
vin	121063
*,	120909
ule	120895
eal	120840
Ġprovides	120806
Ġ22	120724
hy	120679
Ġdistribution	120602
ger	120600
Ġstrong	120586
Ġlength	120567
Ġair	120538
Ġitself	120518
ating	120302
Ġnecessary	120260
}}\	120239
AS	119971
ĠNational	119951
list	119946
ext	119917
pos	119838
Ġ},	119826
app	119601
Ġdecide	119591
ite	119345
Ġaverage	119335
../	119309
TA	119193
ĠDi	119126
Ġcorrespond	119111
ĠCon	119088
Ġ40	118717
cle	118669
-\	118635
ĠInc	118621
public	118603
ī	118530
ĠNor	118525
Get	118521
Ġoriginal	118491
IS	118483
Ġrights	118353
Ġpath	118246
Ġprobably	118071
px	118057
ĠTrump	117974
ui	117792
Ġphase	117633
fic	117548
ĠLicense	117387
Ġstore	117384
Ġsequ	117287
see	117276
define	117189
¤	117180
cre	117064
${	116982
fo	116956
á	116918
$\	116885
Ġpick	116857
param	116768
Delta	116750
Ġexact	116664
Ġworks	116657
Ġshall	116477
Ġ||	116445
ĠMy	116309
73	116274
owl	116269
Ġfunctions	116252
ze	116209
Ġsimply	116172
Ġproducts	116162
Ġmedical	115963
ration	115878
Ġsense	115770
ĠOF	115757
200	115678
Ġwalk	115647
Ġespecially	115544
Ġtemperature	115386
´	115336
ys	115278
Ġwords	115278
Ġaffect	115241
Ġque	115177
ĭ	115150
![	114946
Ġorgan	114910
48	114830
yl	114764
An	114730
eu	114691
Ġcolor	114555
Ġproperties	114318
Ġinside	114317
Ġdate	114281
py	114263
Ġmicro	114194
option	114156
)*	114086
Ġgas	114029
ï	114010
ª	113788
Ġstatic	113660
Ġaddress	113638
Ġoutside	113601
Ġnear	113570
Ġpressure	113481
Ġpresence	113481
Ġdirect	113469
Ġyoung	113421
ĠWa	113391
Ġdetermined	113231
($	113204
ĠCity	113000
cm	112979
Ġpersonal	112772
over	112736
Ġmulti	112660
item	112577
old	112551
Ġhappen	112452
Ġevents	112414
Ġgenes	112399
With	112156
Ġrest	112129
aw	112046
ĠWith	111976
Ġpolitical	111939
Ġreceive	111859
Ġmode	111776
Ð¸	111735
));	111714
My	111696
sub	111478
Ġmoment	111270
Ġeffective	111142
Ġtypes	110967
Ġ28	110718
Ġprimary	110715
Ġlanguage	110645
ĠCD	110558
Ġstop	110545
Ġeverything	110377
IC	110329
Ġsubject	110314
Ġexplain	110203
Ġwhite	110106
Ġarray	110052
52	109916
arra	109773
ı	109632
Ġlonger	109588
Ġfeatures	109551
ĠÂ±	109411
Ġbreak	109410
Ġoutput	109391
Ġ^	109280
Ġdetermine	109253
Ġreq	109152
ek	109051
AR	109012
Ġindex	108993
])	108920
65	108898
Ġdirection	108889
Ġcorrect	108877
Ġpresented	108842
Ġeasy	108828
Ġ23	108679
Ġago	108543
Ġquite	108531
Ġidentified	108437
Ġjudgment	108433
site	108351
Ġprocedure	108323
Ġcreated	108300
NG	108245
Ġrunning	108107
script	108064
DE	108025
Ġsamples	107978
Ġbad	107841
Ġbasis	107797
Ġisn	107494
Ġfront	107472
}$,	107429
back	107246
Ġwanted	107235
Ġsign	107228
Ġstatus	107166
Ġprim	107108
Ġparameters	107068
mon	106964
Ġfollows	106856
const	106772
ĠAct	106742
ler	106737
Ġstatement	106657
Ġlimit	106519
AC	106396
Âĥ	106353
Object	106329
Ġ&&	106305
ping	106246
Ġground	106240
Ġareas	106225
term	106102
RE	105863
Ġse	105701
ĠLa	105629
ando	105490
ali	105486
lit	105463
ĠJohn	105407
Ġelements	105332
Ł	105240
Ġweeks	105170
Ġdirectly	105036
}(\	104990
Ġnotice	104855
53	104816
Ġinitial	104680
Ġcharacter	104555
LE	104470
Ġwind	104468
Text	104288
ĠString	104285
Ġrelationship	104149
TI	104098
Ġmont	104071
Ġreplace	104027
order	103984
ain	103965
ber	103865
ÑĤ	103822
Ġreference	103792
Ġtraining	103677
path	103531
Ġmemory	103518
Ġgames	103516
from	103418
Ġtheory	103351
ass	103325
lt	103275
ped	103194
Ġsearch	103119
Ġtumor	102970
rangle	102917
wide	102899
At	102687
Ġvideo	102681
void	102678
Ġlegal	102619
hind	102607
¡	102500
Ġrequest	102493
ĠKo	102433
Ġ(\[	102288
Ġlayer	102245
ĠPa	102244
hea	102229
ana	102012
Ġnational	101929
ĸ	101691
ĠDNA	101536
Ġbuilding	101505
tt	101386
Ġnews	101353
Ġforce	101343
Ġmice	101111
42	101051
Ġsitu	101020
rol	101012
";	101007
Ġgreater	100965
Ġmap	100952
avoid	100846
ĠPresident	100828
Ġapplied	100810
Ġdifficult	100793
body	100729
Ġcontext	100722
ging	100576
Ġlimited	100560
ĠSuppose	100484
Ġprob	100466
def	100360
son	100190
Ġpreviously	100145
Ġdeal	100123
Ġdistrict	99965
68	99952
Ġwrong	99919
ya	99904
Ġincludes	99853
Ġ45	99850
Ġreduced	99846
ĠTherefore	99475
Ġsound	99472
Ġability	99412
Ġinvention	99298
AA	99295
Ġestimate	99256
\,	99243
ument	99176
with	99160
Ġdiscus	99157
Ġsaw	99053
dy	99010
den	98959
Ġdrug	98937
Ġcontinue	98887
Ġword	98856
61	98824
ath	98789
Ġauto	98697
Ġdeveloped	98684
Ġoil	98431
Ġtitle	98371
length	98352
:**	98275
·	98272
Ġindependent	98234
43	98105
Ġmessage	98069
Ġcut	98012
Ġimpact	97984
Ġland	97924
003	97920
().	97884
Ġbuild	97805
Ġnote	97803
arn	97787
58	97533
Ġsoftware	97530
Ġcontact	97527
max	97492
Ġpract	97467
pain	97361
ĠIN	97338
File	97284
pect	97120
}$.	97077
Ġetc	96983
sion	96922
Ġunit	96840
Ġplayers	96617
Ġnumbers	96607
ick	96542
Ġwritten	96508
ov	96433
Ġ2012	96420
Ġcoming	96383
Un	96350
Key	96246
Ġparticularly	96075
ĠCounty	95897
ish	95883
Ġlate	95595
Ġactive	95587
¬	95576
ĠII	95560
ĠCO	95521
ible	95518
OS	95356
Ġobtain	95346
Ġcontract	95301
member	95285
Ġsecurity	95234
ĠSince	95220
ĠHis	95023
ense	94961
Ġnature	94956
Ġhope	94937
Ġcom	94904
Set	94868
By	94789
Use	94785
PA	94756
har	94644
hr	94617
con	94578
base	94520
Ġfun	94508
Ġ26	94488
ification	94485
Ex	94366
uce	94355
fort	94327
Ġ[*	94304
hic	94259
ĠWhile	94225
".	94082
Ġbar	93998
Ġspecies	93974
Ġusually	93965
Ġentire	93956
66	93718
Ġrates	93634
Ġdifferences	93621
47	93592
Ġrule	93582
(-	93573
Ġdouble	93514
Ġliving	93504
Ġhost	93427
Ġoffice	93399
java	93306
Ġalthough	93293
Ġanswer	93227
Ġ2013	93166
Ġwhose	93163
try	93090
Ġhttp	93082
ok	93046
Ġhold	92983
Ġtried	92920
Ġvi	92900
³	92829
Ġglobal	92772
Ġonline	92651
ĠWorld	92606
star	92594
ace	92544
onent	92501
Ġ2016	92485
day	92349
92	92336
ĠSome	92214
ĠHere	92192
Ġgenerally	92190
Ġlost	92168
Ġwall	92116
Ġrecently	92063
ser	92043
Ġstay	92042
ĠIS	92030
Ġargument	92010
ĠMA	91949
Ġart	91859
state	91850
Suppose	91745
hil	91744
Ġdefault	91709
Ġ2014	91665
top	91583
Ġplaintiff	91497
Ġanyone	91494
jo	91465
ond	91413
Ġfederal	91393
)-	91330
Ġtakes	91312
light	91291
ĠGeneral	91281
Ġproposed	91241
mega	91216
ĠAmerica	91211
ĠHouse	91167
Ġagreement	91062
Ġmis	91022
ator	90955
dd	90886
arm	90859
ĠSouth	90838
ret	90686
Ġsaying	90672
ko	90551
Ġblock	90501
Ġdensity	90497
xed	90492
Ġscale	90481
ĠPhys	90434
ĠMarch	90428
Ġpet	90410
rate	90319
Ġtreated	90183
Error	90100
Ba	90077
Ġ__	90034
izing	89982
field	89876
Ġhimself	89846
Ġadult	89804
ĠDepart	89794
oop	89711
Ġbrain	89695
Ġstage	89592
ĠChina	89512
She	89470
Ġcenter	89457
xe	89141
cont	89125
lar	88830
Ġ80	88801
Ġ/>	88799
ome	88774
ĠFirst	88746
Ġbecame	88709
Ġconfig	88707
epsilon	88675
âĢĥ	88647
ĠAdd	88635
×	88569
78	88535
Ġ2015	88500
Ġpretty	88496
Cont	88451
Ġrepresent	88441
Ġcollect	88377
Ġrelative	88374
ren	88367
ito	88356
Ġways	88344
Ĭ	88284
rb	88278
Ġextra	88259
}}$	88252
Ġcharge	88221
¦	88056
Ġprice	87999
Ġfailed	87873
Ġoffer	87870
Ġfit	87866
Ġpublished	87772
ost	87744
Ã¡	87632
db	87511
ons	87453
Ġmeasurement	87342
88	87238
varepsilon	87231
Ľ	87223
Ġtalk	87211
Ġhighly	87164
ume	87162
Ġwoman	87160
002	87158
ĠNot	86920
Ġfindings	86904
Ġderivative	86822
Ġplease	86786
ĠSa	86770
gn	86737
Ġ[**	86730
ional	86717
Ġallowed	86626
ĠMar	86615
hip	86554
ĠUn	86495
ĠCir	86483
image	86475
Ġdegree	86450
ĠHow	86446
..."	86349
ĠPA	86338
fs	86275
ĺ	86223
Ġselected	86212
lib	86199
Ġgave	86178
App	86160
Ġlarger	85993
67	85971
Ġmeasured	85969
Ġdesigned	85969
Ġattack	85944
duced	85833
Ġhandle	85781
Ġjury	85778
Ġoperation	85649
Ġfine	85636
Ġfire	85585
side	85565
Ġdetails	85523
Ġinstance	85495
AD	85422
Ġindividuals	85405
Res	85363
Ġwasn	85300
Ġeveryone	85294
ĠSen	85287
Ġnode	85255
ern	85212
Ġportion	85195
ĠHeal	85193
Ġcentral	85154
Ġimages	85076
Ġcurrently	85038
Ġcaused	85007
Ġalone	84985
land	84807
color	84790
Ġreach	84787
Ġfriends	84732
Ġ2011	84674
Ġproteins	84630
}=	84608
lev	84506
ata	84434
Ġlocation	84429
Item	84357
ĠJune	84328
Ġgives	84288
Ġbehavior	84270
Ġask	84249
Ġeyes	84237
win	84224
US	84160
Ġ:=	84150
Ġconfirm	84130
Ġcomponents	84088
af	84082
Ġ2010	84045
tend	84040
ĠOR	84018
Mo	84016
Test	83896
Ġuseful	83780
ĠNow	83730
Ġfiles	83706
Ġchoice	83670
Ġ);	83652
ank	83640
Ġmatrix	83640
Ġlac	83585
du	83573
Ġrequires	83568
Ġsuccess	83517
ĠAlthough	83517
IP	83491
Ġcombination	83491
.[	83438
Ġ31	83428
IR	83426
Ġattention	83390
operator	83387
ker	83353
Ġappropriate	83337
.'	83325
79	83302
97	83277
ft	83192
fa	83185
book	83179
Ġcompanies	83157
static	83152
LA	83020
Ġbegan	83019
Ġknew	83004
Ġvis	82922
Ġ?	82920
men	82901
lia	82838
198	82820
Ġleading	82698
Ġsuit	82667
ĠOr	82662
Ġbackground	82633
case	82597
.\	82582
Ġ2017	82496
Ġmale	82424
Ġ27	82281
Ġround	82270
Ġfailure	82223
(),	82203
Ġfrequency	82079
Ġusers	81970
Ġflu	81944
Ġunique	81929
Ġframe	81890
ley	81889
\].	81888
Ġeducation	81862
iation	81802
Ġratio	81723
iving	81667
EN	81618
Ġfinancial	81600
Ġmother	81586
dir	81572
Ġpass	81555
Ġ70	81548
Ġtechnology	81517
Ġwo	81466
Ġoptions	81447
Ġcontains	81262
ĠSyst	81229
art	81104
*/	81078
Ġdivided	81078
Ġcompletely	80996
89	80987
Ġincreasing	80963
Ġdisplay	80954
ĠRo	80954
Ġpi	80785
Af	80776
Ġcosts	80759
Ġeconomic	80728
Ġpattern	80666
Ġdel	80573
Ġmagnet	80557
Ġseem	80492
vest	80439
Ġhearing	80407
Ġparts	80372
iding	80342
Ġindustry	80280
Ġten	80234
Ġconnection	80222
Ġparties	80211
¶	80204
Ġpor	80152
ron	80125
Ġ48	80114
Ġsuggest	80096
85	80059
Ġapply	80024
off	80004
ĠJanuary	79950
Ġdistance	79938
ĠApril	79899
Ġearlier	79883
83	79855
Ġwin	79852
From	79835
index	79764
ĠWest	79611
*.	79598
Ġexpressed	79561
Ġheat	79494
ors	79476
Ġpresident	79457
Ġgoal	79432
rightarrow	79371
Ġhit	79362
title	79347
());	79344
Ġ;	79333
map	79332
abil	79320
varphi	79311
Ġserver	79294
ĠJuly	79240
Ġsupported	79222
ÂłĠ	79167
Ġgenerated	79166
Î	79164
Of	79076
Ġstated	79074
Ġestablished	79071
They	79057
Ġallows	79037
Ġdevices	78943
Ġequal	78920
|\	78918
._	78809
İ	78768
ŀ	78736
Ġeasily	78722
Ġspeed	78632
Ġboard	78598
count	78578
Ġ29	78552
amb	78535
Ġ///	78530
ium	78524
ks	78523
Ġson	78487
Ġsites	78412
};	78371
Ġcontaining	78313
Ġreasons	78286
omy	78258
trans	78226
State	78199
ĠDa	78138
ĠChi	78108
Ġfinding	78054
Ġ($	78008
Ġsoon	77955
tan	77898
font	77896
Ġconsist	77802
Ġhyper	77768
54	77744
Ġmeasure	77744
Ġhighest	77737
Ġcritical	77730
Ġlocated	77706
oun	77609
Ġ35	77548
}}^	77519
Ġ->	77488
Ġcopy	77463
Ġprofessional	77459
Ġactivities	77412
dev	77398
='	77213
view	77174
Ġ})	77152
Ġfiled	77139
Ġfelt	77092
Ġ32	77073
Ġones	77014
ME	76996
load	76979
Path	76953
Ġ38	76931
Ġclearly	76885
Do	76844
gl	76841
){#	76748
Ġauthors	76735
rin	76726
Ġactual	76699
vis	76691
ĠSan	76643
down	76551
Ġassess	76486
Ġvariable	76479
Ġopinion	76479
Ġ36	76435
Ġ<<	76338
Ġcommand	76157
Exception	76133
Ġskin	76108
Ġwriting	76011
Ġexcept	76008
âĢ¢	75995
ET	75994
ĠâĪĴ	75969
True	75965
Ġpoo	75957
Ġfair	75955
gh	75939
ĠAND	75878
Ġbinding	75805
Info	75661
Ġinjury	75634
Ġbrought	75609
)$.	75603
Ġchanged	75529
Ġunderstanding	75515
overline	75450
Ġshowing	75448
"/>	75435
pol	75398
CD	75359
Ġsmaller	75346
Ġlearning	75295
Ġ42	75232
king	75190
Ġstaff	75173
Ġexperiments	75170
Ġuses	75152
ĠPat	75120
Ġ2008	75064
langle	75060
Ġcontrast	75020
}^{\	75011
Ġimplement	75009
Ġbox	74943
Ġappears	74942
Ġ\<	74902
Ġbool	74896
Ġrules	74865
Ġparameter	74837
74	74778
Ġvector	74705
oard	74680
Ġlooks	74666
Ġfast	74653
Ġbeyond	74636
Ġheard	74629
Ġcomputer	74591
Ä	74589
Ġculture	74571
Ġcampaign	74515
Ġhands	74506
Ġ37	74411
Ġbuilt	74408
Ġitems	74367
free	74271
hu	74265
98	74246
Ġdoor	74220
ny	74173
dict	74130
ĠHer	74074
cli	74065
Ġmorning	74058
ĠGo	74039
Ġmatch	74021
sure	73991
Ġlooked	73893
box	73871
Ġturned	73808
sing	73781
Ġreasonable	73767
Ġworked	73725
ĠId	73709
Ġconstruction	73672
Ġtowards	73659
Ġcouple	73610
Ġdrive	73453
Ġmajority	73436
Ġmeet	73424
Ġdev	73402
run	73400
Ġ95	73279
Ġtrade	73164
Ġregarding	73159
Ñģ	73132
Ġvariables	73120
77	73111
');	73104
ĠTO	73050
ign	73044
ĠFrom	73036
^{(	73017
media	72984
RT	72944
Ġexists	72932
ì	72931
ĠPublic	72883
Ġtherapy	72870
Ġlog	72810
Ġbenefits	72795
iz	72769
Ġfully	72749
Ġfall	72742
Ġformation	72716
Ġimprove	72714
ĠCan	72683
Ġconcentration	72635
Ġtissue	72589
Ġoccur	72557
ĠCal	72544
ray	72506
Ġab	72494
ĠDistrict	72493
}}(	72491
Ġparents	72474
Ġreports	72452
Ġmilitary	72416
Tim	72410
Class	72358
Ġ2009	72350
ĠFe	72338
Ġresulting	72333
ĠAugust	72229
Ġbal	72209
87	72199
]^	72196
true	72143
Ġfather	72098
Ŀ	72043
ote	72037
Ġtask	71977
Ġprevent	71943
ides	71919
mic	71879
Ġindicated	71876
Ġinfection	71792
Ġsex	71782
Ġvolume	71729
des	71726
Ġwrote	71678
Ġmedium	71668
Ġsetting	71648
Ġinteresting	71557
write	71548
ĠOctober	71544
Ġinternal	71517
63	71392
EA	71328
mbo	71277
group	71241
Ġzero	71156
Ġvehicle	71124
vert	71102
Ġplayed	71094
Ġadministration	71049
Ġ(\	71036
oy	70934
\{	70925
nbsp	70895
ĠSeptember	70843
Ġgets	70841
Ġstrength	70785
vec	70667
ĠData	70639
Ġhospital	70613
ĠDecember	70597
open	70577
Ġensure	70577
Ġfeature	70565
track	70480
node	70473
ĵ	70439
Ġdefine	70390
api	70377
Ġproof	70306
Ġreaction	70304
Ġ2018	70251
you	70238
Ġlinear	70179
Ġapplications	70099
Ġsolid	70072
Ġstarting	70050
Ġtransfer	70005
Ġplayer	69990
Ġmeeting	69975
PR	69964
Ġthroughout	69868
Ġlives	69863
cap	69853
ort	69828
)).	69800
Ġparticipants	69800
Ġmaximum	69790
Ġcolumn	69788
150	69734
ĠObama	69716
New	69715
Ġnoted	69696
Ġprocesses	69671
Ġdamage	69660
Ġregions	69595
input	69588
gle	69578
ld	69537
Ġconnected	69489
Ġsafety	69446
Ġdomain	69437
Ġnor	69373
ural	69335
oat	69285
Ġalternative	69266
cs	69247
Ġinternational	69225
Ġbecomes	69205
AM	69202
Ġsources	69191
sim	69171
even	69163
./	69134
Ġfriend	69128
ection	69120
ource	69075
bit	68970
Ġmet	68950
Ġrevealed	68923
Ġtests	68906
ĠUSA	68891
Ġseven	68886
Ġpoly	68855
Ġinteraction	68841
BA	68775
Ġbenefit	68733
pc	68723
oma	68709
ĠBecause	68682
Ġonto	68650
inter	68615
which	68591
Ġminim	68542
ĠÃĹ	68511
Ġbasic	68463
Ġpopul	68435
Ġotherwise	68416
gres	68361
Ac	68293
ĠCenter	68277
Ġequation	68230
ĠSection	68226
Ġimmediately	68216
ĠNovember	68195
*-	68149
EM	68132
Ġscore	68107
Ġstand	68041
Ġphone	68010
ĠMoreover	67902
inal	67889
ivation	67883
ĠMore	67853
[^	67832
Ġinfluence	67820
Ġdeep	67814
rk	67793
Ġreduction	67793
Ġactions	67784
Ġcollection	67680
Ġresistance	67602
vol	67591
Ġopportunity	67588
Ġtoward	67577
Ġdocument	67504
Ġgiving	67475
Ġmechanism	67471
0000	67469
Here	67449
Ġitem	67401
Ġcover	67378
Ġrecommend	67370
Ġerr	67335
Com	67294
ĠIL	67290
ĠWashington	67281
Ġ\,	67272
car	67252
fin	67218
Code	67211
call	67155
ĠOf	67137
PS	67028
Ġtesting	67001
Ġexist	66979
cell	66866
Ġrelatively	66814
sm	66782
False	66730
ile	66710
ama	66710
Ġsometimes	66685
Ġdes	66683
Ġradio	66682
Ġforms	66665
Ġ~	66660
Ġgain	66650
Ġfigure	66647
geq	66639
che	66592
ĠEl	66585
[\	66522
"},	66519
)$,	66453
Ġregular	66414
Ġresources	66404
Ġbuy	66313
Ġquickly	66298
Ġchar	66267
NA	66187
Exp	66175
Ġchoose	66170
Ġthinking	66089
acity	65974
Ġtool	65972
Ġ(**	65966
Ġmyself	65893
Ġbottom	65869
Ġ75	65862
Ġroad	65809
IE	65777
Ġplaying	65713
Ġselection	65669
Ġnearly	65633
ĠID	65609
Ġcore	65578
ES	65554
ato	65549
nc	65474
Ġclient	65424
Ġmoved	65419
Ġready	65408
Ġmiddle	65406
Ġdetected	65399
Ġhappened	65390
ĠSchool	65390
Ġagree	65382
Ġsafe	65364
Ġconducted	65362
Ġconce	65333
Ġgreen	65322
())	65306
Ġplant	65306
Ġdatabase	65270
error	65263
Ġmoving	65234
uf	65229
Ġremove	65228
Ġstation	65174
Ġexisting	65144
Ġobjects	65140
Ġchannel	65134
lim	65102
]:	65009
Tr	64982
bold	64960
acy	64953
work	64946
Ġ55	64938
Ġdaily	64911
Ġboy	64856
tail	64839
tim	64831
Ġcalculated	64779
urs	64753
Ġfacts	64745
ade	64726
iver	64700
EL	64699
Ġ((	64683
Ġincome	64663
ĠSh	64662
eh	64651
ĠHigh	64633
Ġrace	64625
Ġanimals	64602
Event	64536
Not	64494
Ġ39	64486
Ġupper	64476
Ġindicate	64475
ĠEuropean	64446
Ġyourself	64427
known	64413
Ġreflect	64411
Ġtown	64400
point	64380
Ġmeaning	64380
related	64358
Ġfinally	64348
msg	64333
Ġeye	64333
Ġdemonstrated	64289
Ġfell	64258
Ġnearest	64233
eri	64218
II	64204
Ġtend	64157
del	64103
:"	64092
Ġ52	64085
err	64078
ĠTable	63956
Ġproto	63954
wn	63947
Ġge	63936
Ġemail	63935
ĠCI	63917
Ġserious	63909
Ġunits	63880
ations	63869
((	63857
Node	63823
Ġworth	63787
Ġdefinition	63755
%,	63727
UN	63657
dot	63647
gest	63638
Ġhot	63609
cul	63594
Ġmg	63426
Ġpan	63389
ĠCalifornia	63331
Ġcarried	63316
\],	63315
osing	63298
Ġshape	63291
Ġsufficient	63288
Ġ49	63269
Ġremoved	63259
TH	63253
Ġplaced	63242
ĠEm	63228
IM	63222
Ġmachine	63219
Ġperfect	63125
Ġmanner	63117
quad	63042
ĠNULL	63042
ĠWhite	63037
Ġcontrib	63031
sin	63022
Ġvariety	62952
Ġsets	62918
Ġargue	62914
Ġwife	62838
ĠList	62816
Ġhear	62778
)**	62772
gs	62741
Ġadv	62713
content	62680
Ġwish	62661
Ġstuff	62620
)/(-	62609
Map	62508
Ġthrow	62478
Ġdistributed	62468
Ġoperator	62465
';	62452
£	62446
oh	62389
Ġsend	62376
ĠFebruary	62336
Ġtransition	62291
ĠArt	62212
({	62197
Ġsuggested	62146
Ġ46	62132
Ġ44	62080
ĠPaul	61945
dt	61923
char	61893
Ġwait	61868
Ġnorth	61814
Ġnamed	61814
Ġprograms	61789
Go	61776
roid	61708
ĠDE	61685
ose	61669
Ġ41	61636
can	61627
Ġworkers	61607
Ġcomparison	61585
Ġhealthy	61528
ric	61476
-------	61476
Ġwatch	61468
Ġincreases	61468
Ġsun	61369
Index	61352
En	61350
Ġdetection	61310
Ġscreen	61288
ĠBar	61280
Ġexposure	61274
IA	61172
Ġmaybe	61157
lies	61118
Ġpassed	61113
Ġletters	61098
Ġauthor	61096
Ġpartial	61087
Ġ51	61085
mis	61071
Ġplaces	61051
RA	61038
tal	61035
Ġresponsible	60993
Ġmeasures	60981
NE	60980
ĠTex	60978
Image	60966
Ġdiscussed	60962
parent	60934
ĠGet	60924
Ġletter	60874
ĠIndia	60863
don	60841
Phi	60838
Ġapproximately	60791
Ġintervention	60788
imony	60779
Ġ34	60701
Ġedge	60693
Ġinsurance	60688
ĠFO	60688
Ġcharacteristics	60678
Ġsave	60672
mark	60626
Color	60595
Ġsymptoms	60557
Ġtruth	60555
sf	60519
Ġ64	60456
Ï	60440
ND	60368
Ġcircuit	60341
ĠRev	60294
Ġdrugs	60286
*(	60284
EE	60282
RN	60281
Ġstructures	60251
","	60231
iden	60220
NC	60219
Ġtalking	60159
Ġessential	60039
ĠResearch	60018
BI	59998
df	59963
Ġcontinued	59963
Ġrefer	59879
Ġmodern	59874
ĠUK	59851
Ġquar	59823
era	59822
ean	59800
eat	59759
Ġroute	59759
ĠPC	59715
Ġinvestigation	59664
Ġeight	59646
Ġspin	59643
Ġtree	59607
using	59567
Ġdimension	59531
Ġ]	59530
Ġreturned	59450
Ġclean	59443
Ġhappy	59441
ļ	59396
Ġchallenge	59300
AI	59287
Ġpanel	59259
Ġbill	59254
ĠFurthermore	59247
Ġ65	59187
See	59170
Ġweak	59163
Ġforeign	59148
specific	59111
Ġdrop	59063
Pr	59006
osis	58931
config	58908
Î²	58906
Ġrapid	58889
ĠWi	58880
Ġrow	58852
Ġpair	58848
IF	58846
Ġproper	58816
Ġkids	58796
Ġblog	58773
Ġ2000	58670
mid	58661
Ġexercise	58642
Ġdark	58629
Ġhair	58604
ĠMS	58571
Request	58520
Ġfill	58424
/(-	58418
Ġconduct	58417
mas	58370
Ġinterface	58362
check	58348
Ġbound	58339
Na	58324
Ġparent	58297
version	58283
Ġmusic	58265
Ġload	58243
Ġ56	58236
Ġcouldn	58226
ĠEnglish	58205
Ġwild	58186
Ġ00	58134
DS	58102
Ġmental	58093
Ġandroid	58079
Ġcustom	58067
Ġspent	58045
Ġfavor	58032
Ġ-->	58010
Ġspecifically	58008
Ġplans	57971
Ġ54	57962
Ġbillion	57952
Ġsurgery	57947
ĠEx	57938
Ġcontain	57928
Î±	57922
pn	57883
Ġfamilies	57870
sco	57858
Ġliqu	57857
Ġserve	57810
SC	57789
Ġstrategy	57775
Ġselect	57760
CS	57743
Ġ(!	57739
']	57710
page	57709
ĠCongress	57685
ĠAM	57674
Ġtested	57648
cord	57635
«	57622
Ġcareer	57589
Ġofficials	57574
Ġsat	57553
pert	57552
ĠInternational	57548
},\	57524
Ġformat	57489
Ġwants	57452
align	57450
Ġrelation	57438
Ġmentioned	57420
ldots	57342
Ġhole	57335
hood	57323
ppa	57315
Ġnovel	57307
poses	57278
Ġhuge	57263
Ġ2006	57233
Č	57227
tab	57199
Ġnil	57164
Ġdead	57141
Ġplus	57114
comp	57106
110	57088
aring	57056
Ġvoice	57043
)]	57017
Ġcycle	57013
Ġprepared	56975
Ġ47	56935
Ġ53	56889
rar	56879
last	56875
Ġofficial	56872
Ġdespite	56863
Ġleads	56847
Ġsleep	56827
ĠMon	56810
ĠTh	56783
Ġfemale	56759
Or	56722
Ġstudent	56714
Ġnone	56678
Ġstudied	56647
Ġunless	56631
Calculate	56612
Ġagent	56594
çļĦ	56592
Ġimproved	56572
Ġemploy	56569
Ġnuclear	56547
Ġdescription	56510
Ġenjoy	56506
SD	56504
Ġtransport	56484
Ġtypically	56474
Ġmetal	56458
Ġcombined	56435
Ġ43	56394
------	56330
ming	56327
Ġmm	56314
style	56310
ĠSP	56306
Ġsuccessful	56283
Ġabuse	56279
ĠNi	56262
Int	56254
Model	56247
Ġsurvival	56243
Ġstock	56240
Ġexperimental	56235
Ġgrowing	56204
ĠCode	56194
Ġcontrols	56154
kg	56143
ged	56133
Ġcommunication	56122
apo	56113
Ġvote	56061
Ġinfo	55990
Ġcard	55956
Add	55916
|-	55884
AG	55871
Ġpiece	55835
ĠPl	55822
ĠSch	55803
Ġneighbor	55798
Ġtrust	55796
Ġkilled	55786
dar	55780
ions	55767
src	55765
Ġ("	55701
Ġpicture	55688
ĠDavid	55684
Ġoptical	55668
zi	55651
IL	55629
Ġminimum	55629
Ġjava	55612
Ġpackage	55589
Ġmolecular	55582
Ġguy	55580
Ġchain	55549
tar	55521
Ġenter	55511
Ġsociety	55500
ĠTV	55498
Ġinduced	55490
Ġpress	55481
Ġcircumstances	55466
Ġperhaps	55453
Ġwouldn	55434
BS	55423
©	55373
Ġagreed	55365
Ġlicense	55359
ĠDon	55359
Field	55312
Ġraised	55305
Ġhour	55288
github	55278
104	55278
Ġoperations	55260
Ġtools	55256
Ġcalls	55248
Ġanalyzed	55246
uate	55229
Ġassociation	55218
Why	55216
Ġnames	55192
fla	55191
Ġlinks	55189
Ġrad	55188
object	55183
Array	55180
Ġreached	55170
Ġachieve	55155
Ġwhereas	55152
Ġjudge	55149
prime	55106
dom	55103
Ðº	55100
Ġexternal	55094
Ġdied	55090
Ġfeet	55065
dl	55054
ctor	54996
Ġhttps	54990
~~~	54976
Ġofficer	54972
coming	54970
Ġemployees	54956
Ġclasses	54933
ĠBen	54930
Service	54857
Ġmanager	54845
Ġcauses	54793
ĠYour	54645
=".	54607
Ġprobability	54595
Ġkept	54515
ĠMc	54513
Ġ33	54507
Ġcredit	54497
Ġcriminal	54446
long	54445
}.	54413
otimes	54406
result	54399
Ġefforts	54383
ĠOther	54310
ĠInter	54305
Ġshift	54302
Ġtraditional	54284
ĠMost	54263
CF	54254
Ġoccurred	54225
}-	54221
*^	54201
IV	54120
Ġcorrelation	54116
Ġest	54075
Ġintroduced	54073
Ġfaith	54067
Ġbuffer	54038
Ġeat	54033
board	53983
Ġsuggests	53972
else	53934
model	53932
Ġorig	53928
ake	53896
Ġsoft	53859
Ġcertainly	53855
Ġsens	53844
Ġtechniques	53782
Ġstorage	53770
Ġadvantage	53751
Ġje	53745
PI	53736
Ġequivalent	53709
ă	53704
Ġminor	53694
Ġ57	53688
Ġelectric	53683
Ġdiagnosis	53681
ĠLondon	53638
Date	53614
ĠNote	53613
Ġgeneration	53609
Ġgone	53596
Ġstatute	53550
Ġprotection	53510
Ġremaining	53486
Ġsexual	53485
010	53483
ĠPark	53481
ĠRNA	53464
Ġsummer	53422
fer	53421
ami	53409
hom	53406
Ġappellant	53406
print	53359
Ġwave	53358
ero	53353
ĠGroup	53325
Ġmovie	53316
Ġwhom	53308
Ġforces	53281
Ġalgorithm	53212
Ġecon	53197
Message	53189
Can	53137
Ġrender	53136
Some	53082
Ġrequirements	53073
Ġgenera	53059
Ġ2005	53013
ora	52948
Ġrecords	52941
Ġholding	52881
Ġ58	52873
Ġabsence	52762
¢	52732
Ġcatch	52718
Ġprefer	52658
Å	52636
Ġconventional	52628
ky	52606
ology	52586
Ġolder	52552
.](	52528
Ġexchange	52488
xs	52480
ĠNews	52473
Ġfear	52442
NY	52437
Ġfloor	52435
ĠSet	52431
aa	52415
Ġguess	52415
Ġmissing	52409
Ġserved	52407
Ġlaws	52391
Ġ61	52381
din	52362
Ġextent	52350
ising	52337
Ġ72	52335
Ġadding	52314
Ġresponses	52306
ë	52289
Ġoffers	52264
gar	52260
System	52238
Ġquantum	52183
Ġ()	52163
Ġsevere	52113
Ġcreating	52083
Ġsp	52057
Ġderived	52040
Ġscience	52021
Ġsubjects	52015
Ġgun	52000
Ġnet	51983
RS	51968
level	51941
ao	51921
Log	51915
ĠFace	51902
Ġgir	51878
Ġanimal	51857
*]{}	51856
ics	51815
Ġbed	51812
Ġideas	51735
102	51732
ĠLaw	51699
Ġschools	51687
ĠSha	51679
ĠEast	51676
({\	51604
init	51575
ĠRu	51552
Ġ59	51534
Ġproperly	51493
TS	51487
Ġrepresents	51444
Ġ62	51433
ĠStreet	51415
Ġresolution	51392
md	51376
Ġcapital	51367
ĠGreen	51365
"></	51338
ĠIC	51317
Ġdecreased	51288
Ġdirector	51276
108	51250
cast	51206
\*	51203
induced	51192
ĠIsrael	51159
ĠBritish	51138
Âµ	51132
Ġho	51120
mbox	51115
Con	51112
ates	51066
Ġregard	51025
ĠSupreme	51012
ug	51008
Ġauthority	51008
rove	51005
nonumber	50990
Ġdie	50986
Ġmechanisms	50983
Ġlose	50979
Ġdoubt	50966
Ġvirus	50962
aj	50956
105	50922
Ġexperiment	50922
local	50899
Ġlargest	50875
Ġfeeling	50853
ĠEurope	50851
well	50848
lied	50826
ado	50826
lf	50820
gt	50794
GA	50788
Ġattorney	50781
ater	50745
Ġtip	50733
Ġ66	50730
ĠFoundation	50727
Big	50724
Ġinterests	50719
Ġteams	50708
default	50706
how	50695
Ġmembrane	50658
Ġbalance	50642
Ġtechnique	50629
Ġbranch	50595
tp	50588
Ġcrime	50584
Ġofficers	50580
ano	50531
Ġspa	50520
Ġtravel	50504
(&	50485
Ġcontained	50477
ĠGoogle	50471
/(	50468
ĠCar	50454
Ġslightly	50436
ĠSer	50408
Ġprotected	50398
Ġsecure	50371
luster	50306
ĠIP	50295
^[@	50281
amp	50267
ĠPeople	50243
xy	50210
ĠComp	50200
Pos	50142
Ġcold	50132
ĠCouncil	50127
Ġfight	50103
lying	50073
_.	50059
Ġprofile	50053
Ġguys	50032
Ġconclude	50031
where	50009
Ġslow	49994
Ġcharged	49980
Ġband	49958
Ġshared	49942
Ġopening	49929
Ġcharacters	49927
Ġche	49875
Ġlatest	49843
Ġchemical	49838
Ġfish	49829
Ġprojects	49803
ĠPost	49785
BU	49783
Ġstream	49773
....	49772
2015	49769
ĠNS	49739
Ġoffered	49737
Ġvisual	49729
Ġerrors	49728
Ġ[]	49723
**]{},	49715
First	49692
Count	49648
ĠCanada	49648
Ġsales	49633
cha	49626
Ġannounced	49621
ĠCommission	49617
Ġcoverage	49611
EX	49596
ĠChinese	49594
cing	49593
Ġos	49576
Ġnoise	49531
Ġring	49491
Ġdriver	49489
cd	49486
ĠAP	49419
Ġentered	49408
Ġagents	49333
Ġinteractions	49331
IB	49306
Ġinit	49275
,'	49273
Pre	49271
Ġsupply	49206
Ġdose	49147
Ġdecrease	49099
ĠTwo	49096
Ġcm	49093
ĠCalculate	49084
.[@	49081
Ġaccept	49071
Ġspread	49013
Ġanalyses	48960
summary	48945
Ġagency	48939
dots	48915
ĠFriday	48904
Ġconcentrations	48888
ĠHan	48825
ime	48805
Ġdigital	48786
OD	48779
Ġoutcome	48768
Ġborn	48767
Ġgenetic	48699
âĢĬ	48693
Ġexistence	48689
Ġreceptor	48674
fac	48632
oor	48594
ras	48580
ĠSuch	48578
equ	48550
Ġfinite	48542
ected	48540
Ġcommercial	48528
ĠJust	48515
ĠEn	48509
Ġpossibility	48496
Ġequipment	48496
ĠNO	48495
Ġstars	48494
Ġplants	48484
Ġcarbon	48455
Ġ"[	48452
ann	48445
Source	48445
Ġspeech	48444
Ġoperating	48438
osition	48432
ĠEq	48422
{}	48390
Ġfilter	48355
Ġcompleted	48345
MP	48341
Ġbeautiful	48302
Ġ+=	48302
Ġpatterns	48269
ĠOver	48262
num	48241
Ġwhatever	48226
Ġreturns	48220
PT	48174
Ġbrand	48159
Ġimmuno	48158
Mar	48155
Ġ2004	48106
Ġsmooth	48103
ĠBlack	48097
Ġinteger	48088
Ġidentity	48082
nce	48050
ĠJames	48045
property	48037
range	48021
Ġdiseases	48010
ire	47996
Ġinterested	47981
Ġscene	47966
Ġexpress	47964
Ġstable	47963
Ġalleged	47948
Ġtransmission	47934
ster	47924
Ġheavy	47880
ĠBl	47824
Ġappeared	47775
Ġrich	47750
Ġimportance	47747
ĠUnder	47742
Ġindicates	47737
zo	47704
Ġliver	47684
Ġchronic	47663
ĠService	47637
0001	47628
Ġdog	47623
Ġspectrum	47615
Ġruns	47571
Ġmobile	47544
het	47536
ada	47513
Ġcontrolled	47509
height	47480
").	47480
}+	47474
widetilde	47446
Ġbutton	47439
nabla	47415
mos	47406
Ġconclusion	47390
Ġdemand	47385
ĠSun	47385
Ġsequences	47381
hin	47379
ĠBoth	47344
ĠSA	47325
Ġsalt	47263
Ġscript	47250
Ġaren	47223
ĠWestern	47204
Ġspirit	47190
Ġbank	47188
Ġholds	47184
Ġmouse	47182
Ġparticles	47168
Ġ2019	47122
false	47117
'}	47072
Ġvoltage	47063
Ġyield	47056
Ġreality	47035
Ġdefendants	46995
Ġtour	46993
ĠCT	46978
ĠWal	46976
sha	46934
Ġinner	46927
Ġempty	46920
expr	46919
Manager	46912
Ġhusband	46904
igate	46902
oid	46881
Ġbreast	46879
Ġdecline	46869
'.	46868
usion	46867
ĠAD	46867
ĠMonday	46852
Ġlatte	46850
Ġformula	46824
Ġreferred	46807
Ġmono	46795
ĠInstitute	46754
PC	46745
circ	46739
xa	46737
ĠDO	46732
alt	46676
dow	46660
itivity	46628
ction	46619
Ġrepresentation	46588
Ġcontinuous	46574
rom	46545
chase	46527
Ġseemed	46512
ico	46502
Ġgraph	46469
ĠBank	46431
ÃŃ	46429
µ	46411
\!	46397
Ġ68	46377
Ġ500	46355
Ġremainder	46339
Ġspeak	46309
Ġstatements	46273
Ġmaintain	46246
pan	46227
Ġsuffer	46215
ĠSunday	46195
Ġthank	46194
ĠCL	46174
Ġnation	46169
ĠChrist	46151
Mod	46150
Element	46147
}})	46144
{"	46121
Ġlibrary	46120
ĠUp	46091
Ġjobs	46083
PO	46082
Ġsession	46048
Ġplasma	46033
dimensional	46031
Ġassembl	46003
Ġleaders	45974
Ġhaven	45970
009	45967
aise	45963
]),	45947
Ġliterature	45935
Ġstraight	45918
ĠAccording	45907
Ġpromote	45904
Ġ67	45900
Ġcollege	45886
Ġapproved	45858
dep	45844
Ġstruct	45840
Ġgrand	45833
ĠCompany	45818
Ġflat	45811
ĠMichael	45804
Ġmotor	45795
Ġ85	45772
Ġcarry	45705
Ġissued	45664
rob	45655
ĠPress	45645
Ġinterview	45644
Ġextremely	45574
ala	45572
ĠQu	45534
either	45526
Ġsquare	45510
ĠCommittee	45505
Ġintra	45494
Ġknows	45478
Ġfat	45463
ĠSmith	45449
2016	45425
Ġfore	45413
Ġalcohol	45406
Ġplatform	45358
Ġleader	45355
Ġcovered	45347
Ġexamples	45345
Ġcharges	45342
011	45335
ĠGu	45334
)"	45304
Ġserum	45287
Ġworse	45254
Ġahead	45250
hol	45227
ised	45223
Ġregulation	45217
child	45208
ENT	45205
ĠUnion	45195
Ġclub	45175
Ġcool	45161
Ag	45136
Ġaware	45099
Ġexception	45096
ĠJapan	45090
apache	45066
Ġopened	45061
Ġsubstantial	45060
Ġsigned	45045
message	45043
Ġfoot	45030
Ġsemi	45016
2013	44986
iew	44985
.$$	44968
Ġcustomers	44918
Ġchurch	44900
Ġag	44892
FT	44890
2014	44884
Ġap	44854
Ġoccurs	44839
006	44828
Ad	44815
scale	44813
ination	44796
ĠDay	44784
Ġfootball	44753
pea	44715
Ġrecorded	44709
Ġcompounds	44691
late	44688
Str	44684
Ġdelivery	44680
ĠBrown	44655
Sol	44649
Ġdecisions	44643
\|	44629
cp	44626
ĠCor	44626
comm	44611
Ġextension	44598
Ġcalling	44576
Ġreceiving	44525
Ġnetworks	44508
Ġassay	44508
Ġevaluated	44506
Ġdiet	44486
Ġpowerful	44484
Ġfreedom	44480
just	44464
position	44458
Ġallowing	44430
Ġviolence	44424
Ġextended	44409
Ġ71	44403
Ġleaves	44399
_{{\	44362
ĠTrans	44352
ĠAmericans	44347
ĠNOT	44330
endif	44328
Ġpercentage	44294
null	44290
Ġplate	44288
++	44276
Ġclick	44262
Ġestablish	44258
Ġoutcomes	44252
ĠTime	44234
Ġsale	44227
Ġconcerns	44215
mod	44206
tag	44198
ĠFrench	44196
Ġleaving	44190
Ġsubsequent	44182
Ġassessment	44175
ĠLeague	44163
Ġ2003	44155
.</	44150
Ġpush	44131
Ġthousands	44122
cover	44119
Ġmargin	44106
Ġhelped	44096
Ġtestified	44074
Ġmuscle	44073
Ġmostly	44068
Ġimmune	44058
ĉĊ	44046
ĠDen	44044
ĠCollege	44030
Ġevolution	44020
Ġ};	44016
Ġ99	44004
)/(	43935
Ġefficiency	43926
Ġowner	43862
Ġecho	43847
ĠWhy	43831
Ġarguments	43829
2012	43820
Ġcult	43791
Button	43758
tz	43755
ried	43753
Ġrepresented	43747
zeta	43746
Ġcriteria	43726
Ġcentury	43710
word	43695
first	43690
lum	43686
ĠFinally	43675
Ġapparatus	43633
Ġexamined	43569
Ġvirt	43551
Ġentitle	43547
Ġbooks	43547
**,	43546
Client	43540
Ġbudget	43499
Ġban	43486
Ġgrow	43465
Ġlearned	43452
BL	43447
ĠAssociation	43446
Ġlib	43445
tric	43440
Ġplane	43427
ĠKing	43406
Box	43400
Ġeventually	43400
dim	43391
115	43380
Ġspecified	43379
flow	43372
exe	43364
Ġenhance	43360
2000	43340
ĠUsing	43309
iate	43308
pons	43307
ĠAC	43259
Ġcandidate	43251
format	43241
Ġcurve	43232
Ġscheme	43192
Ġbirth	43164
Ġincident	43145
Ġdepends	43141
/\	43130
Ġlabel	43129
Ġlimitations	43098
These	43085
ĠChurch	43067
repo	43061
\"	43059
ĠRes	43035
}=\	43021
Ġsupposed	43013
Ġir	42997
Ġdistinct	42992
Ġbattle	42991
Ġsurvey	42988
ked	42959
Ġfuel	42941
Ġinvestigated	42926
ĠYes	42912
ĠGovernment	42911
dle	42905
ech	42899
ĠUN	42894
ĠGermany	42880
rus	42858
ĠJudge	42846
ĠIran	42842
Ġachieved	42828
Ġfirm	42819
Ġfloat	42801
plo	42780
Ġtypical	42780
Ġpathway	42733
sist	42730
med	42717
Ġgoals	42715
ĠScience	42712
match	42688
ĠFile	42688
2017	42686
dependent	42677
ĠSH	42675
Ġpin	42655
Ġchanging	42652
LD	42650
ku	42645
Ġmixed	42641
Ġseat	42628
Ġpolicies	42622
Ġglass	42609
Ġtea	42603
Ġspend	42601
img	42599
Ġ2001	42586
context	42576
product	42572
ĠPS	42571
ford	42546
TF	42542
Ġdry	42542
current	42528
augh	42521
Number	42517
Ġstandards	42517
Ġfilms	42517
supplementary	42494
$(	42484
ĠInt	42480
Then	42468
.*	42467
Ġrecovery	42464
ĠMany	42450
Ġthreat	42433
Ġapplicable	42420
Ġgranted	42411
&\	42403
button	42394
Ġneuron	42383
Ġbiological	42372
Ġ96	42370
Ġcomplaint	42363
ĠIII	42361
Ġcivil	42327
hs	42324
ĠTuesday	42318
tone	42291
Ġignore	42281
Va	42256
ãĢĤ	42250
Ġstrain	42240
Ġbaby	42224
active	42217
Ġpolar	42203
Ġexpansion	42197
Ġideal	42196
Ġisolated	42185
Ġtraffic	42179
iel	42178
Ġacts	42178
Be	42177
ably	42167
Ġjoin	42147
UL	42098
Ġgen	42064
olog	42056
Ġdesired	42049
Ġseeing	42041
opt	42040
cf	42036
Ġevaluation	42019
ĠNone	41956
ĠMI	41953
Call	41951
Ġsubstrate	41925
Ġstanding	41919
Ġdelay	41902
Ġ77	41882
std	41871
Ġox	41863
Ġindeed	41854
Ġsections	41850
Click	41846
Ġstrongly	41825
ĠSub	41807
300	41803
Ġrelief	41799
Ġinstall	41797
Ġdetailed	41788
Ġelectronic	41785
.**	41781
Ġfunds	41771
sb	41755
Ġinvestment	41751
ĠGeorge	41725
Ġ73	41721
Ġobvious	41710
Ġangle	41699
Ġquick	41690
Ġchosen	41676
Ġfourth	41671
yn	41660
Ġsan	41648
ague	41592
Ġkill	41590
BR	41564
Ġsell	41541
ĠWeb	41529
cke	41513
Col	41495
Ġmaster	41493
Ġ{{\	41480
"}.	41466
section	41452
Ġthin	41412
Ġcommitted	41401
Ġdaughter	41396
ĠDC	41377
ĠOpen	41354
Ġ300	41354
Di	41353
Ġduty	41340
Ġ74	41336
Ġcategory	41331
Ġconsidering	41330
ĠChar	41315
Don	41314
hand	41287
Ġdirected	41285
ĠNF	41256
ĠEngland	41251
Ġdigit	41231
ux	41218
ĠCON	41195
Ġskills	41167
Ġprices	41160
-----	41145
Ġvictim	41131
Ġpayment	41114
uint	41106
Ġexam	41094
Ġforced	41091
Sc	41081
Just	41080
Ġreligious	41079
Ġdocuments	41073
enin	41066
Ġ84	41064
ĠFlorida	41060
ĠParty	41051
Ġbroad	41047
ission	41041
ĠType	41037
Ġru	41035
lie	41026
cin	41023
twi	41014
Ġdebt	40999
berg	40997
Bar	40985
114	40984
Ġlisted	40982
CON	40965
pin	40956
Ġill	40945
Ġappl	40937
target	40934
Ġresearcher	40920
Ġaccident	40919
Ġplays	40912
imal	40902
Ġmurder	40879
itis	40876
module	40856
rig	40837
ĠGerman	40832
ĠSal	40819
Ġdetermination	40817
Ġequations	40816
ĠTest	40799
Since	40796
Ġ2002	40770
tm	40759
:\	40749
Ġscope	40746
Ġwarm	40745
Ġvariation	40725
lement	40716
Ġ76	40705
ĠSolve	40704
Ġsold	40692
Ġconcern	40684
rough	40682
Ġwaiting	40672
Ġloc	40668
Content	40661
ji	40650
Ġthanks	40648
Ġsecret	40648
Ġexcellent	40638
ught	40630
Thr	40623
ened	40605
Ġfans	40604
116	40597
ĠIF	40563
Ġ78	40562
ALL	40560
Ġbrief	40547
Ġnine	40534
Ġobservations	40512
Ġpossibly	40490
2011	40473
ĠSuper	40472
ĉĉĠĠ	40472
ĠIns	40467
Ġparallel	40455
ĠRussia	40441
Ġbelieved	40437
ĠCopyright	40391
Ġforth	40383
Ġversus	40381
SU	40352
Ġspot	40348
Ġ81	40344
2010	40324
fes	40322
ĠMac	40313
%.	40296
Ġassuming	40293
Config	40292
layout	40287
break	40264
ĠHIV	40257
stra	40246
Ġsolve	40241
Ġhousing	40224
sight	40216
Ġfees	40151
ich	40137
select	40123
status	40108
Ġoffense	40103
Ġtwice	40091
ape	40090
ĠOffice	40085
Ġnodes	40068
ĠBill	40067
Page	40065
Ġemployed	40054
ĠLord	40043
Ġcommunities	40042
âĢĿ,	40023
=(	40021
Ġ_{	40020
ĠThursday	40014
Ġexhibit	39998
ĠHall	39986
Ġduration	39968
rst	39942
Ġdamages	39935
Override	39892
Ġplanning	39884
van	39880
Ġcompare	39865
Ġaward	39824
hold	39812
rev	39787
Ġmutant	39768
Ġcup	39760
Sub	39754
vent	39746
small	39718
Ġthread	39709
++)	39701
ĠRep	39674
Ġstreet	39669
ĠWell	39669
Ġscores	39668
Ġfunding	39657
Ġconfidence	39634
Ġer	39628
Ġwaste	39619
Ġaccuracy	39615
**(-	39607
Ġhelps	39601
**]{}	39584
ĠSu	39577
]--[@	39562
Ġconcerned	39561
ĠWindows	39560
#######	39551
ney	39548
uring	39542
RR	39520
Check	39520
Ġtrials	39520
oon	39491
Ġdiff	39483
anc	39449
$)	39449
Ġmetric	39448
ĠSaturday	39429
Ġlit	39391
Ġguilty	39350
Ġasking	39346
Result	39343
Ġboundary	39337
Ġtouch	39336
Ġrelationships	39315
loud	39275
DC	39271
Note	39254
Last	39239
Ġexperienced	39227
120	39221
DB	39208
PL	39207
ĠCircuit	39192
Version	39186
Ġelectron	39175
Ġsplit	39166
Ġburden	39159
Ġcir	39151
rio	39141
Ġreverse	39139
Fe	39138
Ġexposed	39128
ĠWednesday	39128
ĠJapanese	39107
Ġfinished	39097
ĠFrance	39082
Ġcontribution	39079
Ġconsent	39042
ĠMark	39027
Ġextends	39015
Ġ===	39010
ĠUI	38985
Ġcoach	38970
Ġinhibitor	38968
ĠUse	38963
Ġacute	38957
ĠJesus	38948
ĠMinister	38946
ĠEd	38924
Ġcontinues	38910
Ġframework	38909
Ġemployee	38894
lation	38891
Ġfundamental	38886
Ġdraw	38880
ĠTR	38880
ĠMD	38875
ĠClass	38867
Ġresource	38866
Read	38832
ĠFederal	38823
Ġtrain	38816
ĠHome	38801
Mr	38800
2018	38795
Ġuint	38790
117	38778
Ġdepartment	38759
Ġintensity	38758
cer	38746
\/	38720
Filter	38711
Â¶	38679
ĠInternet	38655
Ġguide	38654
RM	38649
Ġplot	38629
ĠAustralia	38626
)^{	38606
ĠAss	38595
ĠJustice	38586
Ġsettings	38576
dc	38575
QU	38575
Ġcompetition	38570
Ġsugar	38568
Ġice	38565
Ġmassive	38564
Ġdemonstrate	38557
Ġadvanced	38557
Ġintent	38540
Ġordered	38532
)))	38529
ville	38517
^+^	38515
tom	38509
Ġrelates	38507
ĠDA	38498
Ġplaintiffs	38485
icon	38482
Ġgold	38477
frame	38475
Create	38426
odd	38422
ĠGold	38405
"),	38396
ĠLin	38383
spec	38375
Ġ120	38353
End	38351
gel	38347
;&	38339
Ġbrother	38324
GC	38322
ique	38307
Ġchallenges	38300
Ġpotentially	38299
Ġimaging	38293
ĠWill	38291
Ref	38288
Method	38268
Ġhumans	38258
Ġjoint	38252
EV	38232
Ġvelocity	38228
Ġinterval	38218
ĠOS	38203
Ġconference	38201
Ġrats	38189
Ġstopped	38159
ĠNE	38150
HR	38149
ĠFIG	38146
Ġstatistical	38135
Ġchief	38132
400	38129
Simplify	38118
Ġidentification	38118
Ġdoctor	38112
Ġimprovement	38102
Ġoperate	38034
Ġ*)	38027
Ġcourts	38018
EP	38014
Action	38000
132	37995
other	37980
ture	37973
Ġclaimed	37970
Ã³	37967
Ġremained	37964
Ġed	37938
Ġopposite	37937
Run	37915
Ġengine	37897
Ġobjective	37885
Ġlung	37870
Ġpull	37865
([	37855
Ġended	37850
cial	37839
Ġpark	37833
ĠPlease	37829
Ġdownload	37828
att	37826
lp	37817
Ġspring	37813
Ġsit	37790
Fin	37777
unde	37756
Ġsuggesting	37749
ova	37724
Ġviola	37724
sia	37717
Ġfrequently	37688
Ġrank	37671
Ġdiscovered	37666
Ġhence	37660
jun	37648
she	37633
Ġgrant	37626
rf	37620
Mi	37593
ĠPart	37580
ĠRussian	37578
Ġiron	37541
emp	37540
Ġsuppress	37537
ĠMO	37517
Ġsweet	37512
rain	37499
ants	37492
Ġargues	37491
Web	37486
Ġjustice	37485
ql	37482
ĠRepublican	37467
Ġprincipal	37453
Ġfragment	37452
ĠThom	37435
Ġgap	37433
ĠÂ£	37432
Ġnecessarily	37420
ĠAny	37413
Ġlimits	37405
Psi	37401
Base	37397
Ġarms	37397
ĠRule	37394
ines	37384
133	37383
Ġearn	37361
Ġestate	37352
ĠFurther	37336
Ġrare	37331
Ġannual	37329
request	37309
more	37288
Ġformal	37281
rif	37279
Ġretain	37275
ĠEs	37270
Ġhabit	37254
Ġgla	37245
Ġtens	37243
ĠMC	37230
Ġpad	37227
Ġseconds	37218
Ġpool	37209
MD	37208
illa	37193
Ġstability	37190
ght	37186
.-	37184
plan	37167
erg	37141
vy	37137
inator	37127
Ġdependent	37105
ĠHence	37098
Ġwidely	37086
Ġgender	37075
asp	37064
}]	37063
next	37061
oul	37059
ani	37059
Ġoral	37048
Ġantibody	37024
ĠPan	37022
ĠDefendant	37018
Ġthereby	37014
CU	37010
ĠExp	36981
ession	36979
Ġdefinitely	36976
pha	36965
Frame	36962
=======	36959
dit	36945
Ġthreshold	36934
ĠJohnson	36925
cup	36918
Ġabsolute	36917
ĠTwitter	36915
Â·	36904
Ġdisorder	36901
Ġlinked	36870
its	36853
Ġaspects	36851
References	36825
Ġpeace	36824
fy	36814
Ġbone	36814
Ġattacks	36813
Ġstarts	36810
Ġnumerous	36802
ials	36797
Ġkeeping	36791
]]	36789
eme	36784
Ġpopulations	36771
ĠAir	36765
Ġsupra	36750
Ġindicating	36737
output	36724
tum	36722
Ġstructural	36722
Ġrelations	36722
pad	36689
Ġcomposite	36678
Ġmixture	36674
ridge	36660
ĠCP	36653
Ġsurround	36645
COM	36629
wood	36619
Ġaccepted	36592
ĠStar	36590
Ġinterpretation	36587
ict	36565
"$	36564
Ġmeta	36564
131	36562
Cs	36560
tmp	36557
etch	36549
Ġmortality	36546
Ġunable	36537
Ġdebate	36530
Status	36524
Ġentirely	36519
was	36517
ĠLA	36516
ĠGood	36514
Ġends	36513
Ġmission	36503
house	36502
WI	36501
Ġtruly	36480
ĠRobert	36466
Ġinstructions	36464
ĠChristian	36452
Ġrecognized	36447
Ġprovision	36442
Ġcellular	36434
Ġgonna	36431
Ġcast	36427
pdf	36417
});	36401
auto	36397
ĠOnce	36395
ĠDirector	36393
Ġpractices	36386
Ġscientific	36383
ida	36382
Ġrepair	36378
Ġgirls	36374
Ġaxis	36371
rap	36369
^+	36333
Ġenable	36314
ĠOnly	36303
ological	36283
Ġnotes	36272
Ġdegrees	36269
Your	36242
Ġsupporting	36242
Ġemployment	36207
Ġfraction	36206
foo	36197
msgstr	36185
118	36177
Ġ97	36175
ury	36174
Ġ\{	36167
Ġcamera	36163
Ġbag	36159
opy	36147
private	36134
Ġresponsibility	36104
Ġseed	36093
Ġmouth	36088
Ġmiles	36086
ĠTimes	36065
Ġ191	36060
Ġprison	36053
Ġ86	36045
Ġprep	36044
Ġminute	36040
Format	36032
ĠHospital	36024
Line	36009
Ġattached	35993
Ġappearance	35992
Ġvitro	35989
Ġextract	35985
ĠGive	35965
Update	35951
Per	35943
///	35909
ets	35899
Ġdisk	35881
Ġresidents	35874
izer	35869
Ġcompound	35857
query	35830
aza	35830
Ġ[[	35820
ĠPeter	35807
Ġmolecules	35790
widehat	35787
Ġmenu	35780
ĠSecond	35770
Ġconcluded	35760
sch	35751
force	35749
Ġcer	35741
ĠProject	35725
ĠIndian	35721
Ġdynamic	35714
Ġaim	35705
"]	35691
Ġarc	35686
ĠAPI	35676
rier	35673
Ġcommonly	35672
^-	35668
Ġcloses	35668
Ġamounts	35666
Ġcat	35638
Ġnarrow	35616
obj	35604
{-	35600
Two	35598
Ġtag	35596
Ġtechnical	35589
Ġassigned	35585
Ġconsideration	35581
ener	35578
BE	35575
mem	35537
ris	35535
Ġprolifer	35534
Start	35521
goo	35516
Ġunderstood	35516
Ġprev	35512
Ġdynamics	35498
Ġspi	35471
ĠTheir	35463
Ġseg	35450
\^	35446
\]).	35434
Ġrequirement	35432
Ġeffectively	35420
Ġaccurate	35417
Ġmix	35416
Ġprinciple	35407
Please	35399
Ġexpert	35393
Ġsensitive	35372
ĠTom	35356
Ġexplore	35349
ĠInstead	35349
ige	35326
Ġoffset	35317
Ġestimates	35313
linear	35312
ĠAfrica	35286
Ġconnect	35279
TG	35262
Ġescape	35262
rag	35241
Ġspaces	35231
nia	35230
sequence	35228
css	35223
ĠAfrican	35213
Ġoxygen	35211
Ġfilled	35210
Ġfail	35208
Ġjurisdiction	35207
Label	35189
press	35169
Write	35166
013	35143
change	35128
Ġmodify	35128
Ġdecades	35112
Ġusual	35109
Ġ192	35076
Ġspo	35051
Ġspending	35026
Ġelectro	35025
Ġtemplate	35002
Ġzone	34994
Ġbinary	34993
Ġ91	34975
{(	34965
element	34963
Ġharm	34961
RP	34955
aki	34952
neg	34944
Ġseeking	34933
Ġmessages	34933
#:	34932
proc	34926
Ġsenior	34922
TD	34917
NAME	34912
Ġadmitted	34909
ress	34895
ĠEC	34890
Ġfavorite	34888
ending	34882
ĠPCR	34876
Ġwww	34867
Ġconsumption	34840
==========	34832
had	34830
Input	34829
Ġtrigger	34819
Ġtelevision	34818
Ġbaseline	34787
earch	34782
Instance	34777
Ġpp	34766
Ġstrategies	34762
ĠRiver	34760
ucing	34744
Ġ94	34721
build	34706
ulating	34698
Ġlaser	34676
Ġearth	34676
Ġsqrt	34660
Ġassistance	34653
Ġbroken	34652
ifier	34649
ult	34637
uge	34622
Ġcharacterized	34618
Ġcog	34594
ĠSur	34582
FFF	34580
weight	34573
ĠHuman	34572
Ġdepth	34559
append	34546
Ġ98	34544
Ġorganic	34529
2008	34526
Ġoptimal	34521
Ġsmallest	34487
Ġaid	34481
Ġes	34477
ĠStan	34447
wan	34429
Ġpredicted	34427
Ġstrike	34417
ĠGL	34415
san	34398
Handler	34396
Ġtissues	34379
Ġdangerous	34372
FP	34346
Ã¼	34340
Tre	34329
ĠIndeed	34329
Ġamazing	34328
ĠLemma	34327
Ġorders	34309
Ġexpensive	34303
ĠTri	34299
Ġwitness	34295
rog	34284
Ġ93	34270
yer	34242
Ġmor	34235
ĠPlaintiff	34224
Ġvision	34217
2009	34207
Ġdraft	34202
ĠObject	34194
number	34172
Ġter	34154
ĠPI	34152
mode	34138
Ġamino	34136
Ġpoll	34131
ĠInformation	34102
Are	34099
ĠGR	34091
template	34076
Ġsupports	34066
Ġtin	34055
fold	34050
ben	34045
dest	34011
ĠCS	34006
show	34002
Ġsq	34002
Ġcompact	34001
Ġparticle	33983
Ġpieces	33981
Ġcustomer	33976
ops	33971
ĠOut	33948
ĠMedical	33947
Ġmanuscript	33945
ĠEarth	33944
FF	33942
ĠProgram	33932
Xi	33931
ĠHA	33925
Ġwatching	33923
subset	33908
Ġfund	33904
Ġsyndrome	33872
Ġretire	33853
bed	33843
Ġcausing	33827
Ġdiscretion	33826
any	33816
Ġpun	33810
Ġsuccessfully	33798
Any	33793
ĠpH	33787
options	33784
Ġchannels	33758
IG	33747
nes	33732
ĠNA	33731
ĠRT	33727
Ġmeal	33706
Ġtargets	33689
Ġfont	33688
Ġfruit	33680
ĠVal	33668
Ġcrisis	33651
Ġthermal	33650
Point	33639
Ġintroduce	33636
Ġbrow	33636
Ġ1999	33628
une	33622
EF	33621
Ġbright	33613
Ġmilk	33603
Ġsitting	33571
Ġurl	33560
Ġfan	33559
Im	33558
Ġlargely	33556
Ġimpossible	33556
Ġouter	33554
Sor	33532
ĠClinton	33530
sil	33528
Ġrepresentative	33525
Ġinhibition	33525
ario	33523
sed	33502
ĠCentral	33501
Pl	33493
Ġunion	33488
Ġposts	33452
Ġautomatically	33451
Although	33449
wal	33440
Ġinstalled	33425
Ġinformed	33423
search	33422
ĠSil	33408
Ġconstitutional	33401
Next	33397
Buffer	33396
genic	33395
Ġdiabetes	33388
Ġauthorities	33382
uis	33371
ĠIts	33331
Find	33330
Ġlaunch	33329
}}{\	33322
hm	33317
description	33314
uit	33312
ĠRad	33312
Ġpsy	33303
Ġworry	33298
server	33260
Ġconversation	33247
Ġsector	33246
tun	33234
Ġarrest	33223
Ġexamination	33218
Ġexit	33209
Ġcompete	33207
tol	33206
Ġforget	33194
Ġsal	33190
ĠSoftware	33184
ĠMP	33166
Dec	33154
------------	33141
Ġstrains	33089
ĠSl	33086
Ġmai	33055
Ġputting	33044
Ġmiss	33037
Cell	33034
ĠON	33016
Ġfaster	33002
treated	32989
Ġjoined	32987
Ġseal	32984
Ġpure	32984
matrix	32982
oin	32975
Another	32971
Ġvisible	32971
Ġconcerning	32965
TL	32960
ĠEr	32939
isp	32938
Ġreplaced	32924
Ġfacilities	32921
eration	32919
Ġattend	32904
Ġmeth	32903
Ġbarrier	32895
&&	32893
ĠEduc	32888
ĠLee	32883
Ġherself	32878
1000	32873
Ġpitch	32869
ĠEU	32868
some	32859
taste	32856
ĠBur	32855
ken	32823
Ġacting	32805
ĠIV	32801
GS	32799
ces	32797
Car	32797
conf	32795
Ġcreation	32771
Ġillegal	32761
DD	32752
____________	32745
CIT	32744
Ġmention	32740
Ġcitizens	32736
Ġadvance	32736
yo	32727
Ġfinish	32727
ĠGreat	32715
Ġantibodies	32712
Ġuniform	32706
Ġlayers	32698
Ġassumed	32697
graph	32671
Layout	32668
\;	32652
cit	32651
130	32641
Ġcandidates	32639
ĠCorp	32623
Ġinvolves	32622
ĠmRNA	32617
Ġplastic	32604
Ġmatters	32602
Ġmerely	32600
root	32599
Ġtherapeutic	32594
iso	32588
Ġemergency	32579
air	32560
method	32551
Ġhi	32548
Ġruling	32530
144	32524
HP	32522
Ġmoral	32521
Ġdifferential	32494
ĠTE	32492
Ġtransform	32485
Ġobservation	32483
Ġexperiences	32477
Gi	32475
Ġperspective	32474
Ġ1990	32470
Ġhundreds	32466
Ġhurt	32462
016	32455
ept	32444
Ġ2020	32443
Ġhundred	32440
Ġpassing	32430
```	32414
Ġhate	32411
Ġexecutive	32385
Ġbrowser	32381
Ġlowest	32379
202	32375
ĠAnother	32370
Ġpairs	32361
ĠSecurity	32344
Ġoptim	32342
Ġdetermining	32340
Select	32309
Ġfeed	32297
').	32293
999	32286
Ġlived	32280
Ġfamiliar	32255
Ġclosely	32240
Ġgrad	32232
Ġaspect	32230
Has	32227
most	32224
Ġattach	32217
000000	32209
Dis	32208
center	32200
ĠÃł	32193
ĠField	32191
Ġproved	32183
Ġwrt	32162
care	32155
uted	32127
Ġdirectory	32117
Ġtelling	32109
Ġposted	32109
Ġpolitics	32107
Ġsignificance	32105
Ġscreening	32105
Ġcorner	32100
Ġlabor	32094
ery	32090
Ġleg	32081
ĠSec	32069
ĠCup	32055
Ġterminal	32051
Ġshooting	32047
Ġtrees	32043
kh	32040
Ġvivo	32040
Ġliability	32029
Ġserving	32028
Ġcontainer	32012
Ġhydro	32008
ius	32007
Ġdream	32007
Ġcolon	31995
Ġhomes	31990
hit	31988
Ġregister	31984
Query	31968
author	31949
Ġmonitoring	31935
Ġprimarily	31920
DL	31919
CB	31888
Ġblocks	31872
Ġinitially	31864
diff	31858
Ġstack	31857
Where	31854
cons	31849
ĠControl	31843
ĠRead	31836
Who	31825
Ã¶	31816
Supplement	31815
Ġclassification	31815
%%	31798
bool	31794
FS	31789
Ġcities	31788
Ġoperators	31783
parse	31767
Ġidentical	31761
019	31742
Ġtrend	31732
mag	31723
Ġlots	31721
Ġregression	31708
Ġmaps	31707
Ġmedian	31705
ĠDevelop	31705
Ġdollars	31694
Ġeating	31672
Ġinjuries	31671
]);	31662
Ġmeat	31657
Ġtranslation	31645
Ġdelivered	31640
Ġimplemented	31625
Ġion	31623
Ġdisorders	31616
Ġclassical	31603
only	31600
documentclass	31593
Ġgrown	31591
Ġcloser	31591
Change	31581
Hi	31574
Open	31567
Ġbusinesses	31561
TYPE	31547
omb	31536
Ġqui	31535
Attrib	31529
Ġcontributions	31528
Ġassault	31526
ĠLike	31520
strong	31518
Ġconsists	31518
BP	31515
Ġinjection	31513
Ms	31491
ĠJones	31489
Ġaccordance	31472
RY	31471
Ġpossession	31449
More	31443
Â»	31442
Ni	31440
cb	31435
layer	31428
Ġbigger	31426
ĠĠĠĠĠĠĠĠĊ	31426
Ġship	31425
Ġenhanced	31425
ats	31416
Ġleadership	31414
>>	31409
ĠPower	31399
approx	31387
----------	31387
fc	31371
Before	31371
Ġ1998	31361
ĠEnd	31359
iat	31358
Ġstick	31358
Ġmol	31348
Ġbodies	31321
Ġprevalence	31313
Ġpatent	31308
Ġsouth	31298
103	31262
Ġmechanical	31260
txt	31258
ĠÎ²	31242
ĠDM	31240
Ġsurgical	31225
dig	31224
Ġorganizations	31222
2007	31218
Ġgenome	31213
Ġ400	31196
Ġaccounts	31194
drive	31193
Ġapparent	31169
Ġlocations	31162
Default	31159
Ġconsequences	31158
after	31144
Ġapproval	31144
Ġopportunities	31143
Stream	31142
>,	31142
Ġsorry	31136
Ġelectrical	31128
Ġrig	31125
Ġgarden	31109
ĠBea	31097
Ġups	31091
Ġthick	31075
Ġcorrectly	31072
Ġfigures	31044
]\	31033
ski	31032
Ġrepeated	31023
Ġtough	31014
Ġarrived	31003
Ġplain	30978
eting	30969
Ġinternet	30961
Ġfacility	30960
ione	30953
Ġbeam	30947
Ġthoughts	30931
lio	30930
entry	30918
ĠMor	30916
Ġpathways	30913
Ġtruck	30906
ically	30901
Am	30898
Ġextend	30898
Ġrotation	30882
ĠGen	30882
buf	30871
Ġcre	30862
Ġsports	30859
Ġremoval	30789
Token	30769
ude	30767
Ġtrouble	30764
ĠVa	30744
American	30738
Ġera	30735
ÂĢ	30733
ĠLake	30730
Ġdisplayed	30721
Ġmutations	30710
Ġcharacteristic	30703
cation	30699
buffer	30698
aul	30697
]^.	30685
Ġabsolutely	30684
Ġpractical	30665
Ġbacteria	30629
Ġneck	30622
rest	30619
example	30617
final	30615
Ġdiagn	30605
Ġdiameter	30601
Ġ1000	30601
Ġapparently	30594
Ġintegrated	30582
Ġinstruction	30581
Ġemotional	30571
een	30549
Express	30549
={	30549
ĠDemocratic	30548
Ġpu	30546
eps	30540
Ġstages	30524
Ġupdated	30517
Ġhelping	30501
Ġclients	30491
Ġexport	30488
Ġquant	30483
Ġsynthesis	30482
Ġpos	30479
Controller	30477
/>	30460
Ġsoil	30454
meta	30441
Ġneutral	30439
Ġcentre	30435
iest	30424
sensors	30419
'$	30403
Ġspectra	30399
Ġsy	30398
Ġdepression	30395
Ġ1997	30394
ril	30374
ĠMartin	30372
:(	30370
Ġcommittee	30370
Ġsheet	30369
Ġcoupling	30359
Ġfashion	30344
Ġconviction	30337
Ġincidence	30330
ĠWilliams	30325
ĠHas	30314
155	30309
Ġadopted	30305
\]),	30302
Ġimmedi	30295
aries	30290
Ġgrid	30290
Ġkitchen	30283
Ġsubmitted	30278
Ġremote	30262
Ġlymph	30247
ĠPP	30244
Block	30232
INT	30231
cia	30219
Ġrecall	30218
=-	30213
OB	30212
ĠDoe	30210
xc	30190
Ġtopic	30173
sis	30159
lect	30158
Ġconstructed	30156
Ġdogs	30140
Work	30135
service	30127
via	30124
Ġcoffee	30124
Ġdescribes	30119
Ġpictures	30116
ĠFed	30106
uz	30101
Ġshut	30099
---------	30085
Ġtransformation	30073
-(	30070
ubuntu	30068
Ġprovisions	30065
ĠLong	30065
Ġsensor	30060
Ġepisode	30048
itution	30047
Ġclimate	30018
Ġ"\	30003
ĠMs	29992
Ġapart	29986
Ġcounts	29960
dem	29957
Ġessentially	29949
ivity	29943
Men	29943
Ġmarkets	29933
Mu	29922
Ġhypothesis	29915
Ġconversion	29902
\}$	29894
Factory	29882
Ġtotally	29870
Ġtheorem	29868
lay	29851
filter	29851
ĉĉĉĉĉĉĉĉĉ	29851
Ġexplanation	29833
ĠSam	29818
THE	29813
PH	29808
vel	29807
Ġcopyright	29802
update	29799
Ġspatial	29791
Command	29790
Ġcategories	29764
fill	29757
Ġtil	29750
Ġfeedback	29748
ĠPolice	29747
Ġguidelines	29743
Ġtasks	29731
Options	29726
Ġencoding	29726
195	29715
FL	29707
mus	29701
Ġspeaking	29698
ĠCF	29695
ners	29686
Ġmaintained	29679
atory	29669
irus	29661
]{},	29658
147	29652
Ġdesire	29646
ĠCare	29641
ĠAttorney	29640
Ġchapter	29626
ength	29615
Ġregime	29615
Ġdrink	29614
El	29613
Ġdeclared	29613
Ġrecording	29602
graphic	29598
Ġultimately	29578
Ġ1996	29575
ĠDan	29533
Ġoffering	29510
Because	29506
Ġshock	29504
Ġdemo	29496
Ġraw	29494
edit	29493
Local	29490
ĠAB	29490
Ġ{}	29488
ĠChief	29469
AV	29463
Ġwonder	29446
2001	29441
Ps	29440
Ġtells	29438
Ġkilling	29430
ĠServices	29423
:=	29418
ĠHO	29418
Ġcommission	29412
ĠIR	29388
vector	29359
Ġreporting	29359
Ġrecognition	29353
Ġpreparation	29346
ware	29341
bt	29336
Ġtreatments	29333
Ġcarcino	29290
Ġpermit	29289
Results	29279
ĠHE	29279
ĠVer	29278
Ġwire	29271
ĠFour	29265
while	29261
ĠAppellant	29250
ĠCall	29249
Ġexpand	29225
2019	29223
Ġhelpful	29211
Ġ01	29204
ency	29198
ogy	29180
Ġregulations	29171
Ġnm	29170
Ġbars	29165
Ġspoke	29163
Ġrespective	29163
Ġfinds	29161
bility	29156
ĠEM	29155
Ġcurves	29137
Ġobviously	29135
upgreek	29129
Ġprinciples	29127
Component	29122
============	29107
ĠBel	29095
wasysym	29091
Ġmal	29084
Ġrequested	29083
gain	29079
ĠBlue	29078
limits	29054
Ġ\>	29054
Ġsituations	29053
Ġ"""	29052
Ġkern	29046
Ġdiscovery	29046
Control	29043
sn	29028
rated	29028
iy	29022
qquad	29010
push	28992
cise	28986
Ġmagnitude	28985
Ġ$(\	28980
Ġok	28976
Ġtrace	28974
018	28913
Ġbug	28910
atic	28902
Ġparticipate	28901
close	28894
256	28893
Other	28877
Ġlies	28871
double	28870
ĠLog	28868
yp	28860
Ġinhibit	28858
ĠSecretary	28847
Bl	28845
wt	28839
cn	28837
iff	28824
ters	28822
ync	28807
Ġvan	28804
Ġfiber	28802
021	28793
ATA	28787
Ġcrucial	28785
ĠNC	28784
ĠNet	28767
Ġuniversal	28766
Ġplanet	28763
Ġyouth	28758
None	28745
Ġcompliance	28741
Ġsched	28726
Ġtab	28721
Ġloan	28718
Ġcart	28708
ĠMicrosoft	28708
Ġphotos	28704
Ġbought	28700
args	28691
ÂłĠĠĠ	28681
rich	28680
aur	28675
Ġnumerical	28670
ĠCheck	28654
Ġpulled	28652
}+\	28651
ĠPol	28635
Ġassets	28631
Ġbundle	28626
Ġsuperior	28623
Ġcalculate	28619
Ġhappening	28609
ĠApple	28603
Ġfamous	28602
itin	28597
ĠDemocrats	28597
Ġglo	28593
Ġsetup	28590
Ġcomprehens	28590
Ġmapping	28589
ĠDonald	28579
ulated	28572
Ġsomewhat	28571
response	28570
Ġtube	28560
card	28554
Ġtranscription	28547
}^\	28540
Ġbehaviour	28534
Ġowners	28533
Ġlogic	28533
Ġarrested	28516
Ġacademic	28503
Ġprogramme	28498
Ġdoc	28494
Ġrout	28490
Ġgrade	28490
Ġenforcement	28486
Resource	28469
command	28462
Ġdrawn	28462
conc	28448
Ġrequests	28439
Ġcontents	28435
ĠHill	28424
Ġbeat	28419
Ġteaching	28411
ĠSociety	28403
Ġglucose	28401
bottom	28397
ĠMen	28396
ience	28391
icle	28360
place	28351
ĠMai	28347
hes	28333
Ġintelligence	28333
Ġpreferred	28332
Ġ&\	28332
Ġpicking	28330
rian	28315
tions	28311
Ġinfected	28303
Ġdeaths	28282
Ġmask	28270
.$	28267
Ġprepare	28251
Ġdriven	28251
ĉĠĠĠĠ	28238
ĠFund	28229
Ġweather	28225
ios	28222
Ġhidden	28222
Ġwine	28219
Ġwonderful	28212
ality	28211
two	28204
ids	28195
Ġfighting	28184
Ġenzyme	28182
**(	28180
(_	28180
Ġbun	28162
Ġcohort	28160
Ġstem	28155
Ġapplying	28151
Ġgate	28136
iu	28134
Configuration	28117
Ġvoters	28117
bd	28101
Ġshop	28097
123	28093
column	28086
Ġweapons	28055
Ġwash	28054
Ġcamp	28054
molecules	28040
Ġtract	28036
ĠThose	28026
014	28024
DP	28022
125	28016
People	28015
Ġcarrying	28006
Ġrealized	28005
otic	28004
fp	27993
ĠForm	27981
Ġspectral	27970
Ġattr	27960
Ġdivision	27955
lk	27952
Ġextreme	27950
Ġassumption	27939
ĠÃ©	27930
Ġroles	27926
DT	27924
ĠKan	27907
Ġintegral	27906
Ġpermission	27894
Ġdischarge	27893
Ġobserve	27891
ĠMake	27868
Ġreads	27865
Ñı	27858
His	27855
ĠÎ±	27851
Ġourselves	27848
room	27832
RF	27828
ĠWho	27827
trial	27825
Ġsustain	27821
Ġacids	27801
Ġvertical	27793
ĠmM	27789
2004	27783
Ġinfections	27783
''	27773
Ġsubstantially	27772
Ġbeta	27751
ĠRef	27745
Builder	27743
stream	27742
Ġregistered	27718
Ġimagine	27708
Ġinstant	27695
VER	27685
TP	27685
END	27682
Ġaccused	27672
Ġintermediate	27655
143	27652
ĠModel	27652
Ġmillions	27649
Server	27648
als	27639
ĠTen	27638
142	27610
ĠIll	27590
Ġexperts	27579
Ġconstruct	27577
Ġoverride	27570
-----------	27569
ĠRoad	27566
Ġlegislation	27560
Ġintegration	27544
Ġtone	27541
Ġpaying	27529
Ġdropped	27525
elle	27520
arget	27520
Ġpowers	27518
Ġmedicine	27506
Ġuniversity	27496
Ġcorrelated	27480
URL	27450
Ġwood	27450
Ġviral	27444
Ġration	27437
system	27435
Ġopposition	27418
ĠMount	27397
Ġdomestic	27394
Ġtemp	27383
Ġdealing	27380
urance	27372
Ġconsumer	27371
ift	27368
Ġfer	27360
ĠParis	27357
Ġradius	27356
ĠFR	27356
Ġrecognize	27345
Ġsister	27339
Ġdinner	27339
Ġ>=	27329
ĠThanks	27328
uel	27324
Inter	27324
Ġinstitutions	27317
Ġbat	27306
BB	27294
<!--	27285
phere	27282
ures	27276
Ġcars	27270
Ġpurchased	27246
Ġdocumentation	27237
Ġknowing	27230
Ġsimulation	27224
Ġreactions	27209
sen	27207
Ġrock	27206
URE	27200
Ġfeels	27198
ĠValue	27191
)}{	27187
Ġcrystal	27177
mt	27172
rium	27171
Ġcorporate	27170
ĠGNU	27145
ett	27143
ĠText	27128
About	27119
Ġstroke	27105
Ġphilosoph	27098
Ġreligion	27096
vm	27094
Ġpromise	27084
vc	27076
Ġincreasingly	27070
ĠJournal	27053
Ġsharing	27051
Ġexcited	27045
Ġokay	27041
Hey	27039
play	27034
ĠWilliam	27033
Ġowned	27021
Ġkinds	27021
uh	27013
Ġtransferred	27009
ily	27001
Also	27000
Ġsurprise	26992
Ġcomplicated	26985
Ġindustrial	26977
ipa	26973
mac	26970
ĠReal	26970
Ġsubstance	26951
ĠDep	26938
env	26936
Ġanswers	26936
Ġvictims	26927
ois	26911
Ġil	26911
Ġforming	26908
Ġoriginally	26898
ĠAmendment	26873
È±	26872
ĠDivision	26861
Ġinduction	26859
)*(-	26858
ĠMedia	26854
Ġslowly	26845
Ġextensive	26841
(*	26828
Width	26817
Ġ..	26799
zon	26797
Ġgift	26790
Ġlattice	26781
pb	26780
Ġacquired	26776
ĠTop	26770
Ġlie	26749
Reference	26741
Ġconvert	26732
Ġticket	26729
Location	26709
Ġcol	26706
ĠGame	26704
Ġspan	26693
Ġ1995	26693
ohn	26692
ĠMexico	26691
250	26686
ĠWhere	26682
Ġrestaurant	26669
Ġbattery	26664
ket	26650
Ġrisks	26638
Ġpresentation	26638
"}),	26636
Ġaddressed	26636
ĠIraq	26628
ĠRock	26626
ait	26622
Ġregulatory	26618
erc	26606
isplay	26605
km	26594
WE	26592
Ġflag	26592
Ġwinter	26591
Dev	26587
ĠConstitution	26572
Ġkinase	26567
Ġwinning	26559
Ġreviewed	26557
Ġpayments	26544
ĠHS	26544
Ġstatistics	26542
Ġfails	26530
Ġbowl	26521
Ġcompensation	26517
etic	26513
Ġresolve	26504
180	26501
Ġinflammatory	26500
Ġaudience	26482
Ġ:)	26481
Ġhydrogen	26465
offset	26458
ĠAnn	26452
Ġshell	26451
Ġmigration	26437
Ġdual	26434
ĠmiR	26418
Ġwindows	26415
Ġclusters	26403
Ġexcess	26395
$_	26393
Ġhotel	26385
bound	26378
erv	26368
pal	26363
Ġtee	26352
Ġdust	26342
mana	26338
Ġcolumns	26321
Ġ<-	26316
positive	26314
Ġflux	26313
ĠIsland	26313
ĠEvery	26313
Ġhire	26291
Ġ-\	26289
bour	26285
Description	26283
Ġtwenty	26278
Ġpy	26276
Ġrows	26274
Output	26270
Ġregardless	26266
Ġlisten	26265
Ġtemperatures	26264
ĠURL	26259
Ġchoices	26230
231	26223
ĠVirginia	26215
Ġ1980	26208
Ġfavour	26204
tok	26193
Over	26192
ĠGP	26191
Ġpassword	26189
Ġuniverse	26187
ĠVersion	26184
Ġcomfortable	26177
Ġstrip	26175
iative	26173
Ġengaged	26173
TY	26165
Ġvehicles	26161
Ġtempo	26147
Part	26145
Ġregional	26142
Ġsimulations	26137
Ġadverse	26136
Ġlip	26135
Ġbanks	26134
night	26127
AU	26127
Ġinfer	26122
Ġsurfaces	26117
Ġpublication	26112
ĠMaybe	26108
Ġcapture	26099
ĠPlan	26095
Ġcook	26094
ĠTeam	26093
ĠMal	26088
Ġentity	26081
Ġaside	26079
Ġyounger	26072
Many	26067
Ġdecade	26064
aps	26060
Ġheader	26058
Ġnavig	26043
âĢĺ	26036
cache	26033
Fl	26031
Ġguard	26020
Ġlaboratory	26018
Ġcoupled	26014
values	26012
Ġedges	26011
Ñĭ	26000
agree	26000
^,	26000
2003	25997
ĠMrs	25981
Even	25969
ĠOhio	25965
Ġann	25960
erm	25956
attr	25948
Ġstores	25947
Ġvast	25941
omic	25932
Â´	25931
Ġmutation	25921
Ġdenom	25916
Ġsubsequently	25912
ĠSel	25904
="#	25903
Ġheads	25903
ĠGrand	25897
Ġsno	25869
ĠCase	25863
ATE	25855
Ġdependence	25845
ĠAppeals	25845
Ġrefused	25843
Project	25842
00000	25839
life	25835
Ġelectrode	25832
Ġpen	25830
Ġfuck	25826
Ġbuildings	25823
Ġdedicate	25818
step	25813
Ġproducing	25812
ternal	25811
Ġcalculation	25811
note	25805
Ġhell	25805
\,\	25803
,$	25799
Ġgrounds	25799
Ġdan	25785
acing	25782
Ġsmoking	25776
cio	25775
022	25771
Ġsuffering	25769
ĠSco	25769
ARE	25749
ĠWater	25746
Ġcolors	25733
Ġstood	25732
Ġfault	25732
ĠCol	25729
Ġproposal	25723
ĠPort	25715
Ġvillage	25708
ography	25697
Ġapoptosis	25696
148	25692
Ġmagic	25682
Ġgather	25677
ĠJewish	25677
ĠMary	25675
Ġfarm	25667
Ġcorresponds	25667
gan	25660
ĠCanadian	25660
Ġkeys	25655
Ġbelief	25646
Ġstands	25642
Spec	25638
Ġaccommod	25638
Ġfacing	25631
ĠMag	25631
namespace	25615
Equal	25614
Ġversions	25612
Ġbeer	25609
ĠBush	25608
Ġwelcome	25607
Like	25603
soc	25586
ĠCarolina	25578
Ġplenty	25577
sse	25567
Ġbasically	25557
Step	25556
Ġlens	25543
Ġinvolvement	25538
Ġproceedings	25528
Ġbreath	25519
Ġphenotype	25516
Ġminister	25513
Ġlob	25510
%;	25507
-------------	25503
Ġreceptors	25496
ĠLouis	25466
--------------	25457
Os	25449
Ġprogression	25443
Ġcream	25442
;\	25438
Ġyellow	25437
Ġarbitrary	25433
before	25431
ĠRepublicans	25428
itation	25421
Ġchamber	25413
Fi	25412
ĠThree	25409
Ġinclusion	25407
Ġgauge	25396
ĠOrder	25392
Ġtheme	25385
Ġteacher	25375
ĠVan	25375
Ġdist	25372
ract	25370
Address	25366
ĠGiven	25357
Ġdrain	25353
Ġmodes	25345
ĠPrime	25345
Ġinst	25333
Ġequally	25331
Ġcoefficient	25322
Ġ103	25320
Ġencourage	25318
Ġthickness	25304
ĠRichard	25304
pass	25303
Ġ1994	25299
Ġconsumers	25298
Ġpulse	25294
Ġopposed	25294
Ġverdict	25290
ĠAustralian	25289
Ġdisclose	25286
Def	25284
Ġisland	25279
Ġsymbol	25272
Ġperforming	25272
Ġarg	25269
Ġjourney	25252
NET	25245
Ġbacterial	25242
Ġattribute	25240
Ġmoves	25236
ILE	25235
Ġrear	25225
ĠReport	25220
antic	25208
Ġdistinguish	25205
ĠVI	25198
ĠLoo	25193
Ġbin	25189
800	25179
Min	25176
Ġagencies	25176
Ġdiversity	25175
Ġodd	25168
Ġfly	25167
ĠJackson	25160
ĠJoe	25150
Ġadjacent	25145
Good	25144
Ġpregnancy	25133
Ġcontrary	25132
Ġfoods	25125
Ġrod	25122
Ġdelete	25121
2002	25115
ĠJack	25108
0002	25102
Ġengage	25100
Ġtail	25095
Ġsatisfied	25091
Ġstronger	25088
Ġpour	25077
Met	25074
Ġhonor	25068
oxy	25064
Link	25061
Ġmissed	25061
Ġbutter	25060
ĠAF	25060
ĠScott	25049
Ġassist	25045
live	25044
ĠCell	25043
Ġ130	25041
Ġcreates	25028
ĠBoo	25026
rne	25016
Ġroll	25016
ĠKey	25013
Ġdeclare	25007
cyt	25005
;</	25002
Ġpermanent	25001
Ġbulk	25000
ella	24998
Ġwherein	24998
Ġstatistically	24998
ĠMap	24998
Ġcards	24980
Ġbegins	24967
ĠNY	24964
cher	24961
cpp	24960
164	24956
Ġongoing	24946
Ġclassic	24943
Ġshares	24942
ĠError	24942
Ġintake	24938
EG	24929
Ġprofiles	24927
Ġsaved	24926
Ġthereof	24925
ctx	24924
got	24920
sys	24916
ĠYet	24910
Ġcoefficients	24907
ĠAge	24907
Ġconnections	24900
ĠMike	24900
Ġdecreasing	24896
Ġexecution	24893
Ġmarkers	24889
Range	24887
ĠNon	24874
Ġbringing	24873
}\\	24866
Ġcutting	24865
tree	24861
Ġexcluded	24854
ĠAccordingly	24845
ĠOs	24844
ĠNetwork	24842
Ġhat	24841
gger	24812
sample	24811
otype	24796
RES	24796
Ġsymmetry	24796
ove	24794
ICE	24791
Ġteachers	24775
Ġanxiety	24772
Ġvariance	24756
mathscr	24740
Ġnano	24735
ĠOh	24734
ĠThan	24727
Ġrequiring	24720
Ġsubset	24716
Ġshouldn	24711
Ġorientation	24706
each	24705
ĠReview	24701
Ġmanufacturing	24697
Ġblind	24697
Ġselling	24693
byte	24687
Ġcomplications	24672
Ġfinger	24663
Ġadequate	24662
ĠNumber	24661
ĠMiddle	24661
ush	24650
ÂłÂłÂłÂłÂł	24647
Ġextracted	24647
âĢĭ	24645
Ġtargeted	24630
ĠLy	24621
ĠCreate	24619
internal	24613
Ġevil	24613
SY	24607
ncy	24603
Ġsnap	24603
Ġlesions	24603
Form	24594
Ġinjured	24592
vt	24590
uation	24585
Ġradical	24569
157	24566
Ġeditor	24566
Ġ$-	24563
Ġhash	24560
unt	24543
Ġrobust	24540
bp	24534
ĠAmong	24534
ĠIm	24532
fit	24531
bul	24519
Ġhall	24518
Ġtrained	24514
ues	24511
ĠSimilarly	24507
Top	24502
ĠMcC	24500
Ġaudio	24496
Ġ<=	24489
{.	24487
Ġinfrastructure	24485
Core	24459
Ġ\|	24454
ĠMT	24439
Ġmetabolic	24438
DIR	24424
ODE	24414
Ġafternoon	24398
LY	24391
ĠUser	24389
sle	24387
+^	24386
Ġprofit	24385
Â²	24372
Ġbrings	24372
tx	24369
device	24367
Function	24364
ĠZi	24362
ERS	24359
}_\	24355
214	24353
Ġcomputed	24351
Ġwearing	24349
Ġconservative	24346
Ġfolder	24341
quit	24340
Ġmoments	24339
}"	24338
Ġbind	24335
ĠArmy	24328
Ġfaces	24324
Ġinstances	24318
UD	24310
ĠAction	24309
ĠIsraeli	24304
ĠNext	24302
types	24294
ML	24284
ĠMad	24284
Ġusage	24277
Ġcalculations	24273
ĠBoston	24273
Ġherein	24269
Ġarchitecture	24267
Ġreserved	24258
Ġdifferentiation	24257
ald	24248
Ġdiagram	24248
Ġtechnologies	24246
Ġactivated	24242
_{(	24241
1999	24231
empty	24227
====	24225
Ġvalidate	24223
Ġapartment	24218
aria	24216
asc	24200
Ġrely	24199
white	24194
mean	24179
Ġdecay	24160
}-\	24158
Column	24156
click	24154
remove	24135
(\[	24134
Te	24126
including	24120
Connection	24111
ĠChristmas	24110
During	24091
Ġcardiac	24089
stri	24074
Ġsuspect	24071
ĠTrue	24061
Ġ1992	24060
Ġallegations	24059
Tex	24051
Auto	24049
Ġ::	24036
Ġgel	24034
Ġresist	24025
Ġcache	24021
Ġintroduction	24020
Ġchose	24018
Ġclassified	24009
ĠDR	24008
Ġanalyze	24004
caps	23998
ĠCorporation	23997
Ġseriously	23991
ĠPage	23989
Ġordinary	23986
Header	23984
ĠAnalysis	23981
FD	23970
Ġbits	23970
Ġtape	23967
Ġrevenue	23967
rick	23964
ĠPur	23964
refer	23960
Ġdistributions	23958
Ã£o	23937
Ġgalaxies	23933
Ġaged	23928
Ġhistorical	23926
Ġvary	23925
Ġchecked	23924
foot	23922
Ġanywhere	23922
158	23914
~*	23905
Ġdiscover	23891
total	23889
Ġ128	23889
Ġpowder	23887
!!	23873
Ġsemiconductor	23872
replace	23866
Ġstrange	23855
.^[@	23852
Ġpresents	23848
,$$	23844
Ġalert	23837
Ġmut	23833
Ġreform	23832
mol	23831
ĠDespite	23830
Ġgiant	23829
Ġtheoretical	23825
Ġinstrument	23824
ĠEdit	23818
bert	23816
will	23815
hed	23806
Ġvaluable	23801
Ġperfectly	23801
plea	23800
ĠOfficer	23796
tory	23782
ĠBased	23782
Ġinvolve	23780
Ġcrew	23766
logical	23763
ĠClub	23760
ĠLast	23756
Ġdiagnosed	23755
ĠDes	23755
149	23750
ATION	23746
Ġmatches	23746
Ġimpair	23744
Ġstaining	23743
Ġmom	23741
then	23740
Ġillness	23740
Au	23732
{$	23727
Ġprediction	23716
Ġchicken	23708
Ġlaunched	23705
impl	23702
Ġincubated	23677
Ġchest	23674
Ġbytes	23673
tv	23661
Ġsec	23661
Ġkidney	23659
Ġmetabolism	23645
PCR	23640
Ġcarefully	23639
front	23629
Ġbear	23624
Ġeducational	23620
[[	23617
Ġtort	23615
Ġbridge	23612
Ġafford	23612
Ġ"/	23600
bigg	23592
Ġyesterday	23588
pf	23587
Ġstatutory	23586
gun	23584
Ġurban	23583
Ġ{{	23580
Ġdataset	23578
graphy	23547
eV	23546
Ġinsulin	23541
ĠFire	23541
Ġdism	23540
Ġcommit	23535
ĠRight	23519
Ġbreaking	23513
sts	23503
Ġwest	23500
Ġsharp	23497
ĠAngeles	23496
Ġcolour	23495
Ġ\;	23479
Ġride	23476
ĠYOU	23476
Ġhardware	23474
lab	23471
RB	23469
Ġprompt	23465
Ġthousand	23462
qua	23459
ĠWT	23456
Ġmonitor	23448
Ġpolymer	23442
Ġmil	23434
tors	23431
040	23419
Ġdrinking	23395
Ġdomains	23394
background	23391
Introduction	23380
)_{	23380
Ġdance	23380
team	23378
)),	23376
Ġsufficiently	23375
Ġreferences	23366
Ġquantitative	23363
Ġcontends	23360
Ġmild	23357
making	23355
ĠWE	23353
gist	23352
Ġloaded	23345
Ġtech	23341
fire	23323
blue	23323
ĠFROM	23317
Ġimposed	23313
Ġtoken	23300
Ġio	23289
Ġsomewhere	23283
Ġcomparable	23283
Ġdisclosed	23279
oom	23276
RK	23267
NR	23249
echo	23233
Ġcontrolling	23233
itan	23222
Ġunsigned	23196
ĠWomen	23194
rent	23193
),\	23191
,{\	23187
Ġbelieves	23187
Ġreveal	23181
ses	23180
Ġalter	23178
ele	23174
Ġtables	23173
Ġdiscrimination	23172
ĠSpecial	23156
Ġsteel	23150
Ġyields	23148
Em	23141
Ġsampling	23126
ĠImage	23126
AND	23117
Ġbehalf	23108
Ġconstraints	23106
Ġperipheral	23103
full	23100
Current	23100
ĠSpace	23100
Sup	23097
uana	23087
Ġadmission	23082
params	23078
Ġ&=	23070
what	23063
Bi	23053
ĠBritain	23052
Ġglu	23045
Ġserves	23043
should	23035
Section	23031
ĠHTML	23029
Ġbroadcast	23026
rice	23023
>.	23022
Ġholiday	23020
unit	23017
equal	23015
Ġhonest	23008
eding	23003
^)	23003
Ġpossess	23000
onal	22987
cut	22972
Ġhorizontal	22972
Ġhandling	22965
Ġmess	22964
PER	22949
Impl	22947
Ġpointer	22946
Ġcrack	22944
ĠForce	22943
Ġchallenging	22941
Provider	22939
121	22934
Ġexplicitly	22927
textbf	22918
NK	22917
Application	22916
ĠDetermine	22915
inn	22914
gov	22914
orin	22906
Ġ}\	22902
Ġgrew	22900
Ġalive	22900
uating	22897
Ġprotest	22890
send	22880
Ġcited	22879
Ġneural	22874
framework	22871
Val	22865
Ġsimultaneously	22865
appli	22857
Ġ198	22854
save	22848
Ġ],	22848
Ġabundance	22841
Ġtiming	22838
fully	22837
dk	22832
Ġ125	22828
eric	22827
install	22822
Ptr	22821
Ġalgebra	22820
ĠAnti	22802
Ġproven	22796
Url	22795
ĠYoung	22795
access	22794
ĠLand	22793
\|_{	22792
amin	22788
Ġkit	22787
ĠBow	22780
wl	22776
round	22775
"#	22774
Ġlunch	22768
Ġquiet	22767
119	22760
Ġproud	22757
Ġvariations	22756
Ġcompute	22755
ĠBefore	22755
Ġhealthcare	22751
ĠAsia	22741
Ġja	22740
Ġfiling	22740
Ġloading	22734
ĠUV	22717
address	22711
Ġ112	22710
Ġresponded	22698
Ġdress	22696
Ġamplitude	22678
Ġcovering	22677
Ġeast	22670
ĠBusiness	22668
Ġimproving	22663
vic	22660
>\	22658
Ġcopies	22650
Ġcouncil	22649
ĠTechnology	22649
Ġ140	22640
Ġfed	22637
Ġingredients	22633
Ġfewer	22631
years	22629
Ġscan	22627
Ġstrict	22616
ips	22606
Ġreplica	22604
compl	22603
ĠJr	22599
Ġadministrative	22594
Ġpenalty	22588
zero	22575
ows	22564
lish	22563
Ġapproximation	22557
310	22556
í	22553
Ġexplicit	22546
Ġassign	22540
Ġprovider	22539
eep	22535
ges	22534
hash	22533
Ġmatching	22533
Ġjump	22531
'_	22528
Ġsending	22526
Ġelevated	22525
ivers	22524
Ġiter	22524
ĠPoint	22524
Tag	22521
Ġpump	22517
Ġmovies	22512
cei	22507
)}(	22502
Ġdrivers	22500
ĠFox	22498
Ġcodes	22495
Ġnamely	22490
integ	22475
Ġfailing	22475
'),	22474
III	22468
Ġnearby	22464
instance	22463
))*	22461
ĠVA	22457
uild	22453
draw	22452
inate	22444
Ġomitted	22443
band	22442
Î¼g	22439
Ġdifficulty	22427
Ġmarker	22421
Ġ**(	22418
Ġblow	22414
ĠValley	22404
Ġgeneric	22398
Ġsignature	22390
Ġrejected	22388
UB	22386
ĠSQL	22384
Once	22383
Non	22382
Ġ),	22376
Rule	22369
Ġsubmit	22368
Ġcommitment	22364
mr	22359
files	22352
ĠCivil	22352
Ġprecisely	22351
Ġfrequent	22351
ĠIllinois	22343
Ġbread	22333
ĠChapter	22330
Ġabstract	22328
)_	22323
Ġserial	22319
Ġinequality	22317
Ġovercome	22286
Ġdivisor	22284
Ġanalog	22280
050	22278
Ġinvestors	22276
found	22275
255	22271
Ġmachines	22261
Ġrose	22254
oil	22251
ĠBest	22249
TV	22243
Ġscientists	22242
Ġnotion	22242
Ġatoms	22241
ĠRoyal	22240
Ġabsorption	22235
Ġclause	22234
Ġbuying	22228
113	22226
drop	22224
quil	22223
Ġbusy	22223
ĠBase	22221
tial	22218
Ġfemales	22216
'\	22214
_{-	22213
Ġsand	22209
ĠFar	22207
[**	22205
Ġwheel	22202
Ġcompetitive	22201
anda	22199
Ġcrowd	22193
Ġnaturally	22190
ĠFrank	22188
Ġdoctors	22177
Ġdiverse	22174
wik	22161
Ht	22159
Ġconform	22158
ĠItaly	22158
gon	22157
ĠToday	22156
Sch	22152
Under	22148
Additional	22145
ĠMichigan	22145
Mac	22130
Case	22128
Ġcareful	22124
TES	22100
NP	22093
Ġverify	22092
Ġparticipation	22091
Ġhypo	22085
Ġtensor	22081
Ġmeasuring	22079
Ġelections	22077
ĠPal	22076
osi	22073
Ġscored	22072
MENT	22063
Ġcheese	22057
Offset	22056
Ġrestricted	22055
Ġdisrupt	22030
ĠYear	22030
ĠKar	22025
Ġsurprised	22023
tk	22019
Ġcoordinates	22019
ĠArm	22016
ĠEnergy	22003
Ġadjusted	21992
Ġprivacy	21985
actin	21983
Order	21965
Ġscheduled	21964
Ġreduces	21964
Ġcable	21962
Ġembed	21958
PU	21947
sie	21946
ulti	21940
apa	21933
Ġ++	21927
Ġcomposed	21925
Ġfeelings	21923
Ġindependently	21920
ĠRoman	21903
Only	21901
Ġadds	21888
about	21883
ĠResults	21880
Ġcheap	21879
Ġka	21878
Î¼m	21876
Ġdominant	21874
ĠBY	21862
Ġenabled	21858
Ġhide	21857
Ġmistake	21856
Ġarmy	21856
Position	21855
dos	21847
Ġanymore	21847
craft	21844
Â¿	21841
Ġsuspend	21840
Ġpresidential	21839
Ġcontinuing	21839
ĠMaster	21831
ĠChris	21831
Ġskill	21823
Ġasp	21818
Ġec	21817
Ġsight	21809
Ġalignment	21805
ĠDB	21804
Ġinstallation	21803
ĠImp	21801
Ġsilver	21800
ĠSyria	21799
xt	21798
Ġsettlement	21795
Cache	21791
Ġlipid	21781
ĠMel	21778
GN	21774
'>	21770
lone	21751
vey	21741
Ġcuts	21741
ĠDavis	21740
Ġcrimes	21733
Ġ''	21732
Using	21731
Ġultra	21730
Ġsmile	21727
Ġlists	21727
ipo	21725
Ġprogramming	21724
Ġboat	21718
Ġtalked	21714
defined	21708
Ġexecute	21705
Ġcommunications	21701
Ġaircraft	21690
ĠTG	21688
Ġmanifest	21685
ement	21684
WS	21682
190	21670
debug	21669
Ġbroke	21669
Ġ189	21665
Ġgenerating	21664
ĠHD	21660
////////////////	21653
tension	21640
Ġopinions	21639
rive	21637
cam	21636
esh	21630
.]	21630
Ġyards	21628
Height	21624
Look	21620
Â®	21604
Ġexecuted	21597
ĠGla	21597
mine	21595
Ġ\"	21583
API	21581
Ġwealth	21580
ĠHave	21575
Ġlegs	21572
Ġdanger	21559
Ġshoulder	21558
Ġasc	21558
Hom	21556
gue	21554
Ġlocally	21554
Ġwaves	21553
Ġvectors	21553
ĠChem	21542
ugg	21538
Ġafraid	21537
handle	21532
family	21526
spring	21522
Ġnorm	21520
ĠAsian	21519
Ġoccurrence	21512
anti	21500
Ġpartition	21498
Ġchair	21496
Ġextraction	21495
INE	21494
ĠDate	21493
Ġrefers	21489
Ġperi	21489
Ġpriority	21487
Ġcrazy	21487
ĠItalian	21484
Ġwhenever	21483
ĠOK	21480
?'	21478
Ġsuddenly	21474
Template	21469
Ġhouses	21460
ĠRel	21450
ĠGeorgia	21448
ĠGlobal	21447
ĠPres	21444
Ġopp	21443
137	21427
Ġaimed	21426
Ġargs	21413
Ġjail	21399
Ġinhibitors	21395
Ġtaught	21385
Ġacquisition	21381
bus	21380
Okay	21374
ĠFort	21365
Ġforum	21363
ĠManagement	21354
Entity	21353
Ġstreets	21349
ĠTake	21346
Ġcultures	21335
world	21332
made	21330
Ġexpenses	21330
tid	21329
patch	21327
wd	21326
ĠAli	21318
Ġbreach	21312
ĠSource	21311
ĠRS	21302
nament	21298
methyl	21296
elf	21295
Ġvital	21291
Ġtexture	21289
Ġ600	21289
rotein	21285
0005	21281
pace	21279
Ġproduces	21279
ĠProposition	21276
pod	21273
Ġlease	21270
Ġconsecutive	21267
hop	21265
Ġupdates	21265
FU	21262
ĠRI	21261
ĠOld	21260
,[	21259
ĠTim	21257
tch	21254
Ġtelephone	21254
bind	21250
ĠStud	21245
Ġsky	21244
ĠPolicy	21240
Did	21238
\.	21234
Ġwestern	21228
Ġwatched	21228
Ġpropag	21224
Dir	21221
ĠKen	21220
Ã¢	21217
game	21210
122	21199
Ġplurality	21195
BD	21185
global	21184
ents	21184
Ġnerve	21184
ĠRights	21183
/.	21181
ship	21180
():	21178
AST	21177
mann	21172
ground	21168
Ġappreciate	21166
Ġreasonably	21161
Ġfrequencies	21152
addr	21151
ERROR	21146
Ġvalve	21146
ror	21143
Ġtrading	21138
ĠBP	21137
normal	21136
docs	21136
Ġproviders	21133
Ġ>>	21129
ĠJud	21125
Ġgraduate	21122
Ind	21121
','	21121
Ġawareness	21106
ulo	21105
Ġpsychological	21105
export	21104
Ġprocessed	21101
tg	21091
ining	21086
nz	21084
Parameter	21079
Ġlosses	21069
192	21066
email	21051
Ġleaf	21046
Does	21036
Ġpersonnel	21032
ĠNP	21031
Ġwitnesses	21023
FB	21020
Ġplates	21020
Ġimprovements	21018
Ġvertex	21015
Ġsole	21014
icity	21011
Ġdestroy	21009
Ġcrash	21004
bn	21003
___	20997
ĠSupport	20990
Ġnamespace	20988
Total	20980
Ġstruggle	20959
Ġvascular	20957
ĠDescription	20957
Ġweren	20955
Ġmat	20949
opp	20945
Ġtank	20945
ĠCap	20944
Ġattributes	20941
Ġtalks	20940
Ġvideos	20936
Ġmarks	20935
Ġfluorescence	20934
Ġexplains	20929
Ġsponsor	20924
ished	20920
Title	20916
Ġaffirm	20912
\_[	20909
Ġantigen	20902
Ġtemporal	20897
ĠMiller	20897
erh	20895
ĠLocal	20895
ĠWilson	20884
Ġtall	20883
Ġdish	20881
ĠApplication	20878
Ġcampus	20869
Ġgoverning	20860
Ġpatch	20858
Ġreturning	20851
Ġ($\	20851
fb	20833
Ġmanufacturer	20832
CV	20828
Ġinvariant	20827
"))	20813
041	20805
curr	20798
ider	20797
Ġrespiratory	20797
ups	20794
Ġinterior	20790
\>	20788
Theta	20786
Ġsoul	20784
Ġroughly	20783
Ġunlikely	20782
unsigned	20778
task	20778
Ġtele	20771
-$	20766
IX	20764
Ġpassage	20764
Ġawait	20763
ĠĠĠĠĠĠĠĠĠĠĠĠĊ	20761
Ġabortion	20755
Ġcreative	20752
Main	20751
GB	20750
Ġbuck	20750
none	20741
Ġpermitted	20737
Ġnervous	20729
Each	20724
ĠBell	20720
Ġrecipe	20714
Ġcooking	20713
Ġchecks	20713
Module	20712
ĠLine	20712
vas	20709
Ġuncertainty	20698
ĠShow	20698
Ġfoundation	20697
-*	20692
Ġelsewhere	20682
Ġcommunicate	20669
Ġeliminate	20668
Ġphotograph	20665
Ġdad	20665
Option	20649
town	20643
usual	20642
Put	20642
Ġpit	20642
Ġmodules	20642
Ġrestriction	20627
Ġparking	20627
Long	20619
bas	20616
ĠFore	20616
Ġlift	20614
Ġsystematic	20606
Ġbounded	20604
ĠRepublic	20599
Cu	20597
STR	20594
Ġcleaning	20592
Ġgeometry	20585
Ġconsisting	20583
Ġsodium	20575
}.$$	20571
Ġcycles	20560
Ġlayout	20554
ands	20551
Ġkeeps	20548
Ġ1970	20548
pat	20542
ĠMuslim	20540
Ġinvasion	20535
doi	20531
Ġutility	20528
080	20526
ema	20525
Pres	20519
rw	20516
Ġseasons	20513
Ġcontracts	20513
tray	20508
159	20508
Ġevident	20508
PG	20507
Ġpeptide	20506
tex	20505
tir	20504
Ġviolent	20503
Ġdisability	20502
Ġpig	20495
Ġalgorithms	20495
cv	20492
Container	20485
Debug	20483
Ġpaths	20480
Ġconclusions	20478
Ġaffects	20477
kle	20469
trauma	20468
utation	20463
tile	20462
Ġindirect	20459
Entry	20458
Ġhook	20454
Ġconcrete	20444
Ġoffensive	20441
nie	20433
ĠAdv	20428
'(	20424
hw	20423
Ġtheories	20420
gua	20419
Ġreject	20412
Ġmedication	20411
Ġ123	20404
container	20402
afe	20402
Ġconsiderable	20396
Ġlab	20390
Script	20382
ĠLett	20381
Ġresonance	20380
Ġreaders	20378
1998	20365
ĠBou	20361
Activity	20357
gem	20354
Ġdispute	20354
Ġonset	20350
Ġconverted	20348
ĠEt	20346
ĠFood	20343
ĠGM	20341
Ġsimpl	20339
Ġavailability	20335
mission	20332
ĠServer	20328
Ġsymmetric	20321
124	20320
Ġdoctrine	20319
thread	20303
Types	20300
ĠMax	20298
Ġstrings	20297
Ġrural	20295
Ġ(%)	20290
chan	20288
126	20287
FOR	20286
Ġmaintaining	20283
Ġhomo	20282
Ġprevention	20280
ball	20278
Wil	20275
Ġapprox	20274
tb	20271
itz	20271
Ġpushed	20265
Ġadopt	20261
Ġsauce	20259
Ġresolved	20259
Ġ187	20257
Ġmill	20256
orrow	20255
MF	20254
Ġpersonally	20252
abe	20242
ators	20240
Ġpipe	20239
Ġpilot	20239
ĠSouthern	20234
Ġaggressive	20231
ÂĹ	20225
Ġ((-	20217
stop	20214
fix	20209
Ġinteract	20203
248	20198
Ġadvantages	20195
Ġconvicted	20194
Ġ$[	20193
bly	20192
!)	20186
ĠCommunity	20183
ĠMB	20174
Ġwet	20172
osa	20170
Ġguarantee	20170
ined	20167
ĠTor	20167
Ġphenomenon	20162
Ġfired	20162
Ġmirror	20155
Ġconvenient	20154
Ġinterference	20153
ĠÐ²	20151
Ġms	20149
Ġdysfunction	20145
Ġdiscussions	20134
Ġsurvive	20129
Ġsequencing	20128
Ġlifetime	20128
Ġentries	20127
Ġownership	20126
Ġending	20123
Ġpaint	20121
Level	20114
Ġko	20113
Ġsong	20109
}}$.	20107
ĠLow	20102
domain	20095
Ġvacuum	20076
\-	20068
ĠWin	20065
Ġregularly	20061
mul	20060
Ġexclusive	20058
Ġhist	20056
ĠCross	20054
nr	20051
Free	20046
sky	20043
Ġcompeting	20041
Rec	20036
Es	20036
connect	20034
Ġsem	20027
ĠCentre	20022
Ġoperated	20018
Ġpseudo	20017
tbl	20008
ĠPut	19999
loose	19998
Ġtub	19987
Ġcomprising	19987
yes	19986
Î³	19971
Ġflavor	19970
Ġguns	19969
Ġcenters	19968
Ġthinks	19962
Ġ\-	19957
green	19949
ela	19932
Ġ113	19932
Ġliberal	19931
ĠArab	19931
Ġentering	19929
Ġfusion	19927
Ġinsist	19924
Ġfort	19923
Ġphospho	19907
Ġjudicial	19903
ĠWITHOUT	19903
wedge	19902
erent	19902
bling	19901
ĠÂ¶	19898
Ġaf	19891
Ġancient	19889
RL	19880
SIZE	19868
Ġnp	19864
Ġgovernments	19863
Ġsustained	19859
Ġdegradation	19858
Ġfalling	19857
Ġaccumulation	19854
black	19851
PB	19847
ĠDid	19846
inum	19843
ĠRob	19840
Ġsuite	19836
Ġcaptured	19834
ony	19832
ĠLove	19830
Ġtomorrow	19829
Ġsatisfies	19824
audit	19819
Ġ188	19818
Ġinvalid	19817
Ġhybrid	19803
Ġbatch	19803
ĠSpanish	19799
======	19796
ĠHenry	19796
Ġdemands	19791
Ġcla	19789
Ġsed	19788
Ġworker	19787
ĠEvent	19782
135	19777
Ġcolleagues	19777
ively	19770
Ġremoving	19764
Ġrecommendations	19755
Ġexpanded	19755
Ġdismissed	19751
ĠCook	19747
Ġcoding	19743
+)	19739
Ġadmit	19736
ĠYo	19729
Ġcos	19724
zing	19720
window	19720
Ġcoast	19720
ages	19716
Ġfalls	19715
Ġbottle	19711
Ġqualified	19710
ĠÂ°	19697
Ġincorporated	19695
ĠDer	19693
Ġ121	19686
Store	19683
VAL	19682
Ġhorse	19682
Ġworldwide	19654
DNA	19653
SELECT	19649
Ġarise	19645
00000000	19642
Ġprospective	19641
tte	19640
Ġ1989	19638
Ġmasses	19632
Ġprejudice	19630
ĠFrancisco	19629
Num	19622
ĠJersey	19621
Ġ=\	19621
Ġstations	19613
Ġdig	19613
ika	19609
multi	19605
Ġpackages	19600
Ġadministered	19600
ĠApache	19597
alen	19595
Ġsmell	19592
Ġfaced	19592
Ġassays	19583
ACT	19574
Ġexcessive	19570
stat	19566
ĠThough	19559
JS	19558
Ġbull	19551
cribe	19545
Ġscales	19544
Ġresidence	19543
Ġeggs	19534
$^{	19533
Ġseparately	19526
Ġfolks	19526
Ġdoors	19526
ĠHy	19524
Ġkm	19516
ĠPakistan	19516
cale	19515
ĠLatin	19515
comment	19514
ĠMiss	19506
fall	19503
Ġedit	19499
usa	19498
Ġstuck	19498
Ġscalar	19498
genesis	19497
Ġdecreases	19497
Ġexploit	19484
rse	19481
ĠWord	19479
ĠFunc	19479
quot	19478
Ġmortgage	19477
abl	19476
Ġcert	19475
Ġphysics	19471
resolve	19462
lary	19462
Ġprominent	19459
*]{},	19458
Ġintervals	19457
175	19456
Ġmounted	19453
mote	19452
Ġvotes	19452
burg	19451
129	19449
sus	19448
West	19443
Ġfriendly	19435
ĠMatt	19432
bot	19424
ê	19423
wrap	19422
Ġwake	19413
Ġprotective	19413
Ġtoxic	19407
Ġtargeting	19407
associated	19406
Ġ1988	19405
Ġease	19401
Ġdestination	19398
Ġegg	19391
ots	19390
second	19387
ĠMajor	19379
ĠTas	19378
Ġbeach	19376
ĠSon	19376
Ġinverse	19366
Ġaddresses	19364
220	19350
Ġger	19344
Cor	19342
subseteq	19335
$]{}	19335
Ġbearing	19315
pec	19311
Ġpromoter	19309
ĠDaniel	19304
ĠConference	19299
Ġvariants	19295
Ġbands	19288
ĠPatent	19287
MAX	19283
NM	19281
bes	19275
205	19265
Ġappointed	19265
binding	19263
Ġparagraph	19258
Ġflexible	19252
700	19249
fields	19248
border	19248
Ġconstitute	19248
Ġ+/	19248
Ġheavily	19247
Ġcoli	19243
setminus	19238
Ġpasses	19238
Ġappeals	19238
ĠET	19238
Ġ186	19237
Ġsubstit	19236
Interface	19233
ĠSL	19233
sci	19230
security	19218
ĠDefendants	19215
Ġreflected	19213
Ġlikelihood	19213
Ġexpressions	19212
ĠTaylor	19208
aha	19207
Ġexpectations	19207
Ġjuice	19204
igo	19202
ĠAuto	19199
PORT	19198
Ġinsufficient	19191
Ġinfinite	19191
Ġdrawing	19188
Ġ"<	19187
Ġseverity	19181
anth	19174
aya	19170
ĠVol	19167
Ġpace	19166
ĠFol	19166
&=&	19157
dul	19152
Ġbike	19152
Ġratios	19144
Ġvice	19142
bh	19140
Ġsuspension	19138
Ġum	19137
Ġmovements	19135
Ġsoldiers	19134
ĠSir	19131
Ġyeah	19128
Ġsolely	19127
ibly	19126
Ġbath	19126
May	19124
Â»Â	19123
Ġsimilarly	19123
Ġseeds	19123
170	19122
seq	19121
INF	19119
Ġvaccine	19117
Ġpromotion	19115
Ġconstantly	19107
Ġadvertising	19106
Ġsmoke	19104
ĠTour	19102
Ġsees	19096
}}_{\	19091
Ġrelating	19090
Ġhospitals	19086
Ġswim	19082
Ġenzymes	19079
DIT	19078
ĠDesign	19078
emia	19070
Ġbeauty	19065
regulated	19052
ĠBeach	19050
Ġanswered	19049
.(	19040
}}$,	19039
itate	19038
Ġawarded	19034
Ġrestrictions	19033
Ġfabric	19031
Ġengineering	19029
NB	19015
ĠCard	19014
Ġforest	19012
Ġsubjected	19008
Ġfeeding	19008
Ġcovers	19005
Ġmeetings	19000
ĠSN	18999
Off	18988
ĠNorthern	18987
*~*	18986
ĠGene	18985
Ġcomprises	18982
Ġdense	18980
Ġmanual	18979
abi	18978
ike	18977
Ġvarying	18976
channel	18974
ĠAcademy	18973
Ġassistant	18971
Ġdisclosure	18970
ĠAndroid	18968
ĠEA	18966
ãĢģ	18965
Ġsupplied	18957
help	18956
ĠPatients	18951
Access	18949
Ġresidual	18949
phase	18948
session	18947
Ġbeneficial	18947
NF	18946
Ġhoping	18943
ites	18940
Ġprosecution	18936
))$	18930
Ġslight	18928
Document	18927
ĠJoseph	18925
ĠMedicine	18921
Ġrape	18913
Ġflags	18912
)/((-	18905
uses	18900
Ġnations	18893
Ġenjoyed	18891
Ġaccessible	18886
Ġexempt	18885
Ġchart	18883
Ġimplications	18880
Ġlights	18872
**.	18869
Ġimmunity	18864
Ġphysician	18863
super	18857
ĠAndrew	18854
Ġtap	18850
ĠPennsylvania	18848
cript	18845
ĠIslam	18843
Ġdip	18840
Ġclothes	18830
det	18829
uy	18824
queue	18815
Ġexceed	18814
}}(\	18812
ĠIslamic	18809
Ġprivilege	18805
Ġlogical	18802
Ġages	18802
wid	18791
Ġmaximal	18789
Ġvalidation	18784
ĠCount	18782
Ġgod	18773
).$$	18770
Ġbedroom	18764
Ġsuicide	18760
ĠFBI	18759
war	18758
Ġsilicon	18751
Ġlaid	18750
stack	18748
ĠRun	18745
211	18741
ĠTan	18741
ĠTotal	18728
rating	18722
BM	18720
Ġbonds	18717
Ġcraft	18714
Ġear	18704
Ġcalcium	18702
Ġram	18701
ĠYu	18698
AGE	18695
Ġheating	18687
ĠSher	18687
Ste	18681
sens	18677
Ġstell	18677
week	18672
ĠCN	18670
ĠRyan	18658
Ġstorm	18652
colon	18650
Ġvitamin	18649
verb	18648
Ġdefines	18648
plus	18647
underline	18643
Ġknee	18638
Ġartery	18635
ember	18634
nin	18616
Mean	18616
Ġcorporation	18611
enses	18608
ĠPlaintiffs	18606
Ġranging	18602
349	18600
Ġdestroyed	18599
Ġ202	18598
153	18589
Record	18588
Ġspecify	18587
Show	18583
atu	18581
disc	18580
Ġimmigration	18579
Ġautomatic	18579
Ġdefensive	18578
ĠLinux	18576
ĠAdministration	18567
Ġpipeline	18552
ographic	18551
Ġdesirable	18548
Ġabsent	18544
SB	18542
Ġpose	18541
Ġdevelopers	18541
ĠHead	18537
ĠNR	18535
Ġassignment	18530
ĠBon	18524
ĠSteve	18513
Ġeligible	18510
Ġgrass	18498
Valid	18491
Ġarmed	18486
ĠDue	18486
Ġerred	18484
Ġaltered	18480
Ġacceptable	18478
dagger	18477
ĠEP	18474
Ġluck	18473
Ġabsorb	18472
shot	18470
Three	18470
030	18470
Ġeffectiveness	18470
Second	18462
citation	18461
280	18459
ĠLtd	18451
Ġlateral	18449
Ġesc	18449
ĠMass	18443
ĠNevertheless	18439
Ġstruck	18438
Settings	18434
ĠFollowing	18434
.),	18433
Ġunclear	18431
Ġedition	18431
Ġconsistently	18430
Ã©s	18429
ĠALL	18424
lease	18422
Ġsport	18422
Ġpreliminary	18420
Ġattractive	18418
fine	18412
Ġsessions	18408
Ġguidance	18402
Ġwound	18397
Ġmatrices	18389
ĠTHIS	18386
Ġvoting	18383
Port	18376
Ġprecision	18365
ĠWood	18361
Ġassociate	18358
cells	18356
Ġhadn	18354
Ġintention	18352
Ġâī¥	18351
Ġfacilitate	18351
Ġvisited	18349
ĠRF	18340
Ġperceived	18336
onic	18328
Ġmolecule	18324
Ġeverybody	18324
ĠPython	18324
Ġtracking	18321
Ġnormalized	18321
Ġarrangement	18314
Ġoverlap	18313
effective	18302
anno	18301
Ġregistration	18300
EST	18296
240	18283
ĠBob	18283
points	18282
Ġmetall	18282
Ġcontest	18277
Ġexhaust	18273
Ġslope	18272
ĠJim	18258
hh	18257
Ġsystemic	18253
ĠColorado	18248
Ġshopping	18247
Ġintense	18243
uer	18239
shape	18236
Ġsteady	18235
Ġmountain	18234
Ġidentifying	18233
Ġadapt	18227
ĠTown	18227
Ġbirds	18225
Ġrarely	18221
Ġruled	18217
Ġrandomly	18216
ially	18215
Ġangular	18212
perp	18209
dition	18208
Ġattended	18207
rous	18200
Ġshorter	18199
Ġpromising	18196
ĠIreland	18196
ĠFarm	18196
deg	18190
Have	18187
Load	18186
Ġchildhood	18184
Ġtransportation	18180
Ġpoliticians	18177
ĠJews	18177
rine	18175
Ġcatal	18175
rise	18166
ĠSat	18163
ĠTrust	18157
Ġsync	18156
Ġultimate	18155
Ġ119	18155
ĠUnfortunately	18153
Ġartificial	18152
east	18145
ĠArizona	18145
rows	18143
Ġ122	18142
support	18139
Ġintegrity	18134
Ġink	18130
ette	18126
Ġchemotherapy	18122
qual	18115
ading	18113
Ġwashed	18111
ĠAgreement	18109
fast	18108
Ġdeposition	18108
Ġpregnant	18103
Ġdeeply	18100
145	18088
Ġjoy	18081
Session	18080
Ġcollective	18078
Ġconcepts	18074
ĠKit	18068
Ġforgot	18065
136	18058
031	18057
GF	18049
Ġsentencing	18048
Ġdenial	18046
Ġcombat	18043
Ġgut	18035
Ġeverywhere	18028
tool	18026
OOL	18023
ESS	18016
profile	18014
Cre	18013
Ġresidues	18013
Ġpeer	18002
lian	18001
insert	18000
component	17997
emat	17995
Ġmere	17988
IGN	17987
Ġdefend	17987
vision	17986
Ġmixing	17981
ĠGrant	17981
Ġ1983	17981
Ġcallback	17980
_,	17978
Ġbuf	17978
ĠSanta	17976
Ġamended	17975
Ġallegedly	17975
Ġphases	17969
*).	17962
amine	17958
Ġprogressive	17955
ĠFamily	17955
ĠStudy	17950
rip	17945
ific	17937
enum	17937
]{}]{}	17931
ĠTax	17928
)</	17923
Ġfunny	17919
language	17918
Ġfinance	17914
Ġclosure	17911
ulator	17910
rity	17904
Hello	17902
Ġnewspaper	17900
Ġfold	17900
Rs	17899
fish	17895
Ġcomputing	17888
1997	17886
ÎĶ	17882
Ġangio	17881
ĠINT	17879
Ġloud	17874
ĠCancer	17872
eer	17869
carbon	17865
ĠWas	17863
Ġcoll	17854
Day	17851
Ġcollapse	17847
MOESM	17844
United	17842
Ġmonthly	17837
Photo	17836
Ġpacket	17833
hspace	17832
Ġutilized	17828
Ġ["	17828
Vector	17827
Ġrepeatedly	17825
Ġquasi	17821
Ġwrites	17815
Ġlegislative	17813
arse	17811
Ġlandscape	17800
ĠUP	17799
Background	17796
ĠCPU	17796
ĠInclude	17794
[(	17785
ĠĠĠĠĠĠĊ	17785
Ġintellectual	17779
Ġaccompanied	17779
ĠSeries	17773
INC	17771
Ġenemy	17771
Ġoven	17770
Ġcalm	17770
Ġcurrency	17767
eqn	17766
ĠAbout	17766
Ġsilent	17764
Ġpie	17759
Ġdisabled	17759
ĠStep	17759
HM	17758
Ã¨	17756
enden	17752
Ġlying	17751
Ġarranged	17748
Ġlabels	17745
cultural	17744
human	17742
Body	17742
Ġskip	17740
Ġviolated	17738
mM	17737
Ġmitochondrial	17723
Ġreporter	17722
Ġmel	17722
ĠJSON	17722
Ġgovernor	17719
xb	17717
Ġpulmonary	17715
Ġchecking	17708
Ġml	17707
cute	17704
admin	17702
Ġvessel	17701
AH	17697
Ġenvironments	17693
Ġbankruptcy	17693
Ġabnormal	17692
Ġdiscrete	17684
sue	17682
Ġsurveillance	17682
Ġchil	17681
ĠIndex	17679
inflammatory	17675
cancer	17673
Ġ(@	17664
Ġblame	17663
ĠBitcoin	17660
rome	17653
connection	17653
Ġxe	17653
0010	17647
phone	17645
Ġreveals	17643
Ġbas	17642
ĠHistory	17635
Ġstudying	17632
Ġlanguages	17629
flags	17625
Ġremed	17623
Ġtopics	17622
ĠSpain	17611
power	17610
Ġrs	17609
Ġreadily	17609
Ġvoted	17608
gers	17606
DH	17605
ĠOct	17605
cz	17604
Gl	17602
Ġresin	17601
prote	17596
Ġpropose	17596
Ġperception	17589
Ġrecovered	17586
Ġatom	17586
Ġsupporters	17583
.*]{}	17581
Ġ\*	17580
PF	17577
Ġmath	17565
Ġpanels	17559
Ġtunnel	17558
Ġ124	17549
tech	17544
Ġreversed	17539
ĠKingdom	17538
Ġderivatives	17534
Ġjson	17527
ĠEastern	17524
ELL	17520
ison	17517
`,	17512
Ġdoses	17512
Ġflip	17508
Ġcoating	17508
Ġdefects	17505
Ġinterpreted	17503
Dialog	17498
Ġtroops	17498
Ġcorrelations	17494
Ġputs	17492
ound	17487
NL	17485
Ġsouthern	17476
Ġtransactions	17470
\[[@	17465
Ġanchor	17461
ĠMicro	17460
ching	17459
erin	17453
Fu	17447
Ġliked	17445
lau	17442
\)	17440
Ġ185	17440
)'	17435
ĠNH	17431
Ġfibers	17429
Ġdisaster	17429
category	17427
rene	17424
watch	17422
Ġcholesterol	17422
ĠPhil	17417
throw	17413
ĠIO	17413
ĠMethods	17409
Ġwedding	17405
fly	17402
Ġwireless	17400
ĠPara	17397
random	17394
Ġairport	17392
Unit	17391
figure	17390
Ġlifestyle	17388
ĠÂĹ	17387
Ġprinted	17386
Ġcombine	17385
Ġcriticism	17382
Ġduties	17379
ĠMarket	17376
Ġ---	17375
review	17372
Reader	17372
Assert	17372
Ġax	17366
ype	17362
Ġprosecutor	17359
ĠCarl	17356
rude	17354
Ġlabeled	17351
Ġcooling	17351
Ġexciting	17344
Ġprinting	17342
Ġ1987	17342
Ġactor	17337
Ġphysiological	17333
Ġqueue	17332
Ġathlete	17328
Ġowe	17325
Ġdiffusion	17324
pma	17319
Ġrating	17317
Ġauthorized	17313
Ġexpressing	17310
tus	17309
Font	17305
Ġinfluenced	17304
Ġillustrated	17301
Ġknock	17297
ĠHel	17297
Ġassociations	17294
Ġ|\	17291
Ġplug	17291
Ġnuclei	17288
Ġdistinction	17284
Ġalum	17284
ĠPART	17284
ĠWARRANTIES	17283
Ġcourses	17281
grid	17279
because	17252
Ġisolation	17251
Ġintersection	17246
Rect	17243
Ġgenomic	17243
^{-\	17242
1995	17233
aud	17232
Ġattitude	17232
Ġloans	17229
(){	17226
ques	17223
ĠChildren	17212
hot	17208
Ġconnecting	17207
Ġinspired	17205
Ġvalidity	17201
Ġcontention	17188
ĠSupp	17174
Ġgalaxy	17172
Ġdefect	17170
)\,	17158
Ġgly	17158
Ġhopes	17152
ĠImages	17150
Ġpending	17144
Ġsomebody	17143
Ġguest	17135
ĠKorean	17134
KS	17126
plugin	17124
good	17123
Ġawesome	17120
ĠPacific	17117
DG	17112
Ġcake	17110
Ġcontacts	17109
tland	17108
Red	17104
edly	17097
Ġtolerance	17088
Ġpic	17087
^{*	17084
opera	17083
Ġdenotes	17083
Ġgentle	17080
Stat	17076
ĠCommissioner	17076
season	17074
Ġdp	17073
Ġcardiovascular	17067
ĠSpring	17063
Ġslip	17060
Ġpreventing	17059
Ġphosphorylation	17059
ĠUnit	17056
Handle	17045
uu	17044
ĠThird	17040
ĠStil	17040
Ġstabil	17039
ĠEu	17038
Ġflour	17037
ees	17034
ĠMean	17031
Ġtransmitted	17028
ĠAlex	17028
Ġcontin	17027
Ġestimation	17024
ĠAgency	17023
ĠGames	17022
Ġliterally	17021
Ãł	17015
ĠZealand	17013
news	17011
TON	17008
ĠWithout	16993
ĠAnderson	16993
resource	16991
Ġpounds	16991
RV	16988
Ġembodiment	16988
Ġswitching	16986
UND	16978
Ġmotivation	16978
fore	16974
Ġmsg	16972
âĢ²-	16971
bie	16971
Product	16960
Ġgenuine	16957
Integer	16954
Ġalarm	16946
Ġhet	16942
Ġpublicly	16938
Ġdestruction	16937
Ġovernight	16936
Ġtonight	16934
Ġgravity	16934
Ġbathroom	16933
\*\*	16927
gie	16925
enable	16925
rift	16917
Ġnose	16912
Ġ129	16912
short	16908
Ġworried	16906
Ġregulated	16906
Ġobesity	16902
rage	16901
ĠSand	16896
Ġnecess	16892
Ġleuk	16891
Ġwage	16887
Ġdifficulties	16885
Ġton	16883
cond	16882
Ġamendment	16882
Ġspell	16881
ĠRegister	16876
ĠĠĠĠĠĠĠĠĠĠĠĊ	16873
oplus	16868
Ġ135	16868
bull	16867
Ġspecificity	16864
Ġcrypto	16860
Ġdelayed	16859
vag	16854
Ġassumptions	16854
pub	16849
Ġepisodes	16848
Ġboxes	16848
race	16846
Ġfactory	16844
Ġconvent	16843
Ġunexpected	16841
Ġ&=&	16838
register	16837
Ġsearching	16836
ĠStart	16835
ĠHamiltonian	16834
rable	16833
Ġpoverty	16827
Ġfounded	16827
ĠNL	16827
fact	16824
Ġlaugh	16821
350	16813
ĠFair	16812
Ġattributed	16797
Ġbrush	16795
anis	16793
also	16787
ĠIowa	16782
Maybe	16780
Ġhardly	16775
=>	16773
tools	16770
HTML	16770
Ġdisplays	16769
Ġretail	16768
ames	16764
Ġsynthetic	16762
Ġacknowledge	16762
ĠMM	16757
Ġss	16751
uba	16750
ĠConsequently	16750
ĠDev	16748
Ġtranscript	16746
Multi	16743
Args	16743
Ġweird	16741
Ġblocked	16733
Ġcompatible	16731
Ġjustify	16730
toString	16728
Ġhits	16728
Lin	16727
Ġwing	16726
NUL	16713
Ġshoes	16709
Ġpunishment	16704
Ġgross	16702
ĠWITH	16701
Ġsilence	16698
Ġindica	16698
yme	16696
Ġbeliefs	16695
_+	16691
Sal	16689
Ġ1985	16687
wave	16680
ĠSW	16680
move	16679
Ġrip	16676
BT	16666
Ġ255	16665
glyc	16656
ĠPlay	16652
pac	16651
Ġpartnership	16651
ĠHim	16651
Ġboss	16648
Ġpleasure	16647
Ġvisits	16645
+(	16639
Ġenables	16638
Ġaffecting	16637
Ġpermissions	16636
Ġorbit	16636
KEY	16631
Ġobtaining	16631
Ġ126	16630
ĠDist	16628
ĠFord	16625
Abstract	16622
Ġmeaningful	16621
Ġtrends	16611
DK	16593
Ġkick	16586
Arg	16584
Ġdifferently	16583
pool	16581
Ġengagement	16577
ĠSaudi	16576
Ġhtml	16574
Collection	16568
soft	16564
Bio	16562
ĠFull	16562
Ġdescribing	16559
Ġdeclaration	16559
Ġbehaviors	16559
Ġscare	16558
hard	16556
Ġyeast	16554
password	16552
High	16552
ĠPlace	16550
ched	16549
Ġtradition	16549
ĠAV	16548
ĠCore	16546
Ġbreaks	16542
ians	16541
Ġfits	16541
modules	16540
Ġreflects	16539
analysis	16538
ption	16537
Ġgenerator	16531
042	16529
RAM	16528
Ts	16522
Ġdemocracy	16522
San	16521
Ġasks	16520
ĠEN	16517
Ġinnovation	16516
ager	16510
Ġdeals	16510
ĠHB	16506
ĠKur	16501
Ġweights	16500
Ġdesignated	16500
\#	16498
}})$	16496
Ġselective	16493
Ġfactual	16493
Ġunderwent	16492
Ġobstruct	16492
Ġrefuse	16490
ĠColumbia	16488
ĠMinistry	16485
Ġinterviews	16484
Ġagenda	16484
Ġkiss	16481
Ġintrinsic	16481
Ġbel	16480
$^{-	16478
Ġinvestigations	16476
Ġcommands	16474
Today	16472
rank	16469
Ġpolynomial	16467
Ġpredictions	16464
ĠWork	16462
ĠSpecifically	16456
Ġanger	16454
Ġ({	16442
Items	16439
Ġorange	16437
"",	16436
ĠJordan	16435
Ġapps	16434
Param	16433
Ġannouncement	16428
ritic	16422
Ġfitness	16412
mium	16408
Ġ".	16408
ĠĠĠĠĠĊ	16397
IST	16392
ĠTitle	16392
ĠJon	16392
Ġpassion	16388
Full	16386
Ġtweet	16382
Ġequality	16382
ĠRather	16377
Ġlistening	16373
Ġ170	16372
Values	16371
ĠClark	16371
ĠNatural	16367
Ġsegments	16364
gather	16363
ĠAward	16363
ĠProp	16361
ĠVar	16359
AX	16358
Ġweekly	16358
Convert	16355
Operation	16352
screen	16351
Ġradial	16350
Ġprescription	16343
ebe	16336
Ġfarmers	16335
door	16331
vern	16329
Ġpython	16327
âĢ¯	16325
Ġcomputational	16320
Ġvariant	16315
DU	16311
iner	16309
Ġconsciousness	16309
ĠDV	16309
Ġfocusing	16306
Ġconspiracy	16306
used	16294
Ġboundaries	16294
Life	16290
OCK	16282
Ġoli	16278
buntu	16273
ART	16270
âĢĻ.	16268
ĠSciences	16266
ĠGT	16264
++;	16261
Ġtrivial	16260
party	16257
Ġ1984	16257
Ġscaling	16250
VM	16248
Ġangry	16245
days	16235
Ġphrase	16228
Ġupgrade	16227
Ġgang	16227
Ġcomputers	16227
derived	16220
ĠMethod	16218
amo	16213
istry	16209
ĠFalse	16206
Ġadapted	16205
Ġski	16197
ĠBible	16193
Ġintracellular	16192
Ġregulate	16190
Ġphysicians	16189
Ġterrible	16188
Ġvaried	16186
Ġneglect	16183
Ġroads	16181
Hz	16179
Ġexcuse	16178
Ġheading	16173
Ġimpressive	16169
Ġchocolate	16163
Ġfatty	16159
Ġexclusion	16159
ives	16157
Ġaims	16153
Ġdeeper	16150
Ġdates	16150
_{{	16148
}$)	16147
Ġvertices	16146
large	16140
Despite	16137
TX	16134
Ġindices	16134
Ġ"-	16133
ĠJun	16127
Ġsettled	16123
Ġfunded	16116
.:	16114
Ġ{@	16112
ĠDocument	16112
Ġimpression	16110
ĠAdam	16110
Ġperiodic	16108
sort	16106
Ġclip	16106
Ġrestaurants	16104
Ġnegligence	16102
ĠHor	16101
Ġpathogen	16100
ĠNat	16100
energy	16098
Ġpeaks	16096
Ġracial	16091
Ġinterfer	16086
Ġlimiting	16083
Ġfounder	16083
Ġmature	16079
"));	16078
Ġchains	16077
Ġabs	16076
Ġmood	16074
Ġhone	16074
Ġquantities	16065
ament	16064
Ġepithelial	16064
Ġbelt	16058
Ġmagazine	16056
Ġfingers	16055
ĠNode	16048
activity	16044
Ġsatisfying	16043
erb	16042
Ġscoring	16041
Ġcatalyst	16037
Ġmatched	16034
ĠJul	16030
erl	16027
Ġconsensus	16027
Ġsucceed	16025
ĠSelect	16023
Ġfatal	16020
ician	16016
Ġproposition	16014
Ġbreakfast	16011
simeq	16007
ĠPass	16007
cases	16001
ĠSky	16001
Ġchoosing	15997
Ġnov	15996
ĠColor	15993
Ġdollar	15986
Ġvulnerable	15985
()->	15977
Ġlawsuit	15977
Identifier	15975
.).	15975
Ġrescue	15972
Ġmanually	15972
condition	15971
Ġconfident	15970
Ġdeserve	15968
ĠDH	15968
Ġdamaged	15965
Ġwondering	15963
ĠFactor	15960
Ġcoal	15959
Ġpreferably	15958
bibr	15957
Ġlikes	15946
Ġassemble	15941
Ġstrictly	15937
ĠProfessor	15937
Ġrepresentations	15934
Ġrevolution	15933
Ġreply	15933
_(	15932
Ġtied	15932
ĠCoast	15916
Params	15910
Ġsupplies	15909
Ġ05	15906
Ġshots	15904
Ġcone	15903
Ġbelong	15903
Ġlegitimate	15892
ĠArea	15892
)^{-	15887
uous	15886
stage	15876
Ġisolates	15876
ĠIB	15875
Take	15862
RAN	15852
trix	15848
tip	15847
Ġpushing	15843
Ġbrew	15842
ĠAngel	15837
Ġbehavioral	15836
Ġions	15832
Ġvisitors	15827
Ġbounds	15827
FLAG	15823
171	15823
Root	15822
Ġbills	15816
Ġ$.	15816
azi	15814
;">	15813
ĠParliament	15809
152	15808
Ġreputation	15808
Ġquote	15805
Ġentities	15803
ĠMinnesota	15801
too	15800
185	15798
Ġobjection	15798
Ġviruses	15797
Ġcontend	15797
Json	15794
nou	15790
fx	15789
ĠSk	15786
ester	15782
Ġinspect	15781
ĠCommonwealth	15778
ĠTurkey	15777
Ġyours	15774
Ġxmlns	15769
Ġdimensional	15769
Ġ$${	15769
dian	15765
Ġspray	15762
ĠSoviet	15761
tÃ©	15760
person	15759
024	15759
ĠFisher	15751
IONS	15750
obi	15747
Discussion	15745
switch	15744
ĠStephen	15742
aving	15740
Ġrestore	15733
Et	15732
Â³	15729
connected	15727
Ġexclude	15724
Ġbaseball	15724
ĠHarris	15721
_>	15718
165	15717
Ġpill	15717
Ġemerging	15715
222	15714
Ġnucleus	15714
Null	15713
Ġhealing	15711
Ġyo	15710
Ġequipped	15709
="@	15707
fail	15706
Ġposterior	15706
transform	15699
Author	15699
Ġtrail	15698
ĠHard	15695
026	15693
ĠTNF	15691
Ġbirths	15690
ĠLas	15684
idx	15680
Ġinquiry	15678
python	15673
ĠGaussian	15672
'"	15670
ð	15668
Ġcavity	15666
Ġfranchise	15665
Ġmembership	15664
ONE	15660
Ġpocket	15658
Ġdebtor	15657
ĠHTTP	15657
Ġdeficiency	15654
ĠTry	15653
Ġsensors	15652
Pan	15651
Ġpreserve	15651
Ġurge	15650
ĠCambridge	15650
Ġ134	15649
Ġtoxicity	15647
ĠLewis	15647
Ġterritory	15645
Ġcertificate	15645
Round	15642
Ġoxidative	15635
Ġsingular	15626
ĠAssembly	15626
plot	15625
Ġvessels	15623
Ġinvited	15622
Ġarrive	15622
ĠMoore	15620
Ġplatforms	15617
Ġauthentic	15616
Ġpromised	15613
video	15611
gio	15610
>();	15610
Ġtired	15610
ĠSm	15610
Ġinspection	15603
Ġsaving	15602
Ġextending	15602
Process	15601
Ġdefining	15597
Ġmuscles	15596
Ġmodeling	15596
Ġodds	15595
away	15592
,_	15592
ĠMAP	15590
Ġparticipated	15588
ĠFT	15588
Ġagreements	15582
aq	15579
Ġtur	15579
Ġ\_	15579
ĠBrazil	15574
Ġstrategic	15571
ĠLive	15566
Ġinflation	15564
Ġmad	15557
enced	15556
Ġinjected	15548
Ġpoi	15544
btn	15543
ĠYeah	15543
Ġpointing	15541
Ġaccurately	15536
270	15535
Ġtransit	15535
ĠProperty	15532
ĠĠĠĠĠĠĠĠĠĠĊ	15532
ĠVietnam	15531
General	15527
Ġencounter	15526
Ġopens	15521
Ġsuspected	15518
138	15513
Ġestablishment	15510
ĠAccess	15507
Ġsuck	15502
Ġregarded	15501
Ġgrateful	15501
ĠMas	15501
Ġcortex	15500
ĠIndiana	15493
Proto	15492
Ġdivorce	15490
Ġtalent	15488
ĠAfghanistan	15488
4000	15482
Ġexpense	15480
Ġdest	15479
ĠException	15469
033	15468
Ġbird	15468
eut	15466
}}=	15463
pers	15461
Ġresistant	15458
ĠToronto	15455
ĠUnless	15454
Ġscroll	15451
Ġdecent	15451
Ġ184	15451
Ġstayed	15450
ysis	15444
Ġcomply	15444
ĠDefense	15444
Ġpublish	15437
Ġresort	15434
Ġreliability	15434
Ġconstructor	15432
century	15431
Ġpromoting	15431
Ġ<!--	15429
Ġnarrative	15427
Ġeth	15427
degree	15426
Ġdict	15420
Ġarising	15419
Ġcomparisons	15416
ishing	15414
Support	15414
Ġelectrons	15414
ĠRound	15414
sz	15408
ĠWay	15408
Ġfake	15407
ĠFM	15406
Ġresident	15404
Ġanalytical	15401
ĠFather	15401
kan	15400
Ġendothelial	15400
Ġelderly	15399
HF	15392
ĠJS	15390
Ġ1981	15389
Ġplugin	15386
Ġadjustment	15386
Ġ-------	15386
Ġenergies	15375
Ġemphasis	15375
[-	15368
>)	15368
Ġpersonality	15367
zed	15365
area	15364
ĠLibrary	15360
Ġdemonstrates	15358
Ġgranul	15349
Ġspots	15344
compar	15343
1992	15343
Ġpotent	15340
ĠDaily	15339
Ġlys	15336
Ġaffidavit	15336
Ġexisted	15334
CONFIG	15333
Ġarrival	15333
NU	15330
Ġthreats	15330
Ġuptake	15329
Ġ136	15327
gli	15321
Ġdefinitions	15316
ĠEL	15315
Ġrib	15314
Ob	15312
Ġvariability	15305
Ġdistances	15304
Helper	15302
zone	15301
ĠHouston	15301
Ġvisiting	15295
ĠSports	15295
oct	15294
Ġdocumented	15291
ĠSystems	15290
ĠDam	15290
ways	15289
ANT	15285
ĠPath	15279
Icon	15272
Ġlands	15265
ĠNick	15265
156	15263
Ġwarranty	15257
ĠFac	15257
Ġ***	15255
Ġsatisfaction	15253
Ġlibraries	15244
inner	15242
Ġappellee	15242
ĠUs	15242
1991	15241
Media	15231
Ġquit	15223
Jun	15222
Ġsacrifice	15221
Ġconfusion	15219
mia	15216
Ġcomplaints	15214
Ġheaded	15212
Ġranges	15209
Ġ1960	15206
Based	15205
Ġwrap	15205
player	15198
Ġnitrogen	15196
utils	15193
Ġinputs	15191
ĠSpr	15182
ĠQueen	15177
ĠChristians	15176
Ġalongside	15173
attribute	15165
Ġthirty	15165
nutrients	15162
ĠLittle	15159
Ġemerged	15155
Ġdental	15155
keys	15149
ols	15146
Ġsurprising	15144
sun	15140
hai	15139
joint	15138
_-	15136
ĠTre	15136
Ġblot	15134
Bel	15132
Ġinstruct	15128
Ġcapabilities	15128
Ġsuggestions	15127
Ġhero	15127
Ġdenying	15127
court	15120
Ġbench	15120
atch	15113
ĠInterestingly	15111
ĠHeat	15107
Ġmerc	15104
$).	15103
Ġbasketball	15096
Global	15094
ccess	15093
Ġparticipant	15092
$_{	15090
Ġfaculty	15087
ĠNations	15087
Ġfulfill	15085
rite	15082
Ã©e	15080
ĠCV	15078
filename	15074
Ġdecimal	15074
"?	15067
ĠHz	15067
Ġinduces	15064
Ġ).	15064
Close	15056
Ġtear	15055
ĠLeon	15055
Ġ800	15047
MAP	15046
Ġhosts	15045
Norm	15044
Ġoccasion	15043
PLE	15041
Mc	15041
028	15037
Ġsigning	15035
ĠCt	15033
Both	15032
825	15032
10000	15032
Ġwinner	15032
oline	15030
Ġcollaboration	15030
Diff	15027
Ġvirtually	15020
Properties	15017
Ġstomach	15012
News	15011
Ġatomic	15009
'-	15003
World	15002
callback	14996
âĢ¦.	14995
ĠDP	14993
Doc	14991
ĠTro	14990
ĠEric	14988
Ġmag	14986
eon	14985
POST	14985
ĠPrice	14982
MN	14977
ATT	14977
Ġclaiming	14975
ancing	14973
Ġwelfare	14971
'],	14969
icing	14968
Ġcorn	14968
onder	14961
FIG	14958
elli	14957
Ġapi	14955
Ġrespondents	14946
Ġcoronary	14945
Ġ``	14930
pher	14928
Ġinterpret	14927
Ġblocking	14927
Ġlongitudinal	14926
`.	14917
âĦ¢	14916
Ġfrozen	14916
Thus	14914
Ġconstraint	14914
ĠDL	14911
ĠJi	14910
*(-	14907
ĠGas	14905
Ġmas	14904
Ġlocked	14904
Ġtransformed	14901
ĠSpec	14901
Ġprotocols	14900
Ġbleeding	14898
utt	14890
Tran	14890
Ġchances	14889
Star	14888
Jul	14886
models	14885
Ġrecurrence	14885
Display	14883
lun	14877
ĠNM	14877
Ġaffirmed	14876
Â¤	14866
Ġhistoric	14866
ross	14861
ĠIgG	14857
ector	14855
expected	14849
Ġdecomposition	14847
Delete	14845
Ġwavelength	14844
Ġcultured	14843
Ġdrama	14842
Ġsudden	14841
Ġsubgroup	14841
Ġconstants	14841
Ġasset	14839
ĠShould	14835
Ġshortly	14832
actor	14830
Widget	14828
Ġwins	14825
Ġshower	14823
ĠSort	14820
Ġshaft	14819
Ġcircular	14817
outs	14810
uil	14807
ĠStore	14806
Ġtimely	14805
ĠContent	14805
Ġdonor	14804
Ġdetermines	14804
opic	14803
twin	14802
ĠWis	14801
ĠPy	14801
cours	14800
Panel	14799
Ġdistress	14799
ĠChen	14798
Ġtracks	14794
Ġappreciated	14792
161	14789
Ġappointment	14789
Ġsolved	14787
Ġenterprise	14781
ĠND	14777
READ	14776
Ġboil	14771
ĠTHAT	14765
linux	14761
Ġcookies	14756
Ġrail	14754
Ġlocalization	14754
Thu	14753
Ġthrown	14752
pair	14749
agen	14749
Ġgray	14749
Math	14745
Ġoptional	14745
ĠHP	14742
ĠOb	14741
ĠPhoto	14740
CRE	14732
Ġpostoperative	14732
ĠBlock	14731
Âĳ	14726
ĠAllen	14726
Ġthreatened	14724
Ġheaven	14721
Ġmemories	14717
ncing	14711
ĠDisease	14709
Ġstimulus	14707
Space	14706
Ġcustody	14706
Ġ1982	14705
Ġstriking	14695
Ä±	14693
ivar	14685
Ġnurse	14681
ĠWatch	14681
ĠFeb	14675
Every	14672
Ġcancers	14672
Ġwise	14668
ĠFS	14667
IZ	14666
Ġflood	14665
epa	14661
Ġmothers	14661
Ġinstruments	14660
Ġblank	14660
cious	14656
SQL	14656
Ġcircuits	14656
Ġflying	14655
orm	14654
ĠHoly	14653
ĠFinal	14651
FM	14648
ĠMayo	14646
Ġtags	14644
imple	14641
Stop	14641
ulture	14632
dst	14632
Ġartist	14628
eT	14623
Ġtriple	14622
Ġdamn	14620
Ġliable	14616
Ġalbum	14616
Ġshelter	14615
Ġchallenged	14613
ĠFilm	14612
pane	14609
lower	14607
WH	14606
Ġdump	14606
Ġeveryday	14604
Ġcomplain	14604
Ġentrance	14603
ĠEnter	14598
Ġtraits	14597
ĠDifferent	14597
Definition	14594
ĠMus	14592
139	14588
Ġgrave	14587
ĠWel	14587
Ġsue	14576
Ġconserved	14576
Ġinches	14575
sensitive	14569
Ġconvergence	14569
Ġdispersion	14567
Ġvegetables	14566
Ġdried	14566
Ġwaters	14564
Ġmathematical	14564
ĠTT	14564
Ġresidential	14563
Ġflows	14559
Ġbelongs	14559
ĠÎĶ	14554
Ġstained	14554
west	14548
vee	14547
ĠAlb	14547
uid	14546
hbar	14544
ĠOUT	14542
ĠCast	14539
174	14537
Ġsatellite	14536
Ġviewing	14533
ĠWisconsin	14533
ĠInst	14532
Ġshake	14530
Ġmining	14530
.\[[@	14528
Â£	14527
Ġphoton	14525
Ġadaptation	14522
ĠEli	14521
ĠCamp	14521
Ġminds	14517
Ġseats	14516
ception	14515
Ġgraphs	14515
Real	14511
sid	14510
semi	14510
Common	14509
cks	14504
Ġasthma	14502
ĠXML	14502
âĢĻ,	14499
Ġexclusively	14499
sex	14498
Ġgradually	14496
176	14495
Ġreconstruction	14495
Parent	14494
ĠMis	14487
Ġprevented	14485
Ġjournal	14485
handler	14483
selected	14477
settings	14476
ĠABC	14475
Ġlady	14473
Ġconcur	14470
Ġinsertion	14468
Ġflowers	14468
Ġconjug	14466
ĠUSE	14466
rx	14460
WORD	14460
Ġwidespread	14456
)^{\	14453
Ġgeneralized	14453
Ġsimilarity	14450
Ġestablishing	14449
ĠEi	14445
Ġconfused	14444
ĠKal	14444
standing	14443
ĠâĤ¬	14443
Ġbore	14443
Ġmaternal	14441
Ġactors	14441
economic	14439
Ġrespondent	14434
Ġjoining	14433
FONT	14427
three	14424
ĠHF	14424
Ġstating	14419
Ġindependence	14417
Ġfilters	14414
Ġachievement	14413
Ġmethylation	14410
tea	14409
rolled	14408
[*	14407
ĠDoc	14405
Ġbelonging	14404
ĠKelly	14404
Ġknife	14403
Ġdescending	14398
prefix	14397
Ġreplied	14397
Ġarr	14396
Ġgrip	14392
Ġfiscal	14392
Ġbarely	14389
179	14387
ĠCooper	14384
ually	14383
Ġcompression	14383
PK	14382
Ġcrop	14382
Ġacceptance	14382
names	14380
Ġspit	14380
YS	14379
Ġblast	14378
Ġscenes	14377
solid	14375
Ġseeks	14368
Enabled	14363
spin	14360
Ġanterior	14360
ĠSTATE	14360
Ġguests	14357
osure	14355
ventricular	14353
Ġloves	14353
ores	14350
Ġmyth	14350
ĠSometimes	14350
ABLE	14348
hydroxy	14347
Ġmotions	14344
âĢĶâĢĶ	14343
elt	14343
ories	14340
ĠGB	14340
Ġsymbols	14338
Ġocean	14338
Ġscholar	14336
Ġbomb	14333
Ġquestionnaire	14332
UV	14328
203	14328
ĠChange	14326
Ġhop	14325
aver	14324
Ġanimation	14322
printf	14320
Ġsalary	14320
Ġsake	14320
Ġplacement	14319
ĠKansas	14314
URI	14313
=$	14310
Ġincredible	14309
Ġdeletion	14309
PATH	14308
gif	14307
Ġprescribed	14304
Ġcapability	14304
ĠContin	14304
ĠBrian	14304
213	14303
Ġlig	14303
Ġcanonical	14301
Wait	14297
enic	14295
ĠReturns	14287
Parameters	14285
Ġprocessor	14284
Ġdramatic	14284
Ġxml	14282
vein	14278
Ġnucle	14278
mass	14277
Ġdating	14275
184	14272
TEN	14271
Layer	14264
Ġmanaging	14263
Ġunfair	14262
Ġcontroversial	14261
Ġshed	14259
Ġattorneys	14255
Ġbriefly	14251
Ġspokes	14249
Ġlean	14244
!!!	14238
calc	14235
schema	14233
awn	14226
stone	14222
Ġcylinder	14219
ĠNature	14217
Super	14215
ĠHon	14214
Ġov	14211
Ġindictment	14211
Ġae	14211
ĠMassachusetts	14209
Ġacknowledged	14206
Ġcocaine	14205
Ġemissions	14204
ided	14201
="{	14198
Ġpeptides	14197
Ġviolations	14196
aint	14194
CHAR	14192
ĠProcess	14192
ĠPay	14191
Ġpartly	14186
ĠGE	14184
Ah	14182
Ġsurely	14181
Ġoffices	14174
ĠOrganization	14174
ĠCNN	14174
Editor	14170
Ġethnic	14170
Ġsubsid	14167
Ġdietary	14166
ĠTel	14165
Ġempirical	14160
Ġundergo	14159
Ġprotecting	14158
)},	14157
Ġstyles	14157
Ġletting	14152
ĠRest	14150
ĠMuseum	14149
ĠCorn	14149
Ġparticipating	14147
mind	14141
Ġacquire	14140
Ġsavings	14138
Ġinvestigating	14138
stic	14136
$^	14131
Ġconservation	14131
Ġscrew	14128
Ġprovince	14124
Ġrom	14123
disable	14121
bytes	14120
ational	14115
Ġunnecessary	14113
Ġfelony	14110
ĠAug	14107
ancies	14106
shin	14098
rue	14092
Ġmediated	14090
ĠSyrian	14088
ĠPlus	14087
ĠCome	14087
ĠGil	14086
Ġrevision	14085
Ġadvised	14085
ĠGraph	14081
Ġrepresentatives	14076
pes	14075
Ġtherein	14074
Changed	14069
182	14069
Ġ145	14066
ĠGOP	14060
standard	14059
ĠPub	14057
Ġaden	14056
Appellant	14055
Ġcancel	14053
operative	14051
Ġcontra	14051
Flags	14046
ĠStation	14044
Ġmodifications	14043
rist	14039
Ġoutstanding	14022
println	14020
Ġplots	14018
Ġphenomena	14018
Ġtutor	14017
Ġcopper	14017
Ġduplicate	14014
Ġremarkable	14013
Ġmembranes	14013
ĠTrade	14013
~-	14012
Ġparams	14009
Ġlovely	14009
wen	14008
chl	14007
History	14006
bal	14005
five	14003
Ġinject	13998
Ġcooperation	13998
ĠKong	13998
ĠKevin	13992
shaped	13990
Ġ138	13990
.",	13989
Ġpc	13986
Custom	13984
Ġwarned	13984
Ġ]{}	13982
Ġelectrodes	13976
Ġemotions	13973
cong	13972
Ġsentences	13966
Cons	13963
Ġconfigured	13963
ody	13962
Ġimpaired	13962
Ġoutbreak	13960
guid	13957
Ġanal	13956
enter	13954
Bytes	13953
Ã§	13952
fan	13948
ĠRon	13947
ĠBMI	13947
Ġlucky	13946
Ġgit	13946
ride	13944
Ġrect	13942
Ġnursing	13939
Ġactively	13938
Ġmate	13935
ĠIrish	13928
Ġesse	13927
Ġdebut	13925
Ġqualitative	13924
Ġlisting	13921
Ġ137	13911
Ġsecretion	13910
037	13907
ĠHotel	13905
results	13904
ĠKeep	13903
Ben	13899
Ġemerge	13896
}$-	13893
Ġaccomplished	13893
Save	13892
users	13891
ĠAvenue	13890
thumb	13889
ply	13886
Ġrings	13886
eck	13885
Ġmesh	13883
Ġdecor	13883
ĠDrug	13883
Ġrevise	13882
Ġrelate	13880
lly	13879
ĠUkraine	13875
uple	13871
ĠSix	13871
Ġwider	13870
ĠSeven	13870
Ġorbital	13865
Ġencouraged	13863
mir	13861
risk	13860
Ġintestinal	13858
ĠMars	13858
Ġcorruption	13851
voice	13850
Ġshipping	13850
Ġinitiated	13846
asing	13845
Ġdot	13845
Ġlogo	13844
Ġinfants	13844
gate	13840
Ġmutual	13839
square	13837
Ġrelies	13832
mapsto	13819
Active	13813
ister	13811
Ġposting	13811
Ġreasoning	13810
Ġsecretary	13809
Ġpositively	13807
Ġgenerations	13807
Ġcircles	13807
Ġbold	13806
ĠManager	13803
metadata	13801
Ġbirthday	13798
PV	13797
zh	13787
038	13787
herent	13786
Ġexplored	13786
AMP	13785
Given	13782
Ġslide	13780
Ġfiring	13779
Ġstops	13778
ĠColl	13777
Ġanalytic	13776
displaystyle	13775
Ġgraft	13774
Ġdominated	13774
ĠMemo	13773
Ġ350	13772
![](	13766
Ġstudio	13766
Ġshade	13763
Ġaccomplish	13761
Ġimportantly	13760
ĠATP	13758
Ġelastic	13757
bid	13756
phenyl	13752
Adapter	13752
)*-	13743
225	13741
Ġshame	13741
library	13734
LICENSE	13734
-+	13733
>>>	13732
Ġpermits	13730
Ġbes	13730
Ġsep	13729
ĠAsh	13726
ĠFuture	13723
Ġtie	13722
Sy	13721
ended	13719
Ġbrothers	13719
ordinary	13718
Ġscratch	13718
)}{\	13715
Ġsquad	13713
Ġmerge	13712
Ġinstitutional	13712
Ġfirms	13707
zip	13704
speed	13704
phys	13701
rer	13700
Ġfantastic	13700
ĠLabor	13700
===	13699
Ġcontinuously	13699
Ġmerit	13698
ĠShort	13698
Ġgains	13694
Ġethical	13694
nity	13693
Ġlesion	13692
Lock	13688
ĠEgypt	13688
}}^{\	13685
Ġupcoming	13685
ĠRose	13682
Db	13681
ĠBBC	13681
ĠMerc	13676
Ġconflicts	13675
ĠMaryland	13672
nda	13671
Ġdownstream	13665
Ġconvinced	13660
Ġprofits	13659
relevant	13657
Ġtender	13657
Ġexpertise	13650
Microsoft	13648
Ġmayor	13647
ĠGovernor	13644
Ġquoted	13642
PY	13640
ĠNavy	13638
eom	13637
332	13628
Ġ1979	13621
ACE	13620
mental	13615
ĠTele	13612
Ġfluctuations	13610
Ġwebsites	13609
INI	13606
Ġbags	13605
Ġcausal	13595
would	13594
ĠDT	13594
ĠSummer	13588
Ġfeatured	13587
Ġamp	13587
Ġscanning	13586
Ġdatasets	13584
Ġethanol	13583
ĠSanders	13583
Ġdeduct	13582
Ġburning	13582
tron	13578
owned	13577
dated	13572
Ġpainting	13566
Ġguaranteed	13564
Ġdrives	13560
Ġediting	13558
Ġeu	13557
Ġarb	13557
Ġantenna	13557
ĠPerform	13557
Ġfilename	13554
Ġdevelopmental	13554
Methods	13549
Ġchampionship	13548
ante	13546
Ġcontemporary	13546
ĠÂ»	13544
Ġtopological	13543
reen	13535
Ġvanish	13534
Ġterrorist	13534
Ġretro	13534
sea	13532
Ġelite	13531
Ġbackup	13531
bee	13529
Ġstimuli	13529
ĠOregon	13529
Ġcytokines	13528
Ġconsistency	13528
---|---|---|---	13524
Ãº	13522
ĠNothing	13517
ĠCollection	13517
Ġconditional	13515
Ġtobacco	13511
Ġchromosome	13511
191	13510
izations	13506
Ġindicator	13506
Ġmodulation	13500
Ġaccounting	13494
Ġaffinity	13493
ÂłĊ	13491
words	13491
ethyl	13488
ĠSol	13487
Ġwriters	13485
XX	13484
Ġfate	13482
Ġrental	13475
ĠPrince	13475
Ev	13474
ĠGuide	13472
Ġmacrophages	13471
half	13470
Ġreaches	13469
Ġdeposit	13469
Release	13468
0000000000000000	13468
Ġought	13467
ĠMessage	13464
ernal	13463
Ġscrap	13463
share	13461
Ġclothing	13461
Ġmanifold	13460
Ġsettle	13453
Ġconsisted	13451
ĠHong	13451
ĠVictoria	13450
ĠKIND	13447
Ġoz	13443
Ġlacking	13442
ĠRoss	13441
ads	13440
Ġovert	13439
ĠClick	13438
Ġnit	13436
uary	13434
Ġentertainment	13434
Ġexpectation	13430
Ġsolvent	13428
Ġsyntax	13424
react	13423
051	13423
ĠClinical	13423
ĠAle	13414
chemical	13412
$;	13412
ĠJeff	13408
(:	13406
yin	13404
Ġgenerates	13404
Network	13402
Ġtrailer	13402
Ġasymptotic	13402
Ġtemple	13398
Match	13393
Ġoccupation	13389
TIME	13388
Ġproxy	13384
ĠVP	13379
chu	13377
chen	13377
Ġ139	13375
ĠIl	13373
Ġ181	13371
Ġmedications	13370
properties	13369
Ġtackle	13369
Ġsubstances	13367
EU	13365
ĠRM	13363
ĠLeft	13362
Ġdear	13356
Ġcorrected	13356
183	13352
Ġcarries	13352
Ġenormous	13351
ĠHaving	13351
ĠKas	13350
ĠMuslims	13348
ĠInit	13347
Binding	13346
Ġhr	13345
Ġ(_	13342
ĠRam	13335
xff	13334
cluster	13333
Stor	13332
Ġtooth	13332
ĠHarry	13328
Ġservers	13327
Ġreplacing	13323
ĠShare	13323
221	13322
Ġdistant	13319
Video	13318
ĠResponse	13317
ĠLevel	13317
containing	13316
Ġtowns	13316
ĠScientific	13316
Ġplacebo	13313
Ġhighway	13312
)})	13310
apply	13305
Ġantioxidant	13305
due	13303
ĠTea	13300
Ġpest	13298
Ġspinal	13292
fm	13290
Ġdensit	13288
scriptstyle	13284
Ġdreams	13284
Ġconscious	13282
prise	13281
complete	13278
Ġreporters	13276
===========	13272
DX	13268
ĠCole	13267
ĠSign	13266
Ġdye	13265
cost	13261
Ġpainful	13257
Ġentropy	13257
}^*	13255
wire	13253
Ġ1977	13250
Ġscenarios	13243
ĠCent	13241
Ġcontributing	13240
ĠArg	13231
ĠMonte	13228
Ġgastric	13227
ĠTal	13225
Ġexceptions	13223
Ident	13222
sting	13220
ĠHillary	13219
ĠPV	13217
Ġshifts	13216
Ġships	13214
occup	13212
ĠHollywood	13212
:[	13210
ĠTer	13207
diag	13201
ĠAU	13201
Ġarchive	13199
ĠThin	13199
Ġschemes	13191
emit	13190
Ġstraightforward	13187
Ġtendency	13182
Factor	13178
ssl	13175
Ġpossibilities	13175
Ġguilt	13170
ĠMiami	13169
ĠSimon	13168
ĠARE	13168
Ġbroader	13167
1987	13166
Obj	13164
Fs	13161
Ġpoorly	13159
ï¼ļ	13155
White	13154
lite	13153
dL	13153
ĠFred	13148
Ġbegun	13146
Ġcharacterize	13145
Ġallele	13145
both	13143
Ġ'/	13143
Ġpresenting	13141
Ġporta	13139
Ġfitted	13135
ĠPhiladelphia	13134
ĠMU	13134
wort	13131
VERSION	13131
Remove	13131
ĠAlabama	13131
036	13128
1985	13124
Ġdeck	13124
Ġencountered	13119
Ġchairman	13119
Ġdetecting	13118
ĠOklahoma	13116
Ġlawyers	13114
(!	13113
ĠTy	13112
ĠCells	13110
ĠLLC	13109
Ġnoting	13106
Ġdesperate	13102
XXX	13100
Ġsurf	13098
Ġneuronal	13098
ĠLanguage	13098
job	13097
Ġroyal	13096
Ġ1978	13096
Ġkg	13094
Ġcompiler	13091
fil	13090
Ġincubation	13090
ĠSimilar	13090
wait	13089
Ġcurvature	13089
ĠRab	13089
ĠMatthew	13086
Ġwanting	13085
Ġanalysed	13085
Ġenv	13084
Ġinvasive	13083
ĠCSS	13076
jet	13075
EY	13075
Ġflower	13075
Ġindividually	13074
role	13073
Ġfishing	13068
Ġsphere	13065
Ġamid	13065
Ġinconsistent	13062
-.	13061
Ġoccupied	13060
TING	13058
"],	13056
ĠCommand	13056
ĠElement	13055
(@	13054
;;	13052
Ġpivot	13050
Ġessay	13050
Ġrack	13049
Ġdiscipline	13046
Schema	13045
ĠMusic	13045
vp	13043
:</	13043
Ġlamp	13043
MAT	13039
ĠConsider	13037
Ġstolen	13036
0006	13033
Ġpas	13024
very	13020
Ġchemicals	13020
VP	13017
tests	13016
Ġdelicious	13015
Pool	13013
Ġcelebrate	13007
dine	13003
Ġdont	13001
Names	12997
Ġdistribute	12994
Ġaffairs	12994
Ġvirtue	12992
Ġspecimens	12992
MIN	12991
Ġhomogeneous	12990
ĠĠĠĠĠĠĠĊ	12990
Ġexceptional	12989
Ġdebug	12989
ĠDiego	12989
ĠHad	12987
ĠOil	12982
Draw	12980
ĠJavaScript	12978
ĠEdward	12978
Ġcontradict	12977
ĠAE	12977
protected	12974
\(	12973
record	12972
minute	12971
Ġsurrounded	12971
Ġ220	12971
ĠAve	12969
Ġraises	12968
Ġlegislature	12968
eman	12964
ĠSEC	12963
Ġurine	12962
Platform	12960
hon	12959
Ġformulation	12959
Ġcitizen	12958
JSON	12957
glish	12956
ĠPea	12956
Ġham	12955
Ġ179	12953
Ġundefined	12950
Ġoperational	12950
ĠCommon	12949
Ġlocalized	12948
ĠBureau	12948
Ġallocation	12946
Ġstake	12945
ision	12944
warn	12943
Sample	12943
Ġagri	12943
âĢ©	12942
Ġlogin	12942
initial	12939
ĠBit	12936
azo	12934
Ġaddressing	12932
ĠExecutive	12931
Ġbite	12930
Register	12927
Ġarises	12927
ĠCapital	12926
Effect	12925
Ġnegotiations	12924
Ġshapes	12922
Ġplat	12918
Ġbarrel	12918
Ġbeings	12917
reset	12916
Ġ-------------	12915
anic	12913
ĠÂ«	12911
[:	12907
burn	12906
Ġstir	12903
Ġidentifier	12897
lands	12894
3000	12893
ĠLabour	12893
ĠSeattle	12890
Ġdisappear	12888
Ġlets	12887
Ġ"_	12887
shared	12886
ĠInvention	12886
ĠChannel	12886
ured	12885
icks	12884
^{+	12883
$:	12883
Ġgrants	12881
ĠMotion	12880
Eq	12879
ĠBall	12870
ĠMoon	12867
ĠStudent	12865
Ġthromb	12863
Ġcorporations	12862
pw	12860
224	12860
uke	12858
Ġcompile	12858
167	12855
uar	12853
ĠDefault	12851
Ġinnocent	12848
Ġcollision	12848
KO	12847
Ġsubstitution	12847
Ġslice	12847
Ġverified	12844
otion	12842
except	12841
Ġorgans	12841
Ġintensive	12840
'=	12839
Ġconsult	12836
LINE	12835
Ġdesk	12833
oan	12832
uto	12831
snap	12826
Ġns	12826
ĠDU	12826
Ġrolling	12823
Ġconsiderations	12823
cate	12822
ĠNT	12817
ĠBran	12817
bach	12812
Ġclubs	12812
ĠFootball	12812
ĠRick	12810
Ġhighlighted	12805
ĠDD	12805
ppat	12800
Directory	12800
Ġcarriers	12800
ĠFive	12797
*](#	12793
Ġsheets	12793
Ġlips	12792
did	12785
Ġtransmit	12785
ĠHT	12784
Ġdrill	12781
>'	12778
Package	12777
nil	12775
086	12775
ĠVideo	12775
ĠHeart	12775
Account	12774
vor	12771
ĠGh	12771
Ġ%>	12767
Ġoccasionally	12766
without	12765
parallel	12760
ĠCustom	12757
420	12756
Ġsimulated	12756
Ġrestrict	12756
Ġexpanding	12756
Ġflex	12755
Ġengaging	12755
})$.	12752
iterator	12752
Ġvibration	12749
ĠÎ¼M	12747
Ġleak	12743
Ġflexibility	12743
303	12736
Ġsuggestion	12736
Ġ210	12736
Consider	12730
ĠMH	12730
330	12723
ĠVM	12723
Ġbreathing	12722
Ġ360	12721
XML	12718
Ġdistricts	12718
Ġimplements	12717
Ġenvelope	12717
Ġneedle	12715
ĠMoh	12715
Ġ175	12711
Ġ204	12706
Ġremarks	12705
Û	12703
Ġĉĉ	12700
HH	12698
Ġweakness	12698
Files	12696
Ġmonitored	12696
Ġdishes	12689
Ġincredibly	12686
Ġvolunteers	12685
Ġvolumes	12685
Ġcurl	12685
Ġangles	12685
sip	12684
eco	12683
Ġinfant	12682
Ġtitles	12680
Ġcease	12678
Ġimpacts	12672
ĠTD	12670
ĠDad	12669
>;	12666
may	12662
Mic	12657
ĠGov	12656
Ġarrays	12654
Report	12653
Email	12653
Ġtongue	12653
Ġsleeping	12653
Ġ-----------	12652
Ġterror	12649
Ġdeleted	12649
ativity	12648
around	12643
Ġsolving	12642
Ġ?>	12642
Ġ1975	12639
alon	12637
ĠReturn	12637
PLA	12635
ĠRome	12634
Ġteaspoon	12629
Ġconversations	12626
ĠAlt	12626
ĠÃħ	12625
Ġdying	12624
Ġdisposed	12624
aaa	12621
Ġabandoned	12621
Ġgarlic	12619
Ġdiagonal	12617
ĠOxford	12616
223	12615
Ġforecast	12610
ĠĠĠĠĠĠĠĠĠĊ	12608
Ġjoke	12607
233	12604
Ġextracts	12602
Ġaggregate	12601
ously	12598
distance	12598
hidden	12595
Ġpurely	12595
Ġnie	12594
Ġmandatory	12594
Ġbalanced	12593
ĠMill	12591
Ġredirect	12590
Ġsuppressed	12585
Ġlemma	12584
Matrix	12583
Ġgolf	12583
Ġadhesion	12583
Ġspoken	12582
Ġencoded	12578
Ġligand	12574
Ġimply	12574
ĠEpi	12571
brief	12570
Ã©c	12568
ĠStrat	12568
region	12566
Ġlemon	12566
Miss	12563
Ġhitting	12561
Ġballot	12559
ĠWrite	12558
Ġsail	12550
erence	12548
variable	12544
``	12540
Ġproceeds	12540
Ġdisplacement	12531
Ġsteal	12530
Ġfocuses	12530
ĠEF	12529
264	12528
inos	12526
Ġsixth	12525
Ġaccordingly	12525
ĠWy	12525
Ġretrospective	12524
ĠVisual	12524
VS	12523
Evaluate	12522
Ġpulling	12519
Ġ153	12517
original	12514
Ġtransitions	12507
Ġconsiderably	12505
Ġ165	12503
Queue	12501
Ġarguing	12501
Ġdozen	12500
Ġord	12499
ĠTheory	12496
Api	12494
ĠMissouri	12494
ajax	12493
ĠDisney	12490
uction	12489
Ġperpet	12489
uw	12485
Ġexplaining	12484
orous	12481
Ġtranscripts	12477
Ġexhibits	12477
yle	12476
Ġautomobile	12476
206	12475
Ġmorphology	12475
Ġintact	12474
Pointer	12473
ĠOnline	12473
Those	12466
}),	12464
Ġstereo	12458
Ġmobility	12457
BY	12442
adde	12441
Ġanonymous	12440
Cam	12437
parameter	12436
Â¡	12434
Ġvolunteer	12432
Ġcompromise	12432
ĠNBA	12432
ĠMRI	12431
ĠShan	12430
AW	12428
ĠWS	12427
ĠSurvey	12423
dog	12418
piece	12417
Ġadoption	12417
ĠWolf	12414
Ġties	12413
Ġ700	12413
ĠAuthor	12407
norm	12406
Ġconducting	12404
ĠJean	12402
Ġplacing	12401
ĠWithin	12398
Ġasserted	12397
cis	12394
Mart	12394
ĠImmun	12391
Ġreviewing	12390
pict	12387
psy	12384
Ġgamma	12384
ĠForest	12383
Ġreserve	12382
ĠFrancis	12382
Ġmuseum	12381
Ġballs	12381
Ġphones	12377
MEM	12375
Ġ141	12375
require	12374
Ġ1976	12374
ĠAppl	12373
Che	12371
required	12369
inger	12369
Ġcheer	12369
ĠVII	12368
ĠRelated	12368
Ġrecruitment	12361
score	12360
Ġsubsection	12358
ĠMun	12358
Ġchips	12355
Ġtick	12348
DV	12347
Ġjud	12347
Ġsew	12346
Ġprayer	12346
Ġtransplant	12345
jan	12341
ĠRapids	12341
ĠâĢĻ	12340
Ġofficially	12338
Enter	12337
Ġimplementing	12337
Ġcf	12334
208	12333
uity	12332
ĠOrg	12332
Ġpink	12330
Ġblockchain	12330
SSE	12329
ĠâĢĭ	12329
Ġward	12328
typedef	12326
ĠTreatment	12322
Fla	12321
Ġquarterback	12320
Ġhormone	12320
equals	12315
Ġbare	12314
Public	12313
Ġcounting	12310
NH	12309
MW	12307
Ġvaries	12304
Ġmount	12304
logo	12301
Bs	12300
Ġthrew	12300
Plaintiff	12296
Ġoutdoor	12295
ĠYouTube	12295
Ġriding	12293
ĠNeuro	12292
inary	12291
ARG	12291
mur	12290
Single	12285
platform	12281
Stack	12281
HER	12274
/$	12269
Ġ146	12266
Ġtrap	12265
Equ	12264
Ġoverwhelming	12257
ĠCredit	12257
Ġconstitutes	12256
ĠWars	12255
Ġarrow	12254
Ġprostate	12252
Ġfiction	12252
Pop	12251
ĠBUT	12248
eral	12247
Policy	12247
Ġtraveling	12245
Ġfestival	12244
written	12243
Ġchor	12243
Ġ152	12240
Ġmethodology	12238
Ġpollution	12237
Ġbail	12237
Ġcatheter	12232
ĠDoctor	12232
same	12231
tically	12225
ORE	12225
Ġmunicipal	12225
053	12224
Ġmetastasis	12223
340	12221
Ġclaimant	12221
Pal	12220
tics	12219
Ġdenoted	12219
worker	12217
ĠPlayer	12216
Ġcomparative	12214
ĠWild	12214
Ġtears	12209
Ġshifted	12209
ĠConn	12209
counter	12203
Ġlecture	12203
city	12200
Ġextracellular	12199
Ġlengths	12197
jk	12195
aque	12194
Ġventure	12193
Ġappellate	12190
Ġbiology	12189
Double	12187
Ġlesser	12186
ĠPalestinian	12186
ĠSmall	12185
Ġcups	12183
Ġgastro	12182
Ġinnovative	12179
..\	12178
ĠVit	12177
Ġappearing	12175
ĠAlexander	12175
mount	12174
Za	12174
Ġ------	12174
username	12173
ĠDallas	12173
MY	12171
Ġsusceptibility	12170
Ġraces	12168
Ġsubstrates	12166
Îµ	12165
Ġcurious	12165
Ġwages	12164
Ġadvocate	12164
Ġ256	12164
Ġdrops	12162
Ġreproduce	12159
Ġwithdrawal	12155
Ġerroneous	12153
Ġimmigrants	12152
simple	12150
Ġwheat	12150
ĠSite	12150
ĠProcedure	12149
FG	12146
Ġviable	12146
Ġbasal	12145
sync	12138
Ġrally	12137
Ġspeaker	12136
Ġorganisms	12136
Ġconfigurations	12136
ĠLab	12136
Ġobjectives	12135
ĠAssociate	12132
Ġstepped	12131
TEXT	12130
Ġoxidation	12128
Ġcaptain	12126
cg	12125
ĠMalay	12124
Black	12116
Ġmerits	12116
Ġsubtle	12115
Ġdiscussing	12115
Ġabilities	12113
ĠWu	12113
ĠEuro	12113
Ġdramatically	12112
oqu	12111
ĠRoberts	12111
Ġadditive	12110
ĠHart	12109
Basic	12107
Ġfallen	12107
Ġmanipulation	12105
cpu	12103
ĠCurrent	12101
Ġvacation	12099
Ġhub	12096
ĠRules	12096
SG	12095
Ġinvestigators	12095
Ġcharging	12092
Ġhighlights	12089
oC	12088
Ġasserts	12088
ĠHub	12088
ĠFinancial	12087
kov	12086
Mask	12086
DEF	12084
245	12084
081	12084
ĠMom	12084
173	12082
Ġsubscript	12079
Ġcatalog	12078
Ġrobbery	12077
lier	12076
Ġasync	12074
Ġtransverse	12072
nuc	12071
ĠBerlin	12068
Scale	12067
Ġpaste	12067
ifying	12066
034	12066
since	12065
Ġwisdom	12064
ĠTennessee	12062
ĠGarden	12057
fat	12056
Ġprize	12056
ĠCle	12050
Ġ---------	12050
Ġfluorescent	12049
ĠIdent	12047
ĠConserv	12045
ims	12042
Ġdialogue	12041
ĠUpon	12040
ĠBeck	12037
ĠWould	12036
ĠWalker	12035
Ġnutrition	12033
Ġhumanity	12032
~(	12031
Opt	12030
ĠReact	12030
mock	12028
1001	12028
aves	12026
Ġads	12026
encode	12024
ĠPrevious	12024
Ġreceipt	12023
Ġgathering	12022
Ġassertion	12022
Ġcredibility	12019
ĠTony	12018
_;	12016
312	12015
Ġfreely	12013
ĠTur	12013
essing	12012
Trump	12012
Ġmodest	12012
Empty	12007
ĠMorgan	12006
ĠCOURT	12006
Ġsafely	12005
Ġprevents	12005
ĠRequest	12003
levance	12002
SHA	12001
Ġpacked	12000
Ġ----------	11998
proof	11993
ÂĴ	11992
natural	11992
Ġchemo	11988
ĠProtection	11988
ĠPURPOSE	11988
Ġstopping	11986
Ġaffordable	11986
Ġprojected	11983
Ġincorrect	11982
Graph	11979
Ġprefix	11979
rative	11975
Float	11974
Engine	11974
Ġpassive	11974
Ġdonors	11974
ween	11973
},$$	11969
ĠYe	11968
Ġhorror	11967
Ġalterations	11965
ĠMother	11964
Ġ196	11964
Contact	11963
Ġunity	11962
ĠPoly	11961
ĠMorris	11959
Ġutilize	11952
Ġrelaxation	11950
Ġgolden	11949
render	11948
Ġinvoke	11944
Ġarbitration	11944
Ġrobot	11943
~.	11939
Ġpromises	11939
Ġconnector	11939
xin	11938
theme	11938
EK	11938
Ġconfirmation	11938
ĠMexican	11938
Bin	11936
into	11934
Ġcombining	11934
Ġbother	11933
continue	11932
Ġmeets	11932
Summary	11931
[{	11930
1983	11929
Copy	11928
Ġsys	11928
allo	11926
Ġnurses	11925
Ġcameras	11924
angle	11923
Ġroller	11923
ĠChampionship	11923
omer	11919
aux	11919
ĠAcc	11919
Ġbp	11918
Four	11917
1980	11915
)",	11913
ĠSearch	11913
Ġretention	11909
Member	11908
reach	11906
>::	11905
plain	11904
Ns	11904
ĠNAT	11903
Ġmp	11901
Âĩ	11899
Ġconcert	11899
Ġdeficit	11896
Parser	11893
Ġinitiation	11886
zm	11885
ĠDark	11885
safe	11881
Ġbonus	11880
Ġexon	11879
ĠPremier	11877
Ġrival	11876
ĠSar	11875
David	11874
Ġoccasions	11872
Import	11868
were	11867
Ġinvestments	11866
ĠHawaii	11866
Ġartists	11865
ĠMeanwhile	11863
,*	11860
Ġconsultation	11860
ĠReference	11859
isse	11858
Ġpension	11858
GFP	11854
Ġfence	11853
exists	11852
virtual	11848
Ġprotests	11848
formula	11843
Ġgrace	11834
ĠAuthority	11833
eye	11831
Den	11830
Ġdemocratic	11829
aire	11828
Del	11826
ioned	11825
amino	11824
ĠLoad	11823
Play	11821
ĠSarah	11818
ĠHoward	11818
Ġinsured	11817
ĠThor	11817
Ġ------------	11816
Ġjudges	11815
Ġspl	11814
War	11812
Ġmistakes	11809
amon	11807
(.	11806
ĠJason	11804
erd	11800
ĠUSB	11800
Ġ225	11794
Kr	11793
bridge	11792
Ġdatabases	11791
agent	11789
Ġfloating	11788
ĠClo	11787
!\	11784
Ġmotivated	11783
Ġensuring	11782
Ġdescend	11782
ĠStudio	11781
Subject	11780
organ	11777
293	11777
Ġpalm	11776
ĠSquare	11776
arch	11775
ĠFP	11775
DER	11774
Ġbaking	11773
best	11772
()]	11772
sized	11771
072	11771
Ġdated	11770
ĠBuilding	11767
Ġdeparture	11764
Ġactivists	11764
Ġfacial	11763
=\"	11760
Ġboards	11760
Ep	11759
ĠEar	11759
ingly	11758
ĠNight	11758
Argument	11754
Ġabundant	11754
Ġintim	11753
cmp	11752
Ġswap	11752
Ġearnings	11752
wb	11747
Ġreactive	11747
reason	11746
Ġdeployment	11745
Ġamongst	11744
242	11743
Ġsoup	11743
Ġcow	11742
Ġpremises	11741
elin	11740
itative	11739
ece	11739
ĠArabia	11738
Ġtheater	11733
Ġduct	11733
Ġthrowing	11732
Ġtar	11732
Ġprobation	11730
Try	11728
Ġdisadvantage	11728
Ġdowntown	11727
Ġantagonist	11726
ĠDemo	11722
ĠAccount	11722
Ġexpenditure	11717
uing	11716
rock	11715
Ġtherapies	11715
Ġcats	11714
Ġtrim	11713
Ġshops	11711
topic	11709
Ġjar	11708
0009	11706
ĠHelp	11703
ĠDem	11702
..............	11695
-,	11693
[]{	11686
ĠCaptain	11684
ĠDog	11682
{{{\	11681
Ġschema	11681
Ġgrey	11680
CW	11673
Ġchopped	11673
present	11670
Ġspeaks	11668
pent	11665
once	11665
}$]{}	11664
ĠCruz	11664
Ġjustified	11662
Ġpole	11661
Ġcircum	11661
Ġuniversities	11660
Ġrush	11658
ĠExample	11650
Ġpassenger	11649
Ġmanufacturers	11649
)$-	11647
ifer	11646
lag	11644
Transform	11644
Join	11640
Ġantibiotics	11636
oted	11635
rode	11632
Ġmig	11630
////	11628
Ġ[\	11628
ĠLes	11628
Ġemails	11626
Ġobligations	11623
ifndef	11622
Mat	11621
Ġpackaging	11621
Ġdismissal	11619
Ġaveraged	11619
ĠcDNA	11618
Ġtower	11617
Ġarts	11616
Ġplatelet	11614
cene	11612
Ġprofound	11612
Ġquota	11611
CTION	11609
Ġveteran	11607
Ġ1950	11607
Ġfought	11606
ĠRei	11606
photo	11604
Ġmainstream	11601
Ġfruits	11598
Book	11597
Ġaort	11593
0000000	11592
dfrac	11589
Ġratings	11585
ĠElizabeth	11585
submit	11583
rupt	11583
infected	11583
410	11581
Ġcaution	11579
Security	11578
Ġrepository	11578
ĠHold	11577
Gal	11575
Ġsequential	11575
Ġexperiencing	11575
Ġbow	11575
Ġthroat	11574
ĠDutch	11572
Sign	11568
Ġpreserved	11568
ĠPop	11566
Ġhorizon	11560
Ġupstream	11557
ĠCOVID	11556
BER	11555
Power	11553
Ġsteep	11551
ĠJP	11549
ĠInteger	11548
Ġadvances	11545
ĠWorks	11545
ĠTyp	11544
Byte	11542
Ġintelligent	11542
Ġkiller	11540
Ġgranting	11538
Ġbrilliant	11537
Ġplaque	11535
ĠSenior	11535
ĠBrad	11535
ĠLegend	11534
Further	11531
Ġsearched	11531
ĠMaria	11531
Ġhappiness	11525
ĠWales	11524
ĠTurn	11523
Ġ205	11522
Pin	11517
Ġvoluntary	11516
Ġrubber	11516
orate	11515
Ġexploration	11515
ĠVery	11508
ĠOff	11508
Invalid	11503
ĠExpress	11503
Plugin	11501
Ġresidue	11500
]-[@	11499
Ġeastern	11499
Ġ1973	11499
Ġ156	11499
288	11495
ĠBesides	11495
Ġsubjective	11489
Ġexplosion	11489
ĠFITNESS	11489
vable	11488
ĠSep	11488
Ġsusceptible	11487
Ġcontamination	11487
supported	11483
clock	11481
Ġevolutionary	11481
GH	11480
Ġcry	11479
Wor	11478
ASE	11477
apl	11476
TK	11474
*"	11473
Ġ$|\	11471
Ġloads	11467
Mint	11464
Ġinfluenza	11464
Ġtrop	11463
Ġselecting	11463
Ġdiabetic	11462
Ġclarify	11462
Ġsuspicion	11460
Ġclinically	11460
Ġdistal	11455
ering	11454
Ġresponsive	11452
Ġcabinet	11450
ĠDirect	11449
Ġmedal	11447
ĠHU	11442
Information	11436
orn	11434
mie	11434
Ġviability	11433
Ġyard	11431
Ġprimers	11431
orma	11428
ĠLL	11426
Ġpride	11422
Ġillustrate	11421
ĠArts	11421
Ġconsumed	11420
Ġredshift	11418
ĠNotice	11418
Ġhint	11417
Ġranked	11414
ĠUtah	11413
ĠConvention	11413
flag	11411
ĠLater	11410
Enum	11409
hydra	11407
Ġrecipes	11407
Ġcounted	11407
Ġbroker	11403
Ġwaiver	11402
Ġmimic	11402
ĠBus	11402
ĠStone	11401
Ġopera	11398
mouse	11397
Ġthereafter	11397
Ġ161	11392
quoting	11390
302	11390
))?	11389
lium	11388
Ġtranscriptional	11388
Ġbuttons	11388
raft	11385
Ġtrustee	11384
Ġ168	11383
Ġrocket	11381
273	11377
Place	11376
0015	11375
Ġposter	11375
amount	11374
Ġembarrass	11373
ĠGy	11371
Ġpeaceful	11370
ĠEquation	11370
?>	11364
ĠPhilip	11363
ONG	11362
ĠRD	11362
Ġfigured	11358
Âľ	11357
ROC	11357
Ġ1972	11357
ender	11354
Ġendogenous	11354
720	11352
Ġlake	11351
Ġfetal	11350
ains	11348
yy	11346
Ġappellants	11346
Ġbuilder	11345
Ġintroducing	11344
Ġdx	11342
Ġcenturies	11341
Ġpredetermined	11340
Ã¥	11338
events	11338
bx	11338
Ġfurniture	11336
pale	11332
Ġui	11332
ĠMember	11332
Ġremind	11331
ĠMeta	11331
Ġ162	11329
ĠExpression	11327
ĠLouisiana	11326
ĠWHO	11325
Ġprinter	11324
$),	11321
Ġlaptop	11321
Ġbeef	11321
Auth	11317
ĠLV	11317
Ġreception	11315
Ġprolonged	11315
urious	11310
Ġblade	11308
ĠEffect	11308
tia	11307
Ġinspiration	11307
Ġclassroom	11307
ĠRelease	11307
ĠBol	11307
ĠBad	11306
Simple	11305
Ġincidents	11305
lton	11304
ĠProvide	11302
compr	11300
Ġprimer	11299
Ġcave	11299
bell	11297
Ġzip	11296
ĠSay	11296
Ġdeadline	11295
hill	11293
TED	11293
Ġamplification	11292
ĠBlood	11284
Ġbreed	11283
ĠInfo	11283
chy	11280
272	11279
*{	11279
Ġinfectious	11279
Ġclearance	11275
Ġprospect	11274
stant	11273
lst	11273
phin	11272
ĠAssistant	11270
engine	11268
ĠPel	11267
corporate	11264
Ġconcurrent	11264
Ġseemingly	11262
Ġdf	11262
rase	11261
______	11260
school	11256
ĠWHERE	11256
Ġrhythm	11255
Ġcorrections	11255
groups	11252
Ġwithdraw	11251
Following	11250
Ġcertified	11250
Ġsheep	11247
Ġlocus	11244
ĠRemove	11244
Ġ.$$	11244
claim	11241
228	11241
Paul	11240
ĠTrib	11240
lating	11238
eus	11236
Ġrecommendation	11236
ĠBroad	11236
Ġhorses	11235
Ġevolved	11235
Light	11234
ÂłÂłÂł	11233
Ġconjunction	11233
ĠJosh	11232
241	11231
)\\	11231
fileID	11230
\}$.	11228
Ġgraphics	11228
ĠVice	11228
Related	11227
Ġregret	11226
xh	11225
period	11223
ĠInn	11222
Obv	11216
ĠAffairs	11216
forward	11215
ĠNASA	11214
tero	11212
ille	11210
Player	11209
Ġsubspace	11209
ĠGET	11206
Ġholder	11205
TABLE	11204
Ġteen	11204
Tom	11203
ĠPLA	11203
Connect	11199
ĠiPhone	11199
ĠSingapore	11199
Ġundergoing	11198
Ġcursor	11195
Ġtwelve	11194
onn	11193
Ġrotating	11193
Ġorthogonal	11193
ĠDouble	11192
Ġharvest	11190
Ġfracture	11190
075	11189
Ġdynamical	11189
ĠSaint	11189
Ġdesert	11188
ptic	11187
Ġbitter	11187
Ġawards	11186
Ġdemonstrating	11183
ĠDave	11181
ĠInf	11177
upper	11175
Kit	11170
ĠBeing	11170
entity	11169
information	11165
GEN	11162
Ġupward	11162
Ġresume	11162
480	11157
ropic	11153
ĠStop	11152
contin	11151
ĠMERCHANTABILITY	11151
Ġcouples	11150
Ġactin	11150
Bean	11149
Ġinsurer	11147
OSE	11144
218	11144
rD	11143
lace	11143
Ġhex	11143
Ġordinance	11139
Ġpublications	11137
Ġachieving	11137
1002	11136
Ġjournalist	11136
Ġfool	11136
ĠSize	11136
ĠNK	11136
Green	11132
ĠPRE	11132
))\	11125
login	11124
ĠNigeria	11124
iamo	11123
Cas	11122
Ġnights	11122
Ġ1974	11120
ĠVector	11118
ils	11117
Ġsorts	11117
Ġign	11113
ĠElectric	11111
Med	11110
Ġenrolled	11110
Ġmusical	11107
Ġtopology	11105
Ġnest	11104
Ġ--------	11104
independent	11102
)](#	11101
Ġhoped	11101
ĠsiRNA	11099
iology	11097
ĠFri	11097
Ġpressed	11096
ĠAppendix	11093
Ġfrag	11092
Ġsubtract	11090
Ġempower	11088
esis	11087
ILL	11087
Ġspontaneous	11086
ĠCIA	11086
resistant	11083
;}	11083
Ġglance	11080
ĠCham	11078
Ġreside	11074
Ġgest	11073
Ġcontacted	11072
nut	11070
oal	11067
Ġtubes	11067
Ġinappropriate	11064
EW	11063
386	11063
ĠRen	11063
ĠPerson	11063
ĠVC	11060
emphasis	11057
271	11056
Ġalternate	11054
ĠDin	11054
Ġunemployment	11053
Ġthreads	11052
amer	11051
){\	11050
Ġintegrate	11048
ĠGun	11046
Memory	11041
Ġactivate	11040
gro	11036
ĠEngineering	11036
etti	11035
Ġsends	11035
sent	11034
Ġretrieve	11031
Ġmicroscope	11031
Ġdirectors	11030
Ġconvictions	11028
nder	11026
Ġears	11024
Ġtoil	11023
Ġoutputs	11019
Ġflame	11019
('.	11018
Ġtheft	11018
Ġexponential	11016
Ġpromotes	11015
rect	11014
ĠSci	11014
ĠSDS	11013
Ġstamp	11011
Ġfatigue	11010
bos	11007
Ġcontributes	11006
Ġbabies	11006
ĠCounsel	11006
ĠResources	11004
Ġadaptive	11003
]))	11002
Ġnut	11001
ĠINS	10998
Ġloops	10997
Ġloving	10996
Ġfoster	10994
082	10993
Watch	10991
President	10991
404	10991
ĠLock	10991
ĠJerusalem	10990
Ġvet	10986
Ġflesh	10983
ĠMarine	10982
Ġpile	10981
BX	10979
Ġâī¤	10976
540	10975
ĠPractice	10975
shell	10974
/)	10973
gies	10972
Prim	10972
Ġkinetic	10972
ĠStatistical	10971
ĠMaterial	10971
Ġapple	10969
ĠNeither	10969
wk	10963
launch	10962
Ġisomorphism	10960
Ġaqueous	10959
>"	10956
radius	10955
kil	10955
Java	10955
Ġadventure	10955
WN	10952
ĠFourier	10952
months	10951
ULT	10951
Ġclustering	10950
console	10946
={\	10946
Ġinstability	10946
CAC	10945
Ġproposals	10944
inu	10942
zie	10939
Ġattain	10936
ĠFlor	10934
Serial	10931
Ġconcentrated	10931
Ã¨re	10925
\](	10920
Ġbeneath	10920
Ġharmful	10918
Ġextensions	10918
052	10915
Ġuniformly	10914
Ġpharmaceutical	10914
tags	10911
ered	10911
Ġdistinguished	10911
amed	10910
ĠWright	10909
ĠRow	10909
Ġsword	10906
Ġweighted	10905
Ġinstructed	10905
Ġdrinks	10903
Ġtransfected	10902
Ġtherm	10902
Â©	10900
085	10900
Ġheated	10899
ĠAla	10899
Ġtrait	10894
324	10893
Ġsons	10893
Ġlegacy	10892
ĠEmpire	10892
onin	10889
ĠEPA	10887
ĠDN	10887
Ġinadequate	10886
ĠNik	10883
Selection	10881
Ġnegatively	10879
Ġ230	10878
Ġjunction	10876
ĠDetroit	10873
Ġcooked	10871
ĠPetitioner	10871
artifactId	10869
Ġwrit	10869
Ġcardio	10869
Ġgym	10868
244	10867
Ġsynthesized	10867
props	10866
Ġinfluences	10864
Func	10863
Ġstocks	10863
Ġbacked	10863
Ġfollower	10862
Ġcriterion	10862
Ġtrou	10861
hero	10860
yth	10859
375	10858
ĠThompson	10856
}}+	10855
Ġabroad	10854
ASK	10852
ifiable	10851
062	10851
cause	10848
Ġbee	10848
ĠAustin	10848
Ġsurveys	10846
304	10844
ĠQuant	10843
xon	10841
Ġqueries	10841
boolean	10840
Ġwrapped	10840
ĠCAN	10839
Ġfermion	10838
Ġautomated	10837
Ġrecombinant	10836
Ġhopefully	10833
South	10832
Ġbrains	10831
ĠHamilton	10830
Ġtranslated	10828
ĠMol	10828
hor	10826
basic	10825
Ġhepatic	10823
Ġdeciding	10823
Ġtetra	10822
Render	10820
="-	10818
254	10818
ĠRecently	10818
corn	10816
Ġsing	10812
Ġcervical	10812
trace	10811
ely	10811
nas	10808
ĠSweden	10807
Ġwhilst	10806
Ġreleases	10804
Ġdrew	10804
ĠSafety	10800
243	10799
ĠRU	10799
Ġlanding	10798
iste	10797
typename	10795
ances	10795
Ġcomprised	10795
ĠRespondent	10795
itia	10794
Gene	10792
Ġstatutes	10791
Ġclimb	10791
ĠLORD	10791
Ġsensory	10790
Ġhumor	10787
ĠMg	10787
single	10786
Comment	10786
Ġbiopsy	10779
Ġutilizing	10776
Ġtoll	10776
Ġmyocardial	10776
hbox	10774
Ġrelax	10774
Ġbilateral	10774
ĠâĨĴ	10773
Ġspine	10770
Ġethics	10770
article	10769
mathop	10768
Ġridiculous	10768
Ġacceleration	10768
ĠDick	10768
:'	10767
193	10766
hall	10765
National	10764
Ġplotted	10764
oking	10763
Ġ167	10760
315	10758
Ġpion	10758
Ġpsychiatric	10755
Ġhouseholds	10755
ĠExtra	10754
Ġphosphate	10750
Ġtact	10748
exception	10746
Ġunstable	10745
mum	10742
worthy	10740
alent	10740
Ġdeploy	10737
Ġcollecting	10737
Ġdependency	10736
oral	10735
Ġeliminated	10735
Ġseller	10730
ĠAnthony	10730
Ber	10729
Ġshaped	10729
Ġfractions	10729
Ġrestored	10728
Ġcube	10726
ĠHugh	10726
owner	10725
Ġterrorism	10724
market	10720
322	10718
Ġneutrino	10718
Ġ166	10717
groupId	10715
wei	10714
ĠSeason	10713
hoo	10712
Google	10708
Rate	10707
eded	10706
nai	10705
Ġlane	10705
Ġincomplete	10705
Ġconsume	10705
STATE	10703
iser	10701
ĠDemocrat	10699
dna	10698
conn	10696
ĠJar	10695
fetch	10693
Scope	10692
281	10691
Ġopposing	10691
Ġmapped	10690
Ġpt	10689
Ġgravitational	10687
ĠFDA	10682
oen	10678
Ġenrichment	10677
Ġdir	10677
Ã´	10676
Ġcommut	10676
iform	10675
Ġquestioned	10672
Ġgrows	10670
Ġmounting	10669
ĠIron	10667
ĠGuard	10665
eller	10664
Ġcomedy	10660
})$,	10659
vet	10655
235	10655
Ġencouraging	10655
expect	10654
Ġdeposited	10654
Ġdemanding	10654
Ġinch	10653
Ġrounds	10652
Ġenabling	10652
something	10651
Bundle	10651
Ġexploring	10649
Ġchemistry	10649
ĠOk	10649
Ġscandal	10642
Rad	10641
talk	10639
Ġconceal	10639
kul	10637
ĠRs	10635
Ġfears	10633
Ġreservoir	10632
Sin	10631
Ġillustrates	10631
Ġabandon	10631
ĠNormal	10631
EH	10630
ĠAnna	10630
Ġdialog	10629
utch	10626
Center	10626
ĠOlympics	10625
Mock	10623
Android	10623
Ġsie	10622
Ġprobes	10622
program	10621
Ġremembered	10620
Ġ}$	10618
Ġpreclude	10617
),$$	10616
Ġdesktop	10614
modal	10613
Ġoffenses	10613
Internal	10612
ĠLady	10611
ĠCarter	10611
Ġgoogle	10610
-|	10608
Ġpublisher	10608
Ġexamining	10608
Ġequivalence	10607
Ġconfidential	10607
Cir	10604
278	10600
Ġassessing	10600
Ġcumulative	10599
Ġembedding	10598
Ġcoaches	10598
ĠMarx	10597
Ġdining	10595
Ġwalks	10594
Ġjournalists	10593
Ġimproper	10591
Ġ$_	10591
Ġmetals	10590
ĠEE	10589
ĠBarr	10587
ĠINTO	10586
ĠSept	10579
).\	10578
Ġanticipated	10576
Ġexpecting	10575
ĠRod	10575
ences	10570
Ġcarb	10570
Ġbitcoin	10570
^*(	10569
bru	10568
ĠVir	10567
384	10566
Ġopponents	10564
dB	10563
Ġobservable	10559
ĠAtlanta	10558
Ã©m	10557
ĠANOVA	10557
morphism	10553
Ġedited	10548
bias	10542
Role	10540
ĠEngine	10539
Ġmechanics	10537
Ġlabour	10537
Ġallocated	10537
:-	10535
ĠExchange	10534
Py	10533
Ze	10532
Best	10531
Ġprecip	10531
ĠRR	10531
ĠHAVE	10530
bigr	10528
ĠStaff	10528
Sat	10527
ĠSummary	10525
Ġslower	10523
ĠTree	10523
Ġpreceding	10521
Ġmountains	10520
Ġmes	10518
Ġconstitution	10518
Ġawake	10516
ĠPlant	10516
male	10515
Ġelevation	10514
ĠPersonal	10512
rance	10511
Loader	10511
Ġaes	10510
Ġgeometric	10509
aml	10508
ĠBarack	10506
GD	10504
Sun	10499
NAL	10499
Ġbandwidth	10494
Health	10488
lung	10487
Dan	10487
ĠWL	10484
Ġaxial	10483
Ġanalogous	10483
Ġ%}	10483
hide	10482
graphics	10482
Timeout	10481
Ġsentiment	10481
Ġantibiotic	10479
ĠLiberal	10479
ĠSupplementary	10477
Ġ0000	10477
ĠAbe	10474
Ġprofession	10472
ĠAddress	10471
Ġdrunk	10470
047	10469
Ġallies	10468
Ġqualify	10464
ĠMoscow	10464
Ġbypass	10462
ĠGreece	10461
built	10458
Great	10458
Ġauthentication	10456
Proxy	10454
aku	10453
Ġpancreatic	10452
ĠEg	10452
Ġvec	10451
Ġmaximize	10451
ĠModi	10451
Ġcorrupt	10450
Ġcontainers	10449
289	10448
ĠCart	10447
ĠCould	10440
Ġsummarized	10439
:$	10436
Ġpassengers	10434
Ġbubble	10433
ĠManchester	10431
Ġthoroughly	10429
Ġoverview	10429
ĠProc	10428
constitutional	10425
219	10424
ĠLaboratory	10423
ĠBerg	10423
Ġpropagation	10422
Ġwhereby	10421
Ġmonster	10421
Ġborders	10421
ska	10420
gling	10420
ĠDeputy	10420
giving	10419
BV	10419
Database	10418
Ġneutron	10414
Ġagrees	10414
Ġwx	10413
Ġattitudes	10412
MODE	10411
Ġprecedent	10411
activate	10410
eds	10409
Scroll	10409
Ġadequately	10408
ĠJacob	10408
Ġoligo	10407
ĠRich	10407
ĠRevolution	10407
Conclusion	10405
ĠNative	10405
238	10403
Ġmalignant	10402
ĠLang	10402
Proof	10401
-->	10401
Ġoutlined	10400
Ġapolog	10397
ĠDom	10397
yna	10396
229	10395
ĠArch	10395
Ġtremendous	10393
Ġsurvived	10392
Ġhomogen	10391
Ġcoalition	10389
frequency	10386
}_{{\	10383
ĠEight	10383
important	10381
ĠLB	10381
classes	10377
Ġrecipient	10376
nome	10374
Ġcontinuum	10374
305	10373
BG	10371
Ġrejection	10369
Ġperformances	10368
Anti	10367
Ġalkyl	10366
avan	10365
ĠSTAT	10364
'_{	10362
Ġbeds	10360
GLE	10359
Ġheaders	10359
Ġdeadly	10359
Ġfiltered	10355
ĠPatrick	10355
published	10352
Unknown	10352
Ġlag	10352
Ġsymptom	10349
Ġsensing	10349
Ġproving	10349
Statement	10348
Ġdirty	10348
Ġlegend	10347
!(	10344
bank	10343
Sil	10343
Descriptor	10343
Ġluminosity	10343
Ġquest	10342
Ġjam	10335
policy	10333
ĠContract	10331
trivial	10327
Ġinteracting	10325
Ġtout	10322
Ġsandwich	10322
Ġpneumonia	10322
Ġbrutal	10322
Standard	10314
Ġpreferences	10311
Ġcritics	10309
ĠCountry	10309
Ġcrown	10306
erate	10304
ViewController	10303
INTER	10302
Foo	10301
Still	10299
Ġexpose	10299
Ġcampaigns	10298
ĠObserv	10296
(__	10295
Ġquotes	10295
Ġorganisation	10295
potent	10293
Ġmaintains	10292
Ġspecialized	10291
marine	10290
citing	10290
Ġbesides	10288
Ġcel	10287
Ġfixing	10286
vubuntor	10285
087	10285
Ġproductivity	10285
Ġcourage	10285
]*	10284
Ġbeans	10284
iment	10283
ĠBASIS	10283
memory	10282
Ġnotable	10282
Ġembrace	10282
Ġadhere	10281
ÂĲ	10279
Ġconnectivity	10279
Ġgoverned	10274
constant	10273
USA	10273
ĠPenn	10273
ĠNation	10272
Ġadmin	10271
Ġcurrents	10267
Ġclone	10267
ĠIntel	10265
Ġdeformation	10264
vention	10262
Ġcompiled	10258
Ġsimul	10257
kat	10255
Ġproximity	10255
Ġaddiction	10255
ĠWard	10255
Ġnuts	10254
eel	10253
general	10252
collection	10252
Blue	10252
261	10252
Ġtale	10249
Ġgrasp	10249
components	10246
Ġconvince	10246
239	10245
Ġengines	10243
nei	10240
083	10239
Ġtx	10239
Ġcomic	10239
socket	10238
Ġharassment	10238
Ġrolled	10236
ĠTaiwan	10235
Âı	10227
science	10227
Several	10227
Ġpotentials	10227
ĠFranklin	10224
ĠMF	10223
Ġmeters	10221
Ġbanking	10216
Ġsituated	10215
Ġdelta	10215
ĠEconomic	10215
Ġenriched	10214
ĠEarly	10213
Ġinhabit	10212
Ġchampion	10212
Ġperforms	10210
Ġane	10210
Ġain	10209
SON	10205
Ġrecruited	10202
Ġcute	10202
Ġburied	10202
ĠJose	10202
Ġ"'	10201
ĠSav	10198
Ġwir	10197
Us	10195
Ġcontraction	10195
ĠTrial	10195
Ġdefeated	10193
Ġcytokine	10193
ĠGulf	10192
batch	10191
Ġindicators	10191
between	10190
Ġpronounced	10188
give	10185
Ġequals	10185
Ġshoulders	10183
Ġgaming	10182
rix	10181
numbered	10177
ĠSpa	10177
ĠAnimal	10177
Ġspare	10173
igned	10170
Ġextensively	10170
Ġparental	10169
ĠCloud	10168
Ġsaline	10167
Ġeigen	10165
wski	10163
Ġmineral	10162
tap	10160
Ġsensation	10160
Ġpathological	10160
lux	10159
Ġracist	10158
Download	10155
Ġthemes	10155
Should	10153
uth	10151
ĠAtlantic	10150
089	10147
Ġsig	10147
Ġdielectric	10147
Ġabnormalities	10146
HTTP	10145
Ġdeployed	10145
Ġceremony	10145
Ġannounce	10145
MAC	10144
Ġreplicate	10144
Ġintimate	10142
"\	10141
Ġcd	10141
BN	10140
Ġcalibration	10140
ĠEver	10139
Ġcorners	10138
dash	10137
'])	10137
Ġtouched	10137
Ġcirculation	10136
ĠGreg	10136
Ap	10134
Ġrelay	10134
iac	10133
Ġgirlfriend	10132
ĠStatus	10130
wed	10129
ALE	10129
509	10129
Ġammo	10129
ĠmiRNA	10128
ĠEND	10127
282	10124
Ġresponding	10124
+++	10122
ĠRoute	10122
274	10120
1004	10118
alik	10117
Ġconverge	10117
Ġdepicted	10115
ĠDigital	10115
Ġarrangements	10114
|{\	10113
stim	10113
jquery	10112
Ġresection	10110
Ġconsequently	10109
father	10107
storage	10105
aar	10101
extra	10098
Ġmerger	10097
Ġlover	10097
Ġtuber	10096
Ġexercises	10096
Ġranks	10095
pages	10094
Ġspiral	10094
Ġcreator	10091
Ġbrake	10090
Ġaccepting	10090
Ġwipe	10089
March	10088
dad	10087
ĠStatement	10087
Ġzones	10084
emic	10082
Ġdisable	10081
urd	10079
Ġmall	10078
ĠNMR	10077
thing	10075
Ġfeaturing	10075
LAR	10074
Ġimplicit	10072
ĠBed	10070
ĠAK	10069
pun	10068
Conn	10068
Ġadhesive	10067
does	10066
Ġstranger	10066
Ġlb	10062
Library	10060
Ġinterfaces	10058
Ġgaps	10057
Ġ174	10053
Coord	10052
Ġdemanded	10052
Ġdecree	10052
ĠKC	10050
Ġtrips	10049
Ġparadigm	10049
ĠRobinson	10048
Ġpound	10047
feature	10046
1979	10041
foreach	10038
ĠTed	10037
JP	10036
Nu	10032
Ġdeputy	10032
Ġgaze	10031
Ġcompositions	10030
ĠHistoric	10029
ĠAgent	10028
Ġsophisticated	10027
Ġlimb	10027
Ġsen	10026
Details	10024
ĠAdams	10024
Ġalgebraic	10022
Ġrabbit	10020
ĠYES	10017
ĠComputer	10016
toggle	10015
Socket	10009
-}	10008
Ġsearches	10008
Ġmob	10006
Ġcyclic	10006
084	10005
Ġheadache	10005
ĠFestival	10005
collect	10004
VR	10004
Ġbiochemical	9999
ĠBody	9998
Ġspreading	9997
Ġheal	9997
Arch	9996
scopic	9995
283	9995
Ġdiffuse	9995
ĠNazi	9995
commit	9994
Low	9993
Ġtimeout	9992
heart	9991
Ġcontradiction	9990
%"	9989
Ġoptic	9989
308	9988
ĠClose	9988
ĠInput	9987
DEN	9984
Ġcentered	9984
ĠKam	9984
Ġbones	9983
Ġsuccessive	9980
Ġarrows	9978
EDIT	9974
views	9972
North	9972
Ġvoices	9971
.<	9967
government	9964
ĠWang	9964
ometry	9962
Short	9962
Ġgenerous	9962
Ġexponent	9959
dai	9958
Ġprohibited	9958
INST	9957
Iterator	9956
ĠActive	9955
looking	9954
Having	9954
Ġcalculating	9951
ĠBreak	9951
Ġaccompanying	9950
ĠToo	9948
Ġsongs	9947
ĠWARRANTY	9947
Ġfriction	9946
Ġclicking	9946
Chu	9945
236	9939
Ġnotification	9938
TRUE	9937
Ġpuzzle	9937
ĠBeijing	9937
igious	9936
created	9936
Ġgently	9935
ĠDead	9934
ĠArthur	9934
Ġbenchmark	9932
ĠLau	9931
upload	9929
Mad	9925
ĠTol	9925
amma	9922
Ġirregular	9921
Court	9920
Ġtransplantation	9920
ĠFront	9920
Ġpathogenesis	9918
ĠSound	9918
Ġultrasound	9914
Sam	9910
Ġpressing	9910
Ġ[âĢ¦]	9910
idas	9909
Ġfreeze	9907
Ġcotton	9907
kz	9906
,.	9906
Ġcattle	9906
SSL	9905
Luc	9904
Ġpredominantly	9904
Ġii	9901
ĠMMP	9899
ĠKings	9899
abc	9897
Ġwaited	9895
Ġadmits	9895
Metadata	9893
Ġportfolio	9893
Ġinsult	9893
1100	9892
Ġnucleotide	9891
Ġnomination	9891
Ġgrap	9890
izers	9889
Ġsoccer	9889
ĠInternal	9887
lys	9885
Ġquantified	9884
Ġguided	9884
Ġensemble	9884
286	9881
Ġrevenues	9879
ĠFifth	9879
Ġphotographs	9877
Private	9876
#.	9876
Ġfoam	9872
Ġwallet	9871
Ġcelebration	9870
Ġimproves	9868
Ġemotion	9867
Ġrum	9866
Ġadvise	9864
ĠProblem	9864
ĠLarge	9863
Bit	9862
ĠKennedy	9862
~/	9857
Ġgifts	9856
Ġwooden	9854
cutaneous	9853
Ġ}_	9852
Ġhunting	9851
Ġconsiders	9850
Ġanalyzing	9849
Ġskilled	9848
ocyte	9845
Ġarterial	9845
Ġattrib	9844
Ġ404	9844
Ġ1971	9844
Ġrestart	9843
Ġseverely	9840
Ġhomeless	9840
IGHT	9839
Ġmanufactured	9839
coding	9838
Ġsoluble	9837
Ġreass	9836
ĠSr	9836
Ġurged	9831
ĠOpp	9830
ĠCommerce	9829
364	9828
/-	9828
defendant	9825
Ġinteractive	9823
resources	9821
Ġimmer	9819
Ġdarkness	9818
Ġcollateral	9818
Ġdressed	9817
Ġcortical	9816
ĠTerm	9816
Ġspherical	9815
Ġoutlet	9812
uter	9809
Ġoscillator	9808
Ġcomme	9808
slash	9807
wx	9804
Ġregimen	9804
Ġbadly	9802
Ġathletic	9802
========	9801
Ġspecialist	9801
Ġranged	9801
Ġprisoners	9801
Ġplasmid	9800
nds	9794
ĠMetro	9793
uka	9792
Follow	9792
Ġbugs	9792
ĠKentucky	9791
ĠRoom	9790
miR	9789
Ġsectors	9788
ĠLane	9788
Could	9787
Ġjavax	9787
ĠDelhi	9787
341	9786
Ġswitched	9783
Ġ****	9782
Ġza	9781
Ġdashed	9779
ĠCreek	9777
405	9776
Ġterminated	9776
ĠPDF	9776
Ġimprisonment	9775
Ġalias	9772
ĠGraham	9771
surface	9770
Notes	9769
Ġacres	9769
elect	9768
Ġvarieties	9768
Ġredistribute	9768
Ġpaired	9766
osomal	9762
Ġpolish	9761
Attributes	9754
).](	9754
Ġ"{	9754
054	9753
Ġinability	9753
ĠEstate	9752
Ġbladder	9748
Michael	9747
ĠEvidence	9746
ared	9745
ĠACC	9745
Ġpleasant	9744
416	9743
company	9740
Prote	9740
Ġdictionary	9740
Ġconstituted	9740
ĠBattle	9740
Native	9738
290	9738
Profile	9737
Ġ900	9736
ales	9734
Variable	9733
ĠStory	9730
alloc	9729
adjust	9729
Ġrefusal	9729
Ġstartup	9727
Ġembryos	9726
apple	9722
ĠNeu	9721
Ġweigh	9719
Ġecosystem	9719
pH	9717
Ġprognostic	9717
Ġdisregard	9717
lik	9716
enabled	9715
Folder	9713
Ġlid	9712
Ġexpressly	9712
ĠEXPECT	9712
ĠLip	9710
VG	9709
Ġrecurrent	9708
Ġfiltering	9706
ĠRegion	9705
ĠHarvard	9705
uble	9704
ĠTraining	9704
inine	9703
generated	9703
Ġtransistor	9703
Ġflush	9703
ĠMobile	9702
utor	9701
Ġuncertain	9699
Ġpledge	9696
ĠSex	9696
circle	9693
HN	9692
Ġconsultant	9692
boy	9691
Ġwars	9691
Ġinoc	9691
Vs	9690
Ġaforementioned	9689
marks	9688
cj	9688
ĠMedicare	9688
Ġdesigner	9686
Ġ1968	9686
Region	9685
227	9685
uche	9683
correct	9683
Ġai	9682
MON	9681
Ġshear	9681
Ġsubstituted	9680
ĠTurkish	9680
Ġsupplemented	9678
tensor	9676
249	9675
need	9674
Defendant	9674
ĠBruce	9674
ĠTag	9672
Ġhes	9671
Ġcyber	9671
279	9669
Ġdozens	9669
Ġcaps	9668
Ġsoy	9666
ĠPhase	9666
ĠGFP	9666
Ġseized	9664
Ġmarry	9659
ĠCarol	9659
Ġinterrupt	9657
ĠIntroduction	9653
fect	9650
Symbol	9649
402	9647
ĠIRS	9647
Ġclamp	9646
Ġrevel	9645
Ġverbal	9643
Ġendless	9643
-)	9641
Ġadvers	9641
ĠLat	9641
sheet	9640
kyl	9640
Ġtons	9640
Âª	9639
alin	9639
Î¿	9638
760	9638
355	9636
Ġreversal	9634
progress	9632
das	9632
pattern	9628
Ġvas	9627
Ġoptimized	9627
Ls	9626
Ġ"^	9624
<!	9623
ĠNelson	9623
Ġjacket	9621
Ġdefinite	9621
Ġcompelling	9621
Ġcleared	9621
\%	9618
Ġbears	9617
ÏĢ	9615
DQ	9615
Ġunreasonable	9615
Ġlifted	9615
638	9614
LES	9613
ÂĶ	9611
Through	9611
Ġdilution	9611
ĠGordon	9611
icker	9609
friendly	9609
ĠScript	9608
ĠGit	9608
ĠEverything	9606
Ġwings	9605
Ġprohibit	9604
Ġpresumably	9604
Ġmonomer	9604
Ġelectromagnetic	9603
ĠAlan	9603
342	9602
Ġstochastic	9601
226	9598
ndo	9595
Ġbeating	9595
Move	9593
Ġoptimize	9593
fixed	9592
Ġimplicated	9591
trust	9589
syn	9589
Ġmelt	9588
ĠRepresentative	9588
logic	9587
ĠBuild	9587
Ġproves	9585
ĠAirport	9585
proxy	9584
ĠCriminal	9584
Ġpediatric	9582
Ġtoe	9581
Figures	9579
Ġuh	9579
ĠGot	9578
Ġaide	9577
.'"	9575
Ġdissolved	9575
Ġplanes	9572
Mer	9570
Ġdealt	9570
ĠIraqi	9570
Ġmicrobial	9569
Ġft	9569
ĠDim	9569
Ġlien	9568
ĠLou	9565
Ġspectroscopy	9564
unk	9562
Ġtechnological	9562
ĠLearning	9562
Ġfocal	9561
idal	9560
Ġsignatures	9560
Ġports	9560
Ġroster	9559
illo	9556
Ġfriendship	9556
ĠSydney	9556
ĠLegislature	9556
Ġamend	9555
contains	9553
ĠSri	9553
Ġassumes	9552
("%	9550
Password	9547
Ġunfortunately	9546
Ġensures	9546
Ġactress	9546
Ġgy	9544
ĠWind	9544
ĠWR	9544
Ġthreatening	9543
Notification	9542
Ġben	9542
287	9537
Ġcookie	9537
,(	9536
Ġvin	9536
ĠPaper	9536
ĠAH	9536
Pat	9535
Ġeuro	9534
Ġcolored	9534
Ġbullet	9534
**:	9531
ĠLincoln	9531
ĠBin	9530
Ġjuvenile	9529
ĠRomney	9529
constraint	9528
Ġhierarchy	9527
Ġdocumentary	9527
ĠMos	9523
Ġ\~	9522
Ġmetadata	9519
Ġagriculture	9519
Rearrange	9516
Ġdischarged	9516
Ġacetyl	9516
Ġurgent	9514
Ġhill	9513
Ġfare	9513
graf	9512
Ġadolescents	9512
Similar	9510
ĠAz	9508
Ġputative	9507
ĠWinter	9507
501	9504
Ġcarbohydrate	9504
Ġleather	9503
Ġaller	9501
ĠWH	9499
eD	9498
Ġjunior	9498
Ġhemat	9498
Ġlineage	9496
VB	9494
Ġroast	9494
Ġpresume	9494
Ġfade	9491
ĠItem	9489
Ġnanoparticles	9486
PN	9485
ĠSNPs	9484
Yet	9483
237	9483
Ġcoherent	9483
CHECK	9482
Ġcontributor	9480
Ġhelper	9477
ĠClient	9477
erson	9474
ERN	9471
Ġsleeve	9470
ĠVR	9469
Delegate	9468
OAD	9467
Ġobsess	9467
ĠâĢĿ	9463
Ġstadium	9463
cott	9462
ĠCharlie	9462
344	9461
Ġnutritional	9461
lesssim	9459
ĠAvi	9454
sag	9452
Desc	9452
Ġnullptr	9452
qt	9451
ĠAntonio	9451
Ġworkplace	9450
Ġgenus	9449
Character	9447
ĠIndus	9447
Ġviolate	9446
Ġulcer	9445
ĠStewart	9442
Ġwarnings	9441
Ġattracted	9440
ĠSubsequent	9440
ĠCos	9440
=============	9439
sets	9436
Ġwafer	9436
Ġfibrosis	9433
ĠBaltimore	9433
Ġpolymerase	9432
lemm	9431
257	9430
Sept	9427
Ġdelight	9427
ĠChairman	9427
Ġtrash	9424
eks	9423
ĠRussell	9423
idation	9422
ĠMississippi	9422
520	9421
246	9420
Ġliteral	9420
Ġmetabolites	9419
]'	9418
ĠPope	9418
XR	9417
amic	9416
mad	9414
Ġpremature	9413
prototype	9412
Events	9412
ĠEnvironmental	9412
Ġharmonic	9410
ĠStadium	9410
Ġurinary	9409
Ġopponent	9408
Ġdelivering	9407
Ġcontour	9407
284	9406
ĠCox	9406
Ġ$^{	9405
rates	9404
Tal	9404
Ġcategor	9403
Ġhockey	9401
Ġbrick	9401
ĠSecret	9400
0025	9399
ĠReserve	9396
Pattern	9395
Ġtimer	9395
Boolean	9394
focus	9393
DIA	9393
Ġdough	9393
Ġconductive	9392
Ġsits	9391
JC	9390
808	9390
KB	9389
258	9389
ĠMG	9389
]$.	9386
WD	9386
members	9384
tian	9383
ĠMod	9383
Transaction	9381
Include	9378
Ġelaborate	9376
ĠSingle	9376
ĠBoolean	9376
actions	9374
Ġcommissioner	9373
ĠSET	9372
Ġnevertheless	9371
ĠĠĠĠĠĠĠĠĠĠĠĠĠĠĠĊ	9371
AQ	9370
Ġtypename	9368
Ġrelatives	9368
Ġundermine	9367
tart	9366
549	9366
Ġrehabilitation	9366
Ġlogs	9364
Ġchromatography	9364
ĠCover	9364
Ġutilization	9362
ĠNHL	9362
lact	9361
Î´	9360
Ġconcentrate	9360
uki	9359
longrightarrow	9357
eating	9357
Fields	9357
Ġjs	9357
Ġconceptual	9354
Î¼L	9353
personal	9351
nodes	9350
Ġcomplementary	9348
Ġcrops	9347
Ġsubsets	9345
ĠiOS	9345
ĠRas	9345
Ġnail	9343
Ġendpoint	9342
nell	9341
Selector	9338
PRI	9338
Ġcoordination	9338
Drop	9336
Ġspeeds	9336
Ġregulator	9336
Ġmisconduct	9335
ĠDouglas	9335
Pass	9334
Ġovarian	9333
ATED	9332
Ġalleges	9332
Ġsurvivors	9331
Ġdependencies	9329
ometer	9328
Ġchurches	9328
attributes	9327
Ġbanned	9327
Ġdisappeared	9326
rint	9325
union	9324
Ġdelays	9324
Year	9323
Err	9322
253	9322
Ġinstitute	9321
Ġconstrued	9321
webkit	9319
Ġhike	9317
OUNT	9316
365	9312
Ġmyelo	9311
Ġ\*\*	9311
ĠSide	9308
download	9307
Ġformally	9307
ĠUSD	9307
ĠAlaska	9307
Ġportal	9305
cracy	9304
Ġslices	9303
oys	9302
ĠWI	9302
Ġpursuit	9300
Ġcruel	9299
ĠWAS	9292
Ġfibre	9291
sam	9290
266	9288
ĠQuestion	9288
Ġdepartments	9287
localhost	9286
Though	9283
primary	9280
ĠRegional	9278
ĠOT	9277
ĠFermi	9276
mill	9275
Ġpopularity	9274
vine	9272
ĠCompl	9271
ĠHER	9270
Ġprototype	9269
ĠResource	9269
Ġawful	9268
resolution	9266
Ġcran	9266
Ġhalt	9264
Ġcombustion	9264
Was	9263
think	9259
Ġreflecting	9258
works	9257
Ġvenue	9255
ĠVillage	9254
Ġthyroid	9253
Ġsimpler	9251
ĠmiRNAs	9251
1978	9250
walk	9249
ĠAustria	9248
Ġ[(	9246
Ġmetastatic	9245
ĠRio	9245
Ġnowhere	9243
Area	9242
Ġcirculating	9242
Conv	9241
ĠDeath	9241
Ġhunt	9240
056	9239
scroll	9238
Route	9238
Ġfailures	9238
Ġsurprisingly	9236
Ġmysql	9236
sectional	9235
Ġphotons	9234
Warning	9233
Ġfantasy	9233
ĠCost	9230
Ġwidget	9229
Ġtrajectory	9227
ĠProduct	9226
ĠMann	9226
vars	9225
Ġunchanged	9225
Ġrevol	9223
Ġowns	9223
ĠSteven	9223
iota	9222
Ġquestioning	9222
Ġpraise	9221
Ġoriented	9221
}}-	9220
radio	9220
fmt	9220
rose	9219
306	9219
Ġlamin	9219
extension	9218
317	9217
Ġmalaria	9217
:{	9216
Ġritual	9215
Ġhonour	9214
Ġforegoing	9214
Ġtrains	9213
REF	9208
Ġcorrespondence	9208
Ġcompanion	9206
ĠBrexit	9206
pling	9205
Ġassessments	9205
Ġjumped	9204
Ġdigest	9204
Ġburned	9201
ĠLevi	9201
Ġproblematic	9199
ĠjQuery	9199
Ei	9197
hre	9194
ouch	9192
ĠMarc	9192
ĠJonathan	9192
tant	9190
Ġvulner	9190
ĠBasic	9188
0030	9184
Ġclarity	9184
cfg	9183
392	9183
ĠĠĠĠĠĠĠĠĠĠĠĠĠĊ	9183
kp	9181
1977	9181
elled	9180
Ly	9180
ĠEveryone	9176
ĠEvans	9173
Ġluxury	9170
Ġcredits	9170
Ġcheaper	9170
Ġfinishing	9169
Ġaggregation	9169
University	9168
ĠCleveland	9167
055	9166
ĠÅ	9166
Ġfifteen	9166
mother	9164
ĠCurrently	9163
PAGE	9161
456	9161
catch	9160
ĠModern	9158
ĠOlympic	9157
Ġagonist	9156
???	9152
oha	9151
Ġstreams	9151
quarter	9150
Ġannually	9150
ĠFun	9150
Ġinferior	9149
Ġgrams	9145
ĠScottish	9143
ĠGary	9143
Ġclouds	9141
Ġscripts	9139
Ġincoming	9139
Ġheterogeneity	9139
lude	9138
Ġselector	9135
Ġkingdom	9135
configuration	9134
Perhaps	9134
GRA	9132
Ġcousin	9130
ĠKhan	9130
Ġunfold	9127
Ġpsychology	9127
Ġcharter	9126
Ġsplitting	9125
Ġfen	9125
Ġcommander	9124
Ġcanvas	9122
Language	9121
Ġunrelated	9121
Ġinventory	9121
Ġcrap	9120
leqslant	9118
India	9118
Ġappearances	9118
UPDATE	9117
ĠPhillip	9117
346	9116
ĠMultiple	9116
iers	9115
Resources	9114
ĠâĢī	9114
secret	9113
jn	9112
ĠFast	9112
alias	9111
`)	9111
Ġtrapped	9110
_)	9109
Ġliberty	9109
many	9107
Ġcrush	9107
Ġdol	9106
journal	9105
Cast	9105
April	9105
aks	9103
Ġsmiled	9103
Ġfifty	9103
Ġ1969	9103
Ġexpects	9102
gens	9100
Ġzinc	9100
fon	9098
IRS	9097
ĠTai	9095
Ġrenewable	9094
ĠTemple	9094
Ġpurchasing	9093
Ġconfined	9093
glia	9092
Among	9091
ĠTarget	9091
ĠColon	9089
ffl	9087
unal	9086
328	9086
Ġeigenvalues	9085
Progress	9084
Ġlogging	9084
svg	9082
Ġverse	9082
ĠCit	9078
mons	9077
though	9074
links	9074
268	9072
Ġctx	9072
services	9071
Ġspeakers	9071
Ġraid	9069
Ġaccessed	9069
Ġpathogens	9068
Ġprimitive	9067
dense	9066
Ġdirt	9066
Ġwanna	9065
Ġspill	9063
Ġislands	9063
Ġ_{\	9063
Ġaxe	9059
Ġsupernatant	9058
Ġapproaching	9058
\|_	9057
Ġsorted	9056
ĠWC	9055
Ġdistortion	9054
ĠNuc	9054
ĠCohen	9054
ĠDevice	9053
1976	9052
unda	9048
Ġrefund	9048
Ġrebuild	9046
Ġnested	9045
going	9042
chia	9040
Ġfleet	9040
leo	9039
Ġattendance	9039
Ġunions	9038
ĠNewton	9037
plin	9035
Ġpressures	9035
Ġcanal	9035
ivities	9033
Ġpackets	9033
ĠProof	9032
salt	9031
bott	9031
Ġsender	9031
201	9029
ĠSad	9029
Ġprecursor	9027
Ġamplifier	9026
itic	9024
Ġunto	9024
Ġ320	9023
treatment	9022
Ġlinking	9022
Ġeconomics	9022
Ġcertification	9022
Ġdwarf	9018
gE	9015
Ġstun	9015
Ġpertinent	9015
Ġbay	9015
Ġcoaching	9014
ĠGrad	9013
Ġpathology	9012
Copyright	9011
+$	9011
Ġrecipients	9011
Ġimpressed	9011
|=	9008
Ġcolony	9008
optional	9006
Poly	9005
Ġsmartphone	9003
Ġrifle	9003
yon	9001
ruby	9000
visible	8998
Ġadvertisement	8998
ĠFall	8998
Ġparliament	8996
Ġ206	8996
352	8993
ĠMine	8993
stock	8992
(<	8991
Ġbust	8990
Cook	8987
Ġrailway	8987
Ġpall	8986
ĠTechnologies	8986
Depend	8984
Ġsuits	8984
rek	8983
holder	8983
acon	8982
Review	8982
ĠSnow	8982
Ġloci	8981
Ġate	8981
downarrow	8979
Visible	8979
database	8977
Ġlacks	8977
ĉĠĠĠĠĠĠĠ	8976
Ġsexually	8973
Ġappropriately	8973
ĠVin	8971
Ġepidemic	8969
Ġairway	8969
ĠSwitzerland	8969
Temp	8968
profit	8967
)}^	8967
ĠHawk	8965
subject	8964
Ġusername	8964
Ġrated	8963
ĠPap	8963
Ġlawmakers	8962
Ġtrafficking	8959
Ġtorn	8959
Ġjustification	8959
Such	8958
rass	8956
Ġsimultaneous	8955
ĠHot	8955
ĠTABLE	8954
ĠMN	8954
Ġslave	8953
quote	8952
Ġdwell	8952
blin	8949
?!	8949
Ġreminded	8949
Ġneurological	8948
ĠWalter	8948
Ġdisplaying	8947
Ġmonetary	8946
Ġknot	8946
Ġelimination	8946
.");	8945
erts	8942
Ġmarine	8942
ĠDie	8942
Ġcant	8941
stylesheet	8939
Ġdrum	8937
Ġdisappointed	8937
oste	8936
Ġenters	8933
Ġengineer	8933
hia	8932
von	8930
oration	8930
Keys	8930
DateTime	8928
Gar	8926
ctl	8924
INSERT	8923
Ġassured	8923
Ġdiploma	8922
Ġcharity	8921
ĠComponent	8921
Ġaccounted	8919
Ġgrains	8918
Ġinterviewed	8916
hift	8912
Est	8912
Ġsnack	8912
Ġobey	8910
Ġcoated	8910
ĠNever	8910
ÎºB	8908
Domain	8908
ĠRelations	8908
average	8907
Ġwondered	8905
ikin	8904
ĠLiving	8904
888	8903
567	8902
ĠCampbell	8901
{%	8900
Ġwheels	8900
FW	8898
Ġtrusted	8897
ĠCurr	8896
ERY	8895
Ġminus	8894
Ġballoon	8894
Ġot	8893
"""	8892
980	8891
Ġquantify	8891
Ġpoet	8890
iger	8888
Ġmoisture	8888
ĠHREF	8887
Nothing	8886
Ġtaxpayer	8886
lls	8885
Ġemploying	8885
ĠMIT	8885
Ġdownward	8884
Ġ1967	8884
eR	8882
Ġ260	8878
Ġstays	8877
Ġcostly	8877
Ġsquares	8871
Ġstrongest	8870
ĠPrint	8870
anie	8869
Furthermore	8869
063	8869
Ġamplified	8869
ĠIndependent	8869
ĠLR	8867
Ġtransgenic	8866
\}$,	8864
issue	8860
significant	8859
Ġlaughed	8859
Ġ-----	8859
Ġguards	8858
Ġsecurities	8856
Ġadviser	8856
Ġseventh	8855
Ġintegers	8853
ĠPeace	8853
Ġcul	8852
chat	8851
385	8851
Ġcommerce	8851
Ġscream	8850
Ġintravenous	8850
Ġgem	8850
Ġ231	8850
ĠAlexa	8849
ĠNeed	8848
Ġdefective	8846
Ġarthritis	8846
moz	8842
Ġviewers	8841
Ġdash	8840
cook	8839
347	8838
ĠQuality	8837
statement	8836
Ġnormalization	8836
ĠHell	8836
ĠDatabase	8836
Ġstandardized	8835
Ġretreat	8835
Ġ211	8835
Special	8832
ĠSNP	8832
Ġuncertainties	8830
329	8827
ĠYang	8826
DY	8823
ube	8820
ĠSTE	8818
rae	8816
lÃ©	8816
Wall	8815
Ġ270	8815
ĠMachine	8811
Ġbreathe	8810
HAR	8809
Ġcomplained	8808
ĠSus	8808
Ġfaint	8807
Ġaffirmative	8807
ĠCBS	8806
Ġcollagen	8804
protocol	8801
WP	8801
Ġannotation	8800
ĠIntelligence	8800
ddl	8799
dag	8799
FROM	8799
Ġlabeling	8797
tical	8794
pedia	8794
heel	8793
pacing	8792
Ġcompassion	8792
Extension	8790
Ġmeter	8790
Ġhiding	8790
Ġdelegate	8790
Ġslides	8789
Ġappealed	8789
JU	8786
ĠAlbert	8785
}|\	8784
ĠMORE	8784
Ġfirearm	8783
Ġdeprive	8783
Ġanniversary	8783
Ġleap	8777
loader	8776
292	8776
VD	8774
TW	8774
Ġelliptic	8773
Ġcc	8772
bble	8771
libs	8770
Would	8769
Ġpractically	8767
Sequence	8764
ĠMembers	8764
Ġvaccines	8762
ĠOriginal	8762
Ġdemonstration	8758
Ġchiral	8757
Ġonion	8756
Ġlungs	8755
Unfortunately	8753
ĠGram	8751
escence	8749
Ġthorough	8749
âī¥	8748
}}[	8747
Ġhonestly	8747
Ġinitialize	8746
jit	8744
Ġmt	8744
Ġshallow	8743
Ġpicks	8743
1234	8741
ĠMaterials	8739
Ġoperative	8738
Ġtemper	8737
"`	8736
INS	8733
Ġlicenses	8733
ĠBuy	8733
ĠGill	8732
ĠKill	8731
Ġbolt	8730
ĠRV	8729
Ġreproduction	8728
ĠSuperior	8727
road	8726
ĠRecent	8726
Ġscholarship	8725
Ġstressed	8721
Ġ##	8721
parameters	8719
^*_	8718
ĠLICENSE	8717
Ġnewsletter	8716
ited	8715
Ġdressing	8715
Ġconjecture	8715
origin	8712
Ġascertain	8712
ĠTower	8711
Police	8709
Ġdrone	8707
Ġcollections	8707
Ġdepletion	8706
ĠVis	8706
xFF	8705
Ġworm	8704
Ġtile	8704
convert	8703
tml	8701
sizing	8699
ĠTRUE	8699
ĠAlliance	8699
Ġisolate	8698
Ġtexts	8697
Ġhorrible	8697
setup	8696
Ġcarpet	8696
Ġcapsule	8695
Very	8694
Ġsperm	8693
emptyset	8692
Ġpg	8691
ĠASP	8691
navbar	8688
Ġgenerators	8688
ĠIssue	8687
)));	8686
ĠOFF	8686
Ġglasses	8684
Ġreminder	8680
IFT	8679
PW	8675
ĠElection	8672
errors	8671
Sync	8671
Ġattacking	8671
%"}	8667
qi	8666
Ġworthy	8666
signal	8661
Ġboa	8661
Ġprojections	8660
nop	8659
ĠCastle	8658
qs	8657
.__	8655
Ġlongest	8655
eaf	8654
Ġprecious	8654
stats	8651
Ġtemporarily	8649
Ġgotta	8649
ĠAlternatively	8648
Ġcompartment	8645
TIF	8644
Ġseizure	8642
Ġinhibits	8641
Ġbreeding	8640
Ġmeso	8639
ĠFinance	8639
Ġholy	8638
Â¢	8637
wig	8637
ĠLawrence	8637
Ġghost	8636
ĠDrive	8636
ĠBishop	8634
Ġgrabbed	8633
Ġdropping	8633
LIC	8631
Ġwells	8631
ĠLIMIT	8631
ĠDru	8631
Ġdopamine	8630
291	8629
Ġheadquarters	8629
jin	8628
Ġtrunk	8628
Ġpenalties	8625
ĠPrevent	8625
Ġlocate	8623
ĠPortland	8623
430	8622
Ġeducated	8621
Ġadherence	8620
Å¡	8619
umm	8618
Analysis	8616
environment	8615
generate	8614
Ġresting	8613
)âĢĵ(	8612
nucleotide	8611
Allow	8611
Ġdiagrams	8611
ĠReed	8610
Ġtokens	8609
$-$	8606
Ġwires	8605
INA	8604
Ġstrengths	8603
Ġmorphism	8603
ĠFramework	8603
itions	8602
detail	8602
Ġsubunit	8596
Ġconvincing	8596
Ġstruggled	8595
Ġprotesters	8593
keeper	8591
Ġmitochondria	8591
'];	8589
Ġcheek	8588
iki	8587
xis	8585
shadow	8583
ctrl	8583
Moreover	8583
ĠGrid	8582
Ġsham	8581
Ġelegant	8580
Ġdescent	8580
Ġtreasure	8579
Ġsuffice	8577
Ġmorbidity	8575
Failed	8574
arily	8573
oplasm	8572
ĠVegas	8571
Tests	8570
Ġpricing	8570
Ġporn	8569
argument	8568
Ġsampled	8568
Ġretinal	8568
ĠCrime	8567
kernel	8566
paper	8565
ĠHey	8565
Ġterrorists	8564
TAL	8562
film	8559
Ġhepatitis	8559
Site	8558
Ġquadratic	8558
Ġprone	8558
Ġhiring	8558
Ġflowing	8558
ĠRate	8557
Ġpolynomials	8556
ades	8555
ĠPutin	8552
meter	8551
('/	8551
Ġpotatoes	8550
Ġ[],	8550
Ġdementia	8549
brain	8548
adm	8548
CES	8547
Ġintentional	8547
Ġbatteries	8547
ĠGDP	8547
ĠFish	8547
?.	8546
Ġrefusing	8544
Uh	8542
mart	8540
VL	8539
Ġparser	8539
783	8538
640	8538
Ġsubdivision	8538
Ġbeverage	8537
electric	8536
8000	8536
()).	8536
Ġpap	8536
Ġimported	8536
Ġbiomarkers	8536
ĠVEGF	8536
Ġflor	8534
ĠONE	8533
omorphic	8532
Ġsucceeded	8531
pus	8526
299	8526
boldmath	8525
Fix	8525
immune	8524
Children	8522
Ġpause	8521
assertEquals	8520
ĠWM	8519
ĠUm	8518
ĠDiscussion	8517
Ġprobabilities	8516
Ġconstitu	8516
-[	8515
uated	8514
=%	8513
ĠIDE	8512
Ġregulators	8509
Ġdots	8509
China	8507
Ġinfrared	8507
ĠNum	8506
Ġimagination	8505
Ġ215	8505
ĠOcean	8501
Ġnoble	8499
Generic	8498
348	8498
Ġwick	8497
ĠStein	8497
Statistical	8496
bers	8494
ĠClean	8494
Ġprotects	8490
ĠMotor	8490
ĠTODO	8488
ued	8487
Ġveterans	8487
Ġ*(	8487
ĠAnne	8486
Ġdescriptor	8485
ĠHope	8484
Encoding	8483
408	8483
Ġoverseas	8483
Ġfrustration	8482
ĠMuch	8480
Ġ224	8480
getElementById	8478
Ġcruise	8477
ĠPoland	8477
Loop	8476
ĠIslands	8474
Ġfootage	8473
Ġcamps	8473
character	8472
Ġtransparency	8472
Ġsums	8471
Ġoils	8471
ocal	8470
ĠCape	8470
Ren	8467
Ġcalories	8466
ĠLem	8465
demo	8464
Ġcomo	8464
ĠEmail	8464
)[(	8463
ĠHttp	8463
680	8462
ĠShaw	8462
Ġaccumulated	8461
oming	8460
chin	8460
Ġverification	8460
Ġmotif	8459
ĠBlog	8459
Ġreluct	8457
Ġreliance	8457
ĠCass	8456
nts	8454
MIC	8451
ĠCoach	8451
ĠFried	8450
ĠGray	8449
archive	8447
Qt	8445
Ġdiffers	8444
Ġconstrained	8441
Ġchase	8441
ĠCommunications	8439
STATUS	8438
Ġinevitable	8438
Ġperturbation	8435
bian	8434
ĠFound	8433
0013	8432
Ġsqueeze	8429
ĠnM	8429
Ġ212	8429
ĠXX	8428
Ġfled	8426
Ġadvocates	8426
Ġnotify	8425
ĠMitchell	8424
Ġscattered	8422
Ġinitiatives	8422
ĠHonor	8421
->_	8420
ĠShin	8419
780	8416
ĠOpera	8416
olate	8415
esa	8414
ĠGuy	8414
Ġforty	8413
Interval	8412
Ġassisted	8409
Ġglobally	8408
Ġexplosive	8406
0017	8405
Ġinherited	8405
quant	8404
buck	8404
TOP	8402
Ġrocks	8402
Ġtriangle	8400
Ġafterwards	8400
Ġtoy	8399
Ġmystery	8397
volume	8396
Ġugly	8394
Ġlang	8393
Ġbutt	8393
ĠRosen	8393
Ġlymphocytes	8392
City	8390
ĠColo	8390
Ġah	8389
Ġbtn	8387
gia	8386
Sql	8386
Ġstats	8386
Ġqualities	8386
Ġobserver	8386
Ġcement	8385
dll	8384
ĠMale	8384
Ġanalyst	8383
Ġrope	8382
ĠVS	8382
HING	8381
Ġoverhead	8381
Ġinstalling	8381
Ġexterior	8381
ĠTogether	8381
route	8380
Ġsubscribe	8378
Ġdefending	8378
ĠKenya	8378
Ġvagina	8377
Ġwinds	8376
Ġscreens	8372
Ġmelanoma	8371
ĠLetter	8371
acts	8370
Ġphp	8369
Ġhosting	8368
Services	8367
Ġpays	8367
065	8366
ĠShop	8366
ĠChrome	8366
tell	8365
ailing	8365
Bank	8365
Audio	8365
Ġrelaxed	8364
Ġdiluted	8364
Track	8361
SUB	8360
Ġobservational	8360
Ġconsuming	8360
ĠSave	8360
Ġ\+	8359
XY	8357
Mel	8357
Ġstunning	8355
critical	8354
ĠPET	8353
331	8351
066	8351
Ġmediate	8351
Speak	8350
Ġwrist	8350
Ġfires	8350
ASSERT	8349
Ġuncomfortable	8349
ĠProgress	8348
Mapping	8346
)!	8345
Ġpersuade	8345
ĠEqual	8345
Ġdire	8343
Ġinvested	8341
Ġclones	8341
allow	8340
()"	8339
Ġ222	8339
OME	8338
Initial	8337
Ġopioid	8334
ĠExamples	8334
![**	8333
istent	8332
ĠSmart	8332
Clear	8329
Ġpulses	8329
Ġcongressional	8329
ĠClearly	8329
Ġcapitalism	8326
ĠGuardian	8325
gian	8324
RING	8324
359	8324
Ġvoter	8324
abel	8322
Ġirradiation	8321
Ġconductor	8321
Ġpigs	8317
ĠAqu	8317
Ġpastor	8316
387	8314
Ġshocked	8313
ĠDeep	8313
Ġglobe	8312
/_	8311
ĠFALSE	8311
Ġsubstantive	8310
ĠJerem	8310
Ġfluids	8309
oids	8308
ĠBris	8306
ogical	8305
Ġinfinity	8305
ĠResult	8304
eden	8303
Ġubuntu	8302
Ġcycling	8302
Ġ*/,	8302
ĠApr	8299
whether	8298
Ġspy	8298
ĠUniverse	8298
mple	8297
Ġ207	8297
stre	8296
Ġinvesting	8296
Ġ208	8295
QT	8294
ĠAppeal	8292
usually	8291
Ġmd	8291
Ġgarbage	8290
schemas	8289
Ġtroubles	8288
Ġcompleting	8288
*\*	8287
Ġtransfers	8286
Ġtemplates	8286
Ġ*,	8284
Ġdies	8283
Ġcleavage	8283
borne	8281
ĠConnecticut	8281
ista	8280
Ġtransformations	8280
Ġplanets	8280
Ġadapter	8280
ĠDefinition	8278
inase	8277
Ġpatches	8277
six	8276
sep	8275
cry	8275
Ġparole	8275
blank	8273
Ġmultivariate	8273
Ġvillages	8271
Ġflavour	8269
oning	8267
amel	8267
Ġgenomes	8267
ĠMono	8267
Ġlasting	8265
Ġgriev	8265
ĠOrange	8265
621	8263
Ġmentor	8263
ĠHindu	8260
ĠVisit	8258
Ġdimer	8256
ĠTab	8256
Master	8255
Flag	8255
agne	8254
Ġnutrients	8254
Ġcounterparts	8254
ĠCompared	8254
ORS	8253
Ġillustration	8250
421	8249
Ġsurrender	8247
grams	8245
anies	8244
ANCE	8244
plex	8243
lick	8243
Ġroutinely	8241
Ġaggravate	8240
Ġherb	8239
pathy	8238
IAN	8237
Ġstent	8237
Ġdetention	8237
Ġbacking	8237
Ġreleasing	8235
Ġgraphene	8234
ctive	8233
Ġglory	8232
ĠNV	8231
Ġstrap	8230
ĠELISA	8229
devel	8228
Comments	8227
Ġdivergence	8227
Ġalliance	8227
ĠMurray	8227
Ġ213	8227
Comparison	8226
ĠMail	8226
rays	8225
Ġbottles	8225
Without	8224
ĠLG	8224
oting	8223
()));	8223
sai	8222
Ġidx	8221
issues	8220
ĠTalk	8220
ĠYOUR	8219
charge	8218
]$,	8218
ĠFix	8217
ĠAlzheimer	8217
IME	8216
ĠMarshall	8216
aft	8214
Animation	8214
//!	8213
ĠBH	8213
RIC	8211
ĠAra	8211
Face	8210
posing	8209
ĠassertEquals	8206
Timer	8205
Ġbuilds	8203
Ġmammalian	8202
Ġhungry	8202
Ġbuyers	8201
Ġabsorbed	8201
aph	8200
Ġknees	8200
Ġtrillion	8199
idia	8197
Ġvisa	8197
Ġ1964	8197
chart	8196
Ġorganism	8196
Ġoccasional	8195
ĠZn	8195
Ġsilly	8192
sson	8189
Tx	8188
objects	8187
Ġket	8187
Ġaltogether	8187
Ġpants	8186
Ġalgebras	8186
Monday	8184
Ġcounties	8184
Ġapologize	8184
tL	8183
forms	8181
Ġspeculation	8181
ĠSusan	8180
ĠIndividual	8179
ĠEva	8178
Ġchaos	8177
560	8176
aged	8175
ĠHills	8174
Ġmicrowave	8173
Ġincurred	8173
Ġcrying	8173
ĠEye	8173
Ġchin	8172
Ġsketch	8171
Ġinferred	8171
tuned	8169
481	8168
Ġbake	8167
Hub	8165
ĠActivity	8164
quin	8163
ĠSingh	8162
Ġmechan	8161
Present	8159
ĠStudents	8157
Ġhandles	8156
Ġadoles	8155
ĠProfessional	8154
ĠMaine	8153
Ġpatents	8152
Ġlord	8151
ĠORDER	8151
repeat	8148
Mouse	8148
Ġlacked	8148
phen	8144
anto	8142
although	8142
ĠCONFIG	8142
Ġexperimentally	8141
Focus	8139
Ġprospects	8139
chs	8137
ĠÂłĊ	8137
Ġshook	8137
eight	8136
Ġcrystals	8136
Ġversa	8133
Ġnecrosis	8133
story	8132
Ġseasonal	8132
alert	8131
Ġours	8131
Ġdownloaded	8131
dq	8130
Ġpolymers	8130
Ġconductivity	8130
Ġwhites	8129
Ġsocieties	8128
Ġmachinery	8128
technology	8127
Ġfac	8127
Ġankle	8127
ĠChristianity	8127
ĠMoney	8126
ĠGUI	8126
Ġobserving	8123
Ġeditorial	8123
Ġcloth	8123
psin	8122
Ġrevealing	8121
ĠCorrect	8121
Ġoutfit	8120
ĠLuke	8120
ĠAssert	8120
Ġracism	8115
ĠLGBT	8107
,...,	8106
ĠEat	8105
Install	8104
Ġpublishing	8104
Ġrelying	8103
Ġmicroscopic	8103
ĉĉĠĠĠĠĠĠĠ	8103
vre	8102
osin	8102
Ġreferral	8102
GW	8101
Ġgestation	8101
391	8100
fied	8099
Ġcritically	8099
Ġcontinuity	8098
Ġcascade	8098
Uri	8094
Ġcoup	8094
Ġagar	8094
Ġchunk	8092
Ġacoustic	8092
ĠNBC	8092
Ġsoap	8091
Ġdifferentially	8088
ĠProducts	8087
372	8084
ĠWash	8084
Bbb	8083
Ġgp	8080
ĠIo	8080
Ġsatisfactory	8079
Ġpurple	8079
Ġpeers	8078
anon	8077
MK	8077
versa	8075
Ġbronch	8073
uments	8072
701	8072
Ġfixture	8071
ĠOracle	8071
Ġnominee	8070
Ġgenotypes	8070
ĠStanley	8070
lear	8069
distr	8069
Overall	8069
ĠPrivate	8069
Ġflies	8067
deep	8065
Pt	8065
Ġtheolog	8065
mph	8063
Ġdecode	8063
Ġunderground	8062
Ġbonding	8061
corporation	8059
hover	8058
ause	8057
Ġtomography	8056
Ġperpendicular	8055
ently	8054
oriented	8053
Ġhug	8053
Ġcoincide	8052
Ġbackward	8052
Ġpredicting	8050
ĠPrimary	8050
Ġnodded	8049
mathit	8048
books	8048
Ġfarms	8043
Begin	8042
ĠWalk	8042
ĠPred	8042
provider	8040
Ġconfusing	8040
Ġtablespoons	8037
pull	8036
Ġleverage	8036
Ġlanded	8036
detect	8035
Ġbinds	8033
Ġconditioning	8032
ovic	8031
Ġpunct	8030
ĠRange	8030
ĠCollins	8029
ĠForum	8028
Question	8027
Ġantigens	8027
ĠCorps	8026
Ġoverlapping	8025
Ġwinners	8023
Ġ1965	8023
Ġtors	8022
STRING	8021
Air	8018
334	8018
Ġwildlife	8017
enol	8016
Ġconception	8016
Ġcocktail	8016
ĠWP	8016
ĠLikewise	8016
Ġterminals	8015
Ġpainted	8015
Ġneat	8013
Ġclash	8013
ĠPittsburgh	8013
inar	8011
SION	8011
Ġsimplified	8010
335	8009
Ġwealthy	8009
motion	8007
Ġrestoration	8007
Ġdonations	8007
idad	8006
Ġquantification	8006
Ġrotational	8005
Ġgates	8005
ĠHyper	8004
ĠHiggs	8004
writing	8003
elling	8003
337	8003
Ġdescriptions	8002
Ġvegetable	8000
ĠOthers	8000
Ġdesc	7999
available	7998
Ġsequel	7997
kers	7996
373	7996
Ġrhetoric	7996
Ġpellet	7996
ĠMind	7996
skin	7992
Sym	7992
Direct	7992
wrapper	7991
Ġwaist	7991
Ġintercept	7991
Ġworlds	7990
Ġreforms	7989
ectomy	7986
Ġlifting	7986
Ġconstructs	7986
Ġbarred	7986
Ġrelapse	7985
ĠTIME	7985
zan	7983
ĠParticipants	7983
lde	7982
angular	7982
Ġ330	7982
Ġsummit	7981
ĠMurphy	7980
ĠAlice	7980
Ġqubit	7979
Ġcargo	7978
Ġapplicant	7977
Ġoffspring	7976
Ġkicked	7974
gst	7972
()))	7972
Ġconverting	7972
Ġantimicrobial	7971
thus	7969
Ġhistological	7969
tailed	7968
Ġemergence	7968
ichi	7967
Son	7967
ĠOrleans	7966
Ġlinkage	7965
Ġligands	7965
Ġhung	7965
Sum	7964
396	7964
tries	7963
Ġdetectable	7962
ĠPast	7962
ĠFlu	7962
Ġscientist	7961
Ġsimplify	7960
ĠRace	7960
Ġstones	7959
ĠEdition	7959
Ġconfession	7958
ĠInside	7958
Ġtangent	7956
*[	7953
Ġacceler	7953
tage	7950
ARI	7950
Ġqueen	7950
ĠClassic	7950
Ġsubgroups	7949
ĠMn	7949
marked	7947
)/((	7947
weak	7946
Ġsupportive	7945
Ġ\!	7945
gM	7944
Ġwounded	7944
Ġhomosexual	7944
Ġrepeal	7943
iator	7940
Friday	7940
Pas	7939
CX	7939
Ġpurchases	7938
ĠDas	7938
browser	7936
740	7936
YES	7935
ĠSignal	7935
Ġ----	7933
hook	7932
Ġrepo	7932
Ġbroadly	7932
Ġpairing	7929
.]{}	7928
Ġhaem	7928
Ġjaw	7926
RH	7925
Ġsliding	7925
atl	7921
Ġtitled	7920
Ġdosage	7916
clinical	7915
Ġdistract	7915
tern	7914
moving	7913
Ġstreak	7913
Ġshortage	7912
Ġdrafted	7911
Ġupdating	7910
Ġenact	7910
say	7908
920	7908
ĠFiles	7908
jackson	7907
Ġnutrient	7906
Ġclue	7906
Ġambient	7906
Ġobese	7904
Ġchloride	7904
Ġcommented	7903
delay	7902
peer	7901
Ġsv	7900
Ġnaked	7900
Ġcompensate	7900
Ġgreet	7899
building	7898
Ġpermanently	7897
ĠMatter	7897
Ġpresumption	7896
Ġheritage	7896
Ġshoe	7894
Ġpatron	7894
Ġcivilian	7894
Ġflee	7893
NOTES	7892
Ġdeed	7892
Ġfirmly	7891
Ġaux	7891
Tell	7888
Ġharvested	7888
jr	7887
Ġdistinctive	7887
ĠAMP	7885
Struct	7879
Ġquo	7879
Ġcorpus	7879
wick	7878
Ġsoak	7876
Ġpremise	7876
422	7874
Ġdefinitive	7872
ĠAaron	7872
cart	7871
ĠSubject	7871
Department	7868
==============	7868
667	7868
Weight	7867
ĠWorking	7867
Ġcontexts	7866
ABC	7863
Ġdeficits	7862
Ġreserves	7861
Ġfright	7861
Ġexchanges	7860
ĠEthics	7860
ĠApply	7860
cter	7859
ĠChristopher	7859
cision	7857
Points	7856
Getty	7856
Ġblanket	7855
ĠVALUES	7855
ĠReuters	7855
Ã¨s	7853
361	7853
Ġlaughing	7853
Ġselectively	7852
ension	7851
Html	7850
ĠReading	7848
ails	7847
Materials	7847
producing	7846
Ġtheatre	7846
Yu	7845
Ġrecalled	7845
ĠParker	7845
zym	7843
Fun	7843
Ġcubic	7843
Ġchef	7842
Random	7841
ĠPalm	7841
ĠDream	7841
Â¬	7840
regular	7840
predict	7840
ĠISIS	7840
plugins	7839
Ġstitch	7839
ĠEp	7839
Ġuniquely	7838
ĠVancouver	7836
ĠCraig	7836
cape	7835
Family	7834
468	7834
Ġthermodynamic	7832
Ġpolitician	7832
Fill	7831
Ġtherapist	7831
ĠBN	7831
Compare	7830
.*,	7830
Ġtaxa	7830
design	7829
ĠTrail	7828
unes	7827
Fire	7827
Ġtraditionally	7827
Ġdesigning	7827
ĠCRE	7827
CSS	7826
bundle	7825
Ġoccupy	7825
Ġarena	7825
sell	7823
Hs	7823
Resolve	7822
Human	7822
nium	7820
ifiers	7820
541	7820
/#	7820
Ġaz	7819
ĠMcCain	7819
macro	7817
=========	7817
Ġdeviations	7817
ĠTaking	7817
rB	7816
Ġpowered	7816
health	7811
Ġbasement	7810
business	7809
Pad	7808
-"	7808
ĠCrim	7808
bye	7807
ĠUL	7806
Ġuncle	7804
Ġpn	7804
Ġconverter	7804
rame	7803
Ġmonoclonal	7803
bury	7802
Ġpreparations	7801
462	7800
swift	7799
ĠArrayList	7799
Ġ301	7799
295	7798
ĠPhD	7797
Ġbot	7796
plate	7794
iah	7794
Ġquietly	7794
Ġtightly	7791
Ġdaughters	7791
agger	7790
PACK	7790
Assembly	7790
425	7789
Ġlazy	7789
Ġbowel	7789
850	7788
Ġsynaptic	7787
Team	7785
:@"	7785
Â¹	7783
Ġconfront	7783
ĠPharmac	7783
Ġsilica	7780
Ġentre	7779
ĠVictor	7779
coat	7778
Ġpolitically	7778
Ġmultiply	7778
Ġaqua	7778
ders	7777
Cancel	7777
Ġcation	7776
ĠSend	7776
570	7775
Ġaccelerated	7775
ĠRuby	7775
630	7774
Ġrecess	7773
Ġbeads	7772
ĠMem	7771
Ġsoldier	7769
Ġpond	7769
ĠAssume	7769
factory	7768
cout	7768
ovirus	7767
590	7767
ĠXP	7767
Ġsaturated	7766
Ġregistry	7766
ĠBiden	7765
uparrow	7764
Ġ().	7762
million	7760
394	7760
ĠObviously	7760
ocytes	7758
Ġnewer	7754
Ġeternal	7754
vage	7751
Ġclerk	7751
ĠVenezuela	7751
ĠSwiss	7750
ĠMathematics	7749
ĠHunt	7749
Fragment	7746
Ġpine	7745
Ġimplant	7745
Ġdebris	7745
ĠMarvel	7742
}}\,	7741
475	7740
+,	7740
)\]	7740
dant	7739
Ġemitted	7738
ĠLiberty	7737
Ġsimplest	7736
,[@	7735
Ġinvitation	7735
ĠThings	7735
ĠPhoenix	7735
ĠCAP	7735
Ġconn	7733
rish	7732
Ġmysterious	7732
eron	7731
near	7730
Ġemphasized	7730
held	7728
cgi	7727
Ġtoast	7727
cH	7726
Ġswallow	7726
Ġpassionate	7726
Ġfixation	7726
Ġrefresh	7725
Ġunlock	7724
Ġteaches	7724
ĠDiet	7724
Design	7723
Ġrestrain	7723
367	7722
ĠTwenty	7722
ĠNaCl	7721
Ġturbine	7720
Ġdairy	7719
ĠDakota	7719
Love	7718
Ġarchitect	7718
Ġtablet	7717
Visual	7716
Ġladies	7715
Study	7714
Robert	7714
Ġsisters	7714
435	7712
Ġtactics	7712
748	7711
Ġcivilians	7711
icit	7710
ĠEinstein	7708
Ġmega	7706
Ġrailroad	7705
Ġoutlets	7703
Ġimg	7703
Linear	7701
1974	7701
;-	7700
Ġasleep	7700
Ġdifferentiate	7696
Ġ******	7696
Chain	7695
ĠREG	7691
Dim	7690
Ġ{},	7690
headers	7689
Ġmosquito	7689
Ġmissions	7688
Ġesophag	7688
Ġcharm	7688
Ġwander	7687
Ġaperture	7686
Ġequitable	7685
455	7684
Ġtorque	7682
417	7681
*;	7681
Ġcis	7681
ĠJustin	7681
sche	7680
Ġflap	7680
Ġengineers	7680
ĠVariable	7679
ĠInstagram	7679
525	7678
Ġ201	7678
ĠRoll	7677
DEP	7676
ĠBenjamin	7676
entine	7675
ĠUntil	7675
Quant	7674
ĠNash	7674
Ġlethal	7673
Ġhepat	7672
Sport	7671
Ġswitches	7671
Ġlod	7671
Ġcutoff	7668
evidence	7667
registry	7666
maps	7665
direction	7665
Complete	7665
Ġsinging	7663
Ġearning	7663
Raw	7662
Kh	7661
Ġbovine	7661
ĠLiverpool	7661
ookup	7660
Ġwounds	7660
Ġale	7660
Ġ216	7660
ĠOfficial	7659
mobile	7658
ĠBeat	7658
Ġpotassium	7657
Ġhears	7657
ĠLad	7657
Î»	7656
aces	7654
ĠCertain	7654
Ġscreened	7653
dates	7652
Ġcreep	7652
Eu	7650
Ġ209	7650
Ġbent	7648
Ġreductions	7647
ĠTreasury	7647
RED	7645
Act	7644
athon	7643
Phase	7643
Hand	7641
Ġspeculate	7639
KR	7638
Ġcurriculum	7638
Ġ")	7638
details	7637
Ġfuneral	7637
Ġtouching	7636
ĠGia	7636
balance	7635
Ġbeams	7635
aan	7634
COR	7633
ĠRH	7633
Ġperme	7632
Ġgroove	7631
checked	7630
ĠDh	7630
ĠCarlo	7630
slot	7629
alog	7629
Ġregulates	7628
Ġdeserves	7627
ĠIdaho	7627
Ġfiltration	7626
ĠComment	7626
Ġ235	7625
ĠBand	7624
Ġsurgeon	7623
Ġpriorities	7621
Ġintentionally	7621
Ġtransporter	7620
ĠStyle	7620
Ġglycol	7617
ĠUniversal	7617
)--	7616
Ġirreducible	7616
ÂĽ	7615
REA	7614
SSA	7613
Ġcastle	7613
cele	7610
nus	7609
subscribe	7608
Ġidentities	7606
Ġhey	7606
Ġbrightness	7606
LIST	7605
Ġcelebrated	7605
Material	7604
ĠMemory	7603
zar	7601
ĠConnection	7601
ression	7600
Peter	7600
Ġexcluding	7598
Limit	7597
Ġplausible	7597
504	7596
Ġmisleading	7595
ĠTurner	7595
Ġdynamically	7594
dialog	7592
wich	7591
effect	7591
Ġhelicopter	7590
Ġfascinating	7590
ĠRice	7590
brane	7589
rbrack	7588
Ġrotor	7588
Ġcooperative	7588
Ġray	7587
("\	7586
Ġtechnically	7585
Ġinstantly	7585
campus	7584
Ġlever	7584
Ġcaring	7584
oles	7583
1970	7579
ĠKEY	7579
ĠSmo	7578
067	7576
Ġeleven	7575
Ġdesires	7574
Ġactivist	7574
ĠVia	7574
ĠSomething	7574
ĠAndy	7574
Ġdioxide	7573
ĠModule	7572
Ġfond	7571
Ġadministrator	7571
Ġqual	7570
Ġlightly	7568
Ġdamp	7567
Ġembryo	7566
Ġbenign	7565
616	7564
Ġcrystall	7563
Ġintentions	7561
ĠOkay	7560
particle	7559
hub	7559
Ġrc	7559
Ġcleaned	7559
ĠRoger	7559
Âħ	7558
Ġopenly	7558
ĠDebug	7558
picture	7557
Insert	7557
395	7557
ĠBorder	7557
assets	7556
Ġlikewise	7555
Ġarose	7555
Ġ401	7554
Ġjurors	7553
Ġguarantees	7553
Ġ214	7553
358	7552
cion	7551
ĠLoren	7551
Term	7550
oxide	7549
>";	7549
Ġcritic	7549
bean	7548
Ġgaining	7548
ĠCollect	7548
561	7547
0014	7547
Ġadditionally	7546
Const	7544
Ġphylogenetic	7543
371	7542
Ġcompatibility	7542
Ġdeposits	7541
Ġreconsider	7538
ader	7537
RON	7537
national	7536
MX	7535
KING	7535
ĠHunter	7534
756	7533
Ġweakly	7533
Ġls	7533
Ġdetective	7533
ĠSwedish	7533
Ġexceeded	7531
Ġtwisted	7530
Ġlatent	7530
Ġcompressed	7530
ĠConsumer	7530
beans	7528
October	7528
Kar	7528
ĠÂµg	7528
Ġlighter	7528
oir	7527
Tuesday	7527
781	7527
forming	7526
KEN	7526
Ġviscosity	7526
ĠLeader	7526
Ġfraudulent	7525
ĠEnvironment	7525
acks	7524
WRITE	7524
ĠContact	7524
Ġuseless	7523
ÃĹÂĶ	7522
ises	7522
Ġoversee	7522
Ġtalented	7521
tele	7520
August	7519
Ġwrapper	7519
Ġpayload	7519
ĠWait	7519
ĠMovie	7519
Ġexceeds	7518
ĠZhang	7518
START	7516
Ġwherever	7516
Ġmodulate	7516
ĠQT	7516
Wrapper	7515
Ġpoem	7515
ĠLev	7514
}}$$	7513
Ġtanks	7513
Ġcostume	7513
ĠDee	7513
Ġsaturation	7512
ĠConstruction	7512
Ġingredient	7511
ĠStandards	7510
brand	7509
Ġjudgments	7509
builder	7508
ĠCommunist	7507
Ġenacted	7506
Feature	7505
Ġinvestor	7504
Ġbasket	7504
Ġcreatures	7503
todo	7502
products	7502
answer	7502
Ġdst	7502
Live	7501
ĠDynamic	7501
ulsive	7499
Ġ1966	7498
Ġidentifies	7497
Ġepic	7497
Remember	7496
Ġtraveled	7496
ĠLearn	7496
Ġnotified	7495
restrict	7494
502	7494
ĠContext	7494
Tel	7493
Members	7493
Ġbend	7493
history	7492
777	7492
Ġaffair	7492
ĠMode	7492
ĠBackground	7492
Ġwitnessed	7490
gA	7488
Ġimmunohist	7488
lord	7487
970	7486
Ġabsurd	7486
Schedule	7485
ĠStatistics	7484
ĠLimited	7484
sters	7483
Ġkeen	7482
ĠColumn	7482
**_	7480
Ġwished	7480
Append	7479
))))	7478
Ġsnake	7478
Ġcoarse	7478
Ġmakers	7477
Ġeighth	7477
Ġsooner	7476
ĠSpringer	7476
reader	7475
Ġcancellation	7475
oper	7474
):=	7473
Ġmargins	7473
examination	7472
Ġmud	7472
Ġgrocery	7472
Ġsecular	7471
Ġcommute	7469
465	7468
Ġdisposal	7466
Ġannul	7466
pragma	7465
ĠProf	7464
Give	7462
Direction	7461
Ġradar	7461
Ġnationwide	7461
ĠJob	7461
Ġdrilling	7460
ĠJoint	7460
online	7459
Ġsaliva	7459
ĠNag	7459
Ġcares	7456
clip	7454
Ġante	7454
ĠHilbert	7454
Receive	7453
vL	7451
ĠThailand	7451
Ġrust	7450
Ġcasting	7449
ĠOperation	7449
Bes	7448
Ġbuyer	7448
ĠOak	7445
ĠMedicaid	7445
chic	7444
Ġrecombination	7444
Person	7443
Ġamplitudes	7442
olytic	7441
running	7440
atives	7439
AZ	7439
ĠProvince	7439
Ġ242	7438
......	7437
ĠÎ´	7436
Ġearliest	7436
Ġcytometry	7436
ĠVL	7433
ĠSolo	7433
bash	7432
Ġcommentary	7432
Ġ512	7432
xE	7431
WOR	7431
expressing	7430
ĠMHz	7430
Ġobjections	7429
Bottom	7428
ARCH	7428
^(	7427
424	7427
Ġwhip	7425
Ġboyfriend	7424
ĠEgyptian	7424
rina	7422
Ġbicycle	7422
Ġsweep	7421
Ġretrieved	7420
ĠMK	7420
ĠQt	7419
Ġalleging	7417
ÂĿ	7416
},{\	7416
selector	7416
Forms	7415
Bind	7415
Ġhospitalization	7415
ĠTris	7415
Ġchromatin	7414
opts	7413
ĠÂµ	7413
Der	7411
Ġsafer	7411
Ġchic	7411
ĠRh	7411
ĠMission	7411
Ġcolonies	7410
Ġbeaten	7409
Ġtomatoes	7408
Ġpleaded	7408
atz	7407
Enable	7407
Old	7406
'/	7406
Ġpupil	7406
<%	7405
Ġhydrophobic	7405
Ġcolorectal	7404
ĠIndians	7404
ĠHost	7404
ules	7402
Ġalleles	7402
Ġheterogeneous	7401
anz	7400
Ġvocal	7400
Ġmentally	7400
Ġyoga	7399
Ġgraphic	7399
these	7398
YC	7398
Ġhotels	7398
ĠBegin	7398
Ġpave	7397
myc	7394
Ġrationale	7394
298	7393
Ġunitary	7392
Ġcleaner	7391
ĠPipe	7391
ĠAdvanced	7391
Ġstairs	7389
ĠDetect	7386
Ġsav	7385
Ġnewspapers	7385
Ġmissile	7385
Ġlender	7385
Ġ221	7385
Ġunprecedented	7384
Ġfancy	7384
ĠCameron	7384
nto	7382
Never	7382
CAM	7382
HG	7381
Shell	7380
Ġtelescope	7379
Ġmilitant	7379
ADDR	7378
Ġquarters	7378
ĠWayne	7378
glob	7377
mite	7376
,\\	7375
Ġstance	7375
ente	7374
Ġmarkedly	7374
Ġharbor	7374
890	7373
Ġrepress	7372
Generator	7371
Ġexcitement	7370
Ġpodcast	7369
Ġoffend	7369
Ġcollisions	7369
Ġanimated	7368
Wednesday	7367
ĠSalt	7367
ĠIQ	7367
FALSE	7365
Ġcommercially	7365
Ġbiased	7365
enas	7364
ĠSpecific	7364
ĠMW	7364
trim	7362
suppl	7361
516	7361
Ġtowel	7361
6000	7360
Ġdancing	7360
construct	7358
ĠBooks	7356
DAY	7355
ĠSample	7355
ĠJudges	7355
Ġcrisp	7354
ĠLower	7354
ĠCrown	7354
Ġnorms	7353
ĠOutput	7353
rust	7352
oko	7351
apps	7351
Ġdraws	7351
ĠDAMAGE	7351
ĠClear	7351
Ġhorn	7350
Ġadvisor	7350
âĢĿ).	7349
ĠLabel	7349
Ġmistaken	7348
768	7347
(%	7347
Ġfmt	7347
ĠMagic	7347
ĠSox	7346
Î¼M	7345
ĠCardinal	7344
Ġlocking	7343
Ġclever	7343
ĠSki	7341
ĠPhilippines	7341
enne	7340
'''	7340
ĠViol	7340
ĠScreen	7340
Nodes	7337
Ġstatue	7337
Ġcolleges	7336
Ġ365	7336
Ġlawful	7335
Ġbombing	7335
ĠSELECT	7335
iable	7334
Ġimposing	7334
Ġcigarette	7334
OTH	7332
Ġexecutives	7332
selection	7331
Fri	7330
iron	7329
ĠButton	7329
Ġ293	7329
Ġcosmic	7328
801	7327
Ġtraces	7326
Ġoutward	7324
ĠWorkers	7324
Customer	7323
Ġsuspicious	7323
Ġmerged	7321
Ġanalysts	7321
hello	7320
Ġaccidents	7320
378	7319
469	7318
1973	7317
CTG	7316
ĠSpl	7316
Ġtomato	7315
Ġgram	7312
Ġbelieving	7312
Rows	7311
Ġnicely	7311
SOURCE	7310
ĠDragon	7310
makers	7309
nica	7308
credit	7306
Ġlime	7306
Env	7305
Ġcoconut	7305
Ġaa	7305
Ġpredecessor	7304
Ġknockdown	7304
880	7301
hire	7300
Ġdelicate	7299
Ġsupervised	7298
Ġencode	7298
ĠReform	7298
Ġsour	7297
Ġfossil	7297
ĠFU	7297
Bot	7296
Ġconstructive	7296
duration	7295
Early	7295
ĠMega	7295
OPE	7294
655	7294
cave	7293
Ġpockets	7293
Ġconfess	7292
Ġkb	7291
Ġrim	7288
Ġhills	7288
ĠArkansas	7288
\$	7286
ady	7284
Ġregex	7284
died	7283
Ġgovernmental	7283
matched	7282
fair	7281
Ġsupreme	7281
Ġcriticized	7281
Adv	7280
ĠÎ³	7280
ĠParse	7280
ADE	7279
Ġabolish	7279
Ġairline	7277
ĠRiemann	7277
ĠPOS	7276
dler	7275
Ġtraded	7273
ĠOscar	7273
503	7272
Ġelectronics	7270
ISP	7269
FX	7266
Ġbracket	7266
770	7264
Ġcompetitors	7263
Ġboats	7263
Ġbillions	7263
Ġ1920	7263
528	7262
rq	7261
alter	7260
#,	7260
ĠClaim	7260
Ġbishop	7259
uniform	7258
Ġlatency	7258
ĠWILL	7258
ĠEither	7258
utter	7257
Cross	7256
forcing	7255
ĠComparison	7255
Ġsecrets	7254
^âĪĴ^	7253
raction	7252
Ġparasite	7252
throws	7251
TOM	7251
Ġtraditions	7250
MIS	7249
'));	7249
ĠSteel	7249
Accordingly	7248
ĠPs	7248
hearing	7247
482	7247
Ġinvestigator	7246
057	7244
Ġpacking	7244
Bound	7241
Ġoverrule	7240
Um	7239
ĠDetails	7239
directory	7238
Ġowing	7237
Ġacetate	7237
Ġvolatile	7235
Ġgeographical	7235
820	7234
Ġintersect	7234
Ġinformal	7234
ĠPolish	7234
Ġlistener	7232
Ġfunctor	7232
ĠNetflix	7232
Ġproportions	7231
Ġinsulating	7231
Pair	7227
901	7227
inding	7226
ĠLamb	7226
International	7225
Ġlately	7225
ĠAllah	7225
Ġboots	7224
Ġmaxim	7223
varrho	7222
Permission	7221
Ġschizophrenia	7221
nine	7220
XL	7219
Ġfarming	7219
phant	7217
Ġplanar	7215
Ġinfluential	7215
Ġasymmetric	7215
.")	7213
hours	7212
Ġprisoner	7211
429	7210
Ġoffender	7210
ĠNei	7210
Border	7209
Ġdepressed	7207
FileName	7206
Ġauction	7205
DEFAULT	7203
!}	7203
Ġwinding	7203
Ġdamaging	7203
ĠDraw	7203
Ġreversible	7202
Care	7201
Ġremedies	7200
Ġ251	7200
Ġformulas	7199
Ġexplanations	7199
ĠGPS	7197
ijk	7196
binom	7196
relation	7194
Bigg	7194
audio	7193
Ġlinearly	7191
orted	7190
Ġcentres	7190
Ġreflex	7189
0028	7188
Ġ))	7188
layers	7187
Ġsupplements	7187
Ġplayoffs	7186
Ġbiofilm	7186
ĠHigher	7186
changing	7185
376	7185
Ġbean	7185
Ġ[-	7185
ĠAssessment	7185
pntd	7183
Ġ218	7182
choice	7181
Ġshooter	7181
Ġscanner	7180
ĠHL	7180
Ġorganisations	7179
Ġcredentials	7178
Ġado	7178
ĠBird	7178
Ġconceived	7176
oric	7174
505	7174
":[	7174
Ġarticulate	7174
MSG	7173
Ġsolo	7172
601	7171
397	7171
Trace	7170
Ġaveraging	7170
ĠCommons	7170
ĠRandom	7168
Ġclassifier	7167
ĠRing	7167
Python	7166
Ġspecimen	7166
offs	7163
Ġdeliberately	7163
GCC	7160
612	7159
Ġeliminating	7159
Ġaromatic	7159
ĠChu	7159
iated	7157
Ġdissent	7157
Ġwarming	7156
Ġtriggers	7156
Ġformats	7156
Ġhydraulic	7154
Ġattraction	7152
473	7151
Ġrectangle	7150
Ġdeflect	7150
Ġawkward	7150
937	7147
Ġdeform	7147
Something	7145
Duration	7145
ĠPalestinians	7144
ĠOliver	7144
Ġdrying	7143
Ġpredictors	7141
ĠMeeting	7140
ĠJerry	7140
typ	7139
840	7138
ĠNevada	7138
Ġmeditation	7137
Ġbodily	7137
Tor	7136
068	7136
Ġsinger	7136
ĠNCAA	7136
Æ	7135
Ġhybridization	7134
ĠStanford	7134
ĠLarry	7134
Ġclinics	7133
Ġforeach	7132
Ġglyco	7131
Ġcontributors	7129
Ġsimilarities	7128
Cloud	7126
Ġdiscern	7126
respond	7125
Detail	7125
ĠMedi	7124
ĠHero	7124
Hor	7123
Ġtuple	7123
Ġcoins	7123
execution	7122
Ġslam	7122
ĠAlpha	7122
athy	7121
Die	7119
Ġshine	7119
Ġorbits	7118
ĠPoisson	7118
ĠAwards	7118
Ġimmense	7117
Ġendure	7117
Ġrefined	7115
Ġreel	7113
Ġcomorbid	7112
ĠHERE	7112
neutral	7110
cov	7110
*+	7110
Ġadmissions	7110
Ġhostile	7109
Ġlitter	7108
ĠPolitical	7108
Ġ{'	7106
EIN	7105
Ġstruggles	7105
Ġcatastroph	7105
Ġinclusive	7104
Ġcompliment	7104
ĠHispanic	7103
790	7102
watson	7099
dies	7099
Ġpursuing	7097
Ġanxious	7097
Ġgrades	7096
Ġadjustments	7095
SEL	7094
Ġkar	7093
Ġcapitalist	7093
ĠLay	7093
ĠNorthwest	7092
sleep	7091
Ġfloors	7090
ĠFoo	7090
ĠConverse	7090
374	7089
Ġfrank	7088
branch	7087
Ġclassify	7087
ĠNAME	7087
>:	7084
Ġdiets	7084
ĠSales	7084
ĠOTHER	7084
Ġmurdered	7083
ĠLegal	7082
Bad	7081
Ġtaxpayers	7081
ignore	7080
069	7079
Ġrecordings	7078
ĠHPV	7078
lers	7076
Ġreimburse	7075
Ġarriving	7075
Ġallergic	7075
ĠGeV	7075
Ġpag	7074
opathy	7072
cert	7072
ĠFormat	7072
segment	7069
Ġextinction	7068
ĠAIDS	7068
Ġaccretion	7067
ĠDATA	7067
ĠCOMP	7066
Ġpork	7065
Ġlicensing	7065
Ġ228	7065
volution	7064
Des	7064
Ġscans	7064
Counter	7063
910	7063
368	7063
Ġsovereign	7063
Ġexhibition	7063
ĠTerry	7063
ĠMd	7062
winning	7061
Conclusions	7061
Ġindent	7058
ĠNotes	7057
Ġinfarction	7056
eing	7055
FK	7055
Ġrepairs	7055
Ġdisabilities	7055
ĠWells	7054
drug	7053
Ġlasted	7053
Ġ)$	7052
typeof	7051
CLASS	7051
tran	7049
Ġpools	7048
Ġdiscourse	7048
Ġauthorization	7048
Ġathe	7048
Ġskew	7046
liness	7045
cS	7045
Ġprosecutors	7044
icals	7043
Ġ254	7043
Ġconfirms	7042
Ġambiguous	7041
\][	7040
Far	7040
Volume	7038
Iter	7038
Ġischemic	7036
Ġamendments	7036
ĠPerry	7035
ttle	7034
sonic	7034
Ġflights	7034
[...]
