Ġ	94927496
Ċ	64266461
.	52981375
,	44836125
Ġthe	41280892
Ġof	23444597
to	19938918
Ġand	19920364
a	19357947
s	16858181
-	16588930
Ġin	15240839
t	10366530
_	10165156
1	10010180
Ġis	9742022
)	9594006
"	8811813
0	8719415
Ġ(	8685960
e	8443579
Ġthat	8317646
h	8051224
Ġfor	7579317
2	7214311
:	7121066
*	6924064
(	6903285
d	6765635
r	6549632
ĉ	6505918
l	6371286
\	6122764
Ġon	5871292
Ġwit	5762463
n	5630136
/	5463125
$	5460323
{	5301748
p	5300872
Ġbe	4987756
i	4986901
f	4872876
ĠĠĠĠĠĠĠĠĠĠĠĠĠĠĠĠ	4753702
ĠĠĠĠĠ	4744379
}	4741544
Ġas	4516031
an	4499777
Ġwas	4357971
Ġit	4289412
Ġno	4263971
ĠI	4183491
m	3981756
Ġby	3952676
u	3933162
;	3925413
3	3898651
Ġare	3892437
Ġ=	3858795
c	3831775
ed	3820275
Ġ\	3782181
ing	3758880
Ġ-	3547306
5	3527006
o	3504277
Ġat	3447949
ĠThe	3397466
Ġthis	3371017
Ġfrom	3295489
S	3282558
Ġor	3268720
Ġyou	3263168
C	3258746
âĢĻ	3257398
>	3068932
Ġhave	2950005
's	2849978
4	2790224
y	2742189
T	2727640
g	2714067
+	2695159
A	2679988
Ġ*	2671318
Ġs	2645671
x	2598261
ly	2494470
b	2416343
Ġc	2386695
Ġwe	2377218
k	2358724
?	2358255
in	2352912
Ġcan	2327261
I	2283343
L	2275418
O	2272805
v	2267084
]	2225828
ĠA	2200501
Ġi	2193568
re	2127418
Ġwere	2086929
Â	2071840
w	2038173
="	2001431
."	1993851
Ġwhich	1953299
<	1928935
Ġhas	1903786
6	1900789
[	1893930
).	1893687
7	1886088
D	1871432
ĠĠĠĠĠĠĠĠĠĠĠĠ	1868025
Ġhe	1812699
et	1801338
th	1799033
_{	1797546
8	1791627
Ġall	1791069
The	1776976
Ġbut	1768344
Ġwill	1737287
R	1678860
ĠC	1655195
B	1642067
M	1611697
id	1604790
Ġhis	1571076
Ġone	1566928
al	1533472
E	1513627
Ġthey	1506803
Ġ2	1506661
H	1503652
Ġd	1444051
=	1442590
ł	1430254
9	1428325
10	1423964
Ġme	1413120
Ġtheir	1408297
Ġmore	1398049
en	1394420
^	1394235
P	1379272
Ġso	1366696
Ġre	1360380
N	1350251
Ġe	1349380
ma	1343719
'	1339650
âĢĿ	1332029
ĠS	1331142
ĠB	1319205
ĠP	1315532
j	1308673
Ġ$\	1299062
ar	1292567
Ġhad	1279630
st	1277999
Ġother	1267603
Ġbeen	1263599
),	1251749
č	1240966
);	1236956
Ġalso	1227801
Ġyour	1226304
F	1205388
es	1194469
ĠL	1193649
on	1184335
Ġout	1177566
Ġabout	1175634
{\	1169942
ĠIn	1164497
Ġwhen	1163083
Ġr	1161621
Ġwould	1158656
it	1144125
Ġtime	1137438
't	1133436
Ġthere	1131407
G	1112491
Ġup	1109622
Ġmy	1098675
Ġn	1098565
who	1097583
%	1096389
Ġdo	1087077
Ġ3	1085810
ĠâĢľ	1084602
ow	1081489
ĠĊ	1063359
Ġ'	1061969
te	1058332
Ġ<	1053057
Ġ[	1046380
Ġthan	1039230
our	1018516
ot	1010214
ic	999756
Ġf	991897
ment	988767
Ġinto	982652
Ġits	982596
</	976632
Ã	966575
#	963445
---------------	955682
W	954809
z	954711
Ġ&	950561
as	945702
Ġany	945568
Ġtwo	935404
Ġher	927508
Ġsaid	925721
ĠF	924252
is	917689
Ġover	907757
Ġlike	904929
Ġsome	904652
Ġwhat	904392
or	899678
Ġun	897909
Ġnew	895430
Ġthem	890045
K	884540
Ġk	881569
Ġmay	879302
ĠT	874955
ĠIt	871577
ation	863421
ĠThis	857412
Ġsuch	846868
Ġfirst	846403
ĠM	841094
Ġthese	829074
Ġla	827181
Ġgo	818792
Ġ4	818118
V	814322
Ġb	809056
ion	807350
--	805556
Ġunder	800493
U	800269
Ġget	795752
ra	792116
Ġcase	786240
Ð	780508
//	779429
Ġuse	776169
type	776028
Ġthen	773684
Ġpro	772197
ĠWe	771211
Ġjust	767142
Ġafter	765084
Ġbetween	756602
ies	753691
ach	744500
11	738847
ĠG	737462
X	737350
Ġde	735365
ĠH	728673
Ġu	728656
Ġused	719883
~	715464
ĠR	714629
Ġcould	714356
",	714260
Ġwhere	713341
.,	711667
Ġdata	709989
Ġmake	705731
ro	698755
}}	698124
Ġm	696990
!	691494
In	688226
Ġpeople	685108
om	671487
ie	671392
Ġshe	669264
ĠĠĠĠĠĠĠĠĠĠ	667272
Y	663612
q	661396
Ġusing	660673
ac	657995
Ġbecause	654513
16	654449
la	652586
â	640316
ĠK	633272
ta	633152
Ġpart	632399
Ġneed	632227
|	629167
Ġshould	625164
be	624205
lic	620495
Ġwell	615586
Ġ[@	613291
able	611985
ame	608682
Ġagain	606449
Ġhow	604201
){	602157
15	601582
Ġmost	598705
ĠHe	596384
if	594483
tion	584049
Ġhim	582917
">	579143
Ĳ	575604
ã	572756
Ġ6	570264
ĠE	569552
J	567649
Ġsee	564615
Ģ	564569
Ġclass	564116
Ġle	563719
Ġ|	562817
ec	562768
Ġwork	560225
ĠJ	558389
de	558309
ĠU	557575
Ġeven	557520
ity	554334
ge	552356
Q	551110
Ġ8	546188
->	544855
Ġthrough	543689
the	541453
ch	540969
Ġway	536277
frac	531847
Ġ@	529341
ĠN	528581
ate	528457
Ġnow	524952
Ġfunction	524889
Ġthose	522083
ent	520397
Ġyears	519909
Ġvery	519907
Ġg	517146
Ġboth	516569
å	515022
Ġim	513912
":	513145
}$	510028
Ġset	506213
Ġbeing	505713
](#	503597
Ġ_	502786
Ġback	499822
Ġmany	498807
Ġbefore	496666
Ġnumber	496047
We	495971
Ġsta	494691
Ġdifferent	494652
all	493750
el	491740
Ġright	490698
ter	488627
Ġhere	487434
Ġam	486901
Ġdon	482953
âĢī	482370
right	481630
and	481448
"}	479127
::	478418
Ġy	476312
left	472126
ģ	470337
Ġvalue	463186
ĠO	462665
til	462141
Ġen	461691
Ġform	461649
Ġhigh	461276
Ġgood	459487
fig	458849
Ġmade	458683
:/	458410
cal	455951
[[@	453943
}{	452722
Ġex	452497
@	451899
ĠâĢĵ	449629
Ġwhile	448261
Ġsystem	445361
Ġfound	442026
int	441881
..	441006
su	440863
io	439749
Ġmuch	436021
port	435644
&	432731
get	432577
Ġstudy	432225
at	431460
Ġwan	430596
Ġpub	430372
Ġthree	429076
Ġpatients	423172
na	422377
ĠIf	420329
Ġnon	419412
rt	418866
Ġwithout	418466
Ġduring	417386
Ġcourt	417354
Ġorder	416354
Ġcells	415923
ount	415502
Ġreturn	415437
Ġ7	415263
ĠFor	413871
$,	413780
ph	413664
Ġcon	413402
Ġend	412527
What	410114
est	407842
Ġdoes	407786
Ġname	405916
age	405825
Ġthink	405578
,"	405303
("	404389
Ġh	403136
ial	402722
Ġsecond	401036
°	401026
',	400031
Ġyear	399618
os	398770
his	398599
Ġdown	396822
op	396191
oc	395507
eg	394723
ul	394316
Ġ:	394291
Ġ9	394291
ide	394034
\]	392943
ib	392020
lin	390928
use	390780
um	386929
ve	386050
$.	385852
It	385112
Ġgroup	384986
ir	384786
name	383164
19	382817
Ġtest	380012
000	380004
Ġlong	379777
Ġid	376741
Ġtake	375609
ever	374493
Ġmust	374061
ad	373681
Ġstill	370877
ive	369681
Ġpre	366135
æ	366085
ĠV	365233
Ġinformation	363925
ĠBut	363548
Ġ,	362682
^{	362405
Ġtype	359850
20	359835
Z	359536
01	358969
ist	358343
Ġday	358250
Ĥ	358149
100	358061
ig	356664
Ġreport	355521
âĢľ	355095
Ġsh	354070
Ġprocess	353858
Ġper	352675
Ġpoint	351796
32	351729
ĠAs	351572
Ġresults	346596
alpha	346508
Ġcontrol	344948
Ġoff	343920
ice	343396
();	342543
)$	341943
Ġfollowing	340270
###	339432
Ġfind	336779
Ī	333681
Ġlife	333495
ke	332309
ers	332144
Ġresult	329305
'm	328745
tter	328478
ĠNo	328453
un	328034
Ġwithin	327944
ess	326756
Ġsince	326228
ga	326122
ĠYou	325663
ry	325662
Ġsm	324904
Ġaround	323379
ey	319874
ĠĠĠĠĠĠĠĠĠ	319729
mu	318997
he	318699
18	317543
Ġmodel	317420
CR	317066
gin	317014
text	315623
ence	315328
em	314886
ĠAnd	314454
Ġanother	314060
âĢĵ	313626
Ġtreat	312999
¾	310896
eq	310590
Ġline	310339
Ġpr	309001
}(	308937
Ġown	308813
set	308695
var	308539
uc	307511
Ġgreat	307168
Ġfield	307086
man	305055
Ġexample	304382
To	303473
tu	302959
Ġincluding	302495
,\	302406
]\].	302379
ai	302088
You	301705
Ġcondition	300665
Ġsel	300307
Ġtoo	300188
}_{	299493
Ġhelp	298979
Ġevery	298796
Ġmight	298379
val	298371
Ġgiven	298137
Ġcell	297864
nd	297538
Ġquestion	297212
ĠSo	296932
ĠW	296931
ER	296705
Ġshow	296128
ization	295398
pack	294851
rs	294716
Ġreally	294662
Ġet	293820
Ġworld	293815
Ġsay	292684
})	292475
ĠHowever	291708
Ġbl	291625
21	291182
Ġ20	290722
ĠThey	289332
Ġ{#	288781
ay	288637
Ġ$$\	288010
Ġfile	287192
mma	287113
Ġpresent	286636
're	286268
Ġcomp	286229
Ġstar	285839
sp	285465
Ġbased	285408
ts	285295
for	284083
ĠTo	283980
Ġsupport	283157
Ġman	282973
Ġless	282098
Ġreal	282068
Ġread	281947
Ġhome	281750
Ñ	281704
ize	281325
Ġ#	281255
Ġsize	279733
Ġanalysis	277438
Ġbest	276029
ient	275832
Ġmethod	275673
ĠâĢĶ	274348
Ġnext	274169
Ġevidence	273928
Ġdis	273682
Ġ*/	273537
hat	273463
âĢĶ	273032
17	272824
ĠRe	272760
No	272590
Ġsomething	272139
ans	271976
30	270138
Ġchange	270044
Ġwhether	269751
ĠSt	269433
Ġleft	269074
¼	268331
Ġapp	268227
Ġpur	267782
ory	267726
of	267174
da	266581
ĠX	266224
As	265064
ĠNew	264885
ting	264607
return	264421
data	264278
label	263388
Ġconst	263062
02	262578
½	262440
Ġfact	262436
25	261871
ure	261511
iv	261408
Ġplace	260437
ĠThere	260391
ĠWhat	260182
04	260089
Ġpower	259466
Ġvo	259461
¸	258362
Ġfew	257985
div	257898
Ġinter	257390
Ġlaw	257360
Ġ19	257291
ine	256738
Ġabove	256694
ĥ	256652
Ġhan	256301
Ġwater	255314
Ġcome	255249
mathbb	254707
Ġlevel	254417
ary	254020
Ġtrue	252873
td	251015
Ġgot	250662
/*	250075
br	249957
ole	249616
Ġprote	249331
Ġdue	248872
ical	248801
Ġleast	248732
Ġ18	248707
Ġlittle	248207
Ġmain	247740
Ġpossible	247686
Ġ</	247577
ted	246081
Ġthings	245929
Ġproblem	245467
Ġposition	245251
igma	245178
Ġmember	245075
Ġlow	244492
rea	244055
Ġred	243622
$$	242866
ab	242600
Ġhum	242587
Ġeffect	242471
min	242374
Ĺ	241263
Name	239549
Ġlook	239260
('	239244
ĳ	239124
}^{	238620
Ġsub	237199
sh	236985
Ġview	236574
23	236516
!"	236384
Ġhaving	236271
à	236242
Ġgive	236139
Ġdays	236069
On	236042
line	235978
Cat	235782
},	235776
Ġshown	235631
Ġcommon	235243
Ġfurther	234442
Ġgame	234404
ness	233374
Ġclaim	233238
Ġtrial	233094
ex	232771
If	232755
this	232496
ä	232357
Ġki	231344
Ġcode	231169
Re	230998
ula	230894
Ġperson	230803
ance	230793
Ġ)	230273
Ġlight	230155
Ġfi	229722
ĠShe	229509
aligned	229242
)}	229211
Ġob	228589
ca	228149
Ġhealth	227984
Ġser	227856
}$$	227809
Ġfree	227168
Ġstr	227090
Ġprovide	227001
Ġexpression	226569
Ġmark	225945
Ġalways	225741
Ġgovernment	224257
±	224183
Ġcurrent	224094
Ġsingle	223763
Ġeither	223685
Ġfour	223679
Type	223279
Ġknown	223121
time	222623
Ġcalled	222526
ĠBa	222124
table	221924
out	221856
ĠCourt	221318
Ġlocal	221104
\[	221089
ĠThese	221000
ĠState	220887
sec	220639
Ġlet	220638
===============	220454
`	220389
tor	220158
Ġavailable	220102
Ġfamily	219943
mil	219668
ĠUnited	219224
ough	218926
Ġ30	218409
Ġ--	218018
Ġperform	217391
Ġaction	215769
Ġ==	215732
Ġrun	215665
ty	215663
am	215084
Ġtop	214740
Ġvalues	214196
»	214149
Ġable	213859
ĠDe	213534
Ġchildren	213194
Ġseveral	213062
}_	212740
09	212440
Ġmaterial	212099
Ġcare	212085
lose	212006
Ġdescribe	211458
au	211077
pro	210751
ĠThat	210686
http	210526
Ġhigher	210436
lambda	210416
Ġkey	210172
Ġarea	210145
tes	210081
ç	209757
Ġbi	209720
Ġtimes	209597
Ġweek	209370
):	209334
sa	209286
Ġtotal	209175
've	209105
40	209102
Ġstudies	209076
come	209050
Ġpost	208928
Ġteam	208629
Ġsignal	208078
Ġbody	207811
For	207745
Ġspace	207518
è	207242
import	207228
Ġsignificant	206979
Ġ17	206765
Ġrate	206744
ode	206526
Ġfollow	206337
Ġput	206172
Ġgeneral	205888
Ġwhy	205795
64	205346
Ġdef	205112
Ġbig	204887
span	204755
Ġerror	204438
gen	204427
27	204025
Ġelse	203961
24	203889
Ġenergy	203856
Ġfull	202854
Ġspecific	202705
pm	202522
Ġdidn	202117
Ġna	201938
Ġsolution	201118
ĠStates	201104
Ġz	200487
Ġmon	200362
ĠAll	200251
bo	200079
bar	200021
Ġlove	199981
ative	199871
ore	199511
Ġalready	199252
26	199108
Ġopen	199079
hen	199060
gram	198914
ĠWhen	198351
ct	197926
ĠZ	197419
Ġassociated	197352
Ġanti	197252
Ġlevels	196896
Ġapproach	196763
And	196702
Ġfinal	196444
ized	195815
Fig	195483
Ġcall	195336
Ġresponse	194602
_\	194014
];	193996
string	193385
Į	193292
Ġ25	193210
ew	193005
Ġissue	192898
Ġlower	192795
Ġwomen	192685
'll	192028
Ġdone	191806
mathbf	191789
ave	191786
Ġaway	191688
Ġrequired	191629
31	191402
Ġsays	191239
ĠOn	190505
Ġmove	190074
Ġoften	190030
Ġ${\	190023
go	189743
Ġstep	189639
width	189602
org	189101
Ġ24	188612
xi	188207
Ġterms	188057
Ġactivity	187700
Ġlist	187520
ls	187448
âĢ¦	187024
Ġ%	186960
ull	186832
duc	186380
Ġage	186355
ran	186208
Ġgroups	185869
Ġhowever	185788
Ġamong	185787
ous	185761
Ġfar	185721
28	185717
String	185581
ian	185515
Ġdevelopment	185352
Ġthing	185262
Ġsure	185169
Ġold	185140
ns	184914
Ġturn	184330
35	184152
ism	183921
Ġlater	183816
Ġperiod	183766
Ġ=>	183268
Ġcourse	182869
33	182783
Ġ`	182242
Ġtold	182087
ag	182004
Ķ	181960
Ġthough	181635
Ĵ	181568
Ġel	181557
Ġcompared	180863
ĠAt	180735
Ġresp	180028
001	179975
icular	179970
Ġresearch	179914
Id	179912
ĠLi	179873
Ġalong	179637
Ġ50	179438
Ġq	179405
Ġworking	179174
Ġprovided	179086
Ġmaking	179086
]\]	179038
How	178907
ral	178874
Ġplay	178749
ten	178434
º	178106
Ġmod	177980
Ġinclude	177832
act	177809
Ġhard	177682
Ġterm	177256
^{\	177248
Ġupon	177059
ble	176796
Ġrisk	176323
Ġdoesn	176203
Ġaccord	176112
ck	175893
Ġpotential	175596
Ġrange	175545
ba	175134
Ġbr	175122
sel	175039
Ġsection	174830
ood	174784
hi	174778
But	174723
*******	174613
vice	174500
Ġincrease	174316
ob	174167
Ġeffects	174144
Ġseen	173842
ud	173822
mar	173720
Ġact	173345
Ġimage	173299
ĠAn	173262
Ġchanges	173220
Ġaddition	173110
Ġkeep	172913
Ġbase	172732
Ġstructure	172703
Ġsource	172625
]).	172568
Ġspec	172437
80	172334
There	172115
Ġhead	171491
06	171423
Ġ([	171385
Ġtogether	171384
Ġbusiness	171201
Ġ([@	171172
Ġpat	170717
sy	170466
ĠâĢĺ	170426
List	170412
Ġ--------------	170301
¯	170159
Ġproperty	170139
Ġincreased	169928
Ġcap	169873
Ġschool	169759
ili	169382
Ġmultiple	169190
41	169172
Ġfactors	169038
ĠSee	169030
oo	168868
Ġobserved	168251
Ġcomplex	168228
Ġrelease	167932
by	167737
Ġshort	167735
Ġdisease	167598
Ã©	167562
Ġcountry	167524
html	167426
Ġthird	167292
60	167071
str	167055
45	166904
Ġproject	166607
ĠUniversity	166528
Ġmonths	166077
Ġnormal	165309
ivate	165258
Ġdoing	165243
08	165156
Ġadd	165061
Ġearly	164928
Ġuser	164698
¿	164409
Ġpositive	164388
class	164262
90	164220
per	164176
Ġcreate	163926
Ġpe	163894
=\	163448
value	163339
ook	163228
rn	163057
{{	162870
Ġtry	162599
Ġdefendant	162460
Ġcar	162164
Ġcomm	161931
37	161688
Ġtrans	161519
sqrt	161297
\_	161192
tic	161016
Ġactually	160928
Ġcompany	160432
Ġpoints	160266
Ġ$(	160178
ED	160089
Ġthought	159954
Ġpar	159843
Ġversion	159573
Ġweb	159448
Ġsurface	159187
put	159175
Ġacross	158969
rho	158830
Data	158797
29	158684
ason	158361
IT	158083
ight	157942
Ġmar	157762
'd	157746
Ġcontent	157568
size	157425
ring	157340
ver	157295
temp	157246
Ġrather	156928
Ġcame	156926
Ġpage	156882
Ġonce	156748
ated	156608
Ġwar	156449
)/	156270
eb	156171
delta	156155
Ġstring	155921
SE	155899
Ġmatter	155810
Ġfive	155530
Ġlikely	155493
Is	155468
Ġreview	155099
Ġshows	154885
ning	154872
Ġfalse	154866
Ġfactor	154810
IS	154597
ally	154590
Ġmillion	154585
Ġshowed	154440
}^	154316
Ġbelow	154304
38	154253
ħ	154141
Ġroom	154013
ĠAmerican	153965
Ġclear	153916
Ġfeel	153842
Ġmanage	153835
Dr	153578
Ġ>	153366
Ġmen	153358
Ġpast	153305
Ġsystems	153136
Ġpaper	153045
Ġsocial	152937
')	152922
.)	152780
Ġstandard	152771
93	152659
Ġsent	152592
ĠGod	152501
Ġsite	152475
ĠY	152437
ling	152410
dia	152382
Ġcause	152149
Ġfuture	152008
pose	151898
®	151735
Ġobtained	151733
ĠQ	151662
Ġseason	151653
Ġtook	151550
¹	151462
75	150926
ah	150880
Ġwhole	150718
ĠFig	150665
70	150379
bl	150177
ka	150162
Ġever	150116
Ġ(*	149975
Ġvarious	149924
Ġplan	149709
ves	149705
Ġcancer	149624
Ġapplication	149510
Ġexperience	149445
unity	149327
36	149234
Ø	149124
ĠMi	149020
ho	148932
ax	148857
§	148809
Ġbit	148492
Ġtaken	148481
95	148382
^{-	148217
Ġconsidered	148090
Ġadded	147967
od	147838
Ġrelated	147787
theta	147708
Ħ	147671
pay	147545
]{}	147498
ria	147369
Ġass	147334
ĠOne	147187
par	147122
¥	147090
Ġph	147065
ĠDo	146624
Ń	146620
Ġsum	146613
Ġaccess	146600
let	146562
NG	146349
partial	146300
ĠIs	146184
ĠCh	146145
ij	146082
Ġdefined	146069
ier	145983
ward	145914
func	145781
Figure	145781
34	145725
ui	145673
IC	145646
way	145349
oot	145245
¨	145162
Ġbelieve	144970
");	144921
AL	144889
Ġface	144812
")	144522
ds	144465
times	143932
ķ	143865
91	143825
eu	143683
tau	143679
ĠThen	143545
fe	143371
Ġmin	143324
ak	143230
39	143114
Ġdesign	143047
Ġblood	142915
Ġhouse	142876
94	142858
}{\	142705
Ġmajor	142556
*)	142494
Ġstates	142454
Ġminutes	142402
Ġwent	142369
Ġproduct	142287
96	141926
51	141765
ys	141693
į	141480
self	141372
Ġdecision	141331
Ļ	141329
Ġem	141329
Ġcheck	141277
Ġindividual	141228
ĭ	141150
ear	141017
Ġprov	140938
Ġwon	140886
pen	140831
ĠCon	140759
ĠMe	140595
View	140423
fter	140345
omega	140342
Ġtex	139906
49	139904
cdot	139826
RE	139700
](	139668
Ġtrying	139618
Ġdevice	139561
js	139486
Ġincluded	139484
+\	139389
Ġnight	139269
Ġsuper	139031
ĠDu	138806
44	138734
tyle	138674
include	138573
Ġtoday	138507
Ġenvironment	138452
Ãĥ	138373
Ġremain	138371
Ù	138216
Ġrespectively	137933
71	137750
Ġregion	137739
ÂĤ	137520
ı	137490
],[@	137187
Ġreceived	137058
tive	137036
loc	136928
Ġden	136660
Ġadditional	136638
Ġsimple	136427
Ġvia	136399
ĩ	136350
AR	136232
Ġcity	136214
Ġchild	136201
55	136200
ľ	136169
Ġanything	136162
Ġsignificantly	136159
ams	136156
rl	136128
loss	136011
stand	135829
´	135777
Ġtel	135765
Ġpercent	135750
Ġcertain	135543
Ġcross	135525
Gr	135491
ĠDi	135465
Ġevent	135322
ĠUS	135257
Ġsepar	135254
Ġtax	135241
ven	135210
Ðµ	135131
Ġmot	135110
ĠÂ§	135106
Ġhalf	135029
Ġgrowth	134848
Ġprior	134793
62	134750
vin	134553
Ġneeds	134246
Ġasked	134165
Ġarticle	134026
Pro	133908
date	133666
TA	133656
ding	133653
Ġdeath	133652
Ġmicro	133636
ze	133561
yl	133534
ample	133459
Ġgetting	133403
ating	133275
²	133077
Ga	132982
Ġcomment	132956
Ġhistory	132935
Ġtri	132818
Ġheart	132762
73	132597
Ġ21	132159
46	132076
Ġneg	132041
Ġlooking	131884
Ġfilm	131795
ali	131674
Ġdifference	131371
77	131273
AS	131056
Ġmethods	130949
col	130937
ĠMr	130905
Ġparty	130896
Ġseries	130856
Ġhref	130750
Ġperformance	130690
ger	130564
Ġproblems	130343
pected	130324
$-	130317
LE	130170
based	129911
!=	129881
add	129789
Ġad	129759
Ġthus	129745
Ġrecord	129677
Ġinvolved	129469
Ġissues	129465
Ġtarget	129323
account	129285
ite	129208
Ġalmost	129196
hy	129169
Ġnetwork	129143
^\	129097
son	129001
Ġnothing	128900
/**	128843
Ġprevious	128830
year	128822
ī	128817
Ġhours	128746
infty	128706
à¤	128675
Ġcost	128580
Ġtherefore	128542
Ġservices	128413
¤	128331
ĠThu	128292
ock	128244
99	128165
Ġfocus	127953
Ġpolice	127778
Ġmass	127649
ï	127549
Ġheld	127436
Ġgene	127365
Ĩ	127331
Ġconsider	127243
ĠTHE	127117
pos	127104
Ġpopulation	126914
Ġ...	126874
Ġinstead	126820
TI	126811
é	126768
uir	126722
Ġweight	126613
cre	126525
Ġphysical	126518
https	126397
ration	126263
__	126119
ify	126079
43	125952
fic	125752
ler	125718
Ġrecent	125638
like	125622
Ġbegin	125546
Ġproduction	125463
app	125429
py	125323
Ġseems	125130
Ġlines	125110
Value	125063
Ġlive	124817
RA	124749
cle	124728
Î	124642
Ġ200	124460
eal	124258
Ġcomplete	124115
Ġsix	124074
}}\	124003
edge	123986
fo	123939
Ġjob	123913
ext	123638
Ġcomes	123299
Ġdevelop	123215
ĠInc	123164
Ġstudents	123150
ĠNor	122893
ĠBy	122846
Ġstory	122736
ule	122681
003	122629
92	122620
Ġair	122537
All	122510
file	122509
Ġquality	122504
Ġtable	122447
Ġsomeone	122366
á	122137
list	121862
Ġtaking	121821
Ġ60	121809
Ġmodels	121791
Ġmind	121554
Ġstarted	121412
Ġwrite	121397
48	121370
Ġpolicy	121276
ass	121271
ĠPa	121253
ĠYork	121223
Ġelement	121142
Ġlength	121100
*,	120990
ping	120944
97	120820
DE	120815
Ġprovides	120806
ĠWa	120755
Ġ22	120724
Ġdistribution	120602
Ġstrong	120586
66	120557
Ġitself	120518
ĠLa	120402
Ġnecessary	120260
ª	120088
ĠNational	119951
Ġ},	119807
Ġdecide	119591
An	119545
Ġaverage	119335
public	119140
Ġcorrespond	119111
ber	119086
ped	119020
../	118996
tt	118917
ĠMy	118894
Get	118751
Ġ40	118719
$\	118633
ya	118621
ath	118542
-\	118540
${	118503
Ġoriginal	118491
Ġpath	118430
Ġmulti	118417
Ġrights	118353
68	118307
define	118112
Ġprobably	118071
px	118060
Ġpick	118058
ĠTrump	117974
Ġque	117786
Ġstore	117718
EN	117692
Ġphase	117633
see	117544
lit	117543
owl	117471
mon	117466
sub	117457
over	117416
ĠLicense	117386
Ġsequ	117284
Ġshall	117244
param	116780
Delta	116769
74	116753
Ġexact	116664
Ġworks	116657
65	116455
Ġ||	116414
Ġfunctions	116255
Ġsimply	116172
Ġproducts	116162
Ġcolor	116157
Ġorgan	116133
![	116110
200	116046
98	116020
ek	115976
Ġmedical	115963
aw	115949
Ġsense	115770
ĠOF	115757
Ġwalk	115658
lt	115544
Ġespecially	115544
Ġtemperature	115386
79	115323
Ġwords	115277
Ġaffect	115241
)*	115159
arra	114872
back	114820
Ġdate	114710
Ġgas	114444
Ġpersonal	114326
Ġproperties	114318
Ġinside	114317
option	114156
old	113851
With	113811
Ġrest	113794
cm	113748
Ġstatic	113658
Ġaddress	113638
Ġoutside	113602
Ġnear	113570
Ġpressure	113481
Ġpresence	113481
Ġdirect	113468
Ġyoung	113421
Ġdetermined	113232
($	113175
ĠWith	113159
Ġmode	113073
ĠCity	113000
));	112586
item	112555
Ġhappen	112452
Ġevents	112413
Ġgenes	112399
My	112167
¡	112008
Ġpolitical	111939
Ġreceive	111858
ging	111804
script	111774
Ð¸	111735
rol	111664
den	111636
AC	111555
ov	111341
Ġmoment	111270
path	111234
Ġeffective	111142
ain	111096
ĠCD	111093
Ġwhite	111087
Ġtypes	110967
OS	110898
58	110890
Ġsign	110821
Ġ28	110719
Ġprimary	110715
53	110695
67	110664
dy	110649
Ġlanguage	110645
Ġstop	110543
Ġ^	110412
Ġeverything	110377
Ġsubject	110314
Ġexplain	110203
52	110173
Ġbreak	110090
Ġarray	110047
61	109996
002	109816
Ł	109762
PA	109744
Ġreq	109595
Ġlonger	109589
Ġfeatures	109551
hr	109491
ĠÂ±	109411
Ġfront	109402
Ġoutput	109390
Ġago	109304
ana	109254
Ġdetermine	109253
const	109004
Text	109002
Ġindex	108988
])	108910
Ġdirection	108895
ĠAct	108885
Ġcorrect	108877
Ġpresented	108842
Ġeasy	108828
Ġse	108731
Ġ23	108681
Ġquite	108531
File	108501
site	108481
Ġidentified	108437
Ġjudgment	108433
Ġprocedure	108323
Ġcreated	108300
term	108272
hea	108250
}$,	108172
Ġrunning	108107
Ġ&&	107989
Ġsamples	107978
Ġbad	107837
Ġprim	107823
Ġbasis	107797
ĠKo	107688
Object	107584
Ġisn	107494
Ġwanted	107235
AA	107157
Ġstatus	107151
Ġparameters	107068
Ġfollows	106856
har	106832
ish	106822
LA	106774
42	106768
Ġstatement	106657
Ġground	106643
Ġlimit	106518
ÑĤ	106420
Âĥ	106353
Ġareas	106225
ĠCO	106137
ando	106031
85	105490
ĠJohn	105403
Ġelements	105331
ĠString	105308
ible	105287
Ġweeks	105170
Ġinitial	105127
}(\	105065
Ġdirectly	105036
Ġauto	104946
Ġnotice	104855
Ġreplace	104663
89	104596
order	104563
Ġcharacter	104555
Ġwind	104467
ick	104402
Ġrelationship	104149
Ġlegal	104109
Ġmont	104071
63	103920
Ġsearch	103920
At	103896
ĸ	103833
Ġreference	103792
Ġmemory	103751
Ġtraining	103677
void	103522
Ġgames	103516
Ġvi	103493
from	103419
Ġvideo	103379
ification	103361
Ġtheory	103351
wide	103291
def	103020
Ġtumor	102970
Ġrequest	102967
rangle	102966
Ġmice	102930
";	102765
Ġforce	102719
(-	102670
ument	102644
hind	102608
body	102597
Ġ(\[	102288
Ġlayer	102240
ren	102126
Ġnational	101929
\,	101825
sion	101818
Ġnews	101621
ĠDNA	101536
Ġprob	101535
ons	101514
Ġbuilding	101505
88	101477
Ġland	101360
78	101321
Ba	101258
avoid	101224
PR	101080
Ġsitu	101020
87	101009
Ġgreater	100965
Ġmap	100945
arn	100893
Ġ/>	100875
ĠPresident	100828
Ġapplied	100810
Ġdifficult	100793
ator	100791
Ġcontext	100721
jo	100584
Ġlimited	100560
ko	100558
ĠSuppose	100484
¬	100422
ors	100291
ĠIN	100284
ret	100281
Ġpreviously	100145
¦	100138
Ġdeal	100123
Ġsaw	100059
Ġcut	99987
Ġdistrict	99965
Ġwrong	99919
Ġincludes	99852
Ġ45	99850
Ġreduced	99846
with	99753
pect	99751
Ġdrug	99620
ok	99527
ĠTherefore	99477
Ġsound	99472
Un	99421
Ġability	99412
Ġinvention	99298
Ġestimate	99256
length	99193
Ġdiscus	99157
Key	99059
pain	99058
ser	99015
Ġcom	98922
Ġcontinue	98865
Ġword	98854
Ġmis	98732
Ġdeveloped	98684
)-	98671
max	98646
ome	98579
ĠMA	98565
ense	98560
////	98539
}$.	98435
Ġoil	98431
47	98426
Ex	98422
Ġpract	98405
Ġtitle	98371
83	98342
·	98272
:**	98272
Ġindependent	98234
Ġmessage	98067
Ġimpact	97984
Ġcontact	97924
().	97892
Ġart	97878
By	97845
con	97842
ace	97827
Ġbuild	97805
Ġnote	97802
ĠMar	97773
Ġetc	97760
Ġbar	97548
Ġsoftware	97530
hic	97361
ito	97221
fort	97174
try	97115
ern	96997
Ġunit	96840
gn	96652
Ġplayers	96617
Ġnumbers	96607
onent	96570
uce	96542
Ġwritten	96508
rate	96487
Ġ2012	96420
Ġcoming	96383
dd	96368
ES	96182
ĠII	96167
Ġparticularly	96075
field	96072
Ġcontract	96022
Use	96010
Ġfun	95969
Set	95965
ĠCounty	95897
".	95840
ond	95627
Ġlate	95595
Ġactive	95585
hil	95485
Ġobtain	95346
land	95307
member	95279
Ġsecurity	95234
ĠSince	95221
US	95216
ĠUn	95120
top	95115
base	95107
af	95107
ĠHis	95023
Ġnature	94956
java	94942
Ġhope	94937
ron	94916
arm	94613
Ġdouble	94507
Ġ26	94489
Ã¡	94478
Ġentire	94390
Ġpet	94367
ost	94313
Ġ[*	94304
ĠWhile	94223
ume	94114
Ġspecies	93974
Ġusually	93965
Ġhost	93945
light	93902
rb	93799
ĠHere	93793
izing	93779
Ġrates	93634
Ġdifferences	93621
lar	93592
Ġrule	93582
Ġglobal	93580
³	93546
day	93508
Ġliving	93504
ĠSa	93455
Ġoffice	93399
Ġalthough	93293
Ġanswer	93227
Ġ2013	93166
Ġwhose	93163
state	93107
Ġhttp	93084
Cont	93069
Ġhold	92983
Ġtried	92920
Ĭ	92872
star	92759
hip	92735
Ġargument	92695
ĠRo	92691
Ġonline	92651
xe	92646
ĠWorld	92606
AD	92493
Ġ2016	92483
Ġdefault	92349
ĠSome	92214
Ġgenerally	92190
Ġlost	92168
Ġwall	92115
ium	92098
Ġrecently	92063
Ġstay	92042
ĠIS	92013
ley	92005
db	91928
ĠGeneral	91803
Suppose	91745
xed	91737
Ġ2014	91665
mega	91504
Ġplaintiff	91497
Ġanyone	91494
Ġfederal	91393
du	91380
ker	91355
Ġsaying	91316
Ġtakes	91312
Error	91305
Ġextra	91256
Ġproposed	91241
ĠAmerica	91211
cont	91195
oop	91185
ĠHouse	91167
ĠSouth	91150
men	91066
Ġagreement	91062
ĠPhys	91054
ata	90949
ĠMarch	90807
Ġblock	90501
Ġdensity	90497
Ġscale	90480
IR	90367
ĠAdd	90344
Ġbrain	90317
Ä	90313
IP	90205
Ġtreated	90183
win	90172
Ġcenter	90023
Ġ__	90008
Ġhimself	89846
Ġadult	89804
ĠDepart	89795
lia	89765
App	89738
ĠGo	89682
|\	89674
Ġstage	89592
ĠNot	89563
ĠChina	89512
Ġ80	89498
Ġconfig	89481
ĺ	89473
She	89472
Mo	89233
off	89176
ME	89132
fs	88858
Res	88844
pol	88826
}}$	88822
ĠFirst	88746
Ġcharge	88736
Ġbecame	88709
ĠPA	88705
epsilon	88675
âĢĥ	88647
×	88569
lib	88528
Ġ2015	88500
Ġpretty	88496
Ġrepresent	88441
Ġcollect	88377
Ġrelative	88373
Ġways	88344
Ľ	88204
Ġprice	87999
.'	87959
duced	87951
Ġfailed	87873
Ġoffer	87870
Ġfit	87866
ft	87783
Ġpublished	87772
Ġtalk	87765
ept	87634
Ġfire	87608
}}^	87530
art	87470
ET	87365
Ġmeasurement	87342
TH	87312
ĠSen	87279
..."	87273
image	87234
varepsilon	87230
Ġhighly	87164
Ġwoman	87160
lev	87028
gl	86995
ĠCir	86978
Ġfindings	86904
fa	86868
Ġderivative	86822
Ġplease	86786
Ġ[**	86730
Ġallowed	86626
omy	86523
ĠOr	86472
Ġdegree	86450
ĠHow	86446
side	86423
Ġlac	86381
ional	86362
iz	86318
Ġselected	86212
Ġgave	86178
ks	86039
EA	86026
Ġlarger	85993
Ġmeasured	85969
Ġdesigned	85969
ĠHeal	85951
Ġattack	85944
Ġnode	85835
book	85789
Ġhandle	85786
Ġjury	85778
abil	85760
Ġoperation	85649
Ġfine	85636
hu	85562
Ġdetails	85523
Ġinstance	85495
Ġpi	85405
Ġindividuals	85405
Ġhyper	85404
ĠDa	85318
Ġdel	85306
Ġwasn	85300
Ġeveryone	85294
Test	85205
iation	85204
Ġportion	85195
Ġcentral	85154
ank	85123
Ġimages	85076
ĠOR	85052
Ġcurrently	85038
Ġcaused	85007
Ġalone	84985
operator	84953
Ġvis	84844
Item	84816
color	84801
Ġreach	84787
Ġfriends	84732
Ġ2011	84673
Ġproteins	84630
}=	84618
Ġflu	84532
tend	84466
Ġlocation	84431
Do	84391
ĠJune	84328
Ġgives	84288
Ġbehavior	84270
EM	84252
Ġask	84249
Ġeyes	84237
Ġ:=	84148
Ġconfirm	84130
static	84094
case	84093
Ġcomponents	84087
Ġ2010	84045
54	84020
Ġattention	84011
.[	83940
Ġten	83864
Ġwo	83856
rin	83847
Ġuseful	83780
Ġpass	83757
ĠNow	83730
Ġfiles	83707
Ġchoice	83667
Ġ);	83646
Ġmatrix	83640
Ġrequires	83568
ĠAlthough	83518
Ġsuccess	83515
Ġcombination	83491
Ġbackground	83443
Ġ31	83429
Ġappropriate	83337
inter	83263
dir	83234
gh	83185
Ġsuit	83181
CD	83167
Ġcompanies	83157
tan	83056
Ġbegan	83019
Ġknew	83004
Ġmale	82971
Ġ?	82914
box	82909
Ġround	82895
vest	82839
='	82798
198	82795
ĠSyst	82710
Ġleading	82698
\].	82631
.\	82630
Ġ2017	82496
Ġpor	82414
Ġ27	82282
Ġfailure	82222
(),	82213
amb	82127
Ġfinancial	82111
Ġfrequency	82079
ĠChi	82016
iding	82005
iving	81994
Ġusers	81970
Ġunique	81929
Of	81916
Ġframe	81894
*/	81871
Ġeducation	81862
AM	81804
oma	81802
king	81740
Ġratio	81724
RT	81710
vis	81656
Ġmother	81586
Ġdisplay	81578
sing	81558
Ġ70	81548
Ġtechnology	81517
Ġ///	81456
Ġoptions	81444
ND	81425
ÂłĠ	81398
Ġcontains	81262
Ġgoal	81174
map	81144
oy	81135
trans	81126
Ġdivided	81078
Ġheat	81022
che	81011
Ġcompletely	80996
Ġincreasing	80963
Ġwin	80949
Ġhit	80935
ĠWest	80873
ĠSan	80797
Af	80785
index	80764
Ġcosts	80759
Ġeconomic	80728
mic	80726
Ġpattern	80665
Ġmagnet	80557
Ġseem	80492
Ġhearing	80407
ny	80401
Ġson	80380
Ġparts	80372
Ġindustry	80280
Ġconnection	80219
Ġparties	80211
¶	80204
Ġ48	80113
Ġsuggest	80096
oun	80050
Ġapply	80023
ĠJanuary	79950
Ġdistance	79937
ĠApril	79901
Ġearlier	79883
From	79843
Ġequal	79777
*.	79732
Ġserver	79723
count	79677
ĵ	79600
Ġexpressed	79561
dev	79543
Ġpresident	79457
rk	79384
Ġ($	79375
rightarrow	79371
ĠFe	79366
PS	79361
());	79361
title	79341
Ġ;	79322
varphi	79311
ĠHer	79293
ĠJuly	79239
Ġsupported	79223
Ġgenerated	79167
Ġstated	79074
Ġestablished	79071
Ġspeed	79062
They	79057
Ġallows	79037
Ġpoly	79002
Ġab	78974
Ġdevices	78943
view	78847
load	78831
._	78803
İ	78768
ŀ	78736
Ġeasily	78722
Ġboard	78598
ign	78593
Ġ29	78554
Ġsites	78412
*-	78371
};	78364
BA	78333
Ġcontaining	78313
Ġreasons	78286
State	78202
EL	78202
Ġfinding	78053
Ġdev	77980
Ġsoon	77955
font	77889
Ġconsist	77802
oard	77763
Ġmeasure	77744
Ġhighest	77737
Ġcritical	77730
Ġlocated	77706
Class	77616
Info	77612
run	77583
Ġ35	77549
Ġ->	77503
Ġcopy	77464
Ġprofessional	77459
Ġactivities	77412
Ġassess	77172
Ġ})	77150
Ġfiled	77139
Ġfelt	77092
Ġ32	77067
Exception	77048
Ġones	77014
Path	77013
cli	76961
Ġ38	76932
des	76923
Ġclearly	76885
______	76750
){#	76748
Ġauthors	76735
');	76726
Ġactual	76699
Ġfair	76697
ĠCal	76689
ile	76634
Ġskin	76609
ray	76569
Ġcommand	76551
down	76529
cs	76482
Ġvariable	76479
Ġopinion	76479
Ġ36	76436
ric	76430
)$.	76408
ĠPat	76400
Ġ<<	76358
"/>	76292
NA	76131
dict	76070
Ac	76041
car	76022
Ġwriting	76011
Ġexcept	76007
âĢ¢	75995
media	75991
tal	75971
ĠâĪĴ	75969
True	75966
Ġpoo	75957
Ġshowing	75923
ĠAND	75879
Ġbinding	75805
ations	75720
Ġbox	75700
Ġinjury	75634
Ġbrought	75609
sure	75570
Ġchanged	75529
Å	75527
Ġunderstanding	75515
overline	75450
Ġparameter	75402
ĠId	75354
Ġsmaller	75346
Ġlearning	75295
GA	75266
Ġ42	75233
Ġstaff	75173
Ġexperiments	75170
Ġuses	75152
write	75124
Ġhands	75076
Ġ2008	75064
langle	75060
Ġcontrast	75020
Ġimplement	75009
}^{\	74985
Ġappears	74942
Ġbool	74906
Ġ\<	74902
Ġrules	74864
ama	74850
Ġmatch	74789
uf	74752
Ġvector	74704
Ġlooks	74666
bit	74653
Ġfast	74653
Ġbeyond	74636
Ġheard	74629
Ġcomputer	74591
Ġdoor	74573
Ġculture	74571
ade	74541
Ġcampaign	74515
Ġ37	74412
Ġbuilt	74408
Ġitems	74368
gle	74309
free	74278
fin	74213
Ġcouple	74213
./	74161
group	74148
Ġmorning	74058
Com	73967
ĠCan	73950
ote	73925
Ġlooked	73893
vol	73859
^{(	73844
Ġturned	73808
Ġreasonable	73767
ĠTO	73747
Ġworked	73725
Ġconstruction	73672
Ġtowards	73659
Ġinternal	73654
gres	73650
IL	73617
ĠSh	73599
ural	73556
ides	73533
Ġdrive	73453
Ġmajority	73436
Ġmeet	73424
mbo	73392
Ġ95	73279
]^	73173
Ġtrade	73165
Ġregarding	73159
Ñģ	73132
cap	73127
Ġfall	73125
Ġvariables	73120
ĠFrom	73037
ĠData	72986
IM	72961
Ġexists	72932
ì	72931
ĠPublic	72884
Ġtherapy	72870
Ġlog	72797
Ġbenefits	72795
ort	72790
Ġfully	72749
nc	72739
Ġformation	72716
Ġimprove	72714
ions	72646
150	72640
Ġconcentration	72635
urs	72616
Ġtissue	72589
Ï	72561
Ġoccur	72557
ļ	72551
Ġbal	72513
}}(	72512
ĠDistrict	72493
Ġparents	72474
open	72458
Ġreports	72452
Tim	72446
Ġmilitary	72416
0000	72399
inal	72377
Ġtransfer	72370
Ġ2009	72350
Ġresulting	72333
gs	72325
ĠAugust	72230
)).	72183
Exp	72179
true	72176
pc	72122
ato	72118
Ġfather	72098
sim	72088
lim	72044
Ŀ	72043
Ġtask	71976
api	71953
Ġprevent	71943
ld	71892
Ġindicated	71876
«	71853
Ġinfection	71792
Ġsex	71782
Ġlinear	71782
Ġvolume	71729
Ġwrote	71678
Ġmedium	71668
Ġsetting	71648
Ġinteresting	71557
ĠOctober	71544
Ġradio	71524
ection	71508
IE	71441
vert	71245
SC	71191
Ġzero	71156
sm	71134
Ġvehicle	71124
Ġplayed	71094
NE	71063
cul	71062
Ġadministration	71049
Ġ(\	71031
vec	70948
Ġfeature	70946
nbsp	70895
ĠSeptember	70843
Ġgets	70842
you	70835
Ġstrength	70785
ose	70748
Ġmeeting	70697
track	70674
Ġhospital	70613
Ġsolid	70611
ĠDecember	70596
ĠEl	70585
Ġensure	70577
node	70523
\{	70450
oat	70447
Ġdefine	70390
Ġproof	70306
Ġreaction	70304
Ġcolumn	70289
Ġ2018	70251
point	70179
Ġdes	70177
Event	70137
work	70106
Ġapplications	70099
Ġfriend	70089
eh	70076
Tr	70062
Ġstarting	70050
Ġplayer	69990
Ġeye	69980
Ġge	69948
II	69881
Ġthroughout	69868
Ġlives	69863
New	69827
Ġnor	69823
Ġparticipants	69800
Ġmaximum	69791
EX	69783
ĠObama	69716
Ġnoted	69696
Ġmet	69688
Ġprocesses	69671
Ġdamage	69660
Ġregions	69594
input	69588
call	69564
eri	69563
even	69553
ource	69512
Ġconnected	69489
ĠUSA	69462
Ġsafety	69446
Ġdomain	69437
cell	69406
Ġminim	69356
Ġalternative	69266
Ġinternational	69225
Ġpopul	69214
NC	69211
Ġbenefit	69205
Ġbecomes	69205
Ġsources	69192
Ġdeep	69065
Ġphone	68966
era	68959
Ġscore	68950
Ġrevealed	68923
Ġtests	68906
Ġseven	68886
ĠEm	68865
ĠEx	68858
Ġinteraction	68841
ĠMc	68779
ĠBecause	68686
Ġonto	68650
Ġinfluence	68643
TS	68622
which	68591
ivation	68585
acy	68564
Ġerr	68556
ĠÃĹ	68511
Ġbasic	68463
Ġotherwise	68416
mis	68385
Ġcollection	68355
ged	68315
ĠCenter	68277
Ġequation	68230
ĠSection	68230
Ġregular	68225
Ġimmediately	68216
ĠNovember	68195
Ġstand	68041
oh	68022
[^	68018
Ġchar	67988
ĠMoreover	67903
Ġcover	67863
ĠMore	67852
Ġdocument	67794
Ġreduction	67793
Ġactions	67784
Ġrecommend	67683
Ġpan	67605
Ġresistance	67602
Ġopportunity	67588
Ġtoward	67577
Ġbuy	67543
Code	67516
Ġmechanism	67475
Ġgiving	67475
Here	67440
Ġitem	67402
ĠIL	67289
ĠWashington	67281
err	67273
Ġ\,	67272
iver	67257
dt	67228
ĠCI	67188
Ġroad	67143
ĠOf	67137
Go	67095
Ġtesting	67001
Ġfigure	66999
Ġexist	66979
Na	66909
Ġtool	66884
Ġrelatively	66814
mid	66750
False	66730
ĠID	66698
Ġsometimes	66685
[\	66671
Ġforms	66666
Ġ~	66653
Ġgain	66650
geq	66638
acity	66603
don	66587
RN	66586
)$,	66536
"},	66530
IA	66528
Ġrace	66416
Ġresources	66404
*(	66342
Ġquickly	66298
Ġplant	66267
IB	66254
tim	66233
Ġbottom	66233
Ġmiddle	66179
Ġchoose	66170
Ġproto	66156
ĠSch	66122
Ġthinking	66089
Ġ(**	65966
mas	65946
bold	65940
del	65924
sin	65921
Ġmyself	65893
Ġ75	65862
En	65847
Ġremove	65817
PI	65799
sco	65736
error	65714
Ġplaying	65713
((	65711
ming	65705
ĠHigh	65685
fer	65682
Ġselection	65669
Ġnearly	65633
gar	65609
Not	65580
Ġcore	65573
ĠDE	65518
)]	65432
Ġclient	65424
Ġmoved	65418
Ġready	65408
Ġdetected	65399
Ġhappened	65390
ĠSchool	65390
Ġagree	65382
Ġsafe	65364
Ġconducted	65362
ĠTable	65354
Ġboy	65347
Ġgreen	65322
())	65319
Ġdatabase	65270
ĠBar	65242
Ġmoving	65234
char	65218
eat	65214
comp	65210
Ġstation	65174
Ġexisting	65144
Ġobjects	65140
Ġchannel	65135
IF	65089
Ġreflect	65020
]:	65012
wn	64980
:"	64977
Ġ55	64936
Ġdaily	64911
Ġsun	64905
CS	64890
Ġfell	64840
DS	64822
related	64780
Ġcalculated	64779
tail	64772
ora	64747
Ġfacts	64745
Index	64685
ĠCalifornia	64683
Ġincome	64663
Ġ((	64641
can	64635
gest	64627
Ġanimals	64602
Ġ39	64487
roid	64477
Ġupper	64475
Ġindicate	64475
Ġtend	64462
AI	64453
ĠEuropean	64446
Ġyourself	64427
Ġtown	64400
msg	64395
known	64395
osing	64386
Ġmeaning	64380
Ġfinally	64348
BI	64339
Ġdemonstrated	64289
Ġnearest	64233
Node	64217
ean	64183
Ġworth	64177
ĠList	64166
mark	64157
Ġ]	64154
Ġ52	64080
ENT	63989
ĠFO	63985
Ġemail	63935
quad	63934
Ġserious	63909
Ġunits	63880
dot	63866
Int	63851
UN	63845
ĠArt	63840
iden	63773
Ġdefinition	63754
ĠNi	63754
%,	63727
ĠWhite	63721
£	63712
Ġperfect	63691
ĠTh	63673
lies	63659
Ġhot	63608
},\	63595
Ġmg	63426
EE	63401
\],	63316
Ġcarried	63316
Ġshape	63291
Ġsufficient	63288
MP	63277
Ġ49	63271
Ġremoved	63257
Ġplaced	63242
Ġmachine	63219
Color	63133
Ġmanner	63117
Ġstuff	63104
ĠCar	63093
Ġsp	63057
Ġcontrib	63031
ĠNULL	63012
Ġvariety	62952
Ġsets	62918
Ġargue	62914
)**	62911
using	62902
Ġwife	62838
ology	62810
Ġhear	62778
006	62754
last	62736
ĠPaul	62729
Ġadv	62713
content	62680
Ġwish	62661
|-	62639
)/(-	62620
';	62585
({	62483
Ġdistributed	62468
Ġoperator	62466
Ġthrow	62464
Map	62439
Ġsend	62375
ĠFebruary	62336
Ġtransition	62290
imony	62248
ĠRev	62182
Or	62170
Ġsuggested	62146
Ġ46	62132
Ġ44	62081
osis	61961
Ġho	61885
Ġwait	61868
Ġsave	61845
PT	61819
OD	61814
Ġnorth	61814
Ġnamed	61814
Ġprograms	61789
sf	61748
Ġauthor	61739
df	61702
Ġ41	61637
Ġworkers	61607
Ġcomparison	61585
-------	61535
Ġhealthy	61528
Phi	61499
Ġwatch	61468
Ġincreases	61468
Ġtruth	61441
µ	61428
Image	61379
Ġdetection	61310
Ġscreen	61288
Ġexposure	61274
Pr	61174
Ġmaybe	61157
Ġpassed	61113
Ġletters	61098
zi	61090
Ġrefer	61090
Ġpartial	61086
Ġ51	61086
RS	61061
Ġplaces	61051
Ġresponsible	60993
Ġmeasures	60981
ĠTex	60980
BU	60969
Ġdiscussed	60962
Ġhair	60952
parent	60936
Ġdrugs	60920
Ġquar	60918
ĠGet	60916
Ġletter	60874
ĠIndia	60863
ĠInter	60856
Ġspin	60835
ami	60827
Ġapproximately	60791
Ġintervention	60788
ĠWi	60773
Ġ34	60703
Ġedge	60692
Ġinsurance	60688
Ġcharacteristics	60678
ĠPC	60646
ics	60623
ĠMon	60610
ĠGu	60584
Ġsymptoms	60557
ĠResearch	60513
nce	60491
Ġ64	60456
\|	60430
","	60430
rar	60350
Ġcircuit	60341
SD	60293
Ġbill	60286
Ġstructures	60251
Ġmodern	60203
Ġ65	60177
Ġchallenge	60169
zo	60168
Ġtalking	60159
Ġessential	60039
Ġliqu	59998
ĠPl	59979
Ġcontinued	59963
ĠUK	59851
110	59833
dar	59832
Ġroute	59759
pert	59745
check	59704
'}	59703
cord	59702
Ġmono	59678
tab	59670
pn	59670
Ġinvestigation	59664
ĠSP	59654
Ġeight	59646
ĠEn	59626
Ġtree	59610
Ġfill	59610
ater	59540
ero	59532
Ġdimension	59531
}.	59468
Ġreturned	59451
Ġclean	59442
Ġhappy	59441
Ġdrop	59414
Ġpanel	59259
Ġrow	59258
ĠFurthermore	59247
ĠBen	59203
Ġweak	59163
dom	59155
ates	59153
Ġforeign	59148
See	59145
specific	59111
Ġbillion	59097
Ġwild	58997
config	58938
Î²	58906
Ġparent	58903
Ġrapid	58889
Ġpair	58845
Ġproper	58816
version	58807
Ġkids	58796
Ġblog	58773
ĠDavid	58768
tar	58691
Ġ2000	58671
ĠAM	58664
Ġenter	58646
IV	58645
Ġexercise	58642
Ġdark	58629
ĠBl	58612
kg	58591
ĠMS	58569
Request	58540
apo	58528
']	58495
ake	58477
ctor	58473
Ġsat	58454
Ġconduct	58417
Ġnone	58412
Ġfavor	58411
/(-	58407
rom	58400
Ġstock	58392
Ġinterface	58363
Ġbound	58339
hood	58335
ug	58307
ppa	58275
Ġmusic	58265
PO	58256
Ġload	58242
Ġ56	58230
Ġcouldn	58226
ĠEnglish	58205
Ġ00	58133
010	58106
Ġmental	58093
Ġandroid	58073
Ġcustom	58067
Ġspent	58045
ĠDon	58044
Ġ-->	58010
Ġspecifically	58008
Ġplans	57971
Ġ54	57959
Ġrad	57950
Ġsurgery	57947
Ġcontain	57928
Î±	57922
poses	57876
Ġfamilies	57870
fla	57825
Ġserve	57809
Ġplus	57776
Ġstrategy	57775
Ġnovel	57760
Ġselect	57758
page	57721
ĠQu	57712
Ġ(!	57692
ĠCongress	57685
Ġtested	57648
Ġcycle	57637
Ġcareer	57589
Ġdead	57585
aring	57584
Ġofficials	57574
ado	57565
Ġsleep	57550
ĠInternational	57548
ĠRu	57494
Ġformat	57491
Ġabuse	57455
Ġwants	57452
align	57450
Ġrelation	57439
Model	57436
Ġmentioned	57420
ĠCode	57418
Array	57415
cing	57353
ras	57346
ldots	57342
Ġhole	57336
Ġvoice	57325
din	57313
Ġje	57297
style	57287
Ġeat	57279
Ġhuge	57263
hin	57259
Ġ2006	57233
Č	57227
ĠNS	57217
Ġinfo	57213
Ġnil	57167
Ġcard	57044
Ġprepared	56975
\*	56958
Ġ47	56935
Ġos	56911
Pre	56901
ising	56891
Ġ53	56882
Ġofficial	56872
Ġmm	56864
Ġdespite	56863
cha	56859
Ġleads	56847
Ġtrust	56780
©	56776
Ġfemale	56759
Ġstudent	56714
long	56680
board	56680
Ġstudied	56647
Ġunless	56630
ao	56623
{}	56616
Calculate	56614
Ġpress	56603
Ġagent	56594
çļĦ	56592
Ġimproved	56572
Ġemploy	56569
Ġnuclear	56547
Ġspa	56536
Ġdescription	56510
Ġenjoy	56506
Ġtransport	56484
Ġtypically	56474
Ġmetal	56458
Ġcombined	56435
ĠYour	56430
Ġwave	56418
Ġ43	56395
BS	56349
dl	56299
------	56298
AG	56295
Ġsuccessful	56283
Add	56276
Ġsurvival	56243
Ġexperimental	56235
Ġgrowing	56204
prime	56190
Ġcontrols	56154
Ġcommunication	56122
Ġvote	56061
ĠComp	56043
object	56013
uate	56003
Ġminimum	55991
CF	55974
ĠNews	55941
ire	55930
src	55921
Âµ	55865
Ġpiece	55835
Ġneighbor	55798
Ġkilled	55786
TG	55765
ĠAP	55693
Ġhour	55690
Ġ("	55690
Ġpicture	55688
Field	55686
Ġoptical	55668
Ġjava	55611
Ġpackage	55584
Ġmolecular	55582
Ġguy	55580
Ġchain	55553
Ġsociety	55500
ĠTV	55498
Ġexternal	55497
Ġinduced	55490
ĠSha	55477
Ġcircumstances	55466
Ġperhaps	55453
Ġwouldn	55434
Ġagreed	55365
Ġlicense	55359
102	55344
Ġraised	55306
github	55278
ĠNote	55265
Ġoperations	55261
Ġtools	55256
Ġcalls	55249
Ġanalyzed	55247
lf	55224
Ġassociation	55218
Why	55215
104	55205
Ġnames	55192
Ġlinks	55189
Ġreached	55170
Ġachieve	55155
Ġwhereas	55152
Ġjudge	55149
Ðº	55100
Ġdied	55090
Ġfeet	55065
Con	55050
Ġhttps	54989
~~~	54987
ĠDO	54978
Ġofficer	54972
coming	54967
Ġemployees	54956
105	54941
Ġclasses	54933
cin	54928
Service	54870
Some	54856
Ġmanager	54845
Ġcauses	54793
Ġorig	54760
how	54726
ime	54701
else	54652
anc	54635
well	54615
=".	54613
Ġprobability	54595
Date	54587
Ġkept	54515
Ġ33	54508
Ġcredit	54497
rove	54491
Ġcriminal	54446
otimes	54406
result	54400
Ġefforts	54383
ă	54378
hom	54318
print	54312
ĠOther	54310
Ġshift	54304
Ġsoft	54291
Ġtraditional	54284
ĠMost	54264
}-	54243
*^	54229
Ġoccurred	54225
ĠLaw	54166
Ġcorrelation	54116
Ġest	54080
Ġintroduced	54073
Ġfaith	54067
Ġbuffer	54037
Ġsuggests	53972
Ġnet	53965
level	53952
model	53942
ĠPark	53934
init	53916
ĠNO	53911
aj	53864
Ġcertainly	53855
Ġsens	53843
ĠRNA	53814
Can	53792
Ġtechniques	53782
Ġstorage	53770
num	53763
Ġadvantage	53751
ano	53713
00000000	53712
Ġequivalent	53709
Ġminor	53694
Ġ57	53689
Ġelectric	53683
Ġdiagnosis	53681
Ġmovie	53667
ky	53662
ĠLondon	53638
Ġgeneration	53608
Ġgone	53596
UL	53573
Ġrender	53565
Ġstatute	53550
Ġabsence	53531
Ġprotection	53510
Ġremaining	53486
Ġsexual	53485
Ġsummer	53422
Ġche	53422
Ġappellant	53406
Ġcatch	53330
aa	53325
ĠGroup	53325
oor	53312
Ġwhom	53308
Ġforces	53281
)^{	53225
Ġalgorithm	53212
Ġecon	53197
Message	53188
olog	53073
Ġrequirements	53073
Ġgenera	53059
Ġ2005	53013
Ġrecords	52943
ĠSA	52921
ada	52915
ised	52899
ĠIC	52892
Ġholding	52881
Ġ58	52877
Pos	52872
Ġguess	52854
ÃŃ	52807
PC	52782
xy	52735
¢	52732
Ġgun	52725
itis	52659
Ġprefer	52658
gt	52636
xs	52628
Ġconventional	52628
NY	52588
Mar	52579
.](	52561
Ġolder	52552
Ġexchange	52487
*]{}	52468
where	52466
Ġfear	52442
Ġfloor	52435
ĠSet	52427
Ġmissing	52409
Ġserved	52407
ĠGreen	52400
Ġlaws	52391
Ġ61	52383
Log	52358
Ġextent	52348
Ġ72	52335
md	52317
Ġadding	52314
Ġresponses	52306
ë	52289
ĠEast	52277
System	52266
Ġoffers	52264
Ġcapital	52238
({\	52193
Ġquantum	52183
Ġ()	52163
....	52114
Ġsevere	52113
Ġcreating	52083
luster	52064
ction	52056
Ġderived	52040
Ġscience	52021
ku	52016
Ġsubjects	52015
amp	51999
ĠHan	51984
"></	51970
)/(	51952
cd	51927
ĠFace	51901
Ġgir	51878
cast	51871
Ġanimal	51857
ĠSer	51857
Ġbed	51811
ĉĠĠĠĠ	51807
yn	51805
Ġideas	51735
ster	51687
Ġschools	51687
)"	51686
^[@	51670
equ	51542
Ġ59	51535
EP	51525
Ġproperly	51493
Ġrepresents	51444
Ġ62	51432
ĠStreet	51415
Ġtravel	51408
Ġresolution	51392
ĠEq	51392
ked	51303
Ġdecreased	51288
Ġexperiment	51276
Ġdirector	51276
Ġband	51253
induced	51190
108	51189
mbox	51176
ÂłÂłÂł	51170
ĠIsrael	51159
ĠBritish	51138
Ġfish	51100
ico	51097
tp	51076
Ġimmuno	51055
Ġregard	51025
rig	51019
ĠSupreme	51012
Ġauthority	51008
ĠIP	51000
nonumber	50990
Ġdie	50987
Ġmechanisms	50983
Ġlose	50979
Ġdoubt	50966
Ġvirus	50962
local	50897
Ġlargest	50874
Ġfeeling	50853
ĠEurope	50851
Ġprofile	50842
lied	50832
ĠPost	50816
Ġattorney	50781
Ġcold	50751
(&	50748
ĠWal	50738
Ġtip	50733
Ġ66	50732
ĠFoundation	50727
Ġinterests	50719
Big	50717
default	50712
Ġteams	50708
het	50662
Ġmembrane	50658
Ġbalance	50642
Ġvisual	50636
Ġtechnique	50629
Ġbranch	50594
Ġcrime	50584
Ġofficers	50580
First	50522
Ġcontained	50477
ĠGoogle	50470
/(	50442
Ġslightly	50436
Ġprotected	50399
_.	50397
Ġsecure	50371
sha	50333
ological	50302
Ġap	50300
Count	50293
ĠBlack	50285
alt	50284
pea	50269
ĠPeople	50243
Ġcoverage	50206
/\	50165
Ġsales	50163
Ġstream	50162
ĠCouncil	50127
xa	50120
Ġfight	50103
lying	50072
Ġag	50070
oid	50050
Ġguys	50032
Ġconclude	50031
Ġnoise	50029
mod	50001
Ġslow	49994
ĠCommission	49982
Ġcharged	49980
Ġinit	49956
Ġshared	49946
Ġopening	49929
Ġcharacters	49927
cke	49892
Ġdriver	49889
mos	49862
Ġcm	49844
Ġlatest	49843
Ġchemical	49838
Ad	49813
Ġprojects	49803
usion	49802
ĠCalculate	49795
pan	49792
late	49780
2015	49780
Ġdose	49773
ĠTrans	49760
Ġoffered	49737
Ġerrors	49729
Ġ[]	49720
**]{},	49715
Ġspread	49661
ĠCanada	49648
Ġannounced	49621
ĠChinese	49594
ĠMac	49553
comm	49552
Ġir	49546
ĠOver	49496
Ġring	49490
ĠCor	49469
med	49422
Ag	49410
Ġentered	49408
rob	49407
Ġagents	49333
Ġinteractions	49331
INT	49326
,'	49234
tric	49210
Ġsupply	49206
fac	49180
ann	49177
hol	49162
ected	49105
Ġdecrease	49099
Ġfore	49097
ĠTwo	49097
.[@	49083
Ġ_{	49083
Ġaccept	49071
Di	48969
ala	48961
Ġanalyses	48960
summary	48950
Ġagency	48939
dots	48915
'.	48909
ĠFriday	48904
Ġconcentrations	48888
osition	48873
ĠCL	48872
Ġintra	48835
Ġdigital	48786
Ġoutcome	48768
Ġborn	48767
Ġgenetic	48699
âĢĬ	48693
Ġexistence	48689
BL	48686
Ġreceptor	48674
tz	48639
Ġstable	48633
ĠJames	48629
Col	48627
CON	48608
ĠRes	48596
ĠSuch	48578
Ġfinite	48542
Box	48528
Ġcommercial	48528
Ġexpress	48525
ĠJust	48515
Ġpossibility	48496
Ġequipment	48496
Ġstars	48494
range	48490
Ġplants	48484
position	48464
Ġcarbon	48455
Ġ"[	48454
Ġspeech	48444
Source	48442
Ġoperating	48438
ination	48420
Ġfilter	48351
Ġcompleted	48346
SU	48332
ĠSub	48315
Ġ+=	48308
Ġbeautiful	48302
Ġdog	48275
Ġpatterns	48269
{"	48232
Ġwhatever	48226
Ġreturns	48220
Ġheavy	48209
Be	48193
Ġliver	48161
Ġbrand	48159
Ġchronic	48113
Ġ2004	48106
Ġsmooth	48103
Ġidentity	48082
Ġinteger	48081
rev	48069
property	48040
ĠAD	48025
ĠUnder	48014
Ġdiseases	48010
Ġmobile	48005
Ġinterested	47981
Ġscene	47966
ji	47964
Ġalleged	47948
ĠCT	47935
Ġtransmission	47934
Ġsalt	47876
ĠBank	47848
Ġscript	47792
Ġappeared	47775
Ġsemi	47751
Ġrich	47750
Ġimportance	47747
Ġindicates	47737
Ġaren	47695
expr	47690
ĠService	47635
Ġspectrum	47615
Ġbank	47604
ĠBur	47585
Ġruns	47571
0001	47540
120	47538
Ġhusband	47534
Ġtour	47521
").	47510
Ġcontrolled	47509
}+	47498
height	47477
ĠTR	47448
widetilde	47446
Ġbutton	47439
iew	47427
nabla	47415
Cs	47391
Ġconclusion	47390
Ġdemand	47385
ĠSun	47385
Ġsequences	47381
ich	47367
ĠBoth	47345
Ġstraight	47305
dow	47251
aise	47230
circ	47206
ĠWestern	47204
Ġspirit	47190
Ġholds	47184
Ġmouse	47182
Ġparticles	47168
$(	47163
false	47162
Ġassembl	47140
active	47136
Ġ2019	47122
Ġvoltage	47063
\!	47061
Str	47057
Ġyield	47054
Ġreality	47035
ĠInt	47027
itivity	47018
Ġdefendants	46995
Element	46953
Ġinner	46922
Manager	46919
Ġempty	46919
chase	46913
igate	46901
Ġfoot	46888
ĠRep	46883
Ġbreast	46879
Ġdecline	46869
ĠMonday	46852
Ġlatte	46850
tag	46844
Ġplasma	46844
Sol	46826
Ġformula	46824
just	46823
FT	46812
Ġmotor	46812
Ġreferred	46807
lum	46800
ĠChrist	46797
\"	46796
ĠInstitute	46754
plo	46716
Sc	46673
Ġsuffer	46659
Ġrepresentation	46588
Ġcontinuous	46574
ably	46561
Ġinterview	46534
Ġseemed	46512
{(	46491
scale	46471
Ġgraph	46469
ĠUp	46460
opt	46425
009	46403
Ġflat	46391
Ġthank	46389
Ġ68	46377
Ġ500	46356
Ġremainder	46339
dep	46336
Ġspeak	46309
flow	46300
Ġstatements	46273
ĠSmith	46272
ech	46248
Ġmaintain	46246
ĠDen	46214
ĠSunday	46195
}})	46174
Ġnation	46169
Ġfat	46164
pin	46149
Mod	46149
Ġlibrary	46120
Ġjobs	46083
ried	46075
Ġsession	46046
dimensional	46031
Ġleaders	45974
Ġhaven	45970
]),	45938
Ġliterature	45935
cp	45919
ĠAccording	45908
Ġpromote	45904
Ġ67	45901
ĠMI	45895
sb	45890
Ġcollege	45886
Ġapproved	45858
Ġworse	45840
Ġgrand	45833
QU	45823
ĠCompany	45818
ĠMichael	45804
Ġplatform	45795
ture	45786
Ġstruct	45775
Ġ85	45771
ened	45764
Ġcarry	45704
011	45693
Ġissued	45664
ĠPress	45645
either	45608
DB	45597
Ġclub	45590
Ġextremely	45574
lation	45565
format	45547
rus	45529
dim	45513
Ġsquare	45510
child	45509
2016	45505
ĠCommittee	45505
Ġknows	45478
hs	45425
Ġalcohol	45406
ĠUN	45402
iel	45391
ux	45388
ford	45379
Ġleader	45355
Ġcovered	45347
Ġexamples	45345
Ġcharges	45342
ĠAC	45341
Ġserum	45287
"]	45268
++	45254
ĠSu	45253
Ġahead	45250
Ġregulation	45217
Va	45206
ĠUnion	45194
EF	45168
Ġcool	45161
Ġaware	45099
Ġexception	45094
ĠJapan	45090
Ġmargin	45069
apache	45066
Ġopened	45061
Ġsubstantial	45060
message	45048
Ġsigned	45045
Ġ99	45038
ALL	45011
ney	45005
GC	44993
2013	44982
.$$	44969
cer	44968
2014	44923
Ġcustomers	44918
oon	44915
Ġclick	44905
Ġchurch	44900
pons	44860
Ġoccurs	44839
Ġpush	44802
ĠDay	44784
dle	44777
Ġfootball	44753
ĠLeague	44752
Ġlib	44718
lie	44710
Ġrecorded	44709
Ġcompounds	44691
Ġdelivery	44680
berg	44676
ets	44666
ĠBrown	44654
rio	44651
Ġdecisions	44643
ĠExp	44629
Ġextension	44598
Ġcalling	44576
Ġreceiving	44525
Ġnetworks	44508
Ġassay	44508
Ġevaluated	44506
_{{\	44501
Ġer	44500
Ġdiet	44486
Ġpowerful	44484
Ġfreedom	44480
Ġallowing	44430
Ġviolence	44424
pha	44416
Ġextended	44409
Ġ71	44403
ants	44399
Ġleaves	44399
.</	44368
ĠAmericans	44347
ĠNOT	44332
endif	44329
Ġgen	44329
null	44295
Ġpercentage	44294
Ġplate	44288
Ġestablish	44258
Ġoutcomes	44252
ĠTime	44233
Ġsale	44227
Ġconcerns	44215
ĠFrench	44196
Ġleaving	44190
LD	44183
Ġsubsequent	44182
Ġassessment	44175
Ġbirth	44170
Ġ2003	44155
ĉĊ	44136
iate	44123
Ġthousands	44122
cover	44119
Ġhelped	44096
first	44075
Ġtestified	44074
Ġmuscle	44073
Ġmostly	44068
exe	44058
Ġimmune	44058
Ġtea	44055
ĠCollege	44030
lement	44025
Ġban	44021
Ġevolution	44020
Ġ};	44008
Mi	43999
.*	43997
ĠNE	43955
ĠDA	43934
Ġgrow	43928
Ġefficiency	43926
ani	43920
ines	43908
Ġowner	43862
2012	43850
Ġecho	43846
Ġbooks	43842
Car	43838
ĠWhy	43831
Ġarguments	43829
Ġox	43814
Ġru	43797
Ġcult	43791
Ġtraffic	43761
zeta	43749
Ġrepresented	43747
Button	43744
tom	43729
Ġcriteria	43726
Ġcentury	43710
ĠFinally	43679
word	43677
Don	43674
MD	43672
ĠSal	43659
Ġapparatus	43633
ĠOpen	43601
augh	43588
ĠGovernment	43584
Ġsan	43583
**,	43577
ĠPS	43576
Ġexamined	43569
Ġvirt	43550
Ġentitle	43547
Client	43544
Config	43538
oul	43530
its	43523
ĠCON	43523
Ġdiff	43500
Ġbudget	43499
:\	43487
Ġlearned	43452
ĠAssociation	43446
Ġplane	43428
dependent	43423
twi	43416
ĠChar	43416
ĠKing	43406
Ġeventually	43400
nes	43395
Ġspecified	43380
2000	43379
Ġenhance	43360
ĠTest	43322
115	43316
ĠUsing	43310
Fe	43267
repo	43253
Ġcandidate	43251
TF	43248
Ġcurve	43232
Ġdry	43220
Ġscheme	43192
Ġincident	43145
Ġdepends	43141
Ġlabel	43133
ters	43128
ĠSuper	43128
Ġlimitations	43098
These	43084
current	43078
ĠChurch	43067
}=\	43049
product	43027
ĠDC	43017
Ġsupposed	43013
DC	43000
Click	42999
Ġdistinct	42992
Ġbattle	42991
Ġsurvey	42988
Call	42976
ĠAss	42972
van	42969
Ġideal	42955
Ġfuel	42941
Ġinvestigated	42926
ĠYes	42907
ĠTuesday	42903
emp	42895
FF	42888
ĠGermany	42880
ĠJudge	42846
ĠIran	42842
Ġachieved	42828
Ġfirm	42819
RP	42796
Ġfloat	42793
Ġtypical	42780
tm	42769
ãĢĤ	42762
RR	42743
ĠLA	42736
Ġpathway	42733
section	42728
sist	42721
illa	42721
Bar	42721
Ġgoals	42715
2017	42714
ĠScience	42712
match	42692
ĠFile	42685
ĠSH	42676
Ġpin	42655
Ġchanging	42652
Number	42648
Ġmixed	42641
Ġseat	42628
Ġpolicies	42622
fes	42612
rog	42610
Ġglass	42609
ught	42602
Ġspend	42601
Ġ2001	42586
img	42585
context	42576
ĠWeb	42570
Ġstandards	42517
Ġfilms	42517
uring	42507
supplementary	42494
PL	42477
att	42469
Then	42469
BR	42464
Ġrecovery	42464
dit	42455
ique	42452
ĠMany	42450
Thr	42435
Ġthreat	42433
&\	42429
cons	42428
Ġapplicable	42420
Ġgranted	42411
button	42398
Ġthin	42383
Ġneuron	42383
Ġbiological	42372
Ġ96	42370
Ġcomplaint	42363
ĠIII	42358
IG	42351
Ġcivil	42327
ape	42321
Ġquick	42316
Ġangle	42299
she	42289
Ġignore	42281
izer	42262
jun	42253
Ġstrain	42240
Ġbaby	42224
Ġpolar	42203
Ġexpansion	42197
Ġisolated	42185
Ġacts	42178
Ġjoin	42152
Ġmurder	42140
tum	42093
cf	42078
stra	42074
Ġcup	42061
Ġdesired	42049
Ġseeing	42041
Ġevaluation	42019
Ġmaster	42006
tone	41988
ĠNone	41956
Ġsubstrate	41925
Ġstanding	41919
Ġdelay	41902
imal	41893
Ġ77	41882
117	41874
std	41869
rap	41860
Ġindeed	41854
Ġlit	41853
Ġsections	41849
Ġstrongly	41825
enin	41813
.**	41807
Ġrelief	41799
Ġinstall	41795
Ġdetailed	41789
Ġelectronic	41785
Ġfunds	41771
hand	41767
Ġinvestment	41751
RM	41748
300	41727
ĠGeorge	41725
Ġ73	41721
Ġobvious	41710
Ġchosen	41676
Ġfourth	41671
sia	41650
ĠIns	41636
ida	41635
ĠMO	41633
ague	41608
Ġkill	41590
ission	41544
Ġsell	41541
rough	41538
Ġill	41533
ĠEs	41524
ĠEd	41524
ova	41500
Ġ{{\	41480
"}.	41473
eme	41462
TL	41458
Ġbroad	41441
Ġ81	41427
Ġcommitted	41400
Ġdaughter	41396
lp	41369
ius	41363
break	41356
Ġ300	41353
Ġduty	41340
Ġ74	41337
Ġcategory	41332
Ġconsidering	41330
Ġdirected	41285
ĠNF	41254
other	41253
ĠEngland	41251
Ġdigit	41231
ĠMD	41206
Ġloc	41198
Ġwarm	41197
Ġthanks	41190
-----	41176
Ġskills	41167
Ġprices	41160
ĠUI	41152
uint	41148
Ġsolve	41148
Ġvictim	41131
Ġpayment	41114
ĠIF	41110
Ġexam	41094
Ġforced	41092
gel	41090
Just	41087
Ġreligious	41079
Ġdocuments	41073
Ġnine	41070
Ġ84	41064
ĠFlorida	41060
Ref	41057
ĠParty	41051
ĠType	41038
114	41028
Ġdebt	40999
Ġsecret	40996
select	40992
Ġspot	40987
Ġlisted	40982
vent	40976
rst	40948
rain	40946
Ġforth	40937
Ġappl	40937
target	40930
Ġresearcher	40920
Ġaccident	40919
Ġplays	40912
module	40863
sight	40840
ĠGerman	40832
Ġdetermination	40817
Ġequations	40816
CU	40804
Since	40795
ĠGold	40793
Ġ2002	40770
Ġscope	40745
Ġvariation	40725
status	40723
erg	40715
Sub	40714
Ġ76	40705
ĠSolve	40704
Ġsold	40692
Ġconcern	40683
Page	40682
ght	40677
End	40676
Ġwaiting	40672
HR	40668
Content	40667
Ġexcellent	40638
Ġfans	40604
EV	40589
inator	40565
Ġ78	40562
Ġbrief	40547
ĠTri	40538
2011	40528
Ġobservations	40512
Ġpossibly	40490
116	40481
=(	40474
Ġparallel	40455
ĠRussia	40441
Ġbelieved	40437
Per	40413
ĠCopyright	40391
Ġversus	40381
ĠHall	40381
2010	40376
ĠPan	40342
ress	40324
layout	40324
%.	40303
Ġassuming	40293
ces	40277
ict	40274
ĠHIV	40257
ql	40229
ĠHome	40228
Ġhousing	40224
$)	40201
Ġtouch	40163
spec	40162
Ġfees	40151
ris	40124
Ġoffense	40103
Version	40102
Ġtwice	40088
ĠOffice	40085
ige	40084
ĠWell	40070
ĠBill	40067
Ġnodes	40065
Ġemployed	40054
ĠLord	40043
Ġcommunities	40042
ĠPart	40040
âĢĿ,	40025
ĠThursday	40014
Ġexhibit	39998
Ã³	39994
plan	39972
Ġduration	39970
Ġdamages	39935
Ġconfidence	39896
Override	39891
Ġplanning	39884
loud	39878
Ġcompare	39862
Ġaward	39824
hold	39806
rif	39797
Ġmutant	39768
small	39741
([	39737
Check	39725
**]{}	39714
Ġthread	39709
uge	39703
++)	39701
nia	39699
Ġmeta	39699
ĠWednesday	39683
Dec	39678
yo	39676
Ġstreet	39669
Ġscores	39668
Ġfunding	39657
ĠMark	39629
Ġwaste	39619
Ġaccuracy	39615
ĠWill	39612
ĠClass	39608
Ġhelps	39601
icon	39586
rf	39582
**(-	39577
wal	39575
]--[@	39562
Ġconcerned	39561
Ġed	39560
ĠWindows	39560
Ġtrials	39520
ĠOS	39486
aza	39485
ĠLin	39450
Ġmetric	39448
cup	39444
{-	39433
ĠSaturday	39429
)))	39392
Filter	39388
Ġcat	39379
Ġcir	39365
AV	39358
400	39357
Ġguilty	39350
Ġasking	39346
cial	39340
Ġboundary	39337
Result	39324
Ġrelationships	39315
```	39308
Note	39288
ĠAny	39239
Last	39237
Ġexperienced	39227
asp	39220
dc	39198
ĠCircuit	39192
Ġelectron	39175
Ġsplit	39163
Ġgla	39159
Ġburden	39159
Ġreverse	39137
Ġexposed	39128
ĠJapanese	39107
Ġfinished	39097
ĠFrance	39082
Ġcontribution	39079
Ġconsent	39042
Ġviola	39032
Ġextends	39015
omb	39014
Ġ===	39010
Method	39008
WI	39003
odd	38993
pad	38982
ult	38976
Ġcoach	38970
Ġinhibitor	38968
ĠUse	38964
Format	38957
Ġacute	38957
ĠJesus	38948
ĠMinister	38946
Fin	38931
Ġcontinues	38910
Ġframework	38909
ener	38906
Ġpad	38899
Ġemployee	38894
Web	38889
Ġfundamental	38886
Ġdraw	38879
Ġresource	38867
frame	38844
Read	38836
Mr	38827
ĠFederal	38824
Ġtrain	38816
more	38797
opy	38789
Ġiron	38784
2018	38774
Ġuint	38773
Ġpark	38772
\/	38759
Ġdepartment	38759
Ġintensity	38758
Â¶	38679
ĠInternet	38655
Ġguide	38654
Ġmor	38635
ĠVer	38633
Ġplot	38629
ĠAustralia	38626
unde	38584
ĠJustice	38580
Ġsettings	38576
Ġcompetition	38570
Ġsugar	38568
Ġice	38565
Ġmassive	38564
Ġdemonstrate	38557
Ġadvanced	38557
Ġgrant	38547
Ġintent	38540
Ġordered	38532
Ġpull	38529
^+^	38520
Ġrelates	38507
Ġearn	38499
AU	38494
proc	38492
Ġplaintiffs	38485
Ġgold	38477
"),	38446
cit	38425
Create	38423
Ġ*)	38417
ĠCP	38412
GS	38367
Base	38366
Ġ120	38353
;&	38339
Ġbrother	38324
Ġchallenges	38300
Ġpotentially	38299
Ġimaging	38293
Ġhumans	38258
Ġjoint	38252
Ġvelocity	38228
Ġinterval	38218
Ġconference	38199
Ġrats	38189
vy	38178
etch	38175
Ġstopped	38159
ials	38152
ĠAir	38148
ĠFIG	38146
Ġformal	38143
Ġstatistical	38135
Ġchief	38132
iso	38126
Ġidentification	38118
ury	38115
Simplify	38113
Ġdoctor	38112
ĠRule	38110
Ġimprovement	38102
ession	38090
Ġsit	38076
als	38063
Ġoperate	38034
Ġrare	38033
neg	38025
Ġcourts	38018
Action	38012
fy	38011
ĠCS	38005
ville	37984
Ġclaimed	37970
Ġremained	37964
Run	37950
ically	37941
Ġopposite	37937
sed	37917
ĠSl	37915
Ġengine	37904
Ġobjective	37885
Ġlung	37870
genic	37865
cia	37857
Ġended	37850
ĠGood	37843
ĠPlease	37829
Ġdownload	37828
Ġspring	37813
132	37810
Ġsuggesting	37748
house	37740
Ã¼	37730
BE	37691
Ġbag	37689
uis	37688
Ġfrequently	37688
sis	37680
Ġrank	37673
Ġcast	37671
Ġdiscovered	37666
Ġhence	37660
RY	37623
Ġarc	37606
ĠRussian	37578
Frame	37539
Ġsuppress	37537
ĠEnd	37534
Ġsweet	37512
ĠTom	37506
''	37501
Ġbone	37491
Ġargues	37491
Ġjustice	37485
ĠRepublican	37467
Ġprincipal	37453
Pl	37452
Ġfragment	37452
ĠThom	37435
Ġgap	37433
ĠÂ£	37432
Ġnecessarily	37420
Psi	37411
wan	37406
Ġlimits	37403
Ġarms	37397
Ġestate	37352
ĠFurther	37336
Ġannual	37329
mem	37323
133	37320
request	37312
Ġhydro	37296
Ġretain	37275
ifier	37261
Ġhabit	37254
ude	37248
Ġtens	37243
Ġcer	37233
ĠMC	37231
Ġseconds	37218
Ġpool	37207
Ġstability	37190
.-	37179
Ġseg	37165
Ġsq	37129
}]	37108
Ġdependent	37105
ĠHence	37098
Ġwidely	37086
Ġgender	37075
]]	37062
Am	37056
next	37051
Ġoral	37048
ridge	37045
Ġantibody	37024
ĠDefendant	37018
Ġthereby	37014
card	37005
Ġdefinitely	36976
=======	36962
erv	36946
aki	36936
Ġthreshold	36933
any	36931
ĠJohnson	36925
ats	36919
Ġabsolute	36917
ĠTwitter	36915
Â·	36904
Ġdisorder	36901
wood	36890
Ġprovision	36889
Ġlinked	36870
tol	36863
Ġspi	36854
Ġaspects	36851
ĠGR	36847
ĠEr	36840
Im	36830
Ġpeace	36824
References	36819
Hi	36817
Ġattacks	36813
Ġstarts	36810
ulating	36805
sch	36803
Ġnumerous	36802
COM	36801
Ġkeeping	36791
tions	36779
Ġpopulations	36771
Ġfan	36758
Ġsupra	36750
earch	36738
Ġindicating	36737
output	36725
Ġmouth	36725
Ġstructural	36722
Ġrelations	36722
Ġspo	36714
Ġcomposite	36678
Ġmixture	36674
bed	36670
Label	36670
Ã¶	36648
Ġsurround	36645
Ġcamera	36642
ĠGive	36636
"$	36603
Ġaccepted	36592
ĠStar	36590
Ġinterpretation	36587
Ġ[[	36567
tmp	36557
Ġmortality	36546
air	36538
Ġunable	36537
Status	36536
Ġdebate	36530
was	36526
ĠVal	36523
ĠMP	36522
^+	36519
Ġentirely	36519
Any	36514
Ġends	36513
force	36507
Ġmission	36503
El	36502
Ġhi	36489
Ġtruly	36480
Ġprep	36476
ĠRobert	36466
Ġinstructions	36464
ĠSecond	36453
ĠChristian	36452
Ġrecognized	36447
Ġcellular	36434
Ġgonna	36431
pdf	36415
auto	36402
ĠOnce	36396
ĠDirector	36393
});	36387
Ġpractices	36386
Ġscientific	36383
Ġrepair	36378
Ġgirls	36374
kh	36372
Ġaxis	36371
131	36363
Ġmix	36335
query	36334
Ġenable	36313
show	36308
ĠOnly	36303
Ġaim	36298
DD	36291
Ġnarrow	36288
Ġnotes	36272
Ġdegrees	36269
Your	36263
rag	36245
oin	36245
Ġsupporting	36242
Ġelectro	36236
Ġter	36234
ril	36233
Ġtin	36233
Line	36231
isp	36224
ops	36219
foo	36219
msgstr	36216
TD	36207
Ġemployment	36207
Ġfraction	36206
Ġnano	36200
Handler	36188
Ġexplore	36182
Ġ97	36175
Ġ\{	36166
NAME	36146
118	36145
private	36134
ĠOut	36120
Ġresponsibility	36104
press	36093
Ġseed	36093
Ġmiles	36086
lio	36082
hm	36075
ĠTimes	36065
Ġ191	36062
Start	36056
Ġprison	36053
Ġ86	36045
Ġminute	36040
ĠHospital	36024
Ġattached	35993
rier	35992
Ġappearance	35992
Ġes	35991
Ġvitro	35989
Ġextract	35985
Update	35970
Ġtechnical	35966
ĠRT	35959
graph	35944
Ġlymph	35934
Stream	35933
///	35913
Ġsensitive	35911
rated	35902
ogy	35894
Ġdisk	35883
une	35876
ĠObject	35876
Ġresidents	35874
Ġcompound	35857
linear	35843
ĠPeter	35807
^-	35804
Ġmolecules	35790
widehat	35787
\^	35783
Ġmenu	35780
Ġconcluded	35760
build	35756
ski	35733
ĠProject	35725
Ġpun	35722
ĠIndian	35721
Ġqui	35720
Ġdynamic	35714
OB	35700
Write	35681
ĠAPI	35676
Ġcommonly	35672
Ġamounts	35666
Ġcloses	35664
ĠSur	35664
change	35637
ben	35636
obj	35606
00000	35606
Two	35599
Ġtag	35594
195	35586
Ġassigned	35585
Ġconsideration	35581
ending	35560
Input	35542
Ġprolifer	35534
Ġsal	35525
had	35522
goo	35518
Ġunderstood	35516
Please	35515
Ġprev	35509
Ġdynamics	35498
013	35468
ĠTheir	35463
}"	35440
\]).	35434
Ġrequirement	35432
uit	35426
Ġpp	35422
Ġeffectively	35420
Ġaccurate	35417
Ġprinciple	35407
ures	35398
ĠRad	35398
Ġexpert	35393
uz	35374
iat	35358
ĠInstead	35350
ĠEC	35334
Ġestimates	35313
Ġoffset	35301
ĠAfrica	35286
Ġretire	35284
Ni	35283
vel	35282
ucing	35281
Ġconnect	35280
Ġescape	35262
={	35257
Inter	35253
ĠStan	35252
Ġharm	35243
css	35241
sequence	35235
Ġspaces	35233
ĠAfrican	35213
Ġoxygen	35211
Ġfilled	35210
PH	35209
Ġjurisdiction	35207
Ġfail	35207
san	35189
weight	35167
Ġearth	35136
Ġmodify	35128
FP	35116
Ġdecades	35112
Ġusual	35109
Ġ192	35075
Ġsy	35063
ĠSam	35049
some	35041
ulated	35035
Ġspending	35026
ĠHuman	35016
FFF	35006
yer	35004
Ġtemplate	35002
Ġzone	34993
Ġbinary	34993
Tre	34988
ĠHA	34975
Ġ91	34974
element	34965
hit	34962
#:	34948
diff	34934
cb	34933
Ġseeking	34933
Ġmessages	34933
Ġsenior	34922
014	34918
Ġadmitted	34909
Ġfavorite	34888
ĠPCR	34876
Ġwww	34867
number	34865
ĠPI	34861
==========	34843
Ġconsumption	34840
Ġtrigger	34819
Ġtelevision	34818
Ġbaseline	34787
ĠNA	34780
&&	34776
Instance	34767
Ġstrategies	34762
ĠRiver	34760
eration	34753
Ġ94	34721
Layout	34698
Ġlaser	34676
Ġsqrt	34660
Ġassistance	34653
Ġbroken	34652
000000	34641
Ġcharacterized	34618
Xi	34613
ĠVa	34609
dest	34603
Ġlabor	34595
Ġcog	34594
Select	34589
sil	34564
Ġdepth	34559
append	34544
Ġ98	34544
Ġorganic	34529
2008	34528
Ġoptimal	34521
Ġamino	34507
fold	34487
Ġsmallest	34487
Ġaid	34481
Fl	34469
ĠSil	34441
Ġcompact	34431
Ġpredicted	34427
Ġstrike	34417
ĠGL	34396
Ġtissues	34379
Ġdangerous	34372
Ġmal	34365
Ġfund	34364
Gi	34355
ken	34349
Ġbrow	34346
ĠIndeed	34329
Ġamazing	34328
ĠLemma	34327
Ġship	34311
Ġorders	34309
Ġexpensive	34303
Ġwitness	34295
ĠIV	34292
Ms	34279
ĠTE	34273
Ġmai	34272
Ġ93	34270
search	34267
buf	34248
center	34232
ĠPlaintiff	34223
Ġvision	34217
Ġmilk	34206
Ġdraft	34202
HP	34179
Dis	34160
2009	34152
144	34146
Point	34145
mode	34132
Ġpoll	34128
template	34127
Find	34122
Ġlaunch	34121
ners	34119
ĠInformation	34102
Are	34099
Ġsupports	34066
WE	34046
Ġmeth	34032
Ġpsy	34027
ivity	34011
care	34004
Ġparticle	33983
Ġpieces	33981
conc	33978
Ġcustomer	33976
ĠMedical	33947
uted	33945
Ġmanuscript	33945
ĠEarth	33944
103	33942
ĠProgram	33932
Ġinhibition	33927
Ġwatching	33923
subset	33912
TP	33886
Ġsyndrome	33872
description	33866
ery	33860
Ġmiss	33859
Ġcausing	33827
Ġdiscretion	33826
Ġsuccessfully	33798
Ġposts	33794
options	33792
Ġarrest	33790
ĠpH	33787
END	33774
een	33771
Ġchannels	33760
Ġion	33711
Ġmeal	33706
BP	33703
room	33700
Ġtargets	33689
Ġfont	33688
Ġfruit	33680
Ġfinish	33677
Ġleg	33665
ĠLee	33659
Ġcolon	33655
Ġcrisis	33651
Ġthermal	33649
Ġpure	33641
ĠHE	33638
Ġintroduce	33636
Ġ1999	33628
Ġbright	33613
sen	33600
Ġsitting	33571
Ġurl	33563
Ġlargely	33556
Ġimpossible	33556
Ġouter	33555
Sor	33539
ĠEU	33534
ĠClinton	33530
Ġrepresentative	33525
ĠCentral	33501
server	33494
Ġunion	33486
VER	33474
ĠMai	33473
Next	33462
matrix	33460
Ġautomatically	33451
atory	33448
Although	33448
Query	33441
Where	33434
Ġinstalled	33425
conf	33423
Ġinformed	33423
Ġconstitutional	33401
Ġattend	33394
Ġdiabetes	33388
Buffer	33384
Ġauthorities	33382
Ġfeed	33372
ĠIts	33331
}}{\	33329
ĠCorp	33328
taste	33312
ario	33303
Ġworry	33298
pal	33290
Ġquant	33286
tun	33248
Ġconversation	33247
Ġsector	33245
FS	33241
Ġexamination	33218
Ġexit	33208
Ġcompete	33207
Ġtransform	33204
Ġforget	33195
ĠSoftware	33184
root	33141
------------	33090
Ġstrains	33089
/>	33084
ĠDM	33078
after	33070
ĠHO	33061
Ġputting	33044
Cell	33032
dig	33028
ĠON	33017
Ġpu	33006
Ġfaster	33002
').	32999
treated	32989
Ġjoined	32987
Ġseal	32984
dem	32977
Another	32972
Ġvisible	32971
Ġconcerning	32965
Ġreplaced	32924
Ġfacilities	32921
author	32911
Ġmeat	32902
Ġbarrier	32895
ĠEduc	32888
Ġdream	32882
Ġherself	32878
1000	32875
mag	32871
Ġpitch	32870
rian	32863
ione	32851
aur	32851
CIT	32843
yp	32832
ship	32823
Has	32805
Ġacting	32805
999	32795
Ġcreation	32771
Ġillegal	32761
most	32744
Ġmention	32740
Ġcitizens	32736
Ġadvance	32736
Ġfer	32733
rest	32722
ĠGreat	32715
Ġantibodies	32712
Ġuniform	32710
Ġcorner	32707
Ġlayers	32698
Ġassumed	32697
ĠFed	32688
202	32679
ĠMor	32672
Ġcandidates	32639
Ġinvolves	32623
ĠmRNA	32617
ĠField	32613
016	32606
Ġplastic	32604
Ġmatters	32602
Ġmerely	32600
Ġtherapeutic	32594
Open	32587
130	32586
Ġemergency	32579
Mu	32556
method	32552
\;	32552
Ġruling	32530
Ġmoral	32521
Ġstack	32512
edit	32505
Ġdifferential	32494
sse	32491
mus	32490
ĠCup	32484
Ġobservation	32483
eting	32481
Ġexperiences	32477
Ġperspective	32474
Ġ1990	32470
Ġhundreds	32466
Ġhurt	32462
ĠGen	32457
Ġ2020	32443
Ġhundred	32440
Ġpassing	32430
approx	32414
Ġhate	32411
graphic	32405
Attrib	32399
Ġexecutive	32385
Ġbrowser	32383
Ġlowest	32379
ĠAnother	32369
ĠPower	32364
Ġpairs	32361
ĠDevelop	32352
Ġcre	32346
ĠSecurity	32344
Ġoptim	32342
Ġdetermining	32340
Ġmol	32338
atic	32324
ĠSec	32292
CB	32288
Ġlived	32280
Ġsno	32278
Ġfamiliar	32255
lect	32249
>>	32241
Ġclosely	32240
Ġgrad	32233
Ġaspect	32230
ĠPol	32225
Ġattach	32217
lay	32206
ĠÃł	32193
Ġproved	32183
Ġwrt	32162
Ġpos	32157
iff	32128
Ġdirectory	32119
Ġtelling	32109
Ġposted	32109
Ġpolitics	32107
Ġsignificance	32105
Ġscreening	32105
Ġshut	32070
Ġterminal	32051
Ġshooting	32047
Bl	32044
Ġtrees	32043
ency	32041
Ġvivo	32040
ĠBea	32033
Ġliability	32029
Ġserving	32028
Ġcontainer	32012
Ġhomes	31990
Ġregister	31980
cation	31978
ware	31974
Default	31968
meta	31951
fc	31948
Ġmonitoring	31935
Ġprimarily	31920
itution	31910
Ġblocks	31872
DL	31864
Ġinitially	31864
019	31857
%%	31849
Men	31843
ĠControl	31843
ĠRead	31836
Who	31827
Supplement	31816
aries	31815
Ġclassification	31815
More	31809
bool	31794
Ġcities	31788
Ġoperators	31783
parse	31776
Ġidentical	31761
iest	31748
itin	31747
Ġtrend	31732
Ġlots	31721
ella	31712
Ġbeam	31710
155	31709
Ġregression	31708
Ġmaps	31707
Ġmedian	31705
]\	31702
Ġdollars	31694
Ġeating	31672
Ġinjuries	31671
gan	31665
aul	31665
]);	31661
Ġsouth	31650
Ġtranslation	31645
Ġdelivered	31640
Ġimplemented	31625
Ġdisorders	31616
only	31605
TYPE	31605
Ġclassical	31603
ett	31594
documentclass	31593
Ġgrown	31591
Ġcloser	31591
Change	31581
Ġtruck	31562
Ġbusinesses	31561
ĠDan	31549
Ġthick	31535
Ġcontributions	31528
Ġassault	31526
ĠLike	31519
Ġconsists	31518
strong	31517
Ġinjection	31513
ĠHas	31513
Ġneutral	31500
Ġtil	31499
Ġ..	31496
ĠJones	31491
Ġaccordance	31472
filter	31460
Ġpossession	31449
Â»	31442
ength	31435
Ġbigger	31426
ĠĠĠĠĠĠĠĠĊ	31426
Ġenhanced	31425
eps	31422
erm	31420
layer	31418
Ġremoval	31416
----------	31414
Ġleadership	31414
Before	31364
Ġ1998	31361
Ġstick	31358
Ps	31338
Ġexport	31327
Ġbodies	31321
Ġprevalence	31313
Ġpatent	31308
Ġera	31307
Ġneck	31296
ily	31261
txt	31260
Ġmechanical	31260
ATA	31246
ĠÎ²	31242
2007	31234
Output	31233
fill	31231
Ġsurgical	31225
Ġorganizations	31222
Ġgenome	31213
final	31212
ĠLong	31209
Express	31208
Ġ400	31197
Ġaccounts	31194
Ġsynthesis	31177
Ġapparent	31169
Ġlocations	31162
Ġconsequences	31158
hes	31153
Ġapproval	31144
Ġopportunities	31143
drive	31142
>,	31139
Ġsorry	31136
Ġelectrical	31128
Ġrig	31125
Ġgarden	31109
018	31100
Ġups	31091
Ġcorrectly	31072
Ġdepression	31054
irus	31053
Ġfigures	31044
250	31031
Block	31025
via	31024
Ġrepeated	31023
Ġtough	31014
ele	31005
Ġarrived	31003
147	30995
Ġplain	30978
Ġinternet	30961
Ġfacility	30960
ERS	30956
Command	30953
mt	30947
FL	30946
Ġthoughts	30931
entry	30926
Ġpathways	30913
Work	30898
Ġextend	30898
Ġrotation	30882
Ġsports	30859
omic	30837
180	30809
EG	30800
ĠPP	30796
graphy	30790
THE	30787
Token	30771
Ġtrouble	30764
ĠCF	30763
iy	30762
American	30738
ÂĢ	30733
ĠLake	30730
buffer	30726
Ġdisplayed	30721
ement	30713
Ġmutations	30710
Ġcharacteristic	30703
aria	30689
RK	30687
]^.	30685
Ġabsolutely	30684
ubuntu	30672
<!--	30667
Ġpractical	30665
ĠMen	30640
ĠIR	30634
Ġbacteria	30629
mac	30627
Ġremote	30622
Ġvan	30618
etic	30615
example	30614
125	30605
Ġdiagn	30605
Ġdiameter	30601
Ġ1000	30601
Ġapparently	30594
Ġ{}	30590
bility	30589
ĠAB	30583
Ġintegrated	30582
Ġinstruction	30581
Ġemotional	30571
Ġsensor	30560
ĠDemocratic	30548
Ġhist	30536
Ġstages	30524
Ġupdated	30517
Ġhelping	30501
Ġhypothesis	30496
Ġclients	30491
sensors	30470
'$	30470
Ġsoil	30454
Ġcentre	30435
cyt	30416
Ġspectra	30399
Ġ1997	30394
:(	30379
ĠBel	30379
ĠMartin	30372
Ġcommittee	30370
ĠMag	30370
Ġsheet	30369
xc	30361
Ġcoupling	30359
Ġtab	30356
ĠMs	30348
Ġfashion	30344
ICE	30343
Ġconviction	30337
Ġbun	30337
Ġincidence	30330
ĠWilliams	30324
logical	30320
cei	30305
Ġadopted	30305
ĠCheck	30305
\]),	30302
pass	30295
Ġimmedi	30295
Ġgrid	30290
Ġkitchen	30283
Ġsubmitted	30278
ĠBlue	30269
sn	30250
ket	30249
Ġdomestic	30226
=-	30225
Ġrecall	30218
ĠDoe	30210
gist	30209
ĠCall	30179
ality	30173
Ġtopic	30173
service	30169
Ġpen	30167
="#	30161
Ġconstructed	30156
ĠNet	30145
RF	30142
Ġdogs	30140
BB	30131
Ġcoffee	30124
Ġdescribes	30119
Ġpictures	30116
Ġtransformation	30073
Ġprovisions	30065
Ġepisode	30048
URL	30045
-(	30032
gain	30027
Ġclimate	30018
---------	30009
Ġglo	30002
Ġdemo	29994
Ġ"\	29994
143	29987
Ġapart	29986
rich	29976
ids	29974
ync	29970
close	29964
Ġcounts	29962
Ġessentially	29949
Ġtrace	29934
Ġmarkets	29933
\}$	29922
Ġconversion	29903
ĠNC	29887
ĠApple	29886
ĠLog	29879
Factory	29873
Ġtotally	29870
Controller	29868
Ġtheorem	29868
bt	29862
ios	29852
ternal	29851
ĠEM	29844
Ġexplanation	29833
fully	29831
RES	29831
update	29825
ois	29814
Ġcopyright	29802
while	29792
Ġspatial	29791
Ġcategories	29764
Ġfeedback	29748
ĠPolice	29747
Ġguidelines	29743
Ġtasks	29731
Options	29726
Ġencoding	29726
Builder	29714
Ġspeaking	29698
Ġmaintained	29679
Spec	29666
otic	29648
Ġdesire	29646
]{},	29644
ĠCare	29641
ĠAttorney	29640
ĠÃ©	29633
Control	29627
Ġchapter	29626
rick	29625
ience	29623
Ġregime	29615
Ġdrink	29614
Ġdeclared	29613
Ġrecording	29602
Ġultimately	29578
Ġ1996	29575
.$	29568
ators	29557
2019	29556
Ġwire	29554
cise	29532
È±	29526
Ġoffering	29510
push	29506
Ġshock	29504
cn	29502
Because	29499
ncy	29496
Local	29496
Ġcart	29496
wt	29488
ĠForm	29479
2001	29477
Ġraw	29466
ĠChief	29466
Ġwonder	29446
Ġtells	29438
Ġkilling	29430
:=	29424
ĠServices	29423
Ġgrade	29418
Ġcommission	29412
ald	29411
vector	29367
Ġreporting	29359
Ġrecognition	29353
Ġpreparation	29346
ĠTen	29343
Ġfiber	29339
Ġtreatments	29333
Ġwine	29297
urance	29291
Ġcarcino	29290
Ġpermit	29289
iu	29281
ODE	29281
Results	29274
arget	29268
ĠFour	29265
ĠAppellant	29258
Ġexpand	29225
Ġhelpful	29211
Ġlogic	29209
Ġcol	29204
Ġ01	29204
ĠIll	29187
âĢĺ	29171
Ġregulations	29171
Ġnm	29166
Ġbars	29165
Ġspoke	29163
Ġrespective	29163
ĠSco	29163
Ġfinds	29161
mann	29143
Ġrock	29142
Ġcurves	29137
Ġobviously	29135
Ġcamp	29134
upgreek	29129
Ġprinciples	29127
Component	29123
Ġcomprehens	29116
256	29114
ĠRef	29114
============	29110
ĠMad	29097
wasysym	29091
Ġrequested	29083
Ġdist	29082
ift	29076
Ġplanet	29071
ract	29064
192	29064
limits	29056
Ġwash	29055
Ġ\>	29054
Ġsituations	29053
Ġ"""	29052
Ġkern	29047
Ġdiscovery	29046
ĠWho	29042
021	29036
qquad	29013
Ġmagnitude	28985
Ġ$(\	28978
place	28976
two	28972
Ġok	28972
Ġil	28968
Ġbat	28968
MENT	28957
cher	28954
Def	28928
Ġbug	28910
normal	28909
Ġparticipate	28901
ĠHill	28887
Other	28877
142	28874
ÂłĠĠĠ	28873
double	28872
Ġlies	28871
uel	28864
Ġinhibit	28858
bd	28856
Ġbeat	28855
ĠSecretary	28847
ĠTop	28799
Ġcrucial	28785
ĠMake	28783
ĠMcC	28774
Ġuniversal	28766
None	28759
ĠDep	28759
Ġyouth	28758
Ġcompliance	28741
Bi	28738
Ġpy	28735
Ġattr	28732
mana	28731
Ġshop	28728
Ġsched	28725
Ġloan	28718
hed	28714
play	28708
ĠMicrosoft	28708
Ġphotos	28704
Ġbought	28700
args	28689
uation	28675
Ġstem	28670
Ġnumerical	28670
ĠÎ±	28657
Ġpulled	28652
}+\	28649
IX	28641
Ġassets	28631
Ġbundle	28626
Ġsuperior	28623
Ġann	28621
Ġcalculate	28619
Ġhappening	28609
mine	28605
Ġfamous	28602
uh	28597
ĠDemocrats	28597
DP	28591
Ġsetup	28591
Ġmapping	28590
ĠDonald	28579
response	28574
Ġsomewhat	28571
vc	28562
Ġtube	28560
ues	28558
phere	28547
Ġtranscription	28547
Ġgate	28545
ĠGP	28541
UD	28537
DT	28536
ATE	28536
Ġspectral	28534
Ġbehaviour	28534
Ġowners	28533
Resource	28517
Ġarrested	28516
Ġacademic	28503
ait	28499
Ġprogramme	28497
Ġdoc	28494
Ġrout	28490
Ġenforcement	28486
EST	28480
ush	28477
command	28464
Ġdrawn	28462
}^\	28448
eding	28446
unt	28445
Ġrequests	28439
Ġcontents	28436
ĠKan	28430
ĠMal	28424
Ġteaching	28411
ĠSociety	28403
Ġglucose	28401
Ġimagine	28398
Ġration	28396
bottom	28394
icle	28373
Ġtemp	28336
Ġintelligence	28333
Ġpreferred	28332
Ġ&\	28332
Ġpicking	28330
elle	28317
ipa	28305
Ġinfected	28303
NK	28285
Ġdeaths	28282
Ġmask	28278
123	28273
Ġprepare	28251
Ġdriven	28251
mol	28229
(_	28229
ĠFund	28229
Ġweather	28225
Ġhidden	28221
ĠRock	28213
Ġwonderful	28212
SY	28206
system	28192
**(	28188
Ġfighting	28184
Ġenzyme	28182
rium	28175
ĠModel	28173
oom	28162
Ġcohort	28160
Ġapplying	28151
-*	28131
Configuration	28129
Ġinstant	28120
Ġvoters	28117
Ġja	28088
column	28085
rent	28063
Ġweapons	28055
molecules	28046
Ġtract	28036
ĠThose	28026
fp	28025
People	28017
night	28013
Ġwood	28006
Ġcarrying	28006
Ġrealized	28005
ĠRoad	28005
stream	27970
Ġdivision	27955
Ġ:)	27951
Ġextreme	27950
Ġassumption	27939
Ġroles	27926
tors	27919
ĠText	27914
Ġintegral	27906
oxy	27896
Ġpermission	27894
Ġdischarge	27893
Ġobserve	27891
tory	27890
tok	27877
env	27876
lk	27870
Ġreads	27865
Met	27860
His	27854
Ġourselves	27848
soc	27837
rne	27829
))*	27825
trial	27823
Ġsustain	27821
orin	27813
INE	27807
Ġacids	27801
Ġvertical	27793
ĠmM	27789
Ġinfections	27783
2004	27777
Ġsubstantially	27772
âĢĭ	27769
Ġbeta	27751
URE	27748
Server	27743
Ġregistered	27718
ATION	27697
Ġaccused	27672
040	27665
Ġintermediate	27655
Ġmillions	27649
Ġexcited	27642
-----------	27632
erc	27593
cut	27589
Ġexperts	27579
ĠBoo	27579
Ġconstruct	27577
itation	27571
Ġoverride	27570
Ġflag	27568
Ġlegislation	27560
ography	27555
Ġintegration	27544
Ġtone	27543
ĠJournal	27533
Ġpaying	27529
Ġdropped	27525
Ġpowers	27518
"#	27511
Ġmedicine	27506
Ġuniversity	27496
live	27485
Ġcorrelated	27480
700	27478
FOR	27467
(*	27454
ses	27446
Ġviral	27444
ges	27435
ĠDivision	27429
Ġnavig	27427
Ġopposition	27418
Ġhypo	27398
ĠMount	27397
ĠMedia	27383
ML	27382
Ġdealing	27380
,$$	27378
Ġconsumer	27371
km	27370
emat	27368
ĠParis	27357
Ġradius	27356
Ġinfer	27351
Ġbowl	27351
ĠFR	27350
Ġrecognize	27345
Ġsister	27339
Ġdinner	27339
ĠThanks	27329
Ġ>=	27329
zon	27328
Ġinstitutions	27317
ĠPlan	27310
ĠDes	27305
vm	27304
pb	27293
Au	27287
ĠVI	27286
)}{	27281
bound	27279
Equal	27276
Ġcars	27270
Ġpurchased	27246
Ġdocumentation	27237
Ġknowing	27230
Ġsimulation	27224
Ġreactions	27209
Ġfeels	27198
ĠValue	27191
Ġcrystal	27177
cio	27174
ohn	27171
ĠIm	27171
ove	27170
Ġcorporate	27170
ĠGNU	27143
Ġwinning	27137
isplay	27128
About	27121
Ġlip	27119
Part	27114
Ġstroke	27105
PU	27100
Ġphilosoph	27098
Ġreligion	27096
Ġinst	27085
Ġpromise	27084
Fi	27073
Ġincreasingly	27070
ĠOrder	27052
Ġsharing	27051
ĠSel	27043
Ġokay	27041
Hey	27040
ĠWilliam	27032
aps	27022
Ġowned	27021
Ġkinds	27021
got	27015
Ġspan	27012
Ġtransferred	27009
Also	26999
inate	26993
Ġsurprise	26992
Ġcomplicated	26985
ĠZi	26981
ĠOs	26978
Ġindustrial	26977
types	26974
ĠReal	26970
Ġbin	26966
Ġsubstance	26951
amin	26943
Ġanswers	26936
Ġvictims	26927
Ġdust	26911
Ġforming	26908
Ġdual	26901
Ġoriginally	26898
ĠAmendment	26873
bour	26869
)*(-	26859
Ġinduction	26859
Ġslowly	26845
Ġextensive	26841
Ġtee	26832
ĠMaybe	26832
Width	26813
Description	26810
itan	26805
Over	26793
ĠDR	26793
Ġgift	26790
stri	26789
Ġlattice	26781
Ġacquired	26776
ĠCol	26765
LY	26754
Ġlie	26749
022	26742
231	26735
Ġconvert	26733
Ġticket	26729
ĠGame	26705
Ġ1995	26693
ĠMexico	26691
Location	26689
ĠWhere	26682
ĠmiR	26681
Ġrestaurant	26669
Ġbattery	26664
bul	26657
Ġrisks	26638
Ġpresentation	26638
"}),	26636
Ġaddressed	26636
Reference	26630
ĠIraq	26628
Ġregulatory	26618
Dev	26602
Ġwinter	26591
ĠConstitution	26572
Ġkinase	26567
agree	26562
Ġreviewed	26557
lun	26547
Ġpayments	26544
ĠHS	26543
Ġstatistics	26542
Ġfails	26530
Ġcompensation	26517
Rec	26515
ĠPur	26512
Ġguard	26506
Ġresolve	26504
qua	26503
Ġinflammatory	26500
ĠVan	26499
Ġfault	26497
Ġaudience	26482
offset	26477
fit	26477
Ġdependence	26473
Ġfuck	26467
Ġhydrogen	26465
ĠAnn	26452
Ġshell	26451
ĠKey	26449
ĠWater	26445
Ġmigration	26437
Ġsuffering	26422
Ġwindows	26415
Ġclusters	26403
Ġexcess	26396
148	26391
>.	26390
Ġsymbol	26386
Ġhotel	26385
Ġdenom	26383
$_	26377
ĠRI	26332
Ġcolumns	26320
Ġ<-	26316
positive	26314
Ġflux	26313
ĠIsland	26313
ĠEvery	26313
Ġhire	26291
Ġ-\	26289
ema	26284
step	26281
Ġtwenty	26278
Ġrows	26275
Ġregardless	26266
Ġlisten	26265
Ġtemperatures	26264
ĠNY	26261
ĠURL	26259
Os	26251
Ġchoices	26230
ĠVirginia	26215
Ġ1980	26208
Ġfavour	26204
Ġpassword	26192
life	26191
193	26189
Ġuniverse	26187
ĠVersion	26184
iative	26178
Ġcomfortable	26177
Ġstrip	26175
Ġengaged	26173
Ġvehicles	26161
ĠScott	26160
Te	26159
remove	26155
NP	26149
Ġtempo	26147
Ġregional	26142
Ġsimulations	26137
Ġadverse	26136
Ġbanks	26134
FU	26129
Ġsurfaces	26117
Ġpublication	26112
Ġcapture	26099
Ġcook	26094
ĠTeam	26093
ows	26083
Ġentity	26081
Ġarg	26081
Ġaside	26079
ĠAF	26074
Ġyounger	26072
Many	26067
Ġdecade	26064
Ġheader	26058
Ġkeys	26053
^,	26046
cache	26039
157	26031
Ġrear	26028
ĠLoo	26023
values	26020
Ġlaboratory	26018
Ġcoupled	26014
Ġedges	26011
TY	26009
2003	25999
!!	25998
ĠMrs	25981
Min	25980
Ġprogression	25980
Even	25970
ĠLand	25966
ĠOhio	25965
NET	25961
attr	25949
Ġstores	25947
Em	25943
Ġodd	25943
PER	25942
Ġvast	25941
refer	25940
Â´	25931
Ġmutation	25921
ILE	25920
Ġtail	25920
sle	25914
Ġsubsequently	25912
bp	25910
/.	25904
Ġheads	25903
Ġbreath	25900
ĠGrand	25897
ARE	25893
Project	25892
equal	25866
ĠCase	25863
\,\	25854
otype	25848
ĠAppeals	25845
Ġrefused	25843
Ġelectrode	25832
ips	25827
Ġbuildings	25823
,$	25821
164	25818
Ġdedicate	25818
Ġproducing	25812
Ġcalculation	25812
note	25811
gue	25806
Ġhell	25805
ĠLy	25800
Ġgrounds	25799
RV	25786
acing	25785
Ġdan	25784
Ġfoods	25778
Ġsmoking	25776
plea	25770
each	25758
quit	25757
oil	25754
asc	25744
(\[	25733
Ġcolors	25733
Ġstood	25732
Ġproposal	25723
ĠPort	25714
Ġvillage	25708
Ġapoptosis	25696
Ġmagic	25682
AND	25679
Ġroll	25679
Ġgather	25677
ĠJewish	25677
ĠMary	25675
Ġfarm	25667
Ġcorresponds	25667
ĠCanadian	25660
Ġasp	25652
Ġbelief	25646
Ġstands	25642
Ġaccommod	25638
Ġfacing	25631
bert	25630
namespace	25618
Ġversions	25611
Ġbeer	25609
RB	25608
ĠBush	25608
Ġwelcome	25607
nz	25604
Like	25604
Address	25599
;\	25599
ĠOh	25594
ĠCarolina	25578
Ġplenty	25577
Ġbasically	25557
Step	25550
ĠMiddle	25546
Ġlens	25543
Ġinvolvement	25538
antic	25533
ĠReview	25533
Ġproceedings	25528
ining	25518
Ġphenotype	25516
Ġminister	25513
Ġlob	25510
%;	25507
ĠWE	25504
Ġreceptors	25496
Ġtort	25482
--------------	25476
-------------	25474
ĠLouis	25466
Ġexecution	25463
tch	25452
800	25446
Ġcream	25442
Ġyellow	25437
Ġarbitrary	25433
before	25431
Ġfinger	25429
ĠRepublicans	25428
ents	25414
Ġchamber	25413
Ġtele	25412
Ġhall	25412
ĠThree	25409
Ġinclusion	25407
Ġmut	25396
Ġgauge	25396
TES	25395
Ġtheme	25385
Ġteacher	25375
ĠGiven	25357
Ġdrain	25353
inn	25351
Ġmodes	25345
ĠPrime	25345
ĠKar	25345
RAM	25337
Ġsnap	25337
ĠAmong	25333
Ġequally	25331
ulti	25328
anti	25323
Ġcoefficient	25322
Ġ103	25320
Ġencourage	25318
sample	25314
gger	25307
Ġthickness	25304
ĠRichard	25304
Ġ1994	25299
Ġconsumers	25298
Ġpulse	25294
Ġopposed	25294
149	25290
Ġverdict	25290
ĠAustralian	25289
Ġdisclose	25286
Ġisland	25279
Ġperforming	25273
ĠThan	25265
Ġjourney	25252
Ġbacterial	25242
Ġattribute	25242
Ġmoves	25236
"))	25232
Ġhash	25226
tree	25222
ĠReport	25221
Ġdistinguish	25205
0002	25200
ĠAnti	25195
WS	25182
Ġhat	25181
Ġagencies	25176
Ġdiversity	25175
Ġfly	25167
Good	25165
Ġsand	25161
ĠJackson	25160
ĠJoe	25148
Ġadjacent	25145
Ġcrack	25144
2002	25142
ipo	25133
III	25133
Ġpregnancy	25133
121	25132
Ġcontrary	25132
Ġrod	25122
Cor	25119
Ġdelete	25112
ĠJack	25108
lab	25106
Ġengage	25100
Ġsatisfied	25091
Ġstronger	25088
wl	25080
internal	25074
Ġpour	25074
Link	25069
Ġhonor	25068
Ġmissed	25061
Ġbutter	25060
Ġaudio	25055
UB	25053
Ġassist	25045
ĠCell	25042
Ġ130	25041
drop	25030
Ġcreates	25028
band	25008
Ġdeclare	25008
;</	25007
cpp	25003
Ġpermanent	25001
Ġbulk	25000
sys	24999
gon	24999
Ġwherein	24998
Ġstatistically	24998
ĠMap	24998
byte	24992
Ġcards	24980
Ġbegins	24967
ĠTim	24951
Ġongoing	24946
ĠError	24945
Ġclassic	24943
Ġshares	24942
Ġintake	24938
ĠMT	24935
will	24934
Ġprofiles	24928
ctx	24927
Ġsaved	24926
Ġthereof	24925
ĠYet	24910
ĠPage	24909
Ġcoefficients	24907
ĠAge	24907
onic	24906
Ġconnections	24900
ĠMike	24900
Ġdecreasing	24896
Ġmarkers	24889
}\\	24888
Ġusage	24888
Range	24887
ĠNon	24874
Ġbringing	24873
Ġcutting	24865
{$	24860
Ġexcluded	24854
ĠAccordingly	24849
foot	24843
ĠNetwork	24842
PORT	24833
caps	24819
Ġ{{	24815
Ġevil	24815
[[	24809
Case	24799
sts	24796
Ġsymmetry	24794
abe	24779
Ġteachers	24775
Ġanxiety	24772
Ġvariance	24754
emia	24752
mathscr	24740
Ġrequiring	24720
Ġchose	24719
Ġsubset	24716
Ġherein	24712
Ġshouldn	24711
Ġorientation	24708
Ġmanufacturing	24697
Ġblind	24697
Ġselling	24693
vt	24683
dk	24683
Ġcomplications	24672
Ġreform	24669
Ġadequate	24662
TV	24661
compl	24660
ĠNumber	24660
esh	24653
Ġextracted	24647
impl	24636
Ġtargeted	24630
214	24623
ĠCreate	24622
Form	24613
methyl	24610
Ã£o	24604
Ġlesions	24603
Ġinjured	24592
Ġpowder	24591
ĠRel	24590
STR	24585
Ġdism	24579
Core	24571
190	24571
Ġradical	24569
ĠBow	24569
Ġeditor	24566
Ġ$-	24563
stack	24562
Ġanalyze	24562
ĠKen	24557
{.	24556
Ġsuspect	24550
Ġrobust	24540
sie	24518
Ġtrained	24514
Top	24507
ĠSimilarly	24507
ĠVA	24503
Ġ<=	24487
Ġinfrastructure	24485
bling	24480
Ġaf	24480
eric	24474
ĠFire	24468
ĠNP	24462
Ġmil	24454
Ġ\|	24454
ĠYo	24452
Val	24450
158	24443
Script	24442
+^	24439
Ġmetabolic	24438
Ġstrange	24433
pat	24419
nuc	24419
Ġbits	24417
Ġvaluable	24413
Function	24406
bigg	24398
Ġafternoon	24398
ĠUser	24390
_{(	24388
Ġprofit	24385
ivers	24378
tx	24377
device	24376
Â²	24372
Ġbrings	24372
pf	24362
}_\	24361
Ġcomputed	24351
Ġwearing	24349
Ġconservative	24346
Ġfolder	24340
anda	24339
Ġmoments	24339
Ġbridge	24338
unit	24336
Ġbind	24335
Ġtech	24333
Ġec	24333
ĠArmy	24328
Ġfaces	24324
Ġprotest	24318
Ġinstances	24318
ĠAction	24309
ĠIsraeli	24304
ĠNext	24302
Ġcalculations	24273
ĠBoston	24273
Ġtape	24272
Ġarchitecture	24267
Ġsharp	24264
Ġreserved	24258
Ġdifferentiation	24257
====	24256
vic	24255
Ġdiagram	24248
Ġtechnologies	24246
Ġactivated	24242
empty	24225
Ġvalidate	24223
ball	24222
1999	24222
Ġapartment	24218
Ġbroadcast	24215
FD	24213
Ġglu	24212
Ġrely	24199
white	24196
mean	24194
}-\	24177
Ġdecay	24160
ĠPal	24158
ĠLast	24157
lish	24156
Column	24156
bus	24150
Ġbear	24142
ĠImp	24142
click	24135
Ġsec	24132
Ġchicken	24131
including	24120
Connection	24120
tte	24114
ĠChristmas	24111
Impl	24105
Ġreplica	24105
osi	24104
ific	24091
Ġcardiac	24089
During	24087
Auto	24077
Tex	24076
ĠTrue	24061
Ġ1992	24060
Ġallegations	24059
Ġalter	24047
gun	24036
Ġ::	24035
Ġgel	24034
what	24030
Ġresist	24025
hop	24024
Ġintroduction	24020
Ġcache	24017
RL	24015
Ġclassified	24009
Ġcoll	24007
ĠCorporation	23997
Ġseriously	23991
Ġordinary	23986
fire	23985
ĠAnalysis	23982
elf	23981
~*	23975
DIR	23974
Ġrevenue	23967
Ġdistributions	23958
Sup	23943
Ġpolymer	23941
Header	23939
uating	23935
Ġgalaxies	23933
uild	23928
Ġaged	23928
Ġhistorical	23926
Ġvary	23925
Ġchecked	23924
curr	23922
Ġanywhere	23922
integ	23909
install	23893
Ġdiscover	23891
Ġsteel	23889
Ġ128	23888
total	23883
Ġultra	23881
Ġsemiconductor	23872
.^[@	23861
replace	23860
Ġpresents	23848
Ġalert	23839
Sch	23837
Ġcolour	23835
ĠDespite	23830
Ġgiant	23829
abi	23826
Ġtheoretical	23825
Ġinstrument	23824
ĠEdit	23818
blue	23811
Ġstrict	23811
IST	23803
Dir	23803
uana	23802
Ġperfectly	23801
ĠOfficer	23797
ĠBased	23782
Ġinvolve	23780
Ġio	23777
Ġcrew	23766
ider	23760
ĠClub	23760
PCR	23756
Ġdiagnosed	23755
ĠYu	23753
Ġmatches	23747
Ġimpair	23744
Ġstaining	23743
Ġmom	23741
Ġillness	23740
quil	23737
Ġprediction	23716
then	23712
Ġlaunched	23705
Ġconform	23700
Ġbytes	23678
ĠBou	23678
Ġincubated	23677
Ġchest	23674
Ġkidney	23659
eV	23648
rice	23645
Ġmetabolism	23645
NR	23641
Ġcarefully	23639
front	23628
ĠLocal	23626
Ġeducational	23620
Ġafford	23612
Ġ"/	23601
tg	23598
ĠMel	23597
Ġyesterday	23588
Ġstatutory	23586
Ġurban	23583
Ġdataset	23577
ĠFrank	23577
save	23570
kle	23569
address	23566
tv	23551
ĠSpecial	23544
Ġinsulin	23541
Ġcommit	23535
ined	23525
ĠRight	23516
)),	23513
Ġbreaking	23513
war	23510
Ind	23510
030	23502
Ġwest	23500
ĠAngeles	23496
Ġ\;	23479
ĠMass	23477
Ġride	23476
ĠYOU	23476
bly	23475
Ġhardware	23474
159	23467
Ġprompt	23465
Ġthousand	23462
)_{	23457
ĠWT	23456
background	23449
Ġmonitor	23448
ĠDetermine	23445
ror	23440
ĠAdv	23417
Cu	23411
ĠRS	23398
CV	23395
Ġdrinking	23395
Ġdomains	23394
onal	23392
gem	23392
Ġka	23387
Introduction	23381
Ġdance	23380
Ġsufficiently	23375
Ġreferences	23366
Ġquantitative	23363
Ġcontends	23360
Ġmild	23357
team	23350
Ġloaded	23345
making	23339
gov	23334
ĠFROM	23320
Ġimposed	23313
Ġtoken	23305
eep	23290
Ġsomewhere	23283
Ġcomparable	23283
Ġdisclosed	23279
bn	23278
mr	23277
Ġgeneric	23269
Ġjump	23246
ugg	23241
Ġmess	23239
ĠJud	23237
sus	23235
echo	23234
Ġcontrolling	23233
Ġunsigned	23221
),\	23218
Ġeast	23209
appli	23208
,{\	23207
Ġcrowd	23201
Tag	23195
ĠWomen	23194
full	23187
Ġbelieves	23187
ished	23185
ika	23182
Ġreveal	23181
tial	23176
Ġtables	23173
Ġabstract	23173
.]	23172
Ġdiscrimination	23172
send	23171
Ġiter	23161
Ġyields	23148
Ġsampling	23126
ĠImage	23126
Ġmill	23119
Did	23116
apa	23115
Ġbehalf	23108
Ġconstraints	23106
Ġperipheral	23103
Current	23102
params	23101
ĠSpace	23100
mul	23092
vas	23090
^)	23086
ians	23082
Ġadmission	23082
bes	23080
Ġ&=	23070
Ġbread	23064
draw	23060
255	23052
ĠBritain	23052
Ġserves	23043
nie	23042
'),	23040
osa	23038
should	23033
ĠHTML	23029
tid	23024
Ġholiday	23020
Ġhonest	23008
Section	23000
Ġpossess	23000
rating	22993
Ġperi	22985
Ġhorizontal	22972
bas	22971
Ġhandling	22965
Provider	22958
'\	22958
ĠFar	22953
050	22949
Ġpointer	22944
ĠForce	22943
Ġchallenging	22941
Ptr	22940
Ġexplicitly	22927
ĠGla	22924
lone	22921
textbf	22918
Application	22916
zing	22910
ACT	22903
Ġ}\	22902
Ġgrew	22900
Ġalive	22900
Main	22890
Url	22889
?'	22887
Ġcited	22879
Ġneural	22874
framework	22870
ĠMatt	22870
Ġsimultaneously	22865
Ġcla	22854
Ġ198	22854
Ġscan	22852
Ġ],	22851
ĠFox	22844
Ġtiming	22843
Ġabundance	22841
Ġ125	22828
Ġalgebra	22820
\|_{	22819
ĠShow	22811
Ġproven	22796
ĠYoung	22795
access	22793
Ġkit	22787
round	22786
Ġlunch	22768
Ġquiet	22767
Ġwheel	22766
ĠBefore	22758
Ġproud	22757
Ġvariations	22756
Ġcompute	22755
Ġhealthcare	22751
yes	22750
ots	22743
ĠAsia	22741
Ġfiling	22740
ĠCap	22739
Ġloading	22734
119	22724
ĠUV	22717
utation	22710
API	22710
Ġ112	22710
Ġresponded	22698
Ġdress	22696
Ġamplitude	22678
Ġcovering	22677
ĠBusiness	22668
years	22665
Ġimproving	22663
>\	22661
rine	22660
xt	22656
Ġserial	22653
zero	22651
itz	22651
Ġcopies	22650
Ġcouncil	22649
ĠTechnology	22649
glyc	22641
Ġ140	22640
Ġfed	22637
erent	22636
Ġingredients	22633
Ġfewer	22631
Order	22626
rse	22617
about	22615
)}(	22601
ĠJr	22599
tk	22594
BD	22594
Ġadministrative	22594
ulo	22590
Ġpenalty	22588
ĠSupport	22588
ĠArm	22580
cam	22579
Ġnorm	22577
310	22572
GN	22571
'_	22562
Ġrose	22561
Ġapproximation	22557
í	22553
Ġexplicit	22546
wd	22543
Ġchair	22542
Ġassign	22540
ĠVol	22540
Ġprovider	22538
hash	22535
Ġmatching	22533
Ġsending	22526
Ġelevated	22525
Ġhomo	22524
ĠPoint	22524
Ġpump	22517
files	22514
craft	22512
Ġmovies	22512
ĠPres	22509
Ġasc	22507
instance	22500
Ġdrivers	22500
world	22496
Ġcodes	22495
Ġnamely	22490
Ġfailing	22475
ĠOK	22467
Ġnearby	22463
ĠWin	22452
Ġomitted	22443
Î¼g	22439
Ġdifficulty	22427
ĠValley	22427
\.	22423
Ġmarker	22420
Ġ**(	22418
Non	22414
Ġblow	22414
ĠMaster	22394
Ġsignature	22391
Ġrejected	22388
ĠSQL	22384
Once	22382
Rule	22380
Ġ),	22376
ĠDavis	22370
Ġsubmit	22368
Ġcommitment	22364
)_	22363
[**	22359
ĠMB	22359
ĠCivil	22352
Ġprecisely	22351
Ġfrequent	22351
ĠIllinois	22343
ĠChapter	22330
ĠLove	22329
ĠChem	22318
Ġinequality	22317
patch	22307
_{-	22297
ĠDB	22294
Ġsky	22290
vey	22288
ĠDate	22288
Ġovercome	22286
Ġdivisor	22284
Ġanalog	22279
found	22277
Ġinvestors	22276
Ġmachines	22260
gua	22257
ographic	22255
ĠBest	22249
Ġscientists	22242
Ġnotion	22242
Ġatoms	22241
ĠRoyal	22240
game	22239
ups	22235
Ġabsorption	22235
chan	22234
Ġclause	22234
PG	22228
Ġbuying	22228
Ht	22226
Ġsmile	22225
Ġbusy	22223
ĠBase	22221
Ġfemales	22216
Ġcompetitive	22201
bind	22193
Ġpseudo	22191
Ġnaturally	22190
Port	22189
Ġdoctors	22177
Ġdiverse	22174
lary	22173
113	22173
ĠTG	22169
genesis	22167
wik	22164
Ġpropag	22161
Ġopp	22161
Es	22158
ĠItaly	22158
ĠToday	22156
Under	22155
ĠAli	22146
Additional	22145
ĠMichigan	22145
Mac	22136
SB	22128
Ġcareful	22124
Ġverify	22092
Ġparticipation	22091
Ġcuts	22089
Ġtensor	22081
Ġmeasuring	22079
Ġelections	22077
Ġscored	22072
mission	22069
Ġcheese	22057
Offset	22056
Ġrestricted	22055
ĠHave	22034
Ġdisrupt	22030
ĠYear	22030
170	22028
Ġsurprised	22023
Ġcoordinates	22021
wrap	22007
ĠEnergy	22003
Ġadjusted	21993
stop	21991
Ġprivacy	21985
Ġram	21980
Gl	21978
dos	21975
Ġtelephone	21970
actin	21967
ands	21965
Ġscheduled	21964
Ġreduces	21964
Ġcable	21962
Ġyards	21959
ively	21958
Ġembed	21958
pod	21939
fix	21936
icity	21935
Ġcomposed	21925
Ġfeelings	21923
Ġindependently	21920
'>	21917
Ġ++	21912
ĠRoman	21903
Only	21902
Ġpit	21898
Position	21896
spring	21889
Ġadds	21888
ĠResults	21880
Ġcheap	21879
Î¼m	21876
Ġdominant	21874
ĠBY	21862
Ġenabled	21858
Ġhide	21857
Ġmistake	21856
Ġarmy	21856
Ġanymore	21847
Â¿	21841
Ġsuspend	21840
Ġpresidential	21839
Ġcontinuing	21839
ĠChris	21831
made	21824
Ġskill	21823
ĠFort	21816
rive	21814
GB	21812
Ġsight	21809
Ġalignment	21805
Ġinstallation	21803
Ġsilver	21800
ĠSyria	21799
Ġsettlement	21795
191	21790
Cache	21786
Ġlipid	21781
ony	21779
FB	21779
Ġ123	21760
ĠTor	21755
fb	21752
Ġear	21745
Using	21737
Ġcrimes	21733
Ġlists	21730
email	21724
Ġprogramming	21724
Debug	21721
Ġboat	21718
Ġtalked	21714
defined	21708
ĠCross	21706
Ġexecute	21705
Ġcommunications	21701
ĠHy	21696
Ġaircraft	21690
export	21689
Ġmanifest	21685
Ġbroke	21669
debug	21667
Ġgenerating	21664
ĠEt	21663
ĠHD	21661
Ġdish	21647
tension	21640
Ġopinions	21639
erh	21634
Look	21620
AST	21617
abl	21614
Â®	21604
Ġexecuted	21597
Ġfort	21596
nament	21590
ĠSN	21585
Height	21583
Ġ\"	21583
Ġwealth	21580
Ġlegs	21572
ĠFore	21566
nr	21559
Ġdanger	21559
Ġshoulder	21558
Title	21555
Ġlocally	21554
Ġwaves	21553
Ġvectors	21553
Ġdad	21553
Ġmat	21549
Hom	21548
tile	21546
Entry	21540
Ġafraid	21537
ype	21534
family	21526
handle	21525
ĠAsian	21519
122	21512
Ġoccurrence	21512
ĠSon	21512
Ġpartition	21498
Ġextraction	21495
Pres	21492
Ġrefers	21489
Ġpriority	21487
Ġcrazy	21487
ĠItalian	21484
Ġwhenever	21483
lian	21479
Ġsuddenly	21474
Template	21467
NL	21467
Ġhouses	21460
ĠMax	21460
sens	21454
ĠGeorgia	21448
ĠGlobal	21446
080	21444
=>	21431
rity	21430
Ġaimed	21426
ites	21416
ulator	21414
Ġargs	21414
Entity	21413
Ã¢	21407
Ġjail	21399
Ġinhibitors	21395
Ġtaught	21385
Ġacquisition	21381
PB	21380
ages	21375
Okay	21375
Ġforum	21363
ĠManagement	21354
+)	21352
ette	21351
Ġstreets	21349
ĠTake	21346
ERROR	21345
Each	21344
loose	21339
Ġcultures	21335
BM	21334
task	21332
Ġexpenses	21330
Level	21315
ĠMiss	21313
Ġbreach	21312
','	21311
ĠSource	21311
sci	21308
}}=	21304
,[	21297
UND	21296
Ġvital	21291
Ġpassage	21290
Ġtexture	21289
Ġ600	21289
Ġhook	21283
thread	21282
Ġproduces	21279
Ġbuck	21278
ĠProposition	21276
rw	21275
137	21273
Ġlease	21270
Ġconsecutive	21267
Ġupdates	21265
ĠOld	21259
0005	21258
Ġ\-	21254
rotein	21247
ĠStud	21245
ĠPolicy	21240
ĠPhoto	21239
Ġwestern	21228
Ġwatched	21228
Ġmel	21226
dul	21208
Ġsymmetric	21202
Ġplurality	21195
Ġpipe	21194
global	21189
Ġnerve	21184
ĠRights	21183
ĠCook	21180
():	21178
Num	21176
ĠBell	21175
ground	21171
Ġappreciate	21166
Ġreasonably	21161
zed	21155
shot	21155
addr	21155
Ġfrequencies	21152
docs	21146
Ġvalve	21146
Ġsoul	21143
ĠBP	21139
041	21138
Ġtrading	21138
Ġproviders	21133
Ġgraduate	21122
Ġ>>	21122
Ġawareness	21106
Ġpsychological	21105
Ġsed	21104
Ġinvalid	21103
Ġprocessed	21100
ĠRob	21089
Parameter	21078
tir	21077
Ġlosses	21069
Ġleaf	21046
INF	21045
tb	21041
Does	21037
ela	21036
Ġpersonnel	21032
ĠINT	21031
pace	21026
Ġwitnesses	21023
cribe	21020
Ġplates	21020
green	21019
Ġimprovements	21018
Ġvertex	21015
___	21014
Ġsole	21014
ibly	21010
VAL	21009
Ġdestroy	21009
Ġcrash	21005
Ġsauce	20990
Ġnamespace	20988
ees	20987
cript	20982
Total	20980
stat	20974
May	20974
Ġstruggle	20959
ĠDescription	20958
Ġvascular	20957
Ġweren	20955
Ġtank	20945
Option	20942
Ġlift	20942
Ġattributes	20942
ĠGM	20942
Ġtalks	20940
ption	20936
Ġvideos	20936
Ġmarks	20935
Ġfluorescence	20934
Ġexplains	20929
Ġsponsor	20924
rome	20919
Ġaffirm	20912
erb	20905
Ġantigen	20902
Activity	20900
Ġsimpl	20900
Ġtemporal	20897
ĠMiller	20897
ĠWilson	20884
Ġtall	20883
ĠApplication	20878
ĠEN	20871
Ġcampus	20869
\_[	20864
screen	20863
Ġgoverning	20860
Ġpatch	20858
Ġreturning	20852
Ġ($\	20851
Ġadopt	20845
Ġphospho	20838
Ġmanufacturer	20832
Ġinvariant	20827
Ġ(%)	20801
Ġrespiratory	20797
Ġinterior	20790
\>	20788
Theta	20787
burg	20783
Ġroughly	20783
igo	20782
Ġunlikely	20779
tray	20767
Ġawait	20763
ĠĠĠĠĠĠĠĠĠĠĠĠĊ	20760
Ġabortion	20755
unsigned	20753
DG	20752
Ġcreative	20752
Ġinteract	20749
Ġsem	20748
none	20745
Ġski	20737
Ġpermitted	20737
Ġnervous	20729
Ġbull	20727
Ġinsist	20721
ĠCentre	20718
usa	20715
Ġchecks	20715
itate	20714
Ġrecipe	20714
Ġcooking	20713
ĠLine	20712
Module	20708
Wil	20707
-$	20705
Ġcert	20705
Ġuncertainty	20698
Ġfoundation	20697
uy	20690
trauma	20687
Ġelsewhere	20682
rows	20679
Rs	20678
Document	20674
Ġcommunicate	20669
Ġeliminate	20668
Ġphotograph	20665
tex	20663
Put	20653
usual	20642
Ġmodules	20642
orrow	20641
rable	20632
iner	20628
Ġrestriction	20627
Ġparking	20627
124	20619
Long	20618
Ġapprox	20615
Ġsystematic	20606
Ġbounded	20604
ĠRepublic	20599
uer	20597
Ġhon	20595
Ġcleaning	20592
Ġgeometry	20585
}.$$	20584
Ġconsisting	20583
Free	20578
Ġsodium	20575
ĠET	20568
Ġcycles	20560
aha	20558
Ġlayout	20556
Ġdig	20551
doi	20550
Ġkeeps	20548
Ġ1970	20548
ĠMicro	20541
ĠMuslim	20540
Ġms	20539
ĠPut	20538
Ġinvasion	20535
town	20533
Ġutility	20528
Ġwet	20527
pers	20523
Ġseasons	20513
Ġcontracts	20513
248	20512
ques	20511
Ġevident	20508
opera	20507
Ġpeptide	20506
sky	20505
Ġviolent	20503
Ġdisability	20502
'(	20500
cv	20498
Î³	20496
Ġpig	20495
Ġalgorithms	20495
Container	20493
Ãł	20491
Ġtub	20488
quot	20481
Ġpaths	20480
Ġconclusions	20478
ison	20477
Ġaffects	20477
Ã©s	20476
aud	20475
ĠCard	20467
MF	20464
Ġbike	20461
Ġindirect	20459
atu	20449
Ġko	20447
afe	20444
Ġconcrete	20444
Ġoffensive	20441
Ġwake	20428
hw	20424
Ġtheories	20420
AGE	20413
Ġreject	20413
Ġmedication	20411
container	20402
Ġconsiderable	20396
pec	20395
Ġlab	20390
multi	20388
Ts	20388
ĠLett	20381
Ġresonance	20380
Ġreaders	20378
Ġaccumulation	20374
ĠBon	20374
126	20373
1998	20362
Ġdispute	20354
MAT	20351
Ġonset	20350
Ġconverted	20348
ĠAuto	20347
Ġhybrid	20346
JS	20345
ĠFood	20343
Store	20337
Ġavailability	20335
Types	20329
ĠServer	20328
Ġsong	20320
Ġdoctrine	20319
ially	20305
Ġhorse	20304
Ġstrings	20297
Ġrural	20295
ĠDer	20290
Ġmaintaining	20283
Ġprevention	20280
ĠJersey	20277
Ġger	20270
!)	20267
Ġpushed	20265
Ġresolved	20259
Ġ187	20256
Ġpersonally	20252
ĠProp	20249
Ġcraft	20241
*(-	20239
Ġpilot	20239
Ġcoli	20238
Mc	20236
ĠSouthern	20234
Ġaggressive	20231
ĠWood	20227
ÂĹ	20225
Ġ((-	20217
Ġkm	20211
ĠEvent	20202
phase	20196
Ġadvantages	20195
Ġconvicted	20194
Ġ$[	20193
ĠCommunity	20183
Ġsmell	20181
inum	20172
Ġguarantee	20170
ĠHel	20170
Ġswim	20167
NF	20166
Ã¨	20162
Ġphenomenon	20162
Ġfired	20162
tech	20160
Ġmirror	20154
Ġconvenient	20154
Ġinterference	20153
ĠÐ²	20151
ĠDesign	20147
Ġdysfunction	20145
fall	20135
Ġdiscussions	20134
Ġsurvive	20129
Ġsequencing	20128
Ġlifetime	20128
Ġquasi	20126
Ġownership	20126
Ġentries	20125
Ġending	20123
Ġpaint	20121
Ġ=\	20111
}}$.	20110
pher	20102
ĠLow	20102
dition	20097
Rect	20092
power	20091
\-	20089
domain	20081
Ġvacuum	20076
Load	20074
Ġregularly	20061
week	20059
Ġexclusive	20058
gers	20051
anth	20049
audit	20048
Ġcompeting	20041
aya	20038
verb	20032
connect	20032
alen	20030
Ġeggs	20024
Ġoperated	20018
tbl	20001
Ġum	19993
Ġcomprising	19987
ĠGene	19973
Ġflavor	19970
;">	19969
Ġguns	19969
GF	19968
Ġcenters	19968
bot	19967
Ġbath	19965
Ġthinks	19962
ĠFunc	19947
Ġrip	19933
Ġ113	19932
Ġliberal	19931
ĠArab	19931
enses	19929
Ġentering	19929
Ġfusion	19927
ĠCount	19911
fish	19907
ĠRun	19905
Ġjudicial	19903
ĠWITHOUT	19903
wedge	19902
Cons	19902
ĠÂ¶	19898
WN	19891
Ġancient	19889
tus	19878
black	19863
Ġgovernments	19863
Ġnp	19860
Ġsustained	19859
Ġdegradation	19858
Ġfalling	19857
Ste	19856
ELL	19853
regulated	19850
ĠTan	19842
Ġinverse	19841
ĠDid	19841
Ġease	19840
Ġsuite	19836
Ġmag	19834
Ġcaptured	19834
Ġtomorrow	19829
Ġsatisfies	19824
Ġ188	19818
======	19809
Ġbatch	19803
ĠSpanish	19799
ĠConference	19798
ĠHenry	19796
Ġknee	19791
Ġdemands	19791
Ġworker	19787
super	19786
Ġcolleagues	19777
Ġvice	19766
pac	19765
Ġremoving	19764
Ġstorm	19759
Ġrecommendations	19755
Ġexpanded	19755
135	19754
NM	19753
Ġdismissed	19751
ifying	19747
Ġcoding	19743
ĠWork	19740
Ġadmit	19736
ĠAsh	19725
Ġcos	19724
window	19720
\*\*	19720
Ġcoast	19720
Ġfalls	19715
PY	19713
Ġbottle	19711
Ġqualified	19710
SIZE	19707
Product	19700
ĠÂ°	19697
Ġincorporated	19695
Fu	19690
Ġ121	19686
DNA	19664
ĠAU	19658
Ġworldwide	19654
Show	19650
Ġarise	19645
Ġprospective	19641
SELECT	19640
vision	19639
Ġ1989	19638
Ġmasses	19632
Ġprejudice	19630
ĠFrancisco	19629
Ġstations	19613
$^{	19608
Ġpackages	19601
Ġadministered	19600
ĠApache	19597
129	19594
Ġfaced	19592
oct	19590
Ġcontest	19586
Ġassays	19583
220	19575
Ġexcessive	19570
fields	19564
ĠHor	19560
ĠThough	19559
OCK	19553
Ġdip	19545
Ġscales	19544
Ġresidence	19543
yme	19542
205	19530
Ġrape	19528
Ġseparately	19526
Ġfolks	19526
Ġdoors	19526
Ġgut	19522
comment	19516
ĠTrust	19516
ĠPakistan	19516
ĠLev	19516
ĠLatin	19515
erl	19513
Mean	19513
Ġedit	19499
Ġstuck	19498
Ġscalar	19498
Ġchart	19498
Ġdecreases	19497
Ġpie	19489
ĠFol	19488
Ġexploit	19484
ĠWord	19479
insert	19478
Ġmortgage	19477
Ġphysics	19471
ĠNH	19469
cale	19466
Ġpose	19464
NB	19463
resolve	19462
Ġprominent	19459
ched	19458
*]{},	19458
Ġintervals	19457
$_{	19456
Ġmounted	19453
Ġvotes	19452
mote	19449
West	19444
ĠSir	19440
Ġfriendly	19435
175	19429
Ġsmoke	19429
mia	19426
ê	19423
seq	19413
Ġprotective	19413
associated	19409
ways	19407
queue	19407
Ġtoxic	19407
Ġtargeting	19407
Ġ1988	19405
ĠEP	19404
Ġdestination	19400
ĠSher	19396
Ġegg	19391
ĠMajor	19379
ĠTas	19378
Ġbeach	19376
second	19375
effective	19364
Ġaddresses	19364
bh	19361
ĠCN	19357
$]{}	19356
enden	19346
Ġvalidation	19341
subseteq	19335
MAX	19335
pool	19324
lease	19317
border	19316
Ġbearing	19315
ĠSand	19315
ĠALL	19311
Ġpromoter	19309
erin	19306
ĠDaniel	19304
binding	19294
Off	19294
Ġvariants	19292
Ġbands	19287
ĠPatent	19287
Ġabsorb	19286
INC	19281
ember	19274
`,	19272
Ġappointed	19265
ĠFarm	19265
ĠPlay	19264
Ġhet	19259
Ġparagraph	19258
.(	19253
Ġflexible	19252
Ġconstitute	19248
Ġ+/	19248
Ġheavily	19247
anno	19246
Interface	19241
det	19239
setminus	19238
Ġpasses	19238
Ġappeals	19238
Ġ186	19237
Ġsubstit	19236
ĠSL	19227
security	19225
ĠDefendants	19215
Ġreflected	19213
Ġlikelihood	19213
Ġexpressions	19212
vern	19209
ĠTaylor	19209
Ġexpectations	19207
Ġjuice	19204
ĠLau	19193
Ġinsufficient	19191
Ġinfinite	19191
Ġdrawing	19188
BT	19187
Ġseverity	19181
&=&	19173
Ġspokes	19168
Ġpace	19166
ĠUP	19165
Ġratios	19144
rist	19143
Ġsuspension	19138
Ġ"<	19138
Ġmovements	19135
Ġsoldiers	19134
Ġyeah	19128
Ġsolely	19127
Â»Â	19123
Ġsimilarly	19123
Ġseeds	19123
Red	19118
Ġvaccine	19117
211	19114
Ġpromotion	19114
ĠTour	19111
Ġtap	19110
Ġgod	19110
Ġconstantly	19107
Ġadvertising	19106
ĠWas	19100
Ġsees	19096
}}_{\	19092
ĠSat	19091
Ġrelating	19090
Ġhospitals	19086
Ġenzymes	19079
Ġax	19078
ĠIslam	19078
ĠPath	19076
Ġbeauty	19065
DIT	19057
ike	19056
ĠBeach	19051
Ġanswered	19049
}}$,	19042
disc	19035
Ġawarded	19034
Ġrestrictions	19033
Session	19031
Ġfabric	19031
uses	19029
Ġengineering	19029
Ġforest	19012
Ġsubjected	19008
Ġfeeding	19008
Ġcovers	19005
Ġmeetings	19000
ĠNorthern	18987
*~*	18986
Ġcomprises	18982
Ġmanual	18979
Ġvarying	18976
gio	18974
Ġdense	18974
channel	18973
ĠAcademy	18973
ĠCarl	18972
Ġassistant	18971
Ġdisclosure	18970
ĠAndroid	18968
ĠEA	18966
rise	18958
Ġsupplied	18957
help	18954
Access	18954
ĠRF	18952
ĠPatients	18951
))$	18950
Ġresidual	18949
session	18948
Ġbeneficial	18947
Ġhoping	18943
Ġprosecution	18936
edly	18930
Ġslight	18928
ĠJoseph	18925
ĠMedicine	18921
**.	18918
Ġflags	18915
ĠHead	18913
points	18906
)/((-	18906
ĠTax	18895
Ġnations	18893
Ġenjoyed	18891
Ġaccessible	18886
KS	18885
Ġexempt	18885
eer	18884
Ġimplications	18880
Cre	18875
Ġlights	18872
Vector	18870
IGN	18868
ives	18866
Ġimmunity	18864
Ġphysician	18863
used	18856
ESS	18856
ĠAndrew	18854
Ġcombat	18851
ĠPennsylvania	18848
Ġskip	18838
uous	18836
fast	18833
Ġclothes	18830
}}(\	18815
lau	18814
Ġexceed	18814
).$$	18812
ĠIslamic	18809
Ġprivilege	18805
Ġlogical	18802
Ġages	18802
rous	18792
wid	18790
Ġmaximal	18789
rip	18787
enter	18780
human	18774
Ġbedroom	18764
Ġsuicide	18760
ĠFBI	18759
hot	18757
amine	18757
Ġsilicon	18751
Ġcalm	18751
Ġlaid	18750
Ã§	18742
Ġsync	18735
lly	18732
ĠTotal	18728
ĠMM	18728
Ġesc	18722
Ġcatal	18721
Ġbonds	18717
nin	18705
Ġcalcium	18702
hh	18694
Ġheating	18687
ĠHB	18683
Ġstell	18677
ĠRyan	18658
AH	18655
colon	18650
Ġvitamin	18649
Ġdefines	18648
underline	18643
ĠEu	18643
Ġdest	18638
Ġartery	18635
uba	18623
Ġcorporation	18611
Ġbas	18609
ĠPlaintiffs	18609
]{}]{}	18608
349	18606
Ġranging	18602
rude	18601
Ġdestroyed	18599
Ġ202	18598
Ġspecify	18587
Ġautomatic	18580
Ġimmigration	18579
short	18578
plus	18578
Ġdefensive	18578
ĠLinux	18576
Tran	18572
east	18569
component	18567
ĠAdministration	18567
240	18557
)'	18552
Ġpipeline	18552
Record	18549
Ġdesirable	18548
Ġabsent	18544
Ġdevelopers	18541
ĠNR	18534
Ġassignment	18530
153	18529
Ġink	18528
Ġcollective	18524
Valid	18521
ĠSteve	18513
Ġeligible	18510
Ġgrass	18498
WH	18489
280	18486
Ġarmed	18486
Ġerred	18484
ĠDue	18484
Ġaltered	18480
Ġacceptable	18478
ĠVar	18478
dagger	18477
Ġluck	18473
Three	18471
Ġeffectiveness	18470
citation	18463
ĠSanta	18463
.),	18462
Second	18461
Ġmsg	18460
Ġ****	18460
[(	18455
ĠLtd	18451
transform	18450
cond	18450
Ġlateral	18449
Settings	18444
ĠPass	18443
ading	18440
ĠNevertheless	18440
Ġstruck	18438
ĠFollowing	18435
Ġunclear	18431
Ġedition	18431
fine	18430
Ġconsistently	18430
OOL	18428
Ġsport	18422
Ġpreliminary	18420
Ġattractive	18418
Ġbuf	18413
sue	18408
Ġsessions	18408
Ġguidance	18402
Ġwound	18397
Bio	18393
Ġmatrices	18389
ĠTHIS	18387
Ġvoting	18383
ching	18382
Ġstabil	18377
Ġprecision	18365
enum	18360
vag	18358
Ġassociate	18358
leo	18357
cells	18357
Ġloud	18356
Ġhadn	18354
Ġintention	18352
Ġâī¥	18351
Ġfacilitate	18351
=$	18349
Ġvisited	18349
qual	18348
Ġperceived	18336
ound	18334
Ġmolecule	18324
Ġeverybody	18324
ĠPython	18324
031	18322
Ġtracking	18321
Ġnormalized	18321
Ġarrangement	18314
Ġoverlap	18312
twin	18304
Ġregistration	18300
Ġnecess	18295
fact	18289
Ġgly	18284
ĠBob	18284
Ġmetall	18282
Ġchil	18282
145	18279
ĠIndex	18277
Ġexhaust	18273
Ġslope	18272
ĠJim	18260
shape	18257
Ġsystemic	18253
Ġshopping	18247
ĠColorado	18247
Ġintense	18243
amo	18240
perp	18235
Ġsteady	18235
Ġmountain	18234
Ġidentifying	18233
Mic	18232
Ġadapt	18227
ĠTown	18227
Ġbirds	18225
Ġrarely	18221
Ġruled	18217
Ġmerc	18217
Ġrandomly	18216
deg	18215
Ġangular	18212
Ġattended	18207
rage	18203
Ġrs	18203
Ġshorter	18200
Ġpromising	18196
ĠIreland	18196
Ġeu	18193
Have	18187
Ġanchor	18186
Ġchildhood	18184
Ġtransportation	18180
Ġpoliticians	18177
ĠJews	18177
xb	18164
Ġultimate	18155
Ġangio	18155
Ġ119	18155
phone	18154
ONE	18154
Lin	18154
ĠUnfortunately	18153
Ġartificial	18152
ĠArizona	18145
support	18144
Ġpic	18142
Ġ122	18142
Ġintegrity	18134
ð	18133
tics	18131
ager	18126
Ġflour	18123
Ġchemotherapy	18122
PF	18117
gie	18111
Ġwashed	18111
opic	18109
news	18109
ĠAgreement	18109
Ġdeposition	18108
Ġpregnant	18103
Ġdeeply	18100
eut	18090
Ġ$${	18085
Ġjoy	18081
ĠOct	18081
Ġconcepts	18074
Ġblame	18071
ĠKit	18068
organ	18065
Ġforgot	18065
San	18059
DH	18058
Ġsentencing	18048
Ġdenial	18046
MIN	18032
_,	18031
Ġeverywhere	18028
profile	18015
Ġresidues	18013
Dialog	18007
tool	18006
Ġpeer	18005
ANT	18003
Ġdefect	18003
ĠUnit	17994
Ġmere	17988
Ġdefend	17987
136	17986
Ġmixing	17981
ĠGrant	17981
Ġ1983	17981
Ġcallback	17978
Ġamended	17975
Ġallegedly	17975
Ġphases	17969
*).	17964
move	17958
Ġprogressive	17955
ĠFamily	17955
ĠStudy	17950
race	17946
Unit	17940
entity	17938
ASE	17932
HM	17927
Ġleuk	17927
rene	17924
)</	17924
ĠIO	17921
Ġfunny	17919
language	17918
istry	17917
Ġfinance	17914
Ġclosure	17911
Hello	17902
Ġnewspaper	17900
Ġfold	17900
arse	17892
Ġamp	17891
Ġcomputing	17888
Ġxe	17885
ÎĶ	17882
1997	17881
ĠCancer	17872
carbon	17864
ament	17862
Ġabs	17860
uu	17858
cks	17855
pub	17848
Ġcollapse	17847
MOESM	17844
United	17841
Photo	17841
Day	17840
Ġmonthly	17837
ĠSk	17837
hspace	17832
Ġpacket	17832
ĠStil	17832
Ġutilized	17828
mM	17827
Ġ["	17827
Ġrepeatedly	17825
ĠPara	17823
Ġwrites	17815
Ġlegislative	17813
YS	17807
Ġcontin	17805
Ġlandscape	17800
ĠCPU	17798
ĠInclude	17793
\)	17792
ĠĠĠĠĠĠĊ	17785
Ġintellectual	17779
Ġaccompanied	17779
figure	17777
ĠSeries	17773
Ġenemy	17771
Ġoven	17770
Ġcurrency	17767
eqn	17766
ĠAbout	17766
Ġsilent	17764
Ġdisabled	17759
ĠStep	17759
Background	17757
Ġlying	17751
eon	17748
Ġarranged	17748
Ġlabels	17745
cultural	17744
Ġviolated	17738
Body	17736
Ġmitochondrial	17723
Ġreporter	17722
ĠJSON	17722
Convert	17720
Ġgovernor	17719
Ġpulmonary	17715
fore	17713
ĠNat	17713
ATT	17709
ĠAccess	17709
Ġchecking	17708
Ġdiscrete	17702
Ġvessel	17701
Ġml	17701
admin	17693
Ġbankruptcy	17693
Ġenvironments	17692
Ġabnormal	17692
VM	17686
Ġsurveillance	17682
wave	17681
elli	17680
inflammatory	17675
cancer	17674
Ġton	17673
outs	17668
Ġ(@	17664
ĠBitcoin	17660
0010	17659
connection	17651
ĠFair	17649
prote	17648
Ġreveals	17643
Ġbel	17643
ĠHistory	17635
Ġstudying	17632
Ġlanguages	17629
anis	17623
Ġremed	17623
flags	17622
Ġtopics	17622
ĠSpain	17611
Ġreadily	17609
Ġvoted	17608
cz	17605
Stat	17602
========	17602
Ġresin	17601
Ġpropose	17596
watch	17595
Ġperception	17589
Ġrecovered	17586
ĠStart	17586
Ġsupporters	17583
.*]{}	17582
Ġ\*	17580
Ġatom	17578
\[[@	17567
sz	17564
Ġmath	17564
Ġpanels	17559
ester	17558
Ġtunnel	17558
BER	17557
mium	17549
Ġ124	17549
Ġreversed	17539
ĠKingdom	17538
yy	17537
Ġderivatives	17534
Ġjson	17528
ĠEastern	17524
TON	17512
Ġdoses	17512
'-	17509
Ġcoating	17508
Ġflip	17507
Ġdefects	17505
Ġinterpreted	17503
Ġtroops	17498
Ġcorrelations	17494
Ġputs	17492
ĠEli	17481
Ġsouthern	17476
High	17475
Integer	17472
Ġtransactions	17470
ĠDist	17467
plot	17448
Ġliked	17445
Ġ185	17439
Multi	17432
Ġfibers	17429
Ġdisaster	17429
throw	17427
category	17426
Ġcholesterol	17422
ĠRegister	17422
ody	17418
ĠPhil	17417
ĠMethods	17409
hard	17405
Ġwedding	17405
Ġwireless	17400
random	17397
tools	17393
Ġairport	17392
Ġlifestyle	17388
ĠÂĹ	17387
Ġprinted	17386
Ġcombine	17385
Ġcriticism	17382
Ġduties	17379
Assert	17378
ĠMarket	17376
Ġ---	17375
fly	17369
pma	17364
review	17362
Reader	17362
Ġprosecutor	17359
Ġlabeled	17351
Ġcooling	17351
enable	17349
ĠDev	17346
Ġexciting	17344
Ġprinting	17342
Ġ1987	17342
ĠSW	17341
bie	17340
Ġactor	17337
ĠFull	17337
Ġphysiological	17333
Ġathlete	17328
Ġqueue	17326
Ġowe	17325
Ġdiffusion	17324
^{-\	17318
Ġrating	17317
Ġauthorized	17313
nou	17312
Ġexpressing	17310
ĠJun	17305
Ġinfluenced	17304
=============	17303
Ġwage	17301
Ġillustrated	17301
Ġknock	17297
Ġassociations	17294
Font	17291
Ġ|\	17291
Ġplug	17290
Ġnuclei	17288
ister	17287
ĠClark	17287
Ġdistinction	17284
Ġalum	17284
ĠPART	17284
ĠWARRANTIES	17283
ĠHard	17282
Ġcourses	17281
ĠFT	17281
grid	17279
MN	17268
rite	17261
ered	17259
Ġisolation	17251
because	17250
hai	17249
Ġintersection	17247
Ġgenomic	17243
Ġattitude	17232
1995	17229
(){	17229
Ġloans	17229
ĠChildren	17212
stone	17210
Ġconnecting	17207
Ġinspired	17205
Ġvalidity	17200
cute	17197
large	17194
)\,	17189
Ġcontention	17188
ames	17179
ĠSupp	17174
Ġgalaxy	17172
trix	17171
Ġmad	17155
^{*	17152
Ġhopes	17152
ĠImages	17150
Ġpending	17144
Ġsomebody	17143
Ġguest	17135
ĠKorean	17134
ÂĶ	17133
atch	17129
Ġgross	17126
plugin	17125
good	17122
Ġawesome	17120
ĠPacific	17117
tland	17116
Ġrib	17115
DK	17110
Ġcake	17110
Sal	17109
Ġcontacts	17109
too	17093
Ġperiodic	17091
ĉĠĠĠĠĠĠĠ	17091
Ġtolerance	17088
ided	17084
Ġdenotes	17083
Ġbrush	17081
Ġgentle	17080
Ġcoal	17080
ĠCommissioner	17076
sort	17073
season	17073
Ġdp	17073
ision	17072
Ġcardiovascular	17067
soft	17066
ĠSpring	17063
Ġslip	17060
Ġpreventing	17059
Ġphosphorylation	17059
DU	17058
Author	17046
ĠNT	17044
ĠThird	17040
IONS	17033
Handle	17033
ĠMean	17031
rank	17030
KEY	17029
Ġtransmitted	17028
ĠAlex	17028
Ġestimation	17024
ĠAgency	17023
ĠGames	17022
uar	17021
Ġliterally	17021
ĠZealand	17013
AX	17003
ĠWithout	16994
resource	16993
ĠAnderson	16993
Ġpounds	16991
ĠTitle	16990
Operation	16988
Ġembodiment	16988
Ġswitching	16986
Ġkick	16981
Ġmotivation	16978
âĢ²-	16971
350	16966
Ġgenuine	16957
ĠGT	16954
person	16951
azi	16951
Ġalarm	16946
Ġorbit	16941
âĢ¦.	16940
Ġpublicly	16938
Ġdestruction	16937
Ġovernight	16936
Ġtonight	16934
Ġgravity	16934
Ġbathroom	16933
kan	16921
rift	16918
Ġnose	16912
Ġ129	16912
Ġworried	16906
Ġregulated	16906
âĢĻ.	16905
Ġobesity	16902
Null	16898
inner	16889
Ġdifficulties	16885
Ġamendment	16882
Ġspell	16881
ĠĠĠĠĠĠĠĠĠĠĠĊ	16873
fail	16871
Ġtur	16870
Ġdict	16870
oplus	16868
Ġ135	16868
Ġspecificity	16864
Ġcrypto	16860
ĠStephen	16860
Ġdelayed	16859
pair	16858
stage	16857
Ġassumptions	16854
bull	16853
ĠFac	16850
+(	16849
Ġepisodes	16848
Ġboxes	16847
ebe	16844
Ġfactory	16844
Ġconvent	16843
register	16842
Ġunexpected	16841
Ġneglect	16839
Ġ&=&	16838
ician	16836
Ġsearching	16836
ĠHamiltonian	16834
ĠNL	16829
Ġpoverty	16827
Ġfounded	16827
Ġoli	16824
Ġlaugh	16821
aq	16817
`.	16817
Ġnucle	16814
Ġarb	16811
ACE	16799
'"	16799
Ġattributed	16797
also	16795
042	16792
ĠIowa	16782
Maybe	16780
Ġhardly	16775
Ġdisplays	16769
Ġretail	16768
Ġsynthetic	16762
Ġacknowledge	16762
ĠConsequently	16750
Ġfake	16748
ĠTre	16748
Norm	16747
NUL	16747
Ġtranscript	16746
Args	16743
Ġweird	16741
Ġgang	16740
Ġss	16738
Ġblocked	16733
Ġcompatible	16731
Ġjustify	16730
toString	16728
Ġhits	16728
Ġwing	16726
_+	16724
TX	16724
Et	16718
ĠAlt	16717
Ġshoes	16709
Ġpunishment	16704
HTML	16702
Ġrevolution	16702
ĠWITH	16701
Ġinterfer	16700
Ġsilence	16698
Ġindica	16698
Ġbeliefs	16695
ĠProfessor	16688
Ġ1985	16687
ĠSm	16683
angle	16672
Ġ255	16667
Ġclip	16659
Ġmature	16658
ART	16655
Ġpartnership	16651
ĠHim	16651
FM	16650
Ġboss	16648
Ġpleasure	16647
Ġvisits	16645
Ġenables	16638
otion	16637
Ġaffecting	16637
Ġpermissions	16636
Ġobtaining	16631
elt	16630
Ġ126	16630
Ġrescue	16627
Abstract	16625
ĠFord	16624
ORE	16623
ABLE	16623
Ġmeaningful	16621
Ġpotent	16620
Diff	16618
ĠEi	16618
activity	16617
Ġtrends	16611
Ġlys	16609
VP	16601
ĠMus	16586
Arg	16585
Ġdifferently	16583
dian	16578
Ġengagement	16577
ĠSaudi	16576
Ġhtml	16574
ually	16571
tip	16570
Collection	16568
area	16566
thing	16563
Ġdescribing	16559
Ġdeclaration	16559
Ġbehaviors	16559
Ġscare	16558
Ġyeast	16554
ĠPlace	16550
password	16549
Ġtradition	16549
dst	16548
ĠAV	16548
ĠCore	16546
Ġbreaks	16542
Ġfits	16541
modules	16540
Ġreflects	16539
Process	16534
\#	16532
Ġgenerator	16531
analysis	16525
Ġdemocracy	16522
Ġasks	16520
Ġinnovation	16516
Ġdeals	16510
azo	16505
ĠKur	16501
Ġweights	16500
Ġdesignated	16500
}})$	16497
Ġselective	16493
Ġfactual	16493
Ġunderwent	16492
Ġobstruct	16492
Ġrefuse	16490
ĠColumbia	16488
ĠCamp	16486
ĠMinistry	16485
Ġinterviews	16484
Ġagenda	16484
oline	16481
Ġkiss	16481
Ġintrinsic	16481
Values	16479
$^{-	16478
Today	16477
Ġinvestigations	16476
Param	16475
Ġcommands	16474
Ġpolynomial	16467
Ġpredictions	16464
ĠSpecifically	16456
Ġanger	16454
ĠSpec	16451
Items	16445
Ġ({	16443
Bel	16442
Ġorange	16437
ĠJordan	16435
Ġapps	16434
cases	16432
ĠYe	16432
ritic	16431
chl	16428
Ġannouncement	16428
âĦ¢	16425
Ġemphasis	16424
ĠAngel	16421
Ġfitness	16412
days	16410
Ġ".	16407
Del	16401
epa	16400
ĠĠĠĠĠĊ	16396
nda	16393
ĠJon	16392
sun	16389
Ġpassion	16388
Full	16382
Ġtweet	16382
Ġequality	16382
ĠRather	16377
Ġlistening	16373
Ġ170	16371
ĠNick	16370
calc	16367
ĠNatural	16367
Ġsegments	16364
gather	16363
Ġyo	16363
ĠAward	16363
Ġweekly	16358
Ġspray	16352
Ġradial	16350
phys	16345
"",	16345
Ġprescription	16343
gli	16342
switch	16335
Ġfarmers	16335
222	16332
door	16330
_{{	16330
Ġpython	16327
Ġcomputational	16320
Ġvariant	16315
ores	16311
Ġconsciousness	16309
ĠDV	16309
Ġfocusing	16306
Ġconspiracy	16306
Ġboundaries	16296
ĠGaussian	16293
ĠTel	16289
onder	16288
ils	16287
Life	16286
party	16282
condition	16280
buntu	16274
ĠFS	16268
ĠSciences	16266
++;	16261
Ġtrivial	16260
}$)	16259
Ġ1984	16257
ĠMas	16255
zone	16254
Ġscaling	16250
Ġtrail	16245
Ġangry	16245
PLE	16237
Jun	16234
Ġaden	16233
Ġphrase	16228
Ġupgrade	16227
Ġcomputers	16227
Ġfranchise	16223
derived	16220
ĠMethod	16218
ĠFalse	16206
Ġadapted	16205
wort	16204
Hz	16201
Ġsep	16195
ĠBible	16193
Ġintracellular	16192
Ġregulate	16190
Ġphysicians	16189
Ġterrible	16188
Ġbomb	16188
Ġvaried	16186
ply	16185
Ġroads	16181
pes	16179
Ġexcuse	16178
mur	16174
Ġheading	16173
SQL	16169
Ġimpressive	16169
ured	16168
ĠInf	16165
Ġchocolate	16163
Ġhero	16161
Ġfatty	16159
Ġexclusion	16159
Ġaims	16153
Ġdeeper	16150
Ġdates	16150
Ġvertices	16146
uid	16143
ĠJS	16142
Despite	16137
Widget	16136
.:	16136
Ġindices	16134
Ġ"-	16133
omer	16126
Ġsettled	16123
Ġfunded	16116
cious	16114
court	16113
Ġ{@	16112
ĠDocument	16112
ĠDam	16112
Ġimpression	16110
ĠAdam	16110
"));	16108
Ġrestaurants	16104
Ġnegligence	16102
Ġpathogen	16100
Ġpeaks	16096
energy	16095
zip	16094
Ġracial	16091
reen	16085
Ġlimiting	16083
Ġfounder	16083
Ã©e	16077
Ġchains	16077
bid	16074
Ġmood	16074
ĠSpr	16073
awn	16072
ULT	16067
spin	16065
Ġquantities	16065
Ġepithelial	16064
ĠUs	16060
Doc	16058
Ġbelt	16058
Ġmagazine	16056
Ġfingers	16055
ĠRose	16051
ĠNode	16048
Ġsatisfying	16043
PLA	16042
Ġscoring	16041
Ġcatalyst	16037
tÃ©	16036
Ġchor	16036
Ġmatched	16034
Ġeth	16034
Ev	16033
ĠJul	16030
ĠSelect	16028
Ġconsensus	16027
ering	16025
Ġsucceed	16025
Ġfatal	16020
Identifier	16015
Ġproposition	16014
Ġbreakfast	16011
simeq	16007
Gene	16007
024	16006
ols	16001
ĠSky	16001
.).	16000
Ġgrip	15997
Ġchoosing	15997
Ġnov	15996
ĠColor	15993
Ġdollar	15986
Ġvulnerable	15985
()->	15980
Ġlawsuit	15977
ĠLas	15975
Ġmanually	15972
Ġconfident	15970
Ġdeserve	15968
ĠDH	15968
Ġdamaged	15965
eck	15963
Ġwondering	15963
Ġae	15962
ĠFactor	15960
Ġpreferably	15958
ĠTry	15958
ĠEnter	15958
bibr	15957
Params	15954
Pan	15949
Ġlikes	15946
operative	15943
152	15941
Ġassemble	15941
Ġstrictly	15937
Ġrepresentations	15934
utor	15932
Ġtied	15932
Ġreply	15932
chen	15931
compar	15930
semi	15925
HF	15925
rer	15924
tron	15919
ĠCoast	15916
Stack	15909
Ġsupplies	15909
)^{-	15906
Ġ05	15906
Ġshots	15904
aver	15903
Ġcone	15903
Ġbelong	15903
Ġlegitimate	15892
ĠArea	15892
ĠLittle	15886
Ġisolates	15876
ĠIB	15875
Ġov	15874
026	15867
Take	15862
ulture	15859
iste	15858
270	15850
sea	15848
Ġpushing	15843
Global	15842
Ġbrew	15842
ĠDP	15838
Ġbehavioral	15836
yth	15835
ĠTro	15835
Ġions	15832
ector	15830
ĠRest	15829
Ġvisitors	15827
Ġbounds	15826
cis	15820
Ġ$.	15817
Ġbills	15816
Root	15811
FLAG	15810
ĠParliament	15809
Ġreputation	15808
ĠGas	15806
Ġquote	15805
Ġgray	15803
Ġentities	15803
ĠMinnesota	15801
Ġobjection	15798
Ġviruses	15797
Ġcontend	15797
ational	15796
Json	15794
ĠNM	15786
fx	15784
Ġinspect	15781
ĠCommonwealth	15778
ĠTurkey	15777
Ġyours	15774
Ġdimensional	15769
Ġxmlns	15768
bee	15765
selected	15761
ĠSoviet	15761
Ġapi	15759
033	15752
ĠFisher	15751
ifer	15749
Discussion	15746
away	15738
Ġham	15738
ĠCorn	15736
Ġrestore	15732
aving	15730
Â³	15729
connected	15727
Ġexclude	15724
Ġbaseball	15724
_(	15723
ĠHarris	15723
_>	15718
185	15717
Ġpill	15717
Ġemerging	15715
Ġnucleus	15714
Ġhealing	15711
Ġequipped	15709
="@	15707
Ġposterior	15706
eco	15696
gate	15693
ĠTNF	15691
Ġbirths	15690
pane	15687
Ġinquiry	15678
Ġsue	15675
idx	15674
python	15671
Ah	15671
Ġcavity	15666
$^	15665
nutrients	15664
Ġmembership	15664
AMP	15660
Ġpocket	15658
Ġdebtor	15657
ĠHTTP	15657
Ġdeficiency	15654
165	15653
Ġsensors	15652
Ġpreserve	15651
Ġurge	15650
ĠCambridge	15650
Ġ134	15649
utt	15648
Ġtoxicity	15647
ĠLewis	15647
Ġterritory	15645
Ġcertificate	15645
Round	15642
Thu	15641
Ġoxidative	15635
Proto	15634
IZ	15628
Ġsingular	15626
ĠAssembly	15626
171	15625
Ġvessels	15623
Ġstomach	15622
Ġinvited	15622
Ġarrive	15622
ĠMoore	15620
Ġplatforms	15616
Ġauthentic	15616
Ġpromised	15613
video	15611
>();	15610
Ġtired	15610
joint	15609
wire	15607
Ġinspection	15603
Ġsaving	15602
Ġextending	15602
Ġdefining	15597
enced	15596
Ġmuscles	15596
Ġmodeling	15596
mind	15595
Ġodds	15595
,_	15594
player	15593
ĠKal	15591
ĠMAP	15589
Ġparticipated	15588
Ġgranul	15587
hon	15583
Ġnurse	15583
Ġagreements	15582
ĠDL	15580
NU	15576
Ġ\_	15574
ĠBrazil	15574
Ġstrategic	15571
ĠBlock	15569
ĠLive	15566
Ġinflation	15564
keys	15563
ĠCV	15563
NAL	15561
uple	15550
Ġinjected	15548
Ġpoi	15544
enic	15543
btn	15543
ĠYeah	15542
General	15541
Ġpointing	15541
eT	15539
Ġaccurately	15536
yin	15535
Space	15535
Ġtransit	15535
ĠProperty	15532
ĠĠĠĠĠĠĠĠĠĠĊ	15532
ĠVietnam	15531
Ġencounter	15526
4000	15521
Ġopens	15521
Ġsuspected	15518
ocytes	15514
Ġestablishment	15510
jet	15508
uary	15507
Ġsuck	15502
Ġregarded	15501
Ġgrateful	15501
Ġcortex	15500
Ben	15497
Med	15495
ĠIndiana	15493
Ġdivorce	15490
Ġtalent	15488
ĠAfghanistan	15488
icing	15483
Ġexpense	15480
138	15473
Ġbird	15468
ĠException	15468
Ġresistant	15458
ĠToronto	15455
ĠUnless	15454
ĠâĢĭ	15453
Ġdecent	15451
Ġstayed	15450
Ġ184	15450
Ġscroll	15449
Ġcomply	15444
ĠDefense	15444
Ġpublish	15437
Ġresort	15434
Ġreliability	15434
Ġconstructor	15432
century	15431
Ġpromoting	15431
Ġ<!--	15429
ishing	15428
Ġnarrative	15427
degree	15426
ories	15423
Support	15421
[-	15420
idal	15419
Ġarising	15419
Ġcomparisons	15416
Ġelectrons	15414
ĠRound	15414
ILL	15412
Ġbes	15410
ĠWay	15408
ĠFM	15406
Ġresident	15404
Ġanalytical	15401
ĠFather	15401
Ġendothelial	15400
Ġelderly	15399
complete	15398
sex	15391
Ġlig	15390
Ġ1981	15389
Ġ-------	15388
Ġplugin	15386
Ġadjustment	15386
cost	15379
Ġenergies	15375
ĠTT	15372
hor	15369
ĠSort	15369
Ġpersonality	15367
ccess	15364
>)	15363
ĠLibrary	15360
Ġdemonstrates	15358
Ġblast	15349
stic	15344
Ġspots	15344
ĠDaily	15339
Ġaffidavit	15336
CONFIG	15335
1992	15334
Ġexisted	15334
Ġarrival	15333
ĠEpi	15333
Ġthreats	15330
Ġuptake	15329
Ġ136	15327
Ġcorn	15323
Ob	15318
Ġdefinitions	15316
ĠEL	15315
Kr	15314
Ġrail	15313
ĠPy	15311
Ġvariability	15305
Ġdistances	15304
ĠHon	15303
ĠChen	15303
ĠHouston	15301
READ	15298
Ġvisiting	15295
ĠSports	15295
Ġcomplain	15294
Ġlocalization	15292
Ġdocumented	15291
ĠSystems	15290
825	15285
Icon	15282
ĠTrade	15278
Ġlands	15265
ysis	15263
Ġwarranty	15257
028	15255
ĠDifferent	15255
Ġ***	15255
ĠND	15254
156	15253
Ġsatisfaction	15253
ĠPV	15248
Ġlibraries	15244
Ġappellee	15242
Helper	15240
Ġcontra	15236
1991	15235
Ġdump	15235
tea	15234
rue	15223
Ġquit	15223
Ġsacrifice	15221
iac	15220
Media	15220
Ġconfusion	15219
oan	15215
Ġcomplaints	15214
Ġheaded	15212
Ġranges	15209
ĠCome	15206
Ġ1960	15206
yle	15205
Based	15205
Ġwrap	15205
Ġnitrogen	15196
names	15194
ross	15192
Ġinputs	15191
Fs	15185
utils	15181
render	15177
ĠQueen	15177
ĠChristians	15176
Ġalongside	15173
ncing	15171
_-	15169
rupt	15166
Ġthirty	15165
sensitive	15163
attribute	15163
10000	15160
Ġemerged	15155
Ġdental	15155
Ġrect	15154
ads	15144
EU	15144
Ġsurprising	15144
$).	15143
Ġblot	15134
Ġinstruct	15128
Ġcapabilities	15128
Ġsuggestions	15127
Che	15126
Ġdenying	15126
Ġbench	15120
ĠAle	15115
'],	15113
ĠInterestingly	15111
Ġwise	15110
ĠHeat	15107
ĠTD	15106
Ġbasketball	15096
Ġparticipant	15092
Ġfaculty	15087
ĠNations	15087
Ġfulfill	15085
Close	15083
MAP	15077
filename	15076
agen	15076
Ġdecimal	15074
"?	15072
ĠHz	15067
Ġinduces	15064
Ġ).	15064
standard	15060
Ġtear	15055
Ġsubsid	15055
ĠLeon	15055
:'	15051
imple	15048
Ġ800	15047
Ġhosts	15045
asing	15044
POST	15044
Ġoccasion	15043
ĠPay	15043
marks	15035
Ġsigning	15035
ĠCt	15033
Ġwinner	15032
>"	15031
News	15030
Both	15030
Ġcollaboration	15030
pent	15024
Properties	15022
printf	15021
Ġvirtually	15020
Ġovert	15017
ĠGil	15015
aint	15009
Ġtherm	15007
Ġatomic	15007
eom	15002
callback	14998
World	14996
vable	14995
cate	14991
UV	14990
ĠEric	14988
fil	14984
Display	14984
ĠPrice	14982
ĠGE	14980
Ġclaiming	14975
ancing	14973
Ġwelfare	14971
rx	14965
FIG	14965
zh	14963
Ġwaters	14958
Ġrespondents	14946
Ġcoronary	14945
ĠAlb	14944
Ġfiscal	14934
Ġ``	14930
ĠMerc	14928
Ġinterpret	14927
Ġblocking	14927
Ġlongitudinal	14926
Ġcompression	14926
NH	14923
Miss	14919
bal	14918
ception	14916
Pop	14916
Ġfrozen	14916
TED	14915
Sy	14914
Ġconstraint	14914
Thus	14911
ĠJi	14910
Editor	14909
Ġmas	14904
Ġlocked	14904
Ġtransformed	14901
Ġprotocols	14900
Ġbleeding	14898
west	14893
Jul	14892
Ġchances	14889
Star	14885
Ġrecurrence	14885
ĠDoc	14884
models	14880
ĠMemo	14879
Ġaffirmed	14876
ĠMis	14874
ĠContin	14869
Â¤	14866
ante	14866
Ġhistoric	14866
PK	14862
shin	14857
ĠIgG	14857
iated	14855
Delete	14855
ĠShan	14852
expected	14850
Ġdecomposition	14847
Ġwavelength	14844
Ġcultured	14843
Ġdrama	14842
052	14841
Ġsudden	14841
Ġsubgroup	14841
Ġconstants	14841
Ġasset	14839
ĠShould	14835
Ġshortly	14832
Panel	14829
ĠStation	14827
Ġwins	14825
Ġshower	14823
ivar	14821
Ġshaft	14819
Ġcircular	14818
ĠBall	14817
osure	14809
ĠStore	14806
Ġtimely	14805
ĠContent	14805
Ġdonor	14804
Ġdetermines	14804
ĠWis	14801
cours	14800
Ġdistress	14799
Ġtracks	14794
Ġappreciated	14792
ĠTy	14792
Ġappointment	14789
Ġsolved	14787
ĠMU	14786
nity	14782
actor	14782
161	14781
Ġenterprise	14781
Ġboil	14771
ĠReact	14768
ĠTHAT	14765
CRE	14757
Ġcookies	14756
Ġthrown	14751
TIME	14749
prise	14745
Math	14744
Ġoptional	14743
ĠHP	14742
ĠOb	14741
linux	14732
Ġpostoperative	14732
ĠRM	14728
Âĳ	14726
ĠAllen	14726
ĠCNN	14725
Ġthreatened	14724
Ġtender	14723
Ġheaven	14721
Ġmemories	14717
Public	14714
fan	14710
ĠDisease	14709
Ġstimulus	14707
Ġcustody	14706
Ġ1982	14705
Ġstriking	14695
Ä±	14693
ĠWatch	14681
ĠFeb	14675
Every	14672
Ġcancers	14672
ĠShort	14670
MEM	14667
izations	14665
Ġflood	14665
203	14663
Stor	14662
Ġmothers	14661
Ġinstruments	14660
Ġblank	14660
!!!	14657
Ġcircuits	14656
ĠChange	14656
Ġflying	14655
ĠHoly	14653
ĠFinal	14651
Ġfantastic	14650
ĠMayo	14646
Ġtags	14644
Stop	14640
ĠSol	14630
213	14629
lower	14628
Ġartist	14628
FONT	14624
Ġtriple	14622
Ġdamn	14620
ĠDirect	14618
)},	14617
Ġliable	14616
Ġalbum	14616
Ġshelter	14615
mental	14614
Ġchallenged	14613
ĠFilm	14612
Ġmerit	14611
ĠConsider	14610
Den	14604
Ġeveryday	14604
Ġentrance	14603
Ġspl	14602
Ġtraits	14597
ĠTer	14595
Parameters	14594
inary	14593
Definition	14591
)})	14590
ĠBit	14590
Ġgrave	14587
ĠWel	14587
Ġinject	14580
Ġconserved	14576
Ġinches	14575
rative	14572
Ġconvergence	14569
Ġdispersion	14567
Ġvegetables	14566
Ġdried	14566
Ġmathematical	14564
orm	14563
Ġresidential	14563
Layer	14561
ĠArg	14560
Ġflows	14559
Ġbelongs	14559
Ġdot	14558
sid	14556
ĠÎĶ	14554
Ġstained	14554
ĠEF	14551
vee	14550
lite	14547
hbar	14544
ĠOUT	14541
ĠCast	14539
Ġsatellite	14536
Java	14534
Ġviewing	14533
ĠWisconsin	14533
ĠInst	14532
.\[[@	14530
Ġshake	14530
Ġmining	14530
Â£	14527
Ġphoton	14525
174	14523
HAN	14522
Ġadaptation	14522
Ġminds	14517
Ġseats	14516
Ġgraphs	14515
âĢĻ,	14514
thumb	14514
ocyte	14514
Real	14511
Common	14511
oral	14507
Ġasthma	14502
ĠXML	14502
Ġexclusively	14499
ethyl	14497
Ġgradually	14496
Ġreconstruction	14495
Ġprevented	14485
Ġperpet	14485
Ġjournal	14485
settings	14483
handler	14483
Parent	14481
sting	14480
ĠABC	14475
Ġlady	14473
Ġconcur	14470
Ġinsertion	14468
Ġflowers	14468
Ġconjug	14466
ĠUSE	14466
PATH	14463
[*	14456
Ġwidespread	14456
Ġshade	14452
Ġgeneralized	14451
Ġsimilarity	14450
Ġestablishing	14449
standing	14447
relation	14446
arch	14446
vp	14444
Ġconfused	14444
ĠâĤ¬	14443
Ġbore	14443
Ġmaternal	14441
Ġactors	14441
economic	14436
Ġrespondent	14434
Ġjoining	14433
plain	14431
Enabled	14429
Db	14427
ĠCent	14427
ĠHF	14424
three	14422
psy	14420
Ġstating	14419
erence	14417
Ġindependence	14417
sip	14414
Ġfilters	14414
Ġretro	14413
Ġachievement	14413
176	14412
Ġmethylation	14410
rolled	14408
Ġbelonging	14404
ĠKelly	14404
Ġknife	14403
WORD	14400
Ġdescending	14398
prefix	14397
Ġreplied	14397
Ġarr	14397
uth	14390
Ġbarely	14389
oqu	14385
ĠCooper	14384
Ġcrop	14382
Ġacceptance	14382
Ġspit	14380
sized	14379
Ġscenes	14377
solid	14376
139	14373
Ġmate	14370
ĠSTATE	14369
Ġseeks	14368
Ġsquad	14364
Ãº	14361
Ġanterior	14360
Ġguests	14357
Ġpest	14356
Ġloves	14353
Ġmyth	14350
ĠSometimes	14350
âĢĶâĢĶ	14346
jan	14345
hydroxy	14344
Ġmotions	14344
Ġflex	14344
ssl	14342
ĠGB	14340
Ġsymbols	14338
Ġocean	14338
ventricular	14337
Ġscholar	14336
URI	14332
Ġquestionnaire	14332
reach	14329
TING	14328
Ġbold	14328
}),	14326
Ġhop	14325
Ġanimation	14322
Ġsalary	14320
Ġsake	14320
Ġplacement	14319
gif	14318
activate	14314
ĠKansas	14314
ĠFri	14310
Ġincredible	14309
Ġdeletion	14309
Ġprescribed	14304
Ġcapability	14304
ĠBrian	14303
Ġesse	14302
Ġcanonical	14302
rect	14298
mir	14297
mass	14297
Wait	14297
Ġantenna	14297
179	14291
ĠReturns	14287
Adapter	14284
Ġprocessor	14284
Ġdramatic	14284
react	14283
Ġxml	14282
vein	14279
ĠSEC	14279
Ġdating	14275
ĠRon	14272
Ġmanaging	14263
Ġunfair	14262
Ġcontroversial	14261
Ġshed	14259
Ġattorneys	14255
Ġbriefly	14251
Ġlean	14244
Graph	14242
Ġstake	14242
Network	14232
ille	14227
schema	14225
Opt	14221
Ġcylinder	14219
GD	14217
ĠNature	14217
words	14216
Super	14215
Ġindictment	14211
Ġtrim	14210
ĠBad	14210
184	14209
ĠMassachusetts	14209
CHAR	14206
Ġmes	14206
Ġacknowledged	14206
Ġcocaine	14205
diag	14204
Ġemissions	14204
Ġnit	14199
ĠDT	14198
Ġpeptides	14197
Ġviolations	14196
lys	14193
xin	14192
ĠProcess	14192
Ġpartly	14186
ĠSanders	14182
Ġsurely	14181
Ġgrace	14177
bytes	14174
Ġoffices	14174
ĠOrganization	14174
Ġethnic	14170
Ġdietary	14166
Ġempirical	14160
DX	14159
Ġundergo	14159
Ġprotecting	14158
Ġstyles	14157
Ġletting	14152
Ġscrap	14150
Ġstereo	14149
ĠMuseum	14149
Ġparticipating	14147
Ġacquire	14140
Ġsavings	14138
Ġinvestigating	14138
ancies	14133
Ġconservation	14131
}$-	14129
Ġscrew	14128
Ġgastro	14128
ĠImmun	14128
Ġprovince	14124
disable	14123
Ġrom	14123
Ġunnecessary	14113
Video	14111
Ġfelony	14110
ĠAug	14107
orn	14106
ĠMars	14104
eman	14094
Ġgolf	14093
Ġmediated	14090
uto	14089
ĠSyrian	14088
ĠGh	14088
may	14087
ĠPlus	14087
vor	14085
Ġrevision	14085
Ġadvised	14085
ĠGraph	14081
ĠAcc	14081
Ġrepresentatives	14076
ĠTea	14075
ĠKas	14075
Ġtherein	14074
tide	14072
ĠMonte	14071
ĠIl	14071
Changed	14069
Ġ145	14066
ĠClinical	14064
Ġconditional	14062
ĠBarr	14061
ĠGOP	14060
ĠPub	14059
chy	14058
Ġcancel	14054
037	14048
Appellant	14047
Ġmodifications	14043
Flags	14038
~-	14033
Custom	14031
ĠInit	14028
wen	14026
println	14025
Ġoutstanding	14022
Ġplots	14018
Ġphenomena	14018
Ġtutor	14017
Ġcopper	14017
Ġduplicate	14014
Ġremarkable	14013
Ġmembranes	14013
chemical	14010
Ġlovely	14009
five	14003
Ġparams	14002
History	13999
ĠTur	13999
Ġcooperation	13998
ĠKong	13998
KO	13996
ĠKevin	13992
Match	13990
.",	13990
Ġ138	13989
shaped	13987
038	13987
INI	13984
Ġwarned	13984
Ġ]{}	13982
occup	13981
ĠBus	13981
Ġelectrodes	13976
Ġpc	13975
Ġemotions	13973
cong	13972
BN	13972
Ġinfant	13971
182	13969
Ġsentences	13966
Ġconfigured	13963
Ġimpaired	13962
Ġoutbreak	13960
ride	13957
Ġanal	13956
guid	13954
Ġtowns	13952
due	13950
Ġgit	13947
ĠBMI	13947
Ġlucky	13946
Ġnursing	13939
Ġactively	13938
ĠAE	13932
ĠIrish	13928
Ġdebut	13925
Ġqualitative	13924
Bytes	13923
wait	13921
Ġlisting	13921
GH	13912
Ġ137	13911
Ġsecretion	13910
results	13906
users	13905
ĠHotel	13905
ĠKeep	13903
fat	13899
PV	13898
Ġpaste	13896
Ġemerge	13896
Ġaccomplished	13893
Save	13890
ĠAvenue	13890
XX	13887
Ġrings	13886
$;	13884
Ġmesh	13883
Ġdecor	13883
ĠDrug	13883
anic	13882
Ġrevise	13882
Ġrelate	13880
bach	13878
ĠUkraine	13875
risk	13874
ĠSix	13871
Ġwider	13870
ĠSeven	13870
Ġorbital	13865
![](	13863
Ġencouraged	13863
Ġintestinal	13858
uing	13855
ĠSign	13854
voice	13852
Ġcorruption	13851
square	13850
Ġshipping	13850
ĠOff	13847
chu	13846
Ġinitiated	13846
Ġlogo	13844
Ġinfants	13844
Ber	13840
Ġmutual	13839
ĠJeff	13839
225	13834
Ġrelies	13832
ĠStrat	13823
Ġarrow	13822
mapsto	13819
Ġtar	13816
lude	13814
Active	13813
===	13813
burn	13812
Ġposting	13811
Ġreasoning	13810
Ġsecretary	13809
Ġpositively	13807
Ġgenerations	13807
Ġcircles	13807
kov	13806
CTION	13806
kil	13804
Ġdye	13803
ĠManager	13803
metadata	13800
Ġbirthday	13798
pw	13790
Ġslide	13788
herent	13786
Ġexplored	13786
Given	13782
Ġfiring	13779
Ġstops	13778
ĠBran	13778
ĠColl	13777
Ġanalytic	13776
displaystyle	13775
Ġgraft	13774
Ġdominated	13774
ĠAve	13773
Ġ350	13772
Ġstudio	13766
Ġaccomplish	13761
Ġimportantly	13760
ĠMom	13759
ĠATP	13758
Ġelastic	13757
)*-	13752
library	13747
Ġshame	13741
>>>	13736
ĠWI	13735
LICENSE	13734
ĠRam	13734
)}{\	13733
Ġpermits	13730
},$$	13729
ece	13729
Ġcarb	13723
ĠFuture	13723
Ġtie	13722
-+	13719
Ġbrothers	13719
ordinary	13718
Ġscratch	13718
ended	13713
Ġmerge	13712
Ġinstitutional	13712
ĠClo	13711
0000000	13710
ĠMun	13708
ĠCommand	13708
Ġfirms	13707
Ġconsult	13704
zie	13701
share	13700
phenyl	13700
ĠLabor	13700
Ġcontinuously	13699
elin	13698
Ġpas	13695
Ġgains	13694
Ġethical	13694
Ġlesion	13692
speed	13691
ĠEgypt	13688
}}^{\	13686
Ġupcoming	13685
ĠBBC	13681
emma	13676
Ġconflicts	13675
Lock	13673
ĠMaryland	13672
Ġdownstream	13665
ĠNeuro	13665
Ġconvinced	13660
Ġprofits	13659
relevant	13656
ĠCommon	13656
Ġexpertise	13650
Microsoft	13649
Ġmayor	13647
iology	13646
ĠWild	13644
ĠGovernor	13644
Ġtooth	13642
Ġquoted	13642
ĠPea	13640
nder	13638
ĠNavy	13638
Engine	13635
aque	13631
ĠCle	13631
War	13629
claim	13627
Ġ1979	13621
Eq	13618
Ġvas	13616
221	13612
ĠTele	13612
Ġfluctuations	13610
Ġwebsites	13609
Ġbags	13605
051	13603
ÂłĊ	13595
Ġcausal	13595
would	13594
ances	13589
ĠSummer	13588
332	13587
Ġfeatured	13587
Ġscanning	13586
Ġdatasets	13584
Ġethanol	13583
Ġdeduct	13582
Ġburning	13582
ĠInn	13582
owned	13578
role	13577
SG	13574
ender	13570
dated	13566
Ġpainting	13566
Ġguaranteed	13564
Ġdrives	13560
Ġ##	13560
Ġediting	13558
ĠPerform	13557
Ġfilename	13554
Ġdevelopmental	13554
Methods	13549
Ġchampionship	13548
Ġcontemporary	13546
ĠÂ»	13544
Ġtopological	13543
Ġvanish	13534
Ġterrorist	13534
ĠIdent	13532
Ġelite	13531
Ġbackup	13531
Ġstimuli	13529
ĠOregon	13529
initial	13528
Ġcytokines	13528
Ġconsistency	13528
---|---|---|---	13524
ĠPop	13519
Ns	13518
Ġlogin	13518
ĠNothing	13517
ĠCollection	13517
Ġincubation	13515
require	13513
;;	13513
Ġtobacco	13511
Ġchromosome	13511
bell	13507
ĠFU	13507
Ġindicator	13506
ĠGun	13503
ĠElement	13503
Ġmodulation	13500
izers	13499
Ġaccounting	13494
Ġaffinity	13493
Ġwriters	13485
Release	13482
Ġfate	13482
Ġrental	13475
ĠPrince	13475
half	13472
ĠGuide	13472
Ġmacrophages	13471
Ġreaches	13469
Ġdeposit	13469
Ġought	13467
Cam	13466
ĠFP	13466
igned	13464
ĠMessage	13464
Ġclothing	13461
Ġmanifold	13460
ously	13459
ernal	13458
Ġinnocent	13457
Ġsettle	13453
Ġconsisted	13451
ĠHong	13451
dine	13450
Ġcircum	13450
ĠVictoria	13450
ĠKIND	13447
Ġoz	13443
Ġlacking	13442
ĠOil	13442
ĠRoss	13441
allo	13439
ĠClick	13439
Ġentertainment	13434
apl	13432
Enter	13431
Ġexpectation	13430
Ġsolvent	13428
Ġsyntax	13424
âĪĴ/	13421
(:	13412
simple	13410
Ġgenerates	13404
Ġtrailer	13402
Ġasymptotic	13402
Ġtemple	13398
Ġrum	13398
aves	13395
EY	13395
uter	13389
Ġoccupation	13389
lier	13386
Ġproxy	13384
ĠVP	13379
uke	13377
phin	13377
Ġ139	13375
Ġ181	13371
properties	13370
Ġmedications	13370
Ġtackle	13369
Ġsubstances	13367
ĠRab	13365
ĠExecutive	13365
mount	13364
ĠLeft	13362
Register	13358
fm	13356
Ġdear	13356
Ġcorrected	13356
pict	13355
ĠHaving	13355
Ġcarries	13352
Names	13351
Ġenormous	13351
ĠMuslims	13348
brief	13345
Ġhr	13344
into	13340
Ġ(_	13340
lands	13336
xff	13334
Binding	13330
Sign	13329
cluster	13328
ĠHarry	13328
Ġservers	13327
Ġreplacing	13323
ĠShare	13323
Ġdistant	13319
ĠResponse	13317
ĠLevel	13317
containing	13316
ĠScientific	13316
Ġplacebo	13313
Ġhighway	13312
natural	13308
apply	13306
Ġantioxidant	13305
ĠDD	13302
Â¡	13301
tia	13299
ĠVit	13294
Ġspinal	13292
ĠSTA	13290
Ġdensit	13288
ims	13287
scriptstyle	13286
uw	13285
Ġcollision	13285
Ġdreams	13284
Ġconscious	13282
Account	13281
mie	13278
Ġreporters	13276
===========	13275
dL	13272
ĠCole	13267
amino	13266
183	13265
Ġ....	13262
Files	13259
Ġpainful	13257
Ġentropy	13257
}^*	13256
Empty	13253
036	13251
Ġ1977	13250
ĠAppl	13248
ĠMoh	13245
Ġscenarios	13243
tically	13242
Ġcontributing	13240
alon	13237
around	13235
ĠPel	13232
ativity	13228
ely	13227
Ġgastric	13227
icks	13225
ĠTal	13225
Ġexceptions	13223
VS	13219
ĠHillary	13219
:[	13218
Ġshifts	13216
Ġships	13214
Ġnie	13214
Ġcardio	13212
ĠHollywood	13212
ĠCredit	13210
Ġarchive	13199
ĠThin	13199
ĠWS	13197
HER	13196
ĠHart	13193
233	13192
0006	13192
Ġschemes	13191
emit	13190
Ġstraightforward	13187
ĠWrite	13187
Factor	13182
Ġtendency	13182
Ġpossibilities	13175
ĠAnal	13173
Auth	13172
(!	13172
Ġguilt	13170
ĠMiami	13169
ĠSimon	13168
ĠARE	13168
Ġbroader	13167
420	13162
ĠThor	13160
Ġpoorly	13159
086	13157
Ġtrop	13157
Obj	13155
White	13154
ĠFred	13148
ptic	13147
Ġbegun	13146
Ġcharacterize	13145
Ġallele	13145
both	13143
Ġ'/	13143
Ġpresenting	13141
Ġporta	13139
gling	13137
Remove	13137
SSE	13135
Ġfitted	13135
ĠPhiladelphia	13134
ĠJean	13132
ĠAlabama	13131
Ġdeck	13124
Gar	13123
VERSION	13121
Ġencountered	13119
Ġchairman	13119
Ġforecast	13118
Ġdetecting	13118
ĠWy	13116
ĠOklahoma	13116
Ġlawyers	13114
ĠCells	13110
erd	13109
ĠLLC	13109
Ġnoting	13106
ĠNik	13105
XXX	13104
Email	13104
Pool	13103
Ġdesperate	13102
ĠDefault	13102
job	13100
Ġsurf	13098
Ġneuronal	13098
ĠLanguage	13098
âĪĴ^	13097
-.	13097
Ġcease	13097
Ġroyal	13096
Ġ1978	13096
Ġkg	13094
tage	13091
Ġcompiler	13091
ĠSimilar	13090
Ġcurvature	13089
ĠMatthew	13086
ARG	13085
Ġwanting	13085
Ġanalysed	13085
1987	13084
Ġinvasive	13083
Ġenv	13082
ĠCSS	13076
"],	13075
Ġflower	13075
Ġindividually	13074
Ġfishing	13068
Ġsphere	13066
Ġamid	13065
Ġinconsistent	13062
Ġoccupied	13060
(@	13059
wb	13056
orous	13050
Ġpivot	13050
Ġessay	13050
Ġdiagonal	13050
Schema	13049
1985	13049
Ġrack	13049
:</	13047
Ġdiscipline	13046
ĠMusic	13045
COR	13044
208	13044
Ġlamp	13043
ĠConn	13042
iser	13038
Ġstolen	13036
tests	13035
Float	13033
city	13029
very	13022
Ġchemicals	13020
Api	13018
Ġdelicious	13015
inger	13012
Ġcelebrate	13007
Ġdont	13001
ĠFive	12998
ĠForest	12995
Ġdistribute	12994
Ġaffairs	12994
ains	12993
Ġvirtue	12992
Ġspecimens	12992
[:	12991
Ġdebug	12991
Ġhomogeneous	12990
ĠĠĠĠĠĠĠĊ	12990
Ġexceptional	12989
ĠDiego	12989
region	12988
ĠHad	12987
JSON	12986
^{+	12984
ĠPoly	12982
ĠJavaScript	12978
ĠEdward	12978
Ġcontradict	12977
protected	12973
record	12971
Ġsurrounded	12971
Ġ220	12971
minute	12970
Ġraises	12968
Ġlegislature	12968
Ġurine	12962
Platform	12961
variable	12960
glish	12959
Ġformulation	12959
Ġcitizen	12958
224	12957
Ġ179	12953
Ġundefined	12952
ĠOrg	12951
ĠJP	12951
Ġoperational	12950
eral	12949
rode	12948
Ġlocalized	12948
ĠBureau	12948
Ġcheer	12946
Ġallocation	12946
Effect	12945
Sample	12944
warn	12943
Ġagri	12943
âĢ©	12942
Draw	12934
uction	12933
223	12932
Ġaddressing	12932
Ġbite	12930
Ġarises	12927
ĠCapital	12926
Ġprostate	12925
Ġnegotiations	12924
Ġshapes	12922
Ġplat	12918
Ġbarrel	12918
Ġbeings	12917
reset	12916
Ġ-------------	12915
Ġbail	12913
ĠÂ«	12911
nil	12907
Ġstir	12903
LINE	12901
inos	12897
Ġidentifier	12897
ĠMarine	12897
ffff	12895
167	12893
ĠLabour	12893
ĠHub	12893
ĠSeattle	12890
ĠChannel	12890
Ġdisappear	12888
Mart	12887
Ġlets	12887
$:	12886
ĠInvention	12886
Ġ"_	12886
mock	12884
shared	12883
Ġord	12883
zar	12882
Ġgrants	12881
ĠMotion	12880
..............	12877
ĠRei	12876
ĠDemo	12871
'=	12870
ĠMoon	12867
Wor	12866
ĠStudent	12865
Ã©c	12863
3000	12863
Ġthromb	12863
Ġcorporations	12862
Dan	12860
Ġcompile	12858
sync	12856
ĠMaria	12855
adde	12854
snap	12851
081	12847
Ġsubstitution	12847
Ġslice	12847
Ġverified	12844
except	12842
Ġorgans	12841
Ġintensive	12840
ĠMeta	12838
iment	12834
Ġdesk	12833
ĠDU	12827
ĠStone	12825
Ġcomme	12824
Ġrolling	12823
Ġns	12823
Ġconsiderations	12823
aaa	12814
XML	12812
Ġclubs	12812
ĠFootball	12812
ĠRick	12810
Ġhighlighted	12805
ppat	12800
Ġcarriers	12800
Directory	12799
ĠConserv	12797
HH	12795
*](#	12794
264	12793
Ġsheets	12793
Ġlips	12792
Package	12790
written	12786
Ġtransmit	12785
did	12784
ĠHT	12784
Ġdrill	12781
Ġtransplant	12780
Pal	12778
ĠVideo	12775
ĠHeart	12775
ogical	12770
Ġ%>	12767
Kit	12766
Ġoccasionally	12766
without	12765
essing	12765
ĠEuro	12764
})$.	12761
vet	12758
parallel	12758
ĠCustom	12757
Ġsimulated	12756
Ġexpanding	12756
Ġengaging	12755
iterator	12754
CX	12753
pathy	12752
Ġrestrict	12752
Ġvibration	12749
Ġprefix	12748
Ġhub	12748
ĠÎ¼M	12747
OPE	12743
Ġleak	12743
Ġflexibility	12743
Ġbreed	12743
Ġsuggestion	12736
Ġ210	12736
Ġmig	12735
Consider	12730
ĠMH	12730
eye	12729
Ġtick	12729
ĠVM	12723
Ġbreathing	12722
Ġ360	12721
330	12719
Ġdistricts	12718
Ġimplements	12717
Ġenvelope	12717
Ġĉĉ	12717
South	12716
Ġsubscript	12715
Ġneedle	12715
Ġ175	12711
Ġ204	12707
Ġremarks	12705
Û	12703
Ġtrap	12701
ĠVisual	12700
Ġweakness	12698
Ġmonitored	12696
ĠDoctor	12694
ĠRod	12691
Ġdishes	12689
Ġincredibly	12686
Ġvolunteers	12685
Ġvolumes	12685
Ġcurl	12685
Ġangles	12685
Ġtitles	12680
Pin	12674
>;	12673
Ġimpacts	12672
340	12670
Bit	12669
ĠDad	12669
engine	12664
Report	12664
Ġjar	12662
compr	12659
ĠSar	12656
ĠGov	12656
Ġsleeping	12654
Ġarrays	12654
ĠSearch	12654
Ġtongue	12653
Ġ-----------	12652
Ġterror	12650
Ġdeleted	12649
Ġsys	12643
Ġsolving	12642
Ġ?>	12642
Ġ1975	12639
ĠReturn	12637
AQ	12634
ĠRome	12634
Ġteaspoon	12629
ĠMalay	12627
Ġconversations	12626
303	12625
ĠÃħ	12625
Ġdying	12624
Ġdisposed	12624
Connect	12622
Ġabandoned	12621
206	12619
Ġgarlic	12619
Matrix	12616
ĠOxford	12616
Import	12615
Queue	12609
ĠĠĠĠĠĠĠĠĠĊ	12609
Ġjoke	12607
distance	12604
Ġextracts	12602
Ġaggregate	12601
hidden	12595
Ġpurely	12595
Ġmandatory	12594
Ġbalanced	12593
Ġredirect	12592
Bs	12591
ĠMill	12591
Ġsuppressed	12585
Ġlemma	12584
Ġadhesion	12583
David	12582
Ġspoken	12582
ĠProvide	12578
GFP	12576
Ġencoded	12576
ĠArch	12575
Ġligand	12574
Ġimply	12574
Single	12567
Ġlemon	12566
ĠTyp	12565
Ġhitting	12561
Ġballot	12559
Ġpension	12557
oen	12551
Ġsail	12550
ently	12545
Ġproceeds	12540
actions	12537
proof	12536
Ġdisplacement	12531
Ġsteal	12530
Ġfocuses	12530
Ġsixth	12525
Ġaccordingly	12525
Ġretrospective	12524
Evaluate	12521
Ġpulling	12519
ĠMorris	12519
Ġ153	12516
original	12514
ĠProc	12512
piece	12511
ĠGarden	12508
Ġtransitions	12507
Ġconsiderably	12505
Ġ165	12503
Ġarguing	12501
Ġdozen	12500
yna	12499
ĠTheory	12496
ĠMissouri	12494
ajax	12493
Enum	12490
ĠDisney	12490
score	12488
Pointer	12487
Ġexplaining	12484
Ep	12482
ioned	12480
Ġtranscripts	12477
Ġexhibits	12477
Ġautomobile	12476
Ġmorphology	12475
Ġintact	12474
safe	12473
ĠVir	12473
ĠOnline	12473
Four	12470
Those	12466
Ġconfirmation	12460
norm	12459
fect	12457
Ġmobility	12457
ingly	12452
BY	12452
parameter	12443
lating	12443
levance	12442
Ġopera	12440
Ġanonymous	12440
053	12432
Ġvolunteer	12432
Ġcompromise	12432
ĠNBA	12432
ĠMRI	12431
isse	12428
ĠSurvey	12423
AW	12419
Ġadoption	12417
ĠLoad	12417
ĠWolf	12414
Ġties	12413
Ġ700	12413
eus	12410
ĠAuthor	12407
Ġbp	12405
Ġconducting	12404
Ġplacing	12401
ĠWithin	12400
Ġasserted	12397
Ġreviewing	12390
eded	12388
rock	12387
MY	12384
Ġgamma	12384
ĠSquare	12382
ĠFrancis	12382
Ġreserve	12381
Ġmuseum	12381
Ġballs	12381
ĠHelp	12381
Ġphones	12377
aux	12376
Ġgy	12375
Ġ141	12375
Ġexon	12374
Ġ1976	12374
cene	12369
ĠVII	12368
ĠRelated	12368
ĠLes	12362
Ġrelaxation	12361
Ġrecruitment	12361
Ġsubsection	12360
required	12357
amon	12357
Ġchips	12356
MW	12352
Ġign	12352
Ġmob	12350
Ġjud	12347
virtual	12346
Ġsew	12346
Ġprayer	12346
ĠâĢĻ	12341
ĠRapids	12341
hydra	12339
ĠDom	12339
Ġofficially	12338
Ġimplementing	12337
LAR	12335
ĠBol	12334
uity	12332
Ġpink	12330
Ġblockchain	12330
Ġward	12328
Ġcf	12328
typedef	12326
Fla	12323
ĠTreatment	12322
lag	12321
ĠKam	12321
ĠHold	12321
Ġquarterback	12320
Ġhormone	12320
correct	12319
Za	12317
trace	12314
rase	12314
equals	12314
Ġbare	12314
Ġcounting	12310
dog	12309
ĠPRI	12307
Ġvaries	12304
Ġmount	12304
075	12302
oC	12300
Ġthrew	12300
Equ	12299
/$	12297
(.	12297
lton	12296
Ġoutdoor	12295
ĠYouTube	12295
Plaintiff	12294
Ġriding	12293
oted	12290
worker	12288
Ġcow	12288
sets	12285
Pat	12285
IGHT	12282
platform	12281
Ġintim	12277
orma	12275
jk	12273
Ġchemo	12266
Ġ146	12266
Policy	12262
DV	12259
logo	12258
Ġoverwhelming	12257
Ġbee	12257
Ġconstitutes	12256
ĠWars	12255
Ġfiction	12252
ĠGy	12251
aml	12250
ĠBUT	12248
xon	12247
245	12247
Ġtraveling	12245
Ġfestival	12244
034	12243
Ġ152	12241
Ġmethodology	12238
itic	12237
Ġpollution	12237
same	12232
Ġcatheter	12232
ĠSpa	12232
ween	12228
056	12225
Ġmunicipal	12225
Ġmetastasis	12223
Ġclaimant	12221
Ġdenoted	12219
ĠRow	12218
ĠPlayer	12216
Ġcomparative	12214
Ġtears	12209
Ġshifted	12209
counter	12205
Ġprobation	12205
Ġlecture	12203
ĠNotice	12203
..\	12202
Ġextracellular	12199
aire	12198
Invalid	12198
Ġlengths	12197
Ġventure	12193
Ġappellate	12190
Double	12189
Ġbiology	12189
cg	12186
Ġlesser	12186
ĠPalestinian	12186
gies	12185
ĠSmall	12185
Ġcups	12183
TK	12179
Ġinnovative	12179
Ġappearing	12175
ĠAlexander	12175
username	12174
Ġ------	12174
ĠDallas	12173
Ġsusceptibility	12170
nut	12169
Gal	12168
Ġraces	12168
Ġsubstrates	12166
Ġcurious	12165
Ġwages	12164
Ġadvocate	12164
Ġ256	12164
contin	12162
Ġdrops	12162
Ġreproduce	12159
meter	12158
Ġwithdrawal	12155
avan	12154
Ġpole	12154
Ġerroneous	12153
Ġimmigrants	12152
Ġwheat	12150
ĠSite	12150
ĠProcedure	12149
ĠLater	12148
Ġviable	12146
Ġbasal	12145
cpu	12144
Ġrally	12137
Ġspeaker	12136
Ġorganisms	12136
Ġhex	12136
Ġconfigurations	12136
ĠLab	12136
TEXT	12135
Ġobjectives	12135
ĠAssociate	12132
Ġstepped	12131
present	12130
Ġoxidation	12128
ĠRelease	12128
Ġcaptain	12126
OSE	12124
ĠNight	12122
oal	12119
1001	12116
Ġmerits	12116
Ġsubtle	12115
Ġdiscussing	12115
Ġabilities	12113
ĠWu	12113
Ġdramatically	12112
Ġinfluenza	12111
ĠRoberts	12111
DEF	12110
Black	12110
Ġadditive	12110
Ġfallen	12107
Basic	12105
Ġmanipulation	12105
293	12104
bos	12103
ĠCurrent	12102
Ġvacation	12099
dna	12098
ĠRules	12096
gro	12095
SHA	12095
218	12095
Ġinvestigators	12095
ĠRemove	12094
Ġcharging	12092
Mask	12090
Ġhighlights	12089
Ġasserts	12088
ĠFinancial	12087
ONG	12080
Ġcatalog	12078
Ġrobbery	12077
Ġasync	12075
ĠExpression	12073
Ġtransverse	12072
ĠBerlin	12068
~(	12066
since	12064
Scale	12064
Ġwisdom	12064
ĠTennessee	12062
ĠSingapore	12058
Ġprize	12056
Ġ---------	12050
aar	12049
Ġfluorescent	12049
ĠHU	12046
173	12042
Ġdialogue	12041
ĠUpon	12041
ĠBeck	12037
ĠWould	12036
ĠWalker	12035
Ġnutrition	12033
rass	12032
encode	12032
Ġhumanity	12032
Ġalternate	12027
Ġads	12026
[{	12025
ĠPrevious	12024
Ġreceipt	12023
Ġgathering	12022
Ġassertion	12022
Watch	12021
312	12021
Ġcredibility	12019
_;	12018
ĠTony	12018
ccc	12017
Trump	12017
Try	12014
nop	12013
Ġfreely	12013
Ġmodest	12012
ĠCOURT	12007
ĠMorgan	12006
Ġsafely	12005
Ġprevents	12005
ĠRequest	12003
Ġpacked	12000
eel	11999
Ġ----------	11998
ÂĴ	11992
ĠRD	11992
ĠProtection	11988
Ġstopping	11986
Ġaffordable	11986
ĠPURPOSE	11986
Ġnut	11985
Ġprojected	11983
Ġincorrect	11982
rates	11976
Ġpassive	11974
Ġdonors	11974
hill	11972
EK	11972
242	11969
Ġhorror	11967
Ġalterations	11965
ĠMother	11964
Ġ196	11964
Contact	11963
Ġunity	11962
continue	11953
Sam	11952
Ġutilize	11952
ĠSep	11951
ĠLang	11951
410	11950
Ġgolden	11949
Ġbow	11949
~.	11946
Ġinvoke	11944
Ġarbitration	11944
Ġzip	11943
Ġrobot	11943
ĠDouble	11942
lst	11941
ences	11939
Ġpromises	11939
Ġconnector	11938
ĠMexican	11938
theme	11936
ĠWorks	11935
Ġcombining	11934
Ġbother	11933
Ġmeets	11932
Summary	11930
Bin	11930
ĠExtra	11928
corn	11926
Ġnurses	11925
Ġcameras	11924
Ġroller	11923
ĠChampionship	11923
sell	11922
Ġamplification	11922
*"	11921
wed	11920
Cas	11918
1983	11918
1980	11918
)",	11915
Ġvet	11914
formula	11913
Ġmp	11913
onin	11912
Ġretention	11909
period	11908
Member	11908
Copy	11908
Light	11907
>::	11905
ĠNAT	11903
}$]{}	11901
Âĩ	11899
Ġconcert	11899
GEN	11897
Ġdeficit	11896
ĠJosh	11889
Ġinitiation	11886
ĠDark	11885
syn	11884
Ġbroker	11882
Ġbonus	11880
Ġbitter	11878
ĠPremier	11877
Ġrival	11876
were	11872
Ġoccasions	11872
Ġreass	11870
Character	11869
Ġinvestments	11866
ĠHawaii	11866
Ġartists	11865
ĠMeanwhile	11863
market	11862
amer	11861
Ġconsultation	11860
Ġclimb	11860
iers	11859
Parser	11859
ĠReference	11859
Ġfence	11855
,*	11852
072	11851
Ġwrit	11850
Ġprotests	11848
exists	11847
orate	11843
8000	11838
0009	11838
ĠAuthority	11833
Ġinspiration	11830
ĠGit	11830
Play	11829
Ġdemocratic	11829
Ġ------------	11828
tero	11827
Ġhepat	11818
ĠSarah	11818
ĠHoward	11818
Ġinsured	11817
Ġjudges	11815
Ġvin	11813
ĠLock	11810
groups	11809
Ġmistakes	11809
MOD	11806
icker	11805
ĠJason	11804
ĠUSB	11801
1111	11799
lium	11797
ĠTarget	11796
ĠVice	11793
Ġ225	11793
Ġdatabases	11791
vascular	11789
Ġfloating	11788
rint	11787
agent	11787
onn	11786
best	11783
/)	11783
Ġmotivated	11783
()]	11782
Ġensuring	11782
Ġdescend	11782
ĠStudio	11781
Subject	11778
Ġpalm	11776
Ġbaking	11773
bridge	11771
Ġdated	11770
ĠBuilding	11767
Ġdeparture	11764
Ġactivists	11764
Ġfacial	11763
Ġboards	11760
ĠEar	11759
=\"	11756
Ġabundant	11754
cmp	11753
Ġswap	11752
Ġearnings	11752
Argument	11750
DER	11749
Ġreactive	11747
reason	11746
Conv	11746
ĠObserv	11746
Ġdeployment	11745
Ġamongst	11744
graphics	11743
Ġsoup	11742
mouse	11741
Ġpremises	11741
itative	11739
ĠArabia	11738
Ġdf	11737
[]{	11734
Ġtheater	11733
Ġduct	11733
Ġthrowing	11732
Ġwithdraw	11729
Ġoligo	11729
Ġdisadvantage	11728
Ġdowntown	11727
Ġantagonist	11726
utch	11725
CW	11723
Ġlag	11722
ĠAccount	11722
give	11718
228	11718
Ġexpenditure	11717
ĠEE	11717
Ġtherapies	11715
Ġcats	11714
Ġshops	11711
Ġfrag	11707
topic	11703
ĠDem	11702
school	11700
ĠNK	11698
EW	11696
nome	11692
ĠRen	11686
ĠCaptain	11684
ĠDog	11682
ĠDick	11682
082	11681
Ġschema	11681
Ġgrey	11680
greg	11676
mons	11674
Ġchopped	11673
wei	11669
-,	11669
Ġspeaks	11668
Nu	11664
ĠCruz	11664
Ġjustified	11662
Ġuniversities	11660
Ġrush	11658
Transform	11656
ĠExample	11653
ĠAddress	11653
North	11652
Ġpassenger	11649
Ġmanufacturers	11649
Join	11648
)$-	11647
Ġtrait	11647
Ġmusical	11647
ĠDN	11638
Ġantibiotics	11636
Ġtrou	11635
Ġ[\	11630
BX	11628
720	11628
Ġemails	11626
Bean	11625
pun	11624
Arch	11623
Ġobligations	11623
ifndef	11622
Ġpackaging	11621
Mat	11620
cause	11619
Ġdismissal	11619
Ġaveraged	11619
ĠcDNA	11618
Ġtower	11617
Ġarts	11616
Ġplatelet	11614
ddl	11612
Ġprofound	11612
Ġquota	11609
Ã¨re	11607
Ġveteran	11607
Ġ1950	11607
Ġfought	11606
hero	11605
photo	11604
Ġmainstream	11601
Ġfruits	11598
unda	11597
once	11596
Security	11595
Book	11593
Ġaort	11593
launch	11591
ĠInfo	11590
dfrac	11589
Ġmicroscope	11588
Ġratings	11585
ĠElizabeth	11585
submit	11584
infected	11583
Ġcaution	11579
Ġrepository	11578
tags	11576
Ġsequential	11575
Ġexperiencing	11575
Ġthroat	11574
ĠDutch	11572
Ġpreserved	11568
235	11567
Power	11565
Ġhorizon	11560
ĠVector	11558
Ġupstream	11557
ĠCOVID	11556
Ġsteep	11551
ĠInteger	11548
Ġadvances	11545
!\	11544
375	11542
Ġintelligent	11542
amed	11540
Ġkiller	11539
Ġlabour	11538
Ġgranting	11538
Ġbrilliant	11537
Ġplaque	11535
ĠBrad	11535
dB	11534
ĠSenior	11534
ĠLegend	11534
Ġadventure	11533
Further	11531
Ġsearched	11531
Byte	11530
Ġhappiness	11525
ĠWales	11524
ĠTurn	11523
Ġdir	11522
Ġ205	11522
Plugin	11517
Ġvoluntary	11516
Ġrubber	11516
Ġexploration	11515
lace	11509
ĠVery	11508
nas	11506
ĠExpress	11503
Ġresidue	11500
]-[@	11499
Ġregret	11499
Ġeastern	11499
Ġ1973	11499
Ġ156	11499
ĠBesides	11495
rD	11492
illo	11491
Cir	11491
Ġsubjective	11489
Ġexplosion	11489
ĠFITNESS	11489
ometry	11488
Ġtoil	11488
Ġsusceptible	11487
Ġcontamination	11487
supported	11486
Ġbrains	11483
hall	11482
Ġcave	11482
Ġevolutionary	11481
clock	11480
Ġcry	11479
ĠVC	11479
ĠAz	11477
Ġ$|\	11471
Ġloads	11467
]))	11466
JU	11466
SION	11465
ĠHawk	11465
Mint	11464
Ġselecting	11463
Ġdiabetic	11462
Ġclarify	11462
Ġsuspicion	11460
Ġclinically	11460
kers	11459
ska	11457
Ġdistal	11455
bank	11453
Ġresponsive	11452
Ġcabinet	11450
Ġadhere	11449
?>	11448
Ġmedal	11447
TABLE	11446
302	11445
241	11442
shell	11440
Prim	11439
Information	11435
Ġviability	11433
Ġyard	11431
Ġprimers	11431
ĠRas	11429
Func	11427
ĠLL	11426
Ġane	11425
amma	11424
Ġpride	11422
Ġillustrate	11421
ĠArts	11421
Rate	11420
Ġconsumed	11420
Ġredshift	11418
Ġhint	11417
ĠRich	11417
Ġstamp	11414
Ġranked	11414
Ġdesktop	11414
ĠUtah	11413
ĠConvention	11413
rman	11412
dad	11411
ĠMos	11410
LES	11409
Ġrecipes	11407
Ġcounted	11407
Ġexponential	11406
Ġwaiver	11402
Ġmimic	11402
Ġhemat	11400
etti	11399
flag	11398
raft	11397
Ġthereafter	11397
273	11395
085	11393
Ġ161	11393
))?	11392
quoting	11390
Ġphosphate	11390
eds	11388
0015	11388
Ġtranscriptional	11388
Ġbuttons	11388
Place	11385
Ġtrustee	11384
Ġ168	11383
bx	11382
Ġrocket	11381
ROC	11380
Chu	11379
Ġpile	11376
ĠSav	11376
ĠModi	11376
amount	11375
Ġposter	11375
ropic	11374
Ġembarrass	11373
*{	11370
Ġpeaceful	11370
ĠEquation	11370
ĠFlor	11369
Ġsubtract	11368
nts	11366
$),	11366
ĠPhilip	11363
Ġincomplete	11361
Ġsie	11359
Ġfigured	11358
Ġ1972	11357
Ġendogenous	11354
Ġlake	11351
Ġfetal	11350
Ġdialog	11350
modal	11346
INA	11346
Ġappellants	11346
Ġbuilder	11345
Ġintroducing	11343
Ġdx	11341
Ġcenturies	11341
272	11340
Ġpredetermined	11340
CAC	11339
events	11338
Ġfurniture	11336
ĠMember	11332
pale	11331
Ġui	11331
Ġremind	11331
Sat	11330
Sin	11329
Ġ162	11329
general	11326
ĠLouisiana	11326
ĠWHO	11325
Ġprinter	11324
288	11323
Ġlaptop	11321
Ġbeef	11321
upload	11317
ĠLV	11317
Ġreception	11315
Ġprolonged	11315
ĠMg	11312
Comment	11311
urious	11310
Ġblade	11308
ĠEffect	11308
Ġclassroom	11307
Ġincidents	11305
Ġgoogle	11303
lux	11302
Simple	11300
Ġprimer	11299
ĠAla	11297
ĠSay	11296
heart	11295
Ġdeadline	11295
upper	11287
Scope	11286
)\\	11284
ĠBlood	11284
xh	11279
Ġinfectious	11279
particle	11276
Ġclearance	11275
ĠBin	11275
Ġprospect	11274
ĠAssistant	11270
mother	11269
erate	11267
Ġannounce	11267
stant	11266
Ġconcurrent	11264
corporate	11262
Ġseemingly	11262
Ġrhythm	11257
Ġcorrections	11255
ĠCit	11254
ĠWHERE	11253
Ġcertified	11250
Following	11249
oking	11248
ĠSeason	11248
Ġsheep	11247
Ġlocus	11244
Ġ.$$	11244
Prote	11242
Paul	11242
ĠTrib	11240
eks	11239
tian	11238
480	11237
Ġrecommendation	11236
ĠBroad	11236
Ġhorses	11235
Ġevolved	11235
Ġconjunction	11233
Player	11231
fileID	11230
\}$.	11230
JP	11229
Ġgraphics	11228
Related	11227
ĠTerm	11223
254	11221
boolean	11218
Obv	11216
Ġsing	11216
ĠAffairs	11216
forward	11215
extra	11214
ĠNASA	11214
Ġcube	11210
Ġsubspace	11209
pus	11208
062	11208
Ġgravitational	11206
Ġholder	11205
wski	11204
Tom	11204
Ġteen	11204
ĠPLA	11203
ĠGET	11202
ĠiPhone	11199
dash	11198
Ġundergoing	11198
Ġcursor	11197
Ġtwelve	11194
Ġrotating	11193
Ġorthogonal	11193
Ġharvest	11190
Ġfracture	11190
Ġdynamical	11189
ĠSaint	11189
Ġdesert	11188
mum	11186
Ġawards	11186
Ġdemonstrating	11183
Internal	11181
ĠDave	11181
ĠVS	11175
worthy	11174
cter	11173
ĠBeing	11170
information	11163
Ġupward	11162
Ġresume	11162
iform	11160
Far	11158
rix	11154
TEM	11153
Ġai	11153
ĠStop	11152
Cast	11151
ĠMERCHANTABILITY	11151
Ġrecombinant	11150
Ġcouples	11150
Ġactin	11150
Ġinsurer	11147
ĠNormal	11141
1002	11140
))\	11139
Ġordinance	11139
rance	11138
Ġpublications	11137
Ġachieving	11137
Ġjournalist	11136
Ġfool	11136
ĠSize	11136
ĠTree	11135
ĠEg	11133
Green	11132
404	11132
ĠPRE	11131
Should	11130
erson	11129
views	11127
iamo	11127
login	11125
ĠNigeria	11124
Ġnights	11122
Ġ1974	11120
Ġsorts	11117
kat	11116
Render	11113
ĠElectric	11111
vention	11110
Mer	11110
Ġenrolled	11110
Ġtopology	11105
Ġnest	11104
Ġ--------	11104
DIA	11103
independent	11101
)](#	11101
Ġhoped	11101
ĠsiRNA	11099
Ġpressed	11096
ĠAppendix	11093
ĠAbe	11093
nei	11091
Us	11089
Ġempower	11088
Ġspontaneous	11086
ĠCIA	11086
Descriptor	11084
resistant	11083
Ġglance	11080
ĠCham	11078
citing	11076
Ġreside	11074
Ġgest	11073
Ġcontacted	11072
){\	11068
Ġtubes	11067
Ġinappropriate	11064
Foo	11063
Ġapolog	11063
ĠPerson	11063
sent	11058
emphasis	11057
eller	11057
environment	11055
;}	11055
acts	11054
ĠDin	11054
emic	11053
Ġunemployment	11053
Ġthreads	11053
program	11050
conn	11050
Ġintegrate	11048
Though	11046
woman	11044
Memory	11041
Ġactivate	11040
ĠCart	11038
ĠEngineering	11036
Ġsends	11035
Ġretrieve	11031
ĠJacob	11031
243	11030
('.	11030
Ġdirectors	11030
Ġconvictions	11028
244	11026
miR	11025
229	11025
Ġears	11024
Ġoutputs	11019
Ġflame	11019
Ġcorrupt	11019
Ġtheft	11018
morphism	11017
Ġpromotes	11015
Ġspine	11013
ĠSci	11013
ĠSDS	11013
Ġfatigue	11010
ĠCounsel	11007
Ġpn	11006
Ġcontributes	11006
Ġbabies	11006
India	11004
ĠResources	11004
Ġadaptive	11003
BG	11002
386	11001
Ġcul	10998
Ġloops	10997
Ġloving	10996
ĠINS	10996
Ġfoster	10994
President	10992
ĠJerusalem	10990
male	10989
540	10984
Ġflesh	10983
lls	10978
esis	10978
Pass	10976
Ġâī¤	10976
ĠWH	10976
ĠPractice	10975
Ġkinetic	10972
ĠStatistical	10971
ĠMaterial	10971
Ġapple	10969
ĠNeither	10969
089	10968
wk	10965
ĠJar	10964
giving	10962
324	10961
ĠNei	10961
Ġisomorphism	10960
ĠMarc	10960
Ġaqueous	10959
radius	10955
ades	10953
ĠFourier	10952
months	10951
Ġclustering	10950
console	10948
nds	10947
Ġinstability	10946
ndo	10944
={\	10944
Ġproposals	10944
Ġawake	10942
inu	10940
Ġrejection	10939
ĠExchange	10939
mad	10938
322	10938
Ġattain	10936
Ġinch	10931
Ġconcentrated	10931
ĠDie	10931
sche	10930
TOP	10928
tant	10926
Ġconceal	10925
Ap	10924
potent	10923
\](	10920
Ġbeneath	10920
igious	10918
Ġharmful	10918
Ġextensions	10918
304	10917
ViewController	10916
ĠCloud	10915
Ġuniformly	10914
Ġpharmaceutical	10914
Ġdrunk	10913
Serial	10912
Ġdistinguished	10911
ĠWright	10909
Ġsword	10906
Ġweighted	10905
Ġinstructed	10905
Ġdrinks	10903
Ġtransfected	10902
Ġsig	10901
Â©	10900
Ġheated	10899
Ġsons	10893
Ġlegacy	10893
Ġalkyl	10893
ĠEmpire	10892
predict	10890
Vs	10889
ĠEPA	10887
Ġinadequate	10886
Selection	10883
Ġnegatively	10879
Ġ230	10879
Ġjunction	10876
ĠDetroit	10873
Standard	10871
Ġcooked	10871
ĠPetitioner	10871
artifactId	10869
Ġgym	10868
props	10867
Ġsynthesized	10867
Ġdiffuse	10866
Ġinfluences	10864
Ġstocks	10863
Ġbacked	10863
Ġadmin	10863
271	10862
Ġfollower	10862
Ġcriterion	10862
itia	10861
hoo	10860
tical	10859
ĠCost	10859
-}	10856
ĠThompson	10856
Ġabroad	10854
ĠOpp	10854
rose	10852
Ġeigen	10852
ifiable	10851
idas	10851
ĠAustin	10848
commit	10847
Ġsurveys	10846
ĠRoute	10846
ĠQuant	10843
Ġwrapped	10841
Ġqueries	10841
published	10840
ĠCAN	10840
Ġfermion	10838
Ġautomated	10837
ĠAnna	10837
219	10836
utter	10835
Ġhopefully	10833
stim	10831
Scroll	10831
ĠHamilton	10830
Ġtranslated	10828
ĠMol	10828
Ġcategor	10825
ASK	10824
hide	10823
basic	10823
Ġhepatic	10823
Ġdeciding	10823
Ġtetra	10822
="-	10818
ĠRecently	10818
coin	10817
Trace	10813
Ġcervical	10812
Ġresection	10808
ĠSweden	10807
Ġwhilst	10806
ĠDim	10806
Socket	10804
Ġreleases	10804
Ġdrew	10804
EH	10803
single	10801
ĠSafety	10800
uble	10799
typename	10799
ĠRU	10799
Ġlanding	10798
istent	10797
Ġcomprised	10795
ĠRespondent	10795
Ġstatutes	10791
ĠLORD	10791
von	10790
Ġsensory	10790
Ġcel	10790
ĠBerg	10790
vine	10788
mph	10787
Ġhumor	10787
Ġbiopsy	10779
hbox	10776
087	10776
Ġutilizing	10776
Ġtoll	10776
Ġmyocardial	10776
ĠâĨĴ	10775
Limit	10774
Ġrelax	10774
Ġbilateral	10774
Ġethics	10770
National	10769
Ġpediatric	10769
mathop	10768
Ġridiculous	10768
Ġacceleration	10768
article	10764
Ġplotted	10764
ĠToo	10762
Ġ167	10760
239	10758
Ġpion	10758
Ġpsychiatric	10755
Ġhouseholds	10755
281	10754
Ġtact	10748
exception	10746
Ġunstable	10745
alent	10743
Ġdeploy	10737
Ġcollecting	10737
Ġdependency	10736
Ġeliminated	10735
Ġjam	10732
owner	10730
kul	10730
Ġseller	10730
ĠAnthony	10730
Ġshaped	10729
Ġfractions	10729
Ġrestored	10728
ĠHugh	10726
oids	10725
ffl	10724
Ġterrorism	10724
ĠEver	10723
apple	10721
Ġneutrino	10718
Ġhill	10718
Ġ166	10717
groupId	10715
Google	10708
315	10707
Ġlane	10706
Ġconsume	10705
das	10702
:-	10701
Ġheal	10700
ĠDemocrat	10699
047	10698
Ġpt	10697
Ġdelta	10694
ĠFall	10694
fetch	10692
Ġspare	10692
Ġopposing	10691
Ġmapped	10691
ĠVin	10689
083	10685
`)	10684
Profile	10684
ĠFDA	10682
Ze	10679
collect	10678
Ġenrichment	10677
tap	10676
Ġcommut	10676
ĠDiag	10676
})$,	10674
Ġquestioned	10672
Ġcalibration	10671
Ġgrows	10670
Ġmounting	10669
ĠIron	10667
ĠGuard	10665
Ġcomedy	10660
Bundle	10657
Ġencouraging	10655
expect	10654
Ġdeposited	10654
Ġdemanding	10654
Ġenabling	10653
Ġrounds	10652
ĠCos	10651
Ġwars	10649
Ġexploring	10649
Ġchemistry	10649
ĠOk	10649
something	10645
BV	10644
Ġscandal	10642
OAD	10641
),$$	10641
Rad	10639
STATE	10638
ĠRs	10636
Ġfears	10633
Ġreservoir	10632
Ġillustrates	10631
Ġabandon	10631
Py	10629
scopic	10628
mite	10628
Center	10627
talk	10625
ĠOlympics	10625
Mock	10623
Android	10623
Ġprobes	10622
bru	10620
Ġremembered	10620
Ġ}$	10618
Ġpreclude	10617
Ġfoam	10616
sheet	10614
Ġoffenses	10613
Poly	10611
ĠLady	10611
ĠCarter	10611
Mad	10609
Ġpublisher	10608
Ġexamining	10608
Ġequivalence	10607
Ġconfidential	10607
holder	10605
384	10604
lear	10603
).\	10602
dai	10600
Ġgrap	10600
Ġassessing	10600
Ġcumulative	10599
Ġcoaches	10598
Ġmall	10597
Ġembedding	10597
ĠMarx	10597
Ġdining	10595
^*(	10594
Ġwalks	10594
Ġjournalists	10593
Ġsen	10591
Ġimproper	10591
Ġmetals	10590
Ġ$_	10590
Ġtuber	10586
ĠINTO	10586
batch	10583
ĠSept	10579
Ã©m	10578
aku	10578
Ġanticipated	10576
Ġexpecting	10575
Court	10571
Ġbitcoin	10570
suppl	10569
Ġ10000	10566
Ġopponents	10564
urd	10562
Ġobservable	10559
ĠAtlanta	10558
278	10557
ĠANOVA	10557
CES	10554
treatment	10551
Ġedited	10549
Ġintimate	10545
Ġrestart	10543
aph	10541
Role	10540
ĠEngine	10539
father	10537
(__	10537
Ġmechanics	10537
Ġallocated	10537
elled	10534
261	10531
Ġprecip	10531
ĠRR	10531
ĠHAVE	10530
bigr	10528
Best	10528
ĠStaff	10528
+$	10526
oration	10524
\%	10524
ĠSummary	10524
Ġslower	10523
Ġpreceding	10521
uka	10520
Ġmountains	10520
ĠAff	10520
Ġconstitution	10518
ĠFestival	10517
ĠPlant	10516
profit	10515
Ġelevation	10514
Ġwir	10512
ĠPersonal	10512
Ġaes	10510
elect	10509
Ġgeometric	10509
ube	10508
ĠBarack	10506
Loader	10501
Sun	10500
ĠInput	10500
bias	10498
Ġbandwidth	10494
walk	10493
NUM	10493
Health	10491
Adv	10489
084	10489
ĠWL	10485
289	10484
ĠAK	10484
Depend	10483
Ġaxial	10483
Ġanalogous	10483
Ġ%}	10483
Ġsentiment	10481
Timeout	10479
Ġantibiotic	10479
ĠLiberal	10479
ĠSupplementary	10477
Ġ0000	10477
Ġprofession	10472
hia	10469
Ġallies	10468
ĠCOMP	10467
Ġqualify	10464
ĠMoscow	10464
Great	10462
Ġbypass	10462
ĠGreece	10461
built	10458
Proxy	10457
Ġauthentication	10456
Ġpancreatic	10452
ĠOT	10452
Ġmaximize	10451
Ġcorners	10451
Ġcontainers	10449
ouch	10447
Ġvec	10447
-->	10443
Ġcaps	10441
ĠCould	10440
Ġsummarized	10439
Ġpassengers	10434
Ġbubble	10433
ĠManchester	10431
:$	10430
Ġthoroughly	10429
Ġoverview	10429
ivities	10428
MODE	10426
constitutional	10425
ĠDeputy	10425
ĠLaboratory	10423
Ġpropagation	10422
Ġwhereby	10421
Ġmonster	10421
Ġborders	10421
236	10418
Ġwx	10418
Ġneutron	10414
Ġhike	10414
Ġagrees	10414
Ġattitudes	10412
Ġprecedent	10411
Database	10410
Ġadequately	10408
Conclusion	10407
ĠRevolution	10407
ĠNative	10405
esa	10404
Ġmalignant	10402
Proof	10401
Ġoutlined	10400
Ġtremendous	10393
Ġsurvived	10392
Ġhomogen	10391
itions	10390
Ġcoalition	10389
ĠLarge	10387
frequency	10386
ĠEight	10383
important	10381
ĠLB	10381
509	10379
idation	10377
classes	10377
graf	10376
Ġrecipient	10376
Ġcontinuum	10374
Native	10373
Move	10373
Unknown	10372
Term	10370
Ġperformances	10368
Anti	10366
ĠSTAT	10365
))))	10364
'_{	10364
305	10362
Ġbeds	10360
foreach	10359
Ġheaders	10359
Ġdeadly	10359
RIGHT	10356
Ġfiltered	10355
ĠPatrick	10355
alloc	10354
Ġlimb	10351
Ġcran	10350
Ġsymptom	10349
Ġsensing	10349
Ġproving	10349
ĠClose	10349
Ġdirty	10348
Ġsoy	10347
Ġlegend	10347
Statement	10345
Sil	10345
ĠNazi	10344
Ġluminosity	10343
Follow	10342
Ġquest	10342
boy	10337
zym	10334
policy	10333
marine	10331
USA	10331
ĠContract	10331
trivial	10327
Ġinteracting	10325
Ġtout	10322
Ġsandwich	10322
Ġpneumonia	10322
Ġbrutal	10322
wards	10317
Ġinteractive	10313
SON	10312
sound	10311
Ġpreferences	10311
VR	10310
Ġcritics	10309
ĠCountry	10309
Ġcrown	10306
RING	10302
]*	10301
Still	10301
ĠAlaska	10300
Ġexpose	10299
Ġcampaigns	10298
Ġquotes	10295
Ġorganisation	10295
Ġmaintains	10292
Ġspecialized	10291
unk	10289
Ġbesides	10288
memory	10286
Ġfixing	10286
vubuntor	10285
Ġproductivity	10285
Ġcourage	10285
Ġbeans	10284
ĠBASIS	10283
Ġnotable	10282
Ġimmer	10282
Ġembrace	10282
Ġconnectivity	10279
lers	10275
Ġgoverned	10274
!(	10273
ĠPenn	10273
ĠNation	10272
constant	10269
Ġcurrents	10267
Ġclone	10267
ĠIntel	10265
Include	10264
Ġdeformation	10264
ĠScript	10259
MAC	10258
Ġcompiled	10258
Ġsimul	10257
Ġproximity	10255
Ġaddiction	10255
ĠWard	10255
Ġnuts	10254
friendly	10252
collection	10252
components	10250
Blue	10249
Ġtale	10249
Ġgrasp	10249
Ġreversal	10248
ĠWR	10247
science	10246
Ġconvince	10246
socket	10244
Ġengines	10243
surface	10239
Ġcomic	10239
638	10238
Ġharassment	10238
Ġrolled	10236
Area	10235
ĠTaiwan	10235
Ġbeating	10233
760	10232
ĠRelations	10231
Ġtx	10229
Âı	10227
Ġpotentials	10227
Several	10225
kz	10224
Est	10224
ĠFranklin	10224
chin	10223
ĠMF	10223
Ġmeters	10221
Ġjunior	10220
416	10219
Ġbanking	10216
Ġsituated	10215
ĠEconomic	10215
Ġenriched	10214
ĠEarly	10213
Ġinhabit	10212
Ġchampion	10212
Ġperforms	10210
ĠWOR	10209
Ġain	10208
282	10203
Ġrecruited	10202
Ġcute	10202
Ġburied	10202
ĠJose	10202
ĠÅ	10201
VB	10198
Ġ"'	10197
ĠTrial	10196
Ġcontraction	10195
Ġdefeated	10193
Ġcytokine	10193
ĠGulf	10192
Ġindicators	10191
between	10190
Ġpronounced	10188
Ġequals	10186
Ġshoulders	10183
Ġgaming	10182
tell	10181
numbered	10180
ĠAnimal	10177
scroll	10176
Ġoptimize	10174
Temp	10172
'])	10171
Ġextensively	10170
Ġparental	10169
Ġsaline	10167
INS	10166
Ġmineral	10162
EDIT	10161
}}.	10160
Ġsensation	10160
Ġpathological	10160
Download	10158
Ġracist	10158
Ġthemes	10155
+++	10152
ĠSus	10152
HTTP	10151
"\	10150
ĠAtlantic	10150
ĠMine	10148
Ġdielectric	10147
Ġabnormalities	10146
does	10145
Ġdeployed	10145
Ġceremony	10145
Ġreplicate	10144
need	10141
quote	10140
Ġcd	10140
Ġtouched	10137
olate	10136
Ġcirculation	10136
ĠGreg	10136
Ġrelay	10134
Ġgirlfriend	10132
ĠStatus	10130
Ġammo	10129
ĠmiRNA	10128
Ġconceptual	10128
uki	10127
ĠEND	10126
Ġresponding	10124
Ġpresume	10121
uche	10120
ĠVisit	10120
Ly	10119
Ġconverge	10117
tart	10116
HAR	10115
ATC	10115
Ġdepicted	10115
ĠDigital	10115
Ġarrangements	10114
1004	10113
jquery	10112
ĠLat	10112
storage	10110
Ġconsequently	10109
ĠSingle	10108
TAL	10100
oste	10099
logic	10097
Ġmerger	10097
Ġlover	10097
*>	10096
Ġexercises	10096
pages	10095
Ġranks	10095
Ġspiral	10094
ĠBasic	10094
Ġcreator	10091
Ġbrake	10090
Ġaccepting	10090
March	10089
Ġwipe	10089
focus	10088
Conn	10087
Ġzones	10087
ĠStatement	10087
Symbol	10085
Ġhunting	10082
Ġdisable	10081
catch	10077
ĠNMR	10077
pling	10076
Ġfeaturing	10075
Ġbullet	10075
Ġimplicit	10072
ĠBed	10070
hub	10068
-)	10068
Ġadhesive	10067
Ġstranger	10066
Ġlb	10060
significant	10059
Ġinterfaces	10058
Ġgaps	10057
Ġcontour	10054
detect	10053
Library	10052
Ġdemanded	10052
Ġdecree	10052
Ġ174	10052
ĠKC	10050
Ġtrips	10049
Ġparadigm	10049
ĠRobinson	10048
Ġpound	10047
1979	10046
feature	10045
personal	10044
Coord	10043
237	10043
Ġsham	10042
alin	10041
ĠLip	10040
yon	10038
ĠTed	10037
ĠVis	10034
Ġdeputy	10032
INST	10031
Ġgaze	10031
Ġcompositions	10030
trust	10029
ĠHistoric	10029
ĠAgent	10028
KB	10027
Ġsophisticated	10027
Ġconn	10027
ĠDeath	10026
ders	10024
ĠAdams	10024
Details	10023
DEN	10022
Ġrabbit	10022
Ġalgebraic	10022
ĠYES	10017
ĠReserve	10017
ĠNuc	10017
toggle	10016
ĠComputer	10016
Ġsearches	10008
290	10006
Ġcyclic	10006
Ġheadache	10005
283	10002
Iterator	10001
Ġbiochemical	9999
ĠBody	9998
Ġspreading	9997
NEL	9994
274	9994
%"	9993
Ġcontradiction	9990
oys	9989
Low	9989
Ġoptic	9989
Ġtimeout	9988
Ġputative	9986
Ġcentered	9984
Ġbones	9983
Ġante	9983
Ġsuccessive	9980
Ġben	9980
mill	9978
hore	9978
Ġarrows	9978
ĠGot	9978
ited	9973
volution	9971
Ġvoices	9971
VG	9967
Short	9966
Ġobsess	9965
government	9964
ĠWang	9964
249	9963
Ġgenerous	9962
jin	9959
Ġexponent	9959
Ġprohibited	9958
tern	9957
Desc	9957
cott	9956
ĠActive	9956
looking	9954
Ġcalculating	9951
ĠBreak	9951
generated	9950
Having	9950
Ġaccompanying	9950
qt	9947
Ġsongs	9947
Ġclicking	9947
ĠWARRANTY	9947
Ġfriction	9946
286	9943
TRUE	9940
Ġnotification	9938
Ġpuzzle	9937
ĠBeijing	9937
created	9936
Ġgently	9935
ĠDead	9934
ĠArthur	9934
308	9933
Ġhes	9932
Ġbenchmark	9932
abc	9930
Transaction	9930
Ġmeso	9928
341	9926
ĠTol	9925
Ġirregular	9921
Ġtransplantation	9920
ĠFront	9920
SSL	9919
Ġpathogenesis	9918
ĠSound	9918
subject	9916
266	9916
Ġdough	9915
Ġultrasound	9914
,.	9913
ĠPharmac	9913
ĠLou	9913
Ġpressing	9910
Ġ[âĢ¦]	9910
ĠPap	9908
Ġfreeze	9907
Ġcotton	9907
Luc	9906
Ġcattle	9906
Ġpredominantly	9904
Ġii	9899
ĠMMP	9899
ĠKings	9899
hre	9898
cry	9898
258	9898
Ġspill	9897
#.	9895
Ġwaited	9895
Ġadmits	9895
Ġportfolio	9893
Ġinsult	9893
1100	9891
Ġnucleotide	9891
Ġnomination	9891
Metadata	9889
Ġsoccer	9889
ĠInternal	9887
Ġquantified	9884
Ġguided	9884
Ġensemble	9884
configuration	9882
Ġrevenues	9879
ĠFifth	9879
Private	9878
.<	9878
ĠShin	9878
GW	9877
Ġphotographs	9877
{%	9873
lik	9873
aged	9873
Act	9873
Ġwallet	9871
Ġcelebration	9870
Ġimproves	9868
Ġemotion	9867
shadow	9864
ocal	9864
Ġadvise	9864
ĠProblem	9864
Ġcorrespondence	9863
ĠKennedy	9862
~/	9861
alan	9860
Ġgifts	9856
cutaneous	9855
plin	9854
osomal	9854
Ġwooden	9854
Ġ}_	9852
Ġconsiders	9850
bott	9849
Ġanalyzing	9849
ĠCox	9849
gens	9848
Ġskilled	9848
osomes	9847
405	9847
Ġarterial	9845
Ġattrib	9844
Ġ404	9844
Ġ1971	9844
zan	9842
347	9842
456	9841
Ġseverely	9840
Ġhomeless	9840
Ġmanufactured	9839
279	9838
coding	9837
054	9837
Ġsoluble	9837
ĠSr	9836
Ġurged	9831
ĠCommerce	9829
VD	9827
defendant	9825
resources	9821
ady	9821
Ġdarkness	9818
Ġcollateral	9818
Ġdressed	9817
Ġcortical	9816
227	9815
Ġspherical	9815
Ġjs	9813
Ġoutlet	9812
qs	9808
Ġoscillator	9808
slash	9807
repeat	9807
Ġregimen	9804
Ġboa	9804
Ġbadly	9802
Ġathletic	9802
Ġspecialist	9801
Ġranged	9801
Ġprisoners	9801
wx	9800
Ġplasmid	9800
uated	9798
Ġstun	9797
226	9795
ĠMetro	9793
Ġbugs	9792
amel	9791
ĠKentucky	9791
ĠSecret	9790
ĠRoom	9790
omas	9788
Ġsectors	9788
ĠMann	9788
ĠLane	9788
Ġjavax	9787
ĠDelhi	9787
Domain	9786
Could	9786
coat	9784
Ġswitched	9783
Ġza	9781
aft	9779
Ġdashed	9779
ĠCreek	9777
Ġterminated	9776
ĠPDF	9776
Notes	9775
Ġimprisonment	9775
Ġpap	9773
Ġalias	9772
ĠGraham	9771
Ġacres	9769
Ġvarieties	9768
Ġredistribute	9768
Ġintercept	9767
Ġpaired	9766
Ġot	9764
Ġsleeve	9763
Ġpolish	9761
ĠMN	9760
fon	9759
Michael	9759
344	9759
342	9759
).](	9759
Ġgig	9756
detail	9755
HN	9755
Ġfen	9755
Ġ"{	9754
Ġinability	9753
ĠEstate	9752
/-	9751
chia	9750
ĠSide	9750
Attributes	9749
402	9748
Ġbladder	9748
ĠEvidence	9747
secret	9746
ĠACC	9745
Variable	9744
Ġpleasant	9744
tries	9743
visible	9741
MON	9741
Ġconstituted	9740
ĠBattle	9740
company	9737
Ġ900	9736
Ġdictionary	9735
radio	9732
Eu	9731
ĠStory	9730
Ġrefusal	9729
adjust	9726
Ġstartup	9726
Ġembryos	9726
ales	9724
pH	9722
SCRIPT	9721
ĠNeu	9721
Bank	9719
Ġweigh	9719
Ġecosystem	9719
Ġprognostic	9717
Ġdisregard	9717
enabled	9716
Ġlid	9712
Ġexpressly	9712
ĠEXPECT	9712
Ġrecurrent	9708
Ġfiltering	9706
alias	9705
Folder	9705
ĠHarvard	9705
xis	9704
ĠRegion	9704
Ġtransistor	9703
Ġflush	9703
ĠTraining	9703
inine	9702
glia	9702
ĠMobile	9702
Ġhalt	9701
ogram	9699
Ġuncertain	9699
hid	9698
sep	9697
Ġpledge	9696
ĠSex	9696
sai	9695
cj	9694
Ġdrum	9694
Ġconsultant	9692
circle	9691
Region	9691
Ġinoc	9691
Ġpunct	9690
Ġsplitting	9689
Ġaforementioned	9689
going	9688
ĠMedicare	9688
Ġdesigner	9686
Ġ1968	9686
<!	9683
*[	9681
Ġshear	9681
Ġsubstituted	9680
ĠTurkish	9680
808	9679
Ġlact	9679
Ġsupplemented	9678
tensor	9677
eD	9675
allow	9675
Ġdigest	9675
Defendant	9674
ĠBruce	9674
ĠTag	9672
iki	9671
Ġcyber	9671
ĠNeed	9671
?!	9669
Ġraid	9669
Ġdozens	9669
ĠPhase	9666
ĠTemple	9665
Ġseized	9664
Ġmarry	9659
ĠCarol	9659
Ġinterrupt	9658
ĠGFP	9658
ĠIntroduction	9652
ĠIRS	9647
Ġclamp	9646
Ġrevel	9645
Ġverbal	9643
Ġendless	9643
nost	9641
.'"	9641
Ġadvers	9641
Ġtons	9640
Âª	9639
ĠMem	9638
246	9637
ĠFix	9636
ĠScr	9635
progress	9633
kyl	9633
pattern	9628
Ġoptimized	9627
ĠWM	9626
ĠNelson	9623
Ġ"^	9623
Ġjacket	9621
Ġdefinite	9621
Ġcompelling	9621
Ġcleared	9621
nium	9619
Ġaggregation	9618
acon	9617
Ġbears	9617
TIF	9615
Ġunreasonable	9615
Ġlifted	9615
ĠPred	9614
ĠEvans	9613
erts	9612
DQ	9611
Ġdilution	9611
ĠGordon	9611
Through	9610
Ġket	9610
Ġmalaria	9609
inated	9607
ĠSave	9607
ĠEverything	9607
Ġwings	9605
Ġprohibit	9604
Ġpresumably	9604
Ġmonomer	9604
ĠAlan	9604
Ġelectromagnetic	9603
Ġstochastic	9601
,(	9598
union	9597
amic	9597
JC	9597
bers	9595
ĠFun	9594
fixed	9593
ĠBuild	9593
ometer	9591
Ġimplicated	9591
Ġmelt	9588
Ġbust	9588
ĠRepresentative	9588
qi	9585
Ġproves	9585
ĠAirport	9585
ĠCriminal	9584
Ġmarine	9582
ĠMachine	9582
XR	9581
287	9581
Ġtoe	9581
ĠLite	9580
Figures	9579
parameters	9578
Ġaide	9577
Ġbay	9576
proxy	9575
Ġdissolved	9575
CHECK	9572
Ġplanes	9572
Ġuh	9570
Ġdealt	9570
ĠIraqi	9570
Ġmicrobial	9569
ĠAlexa	9569
Ġlien	9568
lde	9564
Ġspectroscopy	9564
ĠTai	9563
Ls	9562
Ġtechnological	9562
ĠLearning	9562
Password	9561
Ei	9561
Ġfocal	9561
Ġsignatures	9560
Ġroster	9559
oting	9558
Err	9558
Ġports	9558
355	9556
Ġfriendship	9556
ĠSydney	9556
ĠLegislature	9556
eria	9555
Ġamend	9555
Notification	9554
contains	9553
ĠSri	9553
**:	9552
Ġassumes	9552
ĠEVEN	9551
("%	9549
Ġft	9547
Ġunfortunately	9546
Ġensures	9546
Ġactress	9546
ĠWind	9544
Ġthreatening	9543
ĠBand	9543
ĠSTE	9540
ĠPast	9540
Ġcookie	9537
ĠPaper	9536
ĠAH	9536
Ġeuro	9534
Ġcolored	9534
electric	9532
IRS	9531
ĠLincoln	9531
Ġjuvenile	9529
ĠRomney	9529
constraint	9528
Ġhierarchy	9527
Ġdocumentary	9527
Ġusername	9526
blin	9523
nell	9522
Ġ\~	9522
Ġmetadata	9519
Ġagriculture	9519
ĠGill	9517
Rearrange	9516
Ġdischarged	9516
Ġacetyl	9516
Ġurgent	9514
Ġfare	9513
Ġadolescents	9512
Similar	9510
quin	9507
ĠWinter	9507
257	9506
iles	9505
Ġcarbohydrate	9504
eating	9503
Ġleather	9503
Ġaller	9501
dense	9497
Ġlineage	9496
services	9494
Ġroast	9494
520	9492
escence	9491
HING	9491
Ġfade	9491
mple	9490
Yet	9490
Ġdwell	9489
ĠItem	9489
ension	9486
Ġnanoparticles	9486
ĠSNPs	9484
ĠClient	9484
}).	9483
Ġcoherent	9483
ĠBuy	9482
Ġknot	9481
WD	9480
Ġcontributor	9480
Ġhelper	9477
501	9472
ĠVR	9469
ĠFound	9469
253	9467
keeper	9465
Ġstadium	9463
ĠâĢĿ	9462
ĠCharlie	9462
Events	9461
Ġnutritional	9461
lesssim	9459
Ġinitialize	9459
abel	9455
ĠAvi	9454
DateTime	9453
Ġparliament	9451
ĠAntonio	9451
alog	9450
Ġworkplace	9450
Ġnullptr	9449
Ġgenus	9449
ĠIndus	9447
ĠHell	9447
Ġviolate	9446
Ġulcer	9445
heel	9443
Ġate	9443
Delegate	9442
Ġdeprive	9442
Ġbreathe	9442
ĠStewart	9442
sam	9441
Ġwarnings	9441
Ġattracted	9440
ĠSubsequent	9440
ĠLR	9439
paper	9438
549	9438
Ġwafer	9436
oning	9434
Ġfibrosis	9433
ĠBaltimore	9433
Ġpolymerase	9432
lift	9431
Sept	9427
Ġdelight	9427
ĠChairman	9427
0025	9426
Ġtrash	9424
Ġepidemi	9423
ĠRussell	9423
ĠMississippi	9422
Ġliteral	9420
Ġmetabolites	9419
rae	9418
ĠPope	9418
ĠPrint	9417
]$.	9414
Tal	9414
Ġpremature	9413
prototype	9412
ĠGram	9412
ĠEnvironmental	9412
bble	9411
Ġharmonic	9410
ĠStadium	9410
]'	9409
Ġurinary	9409
Ġopponent	9408
Ġdelivering	9407
Ġ$^{	9404
ĠSad	9403
bian	9402
Pattern	9401
Ġhockey	9401
Ġbrick	9401
iger	9400
Ġtimer	9396
inar	9395
Ġsnack	9395
Ġqual	9395
ĠHunt	9395
Ġconductive	9392
gia	9391
Boolean	9391
Ġsits	9391
ĠMG	9389
members	9387
Demo	9387
ĠMod	9382
Ġelaborate	9376
ĠBoolean	9376
Ġsender	9375
Ġcommissioner	9373
Ġpond	9372
Year	9371
Ġnevertheless	9371
ĠĠĠĠĠĠĠĠĠĠĠĠĠĠĠĊ	9371
ĠSET	9370
Fields	9369
055	9369
cook	9368
Ġrelatives	9368
Ġundermine	9367
ĠGray	9367
ĠDy	9367
Ġrehabilitation	9366
lact	9365
Ġtypename	9364
Ġlogs	9364
Ġchromatography	9364
ĠCover	9364
Ġutilization	9362
ĠNHL	9362
Ġconcentrate	9360
284	9359
nodes	9358
Ġmeter	9358
ĠDatabase	9358
longrightarrow	9357
ĠEnt	9356
Î¼L	9353
Ġdiploma	9352
Ġcomplementary	9348
Ġcrops	9347
Ġsubsets	9345
ĠiOS	9345
Ġnail	9343
Ġendpoint	9342
Selector	9339
Des	9339
365	9338
Ġcoordination	9338
ĠDouglas	9338
rese	9336
Ġspeeds	9336
Ġregulator	9336
Drop	9335
Ġmisconduct	9335
Ġovarian	9333
Ġalleges	9332
Ġsurvivors	9331
Pur	9329
Ġdependencies	9329
Ġchurches	9328
Ġbanned	9327
attributes	9326
Ġdisappeared	9326
ifiers	9324
Ġdelays	9324
webkit	9321
Ġinstitute	9321
Ġconstrued	9321
ikin	9319
OUNT	9319
ĠDrive	9316
ĠIndependent	9315
phen	9314
Ġmyelo	9311
Ġ\*\*	9311
dag	9310
Tw	9310
Ġcant	9308
Ġformally	9307
ĠUSD	9307
download	9306
Ġportal	9305
cracy	9304
Ġslices	9303
Ġpursuit	9300
agne	9299
Ġcruel	9299
ĠWAS	9292
Ġfibre	9291
ĠQuestion	9288
Ġdepartments	9287
localhost	9286
lated	9286
ista	9285
306	9285
primary	9281
Ġgreet	9280
Ter	9279
268	9279
ĠRegional	9278
ĠRV	9278
ĠFermi	9276
health	9275
Ġpopularity	9274
Ġghost	9274
ailing	9273
ĠClean	9273
ĠCompl	9271
ĠHER	9270
Ġprototype	9269
ĠResource	9269
Ġawful	9268
works	9266
Was	9265
sectional	9264
resolution	9264
Ġcombustion	9264
think	9262
Ġreflecting	9258
Ġvenue	9255
ĠVillage	9254
Ġthyroid	9253
iota	9252
ĠHonor	9252
Ġsimpler	9251
ĠmiRNAs	9251
Ġlocate	9251
omorphic	9248
ĠAustria	9248
317	9247
Ġ[(	9246
Ġmetastatic	9245
ĠRio	9245
1978	9244
Ġnowhere	9243
ĠMotor	9243
Ġcirculating	9242
umm	9241
gE	9241
WP	9240
Ġhunt	9240
ĠAlg	9240
oper	9238
jn	9238
Son	9238
Ġfailures	9238
Route	9236
Ġsurprisingly	9236
Ġmysql	9236
Ġphotons	9234
Ġfantasy	9233
Warning	9230
Ġwidget	9229
}}-	9227
Ġtrajectory	9227
vars	9226
ĠProduct	9226
Ġunchanged	9225
Ġgem	9225
Ġrevol	9223
Ġowns	9223
ĠSteven	9223
Ġquestioning	9222
:{	9221
Ġpraise	9221
fmt	9220
Ġoriented	9220
extension	9219
Ġlamin	9219
REF	9218
ARI	9217
328	9216
elling	9215
Ġritual	9215
Ġhonour	9214
Ġforegoing	9214
ĠMedi	9214
Ġtrains	9213
moz	9211
ĠClear	9211
Ġcompanion	9206
ĠBrexit	9206
Ġassessments	9205
Ġjumped	9204
aks	9203
versa	9202
Ġburned	9201
Ġproblematic	9199
ĠjQuery	9199
kp	9197
299	9197
ĠAra	9194
ĠJonathan	9192
Ġvulner	9190
ĠBlog	9188
cfg	9187
cape	9186
Ġclarity	9184
1977	9177
ĠEveryone	9176
???	9173
ĠFried	9173
Sync	9172
DY	9171
University	9170
Ġluxury	9170
Ġcredits	9170
Ġcheaper	9170
sso	9169
Ġfinishing	9169
ĠCleveland	9167
oha	9166
clusive	9166
Ġfifteen	9166
ĠCurrently	9163
erry	9162
392	9162
ĠModern	9158
063	9157
ĠOlympic	9157
Ġagonist	9156
201	9155
quarter	9151
Ġstreams	9151
Ġannually	9150
Ġinferior	9149
respond	9147
Ġcruise	9147
Ġgrams	9145
ĠScottish	9143
ĠGary	9143
Ġclouds	9141
Ġscripts	9139
Ġincoming	9139
Ġheterogeneity	9139
PAGE	9137
Perhaps	9135
Ġkingdom	9135
Ġselector	9134
Ġcomo	9134
UPDATE	9132
Progress	9131
oming	9130
Ġcousin	9130
ĠKhan	9130
ĠTab	9129
Ġunfold	9127
Ġpsychology	9127
ichi	9126
Ġcharter	9126
arily	9124
ander	9124
Ġcommander	9124
eight	9122
Resources	9122
Ġcanvas	9122
Ġunrelated	9121
Ġinventory	9121
Ġcrap	9120
libs	9119
Language	9119
leqslant	9118
888	9118
Ġappearances	9118
ĠPhillip	9117
ĠMultiple	9116
ĠâĢī	9114
eR	9113
ĠFast	9112
640	9110
Ġtrapped	9110
Ġbot	9110
_)	9109
Ġliberty	9109
352	9107
Ġcrush	9107
Ġdol	9106
journal	9105
volume	9104
many	9104
Ġworm	9104
April	9103
Ġsmiled	9103
Ġfifty	9103
Ġ1969	9103
gian	9102
Ġexpects	9102
Ġzinc	9100
links	9098
ĠProf	9098
devel	9095
Ġrenewable	9094
Ġpurchasing	9093
Ġconfined	9093
Among	9091
salt	9090
RH	9090
ĠColon	9089
Ġchase	9087
unal	9086
Ġeigenvalues	9085
Ġparser	9084
Ġlogging	9084
Ġverse	9082
anie	9077
"""	9075
Ġdropping	9075
though	9074
ared	9072
svg	9071
Ġspeakers	9071
wig	9070
Ġdistract	9069
Ġaccessed	9069
Ġpathogens	9068
Ġprimitive	9067
Ġctx	9067
Ġdirt	9066
ĠShop	9066
Ġwanna	9065
oko	9064
Track	9064
mart	9063
Ġislands	9063
()"	9059
Ġaxe	9059
chic	9058
Ġsupernatant	9058
Ġapproaching	9058
ĠWC	9058
ĠGDP	9056
Ġsorted	9054
Ġdistortion	9054
ĠCohen	9054
1976	9053
ĠDevice	9053
Ġtheolog	9049
TTC	9048
Ġrefund	9048
VL	9046
Ġrebuild	9046
icit	9045
Ġnested	9045
ĠOcean	9045
346	9044
sman	9042
Ġfleet	9040
Ġattendance	9039
ĠProgress	9039
Ġunions	9038
dil	9037
ĠNewton	9037
psin	9036
Ġpressures	9035
Ġcanal	9035
Ġbronch	9035
Ġpackets	9033
ĠProof	9032
Ġmentor	9028
Ġprecursor	9027
Direct	9026
Ġamplifier	9026
Keys	9025
Ġunto	9024
Ġ320	9023
Ġlinking	9022
Ġeconomics	9022
Ġcertification	9022
Ġpertinent	9015
Ġdwarf	9014
Ġcoaching	9014
ĠRH	9014
ĠCass	9014
ĠGrad	9013
Ġpathology	9012
Copyright	9011
Ġrecipients	9011
Ġimpressed	9011
|=	9008
optional	9008
Ġcolony	9008
ĠBis	9007
stock	9006
292	9005
Cook	9004
ruby	9003
Ġsmartphone	9003
Ġrifle	9003
Visible	8999
Ġadvertisement	8998
Ġ206	8995
rek	8994
lins	8993
moving	8991
(<	8989
jit	8988
osin	8987
Team	8987
Ġrailway	8987
567	8986
Ġpall	8986
ĠTechnologies	8986
existing	8985
Uh	8985
Ġsuits	8984
Review	8983
Ġloci	8983
ĠSnow	8982
downarrow	8979
Ġlacks	8977
database	8976
Ġsexually	8973
Ġappropriately	8973
ĠRange	8973
Ġepidemic	8969
Ġairway	8969
ĠSwitzerland	8969
story	8966
inase	8966
Ġgp	8966
ANS	8964
Ġrated	8963
Ġlawmakers	8962
ctl	8961
Ġtrafficking	8959
Ġtorn	8959
Ġjustification	8959
Such	8958
Ġsimultaneous	8955
ĠTABLE	8955
ĠHot	8955
Ġslave	8953
ause	8952
FW	8951
six	8950
cele	8950
Ġreminded	8949
erman	8948
Ġneurological	8948
ĠWalter	8948
Ġdisplaying	8947
Ġmonetary	8946
Ġelimination	8946
glob	8945
TW	8942
stylesheet	8941
ERY	8940
chs	8937
Ġdisappointed	8937
ĠLoren	8937
iller	8936
HG	8936
.");	8933
Ġenters	8933
Ġengineer	8933
ĠIdea	8928
fied	8924
Ġassured	8923
INSERT	8922
ĠMale	8922
Ġcharity	8921
ĠComponent	8921
Ġgrains	8918
Ġaccounted	8918
ulations	8917
agger	8916
Ġinterviewed	8916
eden	8914
ĠEp	8913
Ġobey	8910
Ġcoated	8910
ĠNever	8910
ÎºB	8908
average	8908
Ġherb	8906
Ġwondered	8905
typ	8904
ĠLiving	8904
ĠCampbell	8901
Ġwheels	8900
dant	8899
Nor	8899
chat	8898
KR	8897
Ġtrusted	8897
lÃ©	8896
ĠCurr	8896
Ġminus	8894
Ġballoon	8894
Master	8893
Ġquantify	8891
auf	8890
Ġpoet	8890
ĠMode	8890
Nothing	8888
Ġmoisture	8888
Fun	8887
ĠHREF	8887
Ġtaxpayer	8886
Ġemploying	8885
ĠMIT	8885
Ġdownward	8884
Ġ1967	8884
329	8880
ĠIndividual	8880
ĠLetter	8879
OTH	8878
Ġ260	8878
Ġstays	8877
Ġcostly	8877
ĠSignal	8877
Ġchunk	8875
ĠEmail	8874
critical	8872
ĠReed	8872
ĠClassic	8872
385	8871
Ġsquares	8871
loader	8870
Ġstrongest	8870
crypt	8869
Furthermore	8869
Ġamplified	8869
Ġtransgenic	8866
\}$,	8865
Hub	8863
Ġflavour	8863
ises	8862
Ġaz	8862
ĠBH	8862
marked	8861
issue	8860
design	8859
Fire	8859
Ġlaughed	8859
Ġ-----	8859
783	8858
Ġguards	8858
Ġwick	8856
Ġsecurities	8856
Ġadviser	8856
Ġseventh	8855
Ġmicrowave	8855
Ġintegers	8853
ĠPeace	8853
ued	8852
Ġcommerce	8851
Ġscream	8850
Ġintravenous	8850
Ġ231	8850
chart	8849
Ġdefective	8846
Ġarthritis	8846
Ġvagina	8845
ĠQuality	8842
Ġviewers	8841
Ġdash	8840
eam	8837
ĠPor	8837
statement	8836
Ġnormalization	8836
processor	8835
dou	8835
WARN	8835
Special	8835
Ġstandardized	8835
Ġretreat	8835
Ġ211	8835
ĠSNP	8832
Ġuncertainties	8830
buck	8829
ĠYang	8826
istance	8823
available	8823
Wall	8817
Yu	8816
Ġ270	8815
eron	8814
sson	8813
Extension	8813
say	8812
gM	8809
Ġcomplained	8808
Ġfaint	8807
Ġaffirmative	8807
Kar	8806
ĠCBS	8806
Ġcollagen	8804
ĠMono	8801
oles	8800
Ġannotation	8800
ĠKenya	8800
ĠIntelligence	8800
aces	8799
/_	8799
phag	8798
pedia	8798
protocol	8797
Ġlabeling	8797
FROM	8795
Ġoverhead	8794
Human	8792
Ġcompassion	8792
Ġdelegate	8791
Ġhiding	8790
Ġslides	8789
Ġappealed	8789
pacing	8788
ORS	8788
ĠLabel	8785
ĠAlbert	8785
ctive	8784
ĠMORE	8784
Ġfirearm	8783
Ġanniversary	8783
Ġleap	8777
TOM	8776
Ġcc	8774
ĠTU	8774
Ġelliptic	8773
Sequence	8772
ĠEva	8772
Const	8771
setup	8770
Would	8769
Ġpractically	8767
291	8764
ĠMembers	8764
tica	8763
)));	8763
tL	8762
brane	8762
Ġvaccines	8762
ĠOriginal	8762
hift	8759
Ġdemonstration	8758
PW	8757
Ġchiral	8757
Ġonion	8756
1234	8755
Ġlungs	8755
ĠSend	8755
ader	8754
Weight	8754
Unfortunately	8753
ĠDeep	8753
}}[	8750
"`	8750
ĠLad	8750
Ġthorough	8749
ectomy	8748
Ġhonestly	8747
bye	8744
ĠVL	8744
Ġshallow	8743
Ġpicks	8743
Ġmt	8743
Ġdies	8743
sters	8740
atl	8739
ĠMaterials	8739
^*_	8738
Ġoperative	8738
Ġtemper	8737
road	8736
STATUS	8734
Ġlicenses	8733
tml	8732
Ġobs	8732
cking	8731
ĠKill	8731
posing	8730
Ġbolt	8730
Ġacet	8730
Ġsketch	8729
Ġmega	8729
Ġreproduction	8728
XL	8727
ĠSuperior	8727
ĠRecent	8726
Ġscholarship	8725
iring	8721
Ġstressed	8721
Ġbake	8721
credit	8720
?.	8719
667	8719
ĠLICENSE	8717
Ġnewsletter	8716
Ġdressing	8715
Ġconjecture	8715
Timer	8713
Police	8712
Ġascertain	8712
ĠTower	8711
origin	8709
ĠTravel	8709
Ġrestoration	8708
ĠZn	8708
Ġdrone	8707
Ġcollections	8707
xFF	8706
Success	8706
Ġdepletion	8706
Ġtile	8704
convert	8702
sizing	8699
ĠTRUE	8699
ĠAlliance	8699
gage	8698
Ġisolate	8698
Very	8697
Ġtexts	8697
Ġhorrible	8697
Ġcarpet	8696
Ġcapsule	8695
Ġsperm	8693
emptyset	8692
ĠASP	8691
Ġsummit	8690
Ġleverage	8689
navbar	8688
Ġpg	8688
Ġgenerators	8688
IFT	8686
ĠOFF	8686
ĠIssue	8686
Ġglasses	8684
Ġapologize	8683
stats	8681
Ġreminder	8680
Bill	8673
Ġattacking	8672
ĠElection	8672
$-$	8669
signal	8668
eaf	8668
%"}	8667
Ġworthy	8666
errors	8662
Ġprojections	8660
ĠCastle	8658
Ġlongest	8655
Ġprecious	8654
Ġtemporarily	8649
Ġgotta	8649
ĠAlternatively	8648
grams	8647
.__	8645
Ġcompartment	8645
Ġseizure	8642
Ġinhibits	8641
Ġbreeding	8640
ĠFinance	8639
Ġholy	8638
Â¢	8637
ĠLawrence	8637
ĠBishop	8634
Ġgrabbed	8633
writing	8632
Ġwells	8631
Ġaa	8631
ĠLIMIT	8631
ĠDru	8631
Ġdopamine	8630
Ġheadquarters	8629
Ġtrunk	8628
Ġpenalties	8625
ĠPrevent	8625
Site	8623
ĠPortland	8623
rish	8622
oric	8621
Ġeducated	8621
Ġadherence	8620
Allow	8616
Ġdent	8616
421	8615
'];	8615
Ġdetention	8615
generate	8614
Analysis	8614
Ġresting	8613
)âĢĵ(	8612
Ġdiagrams	8611
Ġtokens	8609
ĠTrail	8607
Ġwires	8606
Ġstrengths	8603
Ġmorphism	8603
Ġinhal	8602
ĠFramework	8601
anto	8600
Ġsubunit	8596
Ġcrystall	8596
Ġconvincing	8596
building	8595
Ġstruggled	8595
348	8593
Ġprotesters	8593
Ġmitochondria	8591
Ġcheek	8588
ĠRh	8588
ctrl	8587
!!!!	8587
Ġrefresh	8583
Moreover	8582
ĠGrid	8582
Ġelegant	8580
Ġdescent	8580
Ġtreasure	8579
Ġsuffice	8577
Ġmorbidity	8575
enol	8574
Failed	8574
Ġphp	8574
weak	8573
oplasm	8572
ĠVegas	8571
Tests	8570
Ġpricing	8570
kernel	8569
Ġporn	8569
argument	8568
Ġsampled	8568
Ġretinal	8568
picture	8567
branch	8567
ĠCrime	8567
ĠHey	8565
Ġterrorists	8564
plex	8561
-[	8561
Ġhepatitis	8559
film	8558
Ġquadratic	8558
Ġprone	8558
Ġhiring	8558
Ġflowing	8558
ĠRate	8557
charge	8556
Ġpolynomials	8556
ĠDas	8556
('/	8552
ĠPutin	8552
adm	8551
Elements	8550
Ġpotatoes	8550
Ġ[],	8550
Ġdementia	8549
Ġuncle	8548
brain	8547
Ġintentional	8547
Ġbatteries	8547
ĠFish	8547
Ġrefusing	8544
Ġsubdivision	8538
Ġbeverage	8537
ĠFlu	8537
()).	8536
Ġimported	8536
Ġbiomarkers	8536
ĠVEGF	8536
Ġflor	8534
ĠONE	8533
Ġsucceeded	8531
immune	8528
Fix	8526
Encoding	8526
boldmath	8525
atives	8525
DAY	8525
065	8525
Alex	8524
builder	8522
Ġpause	8522
Children	8521
assertEquals	8520
Live	8520
Comparison	8520
ĠUm	8518
MIC	8517
IME	8517
ĠDiscussion	8517
680	8516
Ġprobabilities	8516
Ġconstitu	8516
ĠSeg	8516
=%	8513
ĠIDE	8512
ĠDetect	8512
Ġcoup	8510
Generic	8509
Ġregulators	8509
Ġdots	8509
KM	8508
Ġtaxa	8508
China	8507
Ġinfrared	8507
ĠNum	8506
Ġ215	8506
Ġimagination	8505
Begin	8504
Ġwander	8504
Qt	8503
quant	8502
Ġmamm	8502
066	8500
jr	8499
Ġnoble	8499
ĠStein	8497
myc	8496
Statistical	8496
Ġ*(	8491
Ġprotects	8490
ĠTODO	8488
Ġveterans	8487
ĠAnne	8486
Ġdescriptor	8485
ĠHope	8484
Ġoverseas	8483
Ġfrustration	8482
ĠMuch	8480
Ġ224	8480
Ġuri	8479
getElementById	8478
Ġperme	8478
ĠPoland	8477
XY	8475
Loop	8474
ĠIslands	8474
Ġfootage	8473
Ġcamps	8473
Ġtransparency	8472
Ġoils	8471
ADE	8470
ĠCape	8470
character	8469
Ġsums	8469
anz	8467
Ġbent	8467
Ġcalories	8466
demo	8465
ĠLem	8465
408	8464
Fragment	8463
)[(	8463
ĠHttp	8463
ĠShaw	8462
lene	8461
Ġaccumulated	8461
Ġverification	8460
Ġmotif	8459
inson	8458
Tor	8458
Ġsoap	8458
Ġreluct	8457
Ġreliance	8457
RIC	8456
uments	8453
Ġcis	8453
ĠCoach	8451
archive	8448
wick	8447
coord	8447
Ġdiffers	8444
enas	8441
Ġconstrained	8441
ĠCommunications	8439
Ġinevitable	8438
ĠMind	8438
Fill	8437
Ġperturbation	8435
0017	8433
athy	8432
701	8430
Ġsqueeze	8429
ĠnM	8429
Ġ212	8429
ĠXX	8428
Ġfled	8426
Ġadvocates	8426
Ġnotify	8425
ĠMitchell	8424
oplast	8422
Ġscattered	8422
Ġinitiatives	8422
route	8421
Interval	8420
Ġpresumption	8420
ĠOpera	8416
ĠGuy	8414
ĠEdition	8414
Ġforty	8413
0013	8412
Ġwaist	8410
ression	8409
Ġassisted	8409
accept	8408
Ġglobally	8408
nto	8407
Ġexplosive	8406
Ġinherited	8405
lance	8402
Ġrocks	8402
Ġcock	8402
quet	8401
Ġtriangle	8400
Ġafterwards	8400
Ġtoy	8399
Ġmystery	8397
Ġ214	8397
Ġenact	8396
ĠNag	8395
forms	8394
Ġugly	8394
Ġbutt	8393
ĠRosen	8393
Ġlymphocytes	8392
Ġlang	8392
Ġdeform	8391
ĠColo	8390
Ġah	8389
City	8388
Ġqualities	8386
Ġobserver	8386
Ġbtn	8386
dll	8385
Ġcement	8385
Ġworlds	8384
Ġanalyst	8383
Sql	8382
Ġrope	8382
books	8381
Ġinstalling	8381
Ġexterior	8381
ĠTogether	8381
KING	8379
Ġsubscribe	8378
Ġdefending	8378
Ġwinds	8376
Services	8375
haus	8373
Ġscreens	8372
Ġmelanoma	8371
Ġbasement	8371
ĠGlu	8371
Clear	8370
hma	8369
331	8369
Ġstats	8368
Ġhosting	8368
Ġpays	8367
ĠChrome	8366
ĠSara	8365
ĠLess	8365
Ġrelaxed	8364
Ġdiluted	8364
xia	8362
Initial	8362
Audio	8361
Ġobservational	8360
Ġconsuming	8360
GCC	8359
Ġ\+	8359
Mel	8358
)!	8358
Inf	8357
Ġstunning	8355
SUB	8353
Ġsil	8353
ĠPET	8353
Ġmediate	8351
Speak	8350
Ġwrist	8350
Ġfires	8350
Ġuncomfortable	8349
Ġpayload	8348
ASSERT	8347
Mapping	8345
Ġpersuade	8345
Ġcharm	8345
ĠEqual	8345
ĠContact	8344
mobile	8343
Ġdire	8343
million	8342
cion	8342
RAP	8342
621	8342
Ġinvested	8341
Ġclones	8341
Ġ222	8339
anon	8338
enne	8337
Ġopioid	8334
ĠExamples	8334
![**	8333
ĠSmart	8332
todo	8329
Ġpulses	8329
Ġcongressional	8329
ĠClearly	8329
idia	8328
iful	8327
Ġcapitalism	8326
ĠAMP	8326
ĠGuardian	8325
+,	8324
Ġvoter	8324
Tell	8322
Ġpine	8322
ĠJU	8322
Ġirradiation	8321
Ġconductor	8321
Ġpigs	8317
ĠAqu	8317
Ġpastor	8316
Ġshocked	8313
ĠHyper	8313
borne	8312
Ġglobe	8312
ĠFALSE	8311
Ġsubstantive	8310
ĠJerem	8310
Sum	8309
Ġfluids	8309
Ġcutoff	8309
ĠResult	8306
ĠBris	8306
Ġinfinity	8305
alter	8303
Ġubuntu	8302
Ġimplant	8302
Ġcycling	8302
Ġ*/,	8302
MX	8301
ĠApr	8299
whether	8298
Ġspy	8298
ĠUniverse	8298
Ġ207	8297
Ġinvesting	8296
idin	8295
Ġ208	8295
Ġflee	8294
usually	8293
LIST	8293
ĠAppeal	8293
schemas	8291
Ġgarbage	8290
Ġtroubles	8288
Ġmd	8288
Ġcompleting	8288
ĠTemp	8287
Ġtransfers	8286
Ġtemplates	8286
ĠBarn	8286
Ġ*,	8284
Ġcleavage	8283
335	8282
ĠConnecticut	8281
Ġtransformations	8280
Ġplanets	8280
Hand	8279
ĠScha	8279
clinical	8278
560	8278
ĠDefinition	8278
Ġpatches	8277
Ġepic	8277
ĠHunter	8276
Ġparole	8275
gA	8273
blank	8273
Ġmultivariate	8273
products	8272
Ġvillages	8271
Ġgenomes	8267
Ġhaem	8266
ĠAda	8266
Ġlasting	8265
Ġgriev	8265
ĠOrange	8265
ĠDynamic	8265
Ġchloride	8263
rame	8261
ĠPep	8260
ĠHindu	8260
brand	8259
Ġadapter	8259
oidal	8257
Ġdimer	8256
Ġnutrients	8254
Ġcounterparts	8254
ĠCompared	8254
ports	8253
616	8253
nus	8252
Tx	8252
ĠNV	8252
Ġillustration	8250
anies	8248
inable	8247
Ġsurrender	8247
IAN	8245
ĠDream	8245
Flag	8244
Dim	8244
]$,	8242
ĠSalt	8242
Ġroutinely	8241
Ġaggravate	8240
359	8239
Ġswallow	8239
Ġstent	8237
Ġbacking	8237
Ġreleasing	8235
Ġgraphene	8234
Ġglory	8232
opathy	8230
Ġstrap	8230
ĠQT	8230
Ġlod	8229
ĠELISA	8229
Comments	8228
481	8228
dialog	8227
Ġdivergence	8227
Ġalliance	8227
ĠMurray	8227
Ġ213	8227
Ġidx	8226
ĠMail	8226
()));	8225
Ġbottles	8225
Ġaqua	8225
ĠLG	8224
rays	8220
issues	8220
ĠTalk	8220
Without	8219
Sym	8219
ĠYOUR	8219
ĠMn	8219
Animation	8218
ĠAlzheimer	8217
ĠMarshall	8216
//!	8214
business	8212
Face	8211
ĠGia	8211
ĠTool	8207
oer	8206
ĠassertEquals	8206
Ġspoil	8204
Ġbuilds	8203
contract	8202
Ġmammalian	8202
Ġhungry	8202
Ġbuyers	8201
Ġabsorbed	8201
Ġknees	8200
Ġtrillion	8199
Person	8197
Ġvisa	8197
Ġ1964	8197
Ġorganism	8196
Ġoccasional	8195
Ġtorque	8193
Ġfixation	8193
zole	8192
Ġsilly	8191
lick	8190
422	8190
near	8189
functions	8189
Complete	8187
Ġaltogether	8187
objects	8186
Ġpants	8186
Ġalgebras	8186
Monday	8184
Ġcounties	8184
Ġspeculation	8181
ĠSusan	8181
factory	8179
Ġchaos	8177
ishment	8176
Old	8175
ĠHills	8174
Ġincurred	8173
Ġcrying	8173
ĠEye	8173
Ġchin	8172
rada	8171
Ġinferred	8171
tuned	8169
391	8167
Present	8165
ĠPalm	8165
ĠJustin	8165
ĠActivity	8164
ĠSingh	8162
athon	8161
Ġmechan	8161
Chain	8159
uon	8157
dates	8157
768	8157
ĠStudents	8157
symmetric	8156
Ġhandles	8156
Ġadoles	8155
ĠProfessional	8154
ĠMaine	8153
Ġpatents	8152
Ġlord	8151
ĠORDER	8150
Ġlacked	8148
Mouse	8147
ĠLag	8147
dq	8143
although	8142
Ġexperimentally	8141
ĠCONFIG	8141
ĠÂłĊ	8140
Focus	8139
Ġsav	8139
Ġprospects	8139
Der	8138
tables	8137
Ġshook	8137
Ġcrystals	8136
rB	8135
skin	8133
Ġversa	8133
Ġnecrosis	8133
Ġseasonal	8132
Ġours	8132
alert	8131
Ġdownloaded	8131
372	8130
Ġtyp	8130
Ġstub	8130
Ġpolymers	8130
Ġconductivity	8130
GUI	8129
Ġwhites	8129
Ġsocieties	8128
Ġmachinery	8128
Ġfac	8127
Ġankle	8127
ĠChristianity	8127
technology	8126
ĠMoney	8126
ĠGUI	8126
Ġobserving	8123
Ġeditorial	8123
Ġcloth	8123
vre	8121
Ġrevealing	8121
ĠOtt	8121
ĠCorrect	8121
Ġoutfit	8120
ĠLuke	8120
ĠAssert	8117
,...,	8116
reflect	8115
425	8115
Ġracism	8115
entine	8110
ĠLGBT	8107
Install	8106
ĠEat	8105
Ġpublishing	8104
Ġrelying	8103
Ġmicroscopic	8103
ired	8102
Ġreferral	8102
Ġgestation	8101
ĠBegin	8101
rons	8099
ables	8099
Ġcritically	8099
Uri	8098
Ġcontinuity	8098
Ġcascade	8098
ĠComment	8098
Ġagar	8094
Pet	8092
Ġacoustic	8092
ĠNBC	8092
ĠButton	8089
Ġrepress	8088
Ġdifferentially	8088
ĠBorder	8088
ĠProducts	8087
Pair	8086
Bbb	8085
rators	8084
gst	8084
ĠWash	8084
offs	8083
Ġlitter	8081
STRING	8080
ĠIo	8080
Pt	8079
Ġsatisfactory	8079
Ġpurple	8079
Ġpeers	8077
vage	8076
Ġtoast	8073
distr	8071
Ġfixture	8071
ĠOracle	8071
deep	8070
Ġnominee	8070
Ġgenotypes	8070
ĠStanley	8070
istics	8069
Overall	8069
ĠPrivate	8069
Ġflies	8067
337	8066
Ġdecode	8064
Ġunderground	8062
Ġbonding	8061
corporation	8059
hover	8058
475	8058
Ġairline	8058
Ġtomography	8056
Question	8055
Ġperpendicular	8055
oriented	8054
Gold	8053
Ġhug	8053
Ġcoincide	8052
Ġbackward	8052
layers	8051
.")	8050
Ġpredicting	8050
Ġnodded	8049
ĠPrimary	8049
ĠHost	8049
mathit	8048
liness	8044
Ġfarms	8043
ĠWalk	8042
provider	8041
Ġconfusing	8040
Ġtablespoons	8037
Ġspeculate	8037
pull	8036
Sq	8036
Ġlanded	8036
oit	8035
ails	8034
850	8034
Ġbinds	8033
Ġconditioning	8032
ĠCOMM	8031
fits	8030
onia	8029
ĠCollins	8029
ĠForum	8028
ylation	8027
Ġantigens	8027
ĠCorps	8026
Ġoverlapping	8025
Ġwinners	8023
Ġstance	8023
Ġ1965	8023
Ġtors	8022
ĠDh	8019
Air	8018
Ġwildlife	8017
Ġconception	8016
Ġcocktail	8016
ĠLikewise	8016
Ġterminals	8015
Ġpainted	8015
LIC	8014
ĠSmo	8014
Ġneat	8013
Ġclash	8013
ĠPittsburgh	8013
ĠQt	8011
Ġsimplified	8010
lord	8009
Ġwealthy	8009
ĠWP	8009
Ġdonations	8007
Ġquantification	8006
ente	8005
alla	8005
295	8005
Ġrotational	8005
Ġgates	8005
ĠHiggs	8004
esian	8003
Ġkar	8003
Ġdescriptions	8002
Ġvegetable	8000
ĠOthers	8000
MK	7999
Ġdesc	7999
idad	7998
motion	7997
Ġsequel	7997
lide	7996
Ġrhetoric	7996
Ġpellet	7996
agnetic	7995
wrapper	7993
AZ	7990
Ġreforms	7989
ĠEnvironment	7989
Ġlifting	7986
Ġconstructs	7986
Ġbarred	7986
Ġrelapse	7985
ĠTIME	7984
ĠParticipants	7983
Ġ330	7983
Ġlime	7980
ĠMurphy	7980
ĠAlice	7980
Ġqubit	7979
Ġcargo	7978
makers	7977
()))	7977
Ġboyfriend	7977
Ġapplicant	7977
Ġoffspring	7976
Ġkicked	7974
seed	7973
ĠSpecific	7973
thus	7972
Ġconverting	7972
Ġnick	7971
Ġantimicrobial	7971
ĠRandom	7970
Ġhistological	7969
HEAD	7968
Ġemergence	7968
warm	7967
angular	7967
ĠOrleans	7966
tailed	7965
504	7965
Ġlinkage	7965
Ġligands	7965
Ġhung	7965
396	7963
Ġdetectable	7962
balance	7961
Ġsimplify	7961
Ġscientist	7961
macro	7960
gles	7960
ĠRace	7960
ĠPipe	7960
Ġstones	7959
acks	7958
Ġconfession	7958
ĠInside	7958
graphs	7956
Ġtangent	7956
ryn	7953
directory	7953
Ġacceler	7953
Pas	7950
Ġqueen	7950
Ġsubgroups	7949
Ġsupportive	7945
Ġ\!	7945
Ġwounded	7944
Ġhomosexual	7944
Ġrepeal	7943
781	7941
YES	7940
Friday	7940
trim	7939
Ġpurchases	7938
iator	7933
Ġ----	7933
hook	7932
Ġrepo	7932
Ġbroadly	7932
browser	7931
468	7930
ABC	7929
Ġpairing	7929
Ġjaw	7926
bean	7925
Ġsliding	7925
ello	7924
Kl	7923
.]{}	7921
Ġtitled	7920
Hs	7919
Ġsv	7917
Ġoffend	7917
ĠMission	7917
ĠFen	7917
334	7916
Ġdosage	7916
Ġstreak	7913
361	7912
Ġshortage	7912
Ġdrafted	7911
Ġupdating	7910
ĠFiles	7908
jackson	7907
fox	7907
Ġcoarse	7907
-"	7906
Ġnutrient	7906
Ġclue	7906
Ġambient	7906
Points	7905
Ġobese	7904
rica	7903
Ġcommented	7903
peer	7900
Ġnaked	7900
Ġcompensate	7900
rintf	7899
delay	7899
Ġpermanently	7898
ĠMatter	7897
Ġheritage	7896
424	7894
Ġshoe	7894
Ġpatron	7894
Ġcivilian	7894
died	7892
NOTES	7892
Ġdeed	7892
Ġfirmly	7891
Ġaux	7891
Ġrationale	7890
Ġharvested	7888
Ġdistinctive	7887
lore	7886
RED	7885
DEP	7884
CSS	7884
ANCE	7883
364	7880
Ġquo	7879
Ġcorpus	7879
consider	7878
anga	7877
Struct	7877
......	7876
Ġsoak	7876
Ġpremise	7876
Ġvocal	7874
otes	7873
eren	7872
Ġdefinitive	7872
ĠSubject	7872
ĠAaron	7872
ĠWorking	7867
functional	7866
cart	7866
Department	7866
Ġcontexts	7866
Ġdeficits	7862
Ġreserves	7861
Ġfright	7861
Ġexchanges	7860
ĠEthics	7860
icles	7859
ĠChristopher	7859
ĠApply	7859
820	7858
Ġvolatile	7857
Getty	7856
cision	7855
Ġblanket	7855
ĠReuters	7855
ĠVALUES	7854
Ã¨s	7853
Ġlaughing	7853
Ġselectively	7852
emm	7848
ĠReading	7848
unes	7847
Materials	7847
producing	7846
Ġtheatre	7846
raction	7845
Random	7845
462	7845
Ġrecalled	7845
ĠPt	7845
ĠParker	7845
Ġcubic	7843
Ġchef	7842
hire	7841
ĠHero	7841
Â¬	7840
regular	7840
ĠISIS	7840
Ġstitch	7839
Ġvari	7838
Ġuniquely	7838
plugins	7836
ĠVancouver	7836
ĠCraig	7836
Family	7834
/#	7833
Compare	7832
Ġthermodynamic	7832
Ġpolitician	7832
Ġtherapist	7831
ĠBN	7831
ovirus	7830
.*,	7829
uniform	7827
Ġtraditionally	7827
Ġdesigning	7827
ĠCRE	7827
bundle	7825
Ġoccupy	7825
Ġarena	7824
ĠHorn	7824
actic	7819
Html	7819
ĠMcCain	7819
Resolve	7817
Ġdeviations	7817
ĠTaking	7817
ĠDraw	7817
Ġpowered	7816
iable	7815
Pad	7812
acs	7810
swift	7809
Ġsweep	7809
ĠCrim	7808
phosphate	7804
Ġconverter	7804
ĠUL	7804
435	7803
Ġmonoclonal	7803
ĠOutput	7803
Ġpreparations	7801
ĠArrayList	7799
Ġ301	7799
ĠPhD	7796
ĠRing	7795
Ġquietly	7794
Ġtightly	7791
Ġdaughters	7791
atum	7790
Assembly	7790
Ġlazy	7789
Ġbowel	7789
Ġsynaptic	7787
cout	7786
cH	7785
:@"	7785
ĠSou	7785
Â¹	7783
Ġconfront	7783
ĠFILE	7783
mented	7782
Ġwhip	7782
Ġsilica	7780
ules	7779
Ġentre	7779
ĠVictor	7779
maps	7778
Ġpolitically	7778
Ġmultiply	7778
plate	7776
Ġcation	7776
Ġaccelerated	7775
ĠRuby	7775
Cancel	7774
570	7773
Ġrecess	7773
bury	7772
801	7772
Ġbeads	7772
Ġava	7772
367	7769
Ġsoldier	7769
ĠAssume	7769
ĠXP	7767
Ġsaturated	7766
Ġregistry	7766
ĠBiden	7765
uparrow	7764
503	7764
tele	7762
activation	7762
Ġ().	7762
Kh	7760
ĠObviously	7760
ĠMoo	7758
cov	7757
Die	7756
RON	7754
Ġnewer	7754
Ġeternal	7754
transferase	7751
Ġclerk	7751
ĠVenezuela	7751
lich	7750
ĠSwiss	7750
iah	7749
ĠMathematics	7749
machine	7747
Ġdebris	7745
dies	7744
}}\,	7743
)\]	7743
ĠMarvel	7742
SSA	7741
DIST	7740
Ġemitted	7738
,[@	7737
ĠLiberty	7737
Ray	7736
Ġsimplest	7736
Ġsinus	7735
Ġinvitation	7735
ĠThings	7735
ĠPhoenix	7735
held	7734
Ġmast	7734
ĠIQ	7734
ĠCAP	7733
oside	7732
Ġmysterious	7732
Design	7731
394	7731
*;	7731
Ġemphasized	7730
FX	7729
Visual	7728
cgi	7727
Ġpassionate	7726
Counter	7725
Ġunlock	7724
Ġteaches	7724
ĠDiet	7724
ATED	7723
Ġrestrain	7723
ĠTwenty	7722
ĠNaCl	7721
headers	7720
Ġturbine	7720
Ġdairy	7719
ĠDakota	7719
Ġarchitect	7718
Ġtablet	7717
Love	7716
Study	7715
612	7715
Ġladies	7715
Robert	7714
Ġsisters	7714
541	7713
Ġtactics	7712
Ġcivilians	7711
agon	7710
ĠSei	7708
ĠEinstein	7708
590	7706
Linear	7705
Ġrailroad	7705
nine	7703
358	7703
Ġoutlets	7703
ochemical	7702
;-	7702
Ġimg	7702
PACK	7700
Ġasleep	7700
ĠGol	7699
1974	7697
Ġdifferentiate	7696
orphism	7694
ĠREG	7694
756	7692
contrib	7691
oyd	7690
Ġ{},	7690
KU	7689
Ġmosquito	7689
nett	7688
Ġmissions	7688
Ġesophag	7688
ĠAllow	7688
direction	7687
Ġaperture	7686
rical	7685
Ġequitable	7685
Ġpero	7684
Quant	7682
sne	7681
ĠSki	7681
Ġflap	7680
Ġengineers	7680
ĠVariable	7679
Ġ201	7679
ĠInstagram	7678
880	7677
ĠRoll	7677
ĠBenjamin	7676
ĠUntil	7675
erial	7674
ĠNash	7674
Sport	7673
Ġlethal	7673
Ġswitches	7671
455	7669
evidence	7667
Ġassassin	7667
registry	7666
Ġreimburse	7665
invalid	7663
Ġsinging	7663
Ġearning	7663
ĠHist	7663
ookup	7662
Ġbovine	7661
ĠLiverpool	7661
Ġ216	7661
mps	7660
Ġwounds	7660
Ġale	7660
ĠOfficial	7659
quis	7658
ĠBeat	7658
Ġpotassium	7657
Ġhears	7657
Ġaromatic	7656
hips	7655
ĠCertain	7654
Ġscreened	7653
Namespace	7652
Ġcreep	7652
nÃ©	7651
iae	7651
Something	7650
Ġ209	7650
Ġego	7649
iques	7648
YC	7648
Ġreductions	7647
ĠTreasury	7647
fair	7646
forming	7644
Phase	7644
Hon	7642
429	7641
breaking	7640
Ġ")	7640
Ġcurriculum	7638
Raw	7637
Ġfuneral	7637
details	7636
Ġtouching	7636
Ġbeams	7635
eran	7631
Ġgroove	7631
slot	7630
checked	7630
371	7630
ĠCarlo	7630
Schedule	7628
Ġregulates	7628
Ġinstinct	7627
Ġdeserves	7627
)--	7626
Ġfiltration	7626
ĠIdaho	7626
Ġ235	7624
urban	7623
Ġsurgeon	7623
ĠSit	7623
Ġpriorities	7621
Ġintentionally	7621
Ġtransporter	7620
ĠStyle	7620
Ġdraws	7618
Ġglycol	7617
ĠUniversal	7617
057	7616
Ġirreducible	7616
ÂĽ	7615
Ġcastle	7613
Peter	7609
Ġidentities	7606
Ġhey	7606
Ġbrightness	7606
ĠMali	7606
subscribe	7605
Material	7605
Ġcelebrated	7605
tep	7603
ĠMemory	7603
Border	7601
ĠMIN	7601
ĠConnection	7601
wich	7599
Ġexcluding	7598
Ġplausible	7597
UGH	7596
Ġmisleading	7595
Ġdynamically	7595
ĠTurner	7595
squ	7593
Ġthrust	7593
effect	7590
Ġhelicopter	7590
Ġfascinating	7590
ĠRice	7590
rbrack	7588
Ġrotor	7588
Ġcooperative	7588
inet	7587
Ġray	7587
Driver	7586
Ġtechnically	7585
Ġinstantly	7585
campus	7584
0014	7584
Ġlever	7584
Ġcaring	7584
cts	7582
665	7581
ĠConvert	7581
ĠCin	7580
ĠKEY	7579
eing	7578
1970	7578
ĠRain	7578
Ġgram	7577
Ġeleven	7575
Ġdesires	7574
Ġactivist	7574
ĠSomething	7574
ĠAndy	7574
Ġdioxide	7573
ĠVia	7573
ĠModule	7573
Ġfond	7571
Ġadministrator	7571
890	7569
636	7568
Ġlightly	7568
apy	7567
Ġdamp	7567
Ġembryo	7566
Ġcinema	7566
465	7565
Ġbenign	7565
istan	7564
SOC	7564
online	7562
aan	7562
izo	7561
Ġintentions	7561
Insert	7559
395	7559
Ġcleaned	7559
ĠRoger	7559
ĠOkay	7559
Âħ	7558
Ġopenly	7558
ĠDebug	7557
imer	7556
assets	7556
rion	7555
oxide	7555
Ġrc	7555
Ġlikewise	7555
Ġarose	7555
Ġ401	7554
Ub	7553
Ġjurors	7553
Ġguarantees	7553
ĠLuck	7553
Cur	7552
ĠChallenge	7552
>";	7551
Ġcritic	7549
Ġgaining	7548
ĠCollect	7548
Ġadditionally	7546
WRITE	7545
ovan	7544
Ġphylogenetic	7543
Ġcompatibility	7542
,\\	7541
Ġdeposits	7541
Ġimper	7540
Ġreconsider	7538
chip	7536
Ġls	7536
oir	7534
Ġstiff	7534
xE	7533
**_	7533
Ġweakly	7533
Ġdetective	7533
ĠSwedish	7533
Ġexceeded	7531
Ġtwisted	7530
Ġlatent	7530
ĠConsumer	7530
national	7529
Ġcompressed	7529
beans	7528
Tuesday	7528
October	7528
<%	7528
901	7528
525	7528
ĠÂµg	7528
Ġlighter	7528
Ġviscosity	7526
ĠLeader	7526
LER	7525
Environment	7525
Ġfraudulent	7525
Ġcof	7525
Ġuseless	7523
561	7522
Ġoversee	7522
Ġtalented	7521
running	7520
inite	7520
Ġwrapper	7519
ĠWait	7519
ĠMovie	7519
August	7518
Ġexceeds	7518
ĠZhang	7518
ĠAlle	7518
}}$$	7517
Ġwherever	7516
Ġmodulate	7516
Ġpoem	7515
Ġpent	7515
vL	7514
Ġtanks	7513
Ġcostume	7513
ĠDee	7513
Wrapper	7512
Ġsaturation	7512
ĠConstruction	7512
Ġingredient	7511
Ġjudgments	7509
ĠStandards	7509
Tel	7507
ĠCommunist	7507
gists	7506
Ġenacted	7506
ĠMd	7505
Feature	7504
Ġinvestor	7504
Ġbasket	7504
Ġcreatures	7503
answer	7502
ARCH	7500
ulsive	7499
ignore	7499
Ġdst	7499
restrict	7498
Ġ1966	7498
Ġidentifies	7497
Remember	7496
Ġtraveled	7496
ĠLearn	7496
Ġnotified	7495
START	7494
Ġbend	7493
ĠContext	7493
Ġaffair	7492
ĠBackground	7492
oons	7490
Ġwitnessed	7490
Members	7489
Append	7489
Ġimmunohist	7488
history	7487
'''	7487
Ġabsurd	7486
ĠSolar	7486
ĠLimited	7485
ĠStatistics	7484
ĠFormat	7484
[.	7483
Ġkeen	7482
ĠColumn	7482
rina	7481
840	7480
):=	7480
Ġwished	7480
Ġbounce	7480
ĠPf	7480
reader	7478
Ġsnake	7478
Ġmakers	7477
Ġeighth	7477
Ġsooner	7476
ĠSpringer	7476
Ġcancellation	7475
Ġmargins	7473
Ġauthorization	7473
ĠLamb	7473
gging	7472
examination	7472
Ġmud	7472
Ġgrocery	7472
Ġsecular	7471
'+	7470
Ġcommute	7469
Ġdisposal	7466
Ġannul	7466
pragma	7465
MIS	7465
ĠJob	7463
ĠBrain	7463
pci	7462
Give	7462
Ġnationwide	7461
aker	7460
Ġradar	7460
Ġdrilling	7460
ĠSpin	7460
ĠJoint	7460
'/	7459
Ġsaliva	7459
'));	7457
Ġcares	7456
Extra	7455
ĠHilbert	7454
clip	7453
Receive	7452
went	7451
Bes	7451
ĠThailand	7451
Ġrust	7450
ems	7449
OLD	7449
Ġcasting	7449
ĠOperation	7449
Ġbuyer	7448
ĠOak	7445
ĠMedicaid	7445
Ġrecombination	7444
Ġamplitudes	7442
ttle	7440
Direction	7440
CAM	7440
ĠProvince	7439
âĢĿ).	7438
Ġ242	7438
ĠÎ´	7436
Ġearliest	7436
Ġcytometry	7436
ĠNeo	7435
(%	7433
ĠSolo	7433
Ġcommentary	7432
Ġ512	7432
plication	7430
expressing	7430
ĠMHz	7430
Ġobjections	7429
olytic	7428
bash	7428
Ġrecycl	7428
icals	7427
dial	7426
processing	7425
ĠStream	7425
602	7424
ĠEgyptian	7424
Bottom	7422
Ġbicycle	7422
EIN	7421
Ġretrieved	7420
ĠMK	7420
lane	7418
Execute	7417
ÂĿ	7416
Bind	7416
Ġalleging	7416
Ġhospitalization	7415
ĠTris	7415
Forms	7414
Ġchromatin	7414
ĠHom	7414
opts	7413
...)	7413
ĠÂµ	7413
****	7412
selector	7411
nings	7411
Ġsafer	7411
Ġchic	7411
atz	7410
Ġcolonies	7410
Ġbeaten	7409
Nodes	7408
Ġtomatoes	7408
Ġpleaded	7408
Ġpupil	7406
Ġhydrophobic	7405
Andre	7404
6000	7404
Ġcolorectal	7404
ĠIndians	7404
Enable	7402
Ġsd	7402
Ġalleles	7402
Ġheterogeneous	7401
Ġmentally	7400
Ġyoga	7399
Ġgraphic	7399
Ġencl	7399
Ġhotels	7398
Small	7397
Ġpave	7397
ĠRG	7394
these	7392
Ġunitary	7392
Ġcleaner	7391
ĠAdvanced	7391
Ġunconscious	7390
Ġstairs	7389
ĠLate	7387
Ġnewspapers	7385
Ġmissile	7385
Ġlender	7385
Ġunprecedented	7384
Ġheap	7384
Ġfancy	7384
ĠCameron	7384
Ġ221	7384
Never	7383
ĠThread	7381
zine	7379
Ġtelescope	7379
Ġmilitant	7379
Shell	7378
Ġquarters	7378
ĠWayne	7378
idated	7377
937	7375
ribution	7374
Ġmarkedly	7374
Ġharbor	7374
ADDR	7371
Ġexcitement	7370
nica	7369
Ġpodcast	7369
Ġcollisions	7369
Ġanimated	7368
Wednesday	7367
RUN	7367
bond	7365
FALSE	7365
Ġcommercially	7365
Ġbiased	7365
feld	7364
bootstrap	7364
ĠMW	7363
relative	7362
Generator	7362
ordered	7361
Ġtowel	7361
Ġdancing	7360
ĠTechnical	7359
apps	7356
ĠBooks	7356
ĠSample	7355
ĠJudges	7355
oran	7354
Ġcrisp	7354
ĠNano	7354
ĠLower	7354
ĠCrown	7354
rust	7353
#,	7353
Ġnorms	7353
Ġff	7353
edes	7352
construct	7351
ĠDAMAGE	7351
Ġhorn	7350
Ġadvisor	7350
Ġmistaken	7348
aes	7347
Ġfmt	7347
ĠMagic	7347
ĠSox	7346
Î¼M	7345
iron	7345
ĠCardinal	7344
Ġzoom	7343
Ġlocking	7343
Ġclever	7343
trophy	7342
enberg	7342
\$	7341
473	7341
ĠPhilippines	7341
ĠViol	7340
ĠScreen	7340
poll	7338
Ġstatue	7337
ĠTrack	7337
Ġcolleges	7336
Ġ365	7336
Mis	7335
Ġlawful	7335
Ġbombing	7335
ĠUE	7335
ĠSELECT	7335
selection	7334
Ġimposing	7334
Ġcigarette	7334
Ġexecutives	7332
ront	7331
eries	7330
Fri	7330
Ġ293	7329
Ġcosmic	7328
Ġtraces	7326
erie	7324
Ġoutward	7324
ĠWorkers	7324
SOURCE	7323
Ġsuspicious	7323
Customer	7322
Ġmerged	7321
Ġanalysts	7321
Ġaccidents	7320
hello	7319
Ġloyal	7319
Ġether	7318
sions	7315
!}	7315
Ġvul	7315
Ġtomato	7315
Ġbelieving	7312
deb	7311
1973	7311
Ġnicely	7311
ĠDragon	7310
amble	7307
502	7305
Ġcoconut	7305
Ġbush	7305
Ġpredecessor	7304
Ġknockdown	7304
Rows	7303
ĠJin	7302
rq	7301
ĠSpl	7301
chester	7299
Ġdelicate	7299
Ġsupervised	7298
ĠReform	7298
Ġsour	7297
Ġfossil	7297
Bot	7296
Ġconstructive	7296
ĠMega	7295
duration	7293
cave	7293
Early	7293
655	7293
Ġpockets	7293
Fan	7292
Ġencode	7292
Ġconfess	7292
ĠInsta	7292
Ġkb	7291
Ġsynerg	7290
phant	7288
744	7288
Ġrim	7288
Ġhills	7288
ĠArkansas	7288
East	7284
Ġregex	7284
dles	7283
Ġgovernmental	7283
matched	7282
810	7281
Ġsupreme	7281
Ġcriticized	7281
omycin	7280
ĠÎ³	7280
Ġlineup	7280
ĠParse	7280
lts	7279
Ġabolish	7279
ĠRiemann	7277
069	7276
ĠPOS	7276
ĠInvest	7276
Personal	7274
505	7273
Ġtraded	7273
ĠOscar	7273
Um	7272
ĠGN	7272
516	7271
Ġelectronics	7270
729	7269
itarian	7265
Ġbracket	7264
Ġcompetitors	7263
Ġboats	7263
Ġbillions	7263
Ġ1920	7263
Ġlent	7261
ĠClaim	7260
Cross	7259
Ġbishop	7259
Ġlatency	7258
ĠWILL	7258
ĠEither	7258
migration	7255
forcing	7255
ĠComparison	7255
Ġsecrets	7254
throws	7253
[...]
