.	51017461
Ċ	48043891
,	43705739
Ġthe	41286970
Ġof	23444979
Ġand	19925938
Ġto	19245732
-	15900404
Ġa	15429835
Ġin	14135447
_	9910350
Ġis	9693843
Ġ(	8445378
Ġthat	8319551
Ġfor	7475339
)	7317235
:	6873073
##s	6368700
Ġwith	5754517
1	5583651
(	5436338
2	5393583
Ġ"	5194293
Ġon	4913160
/	4586385
Ġas	4482753
Ġbe	4355842
Ġwas	4354429
Ġit	4296507
ĠI	4020531
Ġby	3934593
Ġare	3893211
Ġ=	3870516
;	3695147
Ġ-	3562747
ĠThe	3407812
Ġthis	3395785
0	3357991
Ġfrom	3297906
Ġat	3281961
Ġyou	3263446
Ġ$	3247799
âĢĻ	3201922
Ġor	3190380
{	3159573
Ġnot	3150504
Ġ\	3113377
ĉ	3078549
*	3006724
Ġhave	2950351
's	2794505
Ġan	2791555
s	2748458
\	2717383
3	2692685
}	2681540
"	2596506
Ġ0	2541298
ĊĠĠĠ	2468083
>	2444605
Ġ*	2418443
Ġwe	2304519
Ġcan	2114769
Ġwere	2087093
Ġ	1992387
."	1972938
Ġ1	1972054
Ġwhich	1950813
="	1912776
Ġhas	1878682
$	1856833
4	1826611
Ġ+	1807745
Ġ{	1773830
Ġbut	1772088
ĊĠĠĠĠĠĠĠ	1714571
Ġwill	1702762
##ing	1700654
The	1698135
Ġhe	1682326
).	1667054
Ġall	1649946
?	1633343
Ġif	1618188
ĊĠ	1575080
Ġhis	1571296
Ġone	1567796
t	1549635
##e	1546165
Ġ2	1534958
5	1525481
x	1509570
Ġthey	1506917
a	1423682
Âł	1406562
Ġtheir	1404600
Ġmore	1398296
##ed	1393226
I	1338066
**	1308948
Ġhad	1274122
_{	1270212
Ġ$\	1265702
Ġbeen	1263749
A	1259092
Ġalso	1227988
Ġyour	1226445
n	1217048
Ġ<	1211426
d	1198495
),	1192551
);	1181283
i	1177902
##a	1177155
Ġabout	1175740
<	1174575
Ġwhen	1163735
Ġwould	1158863
Ġtime	1134959
Ġthere	1129161
Ġout	1124111
't	1121211
Ġso	1116627
ĠIn	1113083
Ġother	1110793
]	1105900
Ġ3	1105848
Ġmy	1080294
ĠâĢľ	1078687
Ġwho	1075782
##d	1075596
B	1064965
=	1063006
##y	1054392
Ġthan	1039365
Ġdo	1034595
^	1029572
##er	1028672
Ġno	1025814
Ġup	1017446
'	1017441
Ġ[	1011260
ĠA	1004147
6	993247
ĠĠ	988940
Ġits	982825
Ġinto	977552
Ġ}	965373
Ġ&	964130
Ġ'	961611
Ġour	945662
Ġonly	939429
[	937511
Ġtwo	935711
Ġsaid	925776
Ġher	922539
##o	921538
Ġwhat	906511
b	905051
Ġlike	904985
ĊĠĠĠĠĠĠĠĠĠĠĠ	904596
Ġany	897040
p	890226
Ġsome	883496
Ġmay	880813
Ġnew	879579
ĠIt	871125
ĠThis	870410
##ly	868335
8	867225
C	864023
##0	850715
Ġsuch	847080
Ġfirst	844248
Ġ4	833176
c	831735
Ġthese	829162
##t	827982
##n	817015
7	815743
##r	804938
Ġget	802385
m	801515
Ġthem	798440
%	796922
S	794069
##S	789872
##i	786871
Ġuse	777040
Ġthen	774086
ref	773601
Ġjust	767884
Ġme	766703
Ġ5	762825
Ġafter	761997
Ġbetween	756703
f	749817
k	743069
type	736400
ĠWe	734640
Ġover	732406
e	726349
Ġused	720026
Ġwhere	716071
##l	715059
Ġcould	714447
Ġdata	711946
.,	709116
ĊĠĠĠĠĠ	686399
Ġpeople	685163
9	672604
",	669125
Ġshe	668203
+	667960
Ġusing	663039
</	661341
Ġbecause	654689
g	650216
in	649260
Ġshould	625445
{\	619416
ĊĠĠĠĠĠĠĠĠĠĠĠĠĠĠĠ	616800
Ġ[@	614700
10	613315
Ġwell	609772
Ġhow	604288
#	603881
Ġ.	603705
Ġmost	598755
Ġv	598730
Ċĉ	596396
Ġeach	590850
Ġcase	588530
){	587662
##es	584554
R	584353
Ġhim	582980
Ġi	580464
F	578200
Ġ10	576180
Ġ|	575804
h	572011
}\	569485
Ġclass	566678
D	563493
E	563165
In	561455
!	558281
r	556973
Ġmake	554795
Ġunder	552404
##A	552397
##al	546099
Ġthrough	543767
Ġ@	539565
Ġwork	539101
Ġsame	538195
Ġway	536319
ĊĊ	536056
Ġsee	527851
Ġeven	524846
ĠHe	523854
Ġthose	522149
Ġnow	521134
##on	520517
Ġyears	519984
Ġvery	519947
j	519897
frac	519149
->	517632
Ġboth	516651
Ġknow	515676
Ġset	506592
Ġbeing	505755
v	503498
Ġdid	502456
T	501824
Ġ_	500959
Ġmany	499021
Ġneed	497898
Ġbefore	494990
~	494534
Ġnumber	492725
Ġreturn	490676
Ġdifferent	488938
?"	488516
Ġright	487735
Ġ6	486355
##T	484844
âĢī	479595
Ġdon	477090
##C	476884
](#	476537
()	475168
Ġback	474909
Ġhere	474268
y	473327
u	472777
::	466828
right	466537
ĠC	464646
">	463677
N	462660
Ġus	462226
ĊĊĠĠĠ	460185
}$	460039
##m	459933
left	459800
Ġmade	458773
Ġvalue	458488
ĠĠĠ	455895
##P	454857
##R	454834
P	454144
fig	453197
Ġ\[[@	452581
Ġwhile	451746
##D	451087
ĠâĢĵ	450309
://	448977
Ġsystem	445639
Ġhigh	442951
ĠU	442931
##in	442835
Ġfound	442404
Ġ**	441894
Ġmuch	436039
ĠS	435138
##k	434731
Ġstudy	432234
Ġgood	429572
Ġstate	429528
Ġthree	429134
Ġp	428347
Ġfunction	428043
âĢĿ	427526
.âĢĿ	426495
ĠIf	425614
Ġwant	425550
12	424832
":	423651
Ġpatients	423185
Ġpublic	422941
L	421443
com	419215
Ġwithout	418612
H	418555
Ġduring	417447
Ġ//	416792
ĠFor	414206
ĠLet	414196
Ġcells	413482
--	412931
We	412499
Ġname	411481
Ġcourt	411286
##M	409672
Ġdoes	407969
to	407829
What	407106
the	407055
Ġx	404821
_{\	403749
Ġthink	403195
X	402610
Ġorder	401091
,"	400787
##3	400393
##1	400302
Ġ:	399540
z	399071
Ġyear	396117
11	394304
Ġend	392713
##2	389511
Ġpart	389025
##8	388588
$,	387682
Ġgroup	387027
##9	386706
Ġ7	386696
M	384918
##\	383741
##7	383037
Ġagainst	381693
##p	381532
##x	380657
q	380278
Ġgo	379421
Ġlong	379057
It	377920
K	377788
##6	375772
Ġdown	374489
##c	374355
Ġtake	373131
##E	371668
Ġstill	371643
Ġmust	371586
##5	368889
##4	368582
##g	368385
Ġ8	367752
Ġtype	365721
Ġlast	365673
##ic	363517
##h	363366
$.	362732
ĠBut	361842
Ġinformation	361035
',	360482
("	357660
##L	355225
Ġsecond	354307
}{	353407
Ġ,	353385
Ġday	352544
Let	350316
mathcal	347527
Ġresults	347038
##F	345731
Ġfollowing	340352
();	339833
//	337505
Ġnon	336136
Ġm	335549
Ġfind	334654
(\	334420
Ġgoing	334385
This	334181
##ers	333615
Ġoff	332848
...	332617
th	331408
w	329689
Ġlife	329149
ĠYou	328570
l	328079
Ġwithin	328074
],	327921
ĠF	326711
ĠAnd	324528
ĠĠĠĠ	324122
##ation	323767
Ġaround	323402
V	323058
'm	322190
ĠAs	322059
Ċĉĉ	321424
Ġsince	320232
Ġpoint	318626
âĢľ	317968
].	317290
^{	317253
##en	316342
Ġmodel	315994
Ġ*/	315776
alpha	315535
W	315500
Ġcontrol	314849
Ġanother	314152
##I	313843
Ġal	313400
00	313228
)$	311267
##ta	310482
ĠB	309544
,âĢĿ	309152
end	309068
G	308984
Ġ</	307655
Ġam	307400
Ġe	307274
##ti	306653
Ġown	305364
##B	305132
Ġexample	304627
Ġline	304518
ĠT	303288
Ġ#	303279
Ġincluding	302561
Ġself	302428
]\].	302378
and	301641
##an	301247
ĠJ	301051
Ġtoo	300224
Ġ12	300023
Ġevery	298854
int	298283
##able	298255
Ġgiven	298230
Ġtest	297827
J	296526
âĢĵ	296451
You	296224
Ġshow	295735
Ġhelp	295465
##u	295297
##us	295090
Ġreally	294673
ĠP	294608
Ġmight	294501
Ġcell	294491
Ġn	294257
Ġet	294154
Ġworld	293903
ĠM	292775
Ġsay	292732
Ġresult	292695
ĠHowever	292202
##,	291386
Ġprocess	291213
ĠThey	289795
Ġ{#	289606
##b	289380
000	289219
Ġfile	288992
##N	288848
get	288639
č	287879
Ġpresent	286719
ĠNo	286281
Ġbased	285525
Ġ$$\	284789
Ġde	284407
ĠR	283354
Ġsupport	283245
're	282458
16	282100
20	281905
Ġ20	281835
15	280999
ĊĊĠ	280891
Ġ9	279880
ĠN	279731
ĊĠĠĠĠ	279483
Ġform	277859
##O	277591
Ġbest	277502
Ġanalysis	277476
Ġ\[	277014
CR	276053
if	275828
Ġnext	275151
ĠâĢĶ	274877
Ġevidence	274118
ĠE	272923
Ġhome	272920
##f	272701
Ġsomething	272176
Ġleft	272095
Ġchange	271182
ĊĠĠ	270730
&	270028
Ġsmall	270024
Ġwhether	269902
Ġmethod	269861
|	269521
\]	267504
Ġd	267085
##G	266506
ĠD	266487
##X	265624
ĠL	265239
ĠQ	263231
13	263184
Ġs	262061
Ġc	261699
Ġt	261421
ĠThere	261358
ĠWhat	261025
##ity	260738
Ġplace	260382
Ġimportant	259759
Ġpower	259506
Ġless	258838
Ġfew	258381
Ġbetter	257953
##le	257767
}(	257665
Ġfact	257318
ĠNew	257154
Ġabove	256756
Ġlarge	256320
ĠH	255141
Ġlevel	255116
Ġper	255036
##ate	254964
Ġh	254845
Ġtrue	253882
##H	253284
âĢĶ	252572
Ġnever	252512
Ġ{\	251218
Ġwater	251191
mathbb	250545
label	250427
##z	249882
id	249626
,\	249235
Ġtreatment	248962
Ġdue	248920
##v	248813
Ġleast	248761
Ġlittle	248224
Ġcome	248115
Ġpossible	247883
Ġ11	246632
32	246375
mu	246248
div	246032
Ġthings	245955
##V	245512
Ġproblem	245499
14	245106
Ġlow	244633
Ġ15	244410
text	242575
##te	242282
Ġk	241327
Ġy	240907
Ġlook	239296
Ġlaw	239024
Ġgreat	238603
Ġfield	237732
##Y	237272
ĠTo	236371
Ġhaving	236299
Ġgive	236197
Ġdays	236150
Ġshown	235641
Ġcommon	235438
Ġgot	234120
begin	233875
!"	233296
Ġtrial	233185
Ġeffect	232528
Ġb	231584
Ġgame	231542
Ġr	231261
Ġf	231194
##or	231070
Ġfurther	230822
ĠX	230658
Ġg	230602
name	230300
)\	230072
Ġcode	229421
ĠSo	228650
Ġsize	228494
o	228310
Ġhealth	228018
ĠĠĠĠĠ	227924
Ġ/	227330
Ġprovide	227081
Ġexpression	226788
data	226470
Y	226432
Ġlet	226349
##ia	226136
or	225807
Ġalways	225793
Ġ--	225519
Ġcurrent	225411
Ġagain	224899
Ġfree	224438
Ġgovernment	224300
ĠShe	224296
Z	224286
Ġeither	223743
Ġfour	223742
Ġknown	223156
Ġcalled	222616
Ġint	222567
))	222033
ĠState	221615
ĠThese	221579
Ġ30	221033
Ġuntil	220839
##is	220361
Ġsingle	220263
Ġavailable	220231
##K	220134
ĠUnited	220100
Ġfamily	220041
Ġhuman	219816
('	219811
##.	219774
Ġside	219636
U	219031
01	218942
18	218807
ĊĠĠĠĠĠĠĠĠĠ	218575
O	218246
Ġelse	218122
If	217887
ĠCourt	217862
##(	216776
Ġmeans	216675
Ġaction	216506
Ġman	215978
Ġ==	215951
aligned	215008
Ġvalues	214738
Ġ)	214683
Ġmean	214379
ĊĊĠĠĠĠĠĠĠ	214310
Ġlocal	214180
Ġable	213878
Ġcases	213859
Ġchildren	213592
Ġseveral	213096
Ġlight	212693
Category	212014
##si	211885
ĠThat	211277
Ġreal	210873
Ġhigher	210467
usepackage	210434
ĊĠĠĠĠĠĠĠĠĠĠĠĠĠĠĠĠĠĠĠ	210410
Ġarea	210290
Ġtop	210126
Ġcare	210055
Ġtimes	209691
lambda	209547
pone	209312
Ġstudies	209078
##man	208749
Ġteam	208658
Ġbody	208645
've	208313
ĠAll	207660
Ġfull	207369
Ġput	207192
Ġsignificant	207009
Ġrate	206855
17	206505
Ġerror	206239
##nt	205947
Ġwhy	205836
this	205793
Ġstart	205303
##ion	205178
"}	205081
##W	204670
##w	204314
Ġ100	204220
Ġtotal	203989
Ġenergy	203890
Ġpost	203276
##ch	202585
}$$	202388
import	202282
Ġrun	201449
ĠStates	201266
re	201024
):	200432
span	200310
Ġsimilar	200020
Ġu	199707
19	199636
Ġalready	199304
Ġdidn	199266
ĠĠĠĠĠĠ	198583
ÃĲ	198038
ĠK	197644
Ġlot	197396
Ġassociated	197392
ĠWhen	197385
Ġlevels	196924
Ġopen	196840
Q	196800
##-	196484
Ġspace	196423
##ng	196149
Ġ16	196026
30	195962
Ġl	195906
Fig	195899
Ġresponse	195615
##ies	195555
Ġgeneral	195318
Ġfinal	195311
http	195142
##"	194127
25	193595
Ġperson	193574
He	193067
Ġissue	192996
\[	192935
rm	192886
Ġquestion	192877
Ġdone	192711
Ġwomen	192697
Ġrequired	192548
'll	191842
Ġ14	191834
mathbf	191716
Ġaway	191704
Ġsays	191254
Ġkey	190690
Ġ${\	190505
}_	190348
Ġcall	190203
><	190193
Ġoften	190035
ĠV	189943
Ġlist	189248
Ġspecific	188667
ĠG	188316
Ġterms	188106
Ġactivity	187838
pi	187545
##st	187432
Ġ=>	187278
Ġhand	187230
##et	187003
Ġsure	186969
];	186921
##sh	186767
Ġgroups	185980
Ġhowever	185842
Ġ13	185809
Ġamong	185808
Ġfar	185603
@	185577
##$	185555
Ġreported	185378
Ġthing	185284
Ġ`	184396
Ġlater	183840
Ġage	183525
Ġcourse	182967
##ck	182923
Ġenough	182816
ĠOn	182485
##ll	182151
Ġtold	182099
Ġthough	181657
beta	181355
org	180945
Ġcompared	180871
##se	180815
##ine	180623
},	180309
Ġconst	180052
Ġalong	179694
set	179445
ĠĠĠĠĠĠĠ	179326
sigma	179320
Ġworking	179273
Ġprovided	179187
Ġmaking	179110
Ġz	178820
##ar	178751
_\	178533
table	178443
Ġinclude	178282
Ġposition	178264
##ne	177992
ĠZ	177852
Ġread	177809
##)	177660
##um	177607
return	177309
Ġvoid	177261
##Type	177129
Ġupon	177128
Ġconditions	176808
Ġrisk	176345
Ġweek	176324
Ġrole	176308
Ġold	176249
##id	176167
To	176018
Ġrange	175961
And	175930
Ġpotential	175629
Ġlower	175382
As	175342
##ive	175058
##Name	174700
is	174593
Ġ%	174508
21	174389
Ġincrease	174329
Ġeffects	174166
But	174042
Ġresearch	174034
Ġ18	173937
Ġseen	173925
string	173564
Ġhead	173525
Ġplay	173503
Ġdevelopment	173284
Ġchanges	173279
Ġdoesn	173020
Ġsection	172474
}}	172334
Ċĉĉĉ	172156
##ist	172044
]).	172007
##U	171831
Ġ([@	171688
Ġmoney	171587
Ġ([	171485
Ġtogether	171454
Ġservice	171248
ĠâĢĺ	171201
Ġimage	170630
Ġprotein	170601
Ġproperty	170557
##ment	170215
Ġincreased	169933
Ġbecome	169897
Ġkeep	169690
Ġprogram	169385
For	169201
Ġfactors	169096
##el	168853
Ġmain	168763
Ġaddition	168557
Ġsource	168492
Ġcannot	168357
Ġobserved	168280
Ġlove	168130
Ġbusiness	168121
Ġj	168084
ĠSee	168041
Ġparticular	167949
##ness	167914
Ġdisease	167602
Ġthird	167349
Ġschool	167307
sum	167291
www	167006
ĠUniversity	166767
}_{	166699
"}).	166673
Ġaccording	166167
Ġmonths	166128
Ġuser	166126
of	165891
Ġtry	165597
></	165373
Ġdoing	165275
05	165215
Ġmultiple	165012
Ġearly	164949
##ie	164576
Ġcreate	164533
li	164489
html	164157
Ġcountry	163769
Ġ24	163733
##li	163429
##j	163403
Ġ50	163004
##it	162986
Ġstructure	162870
for	162824
sec	162805
Ġdefendant	162637
^{\	162552
So	162502
24	162352
Ġdescribed	162117
##ss	162039
mathrm	161853
Ġprivate	161832
Ġview	161830
Ġo	161246
sqrt	161142
Ġpositive	160979
Ġactually	160956
td	160692
##[	160547
Ġcompany	160493
Ġpoints	160444
Ġversion	160367
Ġadd	160278
Ġthought	159969
Ġobject	159771
Ġbase	159714
22	159367
##rs	159288
ĠĠĠĠĠĠĠĠ	158985
Ġacross	158973
No	158256
Ġothers	158109
Ġreport	158019
ĠAt	157658
There	157615
}^{	157264
Ġcontent	157126
Ġsurface	157081
Ġrather	156963
##ized	156864
Ġonce	156769
##ry	156550
Ġhard	156304
ĠO	155898
Ġmatter	155866
Ġstring	155827
gamma	155767
Ġfive	155562
Ġlikely	155509
Ġmen	155449
##{	155444
Ġid	155389
Ġw	155325
Ġ>	155002
Ġshows	154979
Ġ25	154663
Ġmillion	154648
Ġperformed	154566
Ġperiod	154481
Ġshowed	154453
Ġbelow	154370
Ġamount	154343
Ġclear	154286
ĠAmerican	154236
delta	153876
Ġfeel	153847
Ġbig	153589
Ġcame	153535
##J	153435
##de	153179
Ġsystems	153147
Ġstandard	152859
---	152778
##Z	152624
Ġsite	152580
##to	152442
Ġfalse	152359
Ġcause	152196
50	152040
Ġobtained	151768
pm	151595
Ġtook	151567
Ġfactor	151538
Ġmakes	151430
Ġ(*	151111
Ġterm	150989
Ġpast	150909
Ġshort	150589
ĠY	150222
bib	150220
Ġfood	150155
.)	150130
Ġever	150128
ĠGod	150050
value	149997
Ġapplication	149938
Ġvarious	149934
Ġcancer	149628
Ġexperience	149471
##os	149412
##q	149348
Ġinterest	149320
Ġsocial	149272
Ġseason	149240
Ġ$(	149177
Ġwhole	149163
ĠOne	148902
64	148891
'd	148759
##ent	148517
Ġtaken	148505
Ġconsidered	148115
Ġfuture	148052
Ġadded	148052
Ġrelated	147887
Ġq	147684
##nd	147399
class	147192
\_	147104
Ġyet	146993
Ġaccess	146850
Ġdefined	146136
)(	145531
##ve	145137
Figure	145019
Ġbelieve	144985
##ated	144494
Ġproject	144492
Ġapproach	144018
ĠW	143872
ĠThen	143709
##ce	143615
##*	143561
Ġsolution	143372
ve	143161
Ġcommunity	143154
ĠAfter	143148
partial	143041
rho	143029
Ġanti	142674
23	142631
Ġstates	142548
Ġ17	142479
Ġminutes	142432
##Q	142414
Ġwent	142376
Ġkind	142227
%)	142015
Ġdecision	141449
}^	140956
##ter	140843
Ġblood	140709
Ġbit	140450
ĠUS	140168
Ġmajor	140070
Ġdevice	139931
###	139744
##no	139682
##ization	139676
Ġtrying	139631
##ant	139605
Ġincluded	139551
Ġreason	139423
^{-	139102
Ġindividual	138932
Ġclose	138824
Ġtoday	138538
Ġtext	138473
Ġmembers	138303
Ġ},	138190
phi	137994
Ġmaterial	137982
Ġrespectively	137953
Â°	137948
Ġregion	137856
theta	137845
ĠĊ	137588
bar	137538
Ġchild	137319
)/	137277
ÂĤ	137204
],[@	137187
Ġreceived	137137
[@	137046
Ġwon	136951
##ra	136805
Ġadditional	136784
Ġcity	136337
Ġanything	136180
Ġevent	136173
Ġsignificantly	136171
Ġpatient	136016
##ating	135888
`	135817
Ġpercent	135801
##re	135773
##ism	135739
Ġface	135593
Ġcertain	135567
omega	135271
Ġnormal	135089
Ġhalf	135081
Ġnull	135030
Ġgrowth	134848
Ġvia	134778
Ġclaim	134698
ĠĠĠĠĠĠĠĠĠ	134677
Ġ\\	134630
##la	134614
##sa	134359
Ġneeds	134291
Ġasked	134181
Ġsimple	134020
Ġdeath	133685
")	133448
Ġgetting	133411
");	133081
Ġnight	133048
Ġhistory	133010
include	132923
##th	132823
tau	132419
Ġproduct	132027
Ġlooking	131899
leq	131704
Ġdifference	131411
ĠMr	131343
Ġhref	131156
Ġmethods	131072
Ġpay	131071
001	131059
Ġseries	130973
Ġreview	130964
Ġparty	130964
##;	130915
##ty	130914
Ġperformance	130738
##na	130658
Ġtarget	130541
##as	130467
Ġproblems	130376
##ma	130290
100	130026
based	129967
Ġthus	129772
Ġissues	129500
Ġinvolved	129491
Ġnetwork	129278
Ġalmost	129212
Ġroom	129030
Ġprevious	129025
##{\	128989
Ġnothing	128921
ĠIs	128913
##_	128912
Ġhours	128781
Ġservices	128661
Ġtherefore	128587
infty	128578
Ġneeded	128349
Ġexpected	128340
times	128292
Ġ21	127917
Ġpolice	127803
ĠAn	127702
Ġheld	127480
Is	127372
##da	127347
Ġconsider	127275
Ġrecord	126965
Ġpopulation	126917
Ġinstead	126847
80	126804
Ġpaper	126799
Ġcomplex	126674
Ġmass	126666
year	126413
Ġtell	126060
Ġ19	125975
Ġair	125972
Ġcost	125907
Ġidea	125859
How	125674
Ġrecent	125656
}{\	125415
Ġcheck	125410
Ġlines	125374
Ġseems	125137
Ġunderstand	125028
Ġ(-	124913
Ġgene	124850
Ġmove	124845
Ġstep	124840
Ġ...	124543
Ġloss	124538
Ġjob	124271
Ġcondition	124076
Ġweight	123823
code	123820
Ġmotion	123797
ĠÂ§	123695
https	123617
Ġprior	123561
Ġplan	123356
Ġtable	123344
Ġcomes	123309
Ġpage	123265
Ġstudents	123157
test	123141
Ġmedia	123098
Ġfilm	123018
Ġvar	122970
size	122842
When	122799
Ġhouse	122796
Ġproduction	122718
##ian	122692
eq	122683
##mo	122629
Ġlead	122561
Ġquality	122533
40	122531
Ġsomeone	122383
$-	122326
ĠBy	122089
Ġmodels	121860
Ġtaking	121838
27	121808
Ġmarket	121707
Ġcar	121664
Ġstarted	121452
ĠYork	121417
Ġblack	121411
ĠMy	121346
Â±	121158
##ns	121030
nu	120932
time	120923
Ġsignal	120859
Ġprovides	120854
Ġdistribution	120688
Ġdesign	120679
Ġpolicy	120637
Ġstrong	120636
##ey	120635
Ġitself	120548
##at	120509
##Id	120462
ĠThus	120387
Ġnecessary	120306
âĢ¦	120225
ĠInc	120178
##/	120083
Ġlive	120004
##est	119917
Ġre	119815
ĠDr	119706
Ġspecial	119540
Ġaverage	119379
Ġpre	118901
Ġ/*	118901
Ġoriginal	118700
/*	118595
up	118573
Ġrights	118412
ĠTrump	118388
##:	118326
ĠNational	118174
Ġprobably	118091
Ġ||	117984
Ġphase	117699
new	117625
Ġshall	117376
Ġclinical	117225
define	117058
Ġheart	117056
Ġsample	117050
##ling	117010
self	117006
Ġstory	116922
Ġaccount	116907
##ge	116880
##'	116301
Ġfunctions	116300
That	116276
Ġproducts	116204
Ġsimply	116195
Ġ40	116081
Ġ22	116033
02	115984
Ġla	115975
Ġsequence	115943
##ble	115924
ĠOF	115893
Ġmind	115850
28	115782
see	115717
Ġpath	115587
Ġespecially	115550
Ġyoung	115544
Ġworks	115516
Ġtemperature	115438
Ġoutside	115400
Ġwords	115361
Ġcolor	115191
On	115081
ĠWith	114981
param	114948
on	114934
Ġallow	114836
Ġproperties	114751
ĠĠĠĠĠĠĠĠĠĠ	114732
Ġstatic	114706
Ġinput	114656
Ġturn	114578
##}	114478
##ke	114435
ll	114408
Ġ!=	113991
Ġaddress	113922
Ġcomplete	113908
ĠTHE	113895
Ġlength	113874
hat	113789
key	113644
Ġnear	113596
##ial	113519
Ġsix	113503
Ġpressure	113498
Ġpresence	113490
ĠCity	113373
Ġdetermined	113269
Delta	113205
]\]	113161
Ġmedical	113135
Ġbook	113026
Ġsense	112848
##hi	112755
Ġevents	112619
26	112588
var	112520
Ġgenes	112408
*,	112376
Ġpolitical	111954
Ġarray	111609
Ġdate	111571
Ġwhite	111214
Ġeffective	111178
Ġtypes	111109
<UNK>	111087
ĠCo	110996
Ġoutput	110968
Ġprimary	110953
Ġstop	110803
Ġlanguage	110776
px	110760
Ġsubject	110568
##Data	110564
##ize	110512
Ãĳ	110501
Ġelement	110471
Ġeverything	110386
add	110381
^\	110366
Ġ&&	110339
Ġfollow	110150
Ġinside	109934
ĠMay	109673
Ġphysical	109666
##ot	109658
Ġfeatures	109639
ĠÂ±	109625
##lu	109612
Ġlonger	109608
Ġrest	109546
Ġdetermine	109293
##=	109114
Ġpresented	108872
Ġeasy	108866
##ton	108793
Ġjudgment	108551
##io	108550
Ġquite	108536
##co	108504
Ġidentified	108455
Ġcreated	108442
Ġbad	108368
##ts	108275
Ġrunning	108212
Ġsamples	108037
Ġcross	107988
Ġstatus	107969
));	107925
Ġbasis	107846
ĠĠĠĠĠĠĠĠĠĠĠ	107841
ĠString	107765
ĊĠĠĠĠĠĠĠĠĠĠĠĠĠĠĠĠĠĠĠĠĠĠĠ	107716
Ġformer	107699
##ee	107676
log	107595
Ġisn	107497
Ġparameters	107384
Ġwanted	107253
31	107162
##ting	107086
Ġbreak	107053
Ġmember	106990
Ġfollows	106981
}}\	106947
public	106835
Ġstatement	106810
čĊĠĠĠ	106640
Ġpersonal	106390
Ġareas	106240
Âĥ	106221
##ous	106160
Ġfront	106055
Ġago	106043
Ġrespect	105852
($	105843
ĠLicense	105755
Ġinitial	105472
Ġelements	105448
##lo	105434
Ġweeks	105178
Ġdirectly	105064
Ġ23	104845
Ġquestions	104497
Ġsearch	104409
Ġground	104327
Ġrequest	104250
Ġrelationship	104229
Ġred	104218
Ġnatural	104149
##ct	104127
03	104039
ĊĠĠĠĠĠĠ	104009
Ġmemory	103907
35	103856
##ID	103755
Ġtraining	103753
Ġforce	103752
##bi	103643
Ġgames	103549
Ġco	103486
Ġtheory	103365
My	103234
Ġvideo	103218
##am	103088
Ġmice	102931
Ġindex	102853
##age	102725
Ġacid	102673
Ġcontext	102642
##ol	102450
##ei	102449
Ġ(\[	102353
Ġcontinue	102225
29	102184
as	101940
##il	101872
ĠDNA	101804
rangle	101799
09	101793
xi	101590
Ġnews	101543
Ġbuilding	101536
##View	101523
Ġbehind	101496
Ġdeal	101342
Ġstyle	101327
Ġ$$	101262
04	101232
tilde	101205
])	101196
##ni	101117
Ġgreater	101029
08	101011
##tor	100966
Ġapplied	100852
Ġdifficult	100800
33	100715
')	100690
Ġlimited	100591
ĠSuppose	100533
Ġmonth	100340
Ġrelease	100294
Ġrequire	100292
##To	100281
Ġdistrict	100178
Ġpreviously	100166
bf	100094
Ġsaw	100077
ĠOur	100011
Ġtitle	99961
ĠAct	99938
Ġgas	99911
Ġincludes	99902
Ġreduced	99878
ĠCD	99790
##ator	99724
ĠTherefore	99701
Ġdrug	99646
##di	99558
array	99546
]{}	99511
const	99503
Ġability	99430
Ġmap	99333
Ġinvention	99299
eta	99285
Ġmessage	99231
ĠJohn	99153
Ġlayer	99123
Table	99011
Ġ28	98930
Ġdef	98927
##son	98913
Ġ60	98900
Ġknowledge	98840
ĠSt	98757
Ġclaims	98744
Ġdeveloped	98688
min	98656
Ġarticle	98589
Ġbuild	98529
Ġoil	98434
cdot	98406
âĢĲ	98365
Ġindependent	98254
##ure	98229
}$,	98108
Ġcontact	98010
Ġunit	97979
\])	97903
:**	97830
ĠPresident	97791
}(\	97707
Ġwrong	97641
Ġflow	97605
Ġtax	97599
void	97595
Ġsoftware	97574
pt	97563
Ġwrite	97523
Ġhttp	97491
##ical	97266
ÃĤ	97240
Ġnegative	96973
##less	96866
Ġ2012	96755
Ġnumbers	96650
##ary	96636
Ġplayers	96624
Ġdouble	96621
Ġwritten	96583
Ġcoming	96388
Ġreference	96381
Ġword	96303
Ġfollowed	96263
Ġleave	96205
Ġparticularly	96082
().	96037
##tic	96032
ĠCounty	96007
Ġactive	95877
ĠSince	95802
Ġimpact	95678
##ki	95663
Ġdirect	95610
Ġetc	95591
Ġobtain	95367
Ġsecurity	95340
out	95299
ĠWhile	95290
ĠHis	95194
Ġnature	94979
ĠHere	94946
Ġdefault	94932
##|	94751
from	94686
ĠII	94478
Ġ[*	94434
Ġentire	94409
##tt	94303
Ġnote	94155
Ãĥ	93997
Ġspecies	93983
Ġglobal	93974
Ġusually	93973
width	93910
Get	93777
Ġrule	93714
Ġsub	93707
Ġrates	93648
Ġdifferences	93628
Ġ2013	93538
Ġliving	93514
##ba	93486
Ġoffice	93426
Ġbar	93378
Ġanswer	93339
Ġalthough	93309
Ġwhose	93193
##+	93142
](	93078
st	93071
Ġhold	93031
Ġcut	93024
Ġpractice	92994
##ur	92985
ĠWorld	92959
Ġtried	92932
Ġ2016	92853
Ġargument	92797
Ġlate	92757
Ġonline	92674
45	92637
##ase	92590
##line	92469
Ġcorresponding	92281
Ġgenerally	92216
##one	92212
##Value	92208
Ġnational	92198
Ġlost	92183
##^	92151
Ġforward	92117
Ġrecently	92070
Ġ2014	92039
##ally	91982
psi	91876
file	91814
##<	91807
##ff	91700
Suppose	91689
Ġthemselves	91679
ĠSouth	91612
";	91596
Ġplaintiff	91572
le	91563
ĠHouse	91540
)}	91518
Ġanyone	91512
##log	91484
Ġhope	91436
Ġtakes	91355
Ġsaying	91322
Ġproposed	91269
Ġcountries	91248
}$.	91217
All	91217
##ro	91181
Ġagreement	91120
Ġpurpose	91110
ĠMarch	91099
Ġblock	90877
Ġpain	90875
95	90765
ĠĠĠĠĠĠĠĠĠĠĠĠ	90746
##List	90719
Ġshare	90708
ĠâĪĴ	90682
##ci	90648
Ġsituation	90598
Ġdensity	90523
Ġ26	90510
not	90421
Ġ/>	90413
Ġbrain	90351
She	90220
Ġcenter	90202
Ġtreated	90195
##]	90175
ĠChina	90015
##za	89993
Ġhimself	89851
##ga	89694
##ER	89649
Ġlegal	89594
##ad	89586
".	89584
Ġwar	89546
-\	89543
##up	89506
ĠHow	89463
Ġland	89427
##mp	89341
##ha	89279
Ġfederal	89188
Ġenvironment	89100
ĠSome	88908
Ġ2015	88809
Ġcharge	88806
at	88736
Ġbecame	88716
90	88700
ĠDepartment	88684
##Ã©	88663
ĠAmerica	88659
Ġrelative	88609
36	88548
Ġpretty	88519
..."	88440
it	88434
003	88416
String	88411
epsilon	88383
Ġways	88349
})	88290
with	88277
Ġprice	88195
##ka	88090
tr	87976
Ġfailed	87960
##ide	87927
Ġoffer	87891
Ġpublished	87796
Ġtalk	87768
34	87647
![	87612
Ġlimit	87592
Ġ);	87351
Ġact	87267
varepsilon	87209
Ġhighly	87169
Ġwoman	87163
Ġnode	87153
ĠNorth	87127
Ġfindings	86937
##ING	86912
##ho	86839
Ġderivative	86835
Ġallowed	86822
Omega	86775
Ġselected	86631
##ner	86604
60	86603
##ance	86597
Ġdegree	86478
ĠĊĠĠĠĠĠĠĠĠĠĠĠĠĠĠĠ	86448
Ġcontract	86386
##ful	86304
Ġcomponent	86266
Ġgave	86186
Ġstage	86131
ĠFirst	86113
ĠSystem	86101
ĠGeneral	86027
##do	86021
Ġlarger	86002
Ġdesigned	85987
Ġmeasured	85985
like	85982
Ġinstance	85894
Ġoperation	85884
Ġbring	85865
Ġjury	85831
Ġconstant	85745
Ġ?	85633
Ġdetails	85622
Gamma	85600
Ġindividuals	85425
Ġwasn	85302
Ġeveryone	85297
Ġpass	85257
Ġimages	85167
Ġcurrently	85051
Ġfocus	85048
Ġcaused	85027
Ġ2011	85003
Ġalone	84996
##ir	84954
Ġmoment	84848
Ġlocation	84827
Ġbackground	84762
##ea	84747
Ġfriends	84745
Ġproteins	84631
Ġ///	84628
ĠJune	84580
that	84575
Ġ27	84464
ĠNow	84425
Ġgives	84403
Ġ2010	84399
##ted	84360
ĠNot	84358
Ġbehavior	84298
Ġ:=	84281
function	84273
Ġask	84266
Ġeyes	84241
Ġcomponents	84225
Ġscale	84198
Ġdirection	84192
ĠAlthough	84189
Ġ[**	84183
Ġratio	84143
(-	84118
Ġattention	84041
06	83992
ĠOR	83974
ĠFig	83955
Ġmatrix	83882
Ċĉĉĉĉ	83813
ell	83773
document	83768
Ġchoice	83768
Ġrequires	83697
+\	83656
Ġ;	83617
##sp	83550
old	83529
Ġprime	83500
07	83476
##tr	83464
Ġsent	83409
Ġfixed	83386
Ġappropriate	83385
Ġart	83347
Ġ90	83329
Ġcompanies	83170
čĊ	83057
Ġbegan	83027
Ġknew	83016
##>	82918
Ġ2017	82876
Ġcharacter	82748
Ġleading	82740
Ġoptions	82691
Ġled	82647
Ġdisplay	82583
item	82541
Ġseem	82505
Ġfailure	82417
##ED	82386
Ġmother	82374
Ġmanagement	82276
.'	82221
=\	82142
Ġfinancial	82127
Ġfrequency	82102
Ġusers	82081
Ġunique	82036
Ġ->	82000
Ġeducation	81874
##ise	81622
##vi	81557
Ġtechnology	81523
Ġcontains	81386
Ġson	81371
ĠĠĠĠĠĠĠĠĠĠĠĠĠ	81252
Ġgoal	81191
Ġwin	81107
Ġdivided	81090
Ġheat	81037
##ler	81017
Ġcompletely	81008
Ġincreasing	80968
$\	80948
Ġfiles	80928
..	80884
Ġcosts	80790
}}$	80785
##ay	80779
At	80775
Ġlack	80734
Ġconnection	80710
##rt	80562
Ġorg	80542
Ġ29	80504
Ġparts	80473
69	80444
(),	80438
no	80404
Ġapply	80345
Ġindustry	80290
Ġparties	80283
Ġserver	80250
Ġexpect	80230
Ġoption	80226
ĠJanuary	80217
ĠApril	80166
Ġsuggest	80108
Ġfine	80074
##yl	80045
Ġdistance	80032
Ġequal	79944
Ġearlier	79898
ĠDo	79587
Ġexpressed	79577
Ġuseful	79556
Ġ\<	79523
ĠJuly	79491
Ġoverall	79483
42	79374
Ġsupported	79274
ĊĠĠĠĠĠĠĠĠ	79236
Ġgenerated	79231
75	79199
varphi	79174
__	79169
Ġestablished	79105
Ġstated	79095
Ġallows	79067
Ġ^	79029
Ġhit	78990
Ġdevices	78981
38	78927
max	78907
Ġcentral	78882
čĊĠ	78882
)=	78805
Ġeasily	78732
list	78721
##Ġ	78718
\\	78685
user	78660
Ġstay	78650
Ġ<<	78575
Ġsites	78421
ĊĊĊ	78369
Ġcontaining	78361
They	78319
Ġreasons	78316
##mi	78259
Ġ31	78166
Ġreduce	78136
Ġcount	78117
Ġfinding	78091
Ġvs	78070
ĠLa	78027
Ġsoon	77958
##me	77913
##ya	77866
ĊĠĠĠĠĠĠĠĠĠĠĠĠĠ	77816
Now	77796
Ġhighest	77774
Ġmeasure	77765
Ġapp	77761
ĠWest	77752
Ġcritical	77744
Ġcopy	77736
Ġlocated	77721
());	77718
##ap	77667
Ġparameter	77536
ĠCir	77508
Ġproduced	77507
Ġstress	77439
Ġactivities	77431
Ġeconomic	77384
path	77346
Ġexcept	77311
Ġfiled	77202
index	77162
Ġnotice	77147
Ġlink	77116
Ġfelt	77094
Ġrelevant	77066
Ġen	77028
Ġweb	77008
Ġclearly	76913
Ġactual	76902
Ġauthors	76755
){#	76747
Ġmode	76720
##ley	76696
Ġstore	76586
Ġvariable	76562
Ġappeal	76559
Ġopinion	76537
An	76530
ĠAND	76493
ĠId	76449
One	76315
Ġsign	76274
Ġ($	76242
Ġbox	76182
##so	76166
Ġpattern	76147
##ite	76139
čĊĠĠĠĠĠĠĠ	76045
Ġwriting	76027
Ġshowing	75939
"><	75869
Ġwebsite	75819
Ġhost	75775
##land	75771
Ġpresident	75737
Ġinjury	75672
._	75659
Ġchanged	75651
Ġbrought	75624
Ġboard	75609
Ġsuper	75603
##ec	75546
Ġunderstanding	75536
overline	75447
Ġreceive	75367
Ġsmaller	75363
Ġlearning	75337
Ġcorrect	75313
Ġgoes	75294
Ġ2008	75288
##ities	75273
Ġuses	75218
Ġexperiments	75172
Ġitems	75122
term	75106
Ġhands	75099
langle	74976
Ġwidth	74969
Ġappears	74960
Ġrules	74925
Ġstaff	74921
Ġvector	74888
operatorname	74861
Ġ32	74859
Ġfast	74770
99	74759
Do	74743
Ġlooks	74676
Ġbeyond	74658
Ġheard	74634
ĠOr	74631
Ġcomputer	74614
Ġremains	74598
Ġculture	74583
Ġwide	74579
)$.	74552
Ġ__	74493
Ġbuilt	74438
ĠFrom	74337
='	74300
Ġplease	74281
state	74227
Ġcouple	74218
##ut	74216
##ons	74213
Ġhearing	74206
Ġmeet	74143
ĠData	74048
##les	74036
Ġextra	73985
Ġtumor	73956
##tu	73933
Ġinternal	73905
Ġlooked	73899
Ġturned	73814
Ġmin	73801
Ġworked	73729
âĢĥ	73677
Ġtowards	73666
##mer	73657
\].	73622
39	73543
Ġcampaign	73505
js	73499
Ġ80	73465
Ġmajority	73455
Ġones	73351
Ġappear	73278
Ġbinding	73223
Ġproduce	73221
Ġregarding	73202
Ġvariables	73197
Ġmet	73152
Ġdecided	73134
ĠHealth	73112
\'	73050
##go	73022
Ġexists	73002
53	72972
Ġspeed	72972
title	72950
ĠLe	72923
Ġtherapy	72875
44	72872
Ġbenefits	72821
"/>	72809
Ġlearn	72800
##ca	72786
Ġfully	72771
Ġimprove	72718
ĠDistrict	72675
##va	72666
Ġ2009	72641
Ġconcentration	72637
##ip	72606
Ġtissue	72591
ĠAugust	72532
Ġfire	72525
Ġparents	72502
Ġreports	72466
Ġtransfer	72465
Ġmatch	72459
Ġmilitary	72419
Ġresulting	72363
37	72354
##ier	72348
}_{\	72310
Ġ!	72277
##ology	72154
Ġfather	72102
48	72095
Ġexactly	72065
ĠIS	72033
##ue	71992
Ġskin	71989
Ġprevent	71972
Ġindicated	71897
Ġandroid	71862
Ġerr	71848
Ġvolume	71836
Ġnor	71802
Ġinfection	71792
ĠOctober	71775
##ists	71752
Ġ95	71743
Ġsetting	71704
Ġmedium	71698
ĠPM	71687
Ġwrote	71685
##ping	71649
base	71637
Ġinteresting	71567
43	71549
Ġmorning	71548
##ish	71538
70	71496
Ġdoor	71467
ĠTO	71303
Ġmaterials	71232
Ġzero	71221
##Object	71182
Ġreading	71176
Ġvehicle	71152
##ko	71106
fn	71105
Ġplayed	71096
ĠSeptember	71082
Ġfeature	71076
Ġadministration	71058
Ġcommand	71051
ĊĊĠĠĠĠĠĠĠĠĠĠĠ	70950
Ġscore	70938
Ġgets	70862
nbsp	70857
free	70812
Ġavoid	70808
ĠDecember	70802
Ġdefine	70786
Ġmeeting	70703
Ġseparate	70681
Ġfall	70637
Ġfields	70630
Ġ2018	70549
Ġreasonable	70537
ĠĠĠĠĠĠĠĠĠĠĠĠĠĠ	70517
##Info	70484
Ġvisit	70461
Ġchar	70448
all	70438
Ġproof	70393
)).	70381
ĠUSA	70358
##per	70343
Ġreaction	70307
Ġplayer	70288
)^	70256
Ġconstruction	70255
Ġfit	70245
Ġheight	70149
Ġrandom	70141
Ġfriend	70136
##&	70133
Ġstarting	70108
Ġapplications	70108
ĠIN	70097
static	70032
##ile	70001
un	69888
Ġmaximum	69878
cm	69875
Ġthroughout	69874
Ġlives	69866
*.	69861
Ġparticipants	69812
##out	69805
ĠPhys	69764
Ġexist	69741
Ġtask	69715
True	69713
Ġnoted	69711
##Key	69702
Ġdamage	69696
##der	69687
Ġprocesses	69687
Ġlinear	69686
by	69679
Ġregions	69628
Ġdomain	69617
Ġdrive	69609
Ġformation	69596
line	69575
Ġconnected	69538
##ard	69505
Ġpoor	69491
Ġ/**	69489
big	69473
Ġsafety	69462
Ġclosed	69460
65	69433
}^{\	69393
Ġcontrast	69332
Ġbecomes	69321
Ġformed	69310
ĠBecause	69291
Ġinternational	69231
Ġsources	69225
Ġsuccess	69139
##nc	69127
ĠMore	69090
Ġitem	69081
Ġauto	69071
Ġphone	69031
sub	68991
Ġtests	68973
41	68971
Ġdocument	68930
Ġrevealed	68925
Ġinteraction	68856
Ġsex	68765
Ġle	68699
ĠSection	68676
##ks	68667
Ġinfluence	68648
":"	68636
true	68523
Ġotherwise	68510
Ġbasic	68510
Ġcollection	68509
chi	68479
##</	68473
ĠNovember	68464
Ġstd	68447
ĠCenter	68348
##hr	68323
)*	68312
struct	68253
Ġequation	68244
java	68239
Ġimmediately	68237
Ġfunctional	68231
':	68216
app	68210
sim	68191
Ġ70	68139
##ps	68103
ĠMoreover	68072
Ġroot	68067
['	68031
After	68029
Sec	67976
Ġwindow	67894
Ġactions	67887
##bl	67824
Ġreduction	67823
Ġreleased	67809
55	67712
ĠWashington	67712
ĠIL	67680
Ġdefense	67664
##ow	67656
which	67624
Ġopportunity	67616
Ġresistance	67605
Ġtoward	67583
Ġpaid	67541
vec	67485
Ġgiving	67482
Ġmechanism	67480
ĠĠĠĠĠĠĠĠĠĠĠĠĠĠĠ	67453
Ġcolumn	67451
ĠOf	67417
cal	67403
Ġ]	67370
Ġcounsel	67366
Ġcombination	67358
88	67282
##ors	67265
##izing	67258
');	67220
input	67140
##String	67124
Ġconsistent	67087
Ġhospital	67067
top	67061
Ġdeep	67059
Ġtesting	67057
Ġidentify	67057
Ġchance	67039
ĠÃĲ	67036
}=	67025
Ġfigure	67021
Ġrelatively	66815
Ġten	66797
def	66769
Ġforms	66721
mathfrak	66720
Ġensure	66697
Ġsometimes	66693
85	66642
##AL	66630
##sc	66622
Ġsolid	66592
Ġresources	66591
Ġ35	66541
geq	66505
Ġfun	66501
##ST	66475
Ġbottom	66471
Ġwall	66393
php	66332
be	66323
Ġquickly	66301
Ġclient	66287
Ġplant	66277
Ġmiddle	66238
Ġchoose	66205
Ġremove	66180
Ġ(\	66180
ĠApp	66168
##op	66146
*-	66134
Ġprove	66125
Ġthinking	66093
Ġ(**	66071
Ct	66050
86	65970
}}_	65960
######	65943
Ġmyself	65896
length	65878
Ġprocedure	65844
##CA	65793
Ġplaying	65727
Ġtrade	65714
Ġcore	65705
ĠTable	65701
Ġnearly	65636
Ġbenefit	65605
Ġonto	65604
ĠSchool	65590
##nn	65578
ĠObama	65535
Here	65517
Ġportion	65508
Ġproviding	65481
Ġmovement	65466
Ġready	65453
Ġmoved	65444
ĠSan	65425
Ġdetected	65424
Ġsafe	65419
Ġagree	65412
Ġchannel	65403
Ġhappened	65396
Ġdatabase	65391
##pe	65375
Ġconducted	65372
Ġmoving	65256
Ġregular	65239
Ġexisting	65221
Ġobjects	65217
##ability	65203
Ġsteps	65155
)$,	65123
Ġstand	65072
##Size	65065
Ġhappen	65000
Ġreach	64998
##and	64994
Ġcover	64926
Ġdaily	64920
ĠWar	64893
ĠCalifornia	64893
Ġcalculated	64808
Ġfacts	64787
};	64715
Ġbuy	64706
net	64688
Ġfinally	64676
Ġstar	64654
Ġanimals	64606
Ġupper	64550
ĠGo	64542
ĊĊĠĠĠĠĠ	64527
Ġindicate	64485
Ġsort	64457
mm	64447
##ice	64441
##gh	64433
Ġyourself	64428
color	64423
Ġtool	64417
Ġtown	64410
Ġattack	64407
he	64370
Ġdemonstrated	64294
^{(	64265
*~	64263
Ġnearest	64258
##ze	64254
ĠAl	64240
Ġrace	64232
ĠWhite	64187
co	64185
())	64120
##Item	64072
ĠAlso	64013
Ġunits	63924
my	63889
Ġdefinition	63862
Ġcomments	63820
em	63813
Ġremain	63813
br	63793
node	63769
,-	63759
Ġroad	63731
Ġperfect	63694
ĠPublic	63664
ĠNULL	63645
Ġremember	63597
image	63550
Ġmg	63550
)-	63539
Ġshape	63478
]:	63452
Ġcapacity	63437
Ġmulti	63422
Ġseven	63400
Ġcarried	63324
Ġsufficient	63317
Ġremoved	63315
Ġmachine	63279
##by	63273
Ġplaced	63254
Ġprocessing	63251
Ġradio	63230
##10	63150
With	63114
rightarrow	63061
%,	63021
##led	62991
Ġvariety	62957
quad	62952
Ġsound	62952
Ġsets	62946
Ġborder	62898
Ġrepresent	62883
Ġwife	62842
.[	62823
Ġpackage	62822
Ġsend	62819
Ġmagnetic	62799
Ġhear	62782
72	62699
##rr	62691
Ġ200	62650
Ġoperator	62642
ĠFebruary	62594
49	62573
Ġdistributed	62569
Ġprint	62568
ĠGet	62559
Ġ2007	62520
Ġnice	62490
dev	62482
ĠAm	62441
Ġframe	62417
Ġselection	62374
51	62318
ĠEven	62302
56	62301
##ĊĠ	62248
en	62246
By	62245
82	62227
Ġsave	62176
Ġsuggested	62171
str	62157
##que	62145
##im	62138
Ġcomment	62127
Ġbeginning	62092
]\],	62082
##ver	62060
89	62048
##Path	62045
ĠFigure	62031
##met	62027
##nce	62019
##Ī	61979
##pa	61975
##00	61960
ĠBoard	61934
Ġemail	61902
Ġblue	61895
Ġnamed	61861
Ġprograms	61799
94	61743
##gen	61729
Ġcomparison	61689
Ġworkers	61637
\],	61620
False	61591
Ġhealthy	61531
Ġgreen	61476
Ġincreases	61474
Ġscreen	61414
Ġdi	61410
##Error	61380
ĠEuropean	61379
Ġdetection	61318
##fi	61314
Ġworth	61314
##ified	61307
Ġexposure	61292
Ġcom	61275
related	61266
Ġserious	61249
Ġque	61228
Ġmaybe	61214
Ġpassed	61142
##File	61137
ĠIndia	61136
Ġletters	61126
##ja	61116
Ġdark	61115
##?	61106
Ġplaces	61063
Ġdes	61056
Ġresponsible	61012
Ġ\,	61007
Ġmeasures	60992
Ġrow	60991
Ġletter	60989
Ġdiscussed	60970
Ġupdate	60963
Ġhair	60957
Ġreplacement	60949
Ġdrugs	60928
##ative	60903
Ġedge	60903
Ġactivation	60895
Ġdevelop	60861
Ġmanner	60830
##be	60814
Ġapproximately	60808
ĠResearch	60798
ĠID	60791
Ġpicked	60736
Ġincome	60721
Ġinsurance	60709
Ġcharacteristics	60695
$$	60656
47	60564
Ġsymptoms	60559
57	60473
Ġcircuit	60369
##Exception	60306
##men	60288
##den	60278
error	60276
Ġstructures	60257
Ġpanel	60229
Ġmodern	60210
Ġchallenge	60201
Ġmale	60195
##ations	60163
Ġtalking	60161
ĠUK	60077
Ġessential	60052
Ġcontinued	59979
*)	59949
ĠCI	59902
ĠPat	59802
Ġtree	59800
Ġ75	59756
##%	59722
##bo	59710
Ġtestimony	59692
Ġinvestigation	59685
##ON	59672
Ġassume	59650
98	59631
Ġtransition	59587
Ġeffort	59583
Ġbegin	59526
Ġreturned	59519
Ġ~	59483
Ġpick	59478
Ġhappy	59448
ĠFurthermore	59343
##**	59319
Ġstuff	59318
68	59288
52	59278
ĠList	59263
##Context	59229
ĠPaul	59224
Ġstock	59209
##ģ	59197
##rd	59188
Ġwait	59187
Ġ((	59159
Ġ});	59145
)/(-	59110
lib	59068
)**	59067
46	59042
##ex	59034
Ġhot	59009
ĠRed	58986
info	58951
Ġ2000	58943
ĠĠĠĠĠĠĠĠĠĠĠĠĠĠĠĠ	58941
Ġpair	58924
read	58885
Ġimport	58850
Ġpopular	58840
Ġproper	58836
##ls	58817
Ġeye	58813
Ġkids	58801
Ġlog	58734
Oh	58714
Ġexercise	58670
Ġtruth	58661
La	58660
Ġload	58647
Ġdescription	58600
Ġinterface	58546
##dd	58507
"},	58498
##ium	58473
Ġconduct	58468
##ped	58418
##ins	58386
ĠEnglish	58343
002	58297
Ġmusic	58287
##bb	58244
Ġ-->	58232
Ġcouldn	58228
Ġwalk	58227
Not	58163
Ġun	58105
59	58088
am	58081
Ġspent	58049
Ġspecifically	58029
Ġdenied	58007
Ġplans	57982
/(-	57971
Ġsurgery	57950
Ġperform	57919
Ġround	57881
Ġfamilies	57874
Ġserve	57827
Ġstrategy	57826
Ġplus	57818
/**	57803
ĠInternational	57791
Ġsolutions	57773
##ger	57769
Ġsleep	57760
ĠCode	57756
ĠMan	57749
Ġalternative	57747
Ġspin	57740
##mb	57732
Ġtested	57670
Ġcycle	57667
Ġ45	57622
Ġdead	57607
Ġcareer	57595
##ular	57589
Ġofficials	57579
cr	57538
Ra	57524
ĠNews	57502
004	57492
Ġsummary	57485
source	57484
Ġwants	57458
Ġ2006	57450
Ġmentioned	57428
Ġstrength	57344
ldots	57342
Ġeight	57325
Ġelection	57310
.\	57297
ĠRev	57276
##ĳ	57274
Ġnil	57273
Ġparent	57222
bm	57204
##ging	57195
link	57190
##fe	57162
##ence	57157
ĠCan	57153
ĠYour	57086
##om	57083
##fa	57074
96	57049
Ġprepared	57029
91	57009
sp	56974
Ġaffect	56961
ul	56947
Ġsum	56932
one	56927
Ġnone	56905
Ġleads	56880
Ġofficial	56878
Ġdespite	56870
##ised	56856
Ġex	56802
Ġstudent	56792
Ġunless	56779
Ġfemale	56779
Ġagent	56774
##TA	56720
[]	56708
Ġmodule	56649
Ġstudied	56647
script	56599
Ed	56592
}}(	56583
Ġ("	56582
81	56574
Ġimproved	56573
##min	56551
Ġnuclear	56551
content	56520
##zi	56514
ĠHer	56503
##Text	56488
Ġtypically	56478
day	56467
Ġmetal	56463
Ġcombined	56463
Ġwatch	56438
Ġexplain	56427
Ġ37	56404
Ġprotect	56357
Ġsuccessful	56302
dot	56267
##name	56257
Ġexperimental	56248
Ġsurvival	56243
Ġgrowing	56205
Calculate	56201
Ġcontrols	56178
ĠDavid	56171
Â¾	56158
Ġmeaning	56150
Ġcommunication	56128
Ġbound	56116
Ġentry	56111
Ġminimum	56085
Ġvote	56080
##NG	56049
","	56036
Ġoccur	55980
form	55949
ĠST	55936
77	55935
Ġjava	55931
**)	55921
Ġattempt	55918
62	55911
54	55900
Phi	55879
Ġconfirmed	55872
Ġpiece	55851
Ġkilled	55791
78	55769
Ġhour	55748
73	55745
##ana	55735
';	55720
Ġshot	55695
ĠAM	55673
##lin	55671
##ning	55664
Ġchain	55652
ĠTV	55637
ĠNote	55631
Ġforeign	55626
500	55616
84	55591
Ġmolecular	55591
ĠCongress	55587
Ġguy	55580
Ġball	55540
97	55535
Ġcontain	55525
Ġcircumstances	55521
Ġsociety	55502
Ġinduced	55498
object	55492
##graph	55477
Ġperhaps	55459
Ġhttps	55451
Ġwouldn	55436
]^	55431
ĠHigh	55418
App	55402
Ġnames	55401
Ġagreed	55387
Ġtools	55381
Ġraised	55324
##Set	55313
##ible	55304
Ġoperations	55297
so	55295
Ġcalls	55279
Ġanalyzed	55250
Ġlinks	55242
Ġjudge	55235
Ġprofessional	55228
Ġassociation	55224
##ification	55214
Ġreached	55186
Ġwhereas	55156
github	55149
Ġaffected	55134
Ġbillion	55121
##ķ	55112
ID	55111
[^	55109
Well	55100
Ġdied	55100
##lt	55078
Ġfeet	55066
Ġliquid	55065
Ġemployees	55004
Ġofficer	55002
Ġclasses	54995
Ġhandle	54992
ĠDe	54985
\,	54974
ĊĠĠĠĠĠĠĠĠĠĠĠĠĠĠĠĠĠĠĠĠĠĠĠĠĠĠĠ	54962
but	54947
we	54946
Ġbill	54923
Ġsentence	54914
ÂŃ	54901
##¡	54899
74	54865
ĠMost	54862
{{\	54854
Be	54845
start	54841
83	54839
Ġbuffer	54810
Ġcauses	54805
ĊĊĉ	54777
Ġsrc	54758
Ġ(!	54749
ĠCal	54733
Ġselect	54638
Ġprobability	54609
res	54583
Ġcredit	54572
an	54539
58	54536
Ġkept	54523
over	54500
Ġcriminal	54482
Ġmental	54479
ĠGa	54434
##	54423
ĠĠĠĠĠĠĠĠĠĠĠĠĠĠĠĠĠ	54409
##State	54395
Ġefforts	54386
group	54385
otimes	54379
Ġhuge	54371
Ġcollected	54362
\<	54345
##In	54309
##ĠĠ	54309
##LL	54308
##era	54298
Ġtraditional	54292
prime	54254
Ġoccurred	54247
Ġvoice	54220
##ak	54185
boldsymbol	54180
##ina	54143
##of	54138
Ġcorrelation	54132
##Ħ	54122
##°	54110
Ġintroduced	54082
Yes	54050
ĠPark	54038
Ġ48	54033
Ġdiscussion	54005
Ġsuggests	53990
Ġstorage	53975
Ġrelation	53967
87	53964
##ala	53955
Ġestimated	53884
Ġcertainly	53856
ĠGroup	53853
93	53824
ĠLondon	53808
##ny	53802
Ġexplained	53801
Ġtechniques	53784
Why	53720
ĠDon	53719
Ġwave	53711
Ġmovie	53708
##Ģ	53702
al	53692
Ġdiagnosis	53687
Ġformat	53651
Ġgeneration	53617
Ġstatute	53614
Ġgone	53597
##12	53579
Ġremaining	53576
Ġabsence	53547
##Ã¡	53544
Ġ36	53540
Ġprotection	53529
Ġsexual	53496
##end	53472
Ġappellant	53451
See	53429
Ġsummer	53426
##ri	53415
New	53332
##lla	53325
Ġwhom	53318
##OR	53302
##ĵ	53297
Ġforces	53286
Ġalgorithm	53276
Ġ2005	53237
##ara	53235
Ġvalid	53170
field	53134
##pi	53121
##ĺ	53117
Ġrequirements	53117
##ess	53087
Ġbiggest	53057
},\	53012
Ġrecords	52996
Ġbed	52874
Ġclean	52861
Ġcounter	52848
Ġband	52830
##ph	52818
create	52797
Ġgun	52754
##ai	52740
Our	52713
et	52669
Sigma	52657
Ġolder	52556
Ġpicture	52530
Lambda	52507
##dy	52501
Ġmissing	52474
##ION	52465
Ġresponses	52462
ĠEast	52431
67	52426
Ġorganization	52424
Ġserved	52421
Ġlaws	52409
Ġextent	52407
Ġpress	52399
ĠEach	52341
Ġadding	52328
count	52275
Ġoffers	52273
Ġoptical	52259
##rm	52256
Ġcapital	52250
Ġwild	52246
Ġexternal	52243
66	52221
##çļĦ	52211
Ġquantum	52184
Ġderived	52147
##IT	52137
Ġcreating	52110
76	52044
ĠTexas	52041
Ġscience	52027
Ġsubjects	52019
##Node	52017
While	52002
Ġpurposes	51999
##gi	51944
Ġenter	51921
Ġmid	51917
##gu	51897
Ġeconomy	51872
Ġanimal	51867
Ġauthor	51861
ĠBlack	51794
##į	51770
200	51747
Ġideas	51736
##IC	51709
Ġintended	51702
Ġschools	51695
Ġassert	51694
##SE	51692
config	51688
##ene	51585
##wa	51568
Ġproperly	51517
.](	51511
map	51479
ĠStreet	51469
Ġrepresents	51463
Ġresolution	51419
##ach	51411
Ġtrack	51394
']	51371
ĠIsrael	51354
##IN	51351
Ġ""	51338
ĠBritish	51332
Ġ33	51323
Ġrec	51294
Ġdecreased	51290
Ġstation	51289
Ġdirector	51284
##ek	51273
Ġarm	51202
url	51193
Ġachieve	51184
Ġdie	51151
ĠSupreme	51123
79	51103
Ġauthority	51041
mbox	51011
Ġrise	50989
nonumber	50986
Ġmechanisms	50986
Ġprofile	50985
##ber	50972
Ġvirus	50970
Ġprotected	50948
##!	50947
ĠGoogle	50947
ĠEurope	50923
##Index	50906
Ġlargest	50886
##ino	50884
induced	50880
Ġfeeling	50854
##¯	50853
Ġattorney	50847
specific	50845
##ose	50833
case	50831
Ġnovel	50808
Ch	50765
Le	50759
Ġcold	50759
ĠFoundation	50755
ab	50744
Ġinterests	50735
Ġteams	50721
##tra	50701
##ore	50663
Ġloop	50662
Ġmembrane	50661
Ġ72	50661
src	50653
ensuremath	50639
Ġtechnique	50637
"></	50636
ĠPeople	50635
Ġcrime	50604
Ġofficers	50601
##sm	50551
ad	50526
Ġcontained	50502
Ġnet	50483
However	50465
Ġslightly	50439
##ain	50409
ĠFriday	50377
Ġ42	50336
##TE	50309
ĠRNA	50296
ĠPC	50296
ĠTwo	50287
((	50277
Ġcoverage	50245
ĠCouncil	50205
Ġsales	50180
##ual	50177
body	50140
}-	50112
Ġfight	50108
##qu	50100
circ	50093
Ġdriver	50091
##res	50090
Ġbool	50083
Ġshared	50081
)?	50075
Ġguys	50034
Ġslow	50032
ĠCommission	50032
Ġfloor	50000
Ġcharged	50000
##cy	49985
ĠCa	49980
Ġerrors	49956
Ġcharacters	49947
Ġopening	49945
##NT	49943
Ġlatest	49880
ĠCalculate	49862
Ġphoto	49855
Al	49853
Ġprojects	49836
ĠCanada	49833
##her	49826
ĠChinese	49826
Ġsevere	49810
Ġdose	49775
Ġconventional	49769
Ġoffered	49747
##Ļ	49712
Ġholding	49687
##Ĩ	49681
##ens	49653
Ġannounced	49624
Ġpro	49597
##LE	49596
Ġfear	49543
Ġdescribe	49530
Ġexchange	49525
Ġda	49508
##way	49505
ĠDi	49479
ĠNi	49456
Data	49443
Ġentered	49443
Ġtrust	49418
Ġad	49409
Ġgain	49400
Ġbank	49399
Ġ64	49382
005	49372
Ġinteractions	49356
Ġagents	49354
##ron	49348
Ġfresh	49348
ĠGreen	49326
Ġres	49325
63	49322
model	49252
##With	49251
ĠJust	49225
Ġsupply	49213
##ľ	49205
result	49192
ĠNa	49192
Ġ65	49180
2015	49127
##ky	49105
Ġdecrease	49104
##ev	49082
Ġdog	49077
api	49073
ĠJames	49073
db	49063
##red	49053
Ġdrop	49036
ĠTi	49019
**]{},	49018
Ġagency	49000
ĠFe	48976
Ġswitch	48968
##int	48967
version	48962
Ġanalyses	48962
core	48957
.[@	48948
Ġfilter	48922
Ġblog	48912
Ġwish	48902
Ġviews	48896
(&	48892
Ġconcentrations	48888
py	48885
Ġ"[	48852
âĢ¢	48851
Ġdigital	48844
Ġret	48835
Ġchronic	48822
Ġoutcome	48790
čĊĉ	48789
Ġ+=	48758
ĠCA	48756
##ig	48724
##ern	48718
čĊč	48711
Ġgenetic	48700
Ġexistence	48698
ĠSuch	48697
##ify	48687
Ġreceptor	48684
âĢĬ	48683
##ker	48671
Ġstable	48655
##box	48642
summary	48615
##ms	48611
Ġfinite	48546
Ġcommercial	48546
Ġsoft	48520
Ġequipment	48509
Ġpossibility	48508
Ġstars	48504
##ten	48503
Ġplants	48486
##ane	48475
Ġdoubt	48473
ĠMonday	48452
Ġdriving	48451
Ġoperating	48450
Ġcompleted	48394
čĊĠĠĠĠĠĠĠĠĠĠĠ	48380
Ġ34	48378
Ġmax	48348
##po	48347
Ġgirl	48344
Ġreturns	48340
Ġquery	48338
material	48318
Ġ2004	48317
Ġpatterns	48307
Ġbeautiful	48306
level	48290
006	48286
ĠCO	48276
##har	48259
Ġinteger	48257
func	48248
Ġsignals	48238
_.	48234
Ġwhatever	48231
##OS	48229
ĠBl	48223
Ġheavy	48215
use	48202
##ates	48195
##Ł	48182
Ġliver	48171
âĢĿ.	48159
Ġidentity	48153
do	48139
Ġinner	48119
Ġcatch	48067
##ah	48063
ĠĠĠĠĠĠĠĠĠĠĠĠĠĠĠĠĠĠĠ	48060
Ġel	48050
)"	48046
Ġmobile	48044
92	48034
Ġse	48010
Ġdiseases	48010
off	48002
Ġinterested	47988
Ġgenerate	47987
Ġalleged	47985
cap	47968
ĠBank	47961
ĠService	47960
({\	47959
##ae	47937
Big	47933
##ding	47902
##ral	47885
Ġbutton	47875
ĠEl	47824
Ġ()	47799
71	47792
Ġequivalent	47786
Ġappeared	47780
Ġ};	47774
Ġimportance	47762
Ġindicates	47754
Ġmaintain	47748
##gn	47737
Ġaren	47695
Ġ00	47687
##Map	47674
From	47654
style	47649
Ġspectrum	47630
Ġruns	47607
ĠBoth	47588
ĠIP	47585
Ġconfiguration	47550
Add	47529
##¥	47529
Ġcontrolled	47529
Ġconcept	47510
default	47508
Ġsc	47494
Ġhappens	47456
Ġholds	47455
ĠSunday	47438
widetilde	47434
Ġconclusion	47412
##~	47408
Ġdemand	47403
Ġinter	47398
Ġsequences	47393
Ġtravel	47378
Ġ2019	47358
Ġabuse	47355
exp	47342
Ġmouse	47341
##ov	47310
Ġstraight	47309
ĠWestern	47305
##Ĥ	47302
Ġcard	47287
##ł	47270
init	47266
##ul	47251
kappa	47211
Ġstruct	47207
##);	47180
Ġparticles	47175
nabla	47143
Ġempty	47109
io	47102
*]{}	47078
##tes	47072
Ġthrow	47061
Ġsecondary	47048
ĠMe	47048
Ġdefendants	47044
Ġreality	47037
Ġbalance	47037
({	46994
##od	46963
Ġshift	46946
##ES	46926
property	46921
Ġnoise	46921
##ft	46869
Ġplasma	46847
Ġring	46837
##lic	46835
Co	46833
Ġmotor	46830
Ġprogress	46827
Ġreferred	46818
Ġdu	46811
Ġmeasurements	46805
##Array	46797
ĠInstitute	46794
##¤	46752
##Į	46749
ĠTheorem	46737
view	46734
*(	46712
##lli	46704
##¸	46684
Ġport	46673
Ġ500	46668
ĠLaw	46659
Ġsession	46625
Ġrepresentation	46615
ĠAccording	46609
Ġcontinuous	46585
Ġseemed	46514
ĠArt	46469
Ġdeveloping	46468
##ds	46450
ĠGu	46440
date	46422
:"	46401
ĠBe	46400
##han	46383
Ġstatements	46378
Ġremainder	46365
ĠSmith	46360
Ġspeak	46321
##Class	46294
Ġlibrary	46282
ĠĠĠĠĠĠĠĠĠĠĠĠĠĠĠĠĠĠ	46279
Ġadvantage	46262
##Event	46248
ĠMichael	46242
ĠAdd	46222
open	46212
Ġfat	46198
ĠYes	46179
Ġnation	46174
Ġmm	46174
ĠFOR	46158
##ast	46123
Ġexperiment	46121
Ġjobs	46115
ne	46087
##back	46063
Ġexpress	46039
ĠAd	46028
Ġleaders	45975
Ġhaven	45973
Ġ${	45967
Ġadult	45950
^[@	45942
Ġliterature	45939
ĠPost	45939
ĠCompany	45925
Ġchemical	45917
Ġenvironmental	45916
Ġcollege	45889
ĠMac	45887
Ġapproved	45872
Ġplatform	45859
##king	45820
Ġscript	45802
Ġval	45795
##Ŀ	45779
##ied	45771
Ġlatter	45747
ĠFacebook	45739
Ġcarry	45729
false	45715
Dr	45691
Ġ63	45690
Ġissued	45681
ĠBig	45678
##RE	45629
##Manager	45610
Ġclub	45598
007	45594
Ġsquare	45587
Ġextremely	45584
Ġ38	45566
Ġaccept	45559
Ġspeech	45553
ĠCommittee	45543
ĠMo	45507
Ġborn	45495
Ġknows	45486
##rc	45482
##Color	45482
##ab	45477
##Of	45463
##RA	45439
Ġprob	45434
Ġbooks	45429
##ics	45426
Ġalcohol	45420
Ġestimate	45405
Ġexamples	45376
Ġleader	45369
Ġcharges	45364
Ġcovered	45358
go	45352
Ġtransmission	45342
##@	45304
ĠUnion	45301
##ological	45299
Ġserum	45291
ĠJapan	45259
Ġexception	45251
Ġahead	45250
ĠFree	45237
Ġregulation	45235
ĠSet	45191
Ġcool	45173
Ġscene	45166
Ġaware	45113
Ġcent	45112
Ġsubstantial	45106
ml	45091
Ġsigned	45089
Ġguess	45089
]),	45088
Ġopened	45079
Ġhusband	45075
ĠWhy	45075
##ries	45044
Ġimplementation	45035
Ġfluid	45019
apache	44951
##mm	44942
Ġcustomers	44941
ĠLi	44938
Some	44931
Ġchurch	44904
##ub	44902
Ġoccurs	44844
##ster	44830
2016	44823
Ġpoly	44819
Ġab	44791
##oid	44786
Ġlose	44781
Ġfish	44776
").	44774
ij	44773
ĠLeague	44773
Ġextension	44762
Ġgrow	44758
Ġfootball	44758
##ī	44741
##ric	44739
##¾	44730
Ġrecorded	44718
##ix	44710
Ġdelivery	44697
Ġcompounds	44692
Ġtransport	44690
Ġsl	44677
Ġdecisions	44660
##ME	44657
ĊĊĠĠĠĠĠĠ	44648
ĠNOT	44646
Ġexact	44640
Ġdiscuss	44632
Ġcalling	44626
Ġdel	44623
rec	44598
##MA	44586
Ġeat	44577
Ġcarbon	44576
main	44555
Ġfloat	44546
Ġreceiving	44531
Ġevaluated	44524
Ġnetworks	44515
##Request	44507
Ġdiet	44489
Ġpowerful	44488
ĠTuesday	44487
Ġ68	44466
Ġallowing	44450
##SS	44437
Ġextended	44437
Ġviolence	44429
Ġleaves	44427
ĠAmericans	44416
##let	44407
Ġfair	44405
ĠNO	44403
ĠFrench	44401
Ġfix	44400
Ġinterview	44347
Ġ2003	44347
Ġpeak	44338
ac	44317
Ġpercentage	44317
##dr	44303
ĠRec	44300
Ġestablish	44289
ĠUnder	44285
)*(	44276
Ġoutcomes	44276
ĠTest	44272
##ert	44270
2013	44264
Ġsale	44246
Ġconcerns	44228
Ġ67	44218
Ġsubsequent	44207
Ġleaving	44198
ĠNe	44197
2014	44187
Ġassessment	44187
Ġbirth	44180
ĠCollege	44165
Ġthousands	44164
endif	44140
##lan	44124
ge	44115
Ġfaith	44111
Ġtestified	44102
Ġhelped	44100
##fl	44090
height	44089
0000	44084
Ġmuscle	44081
Ġmostly	44072
Ġimmune	44061
##ans	44055
][	44050
Ġowner	44046
Ġunderlying	44042
Ġformula	44042
Ġevolution	44021
##ĩ	44002
Ġarguments	44000
ĠFinally	43993
##Ķ	43968
Ġraise	43940
##ring	43938
ĠAssociation	43938
Ġefficiency	43936
##ib	43929
61	43922
##cr	43918
ĠDuring	43913
Ġgraph	43905
##ud	43881
ĠBa	43856
##Time	43844
ï¼Į	43839
util	43815
Ġcriteria	43783
Ġtraffic	43775
Ġrepresented	43765
ĠGovernment	43755
la	43753
ĠUsing	43736
##Test	43712
Ġcentury	43710
##og	43701
##ĠĠĠ	43685
##¶	43684
0001	43683
Ġbaby	43672
de	43641
##¦	43640
##Code	43610
Ġgreatest	43590
using	43588
Ġexamined	43577
local	43559
ĠKing	43526
where	43490
Ġthank	43480
Ġspecified	43462
Ġlearned	43461
Ġplane	43456
ĠCT	43416
Ġeventually	43408
##cl	43398
ĠPress	43392
Ġ96	43387
ĠOther	43378
zeta	43371
ĠDay	43368
##GA	43336
Ġcandidate	43290
Ġcurve	43287
you	43277
Ġscheme	43250
##¼	43248
val	43226
Ġvisual	43214
Ġdepends	43212
message	43208
ĠMany	43194
Ġlimitations	43191
Ġbreast	43143
Ġpositions	43134
Ġlicense	43128
Ġstream	43111
Ġ85	43101
Bo	43093
##ep	43062
}}^	43057
ĠJudge	43056
##]{}	43049
Ġvoltage	43020
ĠGermany	43018
Ġworse	43014
Ġsurvey	43006
Ġmaster	43006
2012	43000
ĠIII	42967
check	42952
Ġyes	42930
ĠHo	42930
Ġinvestigated	42926
##yn	42925
ĠâĢ¦	42919
comp	42902
ĠSch	42882
\{	42872
Ġspread	42853
##un	42832
Ba	42831
Ġachieved	42831
##all	42827
dots	42812
ĠNone	42805
ĠScience	42804
sh	42799
##¨	42797
Don	42796
Ġsmooth	42791
}}_{	42786
Ġenjoy	42785
ĠCH	42784
##Ĺ	42783
Ġtypical	42783
##xi	42773
##RI	42759
##bar	42754
first	42746
Ġpathway	42733
Ġ2001	42725
Ġgoals	42717
##ª	42711
Ġpurchase	42706
##Ľ	42694
##IS	42686
Ġ${{\	42686
Ġmixed	42685
Ġchanging	42658
ĠTh	42656
CD	42643
ĠEq	42638
Ġpolicies	42635
Ġglass	42620
Ġspend	42607
dimensional	42599
Ġcustom	42591
Name	42566
ĠTime	42562
##ress	42554
Ġprocedures	42535
Ġdigit	42534
Ġstandards	42532
Ġfilms	42519
##pp	42505
]{	42499
Ġtrip	42498
supplementary	42495
Ġ71	42483
Ġrecovery	42480
Ġ99	42476
write	42461
Ġapplicable	42451
ĠUN	42449
Ġcomplaint	42434
Ġgranted	42430
da	42411
Ġangle	42402
cell	42398
fa	42395
##ld	42383
dependent	42381
Ġ74	42376
Ġquick	42364
Ġjoin	42341
Ġcivil	42335
##zo	42332
##13	42329
?âĢĿ	42309
.</	42276
##ome	42276
Re	42269
##cc	42246
ĠRe	42241
List	42235
These	42231
##my	42227
Ġacts	42200
Ġisolated	42188
Ġsalt	42167
page	42163
##ell	42154
ĠIC	42151
)=\	42137
Ġtrain	42132
Ġdesired	42085
Ġcup	42063
##tin	42044
Ġseeing	42042
Ġevaluation	42042
ĠGeorge	42039
ĠAir	42033
2017	41981
Ġeasier	41968
##§	41966
Ġinstall	41955
Ġsubstrate	41926
##ua	41920
Ġlabel	41912
ST	41909
Ġ59	41892
Ġmanager	41878
Ġindeed	41864
Ġsections	41863
##14	41860
##ica	41846
ms	41833
Ġrelief	41831
Ġstrongly	41829
##hy	41827
}+	41810
Ġdetailed	41798
Ġfunds	41796
Ġflat	41786
##¬	41774
Ġinvestment	41759
Ġinvestigate	41733
##sen	41725
Ġobvious	41717
Then	41711
ĠWhich	41707
Ġweak	41703
Ġchosen	41701
##ious	41697
ĠPi	41696
Ġfourth	41684
##ings	41668
Ġfoot	41658
Ġkill	41641
Ġentitled	41637
Ġ300	41635
Ġ{{\	41634
format	41624
ĠMark	41584
##18	41577
##Service	41573
Ġsell	41568
##Ĳ	41559
Ġfreedom	41553
Ġstored	41539
Ġcategory	41539
##tri	41530
ĠThursday	41530
Ġbio	41515
ĠAS	41515
##ions	41500
Ġcommitted	41437
Ġcluster	41432
Ġpush	41420
##kin	41405
})$	41399
Ġdaughter	41399
Ġ62	41388
}}{	41387
Ġmeant	41379
008	41376
"}.	41374
Ġduty	41368
Ġconclude	41368
Ġrep	41345
##ged	41343
Ġconsidering	41341
ĠEngland	41316
Ġdirected	41298
Ġassay	41274
Ċĉĉĉĉĉ	41244
ĠSl	41239
ĠOS	41233
ĠFlorida	41231
##{{\	41224
CH	41210
2000	41207
Ġpayment	41207
Ġthanks	41204
Ġscope	41204
ĠĠĠĠĠĠĠĠĠĠĠĠĠĠĠĠĠĠĠĠ	41200
ĠWednesday	41191
ĠMS	41177
Ġclick	41176
Ġprices	41168
Ġskills	41167
Ġran	41162
Â½	41151
Ġvictim	41145
##16	41143
##19	41124
order	41119
Ġdocuments	41105
Ġforced	41103
ĠParty	41098
Ġreligious	41082
##ona	41070
ra	41067
Cl	41060
ch	41052
##hip	41043
##eri	41035
##»	41031
##´	41027
Ġdebt	41009
Ġintervention	41005
##ye	41001
Ġspot	40995
Ġlisted	40994
ĠSp	40984
Ġ120	40948
ĠHar	40939
Ġ2002	40931
##IA	40925
Pi	40919
Ġplays	40919
##ham	40902
ĠPD	40902
##ora	40894
##For	40886
Ġconflict	40857
Ġapparatus	40840
Ġdetermination	40839
##ets	40829
ĠCopyright	40827
Ġstories	40825
Ġequations	40817
Ġfocused	40796
Can	40785
ĠSolve	40767
Ġplate	40763
##wn	40757
Ġdepending	40755
##Ń	40738
##ui	40738
Un	40726
Ġwaiting	40712
Ġsold	40704
ĠAr	40701
red	40698
Ġconcern	40694
##DE	40691
ĠChrist	40689
null	40686
Ġvirtual	40676
nd	40673
##·	40673
Ġcash	40673
Î²	40665
##²	40663
err	40653
Ġexcellent	40640
Ġbrief	40640
Ġresulted	40628
ĠRussia	40625
##vo	40614
ĠSuper	40612
##ug	40608
Ġfans	40604
##board	40590
ar	40569
Ġmeasurement	40557
ĠWell	40557
Ġuint	40543
##ez	40541
ĠSaturday	40528
Ġobservations	40519
Ġpossibly	40514
##15	40504
##hu	40500
Ġversus	40489
ĠChurch	40484
Go	40476
Ġmodified	40468
Ġhyper	40453
##©	40445
Ġbelieved	40444
cdots	40420
Ġfuel	40400
Ġtreat	40393
Ġprotocol	40383
ĠHIV	40383
Ġregard	40375
,'	40372
##45	40352
el	40340
Ġassuming	40300
ĠFile	40290
Ġsun	40289
Ġcast	40283
##eu	40275
ĠCircuit	40271
ĠJa	40265
First	40261
ĠTom	40228
Ġnodes	40226
Ġhousing	40226
Ġneither	40223
Ġtouch	40213
Ġref	40188
Ġfees	40188
ĠOffice	40186
Ġsuit	40171
##âĢĿ	40170
Ġoffense	40143
Ġdistinct	40123
##Image	40118
##ire	40103
Ġtwice	40101
ĠIT	40088
Set	40087
Ġ73	40068
##berg	40065
Ġemployed	40062
Ġapproaches	40048
Ġcommunities	40042
Ġ_{	40040
Ġ82	40035
Ġdry	40028
Ġresource	40014
Ġdamages	40008
Test	39991
Ġdetail	39986
##art	39959
Ġcompare	39953
ĠEnd	39942
Ġconfidence	39922
Ġplanning	39891
ĠCl	39890
ĠWeb	39826
json	39765
Ġstanding	39765
##he	39761
##42	39738
ĠUse	39738
##ox	39736
Ġdelay	39732
Ġ81	39731
##ick	39724
##LA	39704
ĠWindows	39703
Ġscores	39702
Ġstreet	39690
ĠEn	39678
block	39668
Ġfunding	39662
Ġaccuracy	39644
ĠPA	39630
status	39611
Ġcm	39606
Ġhelps	39603
##val	39596
post	39583
##RT	39578
Ġconcerned	39569
]--[@	39562
ĠAT	39557
2011	39545
ĠDC	39542
Ġefficient	39535
ĠĊĠ	39535
Ġ41	39529
num	39525
Ġtrials	39525
Ġap	39506
##Field	39503
Type	39481
Ġsensitivity	39478
ĠKe	39458
Ġadvice	39450
##23	39446
2010	39435
Ġstrain	39434
ĠDec	39433
ĠUn	39402
Ġmainly	39400
Ġguilty	39388
ĠĠĠĠĠĠĠĠĠĠĠĠĠĠĠĠĠĠĠĠĠ	39383
##Count	39371
Ġlo	39366
Ġbudget	39364
Ġelectronic	39363
##ford	39362
Ġboundary	39360
Ġasking	39356
##38	39353
Ġ69	39350
##rn	39342
Ġadults	39330
Ġrelationships	39321
Ġfirm	39304
##oe	39302
##our	39286
##ND	39283
Ġreverse	39254
##AP	39248
ĠJapanese	39246
Ġinvolving	39236
Ġexperienced	39228
##oc	39217
context	39203
Ġdraw	39203
event	39193
Ġburden	39187
Ġelectron	39178
Ġfinished	39171
Ġevaluate	39170
ĠOpen	39170
##ru	39162
ĠAD	39159
Since	39158
Ġexposed	39148
%.	39143
##ale	39142
Ġfan	39141
##ect	39134
....	39127
Ġ39	39125
##ĭ	39124
has	39116
Which	39115
Ġexpansion	39108
ĠNS	39105
Ġsignaling	39101
Ġcontribution	39098
Ġbus	39082
Ġextends	39075
button	39074
Ġthin	39051
ĠSc	39041
ĠMinister	39022
ĠBE	39017
'.	39016
ĠFederal	39014
ĠRo	38995
##37	38989
Ġemployee	38985
Ġrich	38984
Ġ84	38984
ĠOver	38980
ă	38978
Ġcapable	38976
ĠJesus	38976
Ġlib	38975
Ġframework	38961
Ġacute	38961
##are	38953
ĠMA	38952
lang	38942
MS	38936
Ġideal	38924
##ŀ	38920
Ġcontinues	38918
Ġintent	38908
ĠÃĹ	38903
Ġ83	38903
Ġ76	38875
##£	38865
xml	38854
##IP	38846
Ġ78	38842
##SI	38839
Ġcomposition	38825
Ġsettings	38812
##78	38808
ĠLA	38799
ĠAustralia	38787
ĠInternet	38783
Ġdepartment	38773
Ġecho	38772
ĠJustice	38771
Ġassessed	38770
Ġintensity	38766
##EA	38757
Ġfill	38748
ĠBay	38740
ĠMar	38725
Ġsides	38724
##ano	38711
##68	38699
ĠType	38691
**(-	38690
Ġguide	38662
##ort	38656
)]	38652
Ġbroad	38627
ĠSun	38626
ĠSC	38607
|\	38591
Ġice	38588
##PA	38579
Ġgrant	38579
Ġordered	38575
Ġdemonstrate	38571
Ġadvanced	38570
}.	38568
Ġpull	38565
Ġbiological	38565
Ġdecide	38558
ĠBill	38552
Ġplaintiffs	38547
Ġincident	38545
Or	38543
##39	38539
ast	38533
Ġrelates	38515
target	38493
Ġgold	38492
arg	38485
layout	38476
Ġmurder	38465
##AN	38463
Ġ79	38444
kg	38433
##ode	38424
Ġassess	38413
else	38408
ĠPlease	38402
Ġpersons	38401
##ku	38394
Sh	38384
##wood	38375
rd	38366
font	38351
##net	38334
##time	38329
Ġbrother	38326
##gl	38317
Ġchallenges	38313
ĠRule	38310
Ġpotentially	38306
Ġinterval	38303
##ĥ	38301
Ġsuitable	38298
Ġimaging	38295
ĠPS	38278
Ġjoint	38264
Ġhumans	38258
Ġvelocity	38252
Ġconference	38212
Just	38200
Ġrats	38191
scale	38184
Ġstopped	38179
##67	38160
2018	38148
pre	38140
Ġstatistical	38136
Ġchief	38136
Ġdoctor	38134
Ġidentification	38129
ĠPR	38124
012	38108
Ġimprovement	38106
##62	38102
##ata	38098
Ġsit	38084
##rate	38082
Mo	38066
##17	38051
ĠBrown	38050
Ġengine	38048
Ġcourts	38048
##ĸ	38042
Ġrare	38041
Ġ150	38040
Ġ[]	38022
ĠDefendant	38004
bo	38001
Simplify	37985
SD	37984
Ġclaimed	37981
ĠLu	37975
##LI	37973
Ġremained	37971
ĠSA	37966
Ġparallel	37956
010	37952
}=\	37948
Ġopposite	37942
##em	37927
##ration	37924
mg	37888
Ġlung	37883
Ġduration	37864
Ġended	37861
Ġreplace	37856
current	37853
Ġspring	37836
Ġunknown	37815
Ġroute	37807
Ġpartial	37807
Ġorigin	37799
##59	37778
II	37775
##atic	37770
##Model	37768
ĠMI	37763
Ġ44	37753
128	37751
Ġsuggesting	37751
Cr	37739
ĠRussian	37737
Ġfavor	37735
)^{	37713
vi	37705
Ġfrequently	37689
Ġdiscovered	37679
Ġhence	37662
Ġreflect	37661
##ħ	37647
ĠÂ£	37641
Ġradiation	37639
Ġnine	37632
##_{	37629
ĠRepublican	37627
##lia	37613
}}}	37601
.**	37598
##isation	37591
NO	37574
##CH	37565
run	37562
ĠFurther	37560
Ġ77	37558
##US	37543
##field	37524
##ants	37522
Ġargues	37518
Ġbone	37498
^âĪĴ	37487
##du	37477
Ġgap	37468
Ġlimits	37467
Ġnecessarily	37434
Ġwind	37420
Ġarms	37401
##ji	37398
##ulation	37380
ĠBar	37368
ĠSam	37353
ii	37349
Ġannual	37338
vert	37325
ĠANY	37300
ĠAR	37290
Ġsi	37285
dt	37270
Ġseconds	37263
Ġaxis	37261
##ero	37248
âĢĿ,	37229
**]{}	37224
##³	37222
Ġassembly	37210
According	37203
##43	37194
Ġstability	37191
##¢	37179
Ġvariation	37179
Override	37169
ĠGerman	37151
Ġdependent	37138
Ġsp	37125
ĠHence	37117
ĠLord	37114
Ġgender	37099
Ġwidely	37087
##20	37085
Ġ86	37074
Ġoral	37071
##eg	37066
##istic	37043
ĠTwitter	37039
âĪĴ	37038
Ġantibody	37024
Ġthereby	37020
ĠJohnson	37016
fl	37014
ĠAny	37000
ĠRi	36984
Ġdefinitely	36979
Ġthread	36977
request	36973
Ġthreshold	36967
Ġ55	36966
Ġabsolute	36957
##98	36952
##ville	36938
009	36930
Ġforth	36930
sc	36922
##56	36922
ĠBi	36913
Ġ66	36909
Ġsecret	36907
Ġseek	36903
Ġlinked	36884
ĠPar	36875
Ġha	36874
##ik	36873
fe	36871
##º	36863
Ġaspects	36856
Note	36840
Ġstarts	36830
Ġpeace	36828
ĠSecond	36817
Ġattacks	36816
Ġ88	36812
ĠRes	36811
Ġnumerous	36807
ĠRobert	36807
Ġcamera	36805
Ġkeeping	36796
ĠMath	36793
Ġimplies	36788
ĠFrance	36786
Ġelectric	36775
Ġpopulations	36771
Ġsupra	36767
Ġsea	36764
Ġrel	36763
ĠRA	36758
Ġindicating	36752
Î±	36738
"),	36735
Ġrelations	36728
ĠGive	36728
.*	36721
Ġpp	36694
Rev	36684
Ġmixture	36684
ĠOnce	36679
Ġfundamental	36673
Ġder	36668
##chi	36661
##osis	36639
Ġaccepted	36612
##52	36610
Ġinterpretation	36603
##sk	36583
ĠChristian	36580
Ġconsent	36579
##®	36562
ĠOnly	36562
Ġunable	36547
Ġmortality	36546
bb	36544
client	36539
Ġinfo	36537
Ġends	36534
Ġinstructions	36532
Ġcoach	36530
##au	36526
Ġentirely	36525
Ġviolation	36523
##ac	36522
Solve	36520
ĠRT	36516
Ġmission	36512
##wi	36510
##NS	36508
Ġenable	36494
row	36493
Ġtruly	36481
Ġrecognized	36466
author	36462
##97	36462
Ġsupposed	36457
Ġhole	36456
##CE	36437
Ġcellular	36436
Ġgonna	36432
ĠĊĠĠĠ	36428
dd	36419
ĠGood	36418
Ġtend	36417
Ġpractices	36391
##Button	36388
Ġcontribute	36385
##¿	36379
Di	36374
Ġgirls	36374
##47	36372
##28	36371
Ġaward	36366
##over	36362
msgid	36360
Ne	36351
Ġnotes	36339
##48	36337
##Message	36307
Ġaim	36303
Ġdegrees	36288
parent	36285
Ġmassive	36285
$)	36283
Ġpartner	36263
##ash	36257
Ġsupporting	36248
Ġemployment	36246
Ġ89	36244
##ves	36241
ĠGL	36221
Ġfraction	36217
##ight	36216
##Int	36210
##ock	36206
ĠHospital	36193
ĠSenate	36190
Ġ87	36185
msgstr	36175
"})	36164
##44	36146
Sp	36136
ĠTimes	36135
Ġresponsibility	36123
char	36099
Ġtag	36093
Ġmiles	36091
Ġbecoming	36090
Ġsigns	36089
Ġminute	36085
img	36078
300	36077
##½	36076
Ġbl	36073
)}\	36066
PR	36048
ĠSE	36042
##len	36040
ãĢĤ	36030
čĊĠĠĠĠĠ	36030
ÃĹ	36025
Ġattached	36018
ĠSP	36005
Ġappearance	36003
++)	35994
Ġvitro	35990
Ġdisk	35989
##ani	35973
Ġtechnical	35971
##53	35948
##Ðµ	35936
ĠEx	35931
Ġsensitive	35927
ĠSD	35925
md	35924
ĠLife	35922
Ġfail	35918
##ept	35917
Ġ*)	35916
ĠHall	35911
^+^	35896
ĠIndian	35888
Ġcompound	35887
Ġmanaged	35882
Ġresidents	35879
point	35871
Ġ91	35861
ĊĠĠĠĠĠĠĠĠĠĠĠĠĠĠĠĠĠ	35823
##29	35801
Ġmolecules	35791
Ġdynamic	35791
Ġboy	35789
widehat	35785
Ġconcluded	35775
AS	35758
##26	35749
##ned	35736
ĠAPI	35736
std	35723
Sc	35716
png	35706
##ari	35695
Ġwear	35691
Ġtemplate	35685
Ġplot	35679
Ġamounts	35679
Ġcommonly	35677
Ġsplit	35675
ĠHuman	35672
ĠThomas	35659
op	35653
##ef	35648
_{{\	35641
Ġ43	35623
module	35621
ĠWill	35621
Ġassigned	35613
Ġconsideration	35607
Ġurl	35606
Psi	35590
##IL	35589
##gs	35588
##ult	35581
long	35572
##--	35572
Ġ94	35563
Ġpar	35562
Ġ98	35560
##pt	35538
Ġunderstood	35524
Ġarticles	35521
Ġdynamics	35514
ĠTheir	35513
Ġsought	35488
android	35482
Ġrequirement	35477
Ġbag	35474
##ys	35471
##tz	35469
Ġfell	35465
##Ð¸	35464
ĠInstead	35463
Ġyield	35440
##ax	35432
Ġeffectively	35426
Ġaccurate	35425
References	35422
Ġexpert	35419
Ġprinciple	35416
ĠSub	35394
##ule	35385
Ġem	35373
ĠKa	35367
Ġst	35364
ĠAfrica	35321
Ġestimates	35320
ray	35289
##list	35281
##ising	35270
ĠRef	35257
Ġ93	35256
Ġjurisdiction	35254
Na	35249
##Ĭ	35243
Ġspaces	35243
Ġfilled	35220
Ġoxygen	35213
##ou	35190
ĠPlaintiff	35188
System	35182
Me	35176
120	35165
\]).	35163
split	35158
.$$	35155
Ġna	35150
##ļ	35149
##nes	35135
Ġearth	35133
##ord	35122
Ġmicro	35116
Ġdecades	35113
Ġusual	35111
Ġhomes	35110
##ato	35095
Ġmessages	35086
uint	35085
ijms	35071
Ġbinary	35057
Ġser	35056
Ġestate	35052
Ġzone	35039
next	35035
Ġjustice	35035
##49	35032
Ġspending	35027
##Group	35022
##54	35020
##ators	35011
##69	35000
Ġwww	34988
ĠPCR	34988
cc	34981
Object	34974
Ġpool	34973
##`	34968
Ġseeking	34962
##gg	34940
##set	34935
Ġsenior	34927
++	34922
##xe	34916
~~~	34913
Ġstr	34901
Ġfavorite	34898
media	34897
Your	34885
ĠHa	34880
\/	34877
ĠMal	34870
Ġ51	34867
##jo	34858
Ġsugar	34857
ĠEarth	34857
Ġconsumption	34844
NS	34829
}/	34823
ĠEd	34823
Ġsweet	34819
Ġtelevision	34818
Ġbaseline	34816
Ga	34809
Ġwilling	34806
ca	34776
range	34768
Ġstrategies	34766
Ġnative	34762
\*	34745
Ġobjective	34743
##27	34730
ĠDa	34722
##ura	34716
Man	34712
##µ	34710
##cha	34700
Ġsqrt	34693
was	34691
##ula	34671
Ġdepth	34671
Ġassistance	34671
ĠIV	34668
Ġsemi	34666
Ġbroken	34664
ĠInt	34657
Ġ49	34654
Ġvan	34653
##46	34643
##EN	34639
Hi	34633
Ġcharacterized	34621
##itis	34606
##83	34606
>(	34605
Ġlabor	34604
select	34600
sin	34598
##NA	34579
ĠWi	34555
Ġminor	34545
Ġprincipal	34535
Ġorganic	34530
Ġoptimal	34528
##ably	34527
Ġamino	34516
action	34512
Ġsmallest	34503
ĊĠĠĠĠĠĠĠĠĠĠĠĠĠĠĠĠĠĠĠĠĠĠĠĠĠĠĠĠĠĠĠ	34493
##ET	34472
Ġcompetition	34462
ĠRa	34456
##ama	34454
Please	34449
Ġcompact	34441
Ġpredicted	34436
output	34425
##64	34423
Yeah	34420
Ġemission	34413
ĠIndeed	34410
Ġ92	34408
##ı	34393
Ġsw	34388
Ġdangerous	34388
/\	34387
Ġtissues	34379
ĠAP	34373
Ġship	34363
Ġorders	34338
Ġmouth	34337
ĠFA	34333
Ġprovision	34330
Ġamazing	34329
##GE	34328
ĠLemma	34328
ĠInformation	34315
##¹	34307
Ġexpensive	34305
ex	34287
di	34281
Ġ46	34277
Ġdisc	34266
back	34260
##omp	34256
Ġneurons	34232
##off	34225
Ġscientific	34222
Ġ[[	34218
Ġmilk	34208
ĠMedical	34201
Ġpages	34200
ret	34183
/(	34180
show	34169
Ġmarriage	34159
Â¸	34151
ĠFIG	34122
##ini	34115
Ġrecommended	34114
##code	34112
##ven	34108
ĠInter	34103
private	34089
Ġsupports	34088
Ġcustomer	34062
##ENT	34059
011	34024
mL	34021
Ġparticle	34017
#:	34015
Ġpieces	33999
Ġ47	33974
2008	33968
##act	33956
Ġwarm	33956
Ġmanuscript	33947
##Element	33929
Ġinhibition	33927
Ġwatching	33926
Ġ97	33914
Ġ52	33912
prop	33897
Ġsat	33879
Ġfinish	33867
ĠpH	33850
subset	33838
Ġcausing	33833
Ġqui	33824
Ġch	33824
assert	33816
Ġchannels	33816
Ġsuccessfully	33809
Ġthreat	33802
Ġarrest	33800
ĠSta	33793
Ġnorth	33791
Ġwaste	33789
##als	33779
Ġ1999	33771
##ht	33756
Ġtargets	33743
ĠCentral	33721
Ġmark	33719
CC	33707
Ġcomposite	33698
ĠEU	33686
ĠĠĠĠĠĠĠĠĠĠĠĠĠĠĠĠĠĠĠĠĠĠ	33669
Ġpure	33664
section	33652
Ġcrisis	33651
Ġquarter	33650
Ġreducing	33649
##AC	33645
:\	33638
;&	33636
Ġouter	33616
///	33587
ĠField	33583
##58	33579
Ġsitting	33579
Ġbias	33575
##je	33570
ĠClinton	33568
Ġimpossible	33567
Ġlargely	33560
2009	33554
Ġunion	33549
ĠPro	33542
Ġrepresentative	33539
St	33534
##uri	33534
Ġrespond	33534
Ġmargin	33523
Ġ56	33509
})\	33506
##AR	33490
Ġautomatically	33481
Ġpetition	33470
Ġmine	33466
ĠMP	33463
Ġinstalled	33434
Ġinformed	33433
Ġ61	33427
ĠON	33422
ĠIts	33419
Ġauthorities	33398
Ġdiabetes	33389
Ġpromote	33387
Ġresearchers	33373
ĠClass	33368
Ġsolve	33367
##ack	33361
Ġstructural	33347
ĠHome	33331
##nic	33326
ĠPh	33290
##ram	33289
Ġbattle	33288
Ġconversation	33279
##Äģ	33275
ĠSoftware	33271
Ġsector	33268
Â·	33263
##use	33248
Ġseat	33244
Ġexamination	33243
Ġmarried	33239
Ġdisorder	33239
Ġiso	33219
ĠRep	33205
101	33202
ĠProject	33198
####	33192
Ġdev	33183
Ġdebate	33163
([	33160
equiv	33137
Ġ---	33129
option	33128
##nu	33127
Ġrefer	33126
ĠChicago	33104
##TH	33102
Ġconfig	33095
##ign	33093
Ġvisible	33090
Ġstrains	33090
Ġweekend	33087
SE	33068
Ġturns	33068
##22	33064
##Box	33060
match	33051
##dl	33050
Ġputting	33046
ĠSM	33042
na	33029
ĠLo	33012
bin	33009
##und	33007
Ġjoined	33005
Ġfaster	33004
sl	32996
ĠAfrican	32995
Ġconcerning	32987
Ġdetect	32982
##CC	32968
ĠTA	32959
ĠOut	32952
Ġreplaced	32951
ĠLong	32949
Ġfacilities	32944
ĠGreat	32944
lo	32924
```	32922
##bs	32915
Ġoffset	32912
ĠQu	32894
Of	32888
Fe	32887
Ġherself	32881
append	32880
reg	32871
ĠStar	32829
Am	32820
Ġpara	32819
Ġacting	32817
Ġcreation	32807
Ġdis	32800
##±	32794
Ġ101	32792
ĠSi	32788
CA	32787
Ġargue	32784
Ġlayers	32782
##ĠĠĠĠ	32775
Ġillegal	32775
Thanks	32771
âĢ²	32770
Ġadvance	32769
Ġmenu	32750
Ġmention	32750
ĠPl	32746
Ġcitizens	32742
Ġcorner	32739
ĠAnother	32731
ĠAg	32729
Ġantibodies	32712
Ġassumed	32707
ĠDA	32706
##gan	32699
Although	32692
^*	32690
##nat	32690
##OL	32687
Ġprison	32685
Ġcandidates	32675
[\	32664
##Handler	32649
Ġinvolves	32645
##ole	32636
ĠmRNA	32636
Mr	32634
##ren	32633
ĠWa	32618
Ġmatters	32611
Ġmerely	32610
Ġadmitted	32608
##ination	32604
ĠCR	32600
Ġemergency	32592
Ġconnect	32588
##mic	32582
Ġsecure	32574
Ġ2020	32560
Ġ1990	32559
##ass	32547
##ade	32543
ĠSecurity	32538
ĠLike	32536
Ġmo	32525
ĠCup	32520
Ġcontainer	32514
ĠPer	32513
Ġobservation	32507
##As	32500
Ġcap	32500
##str	32499
Ġdifferential	32495
Ġperspective	32482
Ġexperiences	32481
Ġsn	32473
Ġhundreds	32469
##oni	32467
Ġmix	32462
Ġhundred	32449
Ġpassing	32438
***	32435
ĠRiver	32435
$$\	32422
##NE	32417
ĠNA	32414
Ġlowest	32394
find	32393
Ġexecutive	32391
me	32386
Ġpairs	32386
Ġexplore	32385
##65	32382
##des	32380
ĠChi	32380
Ġdetermining	32366
##sl	32356
ĠĠĠĠĠĠĠĠĠĠĠĠĠĠĠĠĠĠĠĠĠĠĠ	32353
ĠAre	32347
##ving	32312
File	32305
##VE	32301
gl	32287
cl	32281
Ġlived	32281
##Table	32278
##DA	32270
Ġaspect	32261
Ġintra	32254
##oma	32244
Ġclosely	32243
css	32235
ĠSO	32215
ĠÃł	32199
Ġproved	32192
##ust	32190
Ġ\{	32186
ĠCS	32177
Ġdirectory	32175
Ġwrt	32174
Ġextract	32172
Ġaid	32172
Ġprop	32171
ĠBC	32152
Ġposted	32134
Ġwitness	32130
Fa	32129
Ġwalking	32122
ĠBio	32121
150	32120
ĠSha	32120
Ġsignificance	32113
Another	32111
Ġpolitics	32111
Ġtelling	32110
Ġscreening	32107
Ġterminal	32100
float	32077
##ened	32071
Ġge	32064
Ġliability	32060
Ġtrans	32058
##User	32052
Ġtrees	32051
Ġvivo	32040
Ġrapid	32033
build	32017
)[	31990
ĠSea	31989
##iz	31955
Ġmonitoring	31944
Ġprimarily	31930
Ġblocks	31930
Se	31921
Ġ58	31909
pr	31904
Ġbrand	31892
Ġbranch	31887
description	31884
Ġtube	31879
##60	31874
Ġinitially	31870
Ġloved	31856
##SC	31852
"]	31845
ĠEC	31836
Ġ110	31829
##Result	31828
##Config	31813
Where	31810
Ġcities	31794
Ġoperators	31792
##tar	31788
##AS	31773
**,	31768
##ake	31755
Ġmedian	31748
Ġtrend	31738
##kh	31735
Ġlots	31732
Ġextend	31732
Ġmaps	31730
Ġsports	31728
Ġconsole	31728
Ġbeam	31721
Ġregression	31710
col	31703
##ments	31702
Ġdollars	31699
ui	31688
Ġinjuries	31683
Ġeating	31674
##rg	31673
Ġvision	31670
Ġsouth	31668
ĠAL	31667
minimal	31663
Ġdimension	31659
ĠJan	31651
amp	31648
ĠBen	31647
Ġleague	31645
Ġdelivered	31643
Ġimplemented	31636
tab	31630
Ġdisorders	31616
Ġdrink	31613
options	31610
Ġclassical	31603
Ad	31596
Ġcloser	31596
ĠUI	31594
documentclass	31592
Ġgrown	31592
ĠPart	31590
Ġsensor	31584
Ġfund	31584
Ġmono	31581
Ġth	31579
ĠControl	31578
len	31573
Ġbusinesses	31571
ĠDO	31566
Ġfont	31565
Ġminimal	31563
ĠPo	31557
ĠCu	31550
ĠJones	31549
Ġcontributions	31536
Ġconsists	31530
Ġinjection	31515
Ġphotos	31513
web	31505
ĠDel	31498
Ġ"(	31494
Ġaccordance	31486
Ġ400	31480
##mal	31479
##AT	31465
Ġ1998	31464
##mu	31445
Ġbigger	31440
Ġenhanced	31429
Ġremoval	31427
CIT	31426
Ġleadership	31416
##well	31408
Sa	31403
server	31402
home	31401
ĠIran	31397
print	31395
ĠÎ²	31387
cos	31351
Ġne	31339
##63	31335
Ġlaser	31330
Ġbodies	31323
ro	31313
Ġprevalence	31313
ĠPa	31302
Read	31296
jpg	31291
number	31282
obj	31277
Ġsin	31270
##73	31265
Ġaccounts	31245
Ta	31239
##uc	31239
ĠPe	31235
Ġcaught	31233
Ġsurgical	31227
.-	31224
Ġorganizations	31223
Ġgenome	31218
cs	31215
ĠCP	31208
Ġapparent	31206
Ġlocations	31201
Ġsynthesis	31182
Ġ57	31182
last	31172
Ġrecommend	31170
Ġconsequences	31164
ce	31160
Ġapproval	31158
Ġopportunities	31149
Ġsorry	31146
##gr	31142
Ġelectrical	31133
Id	31124
ĠME	31118
ĠObject	31112
Ġfruit	31108
ĠMon	31104
Two	31093
Ġthermal	31088
Ġcorrectly	31081
Ti	31073
Ġiron	31067
Ġdownload	31062
Ġdepression	31054
Ġmaintenance	31053
Ġfigures	31049
##Ã³	31041
ĠLee	31037
Ġrepeated	31033
os	31030
ĠGA	31013
Ġdenote	31010
Ġarrived	31010
Ġinternet	30991
ĠName	30988
##ux	30983
Ġfacility	30982
Mar	30977
ĠCheck	30965
Ġuna	30954
Ġ"\	30953
Ġthoughts	30939
Ġles	30936
Int	30931
Ġclosest	30927
ĠÃĳ	30919
Ġund	30918
Ġpathways	30914
##oa	30911
called	30904
##93	30886
##cal	30877
ĠIR	30861
Ġsyndrome	30857
##ws	30855
Ġtight	30847
##gar	30843
##From	30833
##57	30829
Ġuns	30822
Ġshop	30820
Ġ1000	30819
ĠApple	30817
##type	30814
Ġaccident	30812
Ġproportion	30803
Ġremote	30802
##TT	30797
Ġ{}	30796
Ġtrouble	30770
Ġposts	30761
Ġgrand	30753
template	30748
Ġpointed	30746
Ġdisplayed	30746
Ġsurrounding	30742
##nel	30734
ĠUp	30728
Ġmutations	30714
Ġcharacteristic	30713
Gu	30698
Ġabsolutely	30686
]^.	30685
ĠDemocratic	30685
Ġmiss	30684
Ġdepend	30678
head	30674
Ġpark	30669
Ġpractical	30668
Ġlaunch	30664
2007	30652
ĠYa	30648
Ġinstruction	30644
Ġupdated	30640
Ġsounds	30639
##80	30632
Ġbacteria	30630
ĠMs	30628
ĠBra	30626
Gr	30620
400	30608
##rus	30607
ti	30603
Ġapparently	30598
Ġintegrated	30584
Ġemotional	30576
Ġ54	30550
Ġclients	30535
Ġstages	30530
##40	30529
##Version	30515
##ming	30514
lt	30511
Ġtea	30508
Ġhelping	30505
ĠMartin	30502
Ġ1997	30502
Ġhypothesis	30499
non	30496
##var	30494
##ory	30488
Ġsoil	30457
##ney	30452
Ġmeta	30449
Ġcentre	30446
Ġsheet	30441
ĠView	30426
ĠAb	30419
]);	30418
##Client	30413
Ġspectra	30406
1000	30404
Ġ"""	30404
##Line	30393
AD	30392
##sy	30392
ĠPolice	30388
2006	30380
ĠInd	30375
Ġcommittee	30374
google	30371
Ġcoupling	30365
Ġevening	30364
Ġconviction	30360
##pu	30348
Ġfashion	30347
Ġimplied	30345
##ery	30340
').	30334
Ġincidence	30334
Ġforget	30325
##sis	30323
##mat	30320
##Ñĥ	30317
Ġadopted	30316
##ãĤ	30310
Ġtherapeutic	30308
bit	30301
Ġsubmitted	30297
##aa	30292
Ġrepair	30290
Ġkitchen	30285
ĠAppellant	30282
ĠMor	30279
##ique	30278
Are	30254
mode	30252
Ġdomestic	30238
##uring	30233
Ġtopic	30228
)/(	30226
##ivity	30226
Ġsolar	30222
sensors	30214
Ġmeat	30210
Any	30195
##ich	30191
Ġfeed	30190
dir	30182
Who	30182
##TC	30174
Ġmis	30171
##af	30165
Ġconstructed	30163
Č	30155
Ġargued	30150
ĠMa	30149
##By	30145
Ġdogs	30143
Ġdescribes	30140
Ġcoffee	30130
Ġpictures	30123
##ÃŃ	30098
Ġprovisions	30098
##ag	30092
Ġplastic	30090
Ġtransformation	30085
Mi	30071
Ġepisode	30067
##tre	30064
\]),	30060
##87	30051
##Ĵ	30041
Ġimplement	30037
inter	30035
Si	30034
sm	30031
##ç	30026
Ġ53	30020
Ġclimate	30018
Ġcounts	30007
search	29997
##tle	29995
Ġapart	29988
Ġflag	29982
pdf	29981
ĠJo	29970
Ġessentially	29960
gt	29944
Ġ\>	29942
Ġmarkets	29933
mod	29925
Ġmarked	29920
ind	29894
##RO	29894
control	29892
ĠDevelopment	29883
Click	29882
}{-	29880
Ġtasks	29880
Ġgu	29878
Ġtotally	29874
ĠFa	29872
auto	29864
Ġencoding	29863
ĠSal	29859
Ġexplanation	29848
ĠHA	29837
Ġdiscretion	29831
ri	29824
port	29824
Ġcategories	29815
Ġspatial	29807
Te	29804
##ime	29803
##AM	29798
##EL	29781
##",	29781
Ġtaxes	29776
##IR	29771
Ġfeedback	29767
Ġtaste	29764
Ġma	29764
Ġguidelines	29759
##house	29757
##ining	29748
Bi	29743
Ġng	29725
160	29720
##ola	29718
##Property	29702
Ġspeaking	29700
##ward	29698
setlength	29693
Ġmaintained	29685
Ġraw	29678
Ġ1996	29675
Ġop	29673
ĠGen	29655
Ġdesire	29650
Ġchapter	29645
small	29640
Ġlen	29640
##Mode	29636
Ġdeclared	29626
Â»	29618
ps	29618
##PS	29617
Ġregime	29617
ĠSh	29616
Ġrecording	29613
Ġimmediate	29602
ĠWho	29596
Ġultimately	29587
ĠĠĠĠĠĠĠĠĠĠĠĠĠĠĠĠĠĠĠĠĠĠĠĠ	29582
##CO	29563
ĠRead	29559
ĠServices	29553
Pro	29543
Ġfamiliar	29535
query	29534
Ġcognitive	29534
package	29524
Ġhate	29517
##cu	29516
Ġoffering	29515
amsmath	29495
##ong	29494
##otic	29493
Pr	29487
Ġ01	29472
##ost	29458
Ġgrade	29452
##ang	29451
ĠCorp	29451
Ġwonder	29447
Ġtells	29446
Ġgl	29423
Pa	29418
txt	29417
##pro	29416
\}	29414
ĊĠĠĠĠĠĠĠĠĠĠĠĠ	29407
Ġest	29401
put	29396
Ġrat	29384
GL	29366
Ġreporting	29366
Ġcon	29365
Ġrecognition	29359
Ġpreparation	29352
Ġrealize	29348
Ġfiber	29344
Ġidentical	29338
Ġtreatments	29334
Ġcat	29331
ĊĊĠĠ	29330
ĠPower	29325
Ġ&\	29325
Ġwine	29311
Ġpermit	29302
Ġtransform	29301
Ġregister	29298
ĠÃ	29283
amssymb	29275
##py	29272
016	29270
ĊĠĠĠĠĠĠĠĠĠĠ	29269
Ġclassification	29268
Ġok	29263
##Number	29253
ĠBR	29244
ĠDu	29236
][@	29216
Ġlogic	29215
Ġhelpful	29214
ĠEr	29213
015	29212
}}{\	29210
amsfonts	29207
Ġmodify	29202
Ġregulations	29198
##oo	29195
ĠCM	29191
##rop	29188
##HA	29188
]$	29184
##RS	29184
Ġbond	29177
Ġfinds	29176
Ġexamine	29176
Ġbars	29175
Ġrespective	29170
Ġspoke	29166
Ġserving	29148
Ġcurves	29142
Ġobviously	29141
mathrsfs	29140
Ġcamp	29138
Ġrequested	29134
Ġprinciples	29134
amsbsy	29132
##med	29130
upgreek	29126
110	29125
doc	29122
oddsidemargin	29097
##ther	29093
wasysym	29091
only	29090
##yo	29077
Ġ$(\	29076
Ġdiscovery	29070
Ġsituations	29058
bool	29057
Ġleg	29043
ĠMicrosoft	29034
ip	29032
ĠER	29030
Ġmoral	29018
qquad	29010
##mar	29008
make	29003
star	29000
>,	28998
##è	28997
Ġtumors	28997
ĠDonald	28976
##ote	28972
Ġbug	28943
ĠHi	28942
2005	28941
trans	28935
ĠHill	28935
##UR	28931
ĠIsland	28918
ĠSecretary	28911
ba	28908
##path	28906
Ġpo	28901
##32	28897
ĠSen	28897
Ġworst	28892
ĠAss	28892
##Ã¤	28889
Ġlies	28873
Ġbeat	28858
ĠAdditionally	28854
##Is	28847
method	28834
##Cs	28834
Ġshooting	28808
ha	28797
Ġanyway	28795
##NC	28793
strong	28789
Ġcrucial	28787
ĠPT	28777
##(\	28774
Ġcompliance	28764
000000	28762
Du	28753
##ĉ	28752
ĠÎ±	28752
##VI	28750
ĠPeter	28747
Ġion	28746
Because	28741
##30	28740
Ġloan	28740
Ġpet	28729
ĠCha	28729
ĠModel	28728
={	28722
Ro	28706
ĠDemocrats	28703
Ġbought	28702
Ġsetup	28701
Ġalpha	28691
2001	28670
Ġassets	28665
Ġpulled	28654
##All	28651
:(	28645
ĠMD	28641
root	28628
meta	28627
Ġsegment	28621
Ġka	28615
Ġhappening	28610
Ġfa	28609
ĠJournal	28604
Li	28598
ĠAC	28598
##las	28595
ĠIns	28583
Ġpatent	28578
Ġsomewhat	28575
entry	28574
Ġrequests	28572
Ġgrid	28572
##ita	28566
Ġtransaction	28565
==========	28561
Ġtranscription	28560
Ġgate	28559
##fs	28558
##ath	28555
Ġowners	28548
Ġspectral	28541
Ġho	28540
##50	28538
Ġbehaviour	28537
##Source	28525
##$$	28522
Ġarrested	28522
Ġcontents	28516
Ġenforcement	28515
##Ref	28513
man	28505
##if	28503
Ġhurt	28493
>>	28483
ĠDirector	28483
##ering	28474
Ġruling	28474
Ġneck	28474
Ġdrawn	28474
pl	28452
##Factory	28439
ĠSociety	28438
SC	28431
##onic	28424
Ġteaching	28417
Ġglucose	28404
Ġimagine	28399
čĊĉĉ	28389
Supplementary	28388
ĠVo	28388
##Page	28380
Ġpreferred	28376
Ġune	28368
mail	28365
Ġ],	28364
Ġpossession	28351
Ġconfirm	28350
Ġworry	28347
##79	28346
##pol	28344
Ġintelligence	28335
Ġpicking	28332
Ġhidden	28327
##|\	28325
approx	28314
Ġinfected	28306
##mon	28300
##hl	28293
##CT	28290
Ġthick	28285
##fo	28284
Ġdeaths	28283
ĠTE	28274
center	28270
Ġdriven	28254
ĠCC	28250
Ġweather	28245
ĠIll	28226
ĠVal	28217
ea	28215
push	28210
##ung	28210
##Buffer	28207
##car	28198
ph	28194
Ġenzyme	28186
Ġfighting	28184
TR	28166
ĠThose	28160
Ġformal	28157
Ġapplying	28156
##zed	28152
Ġinstant	28143
response	28141
##eh	28139
Ġnormally	28136
Ġbeta	28135
Ġ}}	28132
##dg	28129
Ġvoters	28119
Ġrotation	28119
}})	28111
ĠGar	28092
Ġpowers	28088
ĠRoad	28085
##ware	28080
##key	28078
Ġescape	28073
Ġim	28071
##AA	28066
tt	28061
Ġweapons	28056
Ġnoticed	28055
##book	28054
Sha	28033
ĠmM	28031
Ġproliferation	28028
ĠSocial	28018
Ġpl	28016
Ġwood	28013
Ġcarrying	28012
Ġden	28008
Ġrealized	28006
##ute	28004
fi	28002
Ġcounty	27999
ĠProgram	27997
More	27995
Th	27981
##ple	27979
Ġtri	27969
013	27968
Ġ:)	27965
Ġdivision	27963
Ġroles	27952
Ġpermission	27951
Ġassumption	27949
align	27944
##iv	27933
Ġvertical	27933
Ġmechanical	27933
Ġcontroller	27929
Ġ102	27925
Ġtough	27919
ĠKi	27919
Ġreads	27913
Ġintegral	27913
update	27899
Ġcultural	27870
mid	27867
Ġoverride	27853
Ġourselves	27848
##000	27835
Ġharm	27834
ĠValue	27834
##ink	27828
Ġbi	27827
##ind	27826
ĠCh	27820
Ġregistered	27814
ĠMer	27808
Ġacids	27801
Ġsubstantially	27794
Ġseparation	27792
Ġattempts	27790
017	27787
Ġinfections	27784
Ġdraft	27781
ĠEducation	27772
''	27771
sup	27767
##ii	27764
Ġmetric	27753
molecules	27752
call	27746
ĠLos	27736
##,\	27731
ptr	27726
##file	27723
Ġ===	27720
Value	27710
##fu	27710
Ġche	27699
##Ð°	27698
Ġboolean	27697
Hu	27694
Per	27686
Ġmanage	27686
Ġaccused	27677
%),	27673
##Stream	27669
ĠVan	27662
##hn	27653
Ġmillions	27652
msg	27647
Ġexcited	27642
ĠReg	27637
Ġseparated	27633
##mit	27632
Ġseed	27628
ĠKorea	27627
##its	27623
103	27620
Ġmoderate	27618
##view	27610
Ġconstruct	27605
##Ãĥ	27595
foo	27587
Ġexperts	27585
Ġconversion	27585
Ġresolve	27583
Ġlegislation	27563
##down	27562
Ġdiameter	27557
##EE	27554
##orm	27553
dec	27550
Ġintegration	27548
Ġmon	27544
##Response	27542
Ġbrown	27542
Ġ104	27539
Ġpaying	27535
Ġdropped	27530
Ġmedicine	27506
ĠWilliams	27501
Ġuniversity	27500
Po	27497
Ġcorrelated	27484
2019	27482
ĠDivision	27477
df	27472
tag	27456
Ġradius	27447
Ġviral	27445
Ġsha	27442
ĠComp	27439
Key	27431
##din	27431
cf	27426
Ġconsumer	27426
ĠLand	27426
##OM	27425
Ġopposition	27422
##ria	27421
Ġbright	27414
Ġplanned	27413
##ved	27406
Ġfee	27402
ĠAttorney	27400
ĠTri	27394
018	27391
##SA	27385
ĠWilliam	27382
##Base	27377
Ġintroduce	27375
Ġstick	27372
neq	27369
ĠBo	27369
Ġcopyright	27368
Ġdocumentation	27361
##osa	27358
Ġrecognize	27356
##St	27345
Ġ>=	27342
Ġsister	27339
Ġdinner	27339
Ġneuro	27336
##uct	27328
Ġorgan	27322
ĠAnti	27321
Ġplain	27319
Ġinstitutions	27319
##kl	27307
##92	27304
Ġneutral	27300
2004	27299
##lib	27297
##ado	27296
##ening	27289
Ġcars	27281
ĠGNU	27276
conf	27275
Sch	27259
bottom	27252
Ġpurchased	27252
Ġsmart	27246
Ġsizes	27243
##MS	27242
Ġsimulation	27235
Ġknowing	27235
^-	27234
Ġconstitutional	27216
Ġreactions	27212
ed	27200
Ġfeels	27199
Ġcrystal	27192
te	27187
Ca	27186
##ali	27182
ĠWhere	27179
Ġcorporate	27173
inc	27164
##NI	27149
Ġwinning	27139
Ġsm	27138
Cor	27131
##don	27128
Ġpromise	27128
ĠSm	27122
si	27121
ĠPI	27121
other	27112
Ġdream	27111
ĠKey	27099
Ġreligion	27098
Ġreliable	27098
125	27096
ĠPort	27093
ĠMen	27089
ĠCar	27077
**(	27075
Ġsharing	27071
Ġincreasingly	27070
ĠGame	27069
##AD	27067
["	27060
Ġokay	27050
Ġowned	27043
Ġ\-	27042
##ena	27041
mathsf	27035
Ġuniform	27031
Ġtransferred	27023
Ġkinds	27023
TO	27020
En	27014
ĠBO	27011
sa	26993
##ame	26988
Ġcomplicated	26986
Ġconvert	26981
Ġ})	26980
Ġentity	26980
Ġindustrial	26979
Ġsubstance	26973
filter	26964
ĠMaybe	26958
##ori	26951
Ġanswers	26951
ĠAmendment	26947
Ġvictims	26936
Ġkeys	26936
##Un	26931
ĠDan	26929
##ãĥ	26927
Ġrapidly	26924
ĠLake	26923
Ġdust	26922
##Date	26918
Ġdecade	26916
Ġoriginally	26909
Ġforming	26909
Ġdual	26907
Ab	26904
##Action	26901
People	26888
ĠDM	26885
##ew	26877
ĠMO	26877
Web	26873
Ġinduction	26859
)*(-	26855
Ġslowly	26846
service	26844
Ġextensive	26843
AL	26841
014	26841
}]	26838
fr	26837
Ġbrowser	26837
Ġ--------------------------------	26836
Ġnm	26833
##Filter	26826
##illa	26820
*^	26812
##ira	26811
------	26805
disc	26802
ĠĠĠĠĠĠĠĠĠĠĠĠĠĠĠĠĠĠĠĠĠĠĠĠĠ	26799
ĠmiR	26793
##yr	26792
ĠGi	26788
Ġacquired	26778
ĠMexico	26777
]{},	26770
Ġguard	26770
##ered	26768
header	26766
##ace	26761
Ġclock	26761
Ġ1995	26761
Ġlie	26753
Ġ-\	26747
Ġtheorem	26746
'}	26739
ĠGC	26728
-(	26710
##br	26703
##Token	26698
Ġfl	26683
element	26679
Ġrestaurant	26677
##ere	26675
ĠIraq	26674
Text	26673
Ġbattery	26671
Ġsh	26662
Ġpresentation	26662
ĠAli	26655
Ġprobe	26650
Date	26647
Ġaddressed	26643
Ġcol	26642
Ġrisks	26640
None	26632
Ġregulatory	26626
ĠSS	26611
##ken	26610
Ġcolumns	26609
Ġflu	26599
Ġwinter	26598
Ġheader	26593
Ġcircle	26592
some	26589
##Point	26587
ĠAI	26583
Ġpayments	26579
Hey	26575
Ġtip	26572
Ġfails	26571
Before	26570
Ġera	26567
Ġreviewed	26566
##Format	26564
019	26561
Ġstatistics	26551
ga	26548
Ge	26546
Ġcompensation	26545
Ġil	26541
ĊĊĠĠĠĠĠĠĠĠĠĠĠĠĠĠĠ	26539
Ġmigration	26537
Ġill	26533
Ġ<-	26531
Ġshell	26529
Ġfairly	26524
Ni	26516
##OP	26515
##).	26508
##bu	26507
Ġsymbol	26505
Ġinflammatory	26501
ĠKo	26497
##oi	26493
##..	26489
Ġaudience	26488
Thank	26487
Ġrows	26487
Ġwire	26478
Ġdependence	26475
##ition	26471
Ġparticipate	26470
Ġhydrogen	26467
Ġwindows	26455
Error	26450
ĠWall	26443
Ġmomentum	26441
Ġsuffering	26426
ĠHR	26420
ĠMake	26417
Ġclusters	26413
Ġexcess	26407
(_	26406
Ġrecover	26402
Ġgoods	26398
ĠSu	26395
args	26393
Ġhotel	26392
ĠVersion	26377
##Layout	26375
Ġdep	26373
]\	26371
Ġed	26370
ĠFi	26370
å	26365
##ail	26363
ĠIF	26362
##fully	26359
)+	26346
wo	26343
ĉĉ	26341
frame	26325
RA	26324
ĠCF	26322
Ġflux	26321
##On	26318
Ġexpand	26318
bi	26312
Also	26311
ĠVirginia	26310
Ġlisten	26309
rs	26308
Ġchoices	26308
ĠScott	26299
##port	26294
Ã	26290
Ġtwenty	26289
Ġ105	26289
});	26283
Ġregardless	26279
Ġyouth	26269
##pen	26267
Ġtemperatures	26264
Ġstem	26261
ĠSI	26261
##cat	26260
##æ	26259
}+\	26254
Ġ1980	26254
vector	26239
Ġpursuant	26238
105	26210
##we	26206
Ġwarning	26201
##col	26192
Ġuniverse	26190
ĠTrans	26186
box	26185
##ris	26184
Ġengaged	26182
Ġcomfortable	26178
##burg	26173
##mann	26167
Ġvehicles	26167
)))	26166
Ġregional	26154
Ġadverse	26144
Ġcapture	26142
Ġsimulations	26137
Ġbanks	26135
Ġsurfaces	26129
Ġpublication	26122
##DI	26116
##',	26108
Ġcook	26099
ĠChief	26094
Ġaside	26087
ĠOhio	26086
are	26083
"}),	26078
Ġyounger	26074
Ġtab	26072
Ġå	26071
Ġedges	26059
}\,	26054
Ġkilling	26051
Â¼	26046
Ġwonderful	26043
##MP	26036
Ġrational	26032
American	26031
##aw	26022
Ġreform	26022
ĠMrs	26022
Ġrock	26020
Ġlaboratory	26018
Ġcoupled	26017
Ġpy	26013
Ġoperate	26011
}^{(	26001
##UL	26001
ĊĠĠĠĠĠĠĠĠĠĠĠĠĠĠ	26001
down	25996
ĠThree	25996
Ġdeliver	25992
Ġsuffered	25990
Ġscenario	25990
ĠHO	25984
Ġprogression	25981
Ġent	25972
Ġnum	25971
##Ċ	25964
Other	25962
Ġodd	25961
Ho	25953
Ġstores	25952
Ġdelete	25947
Ġturning	25939
Ġmutation	25932
&\	25931
##IM	25930
Ġsky	25930
Find	25922
Ġsubsequently	25921
ĠAppeals	25918
Ġcalculate	25914
ĠNC	25912
ĠReview	25909
Ġheads	25908
Ġbreath	25908
ĠVer	25908
IS	25882
##Ã¼	25875
æ	25873
ĠNon	25870
##-\	25866
]}	25864
common	25856
Ġrefused	25851
##ati	25846
##Label	25845
Ġcolors	25844
##fr	25842
Ġbuildings	25835
ln	25834
Ġelectrode	25833
Ġ103	25832
Ġcalculation	25831
Ġalign	25831
Ġattempted	25817
Ġproducing	25814
Ġwriter	25811
Ġgrounds	25807
Ġhell	25805
)}{	25802
Ġfamous	25794
ĠMary	25792
##ith	25788
ĠWE	25788
ĠCanadian	25785
Ġinhibitor	25784
ĠOh	25782
Ġsmoking	25780
Ġfoods	25779
Ġstrike	25769
Ġwalls	25767
Ġ106	25767
##^{	25764
Ġstimulation	25751
ĠCE	25747
Ġproposal	25743
Ġbra	25739
let	25735
double	25733
Ġstood	25732
Ġroll	25727
##Â	25721
Ġdischarge	25720
Ġflight	25718
130	25716
Ġ109	25715
Ġcorresponds	25713
Ġvillage	25711
ĠJewish	25705
Ġ250	25700
Ġapoptosis	25697
Ġlay	25692
Ġemployer	25689
Ġschedule	25687
Ġfarm	25672
CO	25668
ĠMiddle	25667
ĠBush	25664
Ġstack	25657
Ġboys	25655
##ugh	25651
Ġshock	25650
Ġbelief	25650
Ġstands	25647
##izer	25640
Ġfacing	25639
Ġversions	25638
##SP	25633
##Be	25633
Ġbeer	25629
can	25628
Ġwelcome	25628
##con	25625
##II	25624
}^\	25620
##rated	25618
Ġcontributed	25614
020	25612
ĠCarolina	25610
##yst	25601
ĠRichard	25592
ĠPrime	25592
Ġrepresenting	25590
Ġplenty	25577
2003	25573
Ġhash	25571
Ġproceedings	25570
Ġlens	25570
/>	25565
Ġbasically	25562
IN	25561
OR	25556
Ġinvolvement	25545
ts	25544
]]	25544
Ha	25540
##55	25538
Ġexit	25538
ĠCall	25538
ĠRock	25537
##Controller	25533
Ġsuperior	25533
ĠGiven	25525
eps	25522
ĠSer	25517
Ġminister	25514
Ġinflammation	25510
Ġextreme	25508
Ġexecution	25498
ĠAmong	25498
Ġreceptors	25496
ĠRepublicans	25492
Ġ$|	25487
Ġtheme	25485
##72	25482
Ġqu	25477
Ġrepeat	25468
buffer	25458
Ġyellow	25449
ĠError	25446
ĠZe	25442
Ġmapping	25439
Ġarbitrary	25438
position	25435
ĠTra	25433
Âģ	25425
Ġchamber	25425
##ark	25418
Ġgauge	25417
##ids	25413
ĠES	25413
##dir	25411
%;	25407
Ġattribute	25407
ĠHu	25407
remove	25401
##inal	25391
Ġ1994	25389
month	25387
Ġteacher	25381
##«	25370
Ġmodes	25358
part	25349
Ġwalked	25348
256	25345
##load	25345
Ġprepare	25342
##IO	25339
##Status	25337
Ġequally	25335
##90	25326
Ġcoefficient	25326
##row	25318
Ġverdict	25310
Ġthickness	25309
##Log	25308
Comp	25305
Ġconsumers	25304
Ġopposed	25300
Ġassault	25298
Ġthrows	25297
##UT	25295
Ġisland	25292
##=\	25288
Ġshut	25282
Ġperforming	25281
Ġmoves	25256
Ġjourney	25254
Ġuniversal	25253
AP	25252
102	25252
##cer	25250
Ġbacterial	25242
Ġapplies	25232
--------------------------------------------------	25231
Ġobserve	25227
ĠKu	25225
192	25222
close	25221
SP	25218
space	25214
Ġaudio	25209
ĠAccordingly	25200
##eas	25195
SO	25191
Ġagencies	25186
##LO	25185
Ġfly	25180
child	25179
Ġdiversity	25177
##eb	25172
AB	25163
##ural	25156
Ġadjacent	25153
ng	25152
host	25151
Ġcontrary	25149
project	25148
Ġplanet	25142
ĠOrder	25141
Ġpregnancy	25135
cd	25130
##uch	25128
##ran	25121
Ġdecline	25121
##}\	25120
ĠMike	25119
ĠBu	25119
Ġinduce	25118
Ġperiods	25111
Ġsatisfied	25105
##Options	25093
Ġcl	25091
Ġstronger	25088
Even	25085
##82	25074
##zy	25070
load	25063
Ġmissed	25062
namespace	25049
Ġusage	25047
Ġrank	25043
Ġcreates	25040
##Method	25032
Ġ111	25032
Ð	25030
##ÑĤ	25028
##table	25027
##rv	25020
THE	25019
Ġwherein	25017
Ġdimensions	25017
ĠUser	25016
Ġpermanent	25013
Bar	25012
Ġmagnitude	25009
Ġcards	25009
ĠNetwork	25009
AC	25006
Ġmutant	25004
ĠAnn	25004
Ġsaved	25002
ĠHE	25002
Ġstatistically	24998
ĠYet	24998
Ġban	24989
##),	24988
##ision	24982
##cs	24970
Ġnarrow	24969
Ġbegins	24968
##els	24965
Ġshares	24962
Ġclassic	24952
##ture	24951
Ġongoing	24950
~,	24948
TYPE	24947
Ġprofiles	24944
ĠWater	24943
Ġni	24941
Ġthereof	24939
Ġintake	24939
##Get	24937
high	24934
Â´	24927
Ġconnections	24922
Ġdivide	24916
Ġcoefficients	24915
ĠTop	24915
##OC	24905
Ġmarkers	24905
two	24902
Ġspirit	24901
Ġdecreasing	24900
ĠReal	24885
Ġexcluded	24879
Ġdiv	24879
Ġbringing	24877
Ġcutting	24872
##ill	24869
Car	24858
Ġnewly	24855
Ġeditor	24849
replace	24846
Ġpan	24846
Ġacademic	24840
##gra	24836
##xt	24824
Ġevil	24820
##lor	24818
##Style	24817
ins	24815
Ġ),	24812
##ave	24811
Ġos	24808
Ġfi	24807
View	24805
ĠNext	24804
##can	24803
Ġsymmetry	24799
ĠGe	24798
Ġev	24797
==	24792
Ġcomprehensive	24790
ĠNE	24787
##Cl	24781
Ġac	24780
Ġteachers	24778
Ġefficacy	24778
##acy	24777
Ġ108	24775
Bu	24774
čĊĠĠĠĠĠĠĠĠĠĠĠĠĠĠĠ	24774
Ġanxiety	24772
xe	24769
Ġvictory	24767
Ġintermediate	24767
ĠFire	24759
Ġconsequence	24748
##OW	24747
mathscr	24740
Ġsubset	24737
Ġrequiring	24735
Ġsick	24734
fold	24733
Ġreader	24732
##70	24731
Ġlosing	24729
About	24723
Ġchose	24722
.âĢĻ	24719
Ġshouldn	24714
ĠFind	24711
ĠDes	24711
MA	24709
=======	24705
Ġmanufacturing	24702
Ġselling	24699
ĠIM	24696
ĠDep	24685
bl	24680
ĠFo	24679
ĠGO	24675
##the	24673
Ġcomplications	24673
Ġadequate	24673
ĠBur	24672
ĠVol	24667
Ġdiagnostic	24660
Ġextracted	24659
ĠInf	24656
Ġtargeted	24653
ĠBlue	24650
)}$	24625
ĠDR	24620
cor	24618
Ġcache	24613
User	24610
Ġlesions	24603
##rin	24601
Ġinjured	24599
internal	24598
##lar	24598
##LD	24594
Ġpowder	24593
104	24592
Ġ::	24591
>&	24584
}|	24581
Ġdealing	24579
ĠFrank	24577
ĠSimilarly	24572
ĠGold	24571
Ġ<=	24569
##UN	24566
offset	24560
"}](	24559
pos	24557
;</	24555
ĠAN	24555
Ġsuspect	24554
mem	24537
Ġbits	24535
ĠAnalysis	24526
##vin	24525
SA	24521
Ġtrained	24517
2002	24509
tra	24505
##And	24505
ĠShow	24500
##rp	24499
Ġinfrastructure	24490
123	24476
Ġpredict	24470
ĠLocal	24467
111	24461
Ġtour	24452
$(	24451
ĠImage	24448
Ġmetabolic	24439
Ġstrange	24435
##van	24433
Ġvaluable	24415
Bl	24414
##Frame	24410
ĠMedia	24402
Ġbridge	24399
Ġafternoon	24399
Ġ128	24394
Ġcomputed	24387
##ros	24381
Ġgi	24379
ĠTrue	24376
Ġbrings	24374
ĠArmy	24372
Ġinstances	24369
ĠBoston	24361
Ġwearing	24353
Ġconservative	24347
Ġprefer	24346
Ġdiagram	24346
Ġmoments	24341
Ġfaces	24341
##}}	24340
##ila	24334
##ifies	24324
ĠPE	24322
##Se	24318
ass	24317
Ġpi	24315
ĠSec	24311
example	24309
##vis	24309
Ġreserved	24308
##rio	24293
Ġ$\{	24291
##cent	24289
qu	24279
per	24277
Ġcalculations	24277
Ġind	24273
ĠKar	24273
Ġtape	24272
when	24264
Ġdifferentiation	24260
##Ã©r	24259
Ġactivated	24259
ĠVa	24254
Ġtechnologies	24249
Ġtruck	24246
PA	24243
ĠKh	24242
ĠFROM	24232
Ġ180	24232
Ġrecall	24229
Ġreviews	24228
ĠCat	24226
Last	24225
ĠVI	24223
ĠEvery	24223
Ġapartment	24221
Ġkernel	24218
Ġcloud	24218
CI	24204
Ġrely	24201
Ġcha	24200
FA	24199
ĠDespite	24199
##ett	24198
##BA	24195
ĠCare	24190
dx	24189
His	24187
Lo	24186
^,	24185
##uo	24183
Ġlock	24180
Ġbear	24180
à¤	24174
Ġ1993	24173
Ġdecay	24172
ĠChristmas	24168
PS	24164
DA	24164
##get	24141
Ġ1992	24137
Ġchicken	24131
ec	24123
Ġrender	24113
before	24104
$_	24104
Ġcardiac	24095
ĠSa	24091
##ines	24090
final	24089
##ars	24088
Ġallegations	24088
ĠFed	24083
there	24082
##che	24079
Ġunsigned	24076
Ġelected	24068
##hal	24054
##ok	24052
Ġrenal	24042
ĠText	24037
ĠBased	24037
Ġdedicated	24035
Ġchecked	24033
El	24029
Ġintroduction	24026
ĠCorporation	24024
.$	24023
Ġstroke	24017
Ġclassified	24017
ĠĠĠĠĠĠĠĠĠĠĠĠĠĠĠĠĠĠĠĠĠĠĠĠĠĠ	24017
including	24014
##Sp	24013
Ġsatisfy	24012
##fer	24005
values	24000
Ġseriously	23995
Ġordinary	23991
Time	23990
Ġsurprise	23990
193	23985
Ġrevenue	23972
##ech	23966
Ġdistributions	23960
Ġgalaxies	23937
Ġvary	23932
Ġanywhere	23932
Ġaged	23931
Ġhistorical	23930
Ġbytes	23927
600	23918
##Î±	23915
Ġsnow	23913
US	23900
##RC	23894
Ġsteel	23894
1999	23891
##aries	23885
Ġsemiconductor	23872
Ġcorrection	23871
ĠFE	23870
ĠParis	23865
##cing	23863
##ãģ®	23857
Ġpresents	23856
Ġmatches	23854
Ġgift	23854
ev	23848
Ġstrict	23845
Ġph	23845
}}^{	23844
Ġ{{	23843
ĠSpecial	23842
ĠRight	23840
Ġkit	23839
}'	23832
##È±	23831
Ġtheoretical	23828
Ġimp	23827
UN	23823
nm	23822
Ġwarrant	23820
Â²	23819
##oke	23807
ĠClub	23805
##kt	23804
Ġlattice	23803
Ġperfectly	23802
Ġpot	23799
0002	23789
##Width	23789
Ġinvolve	23789
##atory	23788
Ġpartners	23788
##Input	23786
ĠMass	23778
ĠPage	23777
##iness	23768
##ement	23768
any	23764
limits	23760
.^[@	23757
Ġdiagnosed	23757
##UI	23753
Ġtoken	23753
##cher	23745
Ġstaining	23743
Ġillness	23741
Ġ&=	23731
positive	23729
Ġprediction	23728
Ġlaunched	23710
ĠCharles	23707
180	23701
ĠGrand	23701
##RD	23683
ĠWT	23682
Ġincubated	23677
Ġchest	23676
Ġdataset	23672
Ġdiffer	23671
real	23666
ci	23662
##aring	23658
Ġcommit	23652
Ġmetabolism	23645
ĠDate	23645
cpp	23643
Ġcarefully	23641
Good	23636
Ġsa	23631
Ġeducational	23625
Ġafford	23616
Ġstatutory	23613
Most	23592
##rit	23592
Ġyesterday	23591
Ġurban	23591
ĠJava	23590
Ġdb	23586
Ġfraud	23582
##ball	23577
car	23571
ĠGR	23571
Ġ\;	23567
============	23557
##PE	23557
ĠThanks	23553
EC	23549
ĠWomen	23547
Ġinsulin	23546
Ġpin	23544
ĠDoes	23544
(\[	23542
De	23540
Ġ++	23539
##late	23533
Ġrev	23532
##lam	23527
ĠYOU	23519
ĠGl	23518
Ġbreaking	23517
*/	23514
Ġthousand	23507
Ġmonitor	23505
system	23504
Ġwest	23504
Str	23503
ĠKr	23502
ĠAngeles	23497
##data	23495
194	23494
Ġcla	23494
Ġbin	23485
ĠDetermine	23485
Ġhardware	23480
Ġride	23478
ĠPP	23475
##51	23466
Ġav	23463
Use	23460
Ġrounded	23458
address	23457
##ibility	23454
Ġ125	23447
ĠCell	23441
##light	23430
##ito	23427
Ġfellow	23426
ĠĠĠĠĠĠĠĠĠĠĠĠĠĠĠĠĠĠĠĠĠĠĠĠĠĠĠ	23422
##ient	23420
="#	23419
Ġdomains	23419
step	23417
Ġgeneric	23409
Ġpseudo	23403
icon	23402
Ġloaded	23399
##İ	23398
lim	23395
Ġdrinking	23395
ĠFar	23391
Ġreferences	23386
Ġcarrier	23385
Ġsufficiently	23381
Ġroutine	23376
Ġcontends	23375
ĠRI	23370
ĠBefore	23366
Create	23364
##sel	23358
ĠMC	23355
ap	23354
##iation	23354
IP	23352
Ġtranslation	23351
Ġcomplexity	23346
Ġes	23344
Ġpartially	23342
Ġra	23336
Ġimposed	23336
Ġneighborhood	23333
140	23329
Vert	23321
ĠSe	23316
##alo	23312
\}$	23310
##ob	23307
getC	23306
##point	23303
=(	23301
ĠSpace	23300
Ġins	23299
##Builder	23296
Ġmini	23296
Ġcomparable	23290
Ġdisclosed	23287
Ġsomewhere	23286
ĠCur	23282
ĠSN	23278
Ġjump	23276
Ġtables	23262
##map	23261
Ġyields	23261
ĠSw	23258
##oy	23254
Ġcontrolling	23242
Ġdenominator	23239
ĠURL	23234
ĠOld	23227
Ġ112	23224
##zing	23218
##01	23218
Ġeast	23217
ĠEM	23213
##ily	23212
Ġnumerical	23203
Ġcrowd	23202
##Impl	23193
##CK	23193
Ġdiscrimination	23190
Ġbelieves	23190
Ġreveal	23188
ĠTR	23185
##rad	23184
##ction	23184
us	23183
ĠBritain	23166
Ġwa	23153
##ela	23142
ĠConstitution	23142
Ġsampling	23140
Ġconstraints	23140
ĠAge	23137
Ġbehalf	23136
,$	23135
mp	23122
Ġperipheral	23111
ĠTeam	23103
Ġtrigger	23099
Ġadmission	23093
Ġsight	23089
IC	23087
ĠJoe	23087
Min	23086
Ġmarketing	23075
##IE	23070
ĠHTML	23069
Image	23066
\"	23061
Ġ}\	23048
Ġserves	23047
During	23045
##imi	23043
021	23022
ĠMatt	23022
Like	23017
break	23012
Ġja	23010
##App	23008
Ġpop	23007
after	23004
ĠFox	23004
"))	22996
dr	22995
ĠForce	22995
Ġscan	22990
Ġinclusion	22990
ĠCe	22987
250	22982
mediated	22977
Ġhandling	22976
ĠYoung	22973
##ada	22966
Ġpassword	22965
device	22956
Ġkid	22955
Ġ130	22948
##mark	22945
##nie	22944
Ġchallenging	22943
Come	22938
Ġexplicitly	22938
##Bar	22934
##](	22933
ĠBusiness	22929
231	22927
Ġalive	22922
textbf	22916
ĠCho	22916
attr	22910
Expand	22906
##ida	22902
ubuntu	22901
Ġgrew	22900
aa	22894
##rim	22894
Ġver	22893
Ġcited	22893
Ġ190	22893
ĠAustralian	22887
Ġneural	22878
##uti	22876
BR	22874
##ians	22871
]"	22867
Ġsimultaneously	22867
Ġsand	22861
Ġtiming	22860
Many	22856
ĠDE	22852
tmp	22840
ĠToday	22839
Ġloading	22834
##rel	22824
Ġalgebra	22823
Ġmales	22819
Ġdec	22818
Ġenhance	22816
cb	22814
ĠCont	22805
Ġproven	22803
##NO	22801
Ġquiet	22788
ds	22786
ĠAsia	22783
ĠUV	22771
Ġlunch	22770
Ġvariations	22765
##Co	22758
Ġhealthcare	22753
112	22747
Ġgreatly	22745
ĠTechnology	22741
##eed	22739
ĠMc	22732
Ġfunc	22731
Her	22729
##rb	22722
##yc	22716
Ġfo	22714
##iti	22703
##iter	22703
Ġresponded	22702
##ties	22695
Ġprovider	22695
Â¶	22694
ĠDar	22694
ĠBest	22690
Ġamplitude	22687
inf	22685
##isi	22685
Ġ**(	22683
##oxy	22682
Ġcovering	22679
Rec	22678
Finally	22671
Ġpulse	22670
Ġcopies	22668
Ġimproving	22665
Ġquantity	22654
xc	22651
##day	22647
ta	22645
Ġer	22643
Ġfed	22642
##wise	22641
Ġvast	22634
Ġingredients	22634
##yp	22631
Ġobj	22631
Ġfewer	22631
Ġadministrative	22620
should	22613
ĠRam	22612
ĠJr	22611
##vel	22608
Ġmarker	22608
SM	22607
ĠOP	22606
ĠOK	22606
Ġpenalty	22603
rep	22602
Open	22599
ĠSH	22599
ĠYu	22598
Ġexplicit	22588
Ġro	22582
ĠPut	22581
##Ps	22568
Ġmatching	22567
ĠJackson	22567
Ġrose	22566
Ġapproximation	22562
such	22561
ĠPL	22561
##rl	22560
##ded	22558
'$	22554
Ġchair	22544
ĠChapter	22541
ĠLove	22539
Ġbutter	22533
Ġsending	22531
Ġmovies	22531
Ġgarden	22531
Ġcohort	22531
ĠDem	22530
##iss	22529
Ġcollect	22527
Ġcodes	22526
Ġelevated	22525
Ġdrivers	22520
ĊĠĠĠĠĊĠĠĠ	22512
cup	22509
se	22507
>.	22506
Ġhasn	22501
Ġnamely	22496
Ġrooms	22490
ĠCivil	22490
##tl	22489
Ġfailing	22489
##FI	22484
Ġgay	22479
ĠIsraeli	22479
Ġomitted	22476
ĠDB	22476
##ret	22471
Ġnearby	22469
ĠJack	22468
full	22465
##Instance	22459
ĠKim	22458
ĠValley	22454
Ġsubmit	22453
Ġflash	22450
Ġcomparing	22445
Ġsignature	22444
Ġdifficulty	22440
ĠTH	22435
Ġ123	22428
Ġpapers	22427
ĠIllinois	22422
ĠReport	22419
##ides	22418
ĠDavis	22418
##Or	22416
##oh	22412
Ġrejected	22410
ĠPlan	22410
##een	22409
Ġvariance	22407
}-\	22388
##js	22388
Ġleaf	22384
ĠOs	22384
Ġcommitment	22373
ĠFund	22367
ss	22364
DE	22359
CF	22359
##Window	22358
Ġfrequent	22354
PC	22353
Ġprecisely	22353
white	22347
inv	22346
Tra	22346
Ġfifth	22339
ĠRoyal	22337
Ġ107	22330
years	22328
sys	22326
ff	22321
ĠTer	22320
Ġinequality	22318
Ġtrace	22317
##sch	22312
Ġsharp	22312
pc	22309
Ġdivisor	22304
more	22294
Ġbulk	22294
Ġovercome	22287
ĠItaly	22284
##EC	22281
Ġinvestors	22280
ÂĢ	22275
Ġmachines	22274
Ġatoms	22257
ĠMichigan	22255
ĠDescription	22251
Ġprec	22248
Ġabsorption	22246
Ġnotion	22244
Tr	22243
##uit	22242
Ġscientists	22242
Ġexhibit	22242
Ġbusy	22233
Pe	22231
ĠYear	22231
##EM	22230
Ġbuying	22230
ĠVi	22226
Ġfemales	22219
Ġargs	22212
Ġmask	22210
process	22209
##ography	22208
Ġbundle	22207
Ġcompetitive	22203
##é	22202
ĠAmazon	22200
stream	22199
ĠEnergy	22197
##uk	22194
Ġwet	22194
Ġprofit	22194
Ġnaturally	22194
nav	22183
##75	22179
Ġko	22179
Ġheter	22178
Ġdoctors	22178
Ġclosing	22178
Ġdiverse	22174
they	22171
{(	22168
acc	22165
ĠTe	22161
##OT	22160
##MI	22160
~*	22153
##ncy	22151
)),	22149
ĠSte	22142
ĠMain	22136
menu	22133
ĠLE	22133
Ġcareful	22132
}}}}	22124
active	22124
ĠGal	22121
Ġau	22110
022	22109
Ġparticipation	22098
End	22097
Ġcuts	22092
env	22091
display	22086
Ġscored	22082
Ġmeasuring	22080
Ġelections	22078
##36	22075
ĠCross	22072
Ġengage	22069
Ġrestricted	22062
Ġcoordinates	22061
DC	22059
ĠResults	22059
Ġbowl	22058
Ġcheese	22057
Ġcream	22051
)|	22042
Ġjo	22042
ĠChris	22039
ĠBY	22038
Ġenabled	22037
ĠBack	22037
ĠCatholic	22034
Ġsurprised	22024
Ġriver	22019
Ġprivacy	22019
%).	22017
Ġreduces	22012
Ġmodification	22010
##Url	22007
Ġadjusted	22006
ĠNor	22002
Ġtail	21994
}_\	21993
est	21993
quot	21992
##win	21986
00000	21985
ĠCor	21984
##ima	21979
##ape	21979
ĠPhoto	21979
Ġtelephone	21977
Ġ\"	21973
##ree	21971
##Block	21971
Ġscheduled	21971
Ġcomfort	21967
Ġcable	21962
ĠLast	21962
Ġyards	21960
click	21956
##KE	21942
Ġcomposed	21934
##LY	21928
Ġfeelings	21925
ĠWork	21925
Ġindependently	21923
ĠĠĠĠĠĠĠĠĠĠĠĠĠĠĠĠĠĠĠĠĠĠĠĠĠĠĠĠĠĠĠĠĠĠĠĠĠĠĠĠĠĠĠĠĠĠĠĠĠĠĠĠĠĠĠĠĠĠĠĠĠĠĠĠĠĠĠĠĠĠĠĠĠĠĠĠĠĠĠĠĠ	21909
Ġsuffer	21908
Gi	21906
BU	21903
Ġcoll	21903
ĠSR	21902
Ġadds	21900
pro	21895
Results	21895
Ġya	21888
##ju	21881
Ġdominant	21876
ĠPet	21875
ĊĊĠĠĠĠĠĠĠĠĠĠĠĠĠĠĠĠĠĠĠĠĠĠĠĠĠĠĠĠĠĠĠĠ	21875
background	21873
Ġmistake	21871
ĠSyria	21869
ĠAp	21867
##wo	21861
math	21858
Ġarmy	21856
UI	21855
way	21848
Ġanymore	21847
ĠCEO	21847
##ished	21845
##BC	21845
Ġcontinuing	21843
Ġpresidential	21842
ĠTen	21834
}},	21833
Ġsuppose	21832
pe	21829
location	21829
Ġkinase	21829
##ese	21820
##Start	21817
ĠLC	21816
Ġsettlement	21814
Ġsilver	21813
##kes	21809
ĠNY	21807
who	21802
ĠGlobal	21801
ĠMax	21800
ĠFR	21798
##work	21796
ĠHD	21794
ĠED	21793
Ġlipid	21787
##TER	21786
Ġje	21783
prod	21779
!âĢĿ	21778
ĠMap	21776
Ġhi	21775
Ġlists	21768
Ġteeth	21763
ĠPre	21755
ĠNumber	21752
##ught	21747
Ġcommission	21747
ĠSource	21747
ĠTC	21744
Ġcrimes	21736
Ġprogramming	21730
ĠPen	21730
##ined	21726
ext	21721
Ġboat	21721
Gl	21720
fs	21718
Does	21718
Ġtalked	21715
hi	21714
materials	21713
Ġcommunications	21711
Next	21698
Ġaircraft	21692
Ġherein	21691
ctx	21690
ĠCreate	21682
byte	21676
Ġbroke	21671
Ġprecise	21669
Ġgenerating	21668
##osition	21662
##cast	21655
product	21654
Ġuni	21648
Ġopinions	21647
##Query	21643
hu	21632
ĠManagement	21630
##nis	21628
Ġreceiver	21626
ĠAA	21625
CL	21622
##pl	21617
known	21615
Ġexecuted	21612
ĠTake	21606
Ġinstrument	21598
usr	21597
column	21596
Ġmail	21592
John	21586
Ġwealth	21582
Ġpriority	21581
Ġpetitioner	21574
Ġlegs	21574
{}	21571
##zu	21571
Ġvectors	21567
Ġshoulder	21563
Ġdanger	21563
107	21562
214	21561
ĠItalian	21560
\|	21557
Ġlocally	21555
Ġwaves	21554
Ġ115	21553
##ici	21547
##Content	21543
Ġass	21540
Ġmom	21538
Ġafraid	21538
ĠGeorgia	21537
##lation	21527
Ġradical	21526
Ġorientation	21526
Ġpour	21517
Ġ1991	21517
Ġextraction	21504
Ġrefers	21493
Ġdeclare	21492
ĠTim	21492
Ġcrazy	21490
Ġwhenever	21487
(*	21483
LA	21482
Class	21480
what	21479
dim	21478
ĠBre	21478
Ġsuddenly	21476
##ien	21474
SS	21465
Ġhouses	21464
ĠFC	21463
Ġhonor	21453
Ġdist	21450
dp	21443
Ġaimed	21428
Ġmild	21418
ir	21416
CT	21410
Ġinhibitors	21395
ĠLog	21395
Gra	21388
Ġtaught	21387
du	21383
blue	21381
Ġtemporary	21381
ĠCook	21381
External	21380
##TS	21379
Ġnamespace	21376
Ġforum	21376
Ġplea	21374
Ċĉĉĉĉĉĉ	21374
tu	21371
Ġattend	21371
Ġ"/	21370
Da	21353
Ġstreets	21350
ĠApplication	21349
##ius	21347
Ġexpenses	21343
Ġbreach	21337
Ġcultures	21335
^+	21327
106	21316
Ġweapon	21314
Ġmod	21314
##mes	21312
ĠPolicy	21312
NAME	21310
##RNA	21310
ĠAction	21309
tri	21304
Ġencourage	21299
Ġproduces	21294
Ġpassage	21293
hand	21292
##amine	21292
Ġvital	21292
Ġupdates	21289
.;	21287
Ġconsecutive	21287
ĠProposition	21283
##lie	21272
)_	21263
Ġ>>	21259
##GC	21257
Ġpipe	21257
ĠPO	21256
ĠBell	21241
Ġrear	21237
Ġatmosphere	21237
handle	21232
sta	21231
Cu	21230
Ġwatched	21230
Ġwestern	21229
Ġtiny	21218
190	21215
ĠRights	21214
##DB	21211
Ġattributes	21203
Ġproviders	21195
Ġplurality	21195
params	21194
Ġnerve	21185
ka	21180
Ġreasonably	21180
Ġappreciate	21168
ĠThank	21168
AR	21165
Ġignore	21161
Ġfrequencies	21159
ĠTS	21158
Ġvertex	21151
Ġreg	21149
Ġvalve	21148
##ao	21147
<!--	21146
Ġsoul	21144
Okay	21143
Ġtrading	21141
Ġprocessed	21140
Ġca	21136
}^{-	21131
##dis	21131
Ġanalyze	21131
ĠDI	21131
Ġmar	21127
##Ð»	21122
Ġawareness	21110
Ġpsychological	21109
##head	21108
Ex	21104
Ġrain	21103
ĠDS	21100
empty	21095
Ġlosses	21093
ĠCL	21090
117	21080
Ġassist	21076
Part	21069
'),	21066
ĠCon	21066
ĠÐ	21064
##mia	21062
ĠGM	21047
##arr	21045
buf	21044
##zz	21044
Ġlawyer	21043
Ġpersonnel	21040
Ġwitnesses	21038
ĠCN	21038
():	21037
?'	21033
Ġcompletion	21028
Ġimprovements	21022
Ġsole	21021
Ġplates	21020
Ġep	21010
Ġsomehow	20998
Ġci	20992
total	20990
##ked	20985
Ġexc	20982
Ġmarks	20964
Ġvascular	20961
ĠMiller	20961
Ġstruggle	20959
ĠLine	20958
well	20956
Ġweren	20955
Ġcolour	20955
Ġvideos	20949
Ġtank	20948
Ġpatch	20942
Ġfluorescence	20941
Ġtalks	20940
ĠWilson	20940
Supp	20937
Ġexplains	20931
##ski	20929
ĠPH	20919
ĠCG	20919
Ġlayout	20916
Ġholes	20913
ĠAG	20912
##FF	20909
Ġcons	20906
Ġantigen	20903
Ġtemporal	20901
Ġ($\	20888
Ġorganized	20875
Ġgoverning	20869
Ġreturning	20868
ns	20865
Res	20858
##iate	20855
BA	20850
Ġ(%)	20850
ĠDen	20849
##nz	20846
Ġmanufacturer	20841
ĠLow	20841
Ġstone	20835
km	20833
Fi	20827
ĠCB	20827
ĠTM	20820
Ġcolon	20817
Ġce	20816
ĠBA	20816
Ġpe	20814
Pre	20799
PP	20798
Ġrespiratory	20798
Ġinterior	20796
State	20795
Ġ02	20795
Ġunlikely	20791
ĠĠĠĠĠĠĠĠĠĠĠĠĠĠĠĠĠĠĠĠĠĠĠĠĠĠĠĠĠ	20791
Ġdance	20786
Ac	20783
Ġroughly	20783
ĠOl	20781
Ġ121	20780
have	20773
Ġcert	20771
Ġchecks	20768
DM	20766
##Comp	20765
Ġarchitecture	20759
##ket	20756
Ġcreative	20756
Ġpermitted	20755
ĠCentre	20753
Ġinteract	20752
Ġgel	20749
Ġnervous	20740
Ġdirections	20740
lock	20738
Ġms	20738
pa	20735
##RR	20733
Ġmodules	20733
##ATION	20732
Ġpa	20724
Ġrecipe	20723
Ġnu	20716
Ġcooking	20713
Tri	20712
Ġarch	20708
Ġfoundation	20701
Ġuncertainty	20698
Ġelsewhere	20689
ĠFla	20688
Ġhyp	20687
##PL	20685
Ġcovers	20666
800	20663
##HO	20657
rel	20654
##ection	20647
Ġmeal	20647
dist	20645
##ym	20645
Ġrestriction	20639
##Provider	20637
Ġparking	20637
Ġgeometry	20637
then	20635
win	20629
##+\	20629
Ġdeviation	20629
##ÑĢ	20623
##ead	20623
ĠRepublic	20617
Ġbounded	20616
##Ptr	20615
Ġsystematic	20611
##yd	20608
ĠFood	20608
Ġpaths	20604
rem	20603
##lon	20601
##fin	20601
Ġfolder	20599
Ġ\|	20599
Ġcleaning	20595
ĠMuslim	20595
##ãģ	20594
Ġsodium	20593
Ġcompute	20588
Ġboost	20587
Ġconsisting	20586
Ġ1970	20582
life	20572
Ġcycles	20571
parse	20564
)}}	20559
Ġpolymer	20555
}\\	20553
##No	20552
Ġkeeps	20549
ĠExp	20549
Ġinvasion	20545
!!	20541
Ġutility	20541
Ġ"$	20538
##ifying	20535
Tab	20533
Dec	20528
108	20526
mo	20525
Ġmarijuana	20522
Ġexport	20521
Ġcontracts	20521
ĠEm	20519
ĠServer	20517
Ġdisability	20514
Ġseasons	20513
Ġpeptide	20513
Ġ119	20512
##eta	20510
container	20503
Ġsad	20503
Ġalgorithms	20497
##cin	20493
Ġaffects	20492
Ġconclusions	20491
127	20489
##esc	20486
MI	20481
##Listener	20481
export	20469
##par	20469
Ġbike	20463
Ġconcrete	20462
Ġchip	20462
Ġgiant	20461
ĠTotal	20458
Ġext	20457
ĠUC	20454
Ġvol	20453
Ġpor	20453
}"	20445
##uv	20445
Ġwake	20441
Ġoffensive	20441
~)	20437
.]	20424
##ĠĠĠĠĠ	20423
Ġtheories	20421
Ġbyte	20421
##SH	20419
##zer	20417
Ġscattering	20412
Ġmedication	20412
Ġrice	20410
ĠLett	20410
##Command	20407
Ġconverted	20407
ĠCommunity	20406
Ġconsiderable	20399
Ġbroadcast	20398
##Ã¶	20397
##ulate	20394
Ġ113	20394
email	20387
Ġ140	20387
Ġreaders	20383
Ġstrings	20379
Ġaccumulation	20375
Ġprotest	20374
Â¿	20373
Ġdispute	20372
Tex	20368
ĠBL	20360
),\	20358
Ġavailability	20356
##Ex	20354
Ġonset	20354
##ami	20352
ĠSouthern	20350
##__	20346
Ġsong	20345
ĠSQL	20344
Ġ$[	20344
ĠWood	20341
textrm	20338
Ġrobust	20333
Ġli	20332
Ġspan	20329
Ġinc	20327
##GI	20326
Ġresolved	20313
Ġhorse	20308
Ġviewed	20302
ĠJersey	20297
Ġrural	20296
ĠGP	20290
ĠÃ©	20287
Ġbread	20287
Ġmaintaining	20285
##á»	20284
##ographic	20284
Ġprevention	20281
##ele	20278
Ġfault	20270
Ġkm	20268
Ġpushed	20267
377	20263
ĠHS	20263
normal	20258
Ġpersonally	20257
âĢĺ	20248
Ġpilot	20243
Ġcoli	20241
ĠMel	20236
Ġ((-	20227
po	20226
ç	20223
Ġentries	20222
Ġ114	20218
Ġ=\	20214
##elo	20213
Ġconvicted	20203
Ġking	20202
ĠMB	20201
Ġadvantages	20196
Ġhem	20192
ĠOfficer	20191
debug	20181
Ġguarantee	20177
site	20176
cons	20175
Fl	20175
##AI	20174
Ġmirror	20173
ĠDid	20168
Ġfired	20167
Ġending	20164
Ġbarrier	20163
Ġphenomenon	20162
Ġinterference	20162
0005	20160
Ġconf	20148
ĠRun	20147
Ġsurvive	20136
Ġlifetime	20136
Ġdiscussions	20135
Ġownership	20134
Ġsequencing	20133
##ression	20128
Ġ('	20127
Ġteach	20124
##BI	20123
uk	20122
Col	20119
1998	20117
##tain	20117
##och	20116
Ġhousehold	20110
ĠInv	20110
IR	20098
Ar	20096
ĠLO	20092
##Sh	20084
Ġfiling	20083
##25	20079
Ġvacuum	20077
sha	20076
sw	20068
Ġexclusive	20067
Ġ(âĢľ	20067
Ġsir	20066
NET	20064
Ġregularly	20063
TD	20062
255	20050
Theta	20049
##imal	20048
Ġcompeting	20042
##gy	20041
ĠTu	20041
ĠRen	20037
Ġcur	20035
Ġì	20033
Inter	20030
Ġeggs	20027
Ġoperated	20025
Ġ['	20024
ĠMulti	20016
Ġfinger	20014
)$$	20006
Ġcrew	20006
##11	20001
ĠWITHOUT	19997
Once	19996
ĠGI	19995
Ġmill	19991
Ġtele	19988
Ġcomprising	19987
Ġflavor	19984
Ġprofessor	19983
Ġspiritual	19980
Ġquantitative	19980
Ġguns	19975
ĠHor	19975
Ġcenters	19974
ĠShi	19967
+^	19965
Ġthinks	19963
Ġcouncil	19959
docs	19956
Log	19956
Ġverify	19950
support	19947
DO	19947
##ĠĠĠĠĠĠ	19940
Ġliberal	19933
Ġentering	19933
CS	19932
Ġfusion	19932
##pc	19931
ĠCase	19931
}[	19928
Ġjudicial	19928
Ġear	19928
##err	19924
##uta	19920
ĠHenry	19919
##wl	19911
Ġtr	19902
##kar	19896
##41	19892
Ġhorizontal	19891
Ġancient	19889
##Ð¾	19887
##del	19887
unsigned	19884
Ġworker	19884
ĠWA	19881
##UM	19880
ĠSpanish	19876
Ġpm	19874
Ġsustained	19869
Ġgovernments	19867
zero	19862
##ega	19861
Ġfalling	19860
Ġdegradation	19859
clear	19856
Ġsatisfies	19856
Ġnorm	19855
Ġease	19855
##HI	19852
global	19846
Ġcaptured	19841
Ġproud	19840
##Not	19839
Â®	19838
PI	19837
ĠConference	19837
Ġtomorrow	19831
##86	19830
ĠAng	19823
'>	19820
ĠWhether	19819
##ais	19809
ERROR	19806
Ġreaching	19802
232	19801
##ying	19800
Ġexpanded	19797
Ġdemands	19795
Ġknee	19792
Ġinterventions	19790
ĠBol	19790
Ġedit	19789
##ota	19788
sk	19786
Ġbid	19785
Ġremoving	19780
Ġcolleagues	19778
Collect	19777
AM	19776
Ġdismissed	19773
Ġclo	19770
Ġvice	19768
Ġhide	19768
ĠStandard	19764
##Dir	19762
##PI	19760
Ġrecommendations	19760
##itation	19759
unit	19757
ĠĠĠĠĠĠĠĠĠĠĠĠĠĠĠĠĠĠĠĠĠĠĠĠĠĠĠĠ	19750
Ġcoding	19748
##ison	19746
Ġadmit	19745
application	19738
Ġroots	19732
Ġqualified	19725
Ġfalls	19720
Ġcoast	19720
ĠÂ°	19719
ĊĠĠĠĠĠĠĠĠĠĠĠĠĠĠĠĠ	19712
Ġportions	19711
Ġ1989	19709
Ġincorporated	19699
work	19693
##hood	19690
Ġchart	19690
Con	19687
##eth	19687
Ġhydro	19682
ni	19681
Ġ..	19679
ĠDisc	19673
ĊĉĠĠĠ	19667
ĠNFL	19659
ĠFrancisco	19658
Ġworldwide	19654
dis	19653
ĠSir	19650
about	19649
ĠPakistan	19647
Ġpackages	19643
Ġmasses	19634
ĠAF	19634
Ġkidney	19632
ĠLS	19632
##ically	19630
Pl	19628
Ġdestination	19627
##Resource	19626
Lu	19625
Ġgradient	19623
ĠApache	19623
Dis	19619
Code	19617
Ġstations	19617
##inc	19616
ĠDis	19616
dl	19613
##mod	19612
ĠDor	19605
Ġadministered	19604
Ġsizeof	19599
ĠTB	19599
bp	19597
##')	19597
Ġfaced	19594
fd	19588
Ġbottle	19587
ĠTrust	19585
ĠNov	19585
Ġscalar	19584
Ġassays	19583
ĠDefendants	19583
##com	19566
Ġbind	19566
Ġscales	19559
##lab	19558
Ġ160	19557
gen	19556
treated	19554
Ġresidence	19553
##rid	19544
','	19541
ĠBob	19541
Ġseparately	19536
ĠEP	19534
now	19528
Ġfolks	19526
Ġdoors	19526
Under	19520
ĠIr	19520
impl	19514
##31	19509
AA	19508
Ġdecreases	19507
ĠLie	19507
##oon	19505
Ġstuck	19501
Ġcheap	19500
##76	19499
##doc	19497
ĠHC	19497
##ider	19492
Ġ1988	19488
Ġglad	19487
Ġspo	19483
##61	19481
Ġphysics	19481
Using	19477
ĠPath	19476
ĠAsian	19472
ĠDaniel	19471
Ġroof	19470
ĠBase	19467
Ġvotes	19464
ĠALL	19463
Ġintervals	19462
ĠStudies	19461
Ġprominent	19459
ĠForm	19458
Ġ189	19458
Phys	19457
Ġmounted	19456
##usion	19453
##34	19452
Ġfriendly	19451
ĠMcC	19445
GA	19443
PD	19441
will	19440
Ġsmoke	19432
getS	19427
ĠEp	19422
May	19421
Ġvalidation	19414
Ġprotective	19413
Ġju	19413
sf	19411
binding	19411
Ġtoxic	19408
BO	19407
Ġtargeting	19407
Ġtensor	19406
Ġaddresses	19405
Ġdeb	19404
Ġegg	19400
Ġ186	19398
Ġbunch	19394
##ound	19391
ĠSL	19389
Ġbeach	19377
just	19370
##35	19370
Ġfer	19365
ĠMT	19365
Ġâ	19357
ĠPatent	19356
##Server	19355
Ġprofessionals	19355
Ġshit	19354
##pace	19348
Ġmu	19344
ĠSol	19343
Ser	19342
##URL	19341
files	19340
Ġunm	19339
subseteq	19335
##Row	19331
Ġinf	19324
gov	19320
##Header	19320
##ship	19315
##ICE	19315
Mu	19313
Ġpromoter	19310
Ġvariants	19309
ĠAuto	19307
##ype	19306
Ġexp	19304
Ġrising	19299
##db	19297
Ġdad	19296
##FA	19295
##ond	19293
Ġbands	19290
ĠAbout	19287
##eal	19286
ĠLouis	19286
Ġdismiss	19280
##phi	19277
ĠTaylor	19276
access	19273
0003	19273
Ġabsent	19273
Ġappointed	19271
send	19270
Ġappeals	19268
##ures	19267
Ġhonest	19266
Ġflexible	19261
Ġconstitute	19260
##Offset	19252
Ġga	19252
ĠTI	19249
ĠMiss	19249
Ġheavily	19248
CE	19245
##eq	19244
Ġpasses	19241
she	19237
Ġpump	19233
Ġexpressions	19233
ma	19231
ĠAcc	19230
Ġdrawing	19229
black	19228
Ġlikelihood	19222
Ġlip	19220
ĠLight	19220
191	19219
Ġreflected	19216
Ġseverity	19214
Ġburn	19212
pp	19211
##89	19210
Ġexpectations	19210
Ġblind	19202
Je	19199
Ġinsufficient	19196
ĊĠĠĠĠĠĠĠĠĠĠĠĠĠĠĠĠĠĠĠĠĠ	19196
{-	19193
Ġdress	19193
##hin	19191
##ico	19187
ĠRu	19182
Ġabstract	19179
DR	19177
##$\	19174
Ġinfinite	19170
Ġpace	19167
Ġjoy	19163
Ġalignment	19161
310	19160
bc	19159
tree	19158
##nder	19156
ĠEA	19155
##cation	19154
mi	19153
##ility	19152
Ġratios	19147
language	19146
##ifier	19146
Ġdish	19146
Ġsal	19145
Ġlimitation	19145
equal	19144
ĠHead	19143
Ġmovements	19140
Ġyeah	19139
Ma	19136
##ë	19136
ĠPatients	19136
echo	19134
Ġsolely	19134
Ġsoldiers	19134
Ġseeds	19129
ĠJe	19125
Ġsimilarly	19124
##pha	19122
Ġvaccine	19122
Ġgod	19118
##End	19116
Ġadvertising	19114
ĠEli	19113
Ġcarcinoma	19111
Ġrelating	19110
Ġconstantly	19107
ĠMR	19099
Ġsees	19098
ĠBeach	19097
Ġrs	19095
Ġhospitals	19087
Ġstupid	19082
Ġ116	19082
Ġenzymes	19079
##ogenic	19077
Ġ127	19075
ĠTax	19069
113	19068
Ġbeauty	19068
ĠNorthern	19067
Ġimmuno	19066
ĠNF	19064
ĠJoseph	19064
ĠAndroid	19063
##Length	19062
##84	19062
##side	19061
Ġawarded	19057
Ġanswered	19052
multi	19046
associated	19042
Ġrestrictions	19042
##FS	19036
##CS	19032
Ġengineering	19032
Ġcoordinate	19032
##96	19029
Ġ$-	19028
Ġalert	19023
ĠAcademy	19017
Ġforest	19016
##ette	19013
Ġsubjected	19011
Ġblow	19011
Ġfeeding	19008
##iro	19007
Ġmeetings	19004
AT	19000
Ġmanual	19000
Ġvarying	18984
Ġcomprises	18984
Ġsupplied	18978
Ġarg	18977
Ġchat	18976
Ġjail	18974
}}}\	18969
Ġinsert	18969
er	18960
121	18959
ĠFour	18959
Ġprosecution	18952
Ġbeneficial	18952
Ka	18950
Ġæ	18947
'_	18944
Ġhoping	18944
ĠPennsylvania	18944
Ġprojection	18943
ĠMicro	18938
fp	18937
ĠMedicine	18935
##à¸	18928
Ġpixel	18927
Ġpack	18925
Ġalter	18925
}}}$	18922
Put	18922
Ġexecute	18918
ĠMM	18917
Ġproceed	18916
##nar	18915
##ĠĠĠĠĠĠĠ	18914
ĠPur	18914
##enti	18909
thm	18905
##TG	18903
SELECT	18901
Ġproceeding	18900
DB	18899
Ġnations	18899
##rom	18897
ijerph	18896
##×	18893
Ġvi	18893
Ġenjoyed	18892
Ġaccessible	18892
Ġwheel	18891
Ġ122	18890
##dh	18889
task	18887
Ce	18884
Ġimmunity	18883
##At	18882
Ġlights	18882
Ġimplications	18882
##ush	18879
Out	18877
Ġphysician	18874
cast	18872
ĠRoman	18868
##Attribute	18866
ĠSupport	18866
à¸	18864
023	18858
Ru	18857
Ġinline	18855
ĠPlaintiffs	18855
ĠIslamic	18852
Ġcombat	18851
ĠBI	18848
Did	18847
ĠRel	18844
##ont	18839
es	18837
##ocal	18837
Ġclothes	18832
super	18829
opt	18827
ĠFBI	18816
170	18814
##nia	18804
Ġages	18804
Ġacquisition	18803
ĠCy	18803
##gli	18802
##kr	18801
Ġsmile	18792
Ġmaximal	18792
ĠFollowing	18788
##nal	18781
##OD	18781
##ters	18780
note	18776
##Range	18774
ĠRyan	18774
##MC	18770
ĊĊĉĉ	18768
Ġ600	18767
Ġsuicide	18762
ĠPoint	18760
##à¤	18758
setminus	18757
##kk	18755
116	18754
Ġlaid	18753
Ġcalm	18752
ja	18748
##reg	18747
PCR	18745
115	18742
Ġmat	18739
##ents	18738
Ġwi	18738
Ġpartition	18737
ĠFort	18731
##iel	18725
Ġcalcium	18725
Ġbonds	18722
Ġbomb	18718
ĠDue	18715
ĠBP	18714
##95	18709
âĢħ	18702
cp	18701
Ġabundance	18700
Ġdefines	18697
Mon	18696
##gon	18695
##GL	18693
Ġcord	18692
Ġheating	18687
##Address	18683
ĠSteve	18681
##ump	18675
Ġtips	18673
Qu	18672
Ġjet	18666
OK	18665
par	18664
##UP	18664
Par	18659
##PR	18658
Ġparse	18658
Ġspa	18657
ĠBer	18653
Ġcallback	18652
Ġvitamin	18649
]=	18648
ĠBel	18645
Ind	18644
-*	18644
Ġcorporation	18641
ĠLinux	18641
&&	18640
token	18637
##âĪĴ	18637
Ġartery	18635
##bit	18631
ĠPy	18629
>\	18628
##TR	18628
underline	18622
Ġaffirm	18622
Ġâī¥	18619
##air	18613
Ġ117	18609
Ġdestroyed	18606
Ġspecify	18604
Ġdestroy	18603
ĠIndex	18603
ĠâĢ¢	18602
Ġranging	18602
Ġpadding	18601
fc	18597
ĠAdministration	18596
Ġautomatic	18590
Â»Â	18589
##ref	18589
Ġinstallation	18586
Post	18585
Ġmut	18585
Check	18583
ĠCount	18582
Ġimmigration	18581
Ġdefensive	18579
Ġadopt	18579
Ġ118	18576
##yme	18574
##ffe	18573
##Âł	18569
Ġ"#	18569
Ġlymph	18566
Ġassignment	18564
Ġag	18564
ĠTor	18562
Look	18558
##CP	18558
ĠSanta	18557
Ġpres	18555
##DS	18553
Ġink	18553
Ġdesirable	18551
##ope	18550
Ass	18549
insert	18547
Ġdevelopers	18543
Ġcollective	18531
##tti	18521
Ġeligible	18521
ĠTHIS	18521
Har	18519
ĠFL	18517
##Out	18507
Ġsur	18507
su	18504
Ġerred	18499
##yer	18496
Ġarmed	18492
Ġpoll	18489
Ġunusual	18487
##Sub	18486
Ġaltered	18484
ĠMaster	18484
Ġacceptable	18483
ĠPra	18482
ĠNevertheless	18481
abs	18477
Ġluck	18475
Ġeffectiveness	18471
Ġboot	18467
Ġlab	18461
Ġearned	18459
Ġlateral	18457
ĠLtd	18457
instance	18455
##rant	18453
Ġpreliminary	18452
##link	18449
##")	18449
Ġshoot	18448
law	18443
Ġstruck	18442
ĠSon	18441
Ġunclear	18434
Ġconsistently	18431
Ġsport	18428
Ġserial	18424
ĠJim	18420
Ġattractive	18418
lem	18417
Ġhom	18415
Ġsessions	18414
##group	18411
##cia	18409
Ġguidance	18407
defined	18405
##av	18402
Ġoccurrence	18402
Ġwound	18399
Ġprecision	18394
Ġvisited	18393
Ġmatrices	18393
rt	18392
Ġvoting	18392
Ġ["	18384
Ġ\#	18378
ĠPython	18378
ĠImp	18376
Tu	18373
draw	18370
conv	18370
Ġmock	18366
Ġalt	18366
Ġte	18363
Ġfacilitate	18357
##IVE	18355
Ġintention	18355
hour	18354
Ġhadn	18354
##Link	18353
##pat	18349
Ġnormalized	18349
Ġloose	18349
ĠColorado	18348
dagger	18340
Ġmacro	18340
Ġperceived	18339
iso	18337
Ġregistration	18337
hash	18335
Ġtracking	18334
Ġpacket	18331
Ph	18327
Ġeverybody	18326
ĠKl	18326
Ġmolecule	18325
Ġawait	18325
ĠStudy	18324
transform	18316
Ġarrangement	18315
Ġà¤	18309
Ġangular	18302
Ġviolent	18297
Ġmagic	18296
Ġtone	18295
session	18291
##ede	18290
##Exp	18287
##bin	18285
_{(	18284
Ġsauce	18284
##rap	18280
Ġps	18279
Ġrid	18277
ĠRet	18277
##INT	18273
Ġpepper	18269
}({\	18265
##21	18265
##yt	18264
.),	18262
ĠHave	18260
##ipe	18255
Ġshopping	18255
profile	18253
Ġsystemic	18253
translation	18249
Ġintense	18243
temp	18242
Ġperi	18239
##yan	18238
week	18237
Ġmountain	18237
ĠIreland	18237
BL	18235
Ġsteady	18235
Ġidentifying	18235
Ġcomplexes	18234
ĠArizona	18233
dep	18227
Ġbirds	18226
ĠProp	18226
ĠStra	18225
Ġrarely	18222
Ġruled	18220
700	18219
Ġrandomly	18219
Ġtreating	18215
command	18213
Ġcry	18213
114	18211
ĠFamily	18211
|^	18209
ĠUnfortunately	18209
Ġattended	18208
##Le	18202
Ġshorter	18202
ĠKn	18202
##Update	18199
Ġpromising	18196
Ġdesigns	18192
ĠHI	18191
ĠJews	18188
ĠOct	18187
ĊĠĠĠĠĠĠĠĠĠĠĠĠĠĠĠĠĠĠĠĠĠĠĠĠĠĠĠĠĠĠĠĠĠĠĠ	18186
Ġtransportation	18185
Ġchildhood	18184
##RP	18178
Ġpoliticians	18177
ĠĊĠĠĠĠĠĠĠ	18172
ĠDist	18170
ĠEN	18168
Ġaging	18167
exc	18163
##Res	18162
##Height	18162
Ġultimate	18161
images	18159
##BO	18157
BE	18155
ĠStart	18153
ĠAgreement	18153
##oz	18151
Ġintegrity	18148
Ġ<!--	18147
ĠCi	18146
##osing	18145
).$$	18134
Ġ+/-	18133
##ulin	18131
ĠChe	18131
Ġpeer	18129
RE	18127
030	18127
ĠGro	18126
Ġflour	18124
Ġpointer	18123
Ġchemotherapy	18122
word	18121
ĠPG	18121
ĠWin	18119
Ġdemo	18112
Ġwashed	18111
Over	18108
DD	18108
Ġclause	18108
side	18106
Ġoxide	18106
Ġsol	18105
Ġpregnant	18103
Ġ132	18103
Ġdeeply	18100
cache	18097
pass	18094
}}$.	18092
##24	18092
none	18091
Ġcorrespond	18091
Ġsentencing	18090
ĠFO	18088
Ġ124	18087
##aka	18083
ĠSk	18083
##Ð´	18082
Ġconcepts	18077
Ġdip	18076
Ġsu	18074
Ġblame	18073
##sto	18072
dc	18068
Ġharder	18067
Ġdenial	18066
ĠJSON	18066
Sub	18056
Ġearn	18055
ĠPu	18054
ĠCancer	18052
ĠGrant	18051
Ġwash	18050
##EP	18049
##hen	18047
##Default	18047
Ġjson	18046
*]{},	18045
##orn	18042
##cle	18041
ĠSeveral	18041
ĠIntroduction	18035
Ġlabels	18031
Ġeverywhere	18030
Ġ1983	18026
Ġforever	18025
##uous	18022
Che	18021
119	18018
##88	18015
Ġresidues	18013
Ġdefect	18012
ãĢģ	18011
Ġ187	18004
##PC	18003
ĠAccess	18003
desc	18000
Ġamended	17997
Ġunt	17992
Ġmere	17992
Ġdefend	17990
##idi	17987
Ġallegedly	17984
ru	17983
Ġmixing	17982
mean	17978
xf	17976
Ġphases	17973
ĠLD	17971
comment	17966
ĠRay	17964
\^	17959
Ġdisabled	17958
Ġskill	17957
Ġprogressive	17956
##Form	17953
##Br	17951
Ġretain	17949
Ġinstitution	17949
Ġdem	17948
ĠBan	17944
##Control	17938
})}	17937
Ġsubs	17936
second	17935
##OK	17935
ĠDesign	17932
Ġpaint	17926
Ġfunny	17922
cmd	17918
Ġdoctrine	17911
##pan	17908
Ġcrash	17903
Ġnewspaper	17902
ĠCap	17900
Ġcampus	17898
ĠBitcoin	17894
Ġcomputing	17892
##lim	17890
jo	17887
ĠInclude	17882
ĠSeries	17879
ĠPan	17879
Ġcollapse	17873
ĠHistory	17872
ĠMin	17870
layer	17868
Ġcurrency	17868
disp	17863
{{	17855
domain	17854
ĠCU	17852
1996	17849
Ġhybrid	17849
Ġmonthly	17848
Ġar	17847
MOESM	17844
vs	17840
Ġsymmetric	17838
}}_{\	17837
sn	17836
##ident	17836
Ġutilized	17830
Ġrepeatedly	17829
##dal	17828
Ġlegislative	17824
ĠCPU	17823
hspace	17822
art	17822
Ġtexture	17822
Ġwrites	17821
'\	17820
##top	17819
##Pro	17818
##eno	17817
Reg	17815
##hed	17810
##edi	17809
Ġinit	17809
##lock	17804
Ġhang	17800
ĠSin	17799
##91	17797
Ġcomplement	17794
Ġenemy	17793
109	17792
ĠGE	17788
##aging	17782
Ġmes	17782
Ġintellectual	17782
Ġaccompanied	17782
axis	17778
Ġml	17776
SI	17774
##PT	17774
Ġdiscover	17772
Ġoven	17771
Ġexhibited	17768
Ġbankruptcy	17768
wedge	17762
ĠFair	17758
Ġ188	17757
Ġreporter	17752
Ġviolated	17751
Ġlying	17751
Ġarranged	17749
ĠdÃ©	17744
##gue	17743
##mt	17742
##Str	17741
xs	17739
ĠMed	17738
para	17736
ĠSU	17733
reference	17731
Model	17728
Ġmitochondrial	17728
##Al	17724
Ġchecking	17722
loop	17719
##ited	17719
Ġpulmonary	17716
Ġvessel	17714
Ġenvironments	17711
Ġcre	17710
Ġtract	17707
##Ã©e	17706
ĠSpain	17706
ĠBro	17706
Ġdiscrete	17705
ĠConf	17702
ĠRegister	17699
Ġenc	17691
Ġ(@	17689
Ġsurveillance	17688
ĠĠĠĠĠĠĠĠĠĠĠĠĠĠĠĠĠĠĠĠĠĠĠĠĠĠĠĠĠĠ	17688
Ste	17687
Ġfitting	17686
ĠAtt	17678
ĠWil	17677
##test	17676
##amp	17672
Ġoccurring	17670
Ġdisagree	17670
ĠYe	17667
133	17663
Ġlanguages	17663
Ġ1986	17659
##UE	17657
Ġnano	17656
interface	17654
##eti	17654
Ġpr	17654
Br	17653
her	17651
Ġreveals	17651
Ġdysfunction	17643
Ġio	17642
Ġultra	17641
â	17634
Ġtopics	17634
Ġ185	17634
Ġstudying	17633
Ġphilosophy	17628
window	17620
217	17616
Ġatom	17615
##omb	17614
Ġvoted	17613
Ġreadily	17613
ĠMi	17613
ĠCol	17608
Ġputs	17605
Ġdeclined	17605
Ġpropose	17602
Ġsec	17601
##rat	17597
Ġrecovered	17596
Ġperception	17591
ĠSto	17591
124	17590
Ġgli	17590
Ġadjust	17587
Ġsupporters	17583
Ġfabric	17581
Ġqueue	17580
cells	17578
##app	17578
Ġunlike	17578
Ġpen	17578
anti	17577
Ġlift	17577
##inate	17575
ĠEastern	17574
##ired	17571
Ġpanels	17561
even	17558
Ġreversed	17558
Win	17557
##aci	17556
ĠKingdom	17555
##cho	17554
999	17553
##hor	17552
ĠAsh	17552
##via	17551
ĠAgain	17549
ĠAv	17548
ĠTw	17542
##iated	17540
Ġderivatives	17540
ki	17538
.*]{}	17537
ct	17533
1997	17531
Ġopt	17521
ĠVe	17521
##mas	17520
ĠSW	17519
ĠCons	17519
Ġdefects	17514
Ġdoses	17513
##Entry	17511
Ġembedded	17509
Su	17508
Ġinterpreted	17508
Red	17505
##bra	17500
Ġtransactions	17500
Ġtroops	17498
ĠMethods	17495
Ġcorrelations	17494
Ġchi	17489
_+	17486
Ġtrauma	17483
ĠGas	17482
Ġsouthern	17476
stat	17472
Ġstellar	17469
##dom	17459
GR	17455
Ġ'\	17455
matrix	17450
##pic	17449
Ġliked	17447
ĠÂĹ	17446
##HE	17445
ĠNu	17445
ĠSpa	17437
Ġfibers	17429
Ġcholesterol	17428
##Th	17427
##Cr	17427
Ġtill	17426
Sal	17424
Ġrent	17424
ĠChildren	17424
edit	17423
join	17420
Right	17420
Make	17418
##//	17418
Ġinvalid	17417
##ono	17412
Ġwedding	17407
Ġ1987	17407
Ġarise	17403
negative	17402
Ġwireless	17402
ĠThough	17402
ĠFu	17401
Ġcombine	17399
Ġquasi	17396
Ġduties	17394
Ġprinted	17393
ĠTro	17392
##Ch	17390
Ġlifestyle	17390
perp	17382
Ġ|\	17381
rb	17380
##Cell	17380
Ġreset	17376
ĠML	17376
}}(\	17375
light	17372
##genic	17372
Ġactor	17371
Ġprosecutor	17370
126	17368
ĠTitle	17368
##eur	17365
RS	17363
Ġlabeled	17358
copy	17357
##ured	17355
Ġcooling	17352
##CI	17351
Ġfilling	17349
Ġrating	17348
Ġprinting	17347
ĠSB	17346
Ġexciting	17344
##itive	17341
0004	17340
ĠÑģ	17338
Ġauthorized	17338
##81	17335
Ġnorthern	17335
Ġunb	17333
Ġphysiological	17333
Ġevident	17330
,{\	17327
Map	17325
Ġdiffusion	17324
Up	17318
}}$,	17317
##pre	17317
Ġexpressing	17312
##Task	17305
Ġinfluenced	17305
Ġwage	17302
Ġillustrated	17302
imp	17301
Ġtens	17298
Ġdefeat	17298
Ġassociations	17297
ĠWARRANTIES	17297
ĠĠĠĠĠĠĠĠĠĠĠĠĠĠĠĠĠĠĠĠĠĠĠĠĠĠĠĠĠĠĠ	17297
Ġreact	17293
ĠFl	17287
Ġcourses	17284
##La	17280
Ġgained	17275
ĠRO	17269
ĠSat	17264
132	17263
Ġ129	17263
shape	17260
##FE	17256
Ġisolation	17254
Ġraising	17249
Ġpending	17249
ĠHas	17249
Ġphenotype	17247
Ġnp	17247
Ġmess	17247
ĠRadio	17246
čĊĉĉĉ	17246
##CR	17245
Ġgenomic	17244
##ots	17240
Ġgear	17240
##uer	17238
Ġdiff	17238
colon	17235
Ag	17235
Ġattitude	17235
Ġloans	17230
##Me	17228
Ġtension	17228
ĠNT	17227
ĠImages	17225
javascript	17222
##Location	17220
Ġrem	17220
##bre	17216
Ġconnecting	17213
types	17208
CM	17208
Ġinspired	17207
##ges	17205
Ġ135	17205
Ġvalidity	17204
ĠThird	17201
##loc	17199
##ÃĹÂ	17197
ĠRob	17197
ĠĊĊ	17195
##ees	17194
ĠGri	17191
Ġexcessive	17187
ĠOff	17186
Ġ&=&	17186
##wan	17184
ĠTa	17182
ĠPacific	17179
ĠMad	17176
Ġgalaxy	17174
Sl	17164
##room	17163
Ġpitch	17159
ĠKorean	17158
CP	17156
Ġhopes	17152
##Module	17147
Ġsomebody	17145
Ġast	17145
175	17144
##band	17144
Ġxe	17143
122	17142
short	17140
Ġguest	17139
ĠHan	17138
component	17137
Ġignored	17137
Ġasc	17135
**.	17133
##Component	17133
Ġcontacts	17132
.(	17129
Ġinvariant	17129
Ġpur	17124
Ġawesome	17122
ĠAB	17122
##OB	17119
##IF	17116
Ġ126	17116
Ġ+\	17116
##.$$	17113
how	17112
weight	17110
Ġtolerance	17109
Ġresonance	17109
ĠSF	17109
##oll	17107
Ġacc	17105
ĠmL	17104
Content	17103
##oids	17100
Ġperiodic	17097
##Spec	17096
Ġicon	17095
NA	17092
ĠWithout	17090
Ġ"<	17086
Ġdenotes	17085
##oph	17080
,$$	17079
ĊĊĠĠĠĠ	17079
ĠPlay	17078
Ġtherm	17075
save	17073
##Check	17070
168	17069
##ency	17068
Ġcardiovascular	17068
ĠBor	17068
##ats	17067
Ġhtml	17065
ĠGames	17065
border	17064
##pers	17063
##Change	17062
Ġpreventing	17061
Ġphosphorylation	17059
(){	17055
248	17049
ĠAgency	17049
ĠNP	17048
Ġequilibrium	17043
ĠColor	17040
ĠAnderson	17037
Ġtransmitted	17033
Three	17031
Ġestimation	17026
1995	17022
Ġliterally	17022
/.	17021
ĠRF	17020
135	17017
Ġtin	17017
Ġoste	17014
ĠZealand	17014
member	17013
Ġprospective	17010
*~*	17007
gu	17002
##odi	16998
stop	16996
Ġpounds	16994
bigg	16992
##base	16990
Ġswitching	16990
Ġstretch	16989
Ġbatch	16989
ĠAc	16989
Ġembodiment	16988
##bon	16987
Ġenv	16986
Ġkick	16985
Ġeliminate	16985
Ġfactory	16978
ĠÂ¶	16977
##Position	16976
licenses	16974
##iding	16973
##rie	16964
ĠLy	16964
Ġgenuine	16962
ĠAu	16960
##...	16959
ĠGer	16959
##ĠĠĠĠĠĠĠĠ	16957
scope	16955
Ġpublicly	16950
Ġorbit	16947
Ġgravity	16946
Ġdestruction	16942
Ġgut	16939
Ġtonight	16937
Ġovernight	16936
\.	16933
Ġflags	16929
av	16923
ĊĊĊĊĊ	16920
Ġelectricity	16916
Ġnose	16915
ĠBS	16912
Ġregulated	16908
Ġworried	16907
Ġta	16904
Ġphysically	16902
Ġobesity	16902
ĠEst	16899
Ġcomp	16894
because	16893
Ġamendment	16888
Ġdifficulties	16885
Project	16883
##Ca	16883
ĠSn	16879
ĠPres	16875
Ġdelayed	16873
Ġboxes	16873
Ġspecificity	16871
Ġaggressive	16870
Ġwh	16868
gra	16867
##}$	16864
ĠTF	16861
Ġelectro	16859
FE	16857
##uth	16857
Ġassumptions	16857
wa	16856
##rot	16856
ĠMag	16854
Ġ131	16853
MAX	16852
##LS	16852
Ġepisodes	16850
help	16843
Ġsearching	16843
##dn	16839
au	16838
##ean	16834
ĠHamiltonian	16834
Ġ255	16833
ĠOp	16832
ĠIowa	16831
Ġfounded	16829
Ġpoverty	16827
Dep	16826
Ġstorm	16825
##eon	16821
Ġjustify	16816
Ġfake	16813
ĠConsequently	16813
##Net	16811
TA	16805
##âĢĻ	16805
Ġattributed	16803
##Level	16802
ĠNI	16800
ĠStill	16798
hr	16791
129	16788
Ġcommunicate	16786
ĠPerhaps	16782
move	16781
Ġhardly	16779
MC	16777
Ġdisplays	16776
##ones	16775
131	16772
ĠRem	16772
Ġtemp	16771
Ġretail	16771
sol	16770
ES	16770
Ġip	16769
Hello	16768
Ġsynthetic	16768
ĠProfessor	16768
Ġacknowledge	16767
store	16765
$]{}	16761
Ġclip	16761
Ġinform	16757
ĠSky	16757
##olo	16756
Ben	16754
##amo	16753
Ġblocked	16750
Ġtranscript	16749
Ġinverse	16748
Ġclinic	16745
Ġcompatible	16744
Ġabortion	16744
oplus	16743
Ġweird	16743
Ġbath	16743
delete	16742
ĠAV	16741
etc	16739
Ġhits	16739
ĠPlace	16738
ĠLI	16738
âĢ²-	16737
ĠWITH	16736
##eli	16735
##ios	16733
Ġwing	16733
##Cache	16727
Ġ1985	16727
Ġcompete	16723
##cor	16719
Ġmsg	16719
##Sc	16716
ĠCore	16716
Ġbet	16712
Ġbull	16711
Ġshoes	16710
Ġpunishment	16710
Ġsilence	16709
Ġframes	16708
##ml	16707
ĠCarl	16704
green	16703
Ġrevolution	16702
##ras	16701
Ġbeliefs	16696
##WA	16692
ĠSaudi	16692
##astic	16691
Ġrescue	16683
ĠJA	16682
cur	16678
BC	16677
ĠFord	16676
Ġpermissions	16671
##town	16670
ĠMU	16668
!)	16666
ĠÐ²	16662
\>	16659
Ġmature	16658
Ġpartnership	16655
sql	16652
##tta	16652
Ġ170	16652
##wer	16648
Ġpleasure	16648
;\	16646
Ġvisits	16646
Ġenables	16646
Source	16645
EN	16643
Ġaffecting	16642
good	16638
##Ð¼	16638
Ġobtaining	16638
Ġ133	16638
ĠAdditional	16635
Rep	16634
Ġdense	16632
United	16630
Ġ$.	16629
Ġcoal	16627
Ġmeaningful	16626
Ġgenerator	16625
Ġfore	16625
AF	16624
Ġpotent	16620
family	16619
ĠOb	16618
Ġ{@	16613
Ġgotten	16613
Ġtrends	16612
ĠCarr	16611
)_{	16608
High	16606
##case	16603
##vent	16599
##oli	16595
##GR	16594
gr	16590
dict	16586
SIZE	16585
ĠSpecifically	16584
Ġdifferently	16583
being	16581
Ġpolar	16579
Ġengagement	16579
xy	16577
Ġweights	16572
##iner	16570
Ġdescribing	16564
ĠFin	16564
##ational	16563
Ġyeast	16562
Ġbehaviors	16562
##rec	16560
Ġham	16560
ĠTP	16559
Ġbreaks	16558
Ġtradition	16552
Ġcho	16552
ĠIA	16552
Ġfits	16550
)}(	16548
Ġreflects	16547
Ġpu	16547
ãģ	16543
wide	16543
Ġcontest	16541
ĠPBS	16541
master	16538
git	16532
Have	16529
Ġasks	16529
ĠNode	16527
ĠMinistry	16526
DS	16525
##Function	16522
Ġfunctionality	16522
Ġdemocracy	16522
ĠColumbia	16521
ĠMat	16518
Ġcommands	16517
Take	16514
Ġbearing	16514
ĠJordan	16513
cat	16511
Ġdesignated	16511
Ġdeals	16511
Ġfactual	16505
change	16501
SU	16501
##SO	16501
144	16499
##De	16497
Ġselective	16495
Ġunderwent	16493
Ġmi	16492
ĠNick	16487
Ġagenda	16486
Ġinterviews	16485
Ġjuice	16484
ĠBal	16483
Ġpredictions	16482
ĠRound	16482
plugin	16481
Ġpolynomial	16479
Ġinvestigations	16479
channel	16476
Ġequality	16472
##dor	16469
ĠRather	16466
Ġcal	16464
^{-\	16462
TH	16461
è	16460
ĠFalse	16458
ĠAlt	16458
ĠRad	16457
Ġapps	16456
}.$$	16455
Ġanger	16455
Ġorange	16452
Ġcart	16447
ĠMajor	16441
Ġemphasis	16439
his	16438
addr	16438
tbl	16437
##Ds	16436
##$.	16435
##Ã¢	16434
##war	16424
##Up	16424
##---	16424
##DC	16422
##ocytes	16421
čĊčĊĠĠĠ	16418
ĠFS	16416
III	16415
Ġfitness	16414
##asi	16413
}}}_	16405
ĠFarm	16403
Ġprogramme	16402
Ġstrip	16399
##iers	16397
ĠAward	16395
Ġsegments	16394
face	16392
Ġpython	16392
##Connection	16391
rc	16390
##uce	16385
##uation	16383
Ġretirement	16381
Ġlistening	16379
ĠArray	16373
Ġvariant	16371
ĠWas	16371
Ġconc	16363
Ġweekly	16362
ĠUP	16360
Ġmortgage	16359
Ġsta	16350
||	16349
##ray	16349
Ġdetector	16338
Ġfarmers	16336
Ġoptimization	16333
Maybe	16330
release	16328
##Container	16326
Ġconspiracy	16324
Ġxmlns	16322
##74	16321
##ella	16320
Ġski	16320
##aro	16319
ĠArticle	16318
ĠGaussian	16317
##77	16316
MB	16314
ĠNR	16314
$^{-	16313
|-	16312
ĠEric	16310
Ġproportional	16309
Ġhypertension	16309
Ġconsciousness	16309
Ġ1984	16309
Ġfocusing	16308
AN	16302
00000000	16302
Ġboundaries	16299
Ġinserted	16298
##Null	16296
Ġmath	16296
##PO	16295
##uel	16287
##stein	16286
ĠJS	16282
ĠIslam	16282
Ġ03	16282
ĠPRO	16280
ĠAst	16280
world	16279
ĠTar	16274
##kins	16273
Ġfavorable	16272
##pin	16269
Ġattempting	16268
Ġtie	16267
ĠSand	16267
##ì	16266
##ete	16266
Ġtrivial	16266
ĠSciences	16266
##oca	16263
Ġscaling	16258
##Record	16253
##ido	16251
âĢ¯	16248
Ġangry	16248
Ġtrail	16246
##ution	16244
Ġvertices	16244
]{.	16243
Ġphrase	16242
Ġdia	16242
ĠNM	16239
ĠBook	16238
ĠAdam	16235
##Ñĭ	16233
Ġ![	16232
Ġcomputers	16230
Ġaff	16230
âĢĻ.	16228
ol	16226
##itude	16223
Ġindices	16222
##flow	16220
Ġunf	16220
##Utils	16213
ĠBible	16212
280	16210
Ġadapted	16207
Ġheading	16206
MR	16205
##71	16204
Ġslight	16202
ĠLT	16201
Ġrendered	16196
Ġroads	16195
Ġregulate	16192
Ġintracellular	16192
Ġphysicians	16191
Ġterrible	16190
Ġ***	16190
ĠGreek	16189
ĠEX	16189
Ġvaried	16187
##UD	16186
Ġdates	16186
Ġinsight	16185
##))	16184
155	16177
ĠSpirit	16177
ĠProv	16174
Ġexclusion	16173
ĠLP	16172
##Ã©s	16171
Ġimpressive	16169
Ġconvenient	16168
Ġchocolate	16168
Ġfatty	16162
##oso	16161
Ġcombinations	16155
Ġaims	16155
Ġdeeper	16151
Ġreflection	16149
Ġdys	16149
Ġedition	16147
Call	16146
Ġtall	16146
Trans	16145
1994	16144
##ibly	16143
##CG	16141
yes	16133
Ġcont	16131
ĠRose	16130
Ġsettled	16129
ĠAk	16126
##94	16120
##rib	16119
Ġfunded	16118
##low	16116
Ġnegligence	16114
Ġdans	16107
Ġrestaurants	16105
tw	16103
Ġreply	16103
Ġpeaks	16096
ĠHam	16096
terminal	16095
ĠSupp	16095
##66	16092
Ġracial	16091
Ġsuspension	16088
^)	16087
Ġmatched	16086
Ġlimiting	16084
Ġchains	16081
FF	16078
Ġfragment	16078
Ġ202	16077
Ġdisclosure	16076
Ġmood	16075
ĠDef	16073
##.\	16067
Step	16065
Ġquantities	16065
Ġfatal	16065
Ġepithelial	16065
wp	16064
##FT	16064
Ġ05	16064
Ġsatisfying	16061
round	16060
204	16060
Ġquit	16060
Local	16059
##ense	16059
Ġprejudice	16059
Ġmagazine	16058
Ġfingers	16055
derived	16053
##\\	16052
Ġdrama	16052
1993	16049
forall	16048
Ġtransparent	16043
Ġscoring	16043
##ount	16039
##ika	16036
##Target	16036
Ġequ	16036
Ġ",	16031
Ġconsensus	16028
ĠLittle	16028
Second	16024
##asm	16024
##Num	16023
Non	16021
##urs	16016
Ġ''	16016
resource	16011
Ġbreakfast	16011
##Bo	16007
Ġ04	16003
lu	16000
Ġgrip	16000
Ġchoosing	15997
Ġdollar	15996
Ġvulnerable	15995
##ices	15985
simeq	15984
Ġlawsuit	15984
ĠMu	15981
##phy	15979
Ġmanually	15975
Ġconfident	15974
ĠAdv	15970
Ġ09	15969
Ġpreferably	15967
Ġdamaged	15966
Ġwondering	15963
Main	15958
mb	15951
Ġlikes	15951
ĠCoast	15951
Ġ134	15950
GET	15948
##rich	15948
Ġstrictly	15942
Ġrepresentations	15940
Ġdoc	15938
Ġtied	15937
##ulated	15936
ĠSho	15936
##iff	15934
##Ð²	15931
FR	15928
ĠTurkey	15925
Ġholiday	15924
ag	15921
ĠKan	15919
##ield	15916
Ġdeveloper	15916
Ġquote	15914
ĠCommonwealth	15912
##GG	15910
Ġsupplies	15910
\,\	15908
Ġshots	15908
Ġbelong	15906
Ġlegitimate	15903
##uni	15899
bibr	15898
ĠProperty	15898
Total	15897
##cell	15897
np	15896
Ġresidual	15887
RO	15883
Ġbounds	15883
ĠET	15879
Ġisolates	15876
degree	15874
{"	15872
spec	15867
##tto	15867
Del	15861
##Script	15860
ĠMinnesota	15857
##right	15856
##uro	15853
153	15850
PL	15849
.).	15846
Ġpushing	15844
ĠPHP	15844
ĠVA	15842
low	15840
##ces	15838
Ġbehavioral	15836
2020	15834
Ġions	15834
Ġdeposition	15832
Ġgray	15831
##ites	15830
##WE	15828
Ġvisitors	15828
ĠRP	15828
your	15825
Ġentities	15825
Ġcu	15824
##has	15822
ĠSel	15822
ĠParliament	15822
exe	15821
Ġbills	15820
Ġum	15812
Ġreputation	15812
Ġlogical	15810
Ġobjection	15808
Ġtort	15803
Ġshr	15802
##iva	15801
1990	15799
ĠFisher	15799
Ġviruses	15797
ĠEV	15794
Ġgrass	15789
ĠConc	15789
0010	15786
ME	15780
##iling	15779
Ġrestore	15779
ĠLin	15779
##etic	15777
##ova	15774
License	15772
Ġdimensional	15772
ĠSoviet	15772
Ġpipeline	15764
ĠHarris	15763
Base	15759
xa	15758
Additional	15758
ĠHTTP	15757
()->	15756
Ġassistant	15756
##OO	15753
##â	15752
##Template	15747
_*	15744
##anti	15744
ĠPr	15741
##Max	15735
##form	15729
ĠTNF	15726
Ġbaseball	15725
Ġnucleus	15721
##NN	15720
]{}]{}	15717
Ġemerging	15716
Color	15715
Ġhealing	15712
##rum	15711
Ġreferring	15711
Ġposterior	15710
Ġequipped	15710
##osed	15708
##ille	15707
-$	15705
Despite	15704
ĠLewis	15704
ĠKal	15704
Ġpreserve	15702
##Types	15701
##oto	15697
;">	15695
ĠAssembly	15695
Ġinquiry	15694
doi	15693
##Rect	15693
Ġbirths	15690
##ume	15686
ĠCV	15682
ĠCambridge	15678
##ATE	15675
RT	15674
##izable	15674
Ġmembership	15674
Ġcertificate	15674
Ġcavity	15666
ĠBrazil	15666
##KI	15664
ĠUnless	15663
Ġdeficiency	15662
ĠUnit	15660
Ġpocket	15659
ĠCra	15658
Ġsensors	15656
ĠMAP	15655
##URE	15653
##ulo	15652
Ġfu	15652
Ġdeny	15652
Ġterritory	15651
Ġtoxicity	15647
ĠMoore	15647
random	15645
##oss	15645
Ġtetra	15644
Ġplatforms	15641
ĠYeah	15637
Ġoxidative	15635
ĠAndrew	15635
Ġ184	15635
Ġnonc	15634
Ġinvited	15630
ĠException	15630
##85	15625
Ġvessels	15623
Ġstomach	15623
Ġarrive	15622
Ġmoon	15621
Ġpromised	15619
ĠDaily	15618
145	15616
##ington	15616
Ġtired	15610
Ġmuscles	15608
Ġsaving	15606
Ġextending	15606
Â³	15604
##omi	15603
Ġdefining	15602
ĠIFN	15602
ED	15601
Ġ136	15599
Ġodds	15596
Ġmodeling	15596
Ġparticipated	15590
obs	15589
Ġagreements	15589
cont	15578
##dan	15578
Ġhighlight	15578
Ġobligation	15573
Ġstrategic	15572
ĠScale	15571
ĠTT	15569
ĠIndiana	15568
Ġinflation	15564
ĠMet	15563
ĠToronto	15551
je	15549
Ġopens	15549
Ġinjected	15548
ĠDefense	15548
Ġpointing	15547
Ġaccurately	15543
Ġadapt	15541
Number	15537
Ġtransit	15536
game	15535
##UC	15535
del	15534
ĠEL	15533
password	15532
Ġencounter	15531
##Configuration	15529
age	15527
Ġnobody	15526
Ġsuspected	15521
ĠPass	15521
Ref	15515
##33	15512
Ġestablishment	15512
##VA	15511
ĠFM	15511
ĠAfghanistan	15511
Ann	15510
ĠLen	15508
Ġconstructor	15507
Ġregarded	15503
ĠIE	15503
Ġnavigation	15502
Convert	15501
Ġgrateful	15501
Windows	15500
##Part	15500
Ġsuppress	15500
Ġcortex	15500
Cons	15498
##Val	15497
ĠBM	15496
also	15494
Ġplugin	15494
Ġlease	15494
ĠSort	15493
sample	15492
Ġ[$	15491
ĠĠĠĠĠĠĠĠĠĠĠĠĠĠĠĠĠĠĠĠĠĠĠĠĠĠĠĠĠĠĠĠĠĠ	15491
Ġexpense	15489
Ġtalent	15488
##omic	15487
Ġpublish	15487
##IG	15482
118	15481
Ġdeemed	15481
ĠBridge	15480
Ġbird	15478
MP	15476
Ġpos	15475
)^{-	15473
Ġunw	15473
Ġsuspended	15473
##ils	15472
Sort	15466
ĠFather	15462
Ġresistant	15459
Ġunp	15458
fo	15456
220	15456
##ĊĠĠ	15456
Ġcomply	15454
Ġstayed	15451
ĠDiv	15449
Event	15447
Chapter	15446
flags	15445
Ġreliability	15445
##pr	15444
ĠSports	15441
stack	15439
fields	15439
ĠUr	15438
Ġpromoting	15436
++;	15435
Ġresort	15435
Ġarising	15434
Ġparam	15431
PT	15428
MO	15427
Ġ-------	15427
##Document	15424
Ġpossess	15421
Discussion	15420
##xy	15420
Ġ1981	15419
Ġreplication	15418
Ġcomparisons	15417
Ġindication	15416
Ġticket	15415
Ġresident	15415
Ġelectrons	15415
##Ãª	15413
Ġlas	15413
Mor	15412
HE	15411
Ġmicroscopy	15408
Ġassign	15408
IO	15407
ĠLibrary	15406
##igo	15403
register	15401
Ġendothelial	15401
Ġelderly	15400
Ġsuppression	15397
Ġadjustment	15397
ĠIm	15394
ĠStr	15391
Ġtrick	15388
edu	15386
Ġmanifest	15386
ĠHouston	15385
Ġartificial	15382
Ġ).	15381
Ġhoney	15379
_{-	15378
Ġinputs	15375
Ġenergies	15375
ĊĊĊĊ	15374
CB	15371
##hs	15371
Ġpersonality	15371
##hand	15370
##YS	15370
ĠHad	15370
##DD	15369
ĠSem	15364
Ġdemonstrates	15363
margin	15362
ĠWeek	15362
Ġbri	15359
ĠTrade	15359
Ġ08	15357
Ġbranches	15356
Ġblast	15353
205	15348
##Ø	15348
Ġspots	15347
ĠSystems	15346
ĠColl	15346
Ġgrain	15345
Ġbases	15344
Ġunc	15343
ĠPV	15342
Ġarrival	15340
tx	15337
Ġexisted	15337
Ġthreats	15333
Ġdistances	15333
Ġ144	15330
Ġuptake	15329
Ġparagraph	15329
Ġdefinitions	15329
ĠÎ	15328
ÃĲÂµÃĲ	15321
DIR	15320
Ġthi	15317
##ban	15316
Ġrape	15316
Ġspec	15314
Ġrail	15313
Ġ^{	15313
ĠDown	15313
Ġinhibited	15311
ĊĊĠĠĠĠĠĠĠĠĠĠĠĠĠĠĠĠĠĠĠ	15309
##icon	15306
Ġvariability	15305
making	15304
Ġmit	15302
##comp	15301
##Interface	15300
Ġvisiting	15298
Ġlocalization	15298
ĠAla	15296
Ġdocumented	15295
SL	15294
Imp	15286
##adi	15282
ĠĠĠĠĠĠĠĠĠĠĠĠĠĠĠĠĠĠĠĠĠĠĠĠĠĠĠĠĠĠĠĠĠ	15282
cu	15281
bound	15280
Ġranges	15276
Ġtends	15274
Ġpub	15274
ĠIO	15273
##BR	15272
analysis	15266
energy	15265
each	15265
Ġsatisfaction	15262
##emb	15260
Ġwarranty	15260
Ġlibraries	15255
136	15253
Ġrough	15253
Ġhandler	15252
Ġminority	15241
Ġdistinguish	15241
_>	15240
.:	15240
Ġ1960	15236
Ġpolarization	15235
Ġclosure	15230
Update	15229
century	15228
##99	15228
ĠTown	15228
ĠQueen	15227
##oth	15225
}$$\	15224
349	15224
Ġcharacterization	15224
pop	15223
##nan	15223
Ġfinance	15222
Ġconfusion	15222
##ÑĮ	15220
Ġcomplaints	15220
Ġcapabilities	15215
Ġheaded	15214
ĠSim	15213
##icate	15211
##bro	15209
ĠSilver	15207
wrap	15203
Ġ×	15203
Ġdet	15199
Ġdecimal	15199
Ġ800	15198
Ġnitrogen	15196
ĠGT	15196
##Ãħ	15195
ĠTD	15192
ĠDirect	15192
ĠChristians	15190
ĠDer	15189
##chem	15187
##wd	15186
fill	15183
GO	15182
025	15181
FD	15178
Ġthirty	15175
Ġalongside	15175
rate	15174
ĠPF	15173
##actic	15171
`,	15169
ĠMonte	15164
ĠWild	15161
ĠHM	15157
Ġdental	15156
modules	15155
Ġemerged	15155
##dar	15150
Ġsurprising	15146
Ġsuggestions	15146
Ġcrack	15146
ent	15145
Ġdenying	15145
##uf	15143
##Tree	15140
Ġbench	15133
Ġhum	15132
##erg	15131
##aco	15131
region	15130
ok	15129
Ġupset	15125
##hm	15123
1992	15122
Ke	15121
ĠInterestingly	15121
##Parameter	15118
while	15113
Ġwise	15112
##Ã³n	15109
##Output	15108
Ġ{"	15108
linear	15104
ĠMcG	15104
category	15102
##å	15102
Ġparticipant	15101
Ġmac	15101
Ġbasketball	15097
##ital	15096
ĠNations	15093
ee	15090
Ġfaculty	15090
Ġminimize	15084
Today	15081
ĠFra	15081
Ġpreparing	15079
ĠShould	15075
ĠCt	15075
##0000	15073
ĠHz	15073
mat	15070
Ġinduces	15069
END	15068
Ġrum	15067
##pto	15066
Ġsigning	15064
Ġhosts	15063
##char	15061
Ġpsycho	15059
##isa	15051
##è¯	15050
##Qu	15049
Ġatomic	15049
1991	15048
Ġoccasion	15045
Ġwinner	15042
##GS	15040
Ġlandscape	15039
##eration	15038
Ġtransformed	15038
ĠCas	15037
Ġcollaboration	15032
PE	15031
##Settings	15030
ĠDev	15026
phase	15025
Ġvirtually	15024
ĠWatch	15021
BB	15019
Ġfold	15018
ĠGra	15011
##jan	15007
##fy	15005
Ġeq	15005
##die	15004
Ù	15003
Free	15001
Ġarc	15000
Photo	14999
aff	14991
NC	14987
ĠHim	14986
Ġtransient	14985
VI	14983
Ġmagnet	14981
ĠMari	14981
loc	14978
Ġwelfare	14977
Ġclaiming	14977
"));	14976
##mission	14972
Ġconstraint	14968
Ġprobable	14967
Ġasset	14966
bd	14963
##Unit	14962
##ITY	14962
Ġfur	14962
Ġblocking	14961
Ġwaters	14960
##pher	14959
Ġreceives	14957
ĠRE	14954
ĠNat	14950
Ġrespondents	14949
##cks	14947
Ġcoronary	14945
Ġcompression	14944
here	14943
Fr	14943
##An	14942
ĠLook	14942
nutrients	14939
Ġfiscal	14939
ĠPB	14937
Ġinterpret	14935
Ġgross	14935
Ġlocked	14931
Ġfrozen	14931
ĠBall	14930
##ulating	14929
Ġlongitudinal	14926
ĠHard	14922
MM	14921
ĠTan	14917
Ġnotation	14916
ĠCre	14910
Ġprotocols	14908
ĠčĊ	14905
Ġgerm	14904
ĠChange	14902
Ġtags	14901
?)	14900
##_{\	14899
##une	14898
Ġbleeding	14898
Ġgovernor	14896
under	14895
Description	14893
Ġrecurrence	14890
Ġplug	14889
Ġchances	14889
Ġaffirmed	14889
ĠIgG	14888
ĠCommissioner	14883
Ġbold	14881
ĠJu	14880
ĠGene	14877
REG	14873
##sd	14870
Ġconstants	14868
ĠĠĠĠĠĠĠĠĠĠĠĠĠĠĠĠĠĠĠĠĠĠĠĠĠĠĠĠĠĠĠĠ	14868
Ġhistoric	14867
ĠLib	14865
*(-	14861
Ġdecomposition	14861
IF	14859
ĠCNN	14859
Mark	14858
##Store	14857
Ġparams	14854
ĠÎĶ	14852
Introduction	14850
ĠAff	14848
Ġwavelength	14847
Ġsteam	14846
ĠHP	14846
##tn	14845
Ġsubgroup	14844
Ġsudden	14843
Ġcultured	14843
ĠStation	14843
Top	14842
Ġnonlinear	14842
=-	14840
Ġbrush	14837
Ġoptional	14836
##Reference	14835
Ġshortly	14834
ĠMarket	14831
Ġwins	14829
Ġappreciated	14826
Start	14825
ĠOC	14824
Ġcircular	14822
items	14819
Ġshaft	14819
Ġdetermines	14819
Ġtimely	14817
iii	14815
Ġbacks	14812
##eva	14811
Ġdonor	14808
ĠAug	14808
Ġtracks	14807
Ġslot	14807
Ġdistinction	14806
mM	14802
ĠClinical	14801
Ġir	14800
fb	14799
Mac	14799
Ġdistress	14799
Ġsolved	14798
Ġdim	14798
Ġsilicon	14794
Ġappointment	14794
##vic	14792
python	14790
ĠFT	14785
mon	14784
##inated	14780
##emia	14779
ĠTHAT	14776
ĠAllen	14776
Ġcookies	14774
ĠChild	14770
##own	14769
ĠAlex	14769
##pri	14767
##Params	14767
Ġefficiently	14767
Item	14765
Ġmutants	14765
##Rep	14764
Ġsecured	14761
Ġthrown	14760
##ias	14759
##cos	14759
##},	14757
Ġpursue	14757
ĠFeb	14757
##gel	14756
Ġcriticism	14755
##una	14752
Ġ1982	14752
square	14748
##GT	14748
Ġneo	14748
141	14747
gathered	14741
Ġpostoperative	14732
Ġthreatened	14730
ĠConsider	14730
Ġtender	14726
Ġupload	14725
$^	14723
Ġinfl	14722
##uli	14721
Ġreward	14720
Ġmemories	14720
Ġcustody	14720
čĊĠĠĠĠ	14717
ĠOUT	14715
play	14713
Ġstimulus	14708
FIG	14706
##Reader	14706
Ġsilent	14706
ĠHoly	14704
Ver	14700
Ġsubt	14700
Ġblank	14700
##Dis	14698
ĠInsurance	14697
Ġstriking	14696
ÎĶ	14694
ÂĹ	14692
##gal	14691
ĠImmun	14691
##rep	14685
ĠRome	14685
Ġanybody	14681
Ġabnormal	14681
eg	14680
##iet	14680
##Device	14679
##berry	14678
ĠJean	14674
attribute	14673
Ġcancers	14672
Ġtech	14671
Ġdot	14665
$_{	14663
ĠSpring	14663
ĠSoc	14663
Ġmothers	14661
Ġcircuits	14661
ĠBarr	14661
Ġinstruments	14660
INT	14659
ĠFI	14656
Ġflying	14655
ĠAnal	14653
##BE	14650
Ġfantastic	14650
Ġtriple	14649
ĠArab	14649
##active	14648
##Tag	14647
party	14644
##ude	14643
Ġing	14643
Ġartist	14643
IT	14641
##MENT	14640
Ġmerit	14634
##urn	14631
##rig	14630
Ġtu	14630
Act	14626
Ġtries	14626
Ġliable	14626
##lay	14624
Ġchallenged	14624
ĠSar	14623
Ġlitigation	14620
Ġtraits	14618
##LC	14613
ĠWisconsin	14611
ĠPrior	14608
##iri	14607
ĠMid	14606
Ġeveryday	14605
[**	14604
Ġxml	14604
Ġentrance	14604
Ġconserved	14603
ĠXML	14603
ĠCam	14602
DATA	14599
Ġpad	14598
ef	14597
Thus	14596
ĠRC	14593
sb	14588
ĠABC	14588
Sw	14587
##tha	14585
IV	14584
ai	14583
=""	14583
Ġacted	14582
ĠFF	14582
čĊĠĠ	14582
Ġinches	14578
##AF	14576
Cy	14572
Ġconvergence	14572
ĠĠĠĠĠĠĠĠĠĠĠĠĠĠĠĠĠĠĠĠĠĠĠĠĠĠĠĠĠĠĠĠĠĠĠ	14571
_(	14570
##MM	14570
Ġbelongs	14570
Ġresidential	14569
Ġdrove	14569
Ġdried	14567
Ġdispersion	14567
Ġvegetables	14566
##dev	14565
Ġmathematical	14565
ĠFull	14565
news	14563
Ġcorn	14563
Ġflows	14560
##Ãł	14559
Ġjournal	14555
##ston	14554
Ġstained	14554
##pect	14553
ĠCON	14553
##rog	14552
Ġve	14549
Ġdin	14548
Ġss	14547
Unc	14546
btn	14544
##IX	14543
Ġoh	14543
Ġfilters	14539
Ġsatellite	14537
Ġflex	14536
Ġviewing	14535
Ġmining	14535
ĠUSE	14534
four	14533
##FC	14532
##[@	14531
Ġphoton	14527
##PP	14526
'],	14525
Ġfib	14523
ĠReturns	14522
##craft	14520
sort	14519
##ister	14519
Ġseats	14518
ĠLuc	14518
Ġminds	14517
Ġgraphs	14515
diff	14514
##lets	14514
ĠÎ¼g	14514
ĠProcess	14513
Ġfra	14509
Ġresin	14508
ĠSEC	14505
Ġexclusively	14504
Ġasthma	14504
ĠSometimes	14504
Ġreconstruction	14502
mt	14501
SET	14499
Ġgradually	14496
poly	14494
ĠOm	14491
.\[[@	14490
Ġbedroom	14490
ĠâĤ¬	14489
Bio	14488
Ġprevented	14488
OS	14486
require	14483
TE	14483
POST	14478
EE	14478
Ġsubstitute	14478
##Ä±	14477
Ġlady	14476
Ġsentenced	14475
Ġimpairment	14472
##inn	14470
Fla	14469
##rac	14468
Ġsmell	14468
Ġflowers	14468
Ġ<?	14466
ĠKelly	14463
Ġwidespread	14456
Ġrespondent	14455
Ġgeneralized	14455
Ġestablishing	14455
Ġsimilarity	14454
security	14452
##ih	14452
##iance	14452
Ġconfused	14450
Ġactors	14448
##ller	14446
##FO	14445
ĠCooper	14445
PH	14443
Ġmaternal	14442
##ACT	14438
147	14436
Ġjoining	14435
ld	14434
Ġmad	14433
ĠBrian	14433
Ġstating	14432
##oqu	14429
den	14425
Ġmotivation	14424
ĠSearch	14423
Field	14422
Both	14422
CONFIG	14419
Default	14417
Ġindependence	14417
Ġpersistent	14415
TEST	14414
NULL	14414
Ġmethylation	14412
conc	14411
##Min	14410
Ġdescending	14405
Ġknife	14404
Ġacceptance	14403
Sign	14401
Ġreplied	14401
Ġcrop	14400
Ġintersection	14399
Ġsubc	14395
ĠUpdate	14394
ĠFri	14394
Ġ07	14392
Select	14390
Ġbarely	14390
'))	14388
hep	14383
143	14381
Ġ183	14378
##lies	14377
Ġscenes	14377
Ġsymbols	14375
##Activity	14374
Ġseeks	14374
MD	14372
##âĢ¦	14372
ĠKansas	14372
Ġsquad	14371
##BS	14369
ĠKra	14369
}}}(	14363
##Es	14363
Ġanterior	14362
##RY	14361
ĠRon	14360
Four	14359
Ġmotions	14359
##unt	14357
Ġguests	14357
Ġplacement	14356
mar	14355
##mble	14353
Ġloves	14353
sd	14351
KEY	14351
ĠBad	14346
hbar	14345
##ego	14345
ĠMeta	14345
Ġsalary	14343
Ġtam	14341
Ġpreference	14341
Ġocean	14338
Ġrealistic	14337
Ġhook	14337
methyl	14336
ic	14336
Ġquestionnaire	14334
##Ñı	14333
ĠTask	14333
Ġprocessor	14330
ifdef	14329
ĠDT	14324
Ġcomputation	14323
Em	14322
Ġsake	14321
Ġenhancement	14318
Ġcanonical	14318
240	14317
##PD	14317
Ġcapability	14317
Ġprescribed	14310
Ġincredible	14310
pd	14307
##IAL	14306
ĠKam	14306
record	14304
##Ñĩ	14303
\_[	14302
Ġ145	14301
Ġairport	14297
ĠLatin	14295
power	14291
##Thread	14290
ĠNature	14288
Write	14286
Ġdramatic	14284
Ġdating	14279
ĠMah	14279
Ġ138	14272
##Callback	14271
Bro	14269
##ided	14268
Ġmanaging	14267
Ġattorneys	14267
Ġappend	14265
person	14262
##ANT	14261
Ġcontroversial	14261
Ġmethyl	14260
##Fl	14259
ĠMassachusetts	14254
##etric	14253
##stone	14252
Ġloud	14251
Ġbriefly	14251
Cal	14248
ĠOrganization	14248
EX	14247
Ġcos	14246
)\,	14245
##bie	14241
##The	14237
##ben	14236
##CL	14235
à¥į	14232
ĠIl	14230
##GH	14229
##az	14226
Ġattachment	14225
ĠRest	14225
##Ñģ	14223
Ġstyles	14222
Ġcocaine	14221
##bound	14220
ĠBin	14219
Ġindictment	14218
ĠNar	14218
ĠMethod	14218
Ġacknowledged	14214
ĠPoly	14212
Ġviolations	14211
##gate	14208
ĠSanders	14208
Ġemissions	14205
PM	14203
priv	14202
Ġcancel	14199
Ġpeptides	14197
ĠNatural	14193
im	14190
Ġ137	14190
Ġhex	14188
Ġpartly	14187
##roid	14186
##Title	14184
##==	14184
Ġgrace	14182
Ġsurely	14181
##Call	14178
Ġcontention	14178
Ġoffices	14174
Â	14171
Ġethnic	14170
##ometer	14169
Ġscrap	14169
##](#	14168
Ġdietary	14167
ĠMessage	14167
widget	14163
ĠNeuro	14163
Ġprotecting	14160
ĠMuseum	14160
*\	14158
Ġacquire	14154
ĠStat	14154
Ġletting	14153
ĠSyrian	14153
ĠShar	14151
Ġparticipating	14150
##})	14147
Ġrandomized	14147
ĠKevin	14146
210	14145
Ġsavings	14145
Ġinvestigating	14141
IL	14140
ĠPlus	14140
queue	14139
callback	14137
##Column	14137
Ġseal	14136
##umb	14134
Ġconservation	14134
Ġprovince	14132
"};	14130
Ġfelony	14130
mc	14128
Ġhall	14126
ĠGOP	14121
xF	14119
##elect	14119
toString	14118
Ġunnecessary	14116
Ġemploy	14112
ie	14103
ĠSpe	14103
)^{\	14100
##ively	14100
Ġmem	14098
ĠCome	14098
Ġgolf	14096
ĠSix	14094
Ġadvised	14093
##AB	14092
Ġmediated	14090
Ġconditional	14085
Ġrepresentatives	14079
##ãģĦ	14078
ĠÂł	14078
Ġtherein	14077
ĠThr	14077
video	14072
rev	14072
HA	14070
}}=	14069
pgen	14066
##uss	14065
wiki	14063
General	14060
Ġshadow	14055
##ÃŃa	14053
##mel	14053
Ġfranchise	14053
bio	14049
rest	14047
Ġmodifications	14047
Ġintrinsic	14045
##Dialog	14043
ĠScotland	14036
filename	14032
Ġoutstanding	14031
af	14029
Ġfe	14028
134	14027
STR	14026
ĠChar	14025
##ulf	14022
Ġcopper	14021
ĠHotel	14021
Section	14020
Has	14020
##opt	14019
Ġplots	14018
Ġton	14016
Ġremarkable	14014
Ġmembranes	14013
graph	14012
Ġpassion	14011
ĠDD	14010
Ġlovely	14009
ĠKong	14005
ĠEt	14005
ĠBon	14000
Ġcooperation	13998
ĠBMI	13998
Ġmesh	13994
Ġ]{}	13994
settings	13992
##ages	13990
##ECT	13990
ĠIrish	13988
Ġcoating	13987
Ġwarned	13985
Ġsentences	13985
Ġpurified	13984
arr	13983
Ġrepo	13983
Ġ------------------------------------------------	13978
gi	13977
ĠCommon	13977
Ġemotions	13976
Ġelectrodes	13976
Ġconfigured	13974
ĠJeff	13973
Ġinfant	13972
##itz	13971
ĠCHECK	13971
Ġ06	13970
Every	13968
OH	13967
$).	13967
##water	13967
Request	13965
three	13964
Ġimpaired	13964
##aca	13962
##cit	13956
##Ðº	13955
ĠAssert	13954
Ġ350	13953
idx	13951
Ġcyclo	13950
Ġpaste	13949
Ġlucky	13948
##Ne	13947
}:	13945
ĠCommand	13944
##ql	13943
Ġnursing	13940
##ises	13938
Ġactively	13938
ĠUkraine	13938
raw	13935
Ġtro	13935
Ġaudit	13933
>)	13932
enum	13929
*=	13929
CON	13926
,_	13926
##unk	13925
Ġdebut	13925
Ġcop	13921
Ġoverlap	13915
Ġradial	13911
Ġaf	13911
Ġsecretion	13910
##Rs	13907
'(	13903
##cont	13899
##ãģ«	13896
Ġaccomplished	13895
ĠAvenue	13894
Ġshipping	13892
Ġarrow	13891
ob	13890
Ġrelate	13890
Ġrings	13889
##zie	13888
|}	13882
Ġpixels	13882
WA	13879
##rial	13879
##ior	13877
Ġpit	13874
##AG	13872
##ologic	13870
Ġwider	13870
Ġdecent	13870
Ġstat	13868
Ġencouraged	13866
Ġslide	13864
Ġalarm	13864
Ġolive	13862
thread	13860
shaped	13859
Debug	13858
Ġintestinal	13858
Ġdiscloses	13858
ĠHol	13858
_,	13856
Ġfilename	13856
ĠMom	13856
040	13855
Ġcorruption	13855
Ġboss	13853
------------------------------------------------------------------------	13852
##bed	13851
Ġinitiated	13849
Ġposting	13848
ĠManager	13846
Ġinfants	13845
Ġproxy	13844
Ġspray	13843
čĊĠĠĠĠĠĠĠĠĠĠĠĠĠĠĠĠĠĠĠ	13843
##lass	13842
ĠWI	13842
##ession	13841
Ġrelies	13840
Ġmutual	13840
##bot	13838
ĠFuture	13838
ĠATP	13838
Ġdisaster	13835
ĠTRA	13835
ĠSab	13832
models	13831
##lot	13829
Ġprivilege	13828
Dem	13822
##ometric	13819
Ġreasoning	13817
##ois	13816
il	13815
Ġfiring	13814
req	13813
ĠAve	13813
##fish	13812
Ġcircles	13811
act	13810
Ġsecretary	13809
Ġpositively	13808
Ġgenerations	13808
Ġmerge	13807
Ġbirthday	13802
##TO	13801
##Case	13801
Back	13800
Ġfunctioning	13797
Ġstops	13793
##used	13792
##kit	13791
Ġlaugh	13790
##áĥ	13787
Ġexplored	13786
__(	13783
ĠEgypt	13782
âĢ	13780
HR	13776
displaystyle	13775
Ġdominated	13775
##eral	13773
##cker	13773
ĊĠĠĠĠĠĠĠĠĠĠĠĠĠĠĠĠĠĠĠĠĠĠĠĠĠĠĠĠĠĠĠĠĠĠĠĠĠĠĠ	13773
##Ad	13767
Ġstudio	13767
##uck	13765
DI	13764
Ġscratch	13764
Ġaccomplish	13763
price	13762
ĠLabor	13762
Ġimportantly	13760
ĠĊĠĠĠĠĠĠĠĠĠĠĠ	13758
âĢĿ)	13757
cases	13756
Ġlands	13752
Ġimpose	13752
Ġcrossing	13752
##opic	13748
##ict	13745
##Pos	13745
Ġshame	13742
Ġpermits	13739
Message	13737
Ġsocket	13735
Ġcure	13735
##LT	13734
##sci	13732
ĠGovernor	13730
ĠBBC	13730
TM	13729
Ġflo	13729
)*-	13728
à¤¾	13727
Ġbathroom	13727
Ġcontend	13725
ĠFr	13724
Ġbrothers	13721
^*$	13719
ĠMaryland	13717
Ġinstitutional	13716
ĠArch	13716
Ġattacked	13715
Method	13713
ĠRS	13711
Ġfirms	13710
pmatrix	13708
Ġpas	13707
selected	13706
Ġ182	13706
âĢĻ,	13705
Ġslope	13704
LICENSE	13702
Ġeu	13700
Ġcontinuously	13700
Ġgains	13699
Ġethical	13694
FILE	13692
##Bl	13692
Ġlesion	13692
##gger	13691
Ġupcoming	13691
##erence	13689
card	13684
ĠSummer	13684
LO	13683
ĠKit	13682
det	13680
Ġconflicts	13678
Ġdownstream	13677
ĠTs	13673
ĠNavy	13672
Ġquoted	13671
abstract	13670
\)	13670
##uff	13668
##gin	13668
Ġannouncement	13667
ĊĠĠĠĠĠĠĠĠĠĠĠĠĠĠĠĠĠĠĠĠĠĠĠĠĠ	13666
Ġprofits	13665
ĊĠĠĠĠĠĠĠĠĠĠĠĠĠĠĠĠĠĠĠĠ	13663
Ġconvinced	13662
Ġ139	13662
ĠNothing	13659
mut	13656
ĠClick	13653
Ġexpertise	13652
Ġcomputational	13650
Ġ1979	13650
Ġmayor	13648
##any	13647
Ġinst	13646
wave	13645
Ġbis	13645
bind	13643
five	13642
Ġtooth	13642
Ġsqu	13642
Ġlogin	13640
##bal	13634
Ġvalidate	13634
ĠLeft	13634
##ORT	13633
println	13627
Edit	13624
Ġcontra	13621
:=	13620
Ġouts	13620
Each	13619
Ġretained	13619
Abstract	13618
##orb	13618
##Ã¨	13617
Ġdatasets	13617
connection	13616
ĠComm	13616
stage	13614
##Cap	13614
Ġwebsites	13612
Ġfluctuations	13610
Ġresist	13609
##iant	13607
##ops	13606
Ġproposition	13606
Ġbags	13606
ĠOregon	13606
##${	13604
admin	13603
)})	13602
##ache	13601
Ġreject	13601
Ġfeatured	13600
##VER	13599
##{}	13598
Ġscanning	13598
ĠHaving	13597
##wh	13595
Ġcausal	13595
Ġgraduate	13592
Ġrelied	13590
Ġbell	13590
##Op	13589
ĠBowl	13588
FL	13585
Ġethanol	13584
Ġburning	13584
ĠMil	13583
ĠĠĠĠĠĠĠĠĠĠĠĠĠĠĠĠĠĠĠĠĠĠĠĠĠĠĠĠĠĠĠĠĠĠĠĠĠĠĠ	13583
##rar	13580
##Helper	13579
Ġbackup	13579
Ġediting	13576
##Def	13574
Ġimm	13574
ĠTry	13573
adv	13572
##icit	13572
Ġguaranteed	13571
place	13570
Ġns	13569
Ġordering	13568
ĠFP	13568
189	13567
Ġtit	13564
ĠOil	13563
Ġdrives	13561
Ġsocio	13556
Ġdevelopmental	13555
Ġ181	13555
##$,	13551
Ġob	13550
1986	13549
Ġ....	13549
##lig	13547
Ġinhibit	13547
Ġcontemporary	13547
##IST	13544
Ġtopological	13544
war	13543
ĠStephen	13543
eb	13542
##angle	13538
Ġgathered	13538
ĠPrince	13538
Ġterrorist	13534
Ġconsistency	13532
Ġbelt	13532
ĠGuide	13531
Ġindicator	13530
Ġstimuli	13529
Ġcytokines	13528
account	13527
Ġ\*	13527
ĠHong	13526
Ġts	13525
Ġchromosome	13522
ĠArea	13520
ĠĠĠĠĠĠĠĠĠĠĠĠĠĠĠĠĠĠĠĠĠĠĠĠĠĠĠĠĠĠĠĠĠĠĠĠĠ	13517
Ġincubation	13515
linux	13514
Ġtobacco	13514
Net	13505
bu	13502
Group	13502
Ġmodulation	13501
Ġaccounting	13500
1989	13499
##oper	13498
Ġcave	13497
Ġsyntax	13495
Ġri	13495
Ġaffinity	13494
EP	13493
##ogen	13488
eqn	13486
Ġwriters	13486
ĠRoss	13486
ĠCla	13486
Ġfate	13483
Ġproto	13481
Ġexpectation	13477
fire	13475
Ġdeposit	13475
##df	13473
##iable	13471
Ġreaches	13471
Ġmacrophages	13471
Ġcake	13470
ĠFan	13469
##worth	13468
Ġought	13468
##ues	13467
Ġclothing	13464
Ġfort	13462
Ġmanifold	13461
Ġinnocent	13460
ĠKIND	13458
ĠFunction	13458
##http	13456
ĠEnc	13456
Ġsettle	13455
LD	13451
Ġconsisted	13451
043	13449
Ġlacking	13445
##ando	13444
Ġsolvent	13441
install	13440
##hes	13440
Ġtermination	13438
mask	13436
Ġentertainment	13436
ĠClark	13436
switch	13434
##ãĤĴ	13432
ĠExecutive	13432
ĠHarry	13431
ĠDH	13431
ĠBox	13431
Ġunexpected	13429
ĠWh	13428
Ġprep	13427
ĠBri	13427
custom	13419
ĠSpr	13418
ĠSmall	13418
##pal	13414
##MT	13414
##ike	13411
##aga	13411
Ġgenerates	13411
Cell	13409
Ġstruggling	13409
Ġsanctions	13409
##itic	13407
FC	13406
SN	13403
##Top	13403
Ġstaying	13402
##kov	13399
metadata	13398
ĠSV	13398
##mid	13394
##ÐµÑĢ	13390
ĠRelated	13390
ĠDP	13390
Given	13387
##Order	13384
ĠHat	13383
##],	13381
##ective	13380
Ġretired	13379
))/(	13378
##inity	13378
##ste	13377
arm	13374
Ġmedications	13374
.",	13373
##ivo	13373
Ġpredictive	13373
schema	13372
Ġbo	13372
Ġsubstances	13371
Ġtackle	13369
Ġ'/	13368
ten	13366
ĠEditor	13363
ĠDefault	13363
Ah	13361
Ġtap	13361
Ġcarries	13361
ĠMuslims	13360
##arch	13359
Ġcorrected	13359
ĠScientific	13359
ĠHillary	13359
Ġdear	13358
Ġskip	13357
Ġenormous	13354
Ġproc	13353
ĠSelect	13353
="/	13351
born	13350
##hou	13348
##SD	13347
Will	13346
ĠReturn	13344
react	13342
Ġservers	13341
days	13339
mass	13338
ĠLas	13337
ĠCredit	13332
##rome	13331
ĠUbuntu	13329
##fold	13328
##QU	13328
##Entity	13328
##bel	13326
##alis	13325
Ġreplacing	13325
##Expression	13323
Ġdistant	13319
ĠRou	13319
Round	13316
Ġderive	13315
##IV	13314
Ġplacebo	13314
ĠFive	13314
ĠØ	13309
##lines	13308
Ġolig	13308
ĠGeo	13305
Ġfragments	13302
Ġcollision	13301
##ways	13299
seq	13297
##LP	13296
##Menu	13293
Ġspinal	13292
demo	13291
ĠWS	13290
##lands	13288
Ġdreams	13285
##æĺ¯	13283
Ġreporters	13283
xff	13282
ĠTal	13282
##ril	13280
##*/	13278
ĠHollywood	13278
Ġ1977	13276
ĊĠĠĠĠĠĠĠĠĠĠĠĠĠĠĠĠĠĠĠĠĠĠĠĠĠĠĠĠĠĠĠĠĠĠĠĠĠĠĠĠĠĠĠĠĠĠĠĠĠĠĠĠĠĠĠ	13275
Work	13274
ĠAz	13270
ĠÐº	13264
Ġentropy	13264
##info	13263
Ġroutes	13260
exec	13259
ĠThor	13258
Ġpainful	13257
Ġexceptions	13255
ĠSus	13255
##stic	13251
ĠSimon	13245
Ġcontributing	13244
containing	13243
##mate	13243
Ġscenarios	13243
ĠĠĠĠĠĠĠĠĠĠĠĠĠĠĠĠĠĠĠĠĠĠĠĠĠĠĠĠĠĠĠĠĠĠĠĠ	13243
Ġnurse	13239
ĠMiami	13238
##Handle	13237
Ġsys	13237
##ival	13235
Ġinitiative	13234
##icular	13233
ĠLanguage	13233
##New	13232
Ġimpression	13230
Ġchlor	13229
Ġgastric	13227
825	13226
Ġhero	13226
Ġshifts	13224
ĠSign	13222
figure	13219
##Changed	13217
Ġnie	13216
142	13215
Ġships	13215
Ġ179	13213
gif	13208
ĠAlabama	13206
Ġesp	13204
##ject	13201
ĠARE	13200
##ener	13199
Ġburst	13198
ĠPhiladelphia	13197
ĠVideo	13196
Ġschemes	13194
Ġcompiler	13193
Ġsweat	13192
##Widget	13190
Ġhip	13189
Ġstraightforward	13188
165	13187
PO	13186
##vers	13185
Ġinhibitory	13185
185	13184
Ġdr	13184
ĠSimilar	13184
Ġtendency	13183
Ġ240	13183
##DR	13182
Ġsto	13182
TC	13181
146	13181
Ġpossibilities	13178
Ġnucle	13177
##ava	13175
Ġguilt	13175
Ġfetch	13175
Ġpig	13174
##EX	13170
Ġbroader	13170
##ored	13169
Mc	13168
Ġ(<	13168
ĠDim	13167
Ġhired	13166
Ġlicensed	13163
Microsoft	13162
ĠAle	13162
Ġ220	13162
Ġprefix	13160
ĠOklahoma	13160
##api	13159
Ġpoorly	13159
ko	13158
##iest	13158
Ġ$${\	13155
inflammatory	13154
181	13154
##Os	13153
ĠMusic	13153
ĠWay	13148
Context	13147
Ġbegun	13147
Ġallele	13147
ĠJun	13146
ĠCells	13146
risk	13145
##ners	13145
Ġpresenting	13145
##cript	13142
##esh	13141
standard	13140
Ġapi	13140
##ĠĠĠĠĠĠĠĠĠĠĠĠĠĠĠĠĠĠĠ	13139
Ġdeck	13139
Ġ155	13139
Ġneighbors	13138
Ġ1978	13138
Att	13137
##Operation	13136
Ġfitted	13136
Ġdetecting	13135
EF	13133
ĠCAR	13132
Ġhire	13129
ĠLLC	13126
Ġspokesman	13125
Ġlawyers	13125
ĠROS	13125
Ġencountered	13123
Ġ142	13123
des	13122
Ġste	13120
Ġchairman	13119
ĠAuthor	13119
##EG	13116
Ġkg	13113
187	13111
render	13108
Ġmile	13108
Ġcyt	13108
ĠConn	13108
Ġnoting	13107
Ġinvest	13101
ĠEdward	13101
ĠCSS	13101
0008	13100
Ġneuronal	13099
##iol	13096
##aid	13090
Ġcurvature	13089
ĠCamp	13087
##^{\	13086
Ġwanting	13086
Ġequity	13085
Ġanalysed	13085
Ġinvasive	13084
<\	13082
Ġ151	13080
Try	13079
Ġou	13079
##cd	13078
Ġinconsistent	13078
Ġdebtor	13078
ĠOverall	13077
rich	13076
Av	13076
##Session	13076
Ġindividually	13076
Ġmanagers	13075
##prop	13074
Ġsphere	13073
Ġ157	13071
Ġfishing	13070
Ġaligned	13070
ĠJavaScript	13070
Ġenforce	13069
##cp	13068
Ġdiagonal	13065
Ġamid	13065
Ġoccupied	13064
NE	13062
##iled	13062
results	13060
Ġcru	13060
Ġmeals	13059
138	13058
Ġrack	13056
050	13055
Ġscroll	13055
##cul	13049
##num	13047
Rel	13046
##bert	13045
##ONE	13043
auth	13039
Ġinterfere	13039
,[	13038
Ġstolen	13038
cy	13035
##izes	13034
ĠDam	13034
##old	13033
ĠJP	13033
ĠForest	13033
##ced	13032
##iser	13031
##eric	13031
Ġassociate	13029
Ġraises	13028
Ġhearts	13026
kind	13024
~-	13022
##cht	13022
ĊĠĠĠĠĠĠĠĠĠĠĠĠĠĠĠĠĠĠĠĠĠĠĠĠĠĠĠĠĠĠĠĠĠĠĠĠĠĠĠĠĠĠĠĠĠĠĠĠĠĠĠĠĠĠĠĠĠĠĠĠĠĠĠĠ	13022
##ITE	13021
ĠStudent	13021
Ġchemicals	13020
ĠNight	13020
Ġexcuse	13019
CODE	13018
Appellant	13018
made	13017
Ġundefined	13017
450	13016
##fire	13016
Ġdelicious	13015
Ġdont	13014
ĠDiego	13014
##ald	13013
Ġcro	13013
ĠChannel	13013
##iga	13011
xb	13009
would	13008
ste	13008
Ġworship	13005
##cis	13003
Ġgenotype	13003
Ġdistribute	13003
cli	13001
Ġaffairs	12995
hs	12994
Ġspecimens	12992
Ġhomogeneous	12992
Ġinspection	12987
Ġ143	12985
ĠND	12984
ĠCapital	12983
ĠAh	12982
##uto	12977
0020	12974
##TY	12974
ĠLabour	12973
VF	12972
##erb	12972
Ġfever	12972
Ġalien	12972
Ġsurrounded	12971
Ġtmp	12970
Ġorth	12970
Ġlegislature	12970
Ġallocation	12970
foot	12969
##Ga	12969
Ġpositioned	12969
152	12968
Property	12966
Ġoperational	12966
ĠMaria	12966
grid	12965
##rol	12965
ĠSil	12965
Ġurine	12964
ĠSeattle	12964
##cel	12963
Ġlocalized	12960
Ġformulation	12960
Ġcitizen	12960
ĠPrice	12960
ĠÂ«	12959
ĠDU	12959
Ġaddressing	12957
ĠMotion	12957
ĠBureau	12957
ft	12956
ĠHeart	12954
Ġshapes	12953
##tw	12950
##rint	12950
##cri	12950
Ġhandled	12950
Ġcheer	12948
sig	12946
##plot	12944
Ġhat	12944
ĠUs	12944
##EF	12943
Ġ175	12943
)}{\	12942
Ġpromotion	12942
##Param	12939
##aching	12938
Ġarises	12938
Ġ-------------	12934
expl	12932
Ġcompile	12932
Ġ210	12932
Node	12930
##dies	12929
Ġdrag	12929
Ġprostate	12928
Ġnegotiations	12928
##ching	12927
spin	12926
Ġ204	12926
##System	12925
ĠDun	12925
Ġexclude	12924
ĠFootball	12924
Ġtrim	12922
ĠBh	12920
##pir	12918
##nh	12917
Ġbeings	12917
##ases	12916
ĠMoon	12916
ĠSau	12915
Ġslice	12914
Ġur	12913
ĠJon	12911
springframework	12909
sex	12907
try	12901
ĠTre	12897
##001	12892
ĠInvention	12892
Ġgrants	12891
##hat	12890
enable	12889
God	12889
GP	12889
>"	12889
##rey	12888
Ġlets	12888
Exception	12886
188	12883
ĠVisual	12882
ĠStone	12882
Ġ,\	12880
users	12879
ĠHaw	12877
Ġconvenience	12876
Based	12875
Ġmal	12874
ĠNH	12873
Ġcorporations	12871
ups	12869
prefix	12869
ĠMol	12868
ĠEuro	12868
10000	12864
##inator	12863
ĠForeign	12863
uri	12862
Ġverified	12862
Ġemb	12861
ĠEvent	12861
Ġ?>	12861
blog	12859
##away	12854
Doc	12853
##itu	12853
ĠHT	12853
##çĶ¨	12852
LE	12850
753	12850
Ġpred	12846
##oting	12841
Ġorgans	12841
Ġintensive	12840
utf	12838
Ġonc	12837
Ġ360	12836
Ġdesk	12835
1985	12833
##aya	12832
Ġlit	12830
Ġven	12829
EL	12827
Ġrolling	12826
Ġconsiderations	12826
Ġrein	12825
ĠĠĠĊĠ	12825
##sky	12823
##ishing	12823
Ev	12820
Product	12816
ĠTreatment	12814
minute	12813
Ġclubs	12812
Ġhighlighted	12811
Ġdrain	12811
1984	12810
Ġdig	12808
âĢ©	12803
137	12803
Ġcrypto	12802
Ġcarriers	12801
##ground	12800
##nam	12799
bro	12796
##)$	12796
Ġpie	12796
Sur	12794
Bra	12794
Ġsheets	12794
Ġlips	12794
##isp	12793
Ġba	12792
Ġcurl	12790
iv	12789
Ġsink	12789
##RL	12786
Ġredirect	12783
Ġfn	12781
mapsto	12780
ĠVM	12780
Ġblot	12779
ĠAna	12777
Ġti	12774
ae	12773
ĠÎ¼m	12773
pin	12772
ĠBlock	12772
wait	12768
Ġoccasionally	12768
Ġhub	12767
Ġinsights	12766
Star	12765
sur	12762
Ġsimulated	12762
Ġtra	12760
Ġimplements	12758
Ġexpanding	12758
Ġengaging	12756
Ġsuggestion	12751
Ġcraft	12750
Count	12749
Ġbarriers	12749
##awa	12748
ĠÎ¼M	12748
court	12747
Ġpat	12745
Ġflexibility	12745
ĠFactor	12745
))/	12743
flow	12742
Xi	12739
ĠSelf	12739
Ġprescription	12738
ĠCurrent	12738
Ġ153	12738
áĢ	12737
##Ra	12737
Ġyours	12734
Ġenvelope	12734
Ġ165	12734
026	12732
202	12729
171	12729
##Pa	12728
Ġradi	12728
Ġneedle	12728
Ġapproached	12728
Long	12726
Ġquant	12723
Ġdistricts	12723
Ġbreathing	12723
##vas	12722
##Rec	12720
##Re	12720
ĠHelp	12719
Ġ"%	12719
Ġtrap	12716
##Ms	12715
Ġremarks	12715
151	12711
##inct	12710
Ġcor	12710
ĠContent	12709
##ĠĠĠĠĠĠĠĠĠĠĠ	12708
Ġremedy	12706
ĠĠĠĠĠĠĠĠĠĠĠĠĠĠĠĠĠĠĠĠĠĠĠĠĠĠĠĠĠĠĠĠĠĠĠĠĠĠ	12706
##kan	12705
Ġtitles	12705
ppat	12704
Ġmonitored	12704
Ġtournament	12703
##gic	12702
Ġfavour	12701
SH	12700
(!	12700
Ġaccommodate	12700
##iver	12699
ĠWord	12699
Ġatt	12698
ĠExpression	12695
Va	12694
Ġvolumes	12693
Ġangles	12693
##rete	12691
Ġdishes	12691
ĠKeep	12691
ĠJane	12691
asp	12690
Ġpod	12688
##ared	12687
Ġincredibly	12687
Ġvolunteers	12686
Ġbro	12685
##&\	12684
Ġ-----------	12683
Ġdeleted	12679
Ġinference	12672
Ġimpacts	12672
##Read	12670
Input	12669
##iot	12667
Ġfoo	12666
Ġanchor	12665
Ġ1975	12664
Ġke	12663
Run	12662
Ġarrays	12662
Ġsleeping	12656
Ġcoin	12656
Ġtongue	12653
Ġfin	12653
cong	12652
Ġterror	12652
1988	12651
##obi	12650
ĠMot	12649
Ġrect	12646
Ġsolving	12642
Ġgen	12642
Ġble	12642
Ġconversations	12639
ĠOnline	12637
ĠÃħ	12636
ĠOxford	12636
}})$	12633
1987	12631
Ġencoded	12629
Ġdisposed	12629
properties	12627
Ġdeclaration	12627
##body	12626
Ġabandoned	12626
Ġmandatory	12625
Ġdying	12624
##Tool	12620
Ġgarlic	12620
##eter	12619
Ġ141	12617
##bury	12615
ĠĠĠĠĠĠĠĠĠĠĠĠĠĠĠĠĠĠĠĠĠĠĠĠĠĠĠĠĠĠĠĠĠĠĠĠĠĠĠĠĠ	12613
less	12610
##ential	12610
Ġeff	12610
Ġimply	12609
ĠWO	12609
946	12608
Ġjoke	12608
care	12606
Ġextracts	12604
ĠÂ»	12602
Ġtranslate	12601
Ġpurely	12598
Ġlemma	12598
Ġsuppressed	12597
Ġfounder	12597
network	12596
report	12595
Ġbalanced	12594
Ġupgrade	12593
cut	12591
Ġsyn	12589
bs	12588
}}^{\	12587
connect	12587
##gie	12587
Ġspoken	12586
Ġ178	12586
ĠĠĊ	12585
PER	12583
Ġadhesion	12583
ĠDisney	12580
ĠThrough	12579
Ġox	12578
Ġligand	12578
San	12574
##oom	12573
##dm	12572
Ġlemon	12568
âĢĭ	12565
don	12565
)&	12564
Ġhitting	12562
##ature	12560
ĠEver	12560
Ġcoat	12555
Ġapproximate	12551
Ġproceeds	12550
ĠMissouri	12549
half	12545
Ġdisplacement	12544
##vy	12543
##Ø±	12542
##ÃĦ	12537
##-----	12537
ÃĲÂµ	12536
##mac	12535
Ġinnovation	12531
Ġfocuses	12531
Ġaccordingly	12529
ĠRow	12529
Ġcontroversy	12528
Ġconcur	12528
##./	12527
Ġsixth	12527
ĠTheory	12527
Ġpleased	12523
ĠPal	12523
##ĉĉ	12522
Ġpromoted	12522
ĠStore	12522
ĠLam	12520
ĠBas	12520
Ġpulling	12519
Ġ700	12519
Ġtar	12518
Ġbp	12516
FB	12514
##BL	12514
West	12513
Ġtransitions	12513
ĠHand	12513
Core	12512
ĠSurvey	12509
ĠPin	12508
Ġconsiderably	12507
Ġarguing	12507
Ġ146	12507
##Local	12506
##using	12505
ĠNBA	12504
shared	12501
returns	12501
##CD	12501
\|_{	12500
Ġnarrative	12500
Ġdozen	12500
##uz	12498
ĠDin	12498
*\<	12497
##olution	12495
ĠWithin	12494
Ġanalytical	12492
ĠMRI	12492
##rian	12490
Ġexplaining	12489
Ġcalendar	12489
Ġexhibits	12488
quality	12487
Ġspark	12487
##âĢľ	12486
Ġtranscripts	12481
ĠMean	12481
(:	12480
Ġ152	12480
Ġindirect	12477
##sec	12476
Ġintact	12476
Ġmorphology	12475
Ġconfirmation	12474
ĠTG	12473
##SL	12472
ĠWolf	12472
Max	12469
ĠâĢĭ	12469
##HS	12465
`.	12460
ing	12459
Ġmobility	12458
Ġanonymous	12456
ĠSite	12456
##ext	12454
##Flags	12454
##\]	12452
ĠSquare	12451
##ifi	12447
154	12442
##Ð½Ð¾	12441
Ġcompromise	12435
ĠFrancis	12435
Ġ"-	12434
##Bytes	12433
350	12430
212	12428
##ln	12425
aw	12423
Ġgamma	12423
ĠFat	12422
Ġmanufacture	12420
ĠMont	12420
Author	12419
Ġadoption	12419
Ġties	12418
Component	12417
ĠExc	12417
iterator	12416
without	12414
031	12414
Ġasserted	12414
band	12412
="../	12412
Ġ1976	12411
Im	12408
Ġconducting	12408
Ġplacing	12407
Ġevaluating	12405
ĠGolden	12405
ĠPol	12400
##lip	12399
##Left	12399
Ġreviewing	12399
Ġballs	12397
OP	12396
##ows	12396
Ġreserve	12396
EM	12392
Ġhanging	12392
Ġwrap	12390
Super	12389
ĠâĢĻ	12389
Ġphones	12387
156	12383
driver	12382
ĠGy	12382
##ä¸	12381
Ġenemies	12381
##Enabled	12379
Ġmount	12377
é	12374
^{*}	12371
Ġsubsection	12371
Ġreportedly	12370
Ġcannabis	12369
;"	12368
##PH	12363
Ġrelaxation	12361
Ġrecruitment	12361
Ġ256	12361
ĠArg	12360
MT	12359
)</	12359
##ched	12358
Ġchips	12357
##ensive	12356
ax	12355
##Port	12350
Ġlegally	12350
##ancy	12349
Cont	12348
che	12346
Ġprayer	12346
ĠYouTube	12346
ĠRapids	12343
Ġimplementing	12342
Ġofficially	12339
##ctor	12338
Ġschema	12336
##iles	12335
Ġpink	12335
TS	12332
Ġblockchain	12331
ĠCou	12329
exception	12327
({{\	12326
Ġflip	12326
XF	12324
##----	12324
##Grid	12323
Ġquarterback	12321
Ġhormone	12321
Gal	12320
Ġbare	12320
Show	12316
##emo	12315
ER	12314
##iso	12314
Ġcounting	12314
Ġsustainable	12313
ĠMY	12311
Ġoutdoor	12309
dom	12308
Ġvaries	12307
)'	12306
##outs	12305
Ġthrew	12300
xd	12299
Ġasync	12299
Filter	12296
!!!	12296
Ġriding	12293
ĠFinal	12293
brief	12292
bre	12292
##place	12291
ĠKer	12291
tools	12285
##ait	12285
ĠRelease	12283
ĠNotice	12281
BI	12280
ĠRemove	12280
##aged	12276
Ġtear	12276
ĠWo	12276
distance	12273
,âĢĻ	12273
share	12272
Inst	12271
}$)	12270
Ġà	12267
Ġram	12267
ĠMill	12267
ĠBUT	12266
ĠAlexander	12264
##ortion	12263
Ġconstitutes	12262
Ġ------	12262
ĠNL	12259
Ġreb	12258
Those	12256
handler	12255
##ogram	12254
##Font	12254
ĠRequest	12254
##text	12253
##how	12253
Page	12252
Ġtraveling	12251
ĠDallas	12250
Ġ149	12249
##OG	12248
integer	12245
had	12245
ĠBU	12245
230	12243
##TP	12242
##ĠĠĠĠĠĠĠĠĠ	12242
ĠBit	12240
##Adapter	12239
Ġmethodology	12239
Ġpollution	12238
ĠFilm	12238
ĠGS	12235
ĠDouble	12235
ĠLater	12233
##END	12232
Ġcatheter	12232
ji	12231
Ġshower	12227
##ĠĠĠĠĠĠĠĠĠĠĠĠ	12226
##igh	12225
Ġmetastasis	12223
ĠVar	12222
ĠOT	12222
Ġprobation	12220
Ġdenoted	12219
##lg	12216
ĠLive	12216
Ġshifted	12215
##BP	12213
ĠPalestinian	12213
##One	12212
Ġnuclei	12212
Ġlessons	12212
Ġlengths	12212
Ġappellate	12212
ĠTarget	12211
Ġtears	12209
ĠCOURT	12209
=[	12205
Def	12202
Ġdest	12200
Ġextracellular	12199
##ocyte	12198
Ġventure	12197
anal	12194
Ġlesser	12193
RES	12191
##vor	12191
##Util	12190
ĠFinancial	12190
bullet	12189
Ġbiology	12189
##def	12188
expected	12187
##Application	12186
##ication	12185
att	12184
##ectomy	12184
Ġcups	12183
##cur	12181
Ġpose	12179
Ġinnovative	12179
Ġappearing	12178
ĠFol	12178
##anta	12177
screen	12175
Ġreproduce	12171
Ġsusceptibility	12170
Ġraces	12170
Ġfuck	12170
##ili	12168
Ġwages	12168
Ġsubstrates	12166
Ġkn	12166
Ġcurious	12166
deg	12165
Sen	12165
ĠSG	12165
Ġdrops	12163
cn	12161
##VM	12159
ĠÃĹÂ	12158
Ġwithdrawal	12158
Ġpole	12157
##Ãº	12155
Ġimmigrants	12154
ï¼ļ	12153
ĠWu	12153
Ġwheat	12151
##ony	12150
Ġgather	12150
Ġbasal	12150
ĠUpon	12150
ĠWould	12149
ON	12148
##card	12148
Ġviable	12146
speed	12144
##rf	12144
Ġconfigurations	12144
Ġspeaker	12143
##uan	12141
Ġpra	12140
ĠPsych	12140
ĠGall	12140
ĠNet	12139
0006	12138
Ġrally	12138
Ġobjectives	12138
Ġorganisms	12137
execute	12136
Ġ****	12135
Ġdf	12134
}$-	12133
##ances	12133
Ġattract	12132
##kel	12131
Ġstepped	12131
Ġcaptain	12129
Ġoxidation	12128
Ġdro	12128
Ġmerits	12127
)/((-	12125
##ained	12122
ĠRules	12121
Ġcone	12119
ĠTony	12118
âĦ¢	12117
Ġdiscussing	12117
Only	12116
##eto	12116
Ġsubtle	12115
ĠAy	12115
##Åį	12114
##enter	12114
Ġabilities	12114
##ige	12112
Ġdramatically	12112
ĠTennessee	12112
Ġinfluenza	12111
Service	12110
>()	12110
ĠMother	12110
##Reg	12109
Ġbelonging	12109
Ġasserts	12109
ĠSingapore	12109
ĠBoy	12109
Ġfallen	12108
ĠTag	12108
ĠOk	12108
##Fe	12105
##ende	12103
##Var	12103
##Collection	12103
delim	12102
DL	12102
ĠCulture	12102
Ġvacation	12101
BS	12099
##ories	12099
##gia	12099
ĠBerlin	12099
ĠNG	12098
##eny	12097
Ġtransverse	12097
Ġinvestigators	12096
##Writer	12095
Ġdevelopments	12095
lower	12094
Ġcharging	12094
Ġ---------	12094
Ġproducer	12093
Math	12092
ĠShort	12092
ĠDocument	12092
024	12091
##arm	12091
Ġhighlights	12091
##more	12090
##ules	12087
##rans	12086
Ġrobbery	12085
##Body	12083
cost	12080
ĊĉĠ	12080
ĠWalker	12079
sign	12078
both	12072
Ġsustain	12072
ĠVE	12071
identifier	12069
))$	12069
ĠBeck	12068
##Ð¾Ð²	12067
##ardi	12067
human	12066
Ġsingular	12066
Ġwisdom	12064
ĠHal	12064
##action	12063
Ġprompt	12063
Ġnecessity	12063
ĠRD	12063
depth	12062
apply	12061
##Ts	12061
HI	12060
161	12060
186	12058
expression	12057
ĠSK	12056
mark	12055
##burn	12054
##[\	12054
ĠMorgan	12053
inline	12052
Ġapt	12052
twitter	12051
Ġdialogue	12051
Ġ----------	12051
##IB	12050
equals	12049
Ġfluorescent	12049
Ġalternate	12049
ju	12048
Ġ--------------	12048
Ġconvex	12047
##âĢĵ	12046
Ġoperates	12044
.[]{	12042
Ġexcitation	12041
ĠProtection	12041
Î³	12039
Ġzip	12037
Http	12035
##lem	12035
Ġattending	12035
ĠPURPOSE	12035
keys	12034
Ġnutrition	12033
Ġhumanity	12032
ĠSingle	12032
ĠKen	12031
single	12029
Evaluate	12029
Ġassertion	12029
ĠCut	12029
Ġads	12027
nt	12026
Ġvo	12026
EXT	12025
Ġgathering	12022
Ġcredibility	12022
ĠCom	12022
Ġshake	12019
Char	12017
Ġmodest	12017
Ġdefence	12017
Gen	12016
suppl	12015
cit	12015
Ġfreely	12014
ĊĠĠĠĠĠĠĠĠĠĠĠĠĠĠĠĠĠĠ	12012
##Web	12011
Ġprevents	12011
##ERS	12010
Ġsafely	12010
Ġlighting	12010
Ġinvoke	12009
Ġpacked	12007
Ġ154	12004
original	11996
Ġincorrect	11995
ĠDark	11993
##rov	11992
##ention	11992
##Ã¡n	11990
Ġstopping	11990
Ġprojected	11990
Ġaffordable	11988
Ġadaptation	11986
##ody	11985
Ġpassive	11984
Ġunfair	11983
Ġfucking	11982
ĠLang	11982
Ġtriggered	11980
ĠMas	11980
$;	11979
Ġineffective	11979
Ġalterations	11979
ĠMexican	11979
Ġmate	11977
139	11976
Ġdonors	11975
Ġmeth	11972
Fri	11971
Ġhanded	11971
Ġ171	11969
Ġhorror	11968
hidden	11966
Ġwr	11966
enc	11964
Ġunity	11964
Ġë	11963
##Ph	11961
Ġpromises	11961
148	11960
##elli	11959
'-	11958
Ġrobot	11955
Ġarbitration	11955
edge	11954
##max	11953
Ġremand	11953
Ġcatalyst	11953
Ġbow	11953
##SM	11952
Ġze	11952
Ġutilize	11952
ĠVector	11952
##irect	11951
ĠDra	11951
CN	11949
Ġgolden	11949
Ġ225	11949
va	11948
##TL	11944
ĠVen	11943
Client	11941
typedef	11939
Ġconn	11937
ĠPremier	11937
Ġmeets	11936
success	11935
##UG	11934
Ġcombining	11934
Ġbother	11933
##hol	11931
Ġjam	11931
GS	11930
157	11930
Ġamplification	11929
##wing	11928
Ġinsertion	11928
Ġren	11927
##aba	11926
Ġnurses	11926
Ġcameras	11926
ĠLock	11926
Ġretro	11925
ĠChampionship	11925
ĠBuilding	11924
##asing	11923
$^{	11917
xsl	11916
028	11915
Ġuno	11914
Ġinherent	11913
Ġretention	11912
ĠSarah	11912
ĠJason	11911
Ġathletes	11909
ĠEll	11908
ĠProtein	11907
Ġdeficit	11904
ĠMeanwhile	11904
ĠOpt	11902
Ġom	11901
Ċĉĉĉĉĉĉĉ	11900
Ġinitiation	11899
ĠGB	11896
ĠConv	11895
Ġdensities	11894
##oring	11893
Ġmetrics	11891
Ġinfer	11888
Ġswap	11887
Bre	11886
Ġsubl	11886
ĠHay	11886
ĠHoward	11884
ws	11881
ĠWHERE	11881
ĠCro	11881
ĠAnna	11878
:</	11875
Ġwrit	11874
Ġreass	11874
Ġoccasions	11874
##uts	11870
ĠBee	11869
Ġinvestments	11867
Ġartists	11867
Ġ[\	11866
ĠVice	11866
164	11863
041	11862
Ġfence	11862
ĠUSB	11862
ĠFront	11862
Ġye	11861
Mal	11860
##ended	11860
Ġclimb	11860
##alt	11857
pur	11854
##čĊ	11853
ĠWis	11853
ĠReact	11853
##isk	11852
Ġ------------	11851
ĠAuthority	11849
Ġprotests	11848
Ġgall	11847
}^*	11846
##ÃĹ	11846
Ġ177	11845
Â¤	11842
##lement	11842
fat	11840
BD	11839
tan	11837
kn	11836
ĠAddress	11835
Share	11832
Ġgrab	11832
Ġinspiration	11831
âĢ¦.	11830
##ough	11830
Ġdemocratic	11830
Ġanimation	11830
Ġdamn	11827
/"	11826
##mail	11826
Ġtestify	11825
Ġdivorce	11824
ĠBru	11824
##USE	11822
ĠAccount	11821
##uma	11820
Ġinsured	11820
Ġjudges	11819
iter	11818
Ġ".	11815
##mn	11814
ĠMount	11813
ĠStudio	11812
Ġ158	11812
Ġmistakes	11811
Ġunre	11807
Ġfloating	11806
HS	11804
ĠĠĠĠĠĠĠĠĠĠĠĠĠĠĠĠĠĠĠĠĠĠĠĠĠĠĠĠĠĠĠĠĠĠĠĠĠĠĠĠ	11803
Ã©	11801
##ull	11801
Ġdatabases	11801
ĠMis	11800
Array	11796
184	11795
Ġwo	11794
Ġcoil	11794
SW	11790
ĠLicensed	11790
ĠExample	11789
##AND	11788
library	11787
Size	11787
Men	11786
Ġmotivated	11786
##rest	11785
Ġdir	11784
Ġensuring	11783
##^\	11782
Ġdated	11781
nl	11780
ĠFD	11779
ĠFred	11777
xx	11775
Ġsav	11774
Ġhabit	11773
Ġbaking	11773
182	11772
Ġdeparture	11772
Ġdece	11772
##rem	11771
sem	11770
##");	11769
>;	11768
CG	11767
Ġsoup	11766
Ġfacial	11766
Ġboards	11766
ÃĲÂµÃĳ	11765
Âĩ	11765
_-	11765
Pen	11764
Ġactivists	11764
DF	11763
Ġdeployment	11763
Ġabundant	11758
most	11757
Path	11757
Ġearnings	11757
ĠDoc	11756
ĠInteger	11753
Ġreactive	11751
Ġ156	11750
FONT	11749
virtual	11748
Ġpremises	11747
1980	11746
##AY	11746
##uda	11745
Ġ\}	11745
Ġlag	11744
Ġamongst	11744
ĠArabia	11739
coll	11738
ĠMart	11738
ĠCaptain	11738
##nl	11736
ĠDick	11736
ĠNK	11735
Ġds	11734
162	11733
##å¤	11733
Ġthrowing	11733
ĠKin	11729
##Icon	11728
Ġdowntown	11727
ĠSenator	11727
Ġprognosis	11726
ĠVery	11725
very	11723
##rating	11719
##aly	11719
Ġcats	11718
Ġtherapies	11715
Ġshops	11714
Ġrot	11712
##gt	11706
Ġlos	11703
##osi	11702
ĠDN	11701
##icle	11700
ĠMut	11700
Ġ205	11699
lat	11696
Ġ"",	11696
Ġgrey	11694
##like	11693
}&	11692
Output	11692
ĠFre	11692
##{{	11690
##lag	11690
Ġindustries	11690
ĠHy	11690
AND	11689
Ġscrew	11688
ĠMayor	11688
Ġ148	11687
ĠĊĠĠĠĠĠĠĠĠĠĠĠĠĠĠĠĠĠĠĠ	11687
Ġsnap	11684
Ġrepository	11683
##pad	11682
##INE	11682
Ġgro	11682
ĠTurn	11682
ĠMountain	11681
ĠElizabeth	11681
Action	11680
Ġrh	11680
ĠIranian	11679
##ected	11678
ĠCruz	11676
Cat	11675
Ġrefuse	11675
##gm	11674
Ġjustified	11674
HP	11673
Ġchopped	11673
##ptr	11672
Ġshed	11671
Ġspeaks	11670
unc	11669
Factor	11669
EA	11668
Ġtrait	11668
ĠVin	11668
##ank	11664
ĊĉĊ	11663
Ġuniversities	11660
ĠSenior	11660
Ġrush	11658
sym	11657
##ML	11657
##word	11655
Ġpassenger	11655
Ġmanufacturers	11655
ĠLM	11653
IB	11652
ĊĠĠĠĠĠĠĠĠĊĠĠĠĠĠĠĠ	11650
174	11649
Dan	11648
1983	11648
##Create	11648
Ġmusical	11647
Ġcursor	11645
ĠDeb	11643
##------	11642
bytes	11641
##eck	11640
ĠDutch	11640
##ander	11639
Ġdialog	11637
ĠcDNA	11637
Ġemails	11636
Ġantibiotics	11636
>();	11634
##===	11633
Ġter	11633
Ġobligations	11633
ĠTr	11633
ĠâĢľ[	11632
##NK	11631
Ġdismissal	11631
David	11630
##fall	11629
ĠPARTICULAR	11627
Ġpackaging	11624
Ġaveraged	11623
Ġ``	11623
Ġ1950	11623
Er	11622
Ġtower	11622
Ġpri	11621
Ġempirical	11621
Ġ161	11619
bad	11618
Ġarts	11617
NOT	11616
Age	11616
512	11616
##AGE	11616
hw	11615
=\"	11615
##iar	11615
ifndef	11614
username	11613
##omm	11610
Ġveteran	11608
Ġavoided	11608
Ġ164	11608
Ġfruits	11606
Ġfought	11606
ĠStep	11605
Ġmainstream	11601
Ġcaps	11600
LI	11599
##Ã¡Âº	11599
Ġconvention	11599
Link	11598
/)	11598
Ġdeserve	11596
ĠLegend	11595
Ġ168	11594
ĠPetitioner	11593
Ġ163	11593
ep	11592
Ġratings	11591
Ġmicroscope	11588
ĠCOVID	11587
Ġceiling	11586
Ġholder	11585
ĠAE	11584
dfrac	11583
Ġcaution	11583
exists	11581
since	11576
##iac	11576
Ġmarginal	11576
Ġpreserved	11575
Ġexperiencing	11575
Ġthroat	11574
ĠSur	11574
ĠIntel	11574
Ġupstream	11573
ĠPU	11571
##ional	11570
Ġpc	11570
Mer	11568
Ġhorizon	11568
##Î	11567
Ġalternatives	11565
rank	11562
FOR	11561
##Per	11559
##IES	11559
Ġsupplement	11559
Ġpanic	11556
Ġ162	11556
Den	11555
Ġgranting	11554
176	11552
Ġsteep	11552
Configuration	11551
)$-	11551
Ġlabour	11550
Ġadvances	11549
360	11548
RI	11547
Ġintelligent	11547
ĠWales	11546
Ġsearched	11543
ALL	11539
Ġyo	11539
Ġbrilliant	11537
ĠBuck	11537
Ġagricultural	11536
Ġadventure	11536
ĠVC	11536
ĠExpress	11536
extern	11532
Ġvoluntary	11532
Ġgraft	11532
<?	11530
Ġshirt	11530
Ġbot	11530
Ġ1973	11530
Ġhappiness	11526
variant	11525
##hing	11525
program	11524
Ġfork	11524
Ġexploration	11520
rule	11519
Ġrubber	11517
ĠBesides	11516
##Char	11513
Ġthumb	11513
Ġexceed	11510
Ġlogo	11508
Ġresidue	11503
Ġeastern	11501
regulated	11499
]-[@	11499
320	11499
ĠFITNESS	11499
Ġhint	11497
ĠJay	11497
##Names	11496
ĠSize	11496
ĠMember	11496
##Values	11495
platform	11494
Ġsubjective	11494
ĠExt	11493
Ġsusceptible	11492
Ġunlawful	11491
Ġ$|\	11491
COMP	11490
##opathy	11490
Ġrevised	11490
Ġcontamination	11490
ĠRich	11490
ĠOA	11490
##ilo	11489
ĠCollection	11489
vm	11487
ĠBlood	11485
Ġbrains	11484
ĠHart	11484
Ġfasc	11481
Ġevolutionary	11481
Ġbuttons	11478
##opy	11474
##ifer	11473
ĠNeed	11473
##Identifier	11472
##igen	11471
Ġselecting	11471
Ġloads	11470
ĠUtah	11470
theme	11469
213	11469
ĠMos	11469
##Equal	11466
children	11465
Ġclarify	11465
Ġdiabetic	11462
##aha	11461
Ġsuspicion	11461
Ġclinically	11460
Ġ147	11460
##Do	11459
Ġshelter	11458
INFO	11457
033	11457
##olin	11457
##+}	11457
Ġped	11457
Ġlu	11457
Ġdrift	11456
900	11455
Ġutil	11455
Ġdistal	11455
Ġtre	11454
)~	11453
required	11449
ĠProc	11449
##cut	11448
ĠUnlike	11448
fin	11447
Ġvon	11446
Ġtumour	11446
Ġdx	11443
utils	11442
ĠKy	11441
ĠArts	11441
done	11440
Ġstationary	11436
1982	11435
Ġyard	11435
found	11434
HT	11433
Ġviability	11433
Ġconsumed	11432
Ġprimers	11431
Ġket	11430
Ġdisclose	11429
ĠVietnam	11429
ĠMus	11429
Ġdesktop	11428
Ġhist	11427
ĠResponse	11426
Enter	11424
##Add	11424
ĠOD	11423
Ġ========	11423
Ġpride	11422
Ġillustrate	11421
Ġbuf	11421
##front	11420
NP	11419
##dit	11419
##Wh	11419
Ġexponential	11419
Ġranked	11418
Ġrecipes	11417
[$	11415
Inc	11414
Ġshield	11414
Ġintend	11414
Ġwaiver	11412
gg	11411
Ġrelevance	11411
Ġcounted	11409
##vol	11407
Ġpap	11405
ĠHF	11405
ĠHB	11405
Ġthereafter	11403
177	11401
##eria	11400
##Panel	11400
Ġpremium	11400
##ãģ¯	11394
Ġmyth	11393
Ġphosphate	11392
##cyt	11390
Ġtranscriptional	11390
##irm	11389
Ġgoogle	11389
commit	11386
##anda	11385
##Core	11385
ĠPri	11385
Ġ1972	11384
ĠSeason	11379
Ġcmd	11378
ĠDuke	11377
ĠLV	11376
ĠMars	11374
ĠLat	11373
Ġincomplete	11372
Ġpeaceful	11370
##Layer	11367
ĠWHO	11367
pair	11366
AI	11365
Ġappellants	11364
LP	11363
##jun	11363
Ġmisc	11361
ĠMir	11361
Ġelastic	11360
Ġsucceed	11358
Ġfigured	11358
simple	11357
ĠLouisiana	11355
##ury	11354
Ġlake	11354
Ġendogenous	11354
Cur	11353
##Ã´	11353
ĠNASA	11353
ĠGET	11353
tests	11352
Ġfetal	11350
ĠTea	11349
Ġintroducing	11347
Ġstereo	11346
ĠRy	11345
Ġfurniture	11344
ĠRod	11344
Ġcenturies	11343
ĠOtherwise	11342
Ġpredetermined	11341
Ġnav	11341
ĠSav	11341
ĠAU	11341
)+\	11340
##uate	11340
179	11339
##Ã©n	11338
ĠTree	11337
##matic	11334
Sm	11333
0007	11333
Ġattach	11333
ĠStop	11333
ĠAssistant	11333
Art	11332
Ġtickets	11332
Ġtransp	11331
ĠMini	11330
hydroxy	11329
Ġabsorb	11329
Ġlaptop	11325
Ġblade	11324
Ġaffidavit	11324
Ġbeef	11322
Ġpharmac	11320
##ĠĠĠĠĠĠĠĠĠĠ	11319
ĠLPS	11319
##oj	11317
##OUT	11317
Ġprolonged	11316
Ġ'<	11316
Ġreception	11315
Ġgraphics	11313
})$.	11312
>::	11312
parameter	11310
##sf	11308
##att	11308
Ġincidents	11308
quoting	11306
ĠWrite	11306
Hol	11304
##dt	11304
ur	11302
##but	11302
Ġcrossed	11301
ĠBeing	11301
Ġprimer	11300
))?	11299
Ġdeadline	11299
##Hash	11298
valid	11297
Function	11296
##Next	11295
Ġorbital	11292
##ulator	11291
333	11290
ĠPhysics	11289
ĠBea	11287
IM	11286
Ġber	11286
ĠPLA	11285
PATH	11284
##MD	11284
##åı	11283
##">	11283
##cm	11282
DEBUG	11281
Ġinfectious	11281
ĠDave	11277
Ġconjunction	11276
Ġclearance	11276
Ġprospect	11274
Ġtau	11272
Ep	11268
##rea	11265
ĠAri	11265
South	11263
Ġseemingly	11263
ĠSaint	11263
##Root	11262
Ġcorrections	11260
Ġventricular	11258
Ill	11255
Ġcertified	11255
ĠVS	11254
ĠPle	11254
Ġexhaust	11253
Ġ.$$	11252
Gar	11251
##ension	11251
Further	11250
##Pre	11250
ĠGun	11250
##oot	11248
mol	11247
CV	11247
Ġsheep	11247
Ġlocus	11246
Ġrecommendation	11244
ĠLou	11244
Ir	11243
##cription	11242
##othe	11240
ĠPac	11240
Ġhorses	11237
proc	11236
HD	11235
Ġevolved	11235
fileID	11230
ĠExpl	11229
:[	11228
##Fs	11226
Ġhalo	11226
Ġabdominal	11226
Trump	11225
##Î²	11225
![](	11224
EQ	11222
##erl	11221
Application	11218
cause	11217
Ġsing	11217
ĠiPhone	11217
Ġbrands	11217
ĠFlow	11217
condition	11216
ĠNetherlands	11216
ĠAffairs	11216
pres	11214
Ġemployers	11214
##Search	11211
Ġ172	11211
ĠRange	11210
Ġgravitational	11206
plan	11203
Ġamb	11203
area	11201
arXiv	11200
Ġč	11200
##aling	11199
Ġrotating	11199
Ġundergoing	11198
Ġvir	11197
Ġtwelve	11197
##erc	11196
Ġorthogonal	11195
Ġfracture	11194
Ġawards	11194
$:	11193
Obv	11192
##âĢĶ	11192
ĠINS	11192
ĠPerson	11191
Ġdynamical	11190
gp	11188
Ġdesert	11188
Ġdemonstrating	11186
ĠMERCHANTABILITY	11183
ĠDrug	11183
alloc	11182
Ġrigid	11179
##zone	11172
ĠÐ¸	11170
##Da	11167
ĠRecently	11167
jar	11166
172	11166
Ġrendering	11165
##vity	11163
ĠTokyo	11163
Ġsubd	11162
ĠMand	11162
ĠAnne	11161
ĠTour	11159
ĠPil	11158
##OH	11157
Current	11155
Ġactin	11152
Au	11151
##vc	11151
Ġsync	11151
Ġcouples	11151
Ġrecombinant	11150
##ä»	11149
Ġtowns	11148
##zen	11147
Ġlamin	11146
##RES	11145
Ġfeasible	11144
Ġ1974	11144
ĠCounsel	11142
Ġ--------	11141
Ġord	11140
limit	11138
job	11138
API	11138
Ġpublications	11138
Ġachieving	11137
Ġâī¤	11136
Ġjournalist	11136
Ġfool	11136
ĠCart	11135
##occ	11131
sch	11130
##arian	11130
Ġtopology	11125
ĠCOL	11125
037	11122
##rist	11122
Ġpressed	11122
Ġnights	11122
ĠVis	11122
Ġthreads	11119
ĠSOFTWARE	11119
Ġsorts	11118
ĠUT	11118
ĠAppendix	11117
ĠCIA	11114
ĠArm	11114
ĠResources	11113
Ġlesson	11112
Ġenrolled	11112
Ġcylinder	11109
compare	11108
Ġoutputs	11107
pool	11105
##Items	11104
##lated	11103
ĠsiRNA	11102
Ġhoped	11101
through	11100
##rine	11099
ĠMode	11097
ĠPenn	11094
##inger	11093
##uing	11092
_;	11090
Example	11090
à®	11089
3000	11089
##ires	11089
Great	11087
ĠEngineering	11087
Ġspontaneous	11086
ĠVO	11086
ĠWH	11085
##imate	11083
##Pr	11083
ĠJacob	11081
ĠMann	11080
Ġswimming	11078
##atch	11077
Ġcontacted	11074
}}}_{	11073
Ġneg	11073
formula	11072
FS	11071
Ġphenomena	11071
ĠConst	11070
fit	11069
222	11069
Ġinappropriate	11069
Ġtubes	11068
Ġmold	11068
ĠSci	11068
ĠGraph	11067
LC	11065
Ġdeletion	11064
Ġactivate	11063
cpu	11062
)-\	11062
ĠMarc	11061
odot	11060
ĠBow	11059
0015	11057
)](#	11057
ĠHell	11057
Ġfluor	11056
ĠRB	11056
Ġunemployment	11055
Ġintegrate	11055
Ġdisable	11055
Ġcarb	11051
ĊĉĉĠĠĠ	11051
Stat	11050
ĠKat	11050
Sta	11049
Ġprima	11048
did	11045
Wait	11042
Ġsends	11042
Ġretrieve	11042
Ġsim	11041
ĠLes	11039
Ġ"âĻª	11038
Auto	11037
##TOR	11037
Ġconvictions	11037
159	11036
##Ã©t	11036
Ġcerebral	11035
Ġneighbor	11034
ĠNeither	11034
Ġ230	11034
Search	11032
Ġrib	11032
Ġdirectors	11032
ĠMaterial	11031
Express	11030
ĠDisease	11030
##HC	11028
ĠEND	11028
ĠDie	11028
engine	11027
027	11027
0009	11026
##ESS	11026
Ġè	11026
Ġspine	11026
APP	11025
Ġtheft	11024
Ġears	11024
ĠĠĠĠĠĠĠĠĠĠĠĠĠĠĠĠĠĠĠĠĠĠĠĠĠĠĠĠĠĠĠĠĠĠĠĠĠĠĠĠĠĠ	11021
neg	11020
\;	11020
)",	11020
ĠStatistical	11020
Therefore	11019
Ġpromotes	11019
Ġessence	11019
Sol	11018
##rator	11016
##ending	11016
Ġmol	11015
##ento	11013
Ġcontributes	11013
Ġtons	11012
ĠBern	11011
Ġloops	11010
Ġfatigue	11010
independent	11009
Ġdebug	11009
Ġadaptive	11009
)->	11008
Ġundergo	11008
Ġspecification	11008
Ġscared	11008
ĠJerusalem	11008
VERSION	11007
##iza	11007
Ġbabies	11007
Ġwashing	11006
Ġsed	11006
ĠCloud	11005
Ġvaccination	11004
ĠEPA	11003
##ief	11000
##FP	11000
Ġloving	10998
Ġrental	10997
--------------------	10995
##Con	10995
Ġfoster	10995
reset	10993
##fil	10992
Met	10990
ĠSafety	10989
ĠBackground	10988
Ġflesh	10984
Day	10983
Ġcant	10983
ĠShare	10982
ĠLar	10982
Ġapple	10979
ĠPad	10979
ĠExchange	10975
##Definition	10973
Ġkinetic	10973
Ġextensions	10972
bg	10971
ĠÐ¿Ð¾	10971
drop	10970
Ġantenna	10966
dy	10965
##ached	10963
Ġisomorphism	10963
##imp	10962
ĠFourier	10962
##yon	10961
Ġ167	10961
bigl	10959
##UB	10959
Ġaqueous	10959
##icated	10956
##dro	10955
ĠSummary	10955
##yu	10953
Ġproposals	10952
ĠCle	10952
Ġclustering	10951
##vert	10948
ĠRoute	10948
Ġrejection	10947
Ġinstability	10947
Ġtrailer	10944
ĠDetroit	10943
RR	10942
ĠWright	10942
URL	10941
Ġinch	10941
Ġextraordinary	10941
##gers	10939
225	10937
ĠÙ	10932
Ġconcentrated	10932
##Properties	10930
Ġdelta	10930
ĠCAN	10930
Ġ(âĪĴ	10930
Ġ166	10927
Ġmus	10926
Conc	10924
##pling	10924
ĠBT	10923
book	10922
Ġharmful	10922
##ove	10921
##gment	10921
Ġpt	10920
Ġbeneath	10920
grade	10919
##RF	10919
}))	10916
Ġweighted	10915
Ġuniformly	10915
Ġpharmaceutical	10915
Ġgit	10914
Ġdistinguished	10913
ĠEmpire	10913
##Async	10911
Ġinstructed	10911
ĠOntario	10908
ĠInput	10908
emphasis	10907
##Description	10907
Ġdrinks	10907
##rell	10904
Tom	10903
Ġlegacy	10903
Ġtransfected	10902
ĠAustin	10902
##ience	10900
Ġheated	10900
ĠAnt	10900
##cz	10899
were	10897
Ġoz	10897
##EW	10895
Ġsons	10895
ĠThompson	10895
216	10894
vt	10893
Ġalkyl	10893
ĠEnt	10893
Ġsubm	10892
Ġanalog	10892
ĠPop	10891
Miss	10890
Ġovers	10890
Ġinadequate	10889
ĠRaj	10889
[:	10885
Ġ$_	10884
Ġseg	10882
##ogn	10880
Ġnegatively	10879
##Ns	10878
##Inter	10878
183	10877
Ġwrapped	10877
Ġjunction	10877
ĠPrint	10875
ĠHamilton	10874
ĠPK	10873
Ġdiffuse	10872
Ġcooked	10872
}$]{}	10871
Ġcriterion	10871
ĠToo	10870
controller	10868
Ġstocks	10868
Ġqueries	10868
Ġsynthesized	10867
Ġinfluences	10866
##erm	10865
months	10864
Ġbacked	10863
ĠTN	10863
##Å	10862
Ø	10860
ÂĮ	10859
##WS	10859
ĠTam	10859
watch	10858
Wal	10858
Home	10855
##*\	10854
Ġabroad	10854
cas	10852
ĠSweden	10851
Ġtranslated	10850
Ġsurveys	10849
##Ð½	10845
##tein	10845
ĠFlu	10845
Ġdil	10844
artifactId	10843
>'	10841
##istics	10839
##core	10839
Ġpolyp	10839
Ġautomated	10838
ĠâĨĴ	10836
##Space	10835
ĠBou	10835
Ġproducers	10834
ĠAnthony	10834
166	10833
Ġhopefully	10833
DT	10832
Ġ----------------------------------------------------------------	10831
Ġdeciding	10829
038	10828
ĠInterest	10828
ĠFall	10827
submit	10825
Ġhepatic	10824
pref	10822
names	10821
##oint	10821
}{(	10819
xsd	10818
eff	10818
ĠCondition	10817
take	10816
\](	10815
##iona	10814
Ġdependency	10814
Ġcervical	10813
ĠNic	10811
Est	10810
##onia	10809
Ġreleases	10809
))\	10808
Ġresection	10808
##aps	10807
our	10806
Ġwhilst	10806
Des	10804
Ġvalidated	10804
Ġstatutes	10804
Ġdrew	10804
ĠIron	10803
##ago	10802
Ġenterprise	10801
ĠDy	10801
Ġlanding	10800
##JS	10798
##ä¸Ń	10797
##ific	10796
Ġcomprised	10795
Ġsensory	10794
Ġrelax	10794
ĠLORD	10794
Ġoccupation	10793
##ater	10791
Ġ}$	10791
##lex	10790
Ġbou	10790
Ġtoll	10788
Ġhumor	10787
ĠGov	10785
Ġ000	10785
##hem	10784
Ġacceleration	10784
ĠDean	10784
Plan	10783
Ġstake	10783
Ġec	10783
ĠLED	10782
Ġbiopsy	10779
##UA	10778
Ġutilizing	10778
Ġ176	10777
##obe	10776
Ġpediatric	10776
Ġmyocardial	10776
Ġbru	10775
Ġbilateral	10775
Ġethics	10770
Ġgang	10769
Ġridiculous	10768
Ġplotted	10768
mathop	10767
,\,	10767
##ocation	10765
##hma	10764
##eak	10762
="-	10761
Ġeryth	10761
##gre	10759
149	10758
Ġpsychiatric	10758
Ġhouseholds	10758
ĠOri	10758
Ġpolls	10756
Ġcann	10756
Ġrevision	10755
bel	10754
Ġfavourite	10754
Sn	10753
##DM	10753
ĠPhil	10753
unique	10752
ox	10752
Ġdiscipline	10751
Common	10750
Ġunstable	10749
Ġtunnel	10749
ĠFDA	10749
##Right	10746
Ġheaders	10746
Ala	10745
Case	10744
Jo	10743
lin	10742
Ġcollecting	10740
##NAME	10738
Ġeliminated	10738
Ġdump	10738
##El	10737
##ressed	10736
Ġwx	10736
LOG	10735
HC	10734
##raph	10734
Ġrestored	10733
sun	10731
Ġshaped	10731
Ġdiss	10731
Ġfractions	10730
##rand	10729
Ġconsume	10729
READ	10728
Ġconsist	10728
extra	10727
download	10726
##ales	10726
Ġbu	10726
Ġterrorism	10725
ĠDemocrat	10725
Ġhill	10721
##rick	10720
Ġlane	10720
Ġcharacterize	10720
ĠINC	10720
Ġhabits	10719
hpp	10717
resistant	10716
Ġvec	10715
Ġree	10715
Ġmapped	10715
Ġbeg	10715
ĠGuard	10715
Ġpic	10714
Ber	10713
ĠStock	10713
##Pool	10712
Ġmicroc	10712
prom	10711
ĉĉĉ	10711
BIT	10710
##page	10710
Ġeg	10710
---|---|---|---|---|---|---	10709
hbox	10708
##thy	10707
##iving	10707
Ġunto	10707
##mos	10706
##pack	10704
Inf	10702
Ġharsh	10702
air	10698
211	10698
Ġspare	10697
=================================	10696
##Down	10696
chain	10695
Ġopposing	10693
smallcaps	10691
ĠFourth	10691
##tk	10690
ĠCru	10690
Pat	10687
##isc	10685
Ġups	10685
Ġsil	10685
\[[@	10684
##oen	10683
##osome	10682
Ġcelebrate	10682
##ViewController	10681
Ġmarch	10679
&#	10677
Ġenrichment	10677
Ġcalibration	10676
Following	10675
Ġquestioned	10675
groupId	10673
##ĊĠĠĠ	10673
Ġgrave	10673
Ġgrows	10672
Ġmounting	10670
Inv	10669
Ġaluminum	10669
events	10668
ĠTech	10668
DP	10667
Ġspell	10667
ĠRs	10666
##Obj	10664
Ġdt	10663
ĠLady	10663
##GO	10662
Ġdemanding	10661
track	10660
Ġcomedy	10660
Ġcalc	10660
##Engine	10659
##AK	10659
Ġregards	10659
Ġdeposited	10658
Ġrounds	10657
Ġencouraging	10656
Ġdisruption	10655
Ġenabling	10653
ĠMarine	10653
163	10651
Ġexploring	10651
Ġconv	10650
Ġchemistry	10650
Ġwars	10649
+)	10648
\{\	10646
driven	10645
##for	10645
Public	10644
Ġscandal	10643
lb	10642
RC	10642
##cap	10642
ĠTur	10642
ĠSept	10642
ĠEarly	10642
##uj	10640
čĊčĊĠĠĠĠĠĠĠ	10640
sync	10639
SR	10639
Ġmultic	10638
Ġaden	10638
ĠCarter	10638
Media	10637
Ġelite	10637
Ġillustrates	10636
203	10635
ĠOlympics	10635
Ġfears	10633
editor	10632
Black	10632
Ġvis	10630
Ġthromb	10630
Ġoffenses	10630
ĠPlant	10630
Mod	10629
ĠLan	10629
Ġrefugees	10627
ĠRR	10627
ĠGor	10627
ĠBeth	10627
ĠFB	10626
WE	10625
Ġprobes	10625
Ġann	10625
##ault	10623
Î¼	10622
158	10622
Ġremembered	10622
Control	10620
##cca	10620
ĊĊĠĠĠĠĠĠĠĠĠ	10619
SF	10617
Ġfoam	10617
##Ð¿	10614
resp	10611
##otion	10611
War	10610
Though	10610
Ġexamining	10610
Ġequivalence	10610
##FL	10609
$),	10608
ĠStaff	10608
0011	10607
Ġrestart	10607
GB	10606
Ġcumulative	10606
Ġconscious	10606
ĠCast	10606
Index	10605
##iki	10604
##UND	10604
CU	10603
)\\	10602
Ġassessing	10602
ĠINTO	10602
its	10599
Ġcoaches	10598
ĠAtlanta	10597
Ġimproper	10596
Ġdining	10596
à¬	10595
##anc	10595
Ġdemographic	10595
Ġwalks	10594
ĠPot	10594
Ġjournalists	10593
ĠSY	10593
##pine	10592
Ġcasual	10592
ĠSeven	10591
Ġmetals	10590
ĠPay	10590
Ġ450	10588
ly	10587
Ġcoronavirus	10587
Ġvas	10586
ĠCould	10585
their	10584
##roc	10583
Methods	10581
ĠClose	10581
Ġexpecting	10580
Ġanticipated	10579
ĠLarge	10579
Ġbitcoin	10578
ĠANOVA	10577
Config	10576
##Option	10574
North	10573
Ġforcing	10573
Ly	10571
eth	10569
##Host	10568
shift	10567
Ġcrude	10566
Ġopponents	10564
ĠChen	10560
ĠGill	10558
##oop	10557
annotation	10556
Ġfol	10556
ĠDeputy	10556
Ġic	10555
##come	10553
Ġedited	10553
ĠLevel	10553
Ġallocated	10551
ĠBarack	10550
##bach	10546
##Fi	10545
Ġintimate	10545
TB	10543
ĠHAVE	10543
Exc	10537
Chi	10537
167	10537
Ġmechanics	10537
##Tra	10536
Ġchampionship	10536
ĠManchester	10536
ĠFestival	10535
Ġpreceding	10534
ĠHem	10534
Ġelevation	10533
Ġ169	10533
Sam	10531
ĠContract	10530
##Go	10529
){\	10528
Multi	10527
##ann	10527
##Project	10527
ĠLevi	10525
Mintage	10524
##mus	10524
Ġconstitution	10524
Ġslower	10523
Ġscar	10523
Ġauthentication	10522
ĠDur	10522
Ġmountains	10520
##Child	10518
##Vector	10517
Ġdrum	10517
tf	10516
radius	10515
##HR	10513
Ġgeometric	10513
Ġgarage	10513
ĠFab	10513
##part	10512
Ġprov	10511
ĠWL	10509
##with	10507
mock	10506
bigr	10504
ĠMoscow	10503
ĠGreece	10503
ä¸	10502
##ogenesis	10502
Ġbump	10502
Ġbandwidth	10502
##ÙĨ	10501
Const	10497
ĠNative	10496
ĠEss	10496
Ġ159	10496
hard	10495
##yi	10495
##odo	10495
tp	10492
Ġ\+	10492
Ġtor	10491
Ġbur	10490
ĠLaboratory	10488
Ġenum	10487
miR	10486
##GF	10486
ĠSupplementary	10485
Ġanalogous	10484
Ġ%}	10484
Ġaxial	10483
##KA	10482
Ġdisposition	10482
ĠGil	10481
*),	10480
Ġcontainers	10480
\}}	10479
##lect	10479
Ġantibiotic	10479
Ġmicros	10478
cluster	10477
Ġnovo	10477
Ġhosted	10476
Ġqualify	10473
Ġproductive	10472
QU	10468
Ġallies	10468
Ġbypass	10467
Ġsubscription	10466
=========================	10465
Ġjs	10465
*:	10463
ĊĊĊĠĠĠĠĠĠĠĠĠĠĠĠĠĠĠĠĠĠĠĠĠĠĠĠĠĠĠĠĠĠĠĠ	10463
##opo	10462
Ġvirtue	10461
Ġcorners	10460
mer	10458
##block	10458
Ġpancreatic	10455
Ġavoiding	10455
ĠPatrick	10455
##../	10454
Build	10453
ĠSTAT	10453
##ift	10451
Ġmaximize	10451
general	10449
Ġbubble	10449
ĠRid	10449
ĠCONDITIONS	10447
##}{	10446
Ġswim	10446
Ġsimplicity	10446
##cam	10445
##Descriptor	10445
##mc	10444
Prov	10443
Ġdict	10443
##erved	10441
##XT	10441
##Float	10440
Ġsummarized	10440
Ġsitu	10439
ĠDoctor	10437
Ġreins	10436
Ġpassengers	10435
Ġoverview	10435
Ġborders	10435
##OA	10433
Ġregulating	10431
plus	10430
##rob	10429
Ġthoroughly	10429
om	10428
Ġprecedent	10428
ĠLB	10428
178	10427
ĠStatus	10427
|^{	10426
ĠRevolution	10426
ĠLL	10426
Ġpropagation	10425
Ġagrees	10424
##Edit	10423
Ġrod	10423
Ġhandful	10422
Ġwhereby	10421
Ġalloc	10421
ĠCr	10421
Ġfiltered	10419
LL	10416
##+-	10415
Ġneutron	10415
Ġadequately	10415
##gor	10414
Ġhike	10414
Ġattitudes	10414
Target	10413
Ext	10413
##ÙĦ	10412
##Access	10411
##č	10409
:'	10408
Ġoutlined	10408
external	10407
##pur	10407
##ear	10407
ĠWR	10404
Ġmalignant	10403
##sche	10401
##oles	10400
ĠCountry	10399
##hold	10395
Ġrecipient	10395
Ġsurvived	10394
Ġbenz	10394
Ġtremendous	10393
Ang	10392
##cro	10392
##ç»	10390
ĠChem	10390
##space	10389
##not	10389
Ġcoalition	10389
Spe	10388
)>	10388
Ġclone	10388
Ġcd	10388
ĠRick	10387
##Queue	10386
Ġauthentic	10386
ĠBus	10385
Ġ173	10385
TIME	10384
##dem	10384
##URI	10384
Ġdirty	10383
ĠSimple	10383
Ġcam	10382
##NP	10381
Ġhack	10381
##chen	10379
Ġcontinuum	10379
present	10378
AG	10376
ĠPack	10375
ĠAx	10375
##ART	10374
ĠEs	10374
ĠAlb	10370
Ġ"'	10370
Ġperformances	10369
ĠWarren	10369
##uted	10366
##itch	10366
##iu	10363
Ġpray	10362
##ycl	10361
Ġquest	10361
ĠDVD	10361
1981	10360
Ġbeds	10360
parallel	10359
Ġdeadly	10359
people	10358
Ġmed	10358
Ġlean	10358
Ġproving	10357
Ġqualitative	10356
Ġmel	10356
Ġcyber	10355
##ologist	10351
Ġsensing	10351
Ġlimb	10351
ĠWAS	10351
##Init	10350
Ġsymptom	10349
ĠGh	10347
ĠDL	10347
Ġluminosity	10344
subject	10343
padding	10343
ĊĠĠĠĠĠĠĠĠĠĠĠĠĠĠĠĠĠĠĠĠĠĠĠĠĠĠĠĠĠ	10342
Ġtout	10341
Full	10339
##oga	10338
Port	10334
##Post	10333
Ġappellee	10332
Ġtick	10331
Ġinteractive	10330
Ġ(.	10330
Ġhr	10329
##inar	10328
Ġorganisation	10327
##ques	10326
032	10325
Ġinteracting	10325
ĠAlaska	10325
props	10324
##utable	10324
large	10323
Ġbrutal	10322
ĠDigital	10322
ĠBat	10320
),$$	10318
##rain	10318
Ġpreferences	10316
Ġhighway	10315
##rÃ©	10314
ĠEconomic	10313
ĠNation	10312
typename	10311
029	10310
##ely	10310
Ġcritics	10309
ĠTru	10308
Row	10307
Ġcrown	10306
nc	10304
##ologies	10304
Ġdye	10304
Ġax	10303
ĊĉĠĠĠĠĠ	10303
Ġquotes	10302
:"){	10301
Ġcampaigns	10300
Ġmaintains	10299
gs	10298
##ï	10297
Ġforeach	10297
something	10295
con	10295
Eq	10294
Ġ174	10294
Ġbat	10293
Ġspecialized	10292
ĠPs	10292
ĠRN	10291
ĠRM	10291
Cou	10289
##iment	10289
ĠÅ	10289
Ġbesides	10289
Ġbeans	10289
##DNA	10288
ĠTaiwan	10288
##rill	10287
Ġfixing	10287
##acity	10286
ĠDF	10286
Ġproductivity	10285
Ġembrace	10285
Ġcourage	10285
ĠWard	10285
ĠBASIS	10285
[[	10283
##abe	10283
##ook	10282
Ġnotable	10282
Ġkeyboard	10282
Ġconnectivity	10282
ĠMF	10281
ĠAnimal	10280
ĠJose	10279
Ġgoverned	10277
##ãģ§	10276
ĠDIS	10275
ĠVisit	10273
Ġcompiled	10271
ĠRat	10271
ĠFranklin	10270
Ġcurrents	10267
##BB	10265
Ġoct	10264
SEC	10263
##Ge	10263
Conclusion	10262
Ġru	10262
ĠNos	10261
``	10260
##UF	10260
Ġproximity	10260
Ġwinds	10259
ĠĠĠĠĠĠĠĠĠĠĠĠĠĠĠĠĠĠĠĠĠĠĠĠĠĠĠĠĠĠĠĠĠĠĠĠĠĠĠĠĠĠĠ	10259
feed	10258
ĠBasic	10258
Ġaddiction	10257
Ġnuts	10254
Å	10253
Ġcomic	10252
Ġreversal	10249
Ġlisting	10249
Ġgrasp	10249
Ġmorph	10248
Ġengines	10248
pcbi	10247
Ġtimeout	10247
Ġ"_	10247
Ġinterp	10246
Ġconvince	10246
ĠMine	10246
Ġharassment	10243
.""	10242
Ġoptimize	10242
Ġknock	10242
ĠComputer	10242
article	10241
ĠCov	10240
##ange	10239
Ġrolled	10236
Ġelementary	10236
norm	10235
exit	10235
="{	10234
##bul	10234
Ġidentifier	10233
Ġbeating	10233
Form	10232
##Us	10232
Ġautomobile	10232
ĠPER	10231
Ġ(_	10230
Ġprom	10229
Ġpotentials	10227
Ġain	10227
ĠActive	10227
Pop	10224
ĠReference	10224
Ġmeters	10223
ĠStatement	10222
Ġjunior	10221
yy	10220
Game	10220
-,	10220
Ġequals	10220
Ġbanking	10220
gro	10219
Mag	10219
##istent	10216
Ġenriched	10216
Ġsituated	10215
##He	10214
ĠGulf	10214
Ġperforms	10213
,*	10212
Ġchampion	10212
Ġbehave	10211
ĠGreg	10208
Ġspite	10206
ĠCOR	10206
##inary	10205
Ġrecruited	10204
Ġdevoted	10204
water	10203
##isting	10203
Ġcute	10203
ls	10202
Ġburied	10202
Ġpunch	10201
ĠBody	10201
Ġconform	10200
##iya	10195
##emic	10195
Ġdefeated	10193
Ġcytokine	10193
alt	10192
##onal	10192
Ġindicators	10192
##}(	10189
Ġtransmit	10189
Ġpronounced	10189
structure	10188
##Ã£o	10186
Det	10185
##wards	10185
##iw	10185
##dk	10184
gc	10183
Ġshoulders	10183
}>	10182
Ġgaming	10182
ĠLink	10181
Life	10178
ĠAtlantic	10175
##oin	10174
Real	10173
##uction	10173
ĠDeath	10173
ĠClean	10171
Ġextensively	10170
##Files	10169
Ġparental	10169
Ġsaline	10168
##ÙĬ	10167
Ġ[$\	10166
ĠStory	10165
ĠRh	10164
Ġsac	10163
Ġmineral	10163
##HD	10162
035	10161
Ġpathological	10160
Hon	10159
Ġvolunteer	10159
Ġracist	10159
##tp	10158
##omo	10158
Ġthemes	10158
Ġchol	10155
ĠMun	10154
221	10153
##uy	10153
Ġtub	10153
TP	10152
Ġdeployed	10151
Ġirrelevant	10149
Ġcomme	10148
ĠLab	10148
Ġstrikes	10147
ĠmiRNA	10147
Ġdielectric	10147
clock	10146
##erred	10146
Ġabnormalities	10146
##ÙĪ	10145
Ġracing	10145
Ġprocedural	10145
Ġceremony	10145
Ġtouched	10144
Ġblend	10144
Ġministry	10143
ĠDet	10143
Ġrelay	10141
Ġanalytic	10141
Ġconsult	10140
ĠMN	10140
role	10139
##OF	10139
ĠChan	10139
ĠBed	10139
##tag	10138
Ġascending	10138
##phone	10137
Ġportable	10137
Ġcirculation	10136
).\	10135
Sorry	10134
Ġgirlfriend	10134
protected	10132
mor	10132
Ġresponding	10129
Ġconceptual	10128
Ġcardio	10128
Ġov	10127
cv	10126
Ġabused	10126
##pot	10124
Ġprintf	10124
##ued	10122
##EST	10122
ĠNMR	10120
Ġdepicted	10117
inst	10116
##roph	10116
Ġkiss	10116
Ġcinema	10116
Ġarrangements	10116
Ġlap	10115
ĠLac	10114
##æľī	10111
Ġspike	10111
Ġconsequently	10110
ĠFast	10110
GC	10107
ĠTed	10106
pb	10105
Os	10104
Ġprote	10102
Ġprof	10100
Ġexercises	10099
ĠEvidence	10099
Ġranks	10098
Ġbullet	10096
}{{\	10095
Ġspiral	10095
##Ar	10094
Ġzones	10094
Ġputative	10094
Ġimplicit	10094
goto	10093
Bur	10090
Ġaccepting	10090
169	10086
##We	10086
ĠAud	10085
Ġhunting	10084
Ġroyal	10083
login	10082
Ġtune	10082
UTF	10081
ĠYES	10079
ĠHH	10079
##kn	10078
Ġisot	10078
Ġfeaturing	10078
bt	10076
""	10076
##GM	10075
##ABLE	10075
Ġreproductive	10074
ĠRobinson	10074
ĠAdams	10074
##ILE	10073
ĠNan	10073
ĠBD	10073
Op	10072
National	10071
Ġinterfaces	10071
Ġwishes	10068
Ġadhesive	10068
Help	10067
##DP	10067
Still	10066
##vs	10063
Ġgaps	10063
ĠWars	10063
Ġasymptotic	10062
##ality	10061
Ġtransplant	10060
ĠDead	10060
bn	10058
DES	10058
Ġdecree	10058
ĠDal	10057
Ġdemanded	10054
Meanwhile	10053
##bling	10053
ĠBuild	10053
Ġpound	10052
ĠInternal	10052
plane	10050
Ġtrips	10049
Ġparadigm	10049
Ġmist	10047
ĠXI	10047
##ÛĮ	10046
ĠHon	10046
Ġrabbit	10045
čĊĠĠĠĠĠĠĠĠĠ	10045
Ġsham	10042
jp	10041
Ġheaven	10041
Ġtent	10040
ĠProm	10040
ĠReserve	10038
owner	10036
Ġnotification	10036
Ġforgotten	10035
Stop	10034
Paul	10034
Ġgaze	10033
Ġdeputy	10033
Ġsophisticated	10032
Ġcompositions	10030
##kers	10027
tc	10026
fast	10024
ĠHot	10024
##bell	10023
##zan	10022
Ġalgebraic	10022
testing	10021
jquery	10021
ĠWang	10021
Ġhar	10019
Ġii	10016
##rah	10014
middle	10011
##olar	10011
ĠTy	10011
Ġcyclic	10010
Ġsearches	10009
Ġdiscount	10009
Ġconfigure	10009
##æľ	10008
ĠFifth	10008
Ġforecast	10007
ĠProcedure	10007
##oro	10006
##illo	10006
ĠEF	10005
Exp	10003
ĠArthur	10001
##play	10000
##ender	10000
Ġbiochemical	9999
AV	9998
Ġspreading	9997
Ġslip	9997
Ġcentered	9996
ĠEu	9996
TL	9994
##Process	9994
Ġcontradiction	9994
224	9993
##orts	9993
Ġrestrict	9987
Ġbail	9986
ĠPap	9985
Ġarrows	9984
dw	9983
Ġbones	9983
ĠWhit	9983
Ġsuccessive	9982
ĠBaker	9982
History	9981
##ool	9981
ĠBeijing	9981
)]{}	9980
Ġaccord	9980
Button	9977
##ÑĤÐ¾	9977
Ġpension	9977
)},	9976
ĠOH	9976
mouse	9975
prov	9973
ĠVP	9972
Ġvoices	9971
Users	9970
##MB	9969
Ġprohibited	9969
##aze	9968
##ards	9966
ĠTL	9965
Several	9963
ĠVari	9963
Ġgenerous	9962
Ġfaithful	9962
Ġaccompanying	9962
mac	9959
Ġboom	9959
Ġsongs	9958
Ġcalculating	9957
isa	9956
Ġbenchmark	9956
ĠÂ	9953
ĠShin	9953
Ġclicking	9951
Ġneglect	9950
ĠHel	9950
'])	9949
##press	9949
ĠWARRANTY	9949
ĠRecord	9949
Ins	9948
ĠâĪ	9947
Ġfriction	9947
Ġrip	9946
ĠEB	9946
ĠBrand	9946
Â¡	9945
Ġ%>	9945
third	9943
##ches	9943
Ġante	9943
ĠKings	9942
233	9941
Ġciting	9940
Ġassembled	9940
Ġruntime	9939
ĠPep	9939
##rav	9937
##igned	9936
Ġpale	9936
##here	9935
Ġgently	9935
##iatric	9934
ĠTGF	9934
ĠCard	9934
},$$	9933
##ĠĠĠĠĠĠĠĠĠĠĠĠĠ	9933
Ġtemple	9933
ĠDad	9932
##oul	9931
Ġdeco	9931
>>>	9930
ĠBlog	9929
Ġadmits	9928
convert	9925
cloud	9925
ĠSecret	9925
ÂĴ	9924
Ġty	9922
Ġirregular	9921
ĠMMP	9921
ĠGlu	9921
arrow	9920
Ġtransplantation	9920
ĠPhase	9920
Ġpathogenesis	9919
ĠModi	9919
Ġ[âĢ¦]	9917
264	9916
Length	9915
Ġultrasound	9915
Ġdough	9915
Ġfreeze	9914
Ġpressing	9912
Ġinfusion	9912
Ġ##	9912
čĊčĊ	9910
ĠProduct	9909
Ġ404	9909
##Parent	9908
##Directory	9908
Ġcotton	9908
Status	9907
Ġcattle	9906
ĠMobile	9906
Ġoutbreak	9905
##DL	9904
Ġpredominantly	9904
##Ùħ	9903
##EY	9903
Ġalias	9903
ĠInn	9902
ĠDES	9902
##idine	9900
ĠHir	9900
##lers	9899
##RNAs	9899
Ġspill	9899
ĠNav	9899
Ġteaspoon	9897
Ġwaited	9896
Ġportfolio	9896
##wall	9895
Ġwallet	9895
Ġunders	9894
Ġensemble	9893
Ġnucleotide	9892
##ols	9891
ĠWor	9891
ĠSave	9891
ĠCox	9891
Ġsoccer	9890
##hot	9889
##onc	9887
"],	9887
ĠLamb	9887
sr	9886
Ġrevenues	9886
Ġquantified	9886
Release	9885
Ġguided	9885
##enc	9884
ĠBattle	9884
##ÐµÑĤ	9883
##oS	9883
ĠJul	9883
Ġstructured	9880
ĠPref	9880
ĊĠĠĠĠĠĠĠĠĠĠĠĠĠĠĠĠĠĠĠĠĠĠĠĠ	9880
Ġphotographs	9877
assign	9876
proto	9875
ĠSie	9875
Ġ1971	9875
##BER	9874
Ġquark	9874
ĠKennedy	9874
ĠLip	9873
Ġadvise	9872
Point	9870
Ġimproves	9869
Ġemotion	9869
##omer	9868
Ġcorrespondence	9867
ĠMetro	9867
pattern	9863
##erson	9861
Ġtwist	9860
ĠRoll	9860
1979	9859
##vest	9859
Ġgifts	9859
Ġrealm	9858
======================	9857
Ġconsiders	9857
Ġwooden	9856
Ġvapor	9856
Ġnod	9853
Ġanalyzing	9853
+(	9852
Ġtweet	9852
Ġinjunction	9852
entity	9851
ĠACC	9850
Ġot	9849
ĊĠĠĠĠĠĠĠĠĠĠĠĠĠĠĠĠĠĠĠĠĠĠ	9849
Ġskilled	9848
ĠAPP	9848
Ġtypename	9846
ĠCommerce	9846
Ġarterial	9845
="@	9844
Ġpriest	9844
prec	9842
Court	9842
Ġmanufactured	9842
Ġhomeless	9841
##ores	9840
Ġstimulated	9840
Ġseverely	9840
dest	9839
##irc	9839
Ġsoluble	9837
##urg	9834
ĠRoom	9834
ĠDelhi	9834
Ġ'.	9834
ĠKentucky	9833
Ġurged	9832
Ġcollateral	9832
memory	9830
PRE	9830
Ġlogistic	9829
##ij	9827
ĠSide	9827
Ġ192	9827
ĠEXPECT	9825
Ġstrengthen	9824
ĠPAC	9823
Ġ900	9823
income	9820
##ggle	9820
GM	9818
[...]
