.	51031219
Ċ	48043891
,	43724307
Ġthe	41300246
Ġof	23447630
Ġand	19928980
Ġto	19262792
-	15910076
Ġa	15475318
Ġin	14147857
_	9921652
Ġis	9697106
##s	8679653
Ġ(	8467297
Ġthat	8319551
Ġfor	7475339
)	7324926
:	6897552
Ġwith	5757498
1	5583651
(	5451734
2	5393583
Ġ"	5206300
Ġon	4925327
/	4600730
Ġas	4487522
Ġbe	4363888
Ġwas	4359223
Ġit	4296507
ĠI	4087315
Ġby	3937399
Ġare	3893211
Ġ=	3875764
;	3710834
Ġ-	3570288
ĠThe	3417514
Ġthis	3395785
0	3357991
Ġat	3298718
Ġfrom	3297906
Ġyou	3263446
Ġ$	3256921
âĢĻ	3205650
Ġor	3198014
{	3166895
Ġnot	3163991
Ġ\	3126188
ĉ	3082552
*	3019513
Ġhave	2950351
Ġan	2807870
's	2794505
s	2764588
\	2728589
3	2692685
}	2684928
"	2620809
Ġ0	2541298
##ing	2475002
ĊĠĠĠ	2468083
>	2464363
Ġ*	2430803
Ġwe	2307585
##e	2163965
Ġcan	2131830
Ġwere	2087093
##ed	2045616
Ġ	2011338
."	1979733
Ġ1	1972054
Ġwhich	1953750
="	1915275
Ġhas	1882104
$	1856833
4	1826611
Ġ+	1807745
Ġ{	1786493
Ġbut	1772088
ĊĠĠĠĠĠĠĠ	1714571
Ġhe	1711797
Ġwill	1707640
The	1700996
).	1690483
Ġall	1656263
?	1644333
t	1635571
Ġif	1622423
ĊĠ	1575080
Ġhis	1571296
Ġone	1567796
x	1542143
Ġ2	1534958
5	1525481
##d	1511506
Ġthey	1506917
##a	1440410
a	1438780
Âł	1412560
Ġtheir	1408416
##er	1404286
Ġmore	1398296
I	1376379
##y	1361655
A	1342819
**	1323205
##t	1316221
_{	1288052
Ġhad	1279809
n	1277991
Ġ$\	1265702
Ġbeen	1263749
Ġalso	1227988
Ġyour	1226445
Ġ<	1225084
d	1219401
##n	1209746
##ly	1208052
i	1202998
),	1195284
<	1186382
);	1184155
##r	1181413
Ġabout	1175740
Ġwhen	1163735
Ġwould	1158863
Ġout	1147607
Ġso	1141706
Ġtime	1138478
B	1137470
Ġthere	1134678
't	1121211
ĠIn	1121157
]	1117770
Ġother	1110793
Ġ3	1105848
Ġmy	1086530
##o	1086257
=	1079759
ĠâĢľ	1078687
Ġwho	1075782
Ġdo	1059798
ĠA	1053446
Ġno	1049011
Ġthan	1039365
'	1035284
^	1033702
Ġ[	1026257
Ġup	1020346
##0	1014052
##S	1006178
Ġ'	995143
6	993247
ĠĠ	988940
Ġits	982825
Ġinto	980501
Ġ&	971961
Ġ}	968511
[	964199
b	953032
C	952806
##i	947288
Ġour	945662
Ġher	940980
Ġonly	939429
Ġtwo	935711
Ġsaid	925776
##l	923547
p	906528
Ġwhat	906511
Ġlike	904985
ĊĠĠĠĠĠĠĠĠĠĠĠ	904596
S	899734
Ġany	897040
Ġsome	886668
Ġnew	882400
Ġmay	880813
ĠIt	876679
c	873076
ĠThis	870410
8	867225
k	847323
Ġfirst	847159
Ġsuch	847080
Ġ4	833176
m	831850
Ġthese	829162
##al	827990
7	815743
%	804295
Ġget	802385
Ġthem	798440
##es	793852
f	781842
ref	780852
Ġuse	777040
Ġthen	774086
Ġjust	767884
Ġme	766703
Ġafter	765513
ĠWe	763836
Ġ5	762825
Ġbetween	756703
Ġover	754812
##on	752847
e	737068
type	736400
g	725878
Ġused	720026
Ġwhere	716071
Ġcould	714447
Ġdata	711946
.,	709116
F	702169
+	689836
ĊĠĠĠĠĠ	686399
Ġpeople	685163
R	684876
##T	682308
##C	676319
in	675893
h	673685
##D	672814
9	672604
Ġshe	670830
",	669125
Ġusing	663039
##A	662065
</	661341
D	658400
Ġbecause	654689
j	639182
r	636625
T	631671
##m	626467
E	626147
Ġshould	625445
{\	619416
ĊĠĠĠĠĠĠĠĠĠĠĠĠĠĠĠ	616800
Ġwell	615650
Ġ[@	614700
10	613315
#	610454
##8	605887
Ġv	605501
Ġhow	604288
Ġ.	603705
Ġmost	598755
Ċĉ	596396
##k	596304
Ġi	595821
}\	595423
##7	595001
##in	592195
Ġeach	590850
Ġcase	588530
){	587662
##3	584460
Ġhim	582980
##R	578441
Ġ|	578021
Ġ10	576180
H	573895
!	571781
Ġclass	568880
##6	568875
ĠHe	567584
In	565542
Ġunder	562447
##P	562369
##9	558682
v	556987
##1	555256
Ġmake	554795
##2	551652
Ġwork	545714
##4	545186
Ġthrough	543767
##p	541222
Ġ@	539565
##M	539225
##\	539019
Ġsame	538195
Ġway	536319
ĊĊ	536056
##5	533269
##ti	530390
Ġsee	527851
##x	525358
Ġnow	525073
Ġeven	524846
Ġthose	522149
->	520858
##h	520198
Ġyears	519984
Ġvery	519947
frac	519149
Ġboth	516651
##g	516574
Ġknow	515676
ĠF	511066
Ġ_	510831
u	509114
Ġset	508814
M	506333
Ġbeing	505755
P	502663
Ġdid	502456
y	501427
()	499483
Ġmany	499021
##ic	498195
Ġbefore	497915
Ġneed	497898
~	496954
Ġnumber	496500
Ġdifferent	494713
L	494648
##ation	494099
Ġright	491344
Ġreturn	490676
Ġback	490332
?"	488516
ĠU	487488
Ġ6	486355
ĠC	486158
##c	486068
Ġhere	484289
N	481867
âĢī	479595
##L	477241
Ġdon	477090
](#	476537
">	472146
K	471936
right	470764
Ġus	468663
::	466828
}$	465501
Ġp	465107
left	464637
##ers	464581
ĠĠĠ	460438
ĊĊĠĠĠ	460185
Ġmade	458773
Ġvalue	458488
fig	453197
Ġ\[[@	452581
Ġwhile	451746
ĠâĢĵ	450309
Ġ**	449080
://	448977
ĠS	448950
##E	446823
Ġhigh	445892
##F	445814
Ġsystem	445639
Ġfound	442404
âĢĿ	440239
Ġmuch	436039
##us	435774
to	435314
##an	433716
Ġgood	433165
Ġstate	433086
Ġstudy	432234
.âĢĿ	429213
Ġthree	429134
Ġx	428892
Ġfunction	428043
":	426226
ĠIf	425614
Ġwant	425550
12	424832
com	424686
the	423304
Ġpatients	423185
Ġpublic	422941
##b	422663
We	422578
z	422043
ĠFor	420851
Ġend	419355
Ġwithout	418612
Ġcourt	417849
Ġduring	417447
Ġ//	416792
Ġcells	415973
--	415918
##z	414438
ĠLet	414196
w	413249
##B	413142
Ġname	411481
##ta	411336
Ġdoes	407969
##able	407650
What	407106
_{\	406677
Ġthink	405586
Ġorder	403284
Ġ:	403001
X	402610
,"	400787
##en	400747
Ġpart	400098
Ġyear	399810
W	399759
q	399463
##u	399328
##I	397876
11	394304
##or	392923
Ġgroup	392345
##f	392036
Ġgo	391977
##le	391532
Ġm	391198
V	390754
##N	389397
$,	387682
Ġ7	386696
##,	383997
G	383847
Ġlong	381864
Ġagainst	381693
It	380590
("	379284
Ġdown	377898
Ġtake	375710
Ġmust	375301
Ġnon	374721
Ġlast	372036
Ġstill	371643
ĠR	371065
Ġ8	367752
$.	367744
##ity	367586
Ġtype	365721
get	365577
',	364499
Ġinformation	364048
ĠBut	361842
##ion	361571
l	361148
##ate	360148
Ġday	358441
}{	358414
##H	356907
Ġal	354554
Ġsecond	354307
##G	354203
Ġ,	353385
##Y	352712
ĠB	351450
Let	350316
ĠJ	349907
J	349770
Ġoff	348883
##w	348279
mathcal	347527
Ġresults	347038
//	344427
##te	342538
Ġe	342535
ĠAs	342534
th	342391
ĠE	342236
##V	342164
Ġfollowing	340352
();	339833
Ġfind	337060
...	336405
##nt	335442
ĠP	335384
ĠĠĠĠ	334671
Ġam	334487
(\	334420
Ġgoing	334385
This	334181
ĠN	333372
##v	333140
Ġlife	332614
##X	329414
ĠYou	328570
].	328565
ĠAnd	328158
Ġwithin	328074
],	327921
##O	326213
end	326188
Ċĉĉ	326043
ĠD	325670
##(	323918
Ġaround	323402
'm	322190
Ġpoint	321393
^{	320841
##ia	320826
Ġsince	320232
Ġ*/	319611
)$	318907
Ġmodel	318723
Ġn	318045
âĢľ	317968
int	317570
alpha	315535
ĠT	314985
Ġcontrol	314849
Ġanother	314152
##.	313239
00	313228
Ġ#	313191
,âĢĿ	309152
Ġline	308997
Ġown	308868
Ġ</	307655
ĠL	306923
Ġexample	304627
ĠM	303771
Ġtest	303254
Ġincluding	302561
Ġself	302428
]\].	302378
Ġshow	302095
and	301641
Ġtoo	300224
You	300216
##W	300160
Ġ12	300023
Ġde	299816
Ġcell	299741
Ġhelp	299334
ĠNo	299066
Ġevery	298854
Ġmight	298421
Ġgiven	298230
##ng	298050
âĢĵ	296451
##si	295596
Ġt	295452
ĠH	294785
Ġreally	294673
Ġet	294154
ĠQ	293906
Ġworld	293903
Ġd	293141
Ġsay	292732
Ġresult	292695
ĠHowever	292202
##K	292085
##-	291515
##el	291347
Ġk	291301
Ġprocess	291213
ĠThey	289795
Ġ{#	289606
Ġhome	289564
000	289219
Ġfile	288992
Ġ$$\	288168
č	287879
|	287831
Ġpresent	286719
Ġbased	285525
Ġc	285101
Ġform	285047
Ġsupport	283245
##ine	283101
Ġper	283008
're	282458
16	282100
20	281905
Ġ20	281835
ĠX	281036
15	280999
ĊĊĠ	280891
Ġ\[	280783
ĊĠĠ	280710
##ies	280298
\]	280037
Ġ9	279880
ĊĠĠĠĠ	279483
if	278934
##et	278896
##"	278184
##sh	278165
Ġbest	277502
Ġanalysis	277476
&	277272
##ne	276701
Ġmethod	276458
CR	276053
Ġnext	275151
ĠâĢĶ	274877
Ġevidence	274118
Ġs	273839
Ġsomething	272176
Ġleft	272095
Ġh	271229
Ġchange	271182
Ġsmall	270024
Ġwhether	269902
Ġl	269443
32	269339
ĠNew	269243
##ment	267278
Ġfact	266255
Ġplace	266242
}(	265994
##it	265434
U	265182
##man	265085
##)	264927
##se	264721
ĠThere	264099
ĠWhat	263382
13	263184
id	262144
##is	262133
Ġr	261784
##ch	261229
Ġimportant	259759
##st	259556
Ġpower	259506
Ġy	259010
Ġless	258838
##ive	258746
##$	258510
Ġfew	258381
ĠTo	258135
Ġbetter	257953
Ġb	257586
Ġabove	256756
Ġwater	256521
##id	256417
Ġlarge	256320
##ll	255655
Ġlevel	255116
text	254874
mathbb	254700
O	254263
Ġtrue	253882
##na	253679
,\	252740
âĢĶ	252572
Ġnever	252512
ĠSo	251831
Ġcome	251296
Ġ{\	251218
Ġg	250493
label	250427
o	250384
Ġf	250320
##ge	250036
mu	249249
Ġtreatment	248962
Ġdue	248920
Ġleast	248761
ĠV	248316
Ġlittle	248224
Ġpossible	247883
ĠK	247832
))	247435
Ġ11	246632
div	246032
Ġthings	245955
Ġproblem	245499
14	245106
Ġlow	244633
Ġ15	244410
ĠW	242383
)\	241725
##ry	241348
Ġgreat	240855
##um	240007
ĠO	239518
Ġlook	239296
Ġlaw	239024
##la	238821
##ar	238319
or	238056
Ġfield	237732
Z	237254
Ġhaving	236299
Ġgive	236197
Ġdays	236150
!"	235975
Ġshown	235641
Ġeffect	235635
Ġcommon	235438
##ss	234931
##to	234686
Ġgame	234603
Ġfurther	234501
##ist	234405
data	234310
Ġgot	234120
begin	233875
Ġtrial	233185
ĠShe	233160
Ġw	232891
Ġcode	232696
Y	232558
('	231589
##ck	231377
Ġsingle	231117
Ġ/	231045
##ce	230893
##de	230446
name	230300
##nd	230130
Ġfour	228733
Ġsize	228494
Ġhealth	228018
ĠĠĠĠĠ	227924
Ġfree	227576
Ġ)	227412
Ġlet	227378
Ġside	227238
Ġprovide	227081
Ġexpression	226788
Ġ30	226140
Ġalways	225793
Ġint	225743
Ġ--	225519
##ness	225432
Ġcurrent	225411
Ġlocal	225072
Ġagain	224899
Ġgovernment	224300
##ent	224134
Ġeither	223743
Ġknown	223156
##di	222775
Ġcalled	222616
##li	222271
ĠCourt	221777
ĠState	221615
ĠThese	221579
Ġman	221235
Ġuntil	220839
Ġavailable	220231
ĠUnited	220100
Ġfamily	220041
Ġhuman	219816
01	218942
18	218807
ĊĠĠĠĠĠĠĠĠĠ	218575
##U	218284
Ġelse	218122
##rs	218047
##th	218036
If	217887
Ġtop	217562
Ġreal	217130
Ġlight	216879
Ġmeans	216675
Ġaction	216506
ĠG	215994
ĠAll	215961
Ġ==	215951
##{	215756
ĠZ	215134
aligned	215008
Ġvalues	214738
Ġmean	214379
ĊĊĠĠĠĠĠĠĠ	214310
25	214265
Ġtimes	213984
##da	213893
Ġable	213878
Ġcases	213859
Ġchildren	213592
"}	213409
):	213247
Ġseveral	213096
##[	212794
Ġpost	212286
Category	212014
Ġteam	211848
Ġtotal	211631
##ve	211614
##ie	211313
ĠThat	211277
Ġhigher	210467
usepackage	210434
ĊĠĠĠĠĠĠĠĠĠĠĠĠĠĠĠĠĠĠĠ	210410
Ġarea	210290
##*	210084
Ġcare	210055
lambda	209547
pone	209312
Ġstudies	209078
Ġbody	208645
've	208313
30	207564
Ġrun	207535
Ġfull	207369
Ġput	207192
Ġ100	207155
Ġsignificant	207009
Ġrate	206855
17	206505
Ġerror	206239
##J	206132
Ġj	205883
Ġwhy	205836
this	205793
##ated	205535
Ġhand	205490
Ġstart	205303
}$$	204879
##Q	204715
re	204618
Ġopen	203923
Ġenergy	203890
Ġfinal	203094
Ġu	202550
Q	202299
import	202282
Ġdidn	202137
He	201291
ĠStates	201266
ĠWhen	201117
Ġspace	200856
##tt	200721
span	200310
Ġz	200027
Ġsimilar	200020
19	199636
Ġgeneral	199511
##ter	199485
Ġalready	199304
ĠĠĠĠĠĠ	198583
Ġperson	198200
ÃĲ	198038
pi	197951
As	197397
Ġlot	197396
Ġassociated	197392
Ġlevels	196924
So	196633
##re	196599
##ty	196402
Ġ16	196026
Fig	195899
##ant	195668
Ġresponse	195615
http	195142
Ġ50	194825
##j	194789
##no	194712
##hi	194561
@	194082
Ġconst	193973
##Name	193920
><	193164
Ġissue	192996
\[	192935
rm	192886
Ġquestion	192877
##ci	192815
Ġdone	192711
Ġwomen	192697
Ġrequired	192548
To	192077
'll	191842
Ġ14	191834
Ġspecific	191784
mathbf	191716
Ġaway	191704
}}	191645
##os	191555
Ġsays	191254
Ġ%	191006
ĠY	190965
Ġkey	190690
Ġ${\	190505
}_	190348
Ġcall	190203
Ġoften	190035
##q	189803
},	189584
Ġlist	189248
set	188324
##;	188312
05	188126
Ġterms	188106
Ġactivity	187838
Ġ=>	187278
Ġread	187017
Ġsure	186969
];	186921
Ġage	186472
ĠOn	186324
##est	186269
Ġgroups	185980
Ġhowever	185842
Ġ13	185809
Ġamong	185808
Ġfar	185603
##ure	185448
##Type	185380
Ġreported	185378
Ġthing	185284
50	184549
Ġ`	184396
li	184027
Ġlater	183840
Ġo	183681
Ġcourse	182967
##ns	182840
Ġenough	182816
Ċĉĉĉ	182172
Ġtold	182099
##ating	182062
And	181911
Ġthough	181657
beta	181355
Ġposition	181325
org	180945
table	180876
Ġcompared	180871
Ġplay	180304
Ġresearch	179918
Ġalong	179694
ĠĠĠĠĠĠĠ	179326
sigma	179320
Ġworking	179273
Ġprovided	179187
Ġmaking	179110
##Z	178846
For	178774
##ized	178712
###	178669
_\	178533
##ian	178314
Ġinclude	178282
Ġmain	177885
Ġlower	177800
is	177619
return	177309
Ġvoid	177261
Ġupon	177128
Ġconditions	176808
Ġrisk	176345
Ġweek	176324
Ġrole	176308
Ġ([	176308
Ġold	176249
Ġdoesn	176212
string	176064
Ġrange	175961
##ization	175835
Ġpotential	175629
##sa	175310
##_	175269
Ġsection	175063
##as	174634
ĠSee	174447
21	174389
Ġincrease	174329
Ġimage	174288
Ġeffects	174166
But	174042
Ġ18	173937
Ġseen	173925
Ġsource	173727
##at	173580
Ġhead	173525
Ġdevelopment	173284
Ġchanges	173279
Ġkeep	173016
Ġtry	172130
##ial	172074
]).	172007
Ġbusiness	171856
Ġ([@	171688
Ġmoney	171587
Ġtogether	171454
Ġservice	171248
ĠâĢĺ	171201
}_{	170876
Ġprotein	170601
Ġproperty	170557
64	170094
Ġincreased	169933
Ġbecome	169897
Ġschool	169779
Ġanti	169747
of	169496
Ġprogram	169385
Ġfactors	169096
Ġaddition	168557
Ġcannot	168357
Ġobserved	168280
Ġlove	168130
Ġparticular	167949
Ġshort	167804
Ġcountry	167606
Ġdisease	167602
Ġthird	167349
sum	167291
##ism	167082
www	167006
001	166980
for	166894
ĠUniversity	166767
"}).	166673
##ra	166576
ĠSt	166545
Ġaccording	166167
Ġmonths	166128
Ġuser	166126
sec	165778
}^{	165661
></	165373
##ling	165322
Ġdoing	165275
Ġthought	165208
Ġmultiple	165012
Ġearly	164949
##=	164929
##}	164636
##ot	164541
Ġcreate	164533
Ġpositive	164415
html	164157
Ġhard	164003
ĠAt	163865
Ġ24	163733
Ġadd	163203
Ġid	163099
##:	163041
Ġstructure	162870
Ġdefendant	162637
^{\	162552
24	162352
##ting	162352
Ġdescribed	162117
No	161984
mathrm	161853
Ġprivate	161832
Ġview	161830
##ical	161610
pm	161261
sqrt	161142
##'	161120
Ġactually	160956
td	160692
Ġcompany	160493
Ġpoints	160444
Ġversion	160367
Ġ25	160189
Ġobject	159771
Ġbase	159714
---	159464
Ġsurface	159387
22	159367
Ġcontent	159307
##ct	159058
##/	159012
Ġmen	159012
ĠĠĠĠĠĠĠĠ	158985
Ġacross	158973
Ġothers	158109
Ġreport	158019
##ton	157998
There	157615
Ġamount	157567
##{\	157388
100	157306
Ġre	157103
Ġrather	156963
Ġcame	156937
Ġonce	156769
Ġterm	156429
Ġmatter	155866
Ġstring	155827
gamma	155767
Ġfalse	155620
Ġfive	155562
Ġlikely	155509
40	155090
Ġ>	155002
Ġshows	154979
Ġfactor	154892
Ġmillion	154648
Ġperformed	154566
Ġperiod	154481
Ġshowed	154453
Ġbelow	154370
Ġclear	154286
ĠAmerican	154236
bib	154128
##up	153973
delta	153876
Ġfeel	153847
class	153770
.)	153653
##ide	153615
Ġbig	153589
value	153550
Ġpast	153431
Ġsystems	153147
Ġsocial	152954
Ġstandard	152859
ĠGod	152622
80	152607
Ġsite	152580
##ma	152259
Ġfuture	152198
Ġcause	152196
##ary	151933
Ġobtained	151768
Ġq	151701
Ġseason	151657
##mo	151586
Ġtook	151567
Ġmakes	151430
Ġ(*	151111
35	150783
ve	150582
Ġkind	150427
Ġfood	150155
Ġever	150128
Ġapplication	149938
Ġvarious	149934
Ġcancer	149628
Ġexperience	149471
Ġinterest	149320
Ġ$(	149177
Ġwhole	149163
##il	149088
ĠOne	148902
'd	148759
##tor	148625
Ġtaken	148505
Ġconsidered	148115
Ġadded	148052
Ġproject	148007
Ġbelieve	147894
Ġrelated	147887
##ol	147491
##ts	147482
\_	147104
Ġyet	146993
Ġbit	146891
Ġaccess	146850
##tr	146785
Ġtext	146750
##bi	146384
Ġdefined	146136
%)	145851
##lu	145700
)(	145531
##ad	145397
##lo	145261
ĠCo	145034
Figure	145019
##ize	144989
ĠUS	144975
Ġface	144967
##co	144850
Ġapproach	144018
ĠThen	143709
##me	143673
##ous	143594
Ġsolution	143372
Ġcommunity	143154
ĠAfter	143148
partial	143041
rho	143029
Ġblood	142921
##ni	142701
23	142631
Ġmajor	142591
Ġstates	142548
Ġ17	142479
Ġminutes	142432
Ġwent	142376
##ha	142367
ĠAn	141681
Ġdecision	141449
Ġindividual	141304
Â°	141214
Ġmaterial	141039
ĠIs	141000
}^	140956
)/	140921
Ġwon	140835
##ee	140419
Ġpercent	140316
##ip	140103
Ġdevice	139931
Ġtrying	139631
Ġnormal	139622
Ġincluded	139551
`	139437
Ġreason	139423
Ġcar	139334
^{-	139102
Ġclose	138824
##rt	138623
Ġtoday	138538
Ġmembers	138303
Ġ},	138190
##son	138092
phi	137994
Ġrespectively	137953
Ġregion	137856
theta	137845
##ey	137793
Ġreview	137735
##ur	137722
Ġvia	137649
ĠĊ	137588
bar	137538
Ġair	137353
Ġchild	137319
##^	137213
ÂĤ	137204
],[@	137187
Ġreceived	137137
[@	137046
26	136871
Ġadditional	136784
Ġsimple	136741
##ator	136714
Ġcheck	136678
Ġcity	136337
##ance	136203
Ġanything	136180
Ġevent	136173
Ġsignificantly	136171
Ġpatient	136016
Ġ40	135869
##io	135843
include	135701
Ġcertain	135567
omega	135271
Ġhalf	135081
Ġnull	135030
##do	134905
08	134872
Ġgrowth	134848
Ġclaim	134698
ĠĠĠĠĠĠĠĠĠ	134677
Ġ\\	134630
##am	134471
Is	134323
Ġneeds	134291
Ġasked	134181
##yl	133986
Ġmass	133872
Ġdeath	133685
Ġmedia	133546
")	133448
Ġgetting	133411
45	133410
27	133187
##age	133180
");	133081
Ġnight	133048
Ġhistory	133010
Ġ...	132889
Ġpre	132740
ĠMy	132675
tau	132419
Ġproduct	132027
Ġlooking	131899
09	131856
leq	131704
Ġroom	131566
Ġdifference	131411
ĠMr	131343
Ġhref	131156
Ġmethods	131072
Ġpay	131071
Ġseries	130973
Ġparty	130964
31	130935
Ġperformance	130738
Ġfilm	130649
Ġpaper	130643
##ay	130622
##tic	130613
Ġtarget	130541
Ġproblems	130376
##ki	130322
based	129967
Ġrecord	129961
Ġrest	129837
Ġthus	129772
Ġissues	129500
Ġinvolved	129491
Ġnetwork	129278
Ġalmost	129212
Ġprevious	129025
Ġnothing	128921
36	128910
Ġunderstand	128894
Ġhours	128781
Ġcost	128691
Ġservices	128661
Ġla	128634
Ġtherefore	128587
infty	128578
code	128356
Ġneeded	128349
Ġexpected	128340
times	128292
28	127994
##Id	127953
Ġ21	127917
Ġpolice	127803
nu	127533
Ġheld	127480
Ġ(-	127386
##ro	127369
Ġconsider	127275
##mp	127264
##]	126976
06	126966
##one	126945
st	126925
Ġpopulation	126917
##ble	126864
Ġinstead	126847
ĠBy	126760
Ġweight	126748
Ġcomplex	126674
year	126413
Ġvar	126381
ĠÂ§	126367
##vi	126326
##less	126133
Ġtell	126060
Ġ19	125975
Ġlive	125971
Ġidea	125859
34	125828
ĠDr	125690
How	125674
Ġrecent	125656
##ow	125554
Ġproduction	125481
##ative	125435
}{\	125415
Ġlines	125374
When	125306
Ġseems	125137
see	125082
##ho	125002
Ġdesign	124884
Ġgene	124850
Ġmove	124845
Ġstep	124840
Ġspecial	124780
Ġmarket	124776
ĠYork	124584
##op	124565
Ġloss	124538
Ġjob	124271
Ġcondition	124076
Ġmotion	123797
33	123727
Ġ60	123662
Ġpolicy	123653
https	123617
Ġstory	123610
Ġprior	123561
##ons	123540
Ġplan	123356
Ġtable	123344
Ġcomes	123309
Ġpage	123265
Ġsub	123249
Ġstudents	123157
test	123141
ĠTHE	123074
size	122842
Ġhouse	122796
eq	122683
##|	122639
Ġlead	122561
##View	122542
Ġquality	122533
##ut	122472
Ġsomeone	122383
$-	122326
##ase	122302
60	122057
Ġ/*	122015
/*	121870
Ġmodels	121860
Ġtaking	121838
##line	121771
up	121687
Ġmind	121569
Ġbook	121556
Ġstarted	121452
Ġblack	121411
Â±	121158
Ġpath	121007
new	120927
time	120923
Ġsignal	120859
Ġprovides	120854
Ġdistribution	120688
Ġstrong	120636
Ġitself	120548
ĠThus	120387
ĠNational	120363
Ġnecessary	120306
âĢ¦	120225
##ER	120210
ĠInc	120178
07	120057
add	120038
Ġheart	119754
##ally	119637
##ea	119619
Ġaverage	119379
ĠĠĠĠĠĠĠĠĠĠ	119227
on	119078
Ġsp	119028
le	118991
##ff	118958
Ġcolor	118928
Ġworks	118816
Ġoriginal	118700
var	118664
Ġsix	118660
On	118532
Ġrights	118412
ĠTrump	118388
##Data	118186
Ġprobably	118091
Ġ||	117984
ĠDo	117890
##ga	117867
Ġphase	117699
ll	117566
Ġturn	117551
##ec	117390
Ġshall	117376
')	117253
Ġclinical	117225
Ġallow	117122
define	117058
Ġsample	117050
self	117006
]\]	116936
Ġaccount	116907
Ġrespect	116571
ĠMay	116531
Ġco	116412
##Ġ	116399
Ġfunctions	116300
That	116276
Ġlength	116259
Ġproducts	116204
Ġsimply	116195
Ġ22	116033
02	115984
Ġmedical	115983
Ġsequence	115943
ĠOF	115893
##ler	115859
Ġsense	115793
Ġespecially	115550
Ġyoung	115544
*,	115499
Ġdate	115439
Ġtemperature	115438
Ġoutside	115400
Ġwords	115361
##ke	115314
log	115173
##Ã©	115016
##ities	115015
ĠWith	114981
ĠAct	114958
param	114948
Ġproperties	114751
##ba	114749
Ġstatic	114706
]{}	114664
Ġinput	114656
Ġinside	114359
Ġ$$	114275
##ner	114087
Ġ!=	113991
Ġaddress	113922
Ġcomplete	113908
Ġred	113832
hat	113789
Ġbad	113671
key	113644
Ġnear	113596
Ġpressure	113498
Ġpresence	113490
ĠCity	113373
Ġdetermined	113269
Ġelement	113238
Delta	113205
##ful	113078
##>	113072
^\	112710
Ġun	112635
Ġevents	112619
min	112611
42	112584
29	112575
53	112423
Ġgenes	112408
Ġfollow	112376
Ġcross	112362
##rd	112175
##+	112059
Ġpolitical	111954
Ġfront	111683
Ġtax	111622
Ġarray	111609
##ue	111515
Ġwhite	111214
Ġeffective	111178
##ir	111169
Ġtypes	111109
<UNK>	111087
##ite	111008
Ġoutput	110968
Ġprimary	110953
Ġstop	110803
ĠString	110783
Ġlanguage	110776
px	110760
##za	110699
##per	110587
Ġsubject	110568
##ap	110520
Ãĳ	110501
Ġeverything	110386
Ġ&&	110339
}}\	110204
Ġbreak	110191
44	110069
Ġpersonal	110044
##<	109963
Ġdi	109860
Ġphysical	109666
Ġfeatures	109639
ĠÂ±	109625
Ġlonger	109608
Ġ31	109597
##ID	109552
Ġdetermine	109293
Ġpresented	108872
Ġeasy	108866
04	108854
Ġjudgment	108551
Ġquite	108536
Ġidentified	108455
Ġcreated	108442
Ġrunning	108212
Ġsamples	108037
Ġstatus	107969
));	107925
##sp	107904
003	107884
Ġbasis	107846
ĠĠĠĠĠĠĠĠĠĠĠ	107841
ĊĠĠĠĠĠĠĠĠĠĠĠĠĠĠĠĠĠĠĠĠĠĠĠ	107716
Ġformer	107699
Ġisn	107497
Ġparameters	107384
Ġwanted	107253
My	107227
Ġbar	107070
Ġcontext	106999
Ġmember	106990
Ġfollows	106981
##ka	106939
public	106835
Ġstatement	106810
Ġground	106691
čĊĠĠĠ	106640
])	106483
as	106463
no	106292
ĠJohn	106291
Ġareas	106240
Âĥ	106221
Ġvideo	106125
Ġago	106043
##ice	105909
($	105843
##ep	105763
ĠLicense	105755
##To	105689
##les	105662
Ġindex	105518
Ġinitial	105472
Ġelements	105448
Ġweeks	105178
##nc	105081
Ġdirectly	105064
##min	104893
Ġ23	104845
41	104793
out	104781
Ġquestions	104497
ĠBe	104490
Ġsearch	104409
##der	104293
Ġrequest	104250
tr	104243
Ġrelationship	104229
Ġnatural	104149
03	104039
ĊĠĠĠĠĠĠ	104009
Ġmemory	103907
Ġwar	103886
ĠLa	103782
##ence	103770
Ġtraining	103753
Ġforce	103752
Ġwrong	103688
Ġgames	103549
Ġtheory	103365
ĠCD	103311
Ġmice	102931
)}	102736
Ġacid	102673
Ġgas	102633
Ġlayer	102500
\])	102477
95	102466
Ġknowledge	102440
43	102435
Ġ(\[	102353
Ġdef	102274
Ġcontinue	102225
ĠSp	102202
Table	102101
Ġmap	102050
##go	101956
Ġnational	101938
Ġsuper	101894
ĠPresident	101890
ĠDNA	101804
rangle	101799
xi	101590
##sc	101568
Ġnews	101543
Ġbuilding	101536
Ġbehind	101496
Ġunit	101386
Ġdeal	101342
Ġstyle	101327
tilde	101205
69	101127
Ġgreater	101029
Ġapplied	100852
Ġdifficult	100800
37	100789
48	100750
##ile	100746
Ġlimited	100591
ĠSuppose	100533
Ġflow	100505
Ġrule	100454
ĠAl	100396
Ġmonth	100340
Ġrelease	100294
Ġrequire	100292
Ġdistrict	100178
Ġpreviously	100166
bf	100094
##ish	100083
Ġsaw	100077
Ġcut	100036
ĠOur	100011
49	99970
Ġtitle	99961
##bl	99944
##va	99942
Ġincludes	99902
Ġreduced	99878
pt	99858
##land	99808
ĠTherefore	99701
Ġdrug	99646
array	99546
const	99503
Ġability	99430
Ġinvention	99299
eta	99285
Ġmessage	99231
Ġword	99208
47	99164
##so	99074
not	99038
Ġdirect	98986
Ġ28	98930
Ġclaims	98744
Ġdeveloped	98688
##ists	98674
##ise	98595
Ġarticle	98589
Ġbuild	98529
Ġoil	98434
cdot	98406
##ard	98382
âĢĲ	98365
##ors	98296
##log	98280
Ġindependent	98254
}$,	98108
##ib	98070
Ġcontact	98010
Ġimpact	97997
Ġnote	97873
##ING	97871
:**	97830
Ġetc	97795
}(\	97707
})	97670
void	97595
Ġsoftware	97574
51	97555
Ġwrite	97523
Ġhttp	97491
38	97443
##pe	97340
ÃĤ	97240
52	97135
##fi	97004
##mi	96993
Ġnegative	96973
ĠII	96968
Ġ35	96944
##out	96779
Ġ2012	96755
46	96718
Ġnumbers	96650
Ġplayers	96624
Ġdouble	96621
Ġwritten	96583
All	96526
ĠSouth	96525
##ted	96462
file	96455
".	96388
Ġcoming	96388
Ġreference	96381
99	96363
Ġfollowed	96263
Ġleave	96205
Ġparticularly	96082
().	96037
ĠCounty	96007
be	95997
##List	95932
Ġactive	95877
ĠSince	95802
Ġpain	95762
##be	95756
Ġlate	95626
Ġblock	95388
Ġobtain	95367
Ġsecurity	95340
un	95321
ĠWhile	95290
ĠHis	95194
75	95073
##ger	95047
Ġnature	94979
Ġforward	94954
Ġhope	94946
ĠHere	94946
Ġdefault	94932
##ED	94794
from	94686
70	94605
Ġcorresponding	94497
##ION	94486
Ġ32	94457
Ġ[*	94434
55	94415
Ġentire	94409
Ġshare	94396
##hr	94301
##ks	94092
Ãĥ	93997
Ġspecies	93983
Ġglobal	93974
Ġusually	93973
57	93960
Ġsl	93919
width	93910
##ier	93806
Get	93777
##ca	93746
Ġrates	93648
##ley	93629
Ġdifferences	93628
Ġ2013	93538
Ġliving	93514
Ġoffice	93426
Ġanswer	93339
Ġalthough	93309
ĠNot	93238
Ġwhose	93193
](	93078
Ġhold	93031
Ġpractice	92994
ĠWorld	92959
Ġtried	92932
Ġ2016	92853
Ġargument	92797
##and	92775
##Value	92729
Ġonline	92674
at	92244
Ġgenerally	92216
Ġlost	92183
##mb	92154
list	92136
90	92081
Ġrecently	92070
ĠLe	92061
Ġ2014	92039
##ps	92038
psi	91876
Ġlegal	91805
Ġ?	91791
Suppose	91689
39	91686
Ġthemselves	91679
";	91596
Ġplaintiff	91572
ĠSch	91547
ĠHouse	91540
Ġanyone	91512
Ġfederal	91460
Ġtakes	91355
Ġsaying	91322
ĠAmerica	91316
Ġproposed	91269
Ġcountries	91248
Ġ45	91235
ĠSome	91221
}$.	91217
Ġagreement	91120
##&	91116
Ġpurpose	91110
ĠMarch	91099
002	91074
##gen	91070
ĠNorth	91014
Ġart	90898
Ġ29	90891
##nn	90876
Ġ80	90831
ĠĠĠĠĠĠĠĠĠĠĠĠ	90746
ĠFig	90742
ĠGo	90706
ĠâĪĴ	90682
Ġsituation	90598
![	90596
Ġmoment	90586
Ġdensity	90523
Ġ26	90510
Ġ/>	90413
Ġ27	90387
Ġbrain	90351
She	90220
Ġcenter	90202
Ġtreated	90195
ĠGu	90187
Ġpass	90185
ĠChina	90015
##ze	89913
ĠFirst	89874
Ġhimself	89851
##TE	89810
##im	89712
La	89693
Ġstage	89692
##ST	89671
-\	89543
ĠHow	89463
Ġland	89427
Ġcharacter	89419
##met	89415
##ģ	89371
Ġ37	89308
.'	89219
##ig	89165
##%	89154
Ġenvironment	89100
Ġ2015	88809
Ġcharge	88806
Ġbecame	88716
ĠDepartment	88684
Ġrelative	88609
##ral	88554
Ġpretty	88519
..."	88440
it	88434
String	88411
epsilon	88383
Ġways	88349
Ġdirection	88300
with	88277
##</	88275
Ġprice	88195
##ping	88105
Ġ;	88095
##ast	88046
##00	88029
ĠDi	87989
Ġfailed	87960
ĠGa	87951
Ġoffer	87891
Ġpublished	87796
##ins	87769
Ġtalk	87768
Ġlimit	87592
59	87531
##ah	87522
Ġ);	87351
Ġact	87267
##CA	87261
Ġfocus	87237
56	87216
varepsilon	87209
Ġhighly	87169
Ġwoman	87163
Ġnode	87153
Ġ^	87106
ĠAd	87077
##AL	86941
Ġfindings	86937
Ġderivative	86835
Ġallowed	86822
54	86808
Omega	86775
An	86679
Ġselected	86631
Ġmet	86624
Ġdegree	86478
Ġheat	86472
old	86459
ĠĊĠĠĠĠĠĠĠĠĠĠĠĠĠĠĠ	86448
Ġcontract	86386
##ul	86350
ĠOR	86338
##qu	86305
Ġcomponent	86266
Ġgave	86186
##bo	86114
ĠSystem	86101
document	86087
ĠGeneral	86027
Ġlarger	86002
Ġdesigned	85987
Ġmeasured	85985
like	85982
##¡	85946
)=	85899
Ġinstance	85894
Ġoperation	85884
Ġprime	85876
Ġbring	85865
ĠUn	85851
Ġjury	85831
Ġconstant	85745
Ġfine	85651
##Ī	85641
Ġdetails	85622
Gamma	85600
Ġindividuals	85425
##ak	85339
##LE	85314
Ġwasn	85302
Ġeveryone	85297
Ġhost	85280
ĠIS	85209
Ġimages	85167
##ium	85164
Ġcentral	85163
ĠOr	85148
Ġcorrect	85136
##ko	85115
##ster	85077
Ġcurrently	85051
Ġcaused	85027
Ġ2011	85003
Ġalone	84996
Ġen	84879
##ex	84866
Ġlocation	84827
Al	84775
Ġbackground	84762
##Ģ	84747
Ġfriends	84745
##lt	84656
Ġproteins	84631
Ġ///	84628
ĠJune	84580
that	84575
##zi	84490
ĠNow	84425
Ġgives	84403
Ġ2010	84399
Ġbehavior	84298
65	84293
Ġ:=	84281
function	84273
Ġask	84266
At	84256
##eg	84249
Ġeyes	84241
##izing	84240
Ġcomponents	84225
Ġscale	84198
ĠAlthough	84189
Ġ[**	84183
Ġratio	84143
(-	84118
ĠCa	84083
Ġfiles	84080
Ġattention	84041
##Ħ	84014
Ġmatrix	83882
Ġexpect	83816
Ċĉĉĉĉ	83813
##nce	83801
ell	83773
Ġchoice	83768
Ġrequires	83697
+\	83656
ĠIN	83564
Ġsent	83409
Ġfixed	83386
Ġappropriate	83385
##ya	83359
Ġ90	83329
Ġ!	83264
Ġcompanies	83170
čĊ	83057
Ġapp	83033
Ġbegan	83027
Ġknew	83016
Ġ70	82994
em	82965
58	82959
##end	82959
Ġ36	82958
##ped	82929
Ġlearn	82923
Ġ2017	82876
Ġhit	82775
Ġleading	82740
Do	82715
##ric	82710
Ġoptions	82691
##ning	82647
Ġled	82647
max	82617
Ġdisplay	82583
item	82541
Ġseem	82505
##ging	82431
Ġfailure	82417
Ġmother	82374
##ls	82360
Ġmanagement	82276
Be	82233
##un	82202
=\	82142
Ġfinancial	82127
Ġfrequency	82102
Ġusers	82081
Ġunique	82036
##pa	82035
##ual	82027
Ġ->	82000
__	81990
ĊĊĊ	81908
##cy	81899
Ġeducation	81874
##way	81859
Ġ48	81753
ĠTh	81727
Ġrec	81689
##om	81651
##ology	81618
Ġfire	81563
Ġtechnology	81523
Ġ42	81460
Ġcontains	81386
Ġson	81371
}=	81344
sp	81341
ĠĠĠĠĠĠĠĠĠĠĠĠĠ	81252
he	81233
67	81202
Ġgoal	81191
ĠWest	81165
path	81128
Ġwin	81107
Ġdivided	81090
co	81044
Ġcompletely	81008
Ġlink	80974
Ġincreasing	80968
$\	80948
..	80884
Ġpattern	80853
Ġcosts	80790
}}$	80785
Ġcount	80782
Ġmin	80748
##ber	80734
Ġlack	80734
Ġeconomic	80733
Ġconnection	80710
##10	80664
Le	80542
Ġorg	80542
Ġparts	80473
66	80451
(),	80438
Ġapply	80345
Ġindustry	80290
Ġparties	80283
Ġserver	80250
Ġoption	80226
ĠJanuary	80217
##ver	80168
ĠApril	80166
86	80144
Ġsuggest	80108
Ġmulti	80103
čĊĠĠĠĠĠĠĠ	80102
Ġweb	80039
Ġdistance	80032
Ġequal	79944
##ķ	79916
Ġearlier	79898
61	79792
Ġda	79759
Ġstress	79726
Ġhands	79675
str	79670
##po	79663
Ġstar	79644
Ġ($	79639
Ġmode	79626
##ability	79614
ĠMan	79583
Ġexpressed	79577
##mer	79565
Ġuseful	79556
Ġ\<	79523
ĠCal	79504
ĠJuly	79491
Ġoverall	79483
Ġ33	79465
Ġpresident	79462
Ġextra	79442
Bo	79439
ĠEl	79437
Ġ34	79391
##ix	79299
Ġsupported	79274
##ph	79263
63	79258
ĊĠĠĠĠĠĠĠĠ	79236
Ġgenerated	79231
##ain	79228
varphi	79174
Ġspeed	79138
Ġestablished	79105
Ġstated	79095
js	79083
Ġallows	79067
Ġwidth	78981
Ġdevices	78981
##°	78955
##ular	78913
##ess	78888
čĊĠ	78882
Ġeasily	78732
\\	78685
Ġboard	78685
##ali	78667
user	78660
Ġstay	78650
##ification	78618
##gn	78618
##Ķ	78586
Ġ<<	78575
81	78551
##res	78508
##sm	78488
##led	78440
term	78434
Ġsites	78421
"><	78393
ĠDe	78380
68	78376
Ġcontaining	78361
##ny	78355
They	78319
Ġreasons	78316
##gu	78206
Ġreduce	78136
Ġfinding	78091
Ġvs	78070
##name	78053
##NG	78010
Ġsoon	77958
so	77933
##ft	77865
ĊĠĠĠĠĠĠĠĠĠĠĠĠĠ	77816
Now	77796
Ġhighest	77774
Ġmeasure	77765
Ġcritical	77744
Ġcopy	77736
Ġlocated	77721
());	77718
ĠRe	77666
ĠAm	77626
ĠBar	77622
##ible	77555
Ġparameter	77536
ĠCir	77508
Ġproduced	77507
Ġ38	77488
##?	77459
St	77438
Ġactivities	77431
Ġtumor	77416
ĠCl	77362
Ġexcept	77311
Ġstaff	77237
##**	77212
Ġfiled	77202
##ms	77166
index	77162
Ġnotice	77147
##ose	77137
Ġfelt	77094
Ġauto	77091
Ġcommand	77090
##ten	77070
Ġrelevant	77066
Ġones	77026
Ġclearly	76913
Ġactual	76902
ĠHealth	76851
##ect	76845
##ations	76845
Ġpl	76822
Ġsuccess	76779
cal	76762
Ġauthors	76755
){#	76747
ĠTi	76714
Ġskin	76633
##ics	76589
Ġstore	76586
##ised	76575
Ġvariable	76562
Ġappeal	76559
Ġopinion	76537
ĠAND	76493
mm	76479
ĠId	76449
Ġcampaign	76363
Ġle	76338
One	76315
Ġsign	76274
Ġbox	76182
##ding	76167
##Ĥ	76160
##File	76049
Ġwriting	76027
##em	76008
Ġbinding	75991
big	75957
Ġshowing	75939
ĠPi	75882
Ġsh	75827
Ġwebsite	75819
##ana	75780
##ac	75699
Ġinjury	75672
62	75667
._	75659
Ġchanged	75651
Ġbrought	75624
Ġunderstanding	75536
Ġrandom	75463
overline	75447
Ġmatch	75426
Ġzero	75412
Ġchar	75394
Ġreceive	75367
Ġsmaller	75363
##ings	75358
94	75343
Ġlearning	75337
Ġgoes	75294
Ġ2008	75288
Ġuses	75218
Ġexperiments	75172
##RE	75169
##fa	75125
Ġitems	75122
sub	75075
##@	75065
Ġcontrast	75031
##ub	75009
langle	74976
Ġappears	74960
Ġ39	74938
Ġrules	74925
Ġvector	74888
operatorname	74861
##ron	74787
##ome	74774
Ġfast	74770
Ġlooks	74676
Ġbeyond	74658
##String	74657
Ġheard	74634
Ġcomputer	74614
Ġremains	74598
base	74584
Ġdoor	74583
Ġculture	74583
Ġwide	74579
)$.	74552
##lla	74546
Ġ95	74503
Ġ__	74493
##rr	74489
Ġbuilt	74438
ĠSan	74381
java	74357
ĠFrom	74337
='	74300
Ġplease	74281
def	74234
Ġseparate	74234
state	74227
Ġcouple	74218
Ġhearing	74206
##pi	74156
Ġmeet	74143
##TA	74093
Ġmorning	74064
ĠData	74048
ĊĊĠĠĠĠĠĠĠĠĠĠĠ	73922
72	73920
##by	73915
Ġinternal	73905
Ġlooked	73899
Ġreasonable	73851
Ġturned	73814
Ġmicro	73739
##wa	73733
Ġworked	73729
Ġheight	73726
Ġconstruction	73705
##cc	73689
âĢĥ	73677
all	73671
Ġtowards	73666
di	73648
Ġth	73626
\].	73622
fn	73580
Ġdrive	73474
Ġmajority	73455
##ĠĠ	73451
Ġappear	73278
Ġproduce	73221
Ġregarding	73202
Ġfall	73200
Ġexist	73200
Ġvariables	73197
Ġdecided	73134
\'	73050
Ġexists	73002
##ľ	72967
title	72950
##og	72945
fa	72925
Ġtherapy	72875
Ġbenefits	72821
"/>	72809
##Key	72774
Ġfully	72771
##ire	72768
)^	72745
Ġimprove	72718
Ġformation	72717
ĠDistrict	72675
Ġ2009	72641
Ġconcentration	72637
Ra	72624
Ġtissue	72591
cm	72576
ĠAugust	72532
Ġparents	72502
Ġradio	72486
Ġreports	72466
Ġtransfer	72465
##IT	72448
Ġtask	72427
Ġmilitary	72419
Ġresulting	72363
##cl	72318
ĠHer	72313
}_{\	72310
ĠHa	72241
##den	72217
Ġ41	72182
##¨	72116
Ġfather	72102
Ġexactly	72065
":"	72051
##gh	72013
Ġprevent	71972
ĠPhys	71959
##ara	71943
Ġpoor	71933
Ġindicated	71897
line	71883
Ġandroid	71862
Ġlinear	71853
Ġerr	71848
Ġvolume	71836
ĠPat	71834
color	71816
Ġcounsel	71806
Ġnor	71802
Ġsex	71795
Ġinfection	71792
ĠOctober	71775
##king	71704
Ġsetting	71704
Ġmedium	71698
ĠPM	71687
Ġwrote	71685
##of	71665
Ġ43	71639
Ġque	71605
Ġinteresting	71567
ĠWi	71549
Sec	71513
##ute	71482
en	71480
88	71464
ĠFe	71444
ĠSi	71384
ĠWar	71338
##ert	71307
Ġ(\	71307
ĠTO	71303
##Object	71294
cr	71239
##IN	71236
Ġmaterials	71232
chi	71219
##ino	71214
##ates	71211
##ĵ	71201
##Ļ	71200
Ġreading	71176
Ġvehicle	71152
##Item	71138
##~	71109
Ġplayed	71096
ĠSeptember	71082
Ġfeature	71076
Ġadministration	71058
##æ	71021
input	71016
##gi	70964
Ġscore	70938
Ġdu	70906
Ġcomment	70870
Ġgets	70862
Ġplant	70861
nbsp	70857
Ġstd	70826
free	70812
Ġavoid	70808
Ġremember	70805
ĠDecember	70802
Ġdefine	70786
Ġcolumn	70785
Ġmeeting	70703
##que	70662
Ġensure	70660
##ĳ	70649
Ġsolid	70637
Ġfields	70630
Ġhospital	70624
##ach	70599
br	70549
Ġ2018	70549
##Info	70544
app	70529
ĠĠĠĠĠĠĠĠĠĠĠĠĠĠ	70517
76	70477
Ġvisit	70461
##lin	70415
##bb	70409
##int	70402
77	70395
Ġproof	70393
Ġdeep	70385
)).	70381
##!	70371
ĠUSA	70358
Ġreaction	70307
Ġ52	70303
##ight	70296
ĠMon	70293
Ġplayer	70288
Ġfit	70245
App	70233
*~	70161
Ġfriend	70136
Ġstarting	70108
Ġapplications	70108
Ġfun	70091
92	70088
ĠIL	70036
static	70032
##ick	70009
83	69995
##ĊĠ	69892
Ġmaximum	69878
Ġthroughout	69874
Ġlives	69866
*.	69861
Ġparticipants	69812
85	69808
Ġchance	69789
Sh	69787
True	69713
Ġnoted	69711
Ġdamage	69696
Ġprocesses	69687
by	69679
##Ł	69660
Ġregions	69628
Ġdomain	69617
Ġ]	69617
Ġagree	69589
Ġconnected	69538
*-	69493
Ġ/**	69489
Ġsafety	69462
Ġclosed	69460
##NT	69403
}^{\	69393
Ġbecomes	69321
004	69319
Ġformed	69310
##ĺ	69295
ĠÃĲ	69293
ĠBecause	69291
Ġbenefit	69233
Ġinternational	69231
Ġsources	69225
84	69171
##ri	69168
78	69158
Ġ49	69110
##rm	69109
ĠMore	69090
Ġitem	69081
##·	69078
Ġphone	69031
Ġtests	68973
73	68941
Ġdocument	68930
Ġrevealed	68925
Ġsound	68893
##ified	68883
Ġinteraction	68856
##ab	68823
Ro	68758
91	68703
ĠSection	68676
Ġonto	68657
Ġinfluence	68648
Co	68643
##mm	68600
Ġ44	68537
##ina	68526
true	68523
Ġotherwise	68510
Ġbasic	68510
Ġcollection	68509
74	68476
ĠNovember	68464
am	68447
##ions	68442
##¯	68437
ĠCenter	68348
)*	68312
Ġauthor	68301
al	68299
ĠPA	68277
Ġregular	68264
struct	68253
Ġequation	68244
Ġimmediately	68237
ĠLo	68233
Ġfunctional	68231
##ja	68229
##men	68221
':	68216
sim	68191
By	68107
Ġstand	68089
ĠMoreover	68072
Ġroot	68067
['	68031
##lic	68030
After	68029
##cat	67917
Ġcover	67896
ad	67894
Ġwindow	67894
Ġactions	67887
##Path	67877
##red	67875
Ġreduction	67823
71	67820
Ġreleased	67809
Ġpoly	67714
ĠWashington	67712
Ġdefense	67664
ra	67650
which	67624
##ani	67624
Ġopportunity	67616
Ġresistance	67605
Ġtoward	67583
ĠST	67578
Ġbuy	67574
Ġpaid	67541
};	67523
Ġst	67514
##ek	67512
my	67500
Ġret	67492
vec	67485
##rc	67484
Ġgiving	67482
Ġmechanism	67480
ĠĠĠĠĠĠĠĠĠĠĠĠĠĠĠ	67453
Ġ\,	67451
ĠList	67430
ĠOf	67417
ĠID	67376
Ġcombination	67358
Ġ47	67227
Ġphoto	67226
');	67220
97	67219
Ġroad	67203
Ġblue	67127
Ġtool	67110
Ġconsistent	67087
[]	67082
##ai	67079
top	67061
##ĠĠĠ	67061
Ġtesting	67057
Ġidentify	67057
ge	67032
Ġfigure	67021
##LA	66934
over	66838
Ġrelatively	66815
Ġten	66797
##ries	66766
Ġforms	66721
mathfrak	66720
Ġsometimes	66693
ac	66595
Ġresources	66591
##ens	66568
82	66514
geq	66505
005	66488
Ġhot	66486
######	66472
Ġbottom	66471
Ġ55	66447
Ġrace	66422
Ġwall	66393
php	66332
Ġquickly	66301
Ġclient	66287
Ġmiddle	66238
##80	66206
Ġchoose	66205
Ġremove	66180
Ġ64	66180
ĠApp	66168
Ġex	66134
##gg	66133
Ġprove	66125
##SE	66099
Ġthinking	66093
.[	66084
Ġ(**	66071
##ory	66054
Ct	66050
##Size	66015
##bar	66010
}}_	65960
ĠRev	65914
98	65902
Ġmyself	65896
length	65878
##In	65869
##¥	65855
Ġprocedure	65844
Ġselection	65796
96	65793
##ore	65740
Ġplaying	65727
Ġtrade	65714
Ġcore	65705
ĠTable	65701
93	65697
##lan	65636
Ġnearly	65636
ĠSchool	65590
ĠLi	65579
##ied	65552
##dd	65549
ĠObama	65535
Here	65517
Ġportion	65508
Ġproviding	65481
Ġmovement	65466
Ġready	65453
Ġmoved	65444
Ġeye	65432
Ġdetected	65424
Ġsafe	65419
Ġborder	65410
Ġchannel	65403
Ġhappened	65396
Ġdatabase	65391
##ker	65390
Ġgreen	65382
Ġconducted	65372
Ġhair	65323
##į	65259
Ġmoving	65256
Re	65254
ĠDu	65245
"},	65234
##µ	65230
Ġexisting	65221
Ġobjects	65217
Ġsteps	65155
##oid	65137
)$,	65123
Ġeight	65115
Mo	65030
ĠNi	65024
Ġhappen	65000
Ġreach	64998
89	64959
Ġcom	64957
##Error	64938
##xi	64930
Ġdaily	64920
dev	64918
Ġsc	64914
##graph	64910
ĠCalifornia	64893
Ġcounter	64892
Ġcalculated	64808
##Ĳ	64807
Ġfacts	64787
ĠRed	64767
Ġincome	64692
net	64688
Ġfinally	64676
ĠEuropean	64615
Ġanimals	64606
##ane	64582
Ġupper	64550
ĊĊĠĠĠĠĠ	64527
79	64503
do	64490
Ġindicate	64485
Ġsort	64457
##º	64451
Ġyourself	64428
read	64422
Ġtown	64410
ĠPo	64409
Ġattack	64407
##ł	64383
Ba	64312
Ġdemonstrated	64294
^{(	64265
Ġnearest	64258
Ġemail	64238
Ġ56	64211
ĠWhite	64187
Ġworth	64183
87	64155
())	64120
ĠDon	64110
ĠAlso	64013
##ī	63981
Ġunits	63924
Ġserious	63924
start	63922
##Text	63914
Ġbegin	63889
Ġdefinition	63862
Ġ54	63849
Ġcomments	63820
Ġremain	63813
##dy	63803
source	63777
node	63769
ĠResearch	63760
,-	63759
##Ã¡	63755
Ġ46	63733
Ġperfect	63694
ĠPublic	63664
ĠNULL	63645
Ġab	63631
Ġse	63625
##her	63575
##ort	63574
image	63550
Ġmg	63550
)-	63539
##art	63504
Ġshape	63478
an	63476
]:	63452
##Ĺ	63437
Ġcapacity	63437
Ġseven	63400
ĠTa	63389
Ġcarried	63324
Ġ~	63318
Ġsufficient	63317
Ġremoved	63315
##RI	63293
Ġmachine	63279
Ġreplacement	63272
Ġplaced	63254
Ġprocessing	63251
##hu	63225
##Exception	63168
Ġmanner	63137
##¸	63125
With	63114
##ote	63114
Ġstuff	63109
##ds	63081
Ġload	63071
ĠPaul	63062
rightarrow	63061
%,	63021
##ans	62997
Ġvariety	62957
quad	62952
Ġsets	62946
Ġperform	62891
Ġrepresent	62883
Gr	62874
Ġwife	62842
Ġbl	62837
Ġpackage	62822
##60	62820
Ġ53	62820
Ġsend	62819
##Ĩ	62815
Ġmagnetic	62799
##act	62782
Ġhear	62782
fl	62686
Ġ200	62650
##´	62647
Ġoperator	62642
Ġ51	62626
ĠFebruary	62594
Ġdistributed	62569
Ġprint	62568
ĠGet	62559
Ġ2007	62520
##ug	62499
Ġnice	62490
Pi	62479
Ġtransition	62478
ĠCI	62435
Ġframe	62417
res	62390
ĠBl	62328
##ES	62325
ĠHo	62305
ĠEven	62302
##Ð¸	62298
##SS	62296
Ġtruth	62232
ĠMS	62228
Ġsave	62176
Ġsuggested	62171
##gl	62169
##use	62160
Ġres	62137
##©	62136
Ġbeginning	62092
]\],	62082
lib	62070
Ġwait	62061
ĠFigure	62031
##gr	62030
ĠAM	61970
##era	61948
ĠBoard	61934
Ġnamed	61861
##fe	61805
ĠBi	61800
Ġprograms	61799
##ala	61784
##LL	61781
Ed	61761
##ica	61755
go	61729
##Context	61717
ĠBa	61710
Ġcomparison	61689
Ġworkers	61637
##ators	61625
\],	61620
False	61591
##ĥ	61572
ĠMe	61534
Ġhealthy	61531
##ern	61475
Ġincreases	61474
ĠMA	61449
Ġ65	61422
##ev	61414
Ġscreen	61414
)**	61378
Ġimport	61367
##12	61324
Ġdetection	61318
##Set	61316
Ġexposure	61292
related	61266
Ġbill	61246
Ġmaybe	61214
ch	61202
Ġpassed	61142
ĠIndia	61136
Ġletters	61126
Ġdark	61115
##OR	61112
##ax	61074
Ġmusic	61068
##State	61067
Ġplaces	61063
Ġdes	61056
##tra	61032
##¤	61017
Ġresponsible	61012
Ġmeasures	60992
Ġrow	60991
Ġletter	60989
##»	60972
Ġdiscussed	60970
Ġupdate	60963
Ġdrugs	60928
Ġedge	60903
Ġactivation	60895
Ġspin	60890
Ġdevelop	60861
##ox	60849
Ġapproximately	60808
##back	60799
ĠCan	60752
##ŀ	60740
Ġpicked	60736
Ġinsurance	60709
Ġcharacteristics	60695
$$	60656
ĠCar	60650
Ca	60630
ĠCor	60622
Ġsymptoms	60559
##und	60550
##sen	60534
##ring	60510
cap	60503
ul	60471
##pro	60456
Ġcircuit	60369
##od	60297
error	60276
##ero	60276
ĠRa	60273
Ġstructures	60257
Ġformat	60255
.\	60244
Ġround	60238
Ġpanel	60229
Ha	60213
Ġmodern	60210
ĠCO	60206
Ġchallenge	60201
##);	60200
Ġmale	60195
##£	60174
Ġtalking	60161
Ġaffect	60146
Ġarm	60130
la	60127
##oo	60106
Ġmeaning	60077
ĠUK	60077
ĠPR	60065
Ġessential	60052
Ġnone	60011
##ru	59994
Ġcontinued	59979
*)	59949
ĠMo	59930
Ġparent	59924
##ants	59917
Ġshot	59853
##tes	59850
Ġtree	59800
##let	59771
ĠNe	59768
Ġ75	59756
ĠHigh	59712
##pp	59692
Ġtestimony	59692
Ġinvestigation	59685
Ġassume	59650
ĠLu	59650
Ġdrop	59596
Ġeffort	59583
link	59551
Ġreturned	59519
##ious	59479
Ġpick	59478
Ġhappy	59448
rec	59436
Can	59397
##ene	59382
##box	59372
ĠFurthermore	59343
ĠPl	59342
##he	59279
ĠDavid	59261
##ua	59234
##dr	59232
Ġstock	59209
ĠVi	59203
Ġforeign	59193
Ġ((	59159
Ġ});	59145
Ġbillion	59136
sh	59133
##han	59132
)/(-	59110
Ġbound	59096
Ġwatch	59066
Ġwild	59016
info	58951
Ġ2000	58943
ĠĠĠĠĠĠĠĠĠĠĠĠĠĠĠĠ	58941
Ġpair	58924
##ale	58900
}}(	58863
Ġpopular	58840
Ġproper	58836
Ġblog	58830
Ġkids	58801
##jo	58793
ĠMa	58735
Ġlog	58734
Oh	58714
Ġexercise	58670
##ħ	58669
Ġball	58647
Tr	58642
Ġdescription	58600
##ace	58559
Ġinterface	58546
Ġselect	58525
##time	58509
##MA	58505
Ġconduct	58468
##IS	58465
##ud	58442
Ġassert	58436
Ġprob	58380
##]{}	58375
Ġpress	58369
##cr	58348
ĠEnglish	58343
ĠAD	58331
\,	58304
Ġ-->	58232
Ġcouldn	58228
Ġwalk	58227
Ġ""	58224
Ġref	58219
but	58165
Not	58163
form	58159
Ġprofessional	58113
Ġmental	58105
##ON	58064
##val	58058
Ġspent	58049
Ġspecifically	58029
Ġdenied	58007
Ġplans	57982
Ġcontain	57974
/(-	57971
Ġsurgery	57950
##ĩ	57942
Ġliquid	57900
Ġfamilies	57874
ĠCongress	57852
Ġ(!	57850
ĠPC	57847
Ġserve	57827
Ġstrategy	57826
##Ń	57823
Ġplus	57818
/**	57803
##CT	57796
ĠInternational	57791
Ġ72	57776
Ġsolutions	57773
Ġnovel	57761
Ġsleep	57760
##oe	57758
ĠCode	57756
Ġalternative	57747
##zo	57720
Ġtested	57670
Ġcycle	57667
Ġdead	57607
Ġcareer	57595
Ġofficials	57579
##RA	57533
Ġimp	57521
ĠNews	57502
Ġbuffer	57492
Ġsummary	57485
Ġrelation	57469
Ġwants	57458
Ġ2006	57450
ĠEn	57439
Ġmid	57430
Ġmentioned	57428
##Ľ	57426
##GA	57387
##ode	57345
Ġstrength	57344
ldots	57342
Ġvoice	57342
##IC	57334
Ġelection	57310
Ġnil	57273
Ġhuge	57265
##lli	57258
ĠSet	57208
bm	57204
ĠGreen	57136
##UN	57105
ĠYour	57086
##§	57070
##ime	57064
##¶	57029
Ġprepared	57029
##ae	57026
##ify	57000
Ġsum	56932
one	56927
Ġleads	56880
Ġofficial	56878
Ġdespite	56870
Yes	56832
Ġtrust	56821
Dr	56816
ĠSa	56804
Ġstudent	56792
Ġunless	56779
Ġfemale	56779
##AT	56774
Ġagent	56774
##all	56752
Ġel	56717
##ora	56666
Ġmodule	56649
Ġstudied	56647
##ĭ	56640
ĠGi	56621
Ġins	56615
script	56599
ĠHi	56597
Ġ("	56582
Ġimproved	56573
Ġnuclear	56551
##hip	56535
content	56520
Ġtypically	56478
day	56467
Ġmetal	56463
Ġcombined	56463
##OS	56436
Ġexplain	56427
create	56409
##{{\	56398
##fl	56392
Ġwave	56365
Ġprotect	56357
##`	56351
New	56347
Ġsuccessful	56302
##¼	56286
dot	56267
Ġexperimental	56248
Ġsurvival	56243
et	56239
006	56228
Ġgrowing	56205
Calculate	56201
Ġcontrols	56178
Â¾	56158
##ged	56139
Ġcommunication	56128
Ġentry	56111
Ġminimum	56085
Ġpro	56081
Ġvote	56080
","	56036
Ġoccur	55980
##Class	55957
##76	55956
Ġjava	55931
**)	55921
Ġattempt	55918
##ld	55893
Phi	55879
Ġconfirmed	55872
##ving	55856
Ġpiece	55851
ba	55848
Ġsta	55827
Ġbank	55810
Na	55797
Ġkilled	55791
##ME	55759
##hy	55748
Ġhour	55748
Ġpicture	55747
ĠRes	55739
';	55720
},\	55708
Ġoptical	55671
ĠSc	55658
Ġchain	55652
ĠTV	55637
ĠNote	55631
500	55616
##90	55614
##yn	55593
Ġmolecular	55591
Ġguy	55580
Ġexternal	55554
##uri	55534
Ġcircumstances	55521
Ġcho	55513
Ġsociety	55502
Ġinduced	55498
object	55492
Ġperhaps	55459
Ġhttps	55451
Ġwouldn	55436
]^	55431
##20	55431
##--	55424
##nes	55419
##ult	55418
Ch	55415
Ġnames	55401
##wn	55391
Ġagreed	55387
Ġtools	55381
Ġraised	55324
ĠKa	55301
Ġoperations	55297
Ġcalls	55279
Ġad	55274
Ġtrack	55269
Ġanalyzed	55250
Ġlinks	55242
Ġjudge	55235
Ġassociation	55224
Ġreached	55186
Ġ57	55182
Ġachieve	55158
Ġwhereas	55156
##EN	55154
github	55149
Ġaffected	55134
ID	55111
[^	55109
Well	55100
Ġdied	55100
Ġfeet	55066
Ġemployees	55004
Ġofficer	55002
Ġclasses	54995
Ġdisc	54994
##ona	54992
Ġhandle	54992
ĊĠĠĠĠĠĠĠĠĠĠĠĠĠĠĠĠĠĠĠĠĠĠĠĠĠĠĠ	54962
we	54946
##ç	54931
Ġsentence	54914
ÂŃ	54901
ĠMost	54862
{{\	54854
ĠPa	54808
Ġcauses	54805
ĊĊĉ	54777
Ġsrc	54758
##ı	54704
##ient	54677
Ġ()	54648
Ġbi	54641
Ġinter	54621
Ġprobability	54609
Cl	54608
ĠBo	54595
##çļĦ	54579
Ġcredit	54572
##over	54526
Ġkept	54523
##cal	54507
##ui	54492
0000	54486
Ġcriminal	54482
ĠCA	54454
##	54423
ĠĠĠĠĠĠĠĠĠĠĠĠĠĠĠĠĠ	54409
ĠSP	54392
Ġefforts	54386
group	54385
otimes	54379
Ġcollected	54362
Fe	54357
\<	54345
Ġsoft	54336
Ġ58	54314
Ġtraditional	54292
prime	54254
Ġoccurred	54247
ĠGe	54243
Ġnet	54204
boldsymbol	54180
Ġcorrelation	54132
##eas	54104
Ġintroduced	54082
ĠTu	54056
ĠPark	54038
##ole	54010
##92	54008
ĠKo	54006
Ġdiscussion	54005
Ġsuggests	53990
Ġstorage	53975
Br	53949
ĠNOT	53946
##RT	53906
Li	53901
Ġestimated	53884
ĠRNA	53882
ĠFA	53861
Ġcertainly	53856
ĠGroup	53853
##ological	53849
Data	53833
Ġtravel	53816
ĠLondon	53808
Ġexplained	53801
Ġtechniques	53784
##83	53772
url	53769
Ġstation	53758
##har	53755
##Index	53753
Ġequivalent	53727
##¬	53722
Ġ61	53722
Why	53720
Ġmovie	53708
##è	53703
Add	53689
Ġdiagnosis	53687
##82	53656
Ġgeneration	53617
Ġstatute	53614
Ġgone	53597
circ	53590
##che	53585
Ġremaining	53576
##oc	53564
Ġabsence	53547
Ġcustom	53530
Ġprotection	53529
Ġsexual	53496
##vo	53485
ĠSE	53456
Ġappellant	53451
See	53429
Ġsummer	53426
ĠPe	53390
sa	53350
##ag	53321
Ġwhom	53318
Ġsemi	53294
Ġforces	53286
Ġprogress	53284
src	53283
Ġalgorithm	53276
##IP	53263
##ky	53248
Ġ2005	53237
##®	53232
specific	53172
Ġvalid	53170
field	53134
ab	53122
Ġrequirements	53117
ĠSA	53109
Ġbiggest	53057
Ma	53055
##istic	53055
ĠCH	53047
Ġloop	53005
Ġrecords	52996
ĠSha	52951
Ġ59	52916
Ġholding	52895
ĠSC	52881
##EA	52877
Ġbed	52874
Ġclean	52861
Ġran	52834
##ration	52831
Ġband	52830
Ġ62	52826
##een	52813
ĠNO	52813
##xe	52807
##67	52800
Ġgun	52754
##Time	52742
Ġflat	52729
##tle	52717
Our	52713
pa	52661
Sigma	52657
io	52646
Ġconventional	52631
##²	52630
db	52627
:"	52610
##AS	52596
Ġwish	52596
Ġolder	52556
ĠPost	52553
##yo	52542
Ġexchange	52529
##87	52521
de	52507
Lambda	52507
##ĸ	52507
##RO	52506
##ori	52501
Ġrep	52497
##¦	52491
Ġmissing	52474
Ġresponses	52462
comp	52457
Ġfloor	52448
Ġfear	52442
ĠEast	52431
Ġorganization	52424
ĠRec	52422
Ġserved	52421
Ġdel	52417
ĠPer	52417
Ġlaws	52409
off	52407
Ġpe	52407
Ġextent	52407
##ments	52392
##62	52377
##uc	52371
##ª	52354
ĠEach	52341
Ġadding	52328
Ġport	52327
)]	52322
čĊĠĠĠĠĠĠĠĠĠĠĠ	52316
##With	52287
count	52275
Ġoffers	52273
Ġcapital	52250
ĠAr	52217
Ġquantum	52184
##Ŀ	52177
Ġderived	52147
##au	52128
Ġsevere	52119
##Į	52111
Ġcreating	52110
CA	52066
Ġ66	52052
ĠTexas	52041
##Node	52028
Ġscience	52027
##ok	52021
Ġsubjects	52019
ij	52014
While	52002
Ġpurposes	51999
##ust	51995
å	51963
##73	51926
Ġenter	51921
Ġeconomy	51872
Ġanimal	51867
Ġav	51846
dr	51843
Ġ63	51839
ĠJa	51835
ĠBlack	51794
*(	51791
200	51747
Ġideas	51736
Ġintended	51702
Ġschools	51695
config	51688
##ND	51665
##set	51661
##13	51649
use	51627
##ell	51602
Ġfresh	51589
##GE	51580
##50	51539
##are	51519
Ġproperly	51517
.](	51511
##kin	51495
map	51479
ĠTrans	51474
ĠStreet	51469
Ġrepresents	51463
##64	51431
Ġresolution	51419
##Color	51401
ĠIP	51398
##if	51384
sl	51382
']	51371
Ġpar	51369
Ġmotor	51355
Set	51354
ĠIsrael	51354
Ġpara	51353
ĠBritish	51332
Ġdis	51318
Ġ${	51313
Ġexperiment	51291
Ġdecreased	51290
Ġdirector	51284
ĠRep	51266
##ves	51264
'}	51262
##78	51237
ĠAS	51194
Ġdie	51151
Ta	51144
##ji	51136
##Map	51124
ĠSupreme	51123
ĠInter	51118
##93	51098
##ima	51053
Ġfair	51046
##ov	51042
Ġauthority	51041
mbox	51011
PR	50997
007	50993
Ġrise	50989
nonumber	50986
Ġmechanisms	50986
Ġprofile	50985
Ġdoubt	50980
Ġind	50976
Ġvirus	50970
Ġprotected	50948
ĠGoogle	50947
##32	50935
##30	50928
ĠEurope	50923
##mon	50892
Ġlargest	50886
induced	50880
Ġfeeling	50854
Ġattorney	50847
Ġdev	50841
ĠFa	50836
case	50831
Hi	50822
##ys	50805
##68	50795
##40	50792
##board	50785
##22	50784
Ġcold	50759
ĠFoundation	50755
Ġinterests	50735
level	50729
ne	50723
Ġteams	50721
ĠNS	50715
Ġcatch	50698
Ġbalance	50693
Ġeat	50680
Ġinstall	50668
Ġmembrane	50661
##oma	50657
##61	50646
ensuremath	50639
Ġtechnique	50637
"></	50636
ĠPeople	50635
Ġuns	50623
fe	50621
##ford	50620
##sis	50613
Ġcrime	50604
Ġofficers	50601
exp	50599
Ġund	50572
date	50550
Ġcontained	50502
Di	50485
Ġfoot	50484
However	50465
Ġslightly	50439
Ġfat	50423
##é	50422
Ġformula	50405
el	50381
##ign	50378
ĠFriday	50377
##79	50300
ĠTwo	50287
((	50277
##42	50257
red	50248
Ġcoverage	50245
##ably	50212
ĠCouncil	50205
##ress	50196
##pt	50195
default	50191
Ġsales	50180
ĠQu	50166
body	50140
Ġmm	50117
}-	50112
Ġfight	50108
ĠEx	50099
Ġnoise	50093
Ġdriver	50091
Ġbool	50083
Ġshared	50081
##¾	50080
##For	50078
)?	50075
Ġguys	50034
Ġslow	50032
ĠCommission	50032
Ġcard	50014
ĠLA	50012
##ack	50010
Ġcharged	50000
##chi	49995
Ġap	49960
Ġerrors	49956
Ġcharacters	49947
Ġopening	49945
Ġsun	49938
##¹	49928
ĠPro	49889
ĠCu	49886
Ġlatest	49880
##84	49870
ĠCalculate	49862
ĠSl	49844
Ġchemical	49839
Ġprojects	49836
ĠCanada	49833
ĠChinese	49826
##Event	49823
ĠAT	49821
Ġrel	49775
Ġdose	49775
Ġoffered	49747
##ath	49741
Go	49715
##81	49706
##23	49700
##ye	49694
ĠChrist	49694
Ġimmun	49687
main	49685
##ord	49659
Ġannounced	49624
Ġscript	49611
##ham	49554
##45	49547
Ġring	49542
ĠBE	49538
Ġdescribe	49530
Ġval	49508
Ġpa	49478
Ġra	49448
Ġentered	49443
##ake	49426
Ġenvironmental	49426
Sp	49416
Sc	49402
Ġgain	49400
Ġinteractions	49356
Ġagents	49354
##35	49340
col	49307
##38	49306
model	49252
ĠJust	49225
Ġsupply	49213
ĠDO	49208
result	49192
ĠNa	49192
##berg	49177
ĠAb	49167
Ġaccept	49153
ĠFree	49153
##mal	49144
ĠChe	49134
view	49131
2015	49127
##39	49124
da	49118
Ġspeech	49117
Ġdecrease	49104
Ġbio	49102
##ade	49087
Ġdog	49077
api	49073
ĠJames	49073
##11	49057
Me	49052
Se	49050
ĠIC	49047
##Of	49041
##gs	49034
**]{},	49018
##ļ	49013
ĠTra	49003
Ġagency	49000
Ġswitch	48968
version	48962
Ġanalyses	48962
core	48957
.[@	48948
Ġfilter	48922
##94	48896
Ġviews	48896
(&	48892
Ġconcentrations	48888
py	48885
ĠMar	48875
Ġ"[	48852
âĢ¢	48851
Some	48849
##acy	48848
Ġdigital	48844
open	48840
##72	48831
Ġchronic	48822
Ġoutcome	48790
čĊĉ	48789
##als	48774
Ġborn	48770
Ġ+=	48758
##ato	48731
ĠFOR	48724
čĊč	48711
Ġgenetic	48700
Ġexistence	48698
ĠSuch	48697
Ġreceptor	48684
âĢĬ	48683
Ġstable	48655
##98	48644
Ġpo	48632
summary	48615
##osis	48612
##ht	48585
Ġpurchase	48585
Ne	48584
##51	48584
sc	48557
Ġfinite	48546
Ġcommercial	48546
Ġexpress	48538
ĠPar	48523
Ġequipment	48509
Ġpossibility	48508
##44	48505
Ġstars	48504
Ġplants	48486
---------------------------------	48484
Ġcarbon	48477
ĠMonday	48452
Ġdriving	48451
Ġoperating	48450
##18	48430
##ash	48420
Ġcompleted	48394
Ġtransport	48386
Ġmax	48348
Ġgirl	48344
Ġreturns	48340
Ġquery	48338
ĠMac	48333
material	48318
Ġ2004	48317
Ġpatterns	48307
Ġbeautiful	48306
##14	48291
Ġhyper	48277
Â	48261
##ong	48258
##ets	48258
Ġinteger	48257
Ġguess	48254
func	48248
Ġsignals	48238
##eu	48237
_.	48234
ĠCC	48234
Ġwhatever	48231
##its	48229
Don	48222
Ġheavy	48215
MA	48214
##rate	48213
##CH	48213
Ġliver	48171
Ġdraw	48170
âĢĿ.	48159
##ura	48157
##63	48156
Ġidentity	48153
ĠWa	48144
Ġsmooth	48132
##fer	48130
Ġinner	48119
su	48099
ĠĠĠĠĠĠĠĠĠĠĠĠĠĠĠĠĠĠĠ	48060
Ġscene	48058
##16	48056
)"	48046
Ġmobile	48044
Ġdiseases	48010
Ġinterested	47988
Ġgenerate	47987
Ġalleged	47985
Ġtransmission	47966
ĠBank	47961
ĠService	47960
({\	47959
##uring	47938
Big	47933
##we	47930
##15	47897
##field	47882
Ġbutton	47875
Test	47861
ĠHu	47817
##75	47799
Ġappeared	47780
Ġ};	47774
Ġrich	47774
Ġimportance	47762
Ġindicates	47754
Ġmaintain	47748
Ġac	47731
##du	47727
##_{	47724
Ġaren	47695
Ġ00	47687
##¿	47679
##95	47662
Ġ68	47657
From	47654
style	47649
Ġspectrum	47630
ĠWeb	47626
Ġruns	47607
ĠSu	47591
ĠBoth	47588
##CO	47568
##91	47560
Ġconfiguration	47550
Ġhusband	47541
Ġcontrolled	47529
##25	47519
ĠShi	47511
Ġconcept	47510
##41	47481
Ġhappens	47456
Ġholds	47455
ĠSunday	47438
widetilde	47434
##ena	47417
ĠMI	47414
Ġconclusion	47412
Ġdemand	47403
##53	47393
Ġsequences	47393
}}}	47382
##ini	47375
Ġ2019	47358
Ġabuse	47355
Ġmouse	47341
##Array	47333
Ġstraight	47309
##ux	47305
ĠWestern	47305
ph	47296
##atory	47286
Ġfootball	47280
##eb	47270
init	47266
##±	47258
Ġpeak	47256
##cu	47249
##65	47222
kappa	47211
Ġstruct	47207
Ġtrip	47189
##³	47179
Ġparticles	47175
nabla	47143
##ren	47126
##97	47121
##37	47116
mi	47112
Ġempty	47109
Ġ67	47100
##LI	47097
*]{}	47078
Ġvoltage	47074
Ġthrow	47061
Ġsecondary	47048
Ġdefendants	47044
ĠDE	47044
Ġreality	47037
Ġgrow	47028
({	46994
Ġtri	46986
Ġenjoy	46947
Ġshift	46946
property	46921
##AN	46921
##Code	46917
Ġbreast	46888
ĠAss	46882
##ville	46847
Ġplasma	46847
Ġ85	46838
##ang	46837
##56	46822
Ġfill	46821
Ġreferred	46818
Ġgraph	46817
Ġmeasurements	46805
ĠPart	46798
][	46795
##our	46794
ĠInstitute	46794
##rus	46778
##atic	46776
Cr	46769
ĠTheorem	46737
##af	46719
##ost	46689
##ill	46678
Ġ500	46668
##iv	46663
ĠSuper	46662
ĠLaw	46659
##con	46645
##port	46641
check	46633
Ġha	46627
Ġsession	46625
Ġrepresentation	46615
ĠAccording	46609
Ġcontinuous	46585
gr	46572
Ġinterview	46540
##88	46529
##AP	46516
##OL	46515
Ġseemed	46514
##tre	46505
ar	46499
##52	46495
##ef	46486
ĠArt	46469
Ġdeveloping	46468
ĠAL	46467
Ġvo	46461
##ata	46440
##Group	46403
Un	46400
Ġthank	46398
Ġbus	46388
Ġstatements	46378
you	46365
Ġremainder	46365
ĠSmith	46360
##NA	46359
ĠComp	46333
Ġspeak	46321
Ġtend	46311
Ġlibrary	46282
ĠĠĠĠĠĠĠĠĠĠĠĠĠĠĠĠĠĠ	46279
ĠDay	46275
Ġadvantage	46262
Ġri	46256
ĠMichael	46242
Ġgl	46235
ĠRo	46227
ĠAdd	46222
##ew	46214
##CC	46208
ĠYes	46179
Ġdist	46177
Ġnation	46174
ex	46162
Ġsold	46158
Ġ99	46144
##PA	46139
##å	46126
Ġconf	46123
Ġjobs	46115
008	46068
Ga	46060
Comp	46058
##86	46054
##sl	46052
Ġsi	46015
##net	45979
Ġleaders	45975
Ġhaven	45973
Ġadult	45950
^[@	45942
Ġliterature	45939
ĠCompany	45925
ĠPress	45921
##ural	45911
##ock	45898
##ven	45897
Ġsw	45890
Ġcollege	45889
##59	45887
Ġapproved	45872
##54	45862
Ġplatform	45859
Ġworse	45841
##69	45839
Ġcur	45834
##AR	45809
##17	45776
##len	45754
Ġlatter	45747
##ail	45746
ĠFacebook	45739
Ġcarry	45729
##gan	45722
false	45715
Ġ71	45700
Ġmu	45689
Ġissued	45681
ĠBig	45678
pe	45666
##Manager	45620
Ġclub	45598
Ġsquare	45587
CD	45584
Ġextremely	45584
##ination	45582
ĠCommittee	45543
##ari	45506
Ġknows	45486
NO	45471
Ġspot	45465
per	45456
Ġbooks	45429
Ġalcohol	45420
]{	45416
Ġestimate	45405
Ġexamples	45376
##¢	45373
Ġleader	45369
Ġcharges	45364
Ġcovered	45358
##ulation	45346
"]	45319
ĠUnion	45301
Ġserum	45291
Name	45286
Ġfa	45278
ĠSun	45277
ĠJapan	45259
Ġexception	45251
Ġahead	45250
Ġregulation	45235
##view	45221
##19	45204
##IA	45189
Ġcool	45173
Ġclick	45147
##ati	45116
Ġaware	45113
##28	45112
Ġcent	45112
Ġpush	45109
Ġsubstantial	45106
ml	45091
Ġsigned	45089
]),	45088
Ġopened	45079
ĠBio	45076
ĠWhy	45075
ĠTime	45075
##pl	45070
##fo	45063
Ġbo	45055
Ġimplementation	45035
Ġfluid	45019
Pa	45003
##43	45001
##rin	44960
##96	44958
apache	44951
Ġcustomers	44941
##70	44940
pre	44933
Ġem	44917
Ġsuit	44908
ĠFu	44906
Ġchurch	44904
Ġ69	44900
Ġsea	44867
AS	44864
order	44860
char	44859
ĠSO	44856
Ġoccurs	44844
##uct	44838
2016	44823
##29	44818
ĠBrown	44792
##col	44786
Ġlose	44781
Ġfish	44776
").	44774
ĠLeague	44773
Ġextension	44762
ĠHA	44745
Ġrecorded	44718
post	44715
Ġdelivery	44697
Ġcompounds	44692
}}{	44687
Ġdecisions	44660
ĊĊĠĠĠĠĠĠ	44648
Ġexact	44640
##Request	44636
Ġdiscuss	44632
Ġsn	44630
Ġcalling	44626
##otic	44609
pr	44584
Ġlabel	44556
ĠInt	44551
Ġfloat	44546
Ġreceiving	44531
Ġevaluated	44524
##34	44523
##rl	44521
ms	44518
Ġnetworks	44515
ST	44514
Ġassay	44508
Ġdiet	44489
Ġpowerful	44488
Ġnorth	44488
ĠTuesday	44487
Ġfreedom	44483
Ġallowing	44450
ĠHar	44448
##cer	44437
Ġextended	44437
Ġviolence	44429
Ġleaves	44427
ĠAmericans	44416
Ġorigin	44409
ĠFrench	44401
Ġfix	44400
ĠFr	44396
ĠPD	44367
ĠĠĠĠĠĠĠĠĠĠĠĠĠĠĠĠĠĠĠĠĠĠĠĠĠĠĠĠĠĠĠĠĠĠĠĠĠĠĠĠĠĠĠĠĠĠĠĠĠĠĠĠĠĠĠĠĠĠĠĠĠĠĠĠĠ	44359
##48	44350
Ġ2003	44347
##cent	44341
Ġpercentage	44317
Ġplate	44296
Ġestablish	44289
ĠUnder	44285
)*(	44276
Ġoutcomes	44276
ĠTest	44272
2013	44264
##½	44260
Ġsale	44246
##Test	44245
##Se	44238
##ned	44233
Ġconcerns	44228
##oni	44222
##27	44221
##ida	44212
Ġsubsequent	44207
##des	44198
Ġleaving	44198
Te	44197
##lia	44196
2014	44187
Ġassessment	44187
Ġbirth	44180
block	44172
ĠCe	44171
\}	44168
cl	44166
Ġge	44166
ĠCollege	44165
Ġthousands	44164
endif	44140
##mat	44135
Ġfaith	44111
##mic	44108
num	44107
Ġtestified	44102
Ġhelped	44100
height	44089
})$	44084
Ġaid	44084
Ġmuscle	44081
Ġmon	44080
Ġmostly	44072
ĠOpen	44064
Ġban	44062
Ġimmune	44061
Ġqui	44052
Ġowner	44046
Ġunderlying	44042
##NS	44038
Ġevolution	44021
Ġarguments	44000
ĠFinally	43993
Po	43990
##cs	43987
CH	43986
ĠIT	43950
Ġraise	43940
ĠAssociation	43938
Ġefficiency	43936
ĠDA	43930
ĠDuring	43913
##oa	43876
##AM	43865
##CE	43858
ï¼Į	43839
##AC	43839
ĠPS	43827
util	43815
target	43800
Ġcriteria	43783
ĠBen	43782
Ġtraffic	43775
Ġrepresented	43765
ĠGovernment	43755
##26	43750
ĠUsing	43736
Th	43732
##ano	43720
Ġcentury	43710
ĠReg	43699
0001	43683
Ġbaby	43672
err	43668
Ġapparatus	43633
Ġgreatest	43590
using	43588
Ġexamined	43577
local	43559
##ition	43557
Ġche	43531
ĠKing	43526
NS	43525
##Ĭ	43514
Ġbudget	43506
where	43490
Ġspecified	43462
Ġlearned	43461
Ġplane	43456
,'	43454
Ġfirm	43446
ĠCT	43416
Ġeventually	43408
ea	43407
Ġ96	43387
##av	43382
ĠVo	43380
ĠOther	43378
zeta	43371
##VE	43361
ĠDC	43356
##med	43349
ĠDa	43341
##TC	43340
Ġdetail	43330
Ġcandidate	43290
Ġcurve	43287
ĠAP	43270
##ou	43261
Ġer	43258
Ġscheme	43250
gu	43229
Ġdry	43229
val	43226
Ġvisual	43214
Ġdepends	43212
message	43208
Pro	43195
##ãĥ	43195
ĠMany	43194
Ġlimitations	43191
Ġincident	43165
Ġsecret	43148
ĠChurch	43140
Ġpositions	43134
Ġlicense	43128
Ġstream	43111
}}^	43057
ĠJudge	43056
ĠGermany	43018
Ġdistinct	43009
Ġsurvey	43006
Ġmaster	43006
2012	43000
ĠIII	42967
##Message	42964
Ġideal	42961
Ġfuel	42953
##89	42952
vi	42947
Ġyes	42930
Ġinvestigated	42926
Ġ77	42926
##ave	42919
ĠâĢ¦	42919
##Â	42909
Ġmis	42899
##uch	42877
\{	42872
Ġfl	42856
Ġspread	42853
##US	42847
##99	42839
Ġachieved	42831
ha	42819
dots	42812
ĠNone	42805
ĠScience	42804
Ġne	42795
ĠWell	42794
##down	42789
}}_{	42786
Ġtypical	42783
ĠRA	42783
##list	42781
std	42762
##map	42756
Ġpin	42755
first	42746
Ġ73	42745
Ġpathway	42733
Ġ2001	42725
Ġsa	42718
Ġgoals	42717
Ġ${{\	42686
Ġmixed	42685
##vel	42672
Ġcla	42661
Ġchanging	42658
ĠEq	42638
Ġpolicies	42635
##55	42633
Ġcast	42627
Ġglass	42620
##ars	42617
##47	42607
Ġspend	42607
dimensional	42599
Type	42599
##iff	42587
Si	42564
##my	42548
Ġprocedures	42535
Ġdigit	42534
dt	42533
Ġstandards	42532
Ġfilms	42519
Ad	42517
supplementary	42495
##ik	42489
Ġrecovery	42480
##eri	42467
ĠME	42466
write	42461
ĠCR	42458
Ġapplicable	42451
ĠUN	42449
##ku	42445
}.	42437
Ġcomplaint	42434
Ġgranted	42430
Ġ81	42421
Ġangle	42402
cell	42398
Ġthin	42385
##uo	42382
dependent	42381
##mit	42377
Ġ74	42376
Ġbiological	42372
Ġquick	42364
Ġjoin	42341
Ġexc	42339
Ġcivil	42335
##ising	42332
##Field	42329
##ws	42321
/(	42319
?âĢĿ	42309
^*	42283
.</	42276
Ġstrain	42258
Ġcap	42239
List	42235
ĠKe	42235
These	42231
Ġlib	42228
Ġch	42209
##alo	42206
Ġexpansion	42202
Ġacts	42200
##aw	42189
Ġisolated	42188
##Service	42187
##NE	42180
##49	42173
Ġsalt	42167
Ġfavor	42166
page	42163
Ġmurder	42153
)=\	42137
Ġtrain	42132
Ġsouth	42130
gl	42126
ĠType	42110
Ġmar	42103
trans	42098
##ened	42096
Ġdesired	42085
Ġdelay	42084
fr	42069
Ġcup	42063
ĠDis	42058
Ġseeing	42042
Ġevaluation	42042
ĠGeorge	42039
ast	42038
ĠAir	42033
Ġ84	42018
ĠAR	42001
2017	41981
##TH	41979
Ġeasier	41968
##66	41967
Ġstanding	41940
ĠOver	41937
Ġsubstrate	41926
##ran	41925
##ita	41915
##ung	41897
##Ð°	41890
Ġdec	41883
Ġmanager	41878
Ġevaluate	41866
Ġindeed	41864
Ġsections	41863
Ġrelief	41831
ĠRu	41831
Ġstrongly	41829
}+	41810
Ġdetailed	41798
Ġfunds	41796
Ġelectronic	41792
##yr	41790
Ġ76	41770
Ġinvestment	41759
ĠUI	41742
Ġinvestigate	41733
man	41726
Ġobvious	41717
Then	41711
ĠWhich	41707
Ġweak	41703
Ġchosen	41701
button	41697
##gra	41696
##).	41695
ĠFl	41687
Ġfourth	41684
Ġ78	41668
##46	41659
rd	41645
Ġkill	41641
Ġentitled	41637
Ġ300	41635
Ġ{{\	41634
format	41624
Ġfore	41615
Ġreplace	41607
æ	41605
Ġecho	41589
Ġlo	41586
ĠMark	41584
Ġser	41583
Ġsell	41568
ĠBu	41554
##58	41544
Ġstored	41539
Ġcategory	41539
##unt	41531
ĠThursday	41530
##lor	41516
##ĠĠĠĠ	41506
ĠLO	41477
##Model	41468
Ġbroad	41455
run	41439
Ġcommitted	41437
Ġcluster	41432
Ġmine	41427
ĠBill	41424
##TT	41401
Ġdaughter	41399
font	41386
Ġmeant	41379
"}.	41374
Ġduty	41368
Ġconclude	41368
##bs	41349
Ġconsidering	41341
ĠKu	41338
ĠEngland	41316
Ġdirected	41298
Ġna	41292
++	41291
##sk	41256
ĠRef	41253
##cing	41244
Ċĉĉĉĉĉ	41244
back	41235
ĠOS	41233
ĠFlorida	41231
bi	41222
2000	41207
Ġpayment	41207
.**	41206
Ġthanks	41204
Ġscope	41204
Ġwarm	41202
ĠĠĠĠĠĠĠĠĠĠĠĠĠĠĠĠĠĠĠĠ	41200
Ġsolve	41191
ĠWednesday	41191
Ġma	41172
Pre	41168
Ġprices	41168
Ġskills	41167
Or	41164
Â½	41151
Ġvictim	41145
Per	41120
##ez	41108
Ġdocuments	41105
Ġforced	41103
ĠParty	41098
bo	41084
Ġreligious	41082
##ening	41077
ĠHome	41069
Just	41060
##vin	41049
ĠInd	41044
##off	41031
lo	41017
Ġdebt	41009
##zz	41008
Ġintervention	41005
ĠGerman	40998
Ġpen	40995
Ġlisted	40994
##PE	40982
ĠCL	40969
ĠÃ	40964
Ġforth	40951
Ġ120	40948
Ġ2002	40931
Ġop	40922
Ġplays	40919
##sy	40874
Ġconflict	40857
Ġinc	40844
Ġdetermination	40839
ind	40831
ĠCopyright	40827
Ġstories	40825
ĠKr	40819
Ġequations	40817
Ġfocused	40796
ĠSolve	40767
Ġdepending	40755
##Image	40748
Ġmiles	40736
Ġvariation	40729
##ware	40726
Ġwaiting	40712
ĠWill	40705
Ġconcern	40694
null	40686
##ery	40678
Ġvirtual	40676
nd	40673
Ġcash	40673
Î²	40665
ĠFrance	40652
dd	40650
web	40645
ĠBra	40643
Ġexcellent	40640
Ġbrief	40640
Ġresulted	40628
ĠRussia	40625
Am	40618
Ġfans	40604
ĠSe	40573
Ġmeasurement	40557
Ġrev	40555
ĠGen	40553
Ġuint	40543
ĠGl	40530
ĠSaturday	40528
Ġobservations	40519
Ġpossibly	40514
##IR	40491
Ġversus	40489
ĠVal	40483
Ġparallel	40482
Ġmodified	40468
Ġbelieved	40444
##lon	40442
TR	40424
ĠAny	40423
cdots	40420
Ġtreat	40393
Qu	40388
Ġprotocol	40383
ĠHIV	40383
##iss	40378
Ġregard	40375
##VI	40359
120	40348
ĠTA	40343
##IL	40336
sin	40325
Ġassuming	40300
ĠFile	40290
Ġsm	40281
ĠCircuit	40271
ĠName	40266
##UR	40265
First	40261
##St	40230
ĠTom	40228
Ġnodes	40226
Ġhousing	40226
Ġneither	40223
Ġtouch	40213
)[	40201
010	40199
##Box	40193
Ġfees	40188
ĠOffice	40186
Ġduration	40173
##âĢĿ	40170
ĠClass	40166
##ark	40149
Ġoffense	40143
prop	40139
Ġtwice	40101
ĠEd	40098
##las	40086
ĠLord	40083
##Int	40071
Ġemployed	40062
Ġdep	40053
part	40049
Ġapproaches	40048
Ġcommunities	40042
Ġ_{	40040
##ich	40035
Ġ82	40035
Ġresource	40014
Ġdamages	40008
Ġgrand	40003
request	39979
##",	39977
Ġthread	39961
Ġcompare	39953
Ġ88	39953
ĠEnd	39942
##Count	39928
ĠEC	39928
vert	39923
Ġconfidence	39922
Ġplanning	39891
Ġaward	39852
Ġseek	39851
Ġmo	39770
json	39765
ĠCM	39757
match	39742
ĠUse	39738
Ġ92	39730
ĠPre	39718
##71	39716
ĠWindows	39703
Ġscores	39702
Ġboy	39701
Ġstreet	39690
Ġfunding	39662
Ġship	39645
Ġaccuracy	39644
IN	39636
Ġwaste	39636
status	39611
ĠSM	39607
Ġcm	39606
Ġhelps	39603
Ġconcerned	39569
ĠStar	39564
]--[@	39562
qu	39556
2011	39545
##Ãĥ	39543
ĠSI	39543
ĠPh	39539
Ġefficient	39535
ĠĊĠ	39535
Ġtrials	39525
Ġar	39501
inter	39495
Ġwear	39492
Ġsensitivity	39478
##gar	39456
Ġadvice	39450
##eli	39444
2010	39435
##can	39434
ĠDec	39433
Ġsplit	39418
##77	39412
##ded	39401
Ġmainly	39400
##ering	39399
Ġiso	39390
Ġguilty	39388
Ð	39384
ĠĠĠĠĠĠĠĠĠĠĠĠĠĠĠĠĠĠĠĠĠ	39383
Ġboundary	39360
Ġasking	39356
ass	39347
Ġadults	39330
Ġrelationships	39321
ãĢĤ	39274
++)	39259
ĠProgram	39258
Ġreverse	39254
Ġpop	39247
ĠJapanese	39246
Ġinvolving	39236
##par	39233
Ġexperienced	39228
##ame	39207
context	39203
event	39193
Ġburden	39187
Ġelectron	39178
Ġfinished	39171
##57	39161
##ris	39160
Since	39158
Ġexposed	39148
ĠVer	39145
##36	39144
%.	39143
Ġfan	39141
ga	39139
....	39127
has	39116
Which	39115
op	39102
Ġsignaling	39101
Ġcontribution	39098
##ama	39095
##ule	39080
Ġextends	39075
Ġconsent	39065
##rio	39060
Ni	39042
##85	39026
ĠMinister	39022
Ġest	39019
'.	39016
ĠFederal	39014
##isation	39013
Ġ*)	38995
Ġemployee	38985
ĠOut	38978
ă	38978
Ġcapable	38976
ĠJesus	38976
Ġcoach	38970
Ġframework	38961
Ġacute	38961
Ġmono	38952
lang	38942
MS	38936
Ġcontinues	38918
Ġintent	38908
ĠÃĹ	38903
Ġ83	38903
##IO	38901
reg	38894
Ġfundamental	38891
ĠVa	38870
bb	38864
xml	38854
author	38853
##nic	38851
ĠTri	38843
client	38830
Ġcomposition	38825
##^{	38820
##$$	38815
ĠGood	38813
Ġsettings	38812
Ġiron	38809
##ision	38803
ĠCP	38802
Ġplot	38798
Mar	38792
parent	38788
ĠAustralia	38787
ĠInternet	38783
Ġdepartment	38773
ĠJustice	38771
Ġassessed	38770
Ġintensity	38766
##ass	38760
Lo	38756
##74	38742
ĠBay	38740
##Ðµ	38739
Ġsides	38724
čĊĠĠĠĠĠ	38724
**(-	38690
##OP	38688
md	38670
##itis	38665
Ġguide	38662
"})	38646
##iation	38640
##ward	38624
##uss	38613
Ġadvance	38612
##ob	38611
|\	38591
Ġice	38588
##je	38586
##ulated	38583
Ġcompetition	38581
Ġgrant	38579
Ġordered	38575
Ġdemonstrate	38571
Ġadvanced	38570
Ġsugar	38569
Ġpull	38565
Ġmassive	38564
Ġdecide	38558
Ġpartner	38549
##load	38548
Ġplaintiffs	38547
Ġrelates	38515
##ture	38503
ĠMC	38501
Ġgold	38492
arg	38485
Ġminor	38483
si	38476
layout	38476
Ġprop	38447
Ġ79	38444
##pu	38438
ĠDel	38435
kg	38433
Ġassess	38413
##Table	38411
else	38408
ĠPlease	38402
Ġpersons	38401
ĠRE	38396
##ãĤ	38369
ĠJo	38369
##ula	38361
##ET	38336
Ġbrother	38326
Ġchallenges	38313
ĠRule	38310
Ġpotentially	38306
Ġinterval	38303
Ġsuitable	38298
Ġimaging	38295
ĠCS	38279
Ġjoint	38264
Ġhumans	38258
Ġvelocity	38252
ĠFIG	38246
Ġconference	38212
à¤	38195
##flow	38193
Ġrats	38191
scale	38184
Ġstopped	38179
Ġce	38161
##}\	38158
2018	38148
Ġstatistical	38136
Ġchief	38136
Ġdoctor	38134
Ġidentification	38129
##RS	38124
##KE	38117
012	38108
Ġimprovement	38106
##ju	38101
##NC	38094
Ġintra	38087
Ġsit	38084
ĠAc	38083
##wood	38052
##ush	38050
Ġengine	38048
Ġcourts	38048
Ġstr	38046
Ġrare	38041
Ġ150	38040
ĠNA	38035
##cha	38024
Ġ[]	38022
ĠSH	38020
##OM	38014
ĠDefendant	38004
Simplify	37985
##ther	37985
SD	37984
Ġclaimed	37981
011	37975
Ġremained	37971
Ġdownload	37959
Pr	37949
}=\	37948
Str	37945
Ġro	37942
Ġopposite	37942
)))	37941
Ġles	37932
##ming	37915
##EM	37902
Ġobjective	37902
mg	37888
##ides	37886
ĠEU	37884
Ġlung	37883
Ġnano	37880
Ġended	37861
current	37853
##ection	37851
tra	37843
Ġspring	37836
Ġunknown	37815
Ġroute	37807
Ġpartial	37807
ĠSS	37790
II	37775
128	37751
Ġsuggesting	37751
##Element	37742
ĠRussian	37737
)^{	37713
Ġbag	37713
ĠAC	37706
Ġfrequently	37689
##lation	37681
Ġdiscovered	37679
##ink	37668
Ġhence	37662
Ġreflect	37661
ĠÂ£	37641
##DA	37639
Ġradiation	37639
##illa	37632
Ġnine	37632
ĠRepublican	37627
ĠDan	37620
Ġexamine	37610
Man	37597
ĠFurther	37560
ĠMal	37522
Ġsweet	37518
Ġargues	37518
ĠHE	37500
Ġbone	37498
Ġprincipal	37497
Ġjustice	37490
^âĪĴ	37487
De	37476
Ġgap	37468
Ġlimits	37467
##row	37464
##str	37447
Ġperi	37444
Ġnecessarily	37434
##imi	37423
Ġwind	37420
Ġestate	37419
##ining	37413
##(\	37411
Ġmarriage	37409
Ġarms	37401
([	37381
Ġpool	37375
ĠCha	37374
Ġseat	37373
ĠSam	37353
ii	37349
Ġannual	37338
ĠANY	37300
Ġ[[	37296
>(	37290
Ġseconds	37263
##hl	37261
Ġaxis	37261
bl	37253
ĠPen	37251
ĠPu	37247
âĢĿ,	37229
**]{}	37224
En	37216
##pen	37210
Ġassembly	37210
CO	37206
According	37203
##,\	37201
Ġstability	37191
select	37186
Override	37169
Ġdependent	37138
ĠHence	37117
Ġ97	37117
##-\	37100
Ġgender	37099
Ġbr	37092
ĠObject	37090
Ġwidely	37087
Ġrespond	37087
Ġcl	37086
ret	37080
Ġ86	37074
Ġoral	37071
ĠGA	37048
ĠTwitter	37039
âĪĴ	37038
Ġpetition	37037
section	37035
Ġantibody	37024
##rop	37023
Ġthereby	37020
ĠJohnson	37016
AD	37010
##zed	37008
##Ã¤	37004
Ġdefinitely	36979
##itation	36972
ĠAre	36971
Ġbrand	36968
Ġthreshold	36967
Ġabsolute	36957
##nel	36949
------	36945
ĠRead	36945
##cho	36944
ĠEr	36940
Ġprovision	36933
head	36932
009	36930
fi	36921
ĠLog	36916
Ġho	36911
Ġdisorder	36903
show	36891
101	36888
Ġlinked	36884
Ġquarter	36882
Ġmark	36881
Ġaspects	36856
Note	36840
##yp	36838
Ġstarts	36830
Ġpeace	36828
Ġinv	36828
Ġdetect	36824
ĠSecond	36817
Ġattacks	36816
##ÃĹÂ	36810
Ġnumerous	36807
ĠRobert	36807
Ġcamera	36805
##ters	36801
##ola	36796
Ġkeeping	36796
ĠMath	36793
Ġimplies	36788
ĠMP	36782
Ġau	36779
Ġelectric	36775
Ġpopulations	36771
Ġsupra	36767
Ġindicating	36752
Î±	36738
"),	36735
Ġmouth	36734
Ġrelations	36728
ĠGive	36728
Ġstructural	36724
##car	36722
.*	36721
se	36714
Ġcomposite	36700
ĠChi	36699
##İ	36694
Ġpp	36694
Rev	36684
Ġmixture	36684
ĠOnce	36679
##lam	36678
Ġder	36668
Text	36662
ĠIR	36660
can	36646
ĠDirector	36628
Ġpsych	36620
Ġaccepted	36612
Ġinterpretation	36603
##code	36599
##EL	36599
ĠGr	36589
ĠChristian	36580
ĠOnly	36562
Ġunable	36547
Ġmortality	36546
##MI	36540
Ġinfo	36537
Ġends	36534
Ġinstructions	36532
Ġdebate	36532
inf	36530
Ġentirely	36525
Ġviolation	36523
Solve	36520
Ġimm	36520
ĠRT	36516
150	36515
Ġmission	36512
Ġenable	36494
row	36493
na	36491
Ġtruly	36481
##ids	36475
##eno	36471
Ġrecognized	36466
Ġsupposed	36457
Ġhole	36456
##Button	36455
##Î	36436
Ġcellular	36436
ĠIll	36436
##ique	36434
Ġgonna	36432
ĠĊĠĠĠ	36428
##AD	36424
]}	36415
Ġmix	36398
Ġscientific	36394
Ġpractices	36391
Â·	36390
Ġcontribute	36385
Ġrepair	36381
Pe	36375
Ġgirls	36374
##work	36373
///	36367
##Cs	36367
##ì	36364
msgid	36360
me	36356
Ġnotes	36339
mo	36328
equiv	36310
Ġ}}	36310
Ġnarrow	36307
##EE	36304
Ġaim	36303
Ġarrest	36298
Ġ\{	36292
Ġdegrees	36288
$)	36283
##cul	36274
ĠProject	36272
âĢ²	36257
Ġ191	36256
Ġsupporting	36248
Ġemployment	36246
Ġ89	36244
##hal	36230
ĠGL	36221
Ġfraction	36217
##ito	36199
ĠHospital	36193
Ġexplore	36191
ĠSenate	36190
Ġexp	36189
Ġ87	36185
msgstr	36175
##rad	36175
Ġbattle	36174
##ivity	36173
append	36150
##book	36140
##ste	36139
ĠTimes	36135
##rit	36125
Ġresponsibility	36123
SE	36117
rel	36108
##ility	36094
Ġtag	36093
Ġbecoming	36090
Ġsigns	36089
Ġminute	36085
img	36078
300	36077
Ġprison	36070
)}\	36066
Ġextract	36065
Ġuna	36037
gt	36035
##urn	36035
Ġmenu	36029
##ega	36026
ÃĹ	36025
Ġattached	36018
dir	36009
##aring	36007
##ith	36003
Ġappearance	36003
##Ca	35993
##yer	35992
Ġvitro	35990
Ġdisk	35989
##old	35983
Ġtechnical	35971
Ġ400	35966
ĠCh	35962
Ġsensitive	35927
ĠSD	35925
ĠLife	35922
Ġfail	35918
po	35916
ĠHall	35911
##ien	35909
^+^	35896
ĠIndian	35888
Ġcompound	35887
Ġmanaged	35882
Ġresidents	35879
point	35871
Ġ91	35861
.-	35855
ĠMin	35833
Ġoffset	35832
ĊĠĠĠĠĠĠĠĠĠĠĠĠĠĠĠĠĠ	35823
##bit	35822
##ese	35819
Ġti	35811
##vis	35803
##24	35799
Ġmolecules	35791
Ġdynamic	35791
widehat	35785
Ġconcluded	35775
##py	35738
ĠAPI	35736
##mar	35731
png	35706
[\	35703
##ico	35688
ĠCon	35688
Ġtemplate	35685
Ġamounts	35679
Ġcommonly	35677
##aa	35676
ĠHuman	35672
ĠThomas	35659
Ġsecure	35644
_{{\	35641
}}}}	35629
module	35621
Ġassigned	35613
}})	35610
Ġconsideration	35607
Ġurl	35606
##UM	35602
auto	35593
Psi	35590
long	35572
Bi	35565
Ġ94	35563
##ency	35561
Ġ98	35560
Ġdivide	35531
Ġunderstood	35524
Ġarticles	35521
Ġdynamics	35514
ĠTheir	35513
ĠSal	35508
Ġsought	35488
Are	35485
android	35482
Ġrequirement	35477
Ar	35466
Ġfell	35465
ĠInstead	35463
$$\	35449
ĠRen	35447
##Ċ	35444
Ġyield	35440
ĠMor	35438
conf	35426
Ġeffectively	35426
Ġaccurate	35425
References	35422
Ġexpert	35419
Ġprinciple	35416
File	35410
ĠSub	35394
##Ĵ	35378
Ġconnect	35375
Rec	35368
ĠAg	35352
Ġ192	35341
Ġbranch	35334
##iti	35333
ĠBur	35325
ĠAfrica	35321
Ġestimates	35320
ĠSw	35308
##ria	35306
Ġnu	35304
Ġ110	35301
ĠAfrican	35297
##×	35292
ray	35289
##ãģ	35286
''	35277
Ġ93	35256
Ġjurisdiction	35254
Ġspaces	35243
##UT	35238
Ġqu	35221
Ġfilled	35220
##NI	35217
Ġoxygen	35213
Ġminimal	35210
ĠSer	35202
ĠPlaintiff	35188
System	35182
Ġgu	35174
\]).	35163
split	35158
.$$	35155
##ull	35155
Ġearth	35133
find	35128
##ict	35128
cons	35119
Ġdecades	35113
Ġusual	35111
Ġhomes	35110
ĠBC	35109
ro	35106
Con	35096
##uit	35090
##els	35088
Ġmessages	35086
uint	35085
ijms	35071
ĠDI	35058
Ġbinary	35057
Ġfont	35049
Ġsin	35043
Ġzone	35039
next	35035
ĠTH	35034
Ġvi	35027
Ġspending	35027
ĠPI	34998
Ġwww	34988
ĠPCR	34988
cc	34981
CL	34976
Object	34974
Int	34967
ĠSea	34966
Ġseeking	34962
##urs	34959
##ĉ	34957
ĠTE	34956
ĠKi	34946
Ġsenior	34927
Ġadmitted	34924
##ada	34914
~~~	34913
160	34907
##ography	34906
Ġfavorite	34898
media	34897
##don	34890
El	34887
Your	34885
\/	34877
##Cl	34869
ĠEarth	34857
Ġconsumption	34844
ĠRiver	34838
}/	34823
Ġtelevision	34818
Ġbaseline	34816
template	34808
Ġwilling	34806
SC	34793
##van	34780
ca	34776
ĠWin	34774
range	34768
SP	34767
Ġstrategies	34766
Ġnative	34762
##OC	34761
##nal	34749
\*	34745
##User	34732
ĠAN	34716
Ġsqrt	34693
was	34691
Ġlaser	34678
Ġdepth	34671
Ġassistance	34671
Ġpres	34668
ĠIV	34668
Ġbroken	34664
Ġvan	34653
##form	34643
##kh	34642
Ke	34641
##Be	34627
Ġcharacterized	34621
Ġlabor	34604
Ġdimension	34582
##hn	34561
non	34558
##BA	34538
Ġorganic	34530
##ÃŃ	34528
Ġoptimal	34528
Ġamino	34516
action	34512
##La	34507
ĠMcC	34504
Ġsmallest	34503
Sch	34502
ĊĠĠĠĠĠĠĠĠĠĠĠĠĠĠĠĠĠĠĠĠĠĠĠĠĠĠĠĠĠĠĠ	34493
Please	34449
ĠMD	34446
Ġcompact	34441
Ã	34439
Ġpredicted	34436
output	34425
Yeah	34420
Ġemission	34413
ĠIndeed	34410
number	34395
Ġdangerous	34388
/\	34387
Ġtissues	34379
##Ã³	34343
Ġorders	34338
Ġamazing	34329
ĠLemma	34328
cos	34324
##Sh	34323
Ġwitness	34317
ĠInformation	34315
Ġexpensive	34305
pl	34293
Id	34292
print	34289
##nan	34278
Ġdraft	34239
Ġneurons	34232
Ġvision	34221
Ġsal	34218
ĠLake	34216
##IM	34215
Ġmilk	34208
ĠMedical	34201
Ġpages	34200
##EC	34170
Ġlaunch	34159
Â¸	34151
Ġrecommended	34114
Ġphotos	34106
##Fi	34098
private	34089
Ġsupports	34088
##..	34081
ĠTR	34080
ĠControl	34076
Ġcustomer	34062
##edi	34037
##Line	34036
mL	34021
dec	34021
##br	34018
Ġparticle	34017
#:	34015
cor	34002
Ġpieces	33999
##izer	33983
Ġexit	33981
EN	33977
##ature	33973
**,	33969
2008	33968
##All	33952
Ġmanuscript	33947
ĠNE	33940
Read	33928
Ġinhibition	33927
Ġwatching	33926
ĊĠĠĠĠĠĠĠĠĠĠĠĠ	33919
Ġmiss	33899
####	33897
last	33882
Ġsat	33879
Ġsyndrome	33876
ĠBre	33870
Ġfinish	33867
Ġdiscretion	33866
ĠpH	33850
subset	33838
Ġcausing	33833
Ġposts	33825
Ġalpha	33820
##iva	33817
assert	33816
Ġchannels	33816
Ġsuccessfully	33809
Ġdepend	33809
##ii	33803
ps	33802
Ġthreat	33802
ĠBr	33789
ĠLee	33787
Ġ1999	33771
##yc	33755
##hed	33754
##33	33753
##iz	33744
Ġtargets	33743
ĠCentral	33721
CC	33707
Ġfruit	33684
Ġtransform	33683
ĠĠĠĠĠĠĠĠĠĠĠĠĠĠĠĠĠĠĠĠĠĠ	33669
ĠCho	33668
##As	33665
Ġpure	33664
Ġthermal	33651
Ġcrisis	33651
Ġreducing	33649
:\	33638
;&	33636
Ġbright	33617
Ġouter	33616
##ider	33611
Gu	33600
ĠDen	33591
Ġrecommend	33589
Ġwa	33587
ĠField	33583
Ġsitting	33579
##inal	33577
cs	33576
Ġbias	33575
##ered	33573
other	33568
ĠClinton	33568
Ġimpossible	33567
##ians	33566
Ġlargely	33560
2009	33554
Ġunion	33549
ĠHO	33548
##ym	33546
meta	33540
Ġrepresentative	33539
Ġmargin	33523
##ution	33508
})\	33506
##ement	33506
Ġautomatically	33481
##var	33473
110	33461
Ġfeed	33457
Ġconstitutional	33445
ins	33435
Ġinstalled	33434
Ġinformed	33433
ĠON	33422
google	33420
ĠIts	33419
##ents	33417
mode	33408
##ices	33408
Ġauthorities	33398
Ġdiabetes	33389
Ġpromote	33387
Ġresearchers	33373
ĠBA	33373
Ġtight	33370
##By	33365
Ġprefer	33349
##fs	33345
Ġrat	33342
##TER	33337
##ila	33311
ĠDM	33294
Ġconversation	33279
##Äģ	33275
ĠSoftware	33271
Ġsector	33268
Ġ193	33265
##ind	33263
Ġcha	33259
Ġexamination	33243
Ġmarried	33239
##ges	33217
Ġforget	33207
Ġ})	33199
##osa	33195
cur	33190
195	33179
Ġpan	33129
Ġ---	33129
option	33128
Ġrefer	33126
##oi	33125
ĠInf	33121
##rated	33106
ĠChicago	33104
Ġbond	33097
Ġconfig	33095
Ġera	33094
Ġvisible	33090
Ġstrains	33090
Ġweekend	33087
Ġturns	33068
##Source	33059
Ġputting	33046
Ġent	33046
##Ñĥ	33043
##ira	33042
##ying	33039
##|\	33024
##rat	33015
##oto	33014
bin	33009
Ġni	33006
Ġjoined	33005
Ġfaster	33004
##nis	33001
##ball	32997
Ġguard	32991
Ġconcerning	32987
ĠView	32979
##fully	32966
Ġreplaced	32951
##late	32949
ĠLong	32949
Ġfacilities	32944
ĠGreat	32944
Ġcat	32943
Ġgi	32941
CF	32936
Ġlie	32932
##pc	32930
##MP	32923
```	32922
Ġmeat	32908
Of	32888
##get	32887
Ġdream	32886
##Un	32881
Ġherself	32881
disc	32864
##ude	32844
##enti	32829
Ġacting	32817
Ġcreation	32807
Ġ101	32792
Ġstack	32790
Ġbehaviour	32787
Ġargue	32784
Ġlayers	32782
##AA	32777
Ġillegal	32775
##ncy	32773
bit	32772
Thanks	32771
##ject	32770
ĠSU	32764
Ġuniform	32763
Ġmeta	32762
Ġformal	32762
Ġinf	32754
Ġmention	32750
Ġsu	32748
Ġevening	32745
Ġcitizens	32742
Ġcorner	32739
ĠAnother	32731
Ġtaste	32720
Ġantibodies	32712
Ġcons	32711
##Handler	32710
##key	32708
Ġassumed	32707
Although	32692
Ġcandidates	32675
##DI	32666
##SA	32662
Ġve	32656
##«	32649
Ġinvolves	32645
ĠmRNA	32636
Mr	32634
ĠPower	32631
Ġplastic	32623
##kl	32622
Ġharm	32622
Ġmatters	32611
Ġmerely	32610
ĠConc	32609
Ġtherapeutic	32595
Ġemergency	32592
##point	32583
ĠTor	32583
##Âł	32582
##oh	32576
]]	32575
ĠMer	32568
Ġgli	32566
Ġ2020	32560
Ġ1990	32559
Ġruling	32546
##ÑĢ	32544
##amp	32543
UN	32542
ĠSecurity	32538
ĠLike	32536
ĠIns	32533
Ġemb	32530
Ġmoral	32523
ĠCup	32520
Ġcontainer	32514
Ġrealize	32511
Ġobservation	32507
Ġneutral	32495
Ġdifferential	32495
Ġperspective	32482
Ġexperiences	32481
##Config	32478
##ibility	32476
Ġhundreds	32469
##ugh	32465
Ġhurt	32464
Ġhundred	32449
Ġpassing	32438
***	32435
Ġhate	32412
ĠRO	32409
Ġlowest	32394
Any	32392
Ġexecutive	32391
Ġpairs	32386
Ġdetermining	32366
##gin	32358
ĠĠĠĠĠĠĠĠĠĠĠĠĠĠĠĠĠĠĠĠĠĠĠ	32353
Ġinstant	32350
##à¸	32349
##air	32294
Ġlived	32281
##ney	32275
##ures	32261
Ġaspect	32261
Ġfamiliar	32259
high	32249
={	32248
Ġclosely	32243
css	32235
##HA	32225
center	32224
ĠPlan	32224
##SC	32219
##ined	32216
##gue	32208
ĠÃł	32199
##eal	32197
Ġrain	32196
Ġproved	32192
Ġta	32184
Ġdirectory	32175
Ġwrt	32174
Ġshut	32162
##isi	32145
Ġregister	32142
##ENT	32139
##fin	32137
Ġposted	32134
Ġwalking	32122
Ġtip	32121
Ġsignificance	32113
Another	32111
Ġpolitics	32111
Ġtelling	32110
Ġscreening	32107
##ram	32101
##head	32100
Ġterminal	32100
Ġhom	32100
##ÑĤ	32087
float	32077
Ġliability	32060
Ġshooting	32059
Ġtrans	32058
Ġtrees	32051
ĠCF	32045
##ros	32041
Ġvivo	32040
ĠSocial	32034
Ġrapid	32033
Ġserving	32030
##31	32026
ĠSen	32024
build	32017
##une	32010
##ential	31997
ĠER	31993
rs	31989
##ital	31985
##ound	31984
ĠCont	31979
approx	31960
##lie	31957
##Property	31950
Ġcu	31948
Ġmonitoring	31944
^-	31933
ap	31932
Ġed	31932
Ġprimarily	31930
Ġblocks	31930
RE	31902
description	31884
##MS	31881
Ġtube	31879
query	31873
Ġinitially	31870
ci	31868
##well	31859
Ġloved	31856
##Result	31822
Ġclassification	31819
Where	31810
##LD	31808
Ġmal	31795
Ġcities	31794
Ġoperators	31792
##Stream	31787
ĠOP	31779
ĠLos	31776
Ġidentical	31772
##',	31771
Ġmedian	31748
Ġtrend	31738
Ġlots	31732
Ġextend	31732
Ġmaps	31730
}]	31728
Ġsports	31728
Ġconsole	31728
##uck	31727
##burg	31725
Du	31723
##etic	31723
Ġbeam	31721
Ġregression	31710
Ġdollars	31699
ui	31688
Ġinjuries	31683
Ġeating	31674
minimal	31663
ĠJan	31651
amp	31648
Ġleague	31645
Ġdelivered	31643
Ġimplemented	31636
du	31631
tab	31630
##Is	31622
Ġdisorders	31616
Ġdrink	31613
options	31610
Ġclassical	31603
013	31600
ĠGR	31597
Ġcloser	31596
documentclass	31592
Ġgrown	31592
##mann	31589
Ġsensor	31584
Ġfund	31584
len	31573
##à¤	31573
Ġbusinesses	31571
ĠPT	31568
ĠJones	31549
tag	31547
Ġassault	31540
##ere	31539
Ġthick	31539
Ġcontributions	31536
Ġconsists	31530
##uk	31528
ĠKey	31522
Ġinjection	31515
##path	31508
Ġ"(	31494
##),	31491
Ġaccordance	31486
Ġpossession	31483
Ġhi	31479
##000	31472
rep	31466
##mod	31464
Ġ1998	31464
##ished	31455
Ġbigger	31440
Key	31432
##hood	31432
Ġenhanced	31429
Ġremoval	31427
CIT	31426
##}}	31425
Ġleadership	31416
Ġpet	31415
Ġlock	31408
server	31402
home	31401
ĠIran	31397
##Sp	31394
##ked	31391
ĠÎ²	31387
ĠSol	31384
##=\	31357
ĠFind	31331
Ġpi	31329
Ġbodies	31323
Ġgrid	31319
Ġprevalence	31313
Ġpatent	31312
ĠCol	31307
Ġneck	31298
jpg	31291
##cher	31281
Ġom	31278
obj	31277
Ġmechanical	31263
make	31249
Ġaccounts	31245
##ved	31241
ĠCE	31239
Ġcaught	31233
Ġsurgical	31227
sup	31224
Ġorganizations	31223
Ġgenome	31218
Ġapparent	31206
Ġlocations	31201
dist	31185
Ġsynthesis	31182
ĠMc	31182
##oxy	31180
##ken	31177
Ġconsequences	31164
##zy	31162
ce	31160
Ġapproval	31158
Ġopportunities	31149
##file	31147
Ġsorry	31146
ĠRI	31142
ĠAB	31135
Ġelectrical	31133
##onal	31127
##Ref	31120
Trans	31100
Two	31093
ĠVan	31086
Ġcorrectly	31081
##osi	31073
Bl	31061
Ġdepression	31054
Ġmaintenance	31053
Ġfigures	31049
##oll	31043
Ġrepeated	31033
Ġes	31033
os	31030
mail	31017
Ġtough	31014
Ġdenote	31010
Ġarrived	31010
Ġplain	31006
##Client	31005
ĠGar	30994
Ġinternet	30991
AR	30984
Ġfacility	30982
ĠBO	30977
ĠCheck	30965
##ines	30959
ĠPP	30959
##Action	30954
Ġ"\	30953
##side	30949
Ġthoughts	30939
Ġrotation	30934
Ġclosest	30927
ĠÃĳ	30919
\"	30914
Ġpathways	30914
ĠNC	30912
##wo	30910
called	30904
PA	30902
##oke	30883
##From	30875
##Page	30865
Ġev	30843
Ġseed	30841
Ġshop	30820
Ġ1000	30819
ĠApple	30817
##eh	30816
Ġaccident	30812
Ġproportion	30803
Ġremote	30802
Ġ{}	30796
ĠAF	30789
Ġtrouble	30770
ĠBlue	30764
Sy	30752
##light	30749
Ġpointed	30746
Ġdisplayed	30746
Ġsurrounding	30742
ĠUp	30728
Ġmutations	30714
Ġcharacteristic	30713
##ald	30711
â	30700
ĠEducation	30693
Ġabsolutely	30686
]^.	30685
ĠDemocratic	30685
ĠCall	30683
His	30676
{}	30673
##omp	30669
Ġpark	30669
Ġpractical	30668
##Br	30667
2007	30652
##itic	30652
ĠPE	30649
Ġinstruction	30644
Ġupdated	30640
Ġsounds	30639
Ġbacteria	30630
ĠMs	30628
Ġden	30619
Ġdiameter	30612
400	30608
##GC	30602
Ġprec	30602
Ġapparently	30598
020	30594
##GL	30594
Ġil	30593
##Format	30589
##ired	30588
Ġintegrated	30584
##ont	30580
Ġemotional	30576
Date	30575
BU	30572
sha	30565
##ais	30563
Ġcultural	30559
UI	30552
##Version	30544
##mia	30539
Ġclients	30535
Ġstages	30530
let	30515
lt	30511
Ġtea	30508
ĠPO	30506
Ġhelping	30505
ĠMartin	30502
Ġ1997	30502
##oph	30500
Ġhypothesis	30499
ĠGO	30481
##lay	30468
##De	30460
Ġsoil	30457
ĠBor	30457
Ġcentre	30446
ev	30443
Ġsheet	30441
ĠAnn	30441
Ġsmart	30435
Ġlen	30433
ĠÐ	30428
Ab	30427
ĠLand	30427
##Al	30421
]);	30418
Ġspectra	30406
1000	30404
Ġ"""	30404
ĠWilliams	30399
ĠPolice	30388
ĠMO	30385
2006	30380
Ġcommittee	30374
Ġcoupling	30365
Ġconviction	30360
Ġfashion	30347
Ġimplied	30345
##Instance	30341
').	30334
Ġincidence	30334
ĠSk	30334
103	30322
##PS	30322
##ono	30318
Ġadopted	30316
call	30315
Ġsubmitted	30297
Ġkitchen	30285
##lib	30284
ĠAppellant	30282
ĠES	30279
ĠAtt	30269
##nia	30241
Ġdomestic	30238
Ġca	30237
update	30236
ĠDes	30236
LA	30233
Ġtopic	30228
)/(	30226
Ġrecall	30224
Ġsolar	30222
sensors	30214
Ġstrike	30207
##ific	30203
##rial	30198
Ġneuro	30197
##iate	30190
Who	30182
##dir	30175
Ġconstructed	30163
Č	30155
Ġargued	30150
Ġdogs	30143
ĠMat	30143
Ġdescribes	30140
##type	30136
##IE	30135
Ġwh	30130
Ġcoffee	30130
Ġpictures	30123
="#	30114
##rib	30103
Ġprovisions	30098
##RD	30092
Ġtransformation	30085
ĠReport	30084
ĠEM	30082
Ġmill	30077
##ces	30076
Ġba	30075
Ġepisode	30067
\]),	30060
ĠGra	30053
some	30051
##nie	30047
Ġfe	30042
##iver	30037
Ġimplement	30037
American	30032
sm	30031
Ġexpand	30026
Ġclimate	30018
Ġcounts	30007
search	29997
Ġsubc	29993
Ġapart	29988
ĠOs	29983
Ġflag	29982
pdf	29981
}"	29980
DE	29976
ĠOl	29971
ĊĉĠĠĠ	29970
Ġessentially	29960
##ple	29944
Ġreb	29943
Ġ\>	29942
Ġconversion	29935
Ġmarkets	29933
Ġfo	29933
##zing	29931
##ras	29929
mod	29925
Ġmanage	29924
Ġmarked	29920
Ġcopyright	29920
ĠAttorney	29900
##rant	29898
##uel	29894
control	29892
ĠDevelopment	29883
Click	29882
}{-	29880
Ġtasks	29880
Ġtotally	29874
Ġill	29872
Ġtheorem	29869
}|	29864
Ġencoding	29863
##onic	29852
Ġexplanation	29848
ĠTop	29847
Ge	29840
port	29824
##cel	29818
Ġcategories	29815
##Ex	29812
Ġspatial	29807
ĠReal	29798
ĠCare	29797
opt	29786
Ġclo	29778
Ġtaxes	29776
Ġprobe	29767
Ġfeedback	29767
Ġguidelines	29759
DA	29757
014	29744
##Mode	29739
Ġng	29725
common	29711
)+	29705
Ġspeaking	29700
Ġwire	29695
setlength	29693
Ġmaintained	29685
Ġraw	29678
Ġ1996	29675
##rv	29660
Ġtail	29656
Ġdesire	29650
Ġchapter	29645
ĠChief	29641
small	29640
SO	29636
ĠGC	29631
Fl	29628
Ġdeclared	29626
Ġcomp	29624
Â»	29618
pos	29618
##HE	29617
Ġregime	29617
ĠSh	29616
Ġrecording	29613
##ees	29612
Ġimmediate	29602
Ġclock	29596
ĠWho	29596
ĠJoe	29595
Ġultimately	29587
ĠĠĠĠĠĠĠĠĠĠĠĠĠĠĠĠĠĠĠĠĠĠĠĠ	29582
##ë	29581
ĠAu	29566
ĠServices	29553
##ract	29540
##Ð¾	29534
Ġcognitive	29534
package	29524
ĠEp	29522
TO	29517
Ġoffering	29515
Ġshock	29507
Ġph	29504
##sch	29497
amsmath	29495
##](	29491
##Te	29476
##Sc	29476
Ġ01	29472
ĠMil	29468
Ġgrade	29452
ĠCorp	29451
ĠRam	29449
Ġwonder	29447
Ġtells	29446
Ġkilling	29433
/>	29425
txt	29417
##Layout	29414
ĠAv	29412
111	29402
##UI	29398
put	29396
Ass	29395
ĠTer	29381
Ġfellow	29379
GL	29366
Ġreporting	29366
Ġcon	29365
Ġrecognition	29359
Ġpreparation	29352
ĠTre	29349
Ġfiber	29344
Ġfu	29339
Ġtreatments	29334
ĊĊĠĠ	29330
Ġ&\	29325
##the	29319
Ġcomm	29318
Ġwine	29311
Ġpermit	29302
Ġdecline	29278
amssymb	29275
##Number	29273
##ils	29271
016	29270
ĊĠĠĠĠĠĠĠĠĠĠ	29269
SA	29264
Ġok	29263
ĠBR	29244
##kt	29236
##amine	29224
##Ã¼	29223
][@	29216
Ġlogic	29215
ĠYu	29215
Ġhelpful	29214
Ġnm	29213
015	29212
}}{\	29210
amsfonts	29207
Ġmodify	29202
Ġregulations	29198
cd	29184
]$	29184
Ġfinds	29176
Ġbars	29175
Ġrespective	29170
Ġspoke	29166
Ġrock	29161
car	29154
Ġcurves	29142
Ġobviously	29141
mathrsfs	29140
Ġcamp	29138
Ġrequested	29134
Ġprinciples	29134
amsbsy	29132
upgreek	29126
doc	29122
##Log	29114
frame	29111
##pic	29108
Ġdeliver	29101
Find	29099
hi	29098
oddsidemargin	29097
wasysym	29091
only	29090
Ġ$(\	29076
##On	29074
Ġplanet	29074
Ġvol	29073
Ġdiscovery	29070
Ġsituations	29058
bool	29057
##Pr	29053
)}}	29049
##oz	29047
Ġleg	29043
ĠMake	29037
ĠMicrosoft	29034
ip	29032
##orm	29024
IS	29015
qquad	29010
star	29000
>,	28998
Ġtumors	28997
Ġmagnitude	28992
Tra	28991
##II	28989
##TR	28983
ĠDonald	28976
##db	28975
Ġdiv	28973
Pl	28971
Ġdelete	28970
##Per	28945
Ġbug	28943
2005	28941
ĠHill	28935
##ici	28933
ĠIsland	28918
]\	28916
ĠSecretary	28911
ĠAp	28905
##amo	28904
Ġparticipate	28904
Ġattend	28900
Ġworst	28892
##xt	28889
##ope	28889
load	28880
130	28877
Ġlies	28873
Ġmapping	28871
ĠText	28868
Ġbeat	28858
ĠAdditionally	28854
##Ch	28846
method	28834
##ias	28834
##pan	28829
ĠED	28828
math	28816
Ġec	28812
##pace	28810
ĠChar	28808
Ġboost	28799
600	28796
##cast	28796
Ġsick	28796
Ġanyway	28795
##CS	28794
strong	28789
Ġcrucial	28787
##ior	28785
Ġuniversal	28778
ĠIM	28774
##hen	28769
Ġcompliance	28764
000000	28762
Ġunf	28762
Ġyouth	28759
ĠÎ±	28752
ĠPeter	28747
Ġion	28746
Because	28741
Ġloan	28740
ĠModel	28728
##IF	28709
ĠDemocrats	28703
Ġbought	28702
Ġsetup	28701
(*	28697
Ġstem	28691
ĠRel	28685
Ġcalculate	28671
2001	28670
Ġassets	28665
##mes	28658
Ġpulled	28654
:(	28645
##TS	28644
Other	28642
}^{(	28639
Ġsuperior	28633
root	28628
ĠGold	28626
Ġsegment	28621
Ġhappening	28610
ĠJournal	28604
Ġfamous	28602
##bin	28597
##Label	28587
##ship	28586
##yd	28585
Ġsqu	28576
Ġsomewhat	28575
entry	28574
Ġrequests	28572
102	28570
Ġarg	28570
Ġtransaction	28565
==========	28561
Ġtranscription	28560
Ġgate	28559
Ġowners	28548
##Comp	28542
Ġspectral	28541
ĠRichard	28538
Ġ250	28529
##sto	28528
Ġarrested	28522
##Ã¶	28519
Ġcontents	28516
Ġenforcement	28515
Ġacademic	28505
Ġmask	28492
Ġtape	28487
##err	28484
>>	28483
##URE	28474
Ġdrawn	28474
##oss	28472
##Factory	28459
##Ã©r	28448
ĠSociety	28438
ĠAdv	28438
Ġbra	28435
##day	28426
##Date	28418
Ġteaching	28417
##UL	28406
Ġbear	28406
Ġglucose	28404
ĠWater	28402
Ġru	28399
Ġimagine	28399
čĊĉĉ	28389
Supplementary	28388
##Pl	28377
"}](	28377
Ġpreferred	28376
Ġune	28368
ĠRock	28368
##GI	28365
Ġ],	28364
pro	28357
ĠPres	28351
Ġconfirm	28350
Ġacc	28348
Ġworry	28347
ĠFund	28341
ĠLy	28340
Ġintelligence	28335
Ġpicking	28332
Ġsight	28328
Ġhidden	28327
Ġ***	28325
##ear	28315
##Buffer	28307
Ġinfected	28306
Ġprepare	28303
ĠWA	28301
ĠCard	28301
Ġlymph	28297
##â	28292
##arr	28289
##uta	28285
##ily	28284
Ġdeaths	28283
##ml	28282
Ġju	28275
$(	28273
Ġschedule	28262
ĠPur	28257
Ġdriven	28254
##house	28250
Ġweather	28245
Ġgel	28232
Ġpy	28231
Ġkernel	28219
Ġass	28217
Ġwonderful	28214
push	28210
##ancy	28207
Ġenzyme	28186
Ġfighting	28184
Ġrein	28177
Ġlay	28172
##ĠĠĠĠĠĠ	28160
ĠThose	28160
Ġapplying	28156
##pir	28151
response	28141
Ġnormally	28136
Ġbeta	28135
inv	28127
Ġvillage	28126
Ġhall	28122
Ġvoters	28119
##AI	28111
Par	28107
##SP	28104
##ties	28103
att	28099
##LO	28098
mon	28095
Ġpowers	28088
ĠTC	28085
ĠRoad	28085
Ġescape	28073
Ġim	28071
Time	28069
Ġdiagnostic	28066
tt	28061
Ġweapons	28056
Ġnoticed	28055
Ġsad	28050
##App	28045
Ġtract	28045
Ġmess	28033
ĠMedia	28032
ĠmM	28031
Ġproliferation	28028
ĠWal	28026
##ĠĠĠĠĠ	28025
OP	28023
Ġwood	28013
Ġcarrying	28012
##ett	28010
Ġrealized	28006
##01	28003
Ġcounty	27999
More	27995
ĠPhoto	27989
ĠMap	27980
ĠLE	27968
Ġ:)	27965
Ġdivision	27963
Ġextreme	27953
##uth	27952
Ġroles	27952
Ġpermission	27951
Ġassumption	27949
align	27944
buffer	27941
Ġvertical	27933
Ġcontroller	27929
Ġ102	27925
Ġdischarge	27918
Ġreads	27913
Ġintegral	27913
Ġobserve	27905
ĠCr	27900
##rite	27899
##Method	27899
}},	27891
ĠTe	27879
mid	27867
cont	27864
##kins	27857
##RNA	27856
^+	27855
##mate	27854
Ġoverride	27853
Ġourselves	27848
ĠValue	27834
##.$$	27830
ĠVol	27830
host	27825
ĠSN	27823
Ġregistered	27814
Ġos	27806
Ġacids	27801
Ġsubstantially	27794
Ġseparation	27792
PO	27790
Ġattempts	27790
017	27787
Ġinfections	27784
##PR	27756
##ado	27753
Ġmetric	27753
molecules	27752
US	27747
Ġride	27735
##dit	27734
ptr	27726
Ġsubs	27720
Ġ===	27720
sk	27715
}}^{	27714
Value	27710
##cle	27698
Ġboolean	27697
Ġintermediate	27689
Ġaccused	27677
%),	27673
Ġte	27671
##ume	27654
Ġmillions	27652
msg	27647
Ġexcited	27642
ĠJava	27639
ĠThanks	27634
Ġseparated	27633
AC	27631
)}$	27629
ĠKorea	27627
CT	27620
Ġmoderate	27618
##ret	27612
Ġcolon	27610
Ġconstruct	27605
ĠVI	27597
foo	27587
Ġexperts	27585
Ġresolve	27583
Bar	27567
##CK	27564
Ġlegislation	27563
Ġski	27558
##Response	27553
Ġintegration	27548
Ġbrown	27542
Ġà¤	27540
Ġ104	27539
Ġpaying	27535
Ġroutine	27534
##active	27531
Ġdropped	27530
ĠGene	27529
##rec	27525
pc	27519
ĠHor	27513
Ġmedicine	27506
##FE	27505
MI	27500
Ġuniversity	27500
##bra	27499
Ġcorrelated	27484
2019	27482
Ġconc	27480
ĠDivision	27477
df	27472
ĠRoman	27469
ĠParis	27461
Ġtranslation	27460
Ġradius	27447
Ġviral	27445
Ġunc	27428
cf	27426
Ġconsumer	27426
Ġchi	27426
Ġopposition	27422
Ġplanned	27413
Reg	27406
Ġfee	27402
018	27391
##Base	27388
##osed	27383
ĠWilliam	27382
Ġdealing	27381
Min	27380
Ġintroduce	27375
Ġstick	27372
Ġli	27371
neq	27369
ta	27368
-------------------------------------------------	27365
Ġdocumentation	27361
Ġrecognize	27356
Ġbowl	27354
##Bo	27342
Ġ>=	27342
Ġsister	27339
Ġdinner	27339
##wer	27334
180	27332
##nder	27330
##cor	27326
EC	27322
Ġorgan	27322
ĠAnti	27321
Ġinstitutions	27319
ĠOrder	27311
2004	27299
Ġspan	27294
##yst	27292
##gers	27285
##21	27284
>&	27283
Ġcars	27281
ĠGNU	27276
Ġstroke	27267
bottom	27252
Ġpurchased	27252
##ically	27245
Ġsizes	27243
Ġflash	27243
##ced	27242
Ġsimulation	27235
Ġknowing	27235
##ction	27214
Ġreactions	27212
inc	27209
ĠSec	27208
Ġmail	27207
ed	27200
Ġfeels	27199
Ġreg	27196
Ġcrystal	27192
##ats	27189
te	27187
ĠWhere	27179
ĠDS	27178
ĠTro	27176
Ġcorporate	27173
Create	27154
us	27151
Ġwinning	27139
}'	27134
ĠCase	27134
ĠJe	27133
Cor	27131
##FI	27129
Ġpromise	27128
ĠSm	27122
##rol	27116
##hor	27107
Ġreligion	27098
Ġreliable	27098
125	27096
ĠPort	27093
ĠMen	27089
es	27075
**(	27075
Ġsharing	27071
Ġincreasingly	27070
ĠGame	27069
["	27060
Ġokay	27050
Res	27045
Ġowned	27043
Ġ\-	27042
mathsf	27035
rem	27025
Ġtransferred	27023
Ġkinds	27023
##itor	27018
ĠKar	27016
Ġfi	27014
Ġkid	27011
Ġsurprise	26992
Ġcomplicated	26986
Ġconvert	26981
Ġentity	26980
Ġindustrial	26979
##Bar	26977
ĠDR	26977
##lem	26974
Ġsubstance	26973
##tti	26966
filter	26964
ĠMaybe	26958
##aries	26955
who	26954
##Filter	26954
Ġci	26951
Ġanswers	26951
ĠCur	26949
ĠAmendment	26947
step	26938
##ories	26937
Ġvictims	26936
Ġkeys	26936
##xy	26933
Ġrapidly	26924
ĠExp	26924
Ġdust	26922
##An	26916
Ġdecade	26916
Ġoriginally	26909
Ġforming	26909
Ġsuppress	26908
Ġdual	26907
FA	26906
Ġhem	26898
Ph	26891
ĠGrand	26890
People	26888
Web	26873
##esc	26871
Ġpump	26862
##Content	26861
Ġinduction	26859
)*(-	26855
##ulate	26854
##Co	26847
Ġslowly	26846
service	26844
Ġextensive	26843
AL	26841
##dom	26837
Ġbrowser	26837
Ġ--------------------------------	26836
##ifier	26834
ĠFar	26822
##ured	26817
Ġpot	26817
*^	26812
##inc	26810
ĠĠĠĠĠĠĠĠĠĠĠĠĠĠĠĠĠĠĠĠĠĠĠĠĠ	26799
Ġlattice	26796
Ġva	26794
ĠmiR	26793
Ġgift	26793
Ġresist	26779
Ġacquired	26778
ĠMexico	26777
]{},	26770
header	26766
Supp	26766
##âĪĴ	26765
mem	26763
##ump	26761
Ġ1995	26761
Ġ-\	26747
ĠBI	26736
ĠEvery	26720
-(	26710
##OT	26695
Ġrent	26685
##ols	26684
break	26683
##Token	26682
Ġrender	26680
element	26679
Ġrestaurant	26677
ĠIraq	26674
Ġbattery	26671
Ġpresentation	26662
ĠFL	26656
ĠAli	26655
##arn	26654
Ġaddressed	26643
Ġcol	26642
Ġrisks	26640
##Point	26638
None	26632
av	26629
Ġregulatory	26626
ĠConstitution	26624
##uce	26620
##itch	26620
Ġcolumns	26609
##rim	26601
Ġflu	26599
Ġwinter	26598
Ġheader	26593
##$\	26592
Ġcircle	26592
ĠAI	26583
##PI	26582
Ġpayments	26579
Hey	26575
Ġfails	26571
Before	26570
Ġpassword	26567
Ġreviewed	26566
019	26561
Ġ{{	26561
ĠStra	26555
Ġstatistics	26551
##rint	26549
##az	26546
Ġcompensation	26545
ĊĊĠĠĠĠĠĠĠĠĠĠĠĠĠĠĠ	26539
ĠBel	26538
Ġmigration	26537
ĠDar	26531
Ġ<-	26531
Ġshell	26529
exc	26525
Ġfairly	26524
Ġcoll	26524
##reg	26511
##WA	26511
Ġfault	26510
##---	26509
##wise	26506
Ġsymbol	26505
##usion	26503
Ġinflammatory	26501
##tain	26494
Log	26488
Ġaudience	26488
Thank	26487
Ġrows	26487
gra	26486
Fi	26477
Rep	26476
Ġdependence	26475
ĠURL	26472
##ching	26469
Ġhydrogen	26467
##BC	26456
Ġwindows	26455
Error	26450
##UD	26448
ĠBL	26446
Ġbull	26444
=(	26443
##uv	26443
ĠWall	26443
##yt	26441
Ġmomentum	26441
Last	26431
Ġenhance	26428
Ġsuffering	26426
ĠHR	26420
'$	26418
Ġrid	26417
ĠMel	26414
Ġclusters	26413
Ġexcess	26407
(_	26406
Ġtele	26405
Ġrecover	26402
Ġgoods	26398
args	26393
250	26393
Ġhotel	26392
ĠVersion	26377
ĠFer	26369
ĠIF	26362
ĉĉ	26341
ĠTw	26332
ĠMu	26330
RA	26324
Ġflux	26321
##Builder	26320
Also	26311
Em	26310
ĠVirginia	26310
ĠTeam	26310
Ġlisten	26309
Ġchoices	26308
ĠHI	26307
##__	26302
ĠScott	26299
Ġtwenty	26289
Ġpit	26289
Ġ105	26289
});	26283
Ġregardless	26279
Ġtemperatures	26264
}+\	26254
Ġ1980	26254
##yan	26245
vector	26239
Ġpursuant	26238
cb	26237
##Status	26230
Ġstrip	26227
105	26210
Ġwarning	26201
Ġuniverse	26190
box	26185
any	26184
Ġengaged	26182
Ġcomfortable	26178
Ġmini	26172
##aking	26170
Ġvehicles	26167
Ġregional	26154
ĠCharles	26146
Ġadverse	26144
Ġcapture	26142
ĠSur	26139
##mark	26138
Ġsimulations	26137
Ġbanks	26135
Ġsurfaces	26129
Ġpublication	26122
dep	26113
dis	26112
Ġcook	26099
##}$	26094
ĠRh	26090
Ġaside	26087
ĠOhio	26086
are	26083
"}),	26078
##iness	26075
Ġyounger	26074
Ġsubt	26074
Ġtab	26072
Ġå	26071
ĠDoes	26069
##rb	26063
Ġedges	26059
}\,	26054
ĠCatholic	26054
Ġcal	26051
Â¼	26046
##bre	26037
Ġrational	26032
}}}$	26031
Gl	26030
Exp	26026
Ġreform	26022
ĠMrs	26022
Ġlaboratory	26018
Ġcoupled	26017
##ocation	26013
00000	26011
Ġoperate	26011
ĊĠĠĠĠĠĠĠĠĠĠĠĠĠĠ	26001
down	25996
ĠThree	25996
##idi	25992
Ġsuffered	25990
Ġscenario	25990
Ġprogression	25981
Ġbin	25978
er	25975
##ected	25971
Ġnum	25971
194	25964
Ġodd	25961
##ended	25955
Ġstores	25952
Ġvast	25944
##ree	25939
Ġturning	25939
PC	25933
Ġmutation	25932
&\	25931
Ġsky	25930
Ġsubsequently	25921
ĠAppeals	25918
Ġver	25917
ĊČ	25912
ĠReview	25909
Ġheads	25908
Ġbreath	25908
##Ñģ	25901
##uous	25895
##eth	25877
ĠNon	25870
##base	25869
ĠIsraeli	25868
Image	25852
Ġrefused	25851
Ġcolors	25844
##Pro	25839
Ġbuildings	25835
ln	25834
Ġelectrode	25833
Ġ103	25832
##win	25831
Ġcalculation	25831
Ġalign	25831
Ġattempted	25817
Ġproducing	25814
ĠTan	25814
Ġwriter	25811
Ġgrounds	25807
Cu	25806
Ġhell	25805
)}{	25802
##NO	25802
##ava	25797
ĠMary	25792
ĠWE	25788
ĠCanadian	25785
Ġinhibitor	25784
ĠOh	25782
Ġsmoking	25780
##ede	25779
Ġfoods	25779
John	25777
##api	25767
Ġwalls	25767
Ġ106	25767
##ij	25754
Ġstimulation	25751
})}	25748
##ots	25748
Ġproposal	25743
system	25742
##RC	25739
double	25733
##lim	25732
Ġstood	25732
Ġbid	25731
AA	25729
Ġroll	25727
Ġflight	25718
Ġ109	25715
Ġcorresponds	25713
Ġblo	25711
ĠJewish	25705
Dec	25703
ĠMad	25699
Ġapoptosis	25697
Ġmacro	25690
Ġemployer	25689
Ġfarm	25672
ĠMiddle	25667
Ġheter	25666
ĠBush	25664
attr	25659
ĠCell	25658
Ġboys	25655
Ġbelief	25650
Ġstands	25647
Ġfacing	25639
Ġversions	25638
Ġtrace	25636
\|	25634
##ĠĠĠĠĠĠĠ	25631
Ġbeer	25629
Ġwelcome	25628
##imal	25625
ĠPoint	25623
}^\	25620
##ever	25618
Ġhist	25614
Ġcontributed	25614
ĠCarolina	25610
##iet	25609
##table	25597
##QU	25596
ĠPrime	25592
##ota	25590
Ġrepresenting	25590
ĠLouis	25585
Ġplenty	25577
2003	25573
Ġhash	25571
Ġproceedings	25570
Ġlens	25570
Ġbasically	25562
##osition	25558
OR	25556
Vert	25555
Ġinvolvement	25545
ts	25544
ĠHol	25539
ĠTen	25531
NA	25528
ĠGiven	25525
ĠGP	25523
eps	25522
ĠHan	25521
SS	25520
##rel	25520
##omo	25520
Ġminister	25514
Ġinflammation	25510
##gy	25509
Ġcollect	25503
Ġexecution	25498
ĠAmong	25498
Ġreceptors	25496
##oli	25494
ĠRepublicans	25492
Ġ$|	25487
Ġtheme	25485
ĠBell	25483
##Style	25479
acc	25478
ĠLI	25470
Ġrepeat	25468
##oca	25466
##ech	25466
##Controller	25464
Ġ130	25464
##vent	25461
##rid	25461
##ident	25458
ĠLast	25455
desc	25451
Ġyellow	25449
ĠError	25446
Ġmut	25445
Ġcream	25443
ĠZe	25442
Ġarbitrary	25438
position	25435
##HI	25435
ĠAge	25434
##OW	25426
Âģ	25425
Ġchamber	25425
##á»	25422
Ġinclusion	25421
Ġgauge	25417
ĠAustralian	25412
%;	25407
Ġattribute	25407
remove	25401
Ġprotest	25390
Ġ1994	25389
##loc	25388
month	25387
Ġteacher	25381
Ġhyp	25380
##ught	25362
device	25360
Ġmodes	25358
##omy	25355
Ġwalked	25348
BA	25346
256	25345
##FO	25345
##ket	25336
Ġequally	25335
Ġcoefficient	25326
dim	25323
Ġencourage	25320
Ġcomfort	25316
CP	25313
Ġignore	25313
Ġverdict	25310
Ġthickness	25309
Ġpulse	25308
Ġconsumers	25304
Ġopposed	25300
##oy	25298
gen	25297
Ġthrows	25297
ĠHD	25297
Ġisland	25292
ĠJackson	25282
Ġperforming	25281
ĠJack	25280
ĠFla	25278
##iro	25274
]"	25272
##any	25267
Ġmoves	25256
Ġjourney	25254
AP	25252
Ġbacterial	25242
Ġapplies	25232
Ġhat	25226
192	25222
close	25221
conv	25220
ĠTim	25216
space	25214
Ġdistinguish	25213
##Options	25211
Ġaudio	25209
ĠAccordingly	25200
ĠNumber	25195
Ġagencies	25186
Ġfly	25180
child	25179
##Str	25178
Ġdiversity	25177
Ġsand	25175
Ġmes	25174
Ġ190	25174
ĠÎ	25172
##iat	25168
AB	25163
Ġadjacent	25153
ng	25152
Ġcontrary	25149
project	25148
##vas	25146
Ġcrack	25146
>.	25137
Ġterr	25137
Ġpregnancy	25135
Ġsur	25125
ĠMike	25119
Ġinduce	25118
Ġneo	25117
Ġperiods	25111
Ġ''	25111
Ġengage	25107
Ġsatisfied	25105
Ġsharp	25102
##Get	25099
Ġpour	25099
second	25088
Ġstronger	25088
ĠMT	25086
Even	25085
Ġdeclare	25085
##Or	25079
Ġcouncil	25078
##case	25077
ĠStat	25075
Ġhonor	25071
Ġmissed	25062
Ġbutter	25062
##IVE	25059
##VER	25055
##ield	25053
Ġassist	25053
namespace	25049
Ġusage	25047
Ġrank	25043
Ġtu	25042
Ġcreates	25040
Ġbulk	25039
ĠPL	25039
Ġ111	25032
##link	25031
##Query	25029
##ype	25026
THE	25019
Ġgarden	25018
Ġwherein	25017
Ġdimensions	25017
Ġalert	25016
ĠUser	25016
Ġpermanent	25013
Ġcards	25009
ĠNetwork	25009
Ġmutant	25004
Ġsaved	25002
196	25000
Ġstatistically	24998
ĠYet	24998
##mas	24997
ĠCreate	24996
Ġthr	24986
Ġcommission	24985
##PO	24978
##GG	24972
Ġbegins	24968
Ġshares	24962
##eric	24953
Ġclassic	24952
Ġongoing	24950
~,	24948
TYPE	24947
Ġprofiles	24944
Ġthereof	24939
Ġintake	24939
ĠBru	24937
Ġtens	24935
##gic	24929
Â´	24927
##rian	24927
Ġconnections	24922
ĠEX	24921
à	24917
Ġcoefficients	24915
ĠSn	24914
Ġdict	24910
Ġmarkers	24905
two	24902
Ġspirit	24901
Ġdecreasing	24900
Ġexcluded	24879
Ġbringing	24877
Ġcutting	24872
Car	24858
Ġnewly	24855
Ġeditor	24849
replace	24846
##CR	24836
Ġmit	24833
Ġevil	24820
##+\	24816
##eed	24813
Ġ),	24812
View	24805
ĠNext	24804
ĠMain	24801
Ġsymmetry	24799
ĠNor	24796
==	24792
Ġcomprehensive	24790
Ġje	24788
Ġvariance	24785
##Sub	24778
Ġteachers	24778
Ġefficacy	24778
Ġ108	24775
čĊĠĠĠĠĠĠĠĠĠĠĠĠĠĠĠ	24774
Ġanxiety	24772
xe	24769
Ġvictory	24767
SU	24763
ĠFire	24759
Ġorientation	24758
Ġconsequence	24748
mathscr	24740
Ġsubset	24737
ĠAction	24737
Ġrequiring	24735
fold	24733
Ġreader	24732
Ġlosing	24729
##MENT	24726
##ead	24725
About	24723
Ġherein	24723
Ġchose	24722
.âĢĻ	24719
Ġflo	24718
Ġpor	24717
##sci	24715
Ġshouldn	24714
Ġblind	24707
=======	24705
Ġmanufacturing	24702
Ġselling	24699
##[@	24695
##ifying	24689
ĠDep	24685
Ġcomplications	24673
Ġadequate	24673
##rar	24672
##And	24660
Ġcorrespond	24660
Ġextracted	24659
Ġ\|	24658
##rum	24656
Ġtargeted	24653
ĠCON	24641
Ġcra	24628
ĠNP	24624
##...	24621
Ġunp	24619
##GT	24617
Ġcache	24613
)|	24612
User	24610
##cks	24607
Ġlesions	24603
Ġinjured	24599
internal	24598
Ġpowder	24593
104	24592
Ġ::	24591
ĠCra	24588
Ġpaint	24587
Ġanalyze	24579
##och	24577
##ited	24577
ĠFrank	24577
ĠSimilarly	24572
Ġradical	24571
Ġ<=	24569
offset	24560
;</	24555
Ġsuspect	24554
##ela	24544
Ġbits	24535
##bon	24526
##Ps	24526
ĠAnalysis	24526
##char	24518
##Listener	24517
Ġtrained	24517
2002	24509
ĠCB	24501
ĠShow	24500
##kes	24492
##Pre	24491
Ġinfrastructure	24490
NAME	24488
Ġdet	24484
123	24476
##ocytes	24474
Ġbind	24473
##zer	24472
Ġpredict	24470
ĠLocal	24467
##Frame	24459
Ġtour	24452
ĠImage	24448
Ù	24443
Ġmetabolic	24439
Ġstrange	24435
Ġexport	24435
ĠĊĠĠĠĠĠĠĠ	24435
Ġfolder	24425
what	24423
Ġvaluable	24415
nav	24410
Ste	24409
##iol	24400
Ġbridge	24399
Ġafternoon	24399
Ġ128	24394
Ġprofit	24389
Ġcomputed	24387
ĠTrue	24376
Ġbrings	24374
Part	24372
##FF	24372
ĠArmy	24372
Ġinstances	24369
ĠBoston	24361
Ġtr	24358
Ġwearing	24353
##eta	24351
ir	24347
Ġconservative	24347
##ifies	24346
Ġdiagram	24346
Ġmoments	24341
Ġfaces	24341
ĠBon	24333
display	24332
Ġ"$	24327
ĠRP	24326
Ġpitch	24322
Ġmild	24320
Ġep	24310
example	24309
##anc	24309
Ġreserved	24308
##Ø§	24304
Class	24292
Ġ$\{	24291
ĠPet	24287
##ression	24286
Ġarchitecture	24285
Ġcalculations	24277
ĠAA	24277
when	24264
Ġdifferentiation	24260
Ġactivated	24259
##iable	24252
##aging	24250
Ġtechnologies	24249
Ġtruck	24246
ĠPri	24245
Ġbroadcast	24242
ĠKh	24242
Ġrem	24234
ĠFROM	24232
Ġ180	24232
ĠPal	24230
Ġreviews	24228
ĠCat	24226
ĠEP	24225
Ġapartment	24221
Ġcloud	24218
Ġprofessor	24216
CI	24204
Ġrely	24201
life	24200
ĠDespite	24199
State	24198
dx	24189
^,	24185
Ġ1993	24173
Ġdecay	24172
ĠChristmas	24168
PS	24164
Ġking	24155
##sec	24154
ĠSim	24147
sw	24145
ĠAG	24144
Ġ1992	24137
ĠMet	24136
##Block	24135
Ġchicken	24131
ec	24123
ĠDef	24108
before	24104
$_	24104
##ili	24103
##orn	24099
##čĊ	24095
Ġcardiac	24095
108	24094
final	24089
Ġallegations	24088
change	24086
ĠFed	24083
there	24082
##Attribute	24082
##ski	24080
Ġunsigned	24076
##IV	24075
Ġya	24074
##ette	24073
##FT	24071
Ġelected	24068
Ġ".	24068
Ġ"/	24065
Ġease	24063
Tex	24050
Ġrenal	24042
Ġgen	24042
##LY	24037
ĠBased	24037
Ġdedicated	24035
##cin	24034
Ġchecked	24033
Ġintroduction	24026
ĠCorporation	24024
.$	24023
Ġclassified	24017
ĠĠĠĠĠĠĠĠĠĠĠĠĠĠĠĠĠĠĠĠĠĠĠĠĠĠ	24017
##erial	24015
including	24014
Ġinfl	24013
Ġsatisfy	24012
ĠLight	24009
##iel	24008
values	24000
##ĠĠĠĠĠĠĠĠ	23997
Ġseriously	23995
Ġordinary	23991
##AG	23987
193	23985
##Ð°Ð	23978
ĠOfficer	23978
Ġrevenue	23972
Ġast	23969
HA	23967
Ġdistributions	23960
ĊĊĊĠĠĠ	23953
Ġpolymer	23944
Ġgalaxies	23937
Ġye	23932
Ġvary	23932
Ġanywhere	23932
Ġaged	23931
Ġhistorical	23930
Inter	23927
Ġbytes	23927
##iated	23925
##Î±	23915
Ġsnow	23913
ĠPan	23912
##ood	23910
Ġdiscover	23897
##UG	23896
Ġsteel	23894
1999	23891
##att	23882
##Ø	23881
ĠSho	23879
##gon	23874
Ġsemiconductor	23872
rest	23871
Ġpred	23871
Ġinstrument	23871
Ġcorrection	23871
ĠFE	23870
Ġcolour	23864
##unc	23863
##ãģ®	23857
Ġpresents	23856
Ġmatches	23854
Ġstrict	23845
ĠSpecial	23842
ĠRight	23840
Ġkit	23839
##action	23834
##Input	23834
##È±	23831
Ġgiant	23829
Ġtheoretical	23828
##pect	23827
nm	23822
Ġwarrant	23820
Â²	23819
##uy	23818
##Width	23806
ĠClub	23805
Ġperfectly	23802
ĠTS	23801
0002	23789
Ġinvolve	23789
Ġpartners	23788
##app	23784
ĠMass	23778
ĠPage	23777
Ġcrew	23774
Ġmom	23769
ĠCre	23769
##ICE	23764
limits	23760
##UC	23760
##com	23759
.^[@	23757
Ġdiagnosed	23757
IR	23755
Ġtoken	23753
ĠSar	23752
##BI	23744
Ġstaining	23743
Ġillness	23741
##lock	23739
##ella	23737
##uff	23732
Ġ&=	23731
ep	23730
positive	23729
Ġprediction	23728
##water	23718
Ġlaunched	23710
##pher	23703
Ġbis	23693
##olo	23692
ĠCG	23685
ĠWT	23682
Ġincubated	23677
Ġchest	23676
##GR	23675
Ġdataset	23672
Ġdiffer	23671
real	23666
sol	23665
Ġkidney	23664
##js	23663
##astic	23661
Ġcommit	23652
ĠRS	23647
Ġmetabolism	23645
ĠDate	23645
Chi	23644
cpp	23643
Ġcarefully	23641
Good	23636
Ġhum	23631
Ġeducational	23625
##ois	23622
ĠKan	23622
Ġafford	23616
Ġstatutory	23613
ĊĠĠĠĠĠĠĠĠĠĠĠĠĠĠĠĠĠĠĠĠĠĠĠĠĠĠĠĠĠĠĠĠĠĠĠĠĠĠĠĠĠĠĠĠĠĠĠĠĠĠĠ	23613
mat	23610
ĠSL	23599
Most	23592
Ġyesterday	23591
Ġurban	23591
Ġdb	23586
Ġcompete	23585
Ġfraud	23582
##ao	23575
Ġcru	23575
Ġ\;	23567
Ap	23558
============	23557
ĠUC	23557
##Header	23553
ĠWomen	23547
Ġinsulin	23546
##comp	23543
site	23542
(\[	23542
Ġ++	23539
ĠRet	23534
Collect	23528
##End	23520
ĠYOU	23519
Ġbreaking	23517
*/	23514
Ġlit	23512
ĠHS	23512
Ġste	23509
Ġthousand	23507
Ġmonitor	23505
Ġwest	23504
##urg	23499
ĠDev	23498
ĠAngeles	23497
ĠSoc	23488
Ġâ	23486
ĠDetermine	23485
Ġhardware	23480
##cut	23470
##))	23463
Use	23460
Ġrounded	23458
address	23457
Ġ125	23447
ĠDam	23433
ĠĠĠĠĠĠĠĠĠĠĠĠĠĠĠĠĠĠĠĠĠĠĠĠĠĠĠ	23422
##anti	23420
Ġdomains	23419
Ġreact	23413
Ġgeneric	23409
Ġpseudo	23403
icon	23402
##cap	23400
Ġloaded	23399
lim	23395
Ġdrinking	23395
Ġsole	23391
Ġdance	23389
Ġana	23388
Ġreferences	23386
Ġcarrier	23385
lock	23383
Ġsufficiently	23381
Ġcontends	23375
##iled	23367
ĠBefore	23366
Ġquantitative	23364
##inate	23360
##RR	23358
Ġbu	23355
IP	23352
##')	23348
Ġcomplexity	23346
Ġpartially	23342
##ius	23339
##atch	23337
Ġimposed	23336
ĠJud	23335
Ġneighborhood	23333
{-	23330
##Le	23330
140	23329
##erence	23325
Ġsto	23321
##iter	23318
ĠLie	23316
\}$	23310
ĠSpace	23300
Ex	23299
##No	23299
Ġequ	23298
##asi	23295
Ġcomparable	23290
Ġdisclosed	23287
au	23286
Ġsomewhere	23286
Ġjump	23276
##kar	23272
ME	23271
ĠProv	23263
Ġtables	23262
##mt	23261
Ġyields	23261
##adi	23260
##Impl	23259
Che	23253
Ġpr	23247
Ġcontrolling	23242
Ġdenominator	23239
impl	23238
##wan	23233
Ġabstract	23232
ĠOld	23227
Ġ112	23224
##He	23217
Ġeast	23217
##dor	23207
##pat	23205
Ġnumerical	23203
Ġcrowd	23202
ĠEst	23194
Ġdiscrimination	23190
Ġbelieves	23190
Ġreveal	23188
##asm	23182
Ġfre	23180
##inated	23172
ĠBritain	23166
##room	23160
ĠGro	23151
Ġsampling	23140
Ġconstraints	23140
Ġbehalf	23136
,$	23135
LO	23133
mp	23122
Ġkn	23118
Ġspo	23116
Ġperipheral	23111
BO	23110
##SH	23100
Ġtrigger	23099
Ġadmission	23093
IC	23087
ĠExt	23081
Ġbread	23076
Ġmarketing	23075
PL	23074
##./	23072
ĠHTML	23069
ç	23063
unit	23062
Ġ}\	23048
Ġserves	23047
During	23045
##ographic	23029
Ġhorizontal	23026
021	23022
ĠMatt	23022
his	23018
Like	23017
##ulin	23016
Ġhonest	23013
##yme	23007
after	23004
ĠFox	23004
Ġ140	22998
"))	22996
ĠForce	22995
Ġscan	22990
ĠBol	22986
Cal	22983
mediated	22977
Ġhandling	22976
ĠYoung	22973
Ġchallenging	22943
Come	22938
Ġexplicitly	22938
Ġ160	22932
##RY	22930
ĠBusiness	22929
231	22927
Ġalive	22922
textbf	22916
ĠBas	22908
Expand	22906
ĠEm	22906
##Not	22902
ubuntu	22901
Ġgrew	22900
ĠSupport	22898
ĠEV	22898
aa	22894
Ġcited	22893
##Up	22892
ĠEv	22885
Ġserial	22880
Ġneural	22878
BR	22874
ĠInv	22873
Ġsimultaneously	22867
Ġtiming	22860
Many	22856
ĠEc	22848
Ġabundance	22843
tmp	22840
Ġcompute	22839
ĠToday	22839
Ġloading	22834
ĠMag	22832
Ġblend	22831
##elo	22829
Ġalgebra	22823
##lip	22822
Ġmales	22819
##uction	22813
Ġproven	22803
##$.	22799
##IX	22798
##GH	22794
Ġburn	22790
Ġquiet	22788
ds	22786
Ġwheel	22783
ĠUP	22783
ĠAsia	22783
##right	22779
ĠUV	22771
Ġlunch	22770
Ġfiling	22768
Ġvariations	22765
Phys	22764
Ġproud	22757
Ġhealthcare	22753
##tw	22750
112	22747
##body	22747
Ġgreatly	22745
Ġbet	22743
ĠAng	22743
ĠTechnology	22741
Ġunb	22737
##bor	22733
##ason	22733
Ġfunc	22731
Her	22729
Ġfer	22723
Gen	22709
Ġresponded	22702
),\	22701
RO	22697
Ġdress	22697
Ġprovider	22695
Â¶	22694
ĠBest	22690
Ġamplitude	22687
Ġ**(	22683
Ġcovering	22679
##ience	22673
Finally	22671
Ġcopies	22668
Ġimproving	22665
Ġquantity	22654
Ġcarcinoma	22654
xc	22651
Ġfed	22642
Ġingredients	22634
Ġps	22633
Ġnorm	22633
Ġobj	22631
Ġfewer	22631
##cular	22629
ĠRob	22625
Ġassign	22624
Ġaer	22624
##aster	22623
Ġadministrative	22620
should	22613
ĠJr	22611
Ġmarker	22608
SM	22607
Ġbottle	22607
Ġprep	22606
ĠOK	22606
Ġpenalty	22603
ĠNov	22603
Open	22599
ĠBase	22597
ĠKl	22594
Ġexplicit	22588
ĠPut	22581
##ido	22574
ĠSupp	22571
##ogenic	22569
Ġmatching	22567
Ġrose	22566
##Window	22564
task	22563
Ġprogramme	22563
ĠCy	22563
Ġapproximation	22562
such	22561
##ison	22559
Ġpoll	22556
##esis	22548
Ġchair	22544
Ġinform	22541
ĠChapter	22541
CM	22540
ĠLove	22539
note	22535
ĠSQL	22533
Ġsending	22531
Ġmovies	22531
Ġcohort	22531
ĠDem	22530
Ġ-------------------------	22528
Ġcodes	22526
Ġelevated	22525
ĠMaster	22522
##olar	22521
Ġdrivers	22520
ĊĠĠĠĠĊĠĠĠ	22512
cup	22509
DO	22501
Ġhasn	22501
##pin	22496
Ġnamely	22496
Ġrooms	22490
ĠCivil	22490
Ġrh	22489
Ġfailing	22489
##num	22487
##uation	22484
Ġgay	22479
Ġomitted	22476
ĠDB	22476
Ġtie	22475
ĠShar	22471
Ġnearby	22469
full	22465
ĠKim	22458
normal	22457
Ġawait	22455
ĠValley	22454
Ġsubmit	22453
ĠMB	22451
ĠHC	22450
Ġcomparing	22445
Ġsignature	22444
Ser	22442
ĠTI	22442
Ġdifficulty	22440
ĠDisc	22429
Ġ123	22428
Ġpapers	22427
Ġblow	22424
ĠIllinois	22422
ĠDavis	22418
ĠProp	22417
Ġinsert	22416
##kk	22414
Ġrejected	22410
##hs	22397
ĠBal	22390
}-\	22388
Ġleaf	22384
##ains	22378
##ATION	22376
Ġcommitment	22373
ss	22364
Ġfrequent	22354
ĠHave	22354
Ġprecisely	22353
white	22347
##ait	22343
Ġfifth	22339
ĠRoyal	22337
Ġdest	22336
Ġgear	22331
##PC	22330
Ġ107	22330
ĠArm	22329
years	22328
sys	22326
ff	22321
Ġinequality	22318
ĠForm	22306
Ġdivisor	22304
Ġsan	22302
##PL	22298
more	22294
Ġspiritual	22293
AM	22291
##Start	22290
Ġovercome	22287
ĠItaly	22284
Ġinvestors	22280
##ational	22279
##EP	22278
ÂĢ	22275
Ġmachines	22274
##IB	22273
diff	22263
##oom	22258
Ġatoms	22257
ĠMichigan	22255
Ġclause	22252
ĠDescription	22251
Ġabsorption	22246
Ġnotion	22244
Ġscientists	22242
Ġexhibit	22242
Ġreward	22240
##ook	22239
Ġbusy	22233
ĠYear	22231
Ġsmile	22230
Ġbuying	22230
Ġtemp	22228
##imate	22224
##rating	22223
Ġfemales	22219
Ġargs	22212
ĠSpe	22212
Ġshoot	22211
process	22209
Ġverify	22207
Ġbundle	22207
Ġcompetitive	22203
ĠAmazon	22200
stream	22199
ĠEnergy	22197
Ġwet	22194
Ġnaturally	22194
Ġtone	22192
ĠÏ	22188
Item	22186
##ued	22185
Ġko	22179
Ġdoctors	22178
Ġclosing	22178
##sel	22174
Ġdiverse	22174
they	22171
{(	22168
##via	22161
doi	22159
~*	22153
)),	22149
SH	22144
Ġtensor	22142
ĠSte	22142
##igh	22134
menu	22133
ĠCom	22133
Ġcareful	22132
Ġretain	22129
MO	22127
active	22124
ĠGal	22121
##ibly	22120
022	22109
##eral	22109
LE	22105
Ġparticipation	22098
End	22097
edu	22092
Ġcuts	22092
env	22091
Ġga	22090
Ġscored	22082
Ġmeasuring	22080
Ġelections	22078
ĠCross	22072
##Control	22071
##used	22070
ĠTB	22069
ĠMiss	22065
Ġroof	22062
Ġrestricted	22062
##aut	22061
Ġcoordinates	22061
DC	22059
ĠResults	22059
CON	22057
##obe	22057
Ġcheese	22057
mean	22051
fin	22050
##ÑĮ	22043
Ġjo	22042
##Url	22039
ĠChris	22039
ĠBY	22038
Ġenabled	22037
ĠBack	22037
ĠArch	22034
Ġhide	22033
##INT	22026
Ġsurprised	22024
##uli	22023
ĠLS	22023
Ġriver	22019
Ġprivacy	22019
%).	22017
Ġreduces	22012
Ġmodification	22010
Ġadjusted	22006
##ffe	22005
}_\	21993
est	21993
quot	21992
inst	21992
AT	21990
##Ï	21983
Ġtelephone	21977
Ġ\"	21973
Ġscheduled	21971
##irm	21970
Ġcable	21962
Ġyards	21960
ĠPra	21960
BL	21958
click	21956
##OB	21952
ĠIr	21948
##stic	21947
ĠFort	21947
AF	21938
Ġcomposed	21934
Ġfeelings	21925
ĠWork	21925
Ġindependently	21923
##ql	21909
ĠĠĠĠĠĠĠĠĠĠĠĠĠĠĠĠĠĠĠĠĠĠĠĠĠĠĠĠĠĠĠĠĠĠĠĠĠĠĠĠĠĠĠĠĠĠĠĠĠĠĠĠĠĠĠĠĠĠĠĠĠĠĠĠĠĠĠĠĠĠĠĠĠĠĠĠĠĠĠĠĠ	21909
Ġsuffer	21908
tri	21906
ĠSR	21902
Ġadds	21900
Results	21895
Ġcheap	21885
##town	21883
Ġpepper	21882
##At	21881
Ġdominant	21876
Ġarc	21875
ĊĊĠĠĠĠĠĠĠĠĠĠĠĠĠĠĠĠĠĠĠĠĠĠĠĠĠĠĠĠĠĠĠĠ	21875
background	21873
Ġmistake	21871
ĠSyria	21869
##VA	21867
##cribe	21866
##ape	21857
Ġarmy	21856
Ġ189	21855
Ġalignment	21854
##DB	21853
way	21848
Ġanymore	21847
ĠCEO	21847
ĠFour	21846
Ġcontinuing	21843
Ġpresidential	21842
##UP	21839
Ġsuppose	21832
location	21829
Ġskill	21829
Ġkinase	21829
Ġexecute	21829
Ġultra	21823
TH	21818
ĠLC	21816
Ġsettlement	21814
Ġsilver	21813
Ġinstallation	21813
Ġsol	21811
ĠNF	21810
ĠNY	21807
Ġalter	21802
ĠGlobal	21801
ĠMax	21800
##itz	21798
ĠFR	21798
ĠRay	21794
##PT	21793
Ġlipid	21787
Over	21784
ĠRest	21781
prod	21779
!âĢĿ	21778
Ġalt	21772
ĠMR	21771
Ġlists	21768
Ġteeth	21763
Ġunusual	21761
ĠSource	21747
ĠDer	21738
Ġcrimes	21736
Ġmanifest	21735
##ĊĊĠ	21730
Ġprogramming	21730
##actic	21722
ext	21721
Ġboat	21721
fs	21718
Does	21718
Ġtalked	21715
Ġdeb	21715
materials	21713
Ġcommunications	21711
##\[	21708
Ġlab	21705
Next	21698
command	21697
bound	21696
Ġaircraft	21692
ctx	21690
ĠSon	21683
ĊĊĊĊĊ	21683
Ġloose	21678
byte	21676
pp	21675
##lets	21675
Ġbroke	21671
Ġprecise	21669
Ġgenerating	21668
token	21665
##ECT	21659
##Qu	21657
product	21654
ĠAsian	21652
Ġsmoke	21648
Ġopinions	21647
##vol	21645
ĠĠĊ	21636
Look	21635
ĠManagement	21630
Ġreceiver	21626
##GS	21624
Ġcont	21624
Ġdrag	21620
known	21615
det	21613
Ġexecuted	21612
ĠTake	21606
ĠMed	21605
usr	21597
column	21596
ĠJu	21592
Ġwealth	21582
Ġpriority	21581
##iant	21579
Ġpetitioner	21574
Ġlegs	21574
Ġdad	21574
##aka	21573
Ġpartition	21572
##una	21567
Ġvectors	21567
##FS	21565
ĠImp	21565
Ġshoulder	21563
Ġdanger	21563
107	21562
214	21561
ĠItalian	21560
Ġlocally	21555
Ġwaves	21554
Ġ115	21553
##Ð»	21550
ĠConf	21546
Ġafraid	21538
ĠGeorgia	21537
Ġinfinite	21534
##roid	21529
Ġ600	21524
ĠIg	21522
Ġoccurrence	21521
del	21517
Ġ1991	21517
Ġextraction	21504
Ext	21501
Ġkick	21497
Ġrefers	21493
Ġcrazy	21490
Ġwhenever	21487
Ġsuddenly	21476
##EX	21465
Ġhouses	21464
##rist	21463
ĠFC	21463
Ġlip	21457
##Exp	21449
##Con	21449
##oon	21447
Up	21445
##ication	21444
dp	21443
##")	21434
ĠThough	21430
Ġaimed	21428
Ind	21424
##YS	21421
ser	21419
^)	21418
Ġfib	21418
LI	21413
##ched	21401
Ġjail	21401
Ġbath	21399
Ġinhibitors	21395
à¸	21392
Ġtaught	21387
Ġpad	21385
Ġacquisition	21384
blue	21381
Ġtemporary	21381
ĠCook	21381
External	21380
Ġnamespace	21376
Ġforum	21376
Ġtexture	21374
Ġpur	21374
Ġplea	21374
Ċĉĉĉĉĉĉ	21374
Ġhook	21361
Ġstreets	21350
ĠApplication	21349
Jo	21348
Ġexpenses	21343
##FA	21342
##erc	21339
Ġbreach	21337
Ġcultures	21335
ĠKn	21335
word	21334
##ento	21330
conc	21319
Mat	21319
##DS	21319
Select	21317
106	21316
Ġweapon	21314
Ġmod	21314
##pha	21313
ĠPolicy	21312
##IST	21311
##ios	21304
Ġspec	21298
Ġlease	21297
ĠVA	21297
Ġproduces	21294
Ġpassage	21293
hand	21292
Ġvital	21292
##rot	21290
Ġupdates	21289
##ided	21288
.;	21287
Ġpret	21287
Ġconsecutive	21287
Def	21284
##imp	21284
ĠProposition	21283
Ġinvalid	21281
##AGE	21278
##wd	21267
)_	21263
cli	21260
Ġ>>	21259
lat	21257
Ġpipe	21257
ĠBP	21244
Ġrear	21237
Ġatmosphere	21237
ĠAsh	21235
handle	21232
Mon	21232
##ova	21232
Ġwatched	21230
Ġwestern	21229
Ġtiny	21218
190	21215
ĠRights	21214
##data	21210
ĠMicro	21209
Ġsymmetric	21206
Ġdiss	21206
Ġattributes	21203
Ġscar	21202
##">	21195
Ġproviders	21195
Ġplurality	21195
params	21194
##izes	21190
Ġdump	21190
Ġnerve	21185
Ġag	21182
save	21180
Ġreasonably	21180
Ġbur	21174
ĠÂ	21170
Ġappreciate	21168
ĠThank	21168
Ġsyn	21166
ĠWh	21164
Ġfrequencies	21159
Ġvertex	21151
Ġearn	21151
ĠEN	21150
Ġvalve	21148
<!--	21146
Ġsoul	21144
Okay	21143
Ġtrading	21141
Ġprocessed	21140
##Ðº	21138
##unk	21135
##Ð²	21133
}^{-	21131
SI	21129
##Default	21122
ĠBan	21122
side	21112
Ġawareness	21110
Ġpsychological	21109
##ister	21100
empty	21095
Ġlosses	21093
##alt	21088
117	21080
##lines	21080
##BO	21079
_{(	21074
pop	21072
Ġdestroy	21069
##pto	21067
'),	21066
Har	21065
##iving	21065
Sl	21064
##ove	21060
ĠCount	21060
##war	21058
ĠBM	21057
ĠBro	21054
ĠGM	21047
buf	21044
##Link	21044
Ġautom	21044
Ġlawyer	21043
Ġpersonnel	21040
Ġwitnesses	21038
ĠCN	21038
():	21037
?'	21033
her	21031
Ġcompletion	21028
Ġimprovements	21022
Ġplates	21020
Ġtranscript	21018
Ġcrash	21013
##EF	21012
AN	21009
Ġsomehow	20998
ĠBou	20993
total	20990
Ġsauce	20990
San	20986
##TG	20982
Ġgang	20979
##Component	20964
Ġmarks	20964
##aco	20962
Ġvascular	20961
ĠMiller	20961
Ġlift	20960
Ġstruggle	20959
##Command	20958
ĠLine	20958
well	20956
Ġweren	20955
Ġminimize	20950
Ġvideos	20949
Ġtank	20948
subs	20944
xs	20942
Ġpatch	20942
Ġfluorescence	20941
ĠAlex	20941
Ġtalks	20940
Ġaffirm	20940
ĠWilson	20940
ĠGS	20938
Ġexplains	20931
##emb	20925
ĠNat	20920
ĠPH	20919
Ġoxide	20916
Ġlayout	20916
Ġretail	20915
Ġholes	20913
ĠDist	20912
Ġantigen	20903
Ġtemporal	20901
anti	20895
##AND	20891
##cell	20889
Ġtall	20889
Ġ($\	20888
ĠPin	20877
Ġorganized	20875
Ġgoverning	20869
Ġcampus	20869
Ġreturning	20868
ns	20865
Ġdem	20865
##ived	20864
ĠÃĹÂ	20856
Ġadopt	20852
Ġ(%)	20850
##IG	20847
Ġmanufacturer	20841
ĠLow	20841
law	20839
Ġstone	20835
temp	20833
km	20833
Ġinvariant	20831
ĠTM	20820
##ami	20805
Ġinit	20802
Count	20799
Work	20798
PP	20798
Ġrespiratory	20798
Ġinterior	20796
Ġ02	20795
Ġunlikely	20791
ĠĠĠĠĠĠĠĠĠĠĠĠĠĠĠĠĠĠĠĠĠĠĠĠĠĠĠĠĠ	20791
bigg	20790
prob	20786
##rator	20785
ĠBS	20785
##uz	20784
Ac	20783
Ġroughly	20783
ĠUr	20780
Ġ121	20780
have	20773
Ġcert	20771
##cos	20769
Ġchecks	20768
DM	20766
Ġcro	20764
##SO	20761
stat	20759
Ġabortion	20758
Ġcreative	20756
Ġpermitted	20755
ĠCentre	20753
Ġinteract	20752
##isan	20748
Model	20747
ĠRF	20742
Ġnervous	20740
Ġdirections	20740
Ġms	20738
##Change	20735
Ġmodules	20733
Ġrecipe	20723
##odo	20722
##uda	20720
Ġcooking	20713
Ġarch	20708
##tage	20703
Ġcre	20702
Ġfoundation	20701
Ġuncertainty	20698
##iot	20693
Ġstretch	20692
Ġelsewhere	20689
Ġpolar	20685
ĠET	20685
Ġgre	20681
Ġfabric	20680
Ġcommunicate	20677
Ġeliminate	20675
##vers	20673
Ġphotograph	20668
Ġcovers	20666
800	20663
##pre	20663
##test	20660
Met	20651
##Provider	20648
Ġreject	20647
Ġmeal	20647
GP	20644
Ġrestriction	20639
Ġparking	20637
Ġgeometry	20637
Ġdisagree	20636
then	20635
win	20629
Ġdeviation	20629
##ĠĠĠĠĠĠĠĠĠĠĠĠĠĠĠĠĠĠĠ	20624
è	20622
##Ar	20619
ĠRepublic	20617
Ġbounded	20616
##ille	20614
Ġsystematic	20611
ĠRem	20609
ĠFood	20608
##ipe	20604
Ġpaths	20604
##CL	20600
Ġcleaning	20595
ĠMuslim	20595
Ġsodium	20593
ĠWil	20588
Ġconsisting	20586
##pr	20584
Ġ1970	20582
Ġtit	20576
Ġcycles	20571
parse	20564
##ugg	20560
##ival	20559
ĠGE	20557
Ġnp	20555
}\\	20553
Ġkeeps	20549
ĠDesign	20549
Ġinvasion	20545
!!	20541
Ġutility	20541
Tab	20533
Ġsec	20526
Ġmarijuana	20522
Ġcontracts	20521
ĠServer	20517
##oop	20514
Ġdisability	20514
Ġseasons	20513
Ġpeptide	20513
##LS	20512
Ġ119	20512
Ġevident	20510
Ġviolent	20505
##Res	20504
container	20503
Ġunt	20501
Ġalgorithms	20497
Ġaffects	20492
Ġconclusions	20491
127	20489
ĠGer	20475
ĠCU	20472
export	20469
Ġbike	20463
Ġconcrete	20462
Ġchip	20462
ĠTotal	20458
Ġext	20457
##ript	20455
RS	20450
Ġwake	20441
Ġsho	20441
Ġoffensive	20441
##ror	20438
~)	20437
##ann	20433
.]	20424
##Ã§	20424
##lab	20423
Ġtheories	20421
Ġbyte	20421
Ġmas	20416
Ġ187	20414
Ġdiff	20413
Ġscattering	20412
Ġmedication	20412
Ġrice	20410
ĠLett	20410
Ġconverted	20407
##Check	20406
ĠCommunity	20406
im	20404
##opt	20399
Ġconsiderable	20399
ĠSil	20394
Ġ113	20394
email	20387
Ġresonance	20385
##Ptr	20384
##Char	20384
##CP	20383
Ġreaders	20383
cache	20382
ĠÑģ	20379
Ġstrings	20379
Ġaccumulation	20375
##OG	20374
Â¿	20373
Ġdispute	20372
cat	20371
Ġhybrid	20371
##ATE	20368
##ete	20367
ĠIslam	20362
##matic	20361
Ġavailability	20356
Ġonset	20354
ĠSouthern	20350
##urt	20349
##.\	20349
Ġsong	20345
Ġ$[	20344
##Cell	20342
ĠWood	20341
textrm	20338
Ġrobust	20333
Ġcond	20332
Ġdoctrine	20331
##TO	20323
Ġenc	20319
Ġresolved	20313
Ġhorse	20308
Ġviewed	20302
ĠJersey	20297
##iri	20296
Ġrural	20296
##lect	20295
##BS	20289
ĠÃ©	20287
Ġmaintaining	20285
Ġprevention	20281
Ġcart	20281
vs	20280
ĠHy	20276
channel	20270
##odi	20268
##ives	20268
Ġkm	20268
Ġpushed	20267
377	20263
Ġpersonally	20257
Ġhang	20254
Sub	20251
âĢĺ	20248
##URL	20247
Ġcraft	20245
Ġpilot	20243
par	20241
Ġcoli	20241
Ï	20238
Ġaggressive	20232
109	20229
ĠHal	20229
Ġ((-	20227
##Th	20222
Ġentries	20222
Ġ114	20218
Ġ=\	20214
##ways	20213
ĠAh	20212
##INE	20203
Ġconvicted	20203
##ulating	20202
##opic	20202
##phy	20200
ĠSat	20198
Ġadvantages	20196
Ġrede	20189
##ban	20185
Ġsmell	20183
debug	20181
Source	20179
Ġfra	20179
##HC	20178
Ġguarantee	20177
Ġbatch	20177
##sey	20176
ĠMi	20176
Ġmirror	20173
ĠDid	20168
Ġfired	20167
Ġending	20164
Pat	20163
Ġbarrier	20163
Ġphenomenon	20162
Ġinterference	20162
0005	20160
ĠÐ²	20159
Ġconvenient	20156
##hing	20149
ĠRun	20147
Ġdysfunction	20145
##GF	20136
Ġsurvive	20136
Ġlifetime	20136
Ġdiscussions	20135
Ġownership	20134
Ġsequencing	20133
Ġquasi	20131
Ġ('	20127
##TY	20126
##iling	20125
Ġteach	20124
uk	20122
bro	20121
Col	20119
##UE	20119
1998	20117
Ġhousehold	20110
##hou	20105
##ained	20099
Ġdefeat	20093
ĠAst	20093
##mma	20089
Ġcontend	20084
##ruct	20082
Ġcop	20081
Ġvacuum	20077
##ater	20072
ĠRC	20070
Ġexclusive	20067
Ġ(âĢľ	20067
Ġsir	20066
NET	20064
Ġregularly	20063
TD	20062
##bed	20056
Ġ"<	20053
255	20050
Theta	20049
ĠSF	20043
##omb	20042
Ġcompeting	20042
Ġcoal	20042
ĠArticle	20035
Ġì	20033
Ġcr	20030
Ġeggs	20027
Ġoperated	20025
Ġ['	20024
##lement	20023
##bel	20021
ĠCons	20019
ĠMulti	20016
Ġfinger	20014
##uf	20011
)$$	20006
rb	20005
##//	20004
ĠPay	20004
ĠArab	20004
ĠMill	20003
Ġ188	20002
##Rec	19998
ĠWITHOUT	19997
Once	19996
ĠGI	19995
##most	19993
Ġcomprising	19987
Ġflavor	19984
Ġguns	19975
Ġcenters	19974
+^	19965
##Ãª	19965
##wl	19964
Ġthinks	19963
interface	19958
docs	19956
join	19953
support	19947
##ense	19942
ĠRat	19937
Ġliberal	19933
Ġentering	19933
CS	19932
Ġfusion	19932
Ġ800	19931
}[	19928
Ġjudicial	19928
Ġear	19928
Cre	19924
ĠÂ¶	19922
how	19921
ĠHenry	19919
ĠTea	19916
ĠCas	19906
##ond	19904
##mond	19904
reference	19897
Ġancient	19889
unsigned	19884
Ġworker	19884
Ġinterpret	19882
ĠSpanish	19876
Ġpm	19874
Ġsustained	19869
Ġinverse	19868
Av	19867
Ġgovernments	19867
##ank	19866
zero	19862
Ġfalling	19860
Ġdegradation	19859
clear	19856
Ġsatisfies	19856
Ġhack	19856
global	19846
##vert	19844
Ġcaptured	19841
;">	19840
Â®	19838
##phi	19838
PI	19837
ĠConference	19837
##uro	19832
Ġtomorrow	19831
Ġ___	19831
##Function	19827
'>	19820
ĠWhether	19819
##ctor	19817
INT	19814
##ptr	19814
Cont	19812
ERROR	19806
Ġreaching	19802
232	19801
Ġexpanded	19797
Ġdemands	19795
##MC	19792
Ġknee	19792
ĊĠĠĠĠĠĠĠĠĠĠĠĠĠĠĠĠĠĠĠĠĠĠĠĠĠĠĠĠĠĠĠĠĠĠĠĠĠĠĠĠĠĠĠ	19791
Ġinterventions	19790
Ġedit	19789
Sw	19788
##cm	19786
Ġremoving	19780
Ġoste	19780
Ġcolleagues	19778
Ġdismissed	19773
))/(	19771
Ġvice	19768
ĠStandard	19764
Ġstorm	19762
Ġrecommendations	19760
##Dir	19759
ĠĠĠĠĠĠĠĠĠĠĠĠĠĠĠĠĠĠĠĠĠĠĠĠĠĠĠĠ	19750
Ġcoding	19748
Ġadmit	19745
##rac	19742
application	19738
Ġroots	19732
ĠOff	19730
##fect	19725
Ġqualified	19725
Ġfalls	19720
Ġcoast	19720
ĠÂ°	19719
##ington	19713
ĊĠĠĠĠĠĠĠĠĠĠĠĠĠĠĠĠ	19712
Ġportions	19711
Ġ1989	19709
##cker	19705
Ġincorporated	19699
work	19693
##rie	19691
ĠHas	19691
Ġchart	19690
weight	19689
Ġhydro	19682
##wing	19680
Ġ..	19679
Ġtro	19674
##Task	19665
Ġrub	19662
##pack	19660
ĠNFL	19659
Ġloud	19658
ĠFrancisco	19658
Ġworldwide	19654
Ġprospective	19653
Ġarise	19653
Ġprejudice	19651
ĠSir	19650
about	19649
ĠPakistan	19647
Ġpackages	19643
##eur	19642
ĠWord	19642
##Resource	19634
Ġmasses	19634
##Script	19630
aw	19628
Ġdestination	19627
##roph	19624
Ġgradient	19623
ĠApache	19623
Dis	19619
##uer	19619
Code	19617
Ġstations	19617
dl	19613
ĠMajor	19611
##vity	19607
ĠDor	19605
Ġadministered	19604
##Ñĭ	19603
act	19602
##ref	19600
Ġspl	19599
Ġsizeof	19599
##ener	19598
bp	19597
ĠLev	19597
Ġfaced	19594
Ġcontest	19594
fd	19588
##ishing	19587
ĠTrust	19585
Ġscalar	19584
Ġassays	19583
ĠDefendants	19583
##KI	19579
Ġexcessive	19577
ĠLatin	19572
##mission	19568
ĠCro	19562
Ġscales	19559
##uge	19556
treated	19554
##hes	19554
Ġresidence	19553
Ġmeth	19548
','	19541
ĠBob	19541
Ġseparately	19536
ĠHam	19535
ĠMah	19531
now	19528
mark	19528
Ġgut	19528
Ġfolks	19526
Ġdoors	19526
ĠUpdate	19526
Ġmsg	19525
##iy	19524
Under	19520
Ġdesc	19513
ĠSym	19513
Content	19507
Ġdecreases	19507
##iology	19505
##rap	19503
Ġstuck	19501
fo	19496
ĠPlay	19489
Ġ1988	19488
Ġglad	19487
Ġphysics	19481
Ġmortgage	19480
Using	19477
ĠPath	19476
ĠDaniel	19471
##0000	19469
##bul	19468
!)	19466
Ġvotes	19464
ĠALL	19463
Ġintervals	19462
ĠStudies	19461
Ġprominent	19459
Ġmounted	19456
Ġfriendly	19451
##ston	19444
GA	19443
PD	19441
will	19440
##AY	19432
##ession	19429
May	19421
ĠSand	19417
Ġvalidation	19414
Ġprotective	19413
sf	19411
binding	19411
Ġtoxic	19408
pres	19407
Ġtargeting	19407
Ġaddresses	19405
##åı	19404
Ġegg	19400
Ġ186	19398
ĠHon	19396
##ury	19394
Ġbunch	19394
##Server	19392
##osing	19381
Ġbeach	19377
##ission	19373
ĠFarm	19373
just	19370
ĠPatent	19356
Ġprofessionals	19355
Ġshit	19354
##Row	19343
##ERS	19343
files	19340
Ġunm	19339
ĠDiv	19339
Ġclinic	19338
##Null	19336
subseteq	19335
âĢ	19334
Ġenv	19333
##rain	19325
Ġbearing	19322
gov	19320
Ġparagraph	19316
##vor	19314
Ġpromoter	19310
Ġvariants	19309
ĠAuto	19307
##oth	19299
Ġrising	19299
ĠAnal	19297
Ġabsorb	19292
##NP	19290
Ġbands	19290
ĠNR	19290
ĠAbout	19287
Ġtre	19284
Step	19282
##Offset	19282
Ġdismiss	19280
PT	19276
ĠTaylor	19276
##ribution	19274
access	19273
0003	19273
Ġabsent	19273
Ġappointed	19271
send	19270
Ġappeals	19268
xy	19267
ĠPot	19266
ĠWas	19265
Ġflexible	19261
Ġconstitute	19260
##itu	19257
##oin	19253
##RP	19249
Ġheavily	19248
CE	19245
Ġpasses	19241
she	19237
##Re	19236
Ġflags	19234
Ġexpressions	19233
ma	19231
ĠAcc	19230
Ġdrawing	19229
black	19228
ĠTour	19226
Ġlikelihood	19222
191	19219
Ġreflected	19216
Ġseverity	19214
Ġexpectations	19210
Ġjuice	19207
##Address	19206
Ġaccomplish	19201
Ġinsufficient	19196
ĊĠĠĠĠĠĠĠĠĠĠĠĠĠĠĠĠĠĠĠĠĠ	19196
Det	19194
ĠIm	19192
HE	19190
Update	19185
delete	19179
DR	19177
ĠGT	19174
##enta	19173
Ġpace	19167
##Ãł	19165
Ġjoy	19163
310	19160
bc	19159
ĠWeek	19159
tree	19158
##igen	19156
ĠEA	19155
##ike	19149
Ġratios	19147
language	19146
Ġdish	19146
MR	19145
Ġlimitation	19145
equal	19144
ĠHead	19143
Ġmovements	19140
Ġyeah	19139
Ġsuspension	19139
ĠPatients	19136
echo	19134
Ġtap	19134
Ġsolely	19134
Ġsoldiers	19134
##NK	19132
Ġseeds	19129
Ġsimilarly	19124
Ġvaccine	19122
Ġpromotion	19122
Ġiter	19122
Ġ\}	19119
Ġgod	19118
Ġadvertising	19114
Ġrelating	19110
##Length	19109
Ġconstantly	19107
ĠKer	19102
ĠBoy	19101
Ġsees	19098
ĠBeach	19097
Ġrs	19095
release	19088
Ġhospitals	19087
ĠCarl	19087
Ġpat	19085
Ġstupid	19082
Ġ116	19082
Ġenzymes	19079
##rep	19077
Ġ127	19075
ent	19071
##cript	19071
ĠTax	19069
113	19068
Ġtriple	19068
Ġbeauty	19068
}$)	19067
ĠNorthern	19067
Ġskip	19066
ĠJoseph	19064
##Output	19063
ĠAndroid	19063
Char	19062
sql	19058
##rom	19058
Ġawarded	19057
Ġanswered	19052
dict	19051
##cd	19051
multi	19046
##omic	19045
associated	19042
Ġrestrictions	19042
Ġslip	19040
rc	19037
##vic	19037
Ġorth	19035
ĠAndrew	19035
Ġengineering	19032
Ġcor	19032
Ġcoordinate	19032
Ġ$-	19028
Build	19025
ĠUT	19021
ĠAcademy	19017
Ġforest	19016
##inating	19013
Ġsubjected	19011
Ġfeeding	19008
##page	19004
Ġmeetings	19004
Ġlys	19001
Ġdense	19001
Ġmanual	19000
Ġdrain	18999
##uted	18997
Ġcontra	18994
Ġproc	18988
Ġdisclosure	18987
Ġrot	18986
Ġvarying	18984
Ġcomprises	18984
Ġresidual	18980
Ġassistant	18980
Ġsupplied	18978
Ġchat	18976
}}}\	18969
ĠLT	18969
##},	18960
121	18959
##oro	18956
##áĥ	18955
Ġprosecution	18952
Ġbeneficial	18952
Ġæ	18947
'_	18944
Ġshr	18944
Ġhoping	18944
ĠPennsylvania	18944
Ġprojection	18943
CN	18942
##eration	18942
fp	18937
ĠMedicine	18935
##uate	18931
Ġslight	18928
Ref	18927
Ġpixel	18927
sur	18926
Ġpack	18925
Put	18922
##PP	18922
ĠFri	18918
ĠMM	18917
mag	18916
Ġproceed	18916
##icon	18913
thm	18905
DIR	18903
SELECT	18901
Ġproceeding	18900
DB	18899
Ġnations	18899
ijerph	18896
Ġenjoyed	18892
Ġaccessible	18892
Ġ122	18890
Ġimmunity	18883
Ġlights	18882
Ġimplications	18882
Ġneedle	18881
Out	18877
##iance	18874
Ġphysician	18874
cast	18872
##hand	18868
Ġsig	18868
##aga	18864
023	18858
##Ds	18858
##NN	18857
Ġinline	18855
ĠPlaintiffs	18855
ĠIslamic	18852
Ġcombat	18851
Did	18847
Ġfragment	18846
gp	18842
##$,	18840
Ġclothes	18832
super	18829
Ġlogical	18825
ĠFBI	18816
Ev	18815
##Tag	18815
170	18814
$_{	18811
##umb	18810
Ġages	18804
ãģ	18801
ĠPol	18800
Ġmaximal	18792
ĠFollowing	18788
Ġsumm	18785
Ġ202	18785
ĠRyan	18774
ĊĊĉĉ	18768
ĠHard	18766
##uting	18764
Ġsuicide	18762
RES	18760
##Range	18760
setminus	18757
116	18754
Ġlaid	18753
spec	18752
Ġsilicon	18752
Ġcalm	18752
##mn	18746
PCR	18745
Ġtrim	18745
115	18742
Ġmat	18739
Ġhandler	18738
Ġ^{	18738
##group	18734
##âĢĶ	18733
FR	18732
##\\	18727
Ġcalcium	18725
##iga	18724
Ġbonds	18722
Ġchem	18721
Ġbomb	18718
ĠDue	18715
ĠMid	18714
Start	18710
âĢħ	18702
ĠRad	18702
cp	18701
Ġdefines	18697
Ġcord	18692
Ġheating	18687
##kn	18681
ĠSteve	18681
##eer	18680
ĠGreek	18680
TC	18679
##irl	18676
##mber	18674
Ġtips	18673
ĠPass	18668
Ġjet	18666
OK	18665
##](#	18664
Ġgar	18663
Ġparse	18658
Ġpipeline	18656
ĠBer	18653
Ġcallback	18652
Ġcle	18651
PE	18649
Ġvitamin	18649
]=	18648
##-----	18648
ĠTem	18646
-*	18644
))$	18643
ĠUt	18643
Cons	18642
Ġcorporation	18641
ĠLinux	18641
&&	18640
Ġartery	18635
ĠPy	18629
>\	18628
##ners	18625
underline	18622
Ġtar	18622
Ġâī¥	18619
##ocyte	18616
pub	18613
##ogen	18611
Ġ117	18609
Ġdestroyed	18606
Ġspecify	18604
Ġpal	18603
ĠIndex	18603
ĠâĢ¢	18602
Ġranging	18602
Ġpadding	18601
fc	18597
DI	18597
##OF	18596
ĠAdministration	18596
ĠRB	18595
ĠBook	18595
##ground	18593
Ġautomatic	18590
Â»Â	18589
Post	18585
##Out	18585
Check	18583
##----	18582
Ġimmigration	18581
Ġdefensive	18579
Ġ118	18576
ĠArray	18574
ĠNet	18572
Ġ"#	18569
Ġsupers	18567
##mad	18566
Ġax	18566
Ġassignment	18564
ĠSanta	18557
##Child	18554
Ġink	18553
Ġdesirable	18551
##ĠĠĠĠĠĠĠĠĠĠĠ	18548
insert	18547
##not	18547
Ġdevelopers	18543
Ġfur	18540
Ġant	18534
Ġdys	18532
Ġcollective	18531
Ġ![	18526
##ema	18521
Ġeligible	18521
ĠTHIS	18521
Ġdom	18519
Ġphosph	18518
##AB	18515
Ġgrass	18511
Ġtra	18501
Ġerred	18499
##------	18496
ĠLen	18495
Ġarmed	18492
Ġaff	18486
Ġinsight	18485
##ites	18484
Ġaltered	18484
Ġacceptable	18483
ĠNevertheless	18481
abs	18477
##ange	18476
##Column	18476
Ġluck	18475
Ġeffectiveness	18471
Ġboot	18467
Ġearned	18459
Ġlateral	18457
ĠLtd	18457
instance	18455
Ġpreliminary	18452
##word	18443
Ġstruck	18442
##ressed	18436
Ġedition	18436
Ġunclear	18434
Ġconsistently	18431
Ġsport	18428
##Ã¨	18424
ĠJim	18420
Ġattractive	18418
lem	18417
power	18414
Ġsessions	18414
Ġmol	18412
Sk	18408
Ġguidance	18407
defined	18405
Ġwound	18399
}})$	18398
Ġprecision	18394
Ġvisited	18393
Ġmatrices	18393
rt	18392
Ġvoting	18392
Ġsubm	18391
ĠEll	18391
Ġ["	18384
Ġ\#	18378
ĠPython	18378
##inary	18376
##itive	18373
draw	18370
##Å	18369
##own	18368
Ġmock	18366
##dh	18357
Ġfacilitate	18357
Ġintention	18355
hour	18354
Ġhadn	18354
Ġnormalized	18349
##Dis	18348
ĠColorado	18348
Ġanchor	18344
Ġoverlap	18343
dagger	18340
Fla	18339
Ġperceived	18339
iso	18337
Ġregistration	18337
hash	18335
Ġtracking	18334
ĠMas	18333
Ġpacket	18331
Ġeverybody	18326
Ġmolecule	18325
ĠStudy	18324
Ġsac	18317
transform	18316
##})	18315
Ġarrangement	18315
##tn	18307
Ġangular	18302
ĠTown	18300
ĠCam	18299
ĠNic	18297
Ġmagic	18296
##itter	18294
session	18291
Ġexhaust	18280
}({\	18265
.),	18262
##BE	18261
Ġattract	18259
Ġshopping	18255
profile	18253
Ġsystemic	18253
translation	18249
##roll	18247
Ġintense	18243
Ġadapt	18240
week	18237
Ġmountain	18237
ĠIreland	18237
##isp	18235
Ġsteady	18235
Ġidentifying	18235
Ġcomplexes	18234
ĠArizona	18233
##Update	18229
Ġbirds	18226
Ġrarely	18222
##iding	18221
##RL	18220
Ġruled	18220
700	18219
Ġrandomly	18219
Ġtreating	18215
Ġcry	18213
114	18211
ĠFamily	18211
##ension	18210
|^	18209
ĠUnfortunately	18209
Ġattended	18208
Ġshorter	18202
ĠLib	18201
Second	18200
##The	18199
Event	18197
Ġpromising	18196
##Height	18193
Ġdesigns	18192
ĠJews	18188
ĠOct	18187
ĊĠĠĠĠĠĠĠĠĠĠĠĠĠĠĠĠĠĠĠĠĠĠĠĠĠĠĠĠĠĠĠĠĠĠĠ	18186
Ġtransportation	18185
Ġchildhood	18184
ĠStr	18183
Ġpoliticians	18177
ĠHel	18172
##ean	18171
Ġaging	18167
Ġultimate	18161
images	18159
##md	18156
BE	18155
Ġartificial	18155
-$	18154
ĠStart	18153
ĠAgreement	18153
ĠAff	18150
Ġintegrity	18148
Ġ<!--	18147
##mac	18146
##OO	18139
ĠOC	18138
).$$	18134
rate	18133
ĠUnit	18133
Ġ+/-	18133
Ġpeer	18129
030	18127
##Ã©s	18124
Ġflour	18124
Ġpointer	18123
Ġchemotherapy	18122
ĠPG	18121
Ġmagnet	18120
Ġdeposition	18118
##cies	18117
##Tree	18117
ĠKit	18115
ĠInn	18114
##è¯	18112
ĠØ	18112
Ġdemo	18112
Ġwashed	18111
DD	18108
Ġpregnant	18103
Ġ132	18103
Ġdeeply	18100
ĠIO	18100
pass	18094
}}$.	18092
CB	18092
none	18091
Var	18090
##arm	18090
Ġsentencing	18090
Ġ124	18087
Ġpos	18085
##erv	18081
Ġpol	18081
Ġconcepts	18077
Ġdip	18076
##card	18074
Ġblame	18073
dc	18068
Ġharder	18067
Ġnotation	18066
Ġdenial	18066
ĠJSON	18066
##ä»	18064
ĠCancer	18052
Ġmold	18051
ĠMit	18051
ĠGrant	18051
Ġwash	18050
Ġparam	18049
##uno	18048
Ġjson	18046
*]{},	18045
##mble	18044
ĠSeveral	18041
##kel	18040
game	18039
ĠTal	18039
ĠEL	18039
##cro	18035
ĠIntroduction	18035
Ġlabels	18031
Ġeverywhere	18030
##read	18029
##rophy	18026
Ġ1983	18026
Ġforever	18025
ĠObserv	18025
119	18018
##west	18018
Const	18013
Ġresidues	18013
Mc	18012
Ġdefect	18012
ãĢģ	18011
##MM	18005
ĠAccess	18003
Mil	18002
##Ã	17997
Ġamended	17997
##Ad	17996
Ġmere	17992
##vy	17991
Ġdefend	17990
##aling	17987
Ġallegedly	17984
ru	17983
Ġmixing	17982
##uh	17980
)'	17977
xf	17976
Ġphases	17973
ĠStep	17973
ĠLD	17971
comment	17966
##Form	17962
\^	17959
Ġdisabled	17958
Ġprogressive	17956
##BR	17950
Ġinstitution	17949
ĠCle	17944
Ġclosure	17940
ĠIE	17938
##inn	17933
ĠVen	17926
Ġfold	17925
Ġdim	17924
Ġfunny	17922
cmd	17918
?)	17918
##_{\	17918
##aba	17917
Ġfinance	17916
##lies	17910
Ġimpairment	17909
##rig	17904
Ġnewspaper	17902
ĠCap	17900
ĠBitcoin	17894
Ġcomputing	17892
Ġgall	17891
##Reference	17884
##ray	17883
ĠInclude	17882
ĠSeries	17879
##bal	17878
Ġcollapse	17873
ĠHistory	17872
layer	17868
Ġcurrency	17868
auth	17867
##oice	17867
disp	17863
##icle	17861
##atin	17860
{{	17855
domain	17854
##IAL	17852
1996	17849
##cence	17849
Ġmonthly	17848
Control	17845
MOESM	17844
Mod	17843
##ĊĠĠ	17843
}}_{\	17837
sn	17836
##eva	17833
IF	17830
Ġutilized	17830
Ġrepeatedly	17829
##ality	17828
Ġlegislative	17824
ĠCPU	17823
hspace	17822
art	17822
Ġwrites	17821
'\	17820
ĠCt	17815
##olution	17812
##ches	17804
Ġlandscape	17800
ĠMari	17800
ĠSin	17799
Ġham	17795
Ġcomplement	17794
Ġenemy	17793
##igo	17791
##Ã©e	17788
##iers	17786
Ġsilent	17786
Ġintellectual	17782
Ġaccompanied	17782
Sen	17781
ĠDal	17781
Ġrobot	17779
axis	17778
##ensive	17778
Ġml	17776
Ġoven	17771
Ġexhibited	17768
Ġbankruptcy	17768
##bro	17766
##We	17764
wedge	17762
ĠDown	17762
##DC	17759
Ġdece	17758
ĠFair	17758
Ġreporter	17752
##aj	17751
Ġviolated	17751
Ġlying	17751
Ġarranged	17749
ĠdÃ©	17744
##ika	17742
ĠEle	17741
para	17736
General	17736
##BER	17728
Ġmitochondrial	17728
Ġchecking	17722
Ġgovernor	17721
loop	17719
##ulf	17719
##stone	17718
Ġpulmonary	17716
Ġvessel	17714
##ometry	17711
Ġenvironments	17711
ĠMerc	17710
ĠComb	17708
ĠSpain	17706
Ġdiscrete	17705
ĠRegister	17699
Ġabnormal	17698
##Ð½	17692
##ows	17692
Ġrib	17692
##oring	17689
Ġ(@	17689
Ġsurveillance	17688
ĠĠĠĠĠĠĠĠĠĠĠĠĠĠĠĠĠĠĠĠĠĠĠĠĠĠĠĠĠĠ	17688
ĠDoc	17687
Ġfitting	17686
VI	17680
ĠPF	17678
$^{	17676
Ġasync	17676
Sim	17675
MM	17671
Ġoccurring	17670
Ġimpose	17667
ĠYe	17667
133	17663
Ġlanguages	17663
Î	17662
##state	17661
Ġ1986	17659
##OK	17655
Ġflip	17652
ĠFull	17652
Ġreveals	17651
limit	17645
report	17644
##cur	17643
Ġio	17642
Ġaudit	17641
##ART	17640
}}}(	17635
Ġtopics	17634
Ġ185	17634
Ġstudying	17633
ĠLook	17632
##aze	17630
Ġphilosophy	17628
##hang	17625
ĠNan	17621
window	17620
Ġtunnel	17620
subst	17616
217	17616
##AK	17615
Ġatom	17615
Ġvoted	17613
Ġreadily	17613
##enn	17612
##iction	17610
Ġputs	17605
Ġing	17605
Ġdeclined	17605
Ġpropose	17602
Ġrough	17601
Ġresin	17601
##stein	17599
Ġ×	17596
Ġrecovered	17596
graph	17595
Ġperception	17591
124	17590
Ġadjust	17587
ĠLuc	17587
##Me	17586
##Entry	17583
Ġsupporters	17583
Ġqueue	17580
cells	17578
Ġunlike	17578
##ared	17577
##arian	17575
ĠEastern	17574
ĠFT	17562
Ġpanels	17561
Ġpod	17560
even	17558
Ġreversed	17558
Win	17557
ĠKingdom	17555
999	17553
ĠAgain	17549
##bie	17542
##${	17540
Ġderivatives	17540
.*]{}	17537
##pri	17536
ĠMini	17535
ct	17533
ĠMean	17533
1997	17531
##ques	17530
##pping	17530
prev	17525
Ġopt	17521
##gent	17519
ĠSW	17519
ĠMarket	17517
Ġdefects	17514
Cell	17513
Ġdoses	17513
Ġesc	17511
Ġembedded	17509
##band	17508
Ġinterpreted	17508
Ġcoating	17508
Red	17505
##roc	17504
Ġze	17500
Ġtransactions	17500
!!!	17498
Ġtroops	17498
##rov	17495
ĠMethods	17495
Ġcorrelations	17494
##PD	17493
Ġattachment	17490
_+	17486
##Location	17486
##ĠĠĠĠĠĠĠĠĠĠĠĠ	17486
Ġtrauma	17483
ĠGas	17482
Ġfri	17478
Ġsouthern	17476
>)	17474
IM	17470
Ġstellar	17469
ĠCome	17469
Photo	17463
##ief	17463
##ently	17457
GR	17455
##],	17455
Ġ'\	17455
Mac	17453
ĠBull	17452
matrix	17450
##PH	17450
Ġpray	17449
Ġliked	17447
ĠÂĹ	17446
ĠMus	17444
##alg	17436
##eq	17429
Ġfibers	17429
Ġdisaster	17429
Ġcholesterol	17428
Ġtill	17426
Sal	17424
ĠChildren	17424
edit	17423
Right	17420
Make	17418
ĠJun	17417
Ġwedding	17407
Ġ1987	17407
negative	17402
Ġwireless	17402
Ġcombine	17399
Ġseal	17398
Ġairport	17395
##Es	17394
Ġduties	17394
Ġprinted	17393
Ġconstitu	17392
Ġlifestyle	17390
perp	17382
Ġcriticism	17382
Ġ|\	17381
che	17379
FL	17378
Ġty	17376
Ġreset	17376
ĠML	17376
}}(\	17375
light	17372
Ġactor	17371
Ġprosecutor	17370
126	17368
ĠTitle	17368
##rey	17367
##vm	17365
##pm	17359
Ġlabeled	17358
copy	17357
##kan	17355
##Create	17354
Ġcooling	17352
play	17349
Ġfilling	17349
Ġrating	17348
Ġprinting	17347
ĠSB	17346
Ġexciting	17344
##ott	17343
##low	17342
0004	17340
Ġauthorized	17338
Ġnorthern	17335
Ġphysiological	17333
,{\	17327
Map	17325
##ivo	17325
Ġdiffusion	17324
ĠClark	17322
}}$,	17317
##isa	17313
Ġexpressing	17312
ĠHim	17309
Ġinfluenced	17305
Ġwage	17302
Ġillustrated	17302
imp	17301
Ġplug	17301
##rans	17299
Ġassociations	17297
ĠWARRANTIES	17297
ĠĠĠĠĠĠĠĠĠĠĠĠĠĠĠĠĠĠĠĠĠĠĠĠĠĠĠĠĠĠĠ	17297
Ir	17294
##è¿	17290
Ġcyt	17289
Ġdistinction	17288
##tk	17287
Ġburst	17285
Ġcourses	17284
tc	17277
Ġgained	17275
Ġstra	17273
Ġintersection	17271
132	17263
Ġ129	17263
shape	17260
ĠFle	17256
##WE	17254
Ġisolation	17254
Ġraising	17249
Ġpending	17249
Ġphenotype	17247
ĠRadio	17246
čĊĉĉĉ	17246
##à	17245
Ġgenomic	17244
##outs	17240
Ġcyst	17236
colon	17235
Ag	17235
Ġattitude	17235
##uts	17233
Ġloans	17230
Ġtension	17228
ĠNT	17227
ĠAngel	17227
ĠImages	17225
javascript	17222
##urb	17220
##Connection	17220
##ount	17218
##ologic	17216
Ġconnecting	17213
ĠSpring	17213
##Spec	17211
types	17208
Ġinspired	17207
Ġbrush	17206
Ġ135	17205
under	17204
Ġvalidity	17204
ĠThird	17201
Ġcontention	17200
ĠĊĊ	17195
##ORT	17193
##ading	17187
##Module	17186
Ġ&=&	17186
ĠPacific	17179
##Menu	17176
Ġmad	17174
Ġgalaxy	17174
Multi	17164
Ġss	17162
ĠPoly	17161
ĠKorean	17158
##HS	17157
##lish	17154
##isc	17154
##asing	17153
Ġhopes	17152
147	17151
Ġsomebody	17145
175	17144
Ġxe	17143
122	17142
##anda	17142
Ġdisappear	17142
IT	17141
Ġgross	17141
Ġasc	17141
short	17140
Ġguest	17139
component	17137
Ġignored	17137
ĠCommissioner	17137
record	17135
##acity	17135
**.	17133
Ġcontacts	17132
.(	17129
Ġpel	17122
Ġawesome	17122
Ġ126	17116
Ġ+\	17116
Ġcake	17113
##opl	17112
Ġtolerance	17109
Ġglyc	17109
sch	17107
ĠmL	17104
##max	17097
Ġperiodic	17097
##åħ	17096
Ġicon	17095
##ues	17094
##Click	17093
ĠWithout	17090
Ġscr	17086
##pad	17085
Ġdenotes	17085
ĠFunction	17083
Ġrap	17082
Ġgentle	17081
Ġprost	17080
,$$	17079
##sd	17079
ĊĊĠĠĠĠ	17079
##Types	17075
Ġtherm	17075
Exc	17071
Ver	17070
168	17069
##iner	17068
Ġcardiovascular	17068
##Cache	17066
##ulator	17065
Ġhtml	17065
ĠGames	17065
border	17064
##hea	17064
##cp	17061
Ġpreventing	17061
Ġphosphorylation	17059
##ances	17058
Ġton	17058
##Thread	17057
(){	17055
##Bl	17054
248	17049
ĠAgency	17049
Ġborrow	17045
ĠConst	17045
##{}	17043
Ġequilibrium	17043
ĠColor	17040
ĠAnderson	17037
Ġtransmitted	17033
Three	17031
Ġalarm	17028
Ġestimation	17026
1995	17022
Ġliterally	17022
/.	17021
135	17017
Ġtin	17017
Ġappend	17014
ĠZealand	17014
member	17013
ĠStephen	17013
##FC	17012
ĠEs	17010
##Position	17009
*~*	17007
##WS	17007
mar	17005
##pot	17000
Ġouts	16999
stop	16996
##rich	16996
Ġpounds	16994
Ġmethyl	16994
##for	16992
Ġswitching	16990
Ġembodiment	16988
thread	16981
##rome	16980
Ġmotivation	16978
Ġfactory	16978
##ĠĠĠĠĠĠĠĠĠ	16977
vis	16974
licenses	16974
square	16967
Ins	16965
Ġretro	16964
Ġinterp	16964
Ġgenuine	16962
Bro	16957
scope	16955
##Const	16955
Ġquant	16955
Ġpublicly	16950
den	16947
Ġorbit	16947
Ġgravity	16946
Ġenhancement	16946
Ġdestruction	16942
Ġbathroom	16938
Ġtonight	16937
Ġovernight	16936
##df	16935
\.	16933
##TL	16929
Ġtrap	16921
Ġcomme	16918
Ġelectricity	16916
Ġnose	16915
des	16913
Ġregulated	16908
Ġworried	16907
place	16902
Ġphysically	16902
Ġobesity	16902
##ention	16899
because	16893
Ġspell	16892
Ġamendment	16888
Ġdifficulties	16885
Project	16883
ĠAlb	16880
##place	16876
##Net	16875
Ġdelayed	16873
Ġboxes	16873
ĠPrior	16872
Ġspecificity	16871
Ġapi	16871
)\,	16864
ĠTF	16861
Ġelectro	16859
FE	16857
Ġassumptions	16857
Ġunexpected	16856
ĠTy	16855
Ġ131	16853
MAX	16852
##Tool	16851
Ġepisodes	16850
ĠLas	16849
Every	16848
##ones	16846
Ant	16845
help	16843
Ġsearching	16843
syn	16839
sort	16834
ĠHamiltonian	16834
Ġ255	16833
210	16832
ĠOp	16832
ĠIowa	16831
Ġfounded	16829
##Level	16828
Ġpoverty	16827
Dep	16826
pd	16825
##oci	16821
Ġlaugh	16821
Ġnucle	16819
Ġjustify	16816
čĊĠĠĠĠĠĠĠĠĠĠĠĠĠĠĠĠĠĠĠĠĠĠĠ	16816
Ġfake	16813
ĠConsequently	16813
##ires	16808
##âĢĻ	16805
rev	16804
##Reg	16803
##ĉĉ	16803
Ġattributed	16803
Ġpie	16802
ĠStill	16798
ste	16797
##Call	16796
hr	16791
ĠAle	16791
ĠDocument	16790
129	16788
##TP	16787
ĠPerhaps	16782
move	16781
Ġhardly	16779
MC	16777
Ġdisplays	16776
##rog	16775
131	16772
##ony	16771
Ġ"-	16771
ES	16770
Ġip	16769
ĠMem	16769
Hello	16768
Ġsynthetic	16768
ĠProfessor	16768
Ġacknowledge	16767
store	16765
$]{}	16761
Ġclip	16761
##iser	16760
ĠSky	16757
Ben	16754
##cont	16750
Ġblocked	16750
##por	16748
Ġcompatible	16744
oplus	16743
Ġweird	16743
##gun	16741
ĠAV	16741
Ġpic	16740
etc	16739
Ġhits	16739
ĠPlace	16738
âĢ²-	16737
ĠWITH	16736
##{{	16734
Ġwing	16733
Ġ1985	16727
ĠCore	16716
##Fe	16714
##rill	16711
Ġshoes	16710
Ġpunishment	16710
Ġsilence	16709
Ġframes	16708
Ġmandate	16705
Ġsch	16704
green	16703
Ġthromb	16702
Ġrevolution	16702
Ġbeliefs	16696
##$(	16692
ĠSaudi	16692
##Equal	16689
Ġrescue	16683
BC	16677
ĠFord	16676
ĠBU	16675
ĠSelect	16672
Ġpermissions	16671
##uan	16670
ĠMU	16668
Property	16662
Ġunre	16661
Ġboss	16661
\>	16659
##ãģĦ	16658
Ġmature	16658
##gal	16657
##ough	16655
Ġpartnership	16655
Ġhol	16655
##Ñı	16654
foot	16652
Ġ170	16652
Ġpleasure	16648
Inst	16647
;\	16646
Ġvisits	16646
Ġenables	16646
Ġaffecting	16642
good	16638
Ġobtaining	16638
Ġ133	16638
##igation	16636
ĠSav	16636
ĠAdditional	16635
##+}	16633
Ġgranul	16632
##ards	16631
United	16630
Ġ$.	16629
Ġmeaningful	16626
Ġgenerator	16625
##olic	16622
Ġpotent	16620
family	16619
ĠOb	16618
Dan	16616
Ġdeclaration	16615
Ġ{@	16613
Ġgotten	16613
Ġtrends	16612
Des	16610
##pper	16610
)_{	16608
High	16606
Ġple	16600
##opa	16596
SIZE	16585
ĠCamp	16585
ĠSpecifically	16584
ĠAve	16584
Ġdifferently	16583
being	16581
Ġengagement	16579
##pes	16577
##áº	16575
ĠMethod	16573
##ored	16572
Ġweights	16572
ĠNatural	16565
Ġdescribing	16564
ĠFin	16564
Ġyeast	16562
Ġbehaviors	16562
##Container	16559
ĠTP	16559
Ġbreaks	16558
##coming	16557
##arch	16553
Ġtradition	16552
ĠIA	16552
mac	16550
Ġfits	16550
Ġradi	16549
)}(	16548
##isk	16548
Ġreflects	16547
##ANT	16544
wide	16543
##nut	16542
ĠPBS	16541
widget	16540
master	16538
Pol	16536
git	16532
Have	16529
Ġasks	16529
ĠNode	16527
ĠJon	16527
Ġrepo	16526
ĠMinistry	16526
DS	16525
Ġfunctionality	16522
Ġdemocracy	16522
ĠColumbia	16521
Ġcommands	16517
Ġinnovation	16516
Take	16514
Ġeu	16513
ĠJordan	16513
Ġdesignated	16511
Ġdeals	16511
##ift	16510
Ġfactual	16505
144	16499
Ġselective	16495
Ġunderwent	16493
ĠDur	16493
Ġmi	16492
Ġintrinsic	16489
'(	16488
##oked	16488
##ages	16487
ĠNick	16487
Ġagenda	16486
Ġinterviews	16485
##ESS	16484
##^{\	16482
Ġpredictions	16482
Ġkiss	16482
ĠRound	16482
plugin	16481
ĠTru	16481
Ġpolynomial	16479
Ġinvestigations	16479
EX	16475
##hm	16475
##itude	16473
Ġequality	16472
##ivation	16471
##press	16469
connection	16467
ĠRather	16466
##Ne	16465
##ç»	16463
^{-\	16462
ĠFalse	16458
ĠAlt	16458
Ġapps	16456
}.$$	16455
Ġanger	16455
##ometric	16452
Ġorange	16452
##AF	16450
Ġannouncement	16440
Ġemphasis	16439
addr	16438
tbl	16437
##Ã¢	16434
ĠStri	16434
čĊčĊĠĠĠ	16418
##iting	16417
ĠFS	16416
III	16415
Ġfitness	16414
cit	16411
##ubs	16408
}}}_	16405
##Ext	16395
ĠAward	16395
Ġsegments	16394
face	16392
Ġpython	16392
Ġpassion	16390
##ube	16381
Ġretirement	16381
##here	16380
Ġlistening	16379
ĠCab	16377
Ġvariant	16371
Ġapproximate	16368
Ġweekly	16362
Ġspark	16359
Ġradial	16358
Ġprescription	16356
Spec	16352
Ġspray	16352
||	16349
/"	16349
Ġmem	16349
##ÑģÑĤ	16348
##berry	16342
}:	16339
Ġdetector	16338
Ġfarmers	16336
Ġcrossing	16336
Ġderive	16334
Ġoptimization	16333
Maybe	16330
##rightarrow	16330
##ih	16330
ĠKat	16328
Ġcomputational	16325
Ġconspiracy	16324
##omi	16323
Ġxmlns	16322
FILE	16319
ĠGaussian	16317
MB	16314
$^{-	16313
Ġstat	16313
|-	16312
ĠEric	16310
Ġproportional	16309
Ġhypertension	16309
Ġconsciousness	16309
Ġ1984	16309
Ġfocusing	16308
00000000	16302
Ġboundaries	16299
##Record	16298
Ġinserted	16298
##Case	16297
Ġmath	16296
##idence	16292
Ġtransc	16282
ĠJS	16282
Ġ03	16282
world	16279
##gram	16278
ĠTar	16274
Ġfavorable	16272
##oper	16270
Ġur	16269
##chem	16268
Ġattempting	16268
Ġtrivial	16266
ĠSciences	16266
Ġconvey	16264
Ġscaling	16258
##bert	16256
ĠFactor	16255
|}	16252
##race	16252
Ġupgrade	16252
Ġdent	16252
âĢ¯	16248
##Utils	16248
Ġangry	16248
Ġtrail	16246
Ġvertices	16244
]{.	16243
Ġphrase	16242
##LP	16241
ĠNM	16239
ĠTry	16237
ĠAdam	16235
Ġcomputers	16230
âĢĻ.	16228
Ġfranchise	16228
ol	16226
##erg	16226
Ġindices	16222
Ġob	16221
Ġnod	16214
##icate	16212
ĠBible	16212
280	16210
Ġadapted	16207
Ġheading	16206
extra	16201
\!	16201
Ġrendered	16196
Ġroads	16195
ĠUs	16195
Ġregulate	16192
Ġintracellular	16192
Ġphysicians	16191
Ġterrible	16190
Ġvaried	16187
Ġdates	16186
##utt	16185
##uis	16183
Appellant	16181
Ġchlor	16181
Ġexcuse	16180
##gie	16179
##GB	16178
Ġdiscount	16178
155	16177
ĠSpirit	16177
Ġhero	16173
Ġexclusion	16173
ĠLP	16172
Ġimpressive	16169
Ġchocolate	16168
>"	16167
##wall	16165
ĠJul	16164
Ġfatty	16162
Ġrect	16160
ĠCou	16160
Ġcombinations	16155
Ġaims	16155
Ġdeeper	16151
Ġreflection	16149
Run	16147
Call	16146
1994	16144
___	16140
##ĠĠĠĠĠĠĠĠĠĠ	16140
eqn	16138
ĠAna	16138
##ocal	16137
##alk	16137
##aneous	16134
Ġbud	16134
yes	16133
ĠRose	16130
Ġsettled	16129
ĠAk	16126
Ġfunded	16118
Ġdiver	16117
Ġov	16116
Ġimpression	16115
Ġnegligence	16114
adv	16112
SN	16108
Ġdans	16107
Ġrestaurants	16105
tw	16103
Ġreply	16103
ĠLar	16101
cy	16097
##ACT	16097
Ġpeaks	16096
terminal	16095
##ogram	16093
Ġracial	16091
Ġann	16089
##DD	16088
Ġmatched	16086
##Rect	16085
Ġlimiting	16084
Ġfounder	16084
Ġchains	16081
FF	16078
##Target	16076
Ġmood	16075
##oot	16069
Ġquantities	16065
Ġfatal	16065
Ġepithelial	16065
wp	16064
Ġ05	16064
Ġsatisfying	16061
round	16060
eff	16060
204	16060
Ġquit	16060
Local	16059
Ġsettle	16058
Ġou	16058
Ġmagazine	16058
Ġbelt	16058
;"	16056
Disc	16055
Ġfingers	16055
ĠDH	16055
derived	16053
##Ð´	16052
Ġmilit	16052
Ġdrama	16052
1993	16049
forall	16048
##Num	16046
##Ag	16044
Ġtransparent	16043
Ġscoring	16043
Ġcatalyst	16042
Ġsucceed	16040
Ġgro	16040
Ġbil	16033
Ġ",	16031
##Ä	16028
Ġconsensus	16028
ĠLittle	16028
##icit	16023
Non	16021
##Op	16021
##empt	16020
ĠÐ¿	16020
Ġproposition	16017
ĠInst	16014
##ety	16012
Ġped	16012
ĠIB	16012
resource	16011
Ġbreakfast	16011
Ġprima	16010
Ġ04	16003
lu	16000
Ġgrip	16000
Ġchoosing	15997
Ġdollar	15996
Ġvulnerable	15995
##è®	15993
Prot	15991
simeq	15984
Ġlawsuit	15984
ĠArea	15984
##åĪ	15982
Ġmanually	15975
Ġconfident	15974
##space	15970
Ġsed	15970
Ġ09	15969
##aint	15968
Ġpreferably	15967
##wards	15966
Ġdamaged	15966
##raph	15964
##Configuration	15964
Ġwondering	15963
ĠRou	15963
\|_{	15960
Main	15958
##SD	15957
ĠDP	15956
mb	15951
Arg	15951
Ġlikes	15951
ĠCoast	15951
Ġ134	15950
GET	15948
##omer	15944
Ġstrictly	15942
Ġrepresentations	15940
##tub	15939
Ġdoc	15938
Ġtied	15937
pur	15928
Ġcone	15925
ĠTurkey	15925
Ġholiday	15924
Ġamb	15923
##(-	15922
ag	15921
##Ass	15919
Ġdeveloper	15916
##sche	15915
Ġquote	15914
ĠSV	15914
##EG	15913
ĠCommonwealth	15912
##Sl	15911
##Max	15910
Ġsupplies	15910
\,\	15908
Ġshots	15908
Ġbelong	15906
ĠLim	15906
Ġconcur	15904
##Add	15903
Ġlegitimate	15903
ft	15901
bibr	15898
##run	15898
ĠProperty	15898
ups	15897
Total	15897
np	15896
Bre	15895
Ġcow	15891
##GP	15888
install	15886
Ġbounds	15883
##==	15876
Ġisolates	15876
degree	15874
{"	15872
Ġadj	15863
Del	15861
##rav	15857
ĠND	15857
ĠMinnesota	15857
Ġhy	15855
born	15852
ĠCorn	15852
153	15850
Ġexclude	15849
Ġbrew	15847
.).	15846
Ġpushing	15844
ĠPHP	15844
low	15840
Ġbehavioral	15836
="/	15835
2020	15834
Ġions	15834
ĠBlock	15833
##abil	15831
Ġgray	15831
##ysis	15830
Ġlap	15830
Ġvisitors	15828
##core	15827
ĠLive	15827
your	15825
Ġentities	15825
##GO	15823
ĠSel	15822
ĠParliament	15822
exe	15821
Ġbills	15820
Ġaspir	15820
Ġum	15812
Ġreputation	15812
##aro	15808
Ġobjection	15808
Ġwr	15805
Ġtort	15803
Ġinspect	15802
1990	15799
ĠFisher	15799
Ġviruses	15797
=$	15792
ĠMos	15790
ĠKen	15790
figure	15787
##asse	15787
##EST	15787
0010	15786
Ġscroll	15784
ĠJane	15782
Ġrestore	15779
ĠLin	15779
Ġyours	15775
##izable	15773
License	15772
Ġdimensional	15772
ĠSoviet	15772
Im	15769
##hole	15768
##CG	15764
ĠSign	15764
ĠHarris	15763
Base	15759
ĠJacob	15759
xa	15758
Additional	15758
Ġcompos	15758
ĠHTTP	15757
()->	15756
Ġdebtor	15753
ĠMountain	15753
##å®	15750
ĠDL	15750
ĠDifferent	15746
_*	15744
resp	15741
ĠPr	15741
##Template	15737
Ġprov	15737
ĠMut	15735
ĠBat	15735
##CD	15734
Ġ##	15727
ĠTNF	15726
Ġbaseball	15725
Ġrob	15721
Ġnucleus	15721
sign	15719
Ġpill	15718
]{}]{}	15717
Ġemerging	15716
Color	15715
Ġhealing	15712
Ġreferring	15711
Ġposterior	15710
Ġequipped	15710
##more	15705
Despite	15704
ĠLewis	15704
ĠKal	15704
Ġpreserve	15702
##eter	15699
Ġdecor	15697
ĠAssembly	15695
Ġinquiry	15694
Ġbirths	15690
##lands	15689
Ġpersu	15689
ĠCV	15682
ĠCambridge	15678
Ġ'.	15677
##oder	15675
RT	15674
Ġmembership	15674
Ġcertificate	15674
GE	15672
ĠBh	15672
Ġcavity	15666
ĠBrazil	15666
##ago	15663
ĠUnless	15663
Ġdeficiency	15662
Ġpocket	15659
Ġven	15657
Ġurge	15656
Ġsensors	15656
ĠMAP	15655
##OD	15653
Ġdeny	15652
Ġterritory	15651
##gate	15650
Ġtoxicity	15647
ĠMoore	15647
random	15645
Ġtetra	15644
Ġauthentic	15642
Ġplatforms	15641
ĠYeah	15637
Ġdil	15636
Ġoxidative	15635
Ġ184	15635
had	15633
##ried	15632
##ethyl	15631
Ġsingular	15631
Ġinvited	15630
ĠException	15630
Ġvessels	15623
Ġstomach	15623
Ġarrive	15622
Ġmoon	15621
Ġpromised	15619
ĠDaily	15618
145	15616
ĠâĢĭ	15615
Ġinspection	15614
Ġboil	15613
ox	15612
Ġtired	15610
Ġmuscles	15608
Ġsaving	15606
Ġextending	15606
ĠMis	15606
Â³	15604
Ġdefining	15602
ĠIFN	15602
ED	15601
Ġsink	15600
Ġ136	15599
##OH	15597
Ġenforce	15597
Ġodds	15596
Ġmodeling	15596
Ġparticipated	15590
obs	15589
Ġagreements	15589
Ġnurse	15588
##Val	15586
Ġsk	15580
Ġ----------------------------------------------------------------	15580
Ġhighlight	15578
ĠVietnam	15576
##pos	15575
Ġcoil	15574
Ġobligation	15573
Ġarr	15573
Ġstrategic	15572
ĠScale	15571
ĠTT	15569
ĠIndiana	15568
##ffic	15567
##Document	15567
ĠInitial	15566
pin	15565
Ġquad	15565
Ġinflation	15564
900	15551
ĠToronto	15551
##aver	15550
Ġopens	15549
Ġinjected	15548
ĠDefense	15548
Ġpointing	15547
Ġsnap	15544
Ġaccurately	15543
Number	15537
Ġut	15537
Ġtransit	15536
Ġeff	15536
Lin	15535
Ġobs	15533
password	15532
Ġencounter	15531
age	15527
Ġnobody	15526
##awa	15525
[$	15522
##Trans	15522
Ġtor	15521
Ġsuspected	15521
Ġsustain	15513
##zan	15512
Ġestablishment	15512
##ild	15511
ĠFM	15511
ĠAfghanistan	15511
Ann	15510
Ġconstructor	15507
ĠBet	15507
ĠContent	15504
Ġregarded	15503
ĠHaw	15503
Ġsuck	15502
Ġnavigation	15502
Convert	15501
##asy	15501
Ġgrateful	15501
Windows	15500
Ġcortex	15500
##aching	15498
##Part	15498
##iles	15497
also	15494
Ġplugin	15494
ĠSort	15493
sample	15492
WH	15491
Ġdivorce	15491
Ġ[$	15491
ĠĠĠĠĠĠĠĠĠĠĠĠĠĠĠĠĠĠĠĠĠĠĠĠĠĠĠĠĠĠĠĠĠĠ	15491
##ively	15490
##[\	15489
Ġexpense	15489
Ġtalent	15488
Ġpublish	15487
##ride	15485
118	15481
Ġdeemed	15481
Ġhunt	15480
ĠBridge	15480
Ġbird	15478
MP	15476
)^{-	15473
Ġunw	15473
Ġsuspended	15473
##istry	15470
ĠWay	15468
Ġhor	15467
Sort	15466
áĢ	15464
##itate	15464
ĠFather	15462
render	15460
##rust	15459
Ġresistant	15459
220	15456
Ġcomply	15454
##DR	15453
##Ñ	15452
Ġfavour	15452
Ġstayed	15451
Chapter	15446
flags	15445
Ġreliability	15445
ae	15442
ĠSports	15441
stack	15439
fields	15439
Ġpharmac	15437
Ġpromoting	15436
++;	15435
Ġresort	15435
Ġarising	15434
=========================	15430
Ġnarrative	15429
Ġ-------	15427
##oat	15426
##ips	15421
Ġpossess	15421
Discussion	15420
Ġ1981	15419
Ġreplication	15418
Ġcomparisons	15417
Ġindication	15416
Ġticket	15415
Ġresident	15415
Ġelectrons	15415
##anth	15414
ĠMol	15414
Ġlas	15413
Mor	15412
##)$	15412
Ġmicroscopy	15408
IO	15407
ĠLibrary	15406
##aks	15405
register	15401
Ġendothelial	15401
Ġanalytical	15401
Ġelderly	15400
Ġsuppression	15397
Ġadjustment	15397
##gment	15396
SR	15395
ĊĊĠĠĠĠĠĠĠĠĠĠĠĠĠĠĠĠĠĠĠĠĠĠĠ	15395
ĠWrite	15393
##aly	15389
seq	15388
Ġtrick	15388
ĠHouston	15385
##hat	15382
##rob	15381
Ġangi	15381
Ġ).	15381
čĊĉĉĉĉ	15381
Ġhoney	15379
_{-	15378
Inc	15375
Ġinputs	15375
Ġenergies	15375
ĊĊĊĊ	15374
Ġpersonality	15371
ĠHad	15370
##Interface	15366
ĠSem	15364
Ġdemonstrates	15363
margin	15362
Ġsim	15362
ĠChen	15360
ĠTrade	15359
Ġ08	15357
Ġbranches	15356
Ġble	15353
Ġblast	15353
Ġaffidavit	15353
##fold	15352
205	15348
##amed	15347
Ġspots	15347
ĠSystems	15346
ĠColl	15346
met	15345
Ġgrain	15345
Ġbases	15344
##LC	15342
ĠPV	15342
Ġarrival	15340
tx	15337
Ġexisted	15337
Ġthreats	15333
Ġdistances	15333
ĠĠĠĠĠĠĠĠĠĠĠĠĠĠĠĠĠĠĠĠĠĠĠĠĠĠĠĠĠĠĠĠĠĠĠĠĠĠĠĠĠĠĠĠĠĠĠĠĠĠĠĠĠĠĠĠĠĠĠĠĠ	15332
##utes	15330
Ġ144	15330
Ġuptake	15329
Ġdefinitions	15329
ÃĲÂµÃĲ	15321
Ġtournament	15320
##hot	15319
Ġrape	15316
Ġrail	15313
##inis	15311
Ġinhibited	15311
##Args	15310
ĠRos	15310
ĊĊĠĠĠĠĠĠĠĠĠĠĠĠĠĠĠĠĠĠĠ	15309
##part	15307
ĠHB	15306
Ġvariability	15305
Ġcomplain	15305
making	15304
Ġvisiting	15298
Ġlocalization	15298
##Settings	15297
Ġhabit	15297
Ġdocumented	15295
SL	15294
##ums	15293
Ġ``	15293
ĠHeat	15293
##Var	15292
##åĲ	15289
Fin	15287
Imp	15286
ĠĠĠĠĠĠĠĠĠĠĠĠĠĠĠĠĠĠĠĠĠĠĠĠĠĠĠĠĠĠĠĠĠ	15282
Ġranges	15276
##wh	15274
##ITE	15274
Ġtends	15274
Ġpub	15274
ĠHay	15273
analysis	15266
energy	15265
each	15265
Es	15265
Ġtur	15265
Ġsatisfaction	15262
Ġwarranty	15260
##udd	15259
Ġwrap	15259
Ġprompt	15259
##ower	15255
Ġlibraries	15255
136	15253
Ġoper	15253
##TOR	15251
Ġcoat	15245
##jection	15244
Service	15242
Ġminority	15241
_>	15240
.:	15240
##ritten	15240
##Man	15237
Ġ1960	15236
Ġpolarization	15235
##away	15231
century	15228
##WN	15228
ĠQueen	15227
}$$\	15224
349	15224
Ġcharacterization	15224
Ġsacrifice	15223
Ġconfusion	15222
Ġcomplaints	15220
Ġcapabilities	15215
##yard	15214
Ġheaded	15214
##FL	15210
##orb	15209
##dm	15209
ĠHand	15208
ĠSilver	15207
##zen	15206
ĠUlt	15205
wrap	15203
Example	15203
##ITY	15202
Ġcommun	15200
Ġdecimal	15199
##gt	15198
Ġnitrogen	15196
##Ãħ	15195
##rix	15195
##wed	15192
ĠTD	15192
ĠDirect	15192
##lg	15191
ĠChristians	15190
fill	15183
ĠINT	15183
GO	15182
Ġshirt	15182
Ġatt	15182
025	15181
FD	15178
Ġthirty	15175
Ġalongside	15175
##UB	15174
##usc	15173
`,	15169
##Store	15169
##AIN	15168
ĠEvent	15168
EQ	15167
##lers	15165
##ional	15164
ĠMonte	15164
ĠWild	15161
##face	15160
than	15159
##rod	15158
ĠHM	15157
Ġdental	15156
modules	15155
Ġemerged	15155
##ando	15153
##oms	15152
Ġoverl	15151
Ġunders	15148
ĠPrice	15147
Ġsurprising	15146
Ġsuggestions	15146
Ġdenying	15145
Ġlat	15144
##hel	15137
Ġblot	15134
Ġbench	15133
##teen	15132
Ġinstruct	15132
region	15130
ok	15129
##ditional	15129
Ġupset	15125
1992	15122
ĠInterestingly	15121
om	15116
##ases	15115
Ġren	15114
while	15113
Ġwise	15112
##nam	15110
Ġ{"	15108
Ġfulfill	15105
linear	15104
Ġbro	15104
ĠMcG	15104
category	15102
Ġcran	15102
##mir	15101
Ġparticipant	15101
Ġmac	15101
Ġbasketball	15097
ĠSenator	15094
ĠNations	15093
Ġà	15092
ee	15090
Ġfaculty	15090
##Unit	15088
connect	15087
##rates	15084
Today	15081
##Parameter	15081
Ġpreparing	15079
ĠAbb	15079
Ġscrew	15076
##kov	15075
ĠShould	15075
ĠHz	15073
##kit	15069
##jan	15069
Ġtear	15069
Ġinduces	15069
ĠShort	15069
END	15068
Ġrum	15067
Ġsigning	15064
Ġhosts	15063
ĠCru	15063
ĠReact	15061
Ġsubst	15058
Ġatomic	15049
ĠKy	15049
1991	15048
##ORD	15046
Ġoccasion	15045
Ġwinner	15042
Product	15041
Er	15041
##istics	15041
Ġtransformed	15038
Ġprote	15037
##itution	15036
ĠVis	15034
Ġcollaboration	15032
##ext	15027
##Read	15026
phase	15025
##OUT	15025
Ġvirtually	15024
Ġextrem	15024
##}{	15022
##aca	15022
ĠWatch	15021
Ġunin	15020
BB	15019
##genic	15011
ĠPK	15007
##aya	15006
Ġeq	15005
##IGN	15002
Free	15001
Ġgeometric	14993
aff	14991
NC	14987
##orted	14986
Ġtransient	14985
ĠKeep	14984
##Da	14983
imm	14982
loc	14978
##å¤	14977
Ġwelfare	14977
Ġclaiming	14977
"));	14976
##ayer	14975
Ġconstraint	14968
Ġprobable	14967
Ġasset	14966
bd	14963
Ġblocking	14961
Ġwaters	14960
Ġreceives	14957
##rics	14952
##rent	14952
Ġaccus	14952
##dev	14950
##\]	14950
Ġrespondents	14949
ON	14945
Ġcoronary	14945
Ġcompression	14944
ĠShan	14944
here	14943
nl	14941
nutrients	14939
Ġswing	14939
Ġfiscal	14939
Ġfluor	14937
ĠPB	14937
Ġcondens	14933
Ġlocked	14931
Ġfrozen	14931
ĠBall	14930
##Ð¼	14928
Ġsel	14928
Ġlongitudinal	14926
ĠOpt	14924
ĠDeb	14923
Auto	14921
ĠBit	14921
##onia	14918
ĠStore	14913
Ġprotocols	14908
sym	14907
##equ	14906
ĠčĊ	14905
Ġgerm	14904
ĠChange	14902
Ġtags	14901
##icular	14899
Ġbleeding	14898
##azi	14897
Ġvac	14894
Description	14893
Age	14891
Ġrecurrence	14890
DIS	14889
Ġchances	14889
Ġaffirmed	14889
ĠIgG	14888
Ġbold	14881
ĠWis	14876
Ø	14874
Ġchrom	14874
REG	14873
dy	14872
Share	14868
Ġconstants	14868
ĠĠĠĠĠĠĠĠĠĠĠĠĠĠĠĠĠĠĠĠĠĠĠĠĠĠĠĠĠĠĠĠ	14868
Ġhistoric	14867
ĠÑ	14864
##afe	14863
Prop	14862
*(-	14861
Ġdecomposition	14861
##item	14860
##mont	14859
ĠCNN	14859
Mark	14858
ĠBB	14857
##elli	14854
Ġparams	14854
##ely	14853
ĠÎĶ	14852
Introduction	14850
Ġwavelength	14847
Ġsteam	14846
Ġinh	14846
ĠHP	14846
Ġmisc	14845
<?	14844
Ġsubgroup	14844
Ġsudden	14843
Ġcultured	14843
ĠStation	14843
Top	14842
Ġnonlinear	14842
most	14840
=-	14840
##emp	14840
##Gs	14837
Ġoptional	14836
Ġshortly	14834
##come	14832
ĠRM	14831
ĠMart	14831
Ġshower	14830
Ġwins	14829
##raction	14827
##Load	14826
Ġappreciated	14826
##Callback	14822
Ġcircular	14822
Ġattach	14822
items	14819
Hy	14819
Ġshaft	14819
Ġdetermines	14819
Ġtimely	14817
##uke	14816
iii	14815
Ġbacks	14812
ĠÂ»	14808
Ġdonor	14808
ĠAug	14808
Ġtracks	14807
Ġslot	14807
##ales	14806
##hol	14804
ĠAri	14804
mM	14802
ĠCit	14802
##Dec	14801
ĠClinical	14801
Ġord	14800
Ġir	14800
fb	14799
Ġdistress	14799
Ġsolved	14798
Ġappointment	14794
ĠDisease	14792
python	14790
Ġtwist	14790
eth	14788
Ġenterprise	14787
EM	14785
##Ph	14776
ĠTHAT	14776
ĠAllen	14776
Ġcookies	14774
##aps	14773
ĠChild	14770
Max	14768
ĠFinal	14768
Ġefficiently	14767
##Params	14766
##Device	14766
##Rep	14765
Ġmutants	14765
Ġlean	14765
Ġsecured	14761
Ġthrown	14760
ĠTam	14759
Ġpursue	14757
ĠFeb	14757
ĠAmb	14756
through	14753
Ġ1982	14752
ĠFilm	14751
##uid	14750
##UA	14748
141	14747
##rif	14745
ĊĉĠ	14743
gathered	14741
deg	14738
##riz	14736
##Access	14736
##oj	14734
Ġpostoperative	14732
##lated	14731
Ġthreatened	14730
ĠConsider	14730
Ġtender	14726
Ġupload	14725
##aire	14724
$^	14723
##trans	14721
Ġheaven	14721
##Wh	14720
Ġmemories	14720
Ġcustody	14720
ĠNeu	14720
čĊĠĠĠĠ	14717
##Activity	14715
ĠOUT	14715
ER	14713
##rine	14713
##Gu	14713
##het	14711
##Ø±	14710
##tein	14710
##bot	14710
##ester	14709
Ġstimulus	14708
FIG	14706
##dro	14704
ĠHoly	14704
Ġblank	14700
##MT	14699
ĠInsurance	14697
##lag	14696
##Definition	14696
Ġstriking	14696
ÎĶ	14694
##Reader	14693
ÂĹ	14692
ĠImmun	14691
##pped	14690
Ġinfer	14688
ĠRome	14685
Ġsail	14681
Ġanybody	14681
eg	14680
##Rs	14675
ĠJean	14674
attribute	14673
ĠShare	14673
Ġcancers	14672
##dition	14671
Ġtech	14671
ĠEF	14670
Ġflood	14666
Ġdot	14665
##MB	14662
Ġmothers	14661
Ġcircuits	14661
Ġinstruments	14660
Array	14657
Ġkin	14657
dom	14655
Ġflying	14655
ĠAw	14655
ĠAU	14653
Ġpri	14652
Î¼	14651
Ġfantastic	14650
kn	14649
Tw	14645
party	14644
Ġartist	14643
ĠCast	14643
##fy	14641
##Ã³n	14636
ĠBuild	14635
Ġmerit	14634
Act	14626
Ġtries	14626
Ġliable	14626
Ġchallenged	14624
Ġdamn	14621
Ġlitigation	14620
Ġtraits	14618
ĠIdent	14618
ĠInterest	14617
Ġshelter	14615
Ġnons	14612
##iza	14611
ĠWisconsin	14611
Ġhalo	14606
Ġeveryday	14605
[**	14604
Ġxml	14604
Ġentrance	14604
##DP	14603
Ġconserved	14603
ĠXML	14603
DATA	14599
Ġinject	14599
ef	14597
Ġcoc	14597
Thus	14596
sb	14588
Ġgrave	14588
ĠABC	14588
IV	14584
ai	14583
=""	14583
##ending	14582
Ġacted	14582
ĠFF	14582
čĊĠĠ	14582
Ġ'<	14581
Ġinches	14578
ĠDra	14576
##oga	14574
Ġconvergence	14572
##icial	14571
ĠĠĠĠĠĠĠĠĠĠĠĠĠĠĠĠĠĠĠĠĠĠĠĠĠĠĠĠĠĠĠĠĠĠĠ	14571
_(	14570
Ġbelongs	14570
Ġresidential	14569
Ġdrove	14569
Ġdried	14567
Ġdispersion	14567
Ġvegetables	14566
Ġrod	14565
Ġmathematical	14565
##ool	14564
news	14563
Ġcorn	14563
##Us	14562
##Fs	14561
##ifi	14560
Ġflows	14560
##erge	14558
##oking	14555
Ġjournal	14555
##ulsion	14554
Ġstained	14554
##bound	14551
Ġdin	14548
Unc	14546
é	14545
btn	14544
ĠFB	14544
edge	14543
Ġoh	14543
Ġfilters	14539
Ġshade	14538
ĠSher	14538
Ġsatellite	14537
Ġflex	14536
Ġviewing	14535
Ġmining	14535
ĠUSE	14534
four	14533
Ġshake	14533
Ġscal	14533
Ġphoton	14527
'],	14525
##Valid	14524
##INA	14524
Ġadaptation	14523
ĠReturns	14522
##agn	14520
Ġseats	14518
Ġanimation	14518
##&\	14517
Ġminds	14517
Ġdemographic	14517
ĠVin	14516
Ġgraphs	14515
ĠÎ¼g	14514
ĠProcess	14513
##Min	14510
ĠSEC	14505
Ġexclusively	14504
Ġasthma	14504
ĠSometimes	14504
Ġreconstruction	14502
mt	14501
##was	14500
SET	14499
Ġgradually	14496
poly	14494
##ggle	14491
job	14490
.\[[@	14490
Ġbedroom	14490
ĠâĤ¬	14489
Ġfuck	14489
Bio	14488
Ġprevented	14488
OS	14486
Ġperpet	14486
require	14483
##äº	14483
##oul	14482
ĠHF	14479
POST	14478
EE	14478
Ġsubstitute	14478
##Ä±	14477
Ġlady	14476
Ġinsertion	14476
Ġsentenced	14475
ĠGB	14474
##aris	14471
##essed	14469
Ġber	14469
Ġflowers	14468
Ġ<?	14466
ĠKelly	14463
Ġprot	14462
##rew	14461
Ġwidespread	14456
Ġrespondent	14455
Ġgeneralized	14455
Ġestablishing	14455
##BP	14454
Ġsimilarity	14454
security	14452
nt	14452
##GM	14451
##Fl	14451
Ġconfused	14450
Ġadm	14450
##quo	14449
Ġactors	14448
ĠCooper	14445
PH	14443
Ġmaternal	14442
prov	14439
Ġpropag	14437
Ġske	14436
##opp	14435
Ġjoining	14435
ld	14434
ĠBrian	14433
##åº	14432
##erm	14432
Ġstating	14432
Ġincrement	14431
ws	14427
Ġmarginal	14427
##ologist	14426
ĠSearch	14423
Field	14422
Both	14422
CONFIG	14419
Default	14417
Ġindependence	14417
Ġconv	14417
Ġpersistent	14415
TEST	14414
NULL	14414
Ġmethylation	14412
cou	14409
Ġbelonging	14407
Ġdescending	14405
Ġknife	14404
Ġacceptance	14403
Sign	14401
Ġreplied	14401
Ġcrop	14400
ĠSy	14397
âĢ¦.	14394
##Comm	14394
Ġ07	14392
Ġbarely	14390
##occ	14389
'))	14388
hep	14383
143	14381
Ġ183	14378
##bus	14377
Ġscenes	14377
##Auth	14375
Ġvas	14375
Ġsymbols	14375
Ġseeks	14374
##otype	14373
ĠGraph	14373
MD	14372
##âĢ¦	14372
Ġmate	14372
ĠKansas	14372
Ġsquad	14371
##Ù	14366
Ġpc	14366
Ġanterior	14362
##oud	14360
ĠRon	14360
Four	14359
Ġmotions	14359
Ġguests	14357
Ġplacement	14356
##ige	14353
Ġloves	14353
sd	14351
cond	14351
KEY	14351
Ġmyth	14351
ĠBad	14346
hbar	14345
comm	14345
ĠMeta	14345
Ġsalary	14343
Ġtam	14341
Ġpreference	14341
Ġocean	14338
Ġrealistic	14337
methyl	14336
ic	14336
##dog	14336
Ġquestionnaire	14334
ĠTask	14333
Ġprocessor	14330
Ġhop	14330
ifdef	14329
ĠFD	14326
ĠAppro	14325
ĠDT	14324
Ġcomputation	14323
##fall	14322
Ġsake	14321
condition	14319
##utter	14318
Ġnav	14318
Ġcanonical	14318
240	14317
Ġcapability	14317
Ġdeletion	14315
##owed	14312
Ġprescribed	14310
Ġincredible	14310
ĠKam	14306
##Ñĩ	14303
ĠBos	14303
\_[	14302
Cap	14301
Ġ145	14301
Ġantenna	14297
ĠÙ	14293
ĠNature	14288
##ders	14287
##END	14287
Ġtestify	14287
Write	14286
##ender	14285
Ġdramatic	14284
##front	14281
ĠMir	14280
Ġdating	14279
Ġ138	14272
Ġunfair	14270
##vc	14268
Ġmanaging	14267
Ġattorneys	14267
person	14262
Ġcontroversial	14261
}&	14260
Ġshed	14260
proc	14258
##inator	14254
ĠMassachusetts	14254
Ġbriefly	14251
ĠOrganization	14248
Ġstake	14247
Ġcos	14246
Ġhar	14244
à¥į	14232
ĠChem	14232
nc	14231
Ġcylinder	14231
ĠIl	14230
DT	14226
##oral	14226
##NU	14226
##iden	14225
ĠFre	14223
Ġstyles	14222
Ġcocaine	14221
ĠBin	14219
Ġindictment	14218
ĠNar	14218
Ġcritic	14216
Ġacknowledged	14214
##aff	14213
Ġviolations	14211
ĠSanders	14208
Ġisot	14207
Ġemissions	14205
PM	14203
priv	14202
vol	14199
Ġcancel	14199
Ġpeptides	14197
Ġexploit	14197
##ilit	14196
Ġinterrupt	14195
##Title	14193
##HR	14190
Ġ137	14190
##rative	14188
Ġhex	14188
Ġpartly	14187
##ays	14184
Ġgrace	14182
Ġsurely	14181
Ġoffices	14174
##}_{	14170
Ġethnic	14170
Ġscrap	14169
Ġdietary	14167
ĠMessage	14167
ĠServ	14165
Ġstere	14163
ĠNeuro	14163
Ġprotecting	14160
Ġempirical	14160
ĠMuseum	14160
Ġundergo	14159
*\	14158
ĠGh	14158
##+-	14154
Ġacquire	14154
Ġletting	14153
ĠSyrian	14153
Ġparticipating	14150
Sm	14149
Ġrandomized	14147
ĠKevin	14146
Ġsavings	14145
pic	14143
'])	14142
dig	14141
Ġinvestigating	14141
IL	14140
ĠPlus	14140
queue	14139
Ġrigid	14139
callback	14137
Ġrevision	14137
article	14136
Ġconservation	14134
##class	14133
Ġprovince	14132
"};	14130
Ġfelony	14130
mc	14128
##ulture	14128
##Down	14127
##under	14123
Ġgit	14123
ĠGOP	14121
xF	14119
toString	14118
Ġhel	14118
Ġgrab	14118
Ġunnecessary	14116
Ġspike	14112
Ġemploy	14112
##lev	14109
##Ã±	14104
ie	14103
##aki	14101
)^{\	14100
ĠDrug	14099
ĠBus	14098
Ġgolf	14096
ĠSix	14094
ĠHart	14094
Ġadvised	14093
Ġmediated	14090
}}}_{	14088
##");	14088
##using	14085
Ġconditional	14085
##worth	14084
Ġknock	14084
Sam	14080
Ġrepresentatives	14079
ĠSep	14079
ĠÂł	14078
##onymous	14077
##bec	14077
Ġtherein	14077
##SM	14075
="{	14074
video	14072
Ġdefer	14072
}}=	14069
pgen	14066
wiki	14063
Ġshadow	14055
##ÃŃa	14053
##hd	14053
bio	14049
Ġmodifications	14047
##rea	14045
Ġduplicate	14044
ĠScotland	14036
ĠSeven	14034
filename	14032
Ġoutstanding	14031
af	14029
134	14027
##uter	14027
ĠRod	14027
STR	14026
##yg	14026
##rier	14025
##Dialog	14022
Ġcopper	14021
ĠHotel	14021
Section	14020
Has	14020
##ogn	14020
ĠLes	14019
Ġplots	14018
Ġphenomena	14018
Ġtent	14017
Ġremarkable	14014
##SL	14013
Ġmembranes	14013
ĠDD	14010
Ġlovely	14009
ĠMur	14008
ĠKong	14005
ĠEt	14005
Ġunse	14004
##ilo	14001
##ules	14000
alt	13998
Ġcooperation	13998
ĠBMI	13998
Ġneurop	13994
Ġmesh	13994
Ġ]{}	13994
settings	13992
ĠIrish	13988
Ġwarned	13985
Ġsentences	13985
Ġpurified	13984
arr	13983
plan	13980
Ġ------------------------------------------------	13978
ĠCommon	13977
Ġemotions	13976
Ġelectrodes	13976
ĠBT	13975
Ġconfigured	13974
Ġasp	13974
ĠSchw	13973
ĠJeff	13973
Ġinfant	13972
ĠCHECK	13971
Ġ06	13970
book	13968
OH	13967
$).	13967
##def	13966
##ache	13966
Request	13965
three	13964
Ġimpaired	13964
##erred	13963
##rict	13961
Ġoutbreak	13960
ĠAssert	13954
##rest	13953
Ġ350	13953
Ġtowns	13952
idx	13951
Ġcyclo	13950
Ġpaste	13949
Ġlucky	13948
Ġcasual	13945
ĠCommand	13944
##buf	13941
Ġnursing	13940
ĠEth	13939
Ġlisting	13938
Ġactively	13938
ĠUkraine	13938
ĠTL	13938
Ġaden	13937
raw	13935
Ġdt	13935
##cri	13934
##uto	13933
##^\	13932
##oqu	13931
enum	13929
*=	13929
,_	13926
Ġdebut	13925
Ġqualitative	13924
dest	13923
##illi	13922
##bling	13919
##encies	13914
Ġexert	13914
Ġelect	13912
ĠGener	13912
Ġaf	13911
ĠChan	13911
Ġsecretion	13910
##oria	13909
Ġsync	13905
##relation	13902
##ln	13902
Ġinteg	13899
Ġemerge	13897
##ãģ«	13896
Ġaccomplished	13895
ĠAvenue	13894
Ġshipping	13892
Ġarrow	13891
ob	13890
##MD	13890
Ġrelate	13890
##cription	13889
Ġutil	13889
Ġrings	13889
##iest	13884
Ġlogo	13883
Ġpixels	13882
##mid	13876
prom	13871
HC	13871
##ACE	13871
Ġwider	13870
Ġlact	13870
Ġdecent	13870
Ġorbital	13869
Ġencouraged	13866
##iac	13865
##fish	13865
Ġslide	13864
##hma	13862
Ġolive	13862
shaped	13859
Debug	13858
Ġintestinal	13858
Ġdiscloses	13858
##aid	13857
_,	13856
Ġfilename	13856
ĠMom	13856
040	13855
##Pos	13855
Ġcorruption	13855
Ġshield	13854
------------------------------------------------------------------------	13852
XX	13851
##ril	13850
Ġnest	13849
Ġinitiated	13849
Ġposting	13848
ĠManager	13846
Ġinfants	13845
Ġproxy	13844
čĊĠĠĠĠĠĠĠĠĠĠĠĠĠĠĠĠĠĠĠ	13843
##CU	13842
ĠJay	13842
Ġrelies	13840
Ġmutual	13840
ls	13838
ĠFuture	13838
ĠATP	13838
Ġprom	13837
##craft	13835
##System	13835
Ġbehave	13835
ĠTRA	13835
Ġruin	13834
##uma	13833
Ġvein	13832
Ġintr	13832
ĠSab	13832
models	13831
Ġlend	13831
Ġtub	13829
Ġprivilege	13828
rank	13825
##cale	13824
Dem	13822
##rity	13821
Ġreasoning	13817
ĠResponse	13816
il	13815
Ġfiring	13814
req	13813
##frame	13813
Ġovers	13811
Ġcircles	13811
Ġsecretary	13809
Ġpositively	13808
Ġgenerations	13808
ĠPop	13808
Ġmerge	13807
annotation	13806
##Entity	13806
Ġmicros	13803
Ġdye	13803
Ġbirthday	13802
ĠSau	13801
Back	13800
Ġfunctioning	13797
ĠCollection	13797
ĠPers	13794
Ġstops	13793
theme	13790
ĠLL	13790
Ġexplored	13786
Ġanalytic	13784
__(	13783
##ematic	13782
ĠEgypt	13782
##ebra	13779
HR	13776
displaystyle	13775
Ġgraft	13775
Ġdominated	13775
##tern	13773
ĊĠĠĠĠĠĠĠĠĠĠĠĠĠĠĠĠĠĠĠĠĠĠĠĠĠĠĠĠĠĠĠĠĠĠĠĠĠĠĠ	13773
##osomal	13772
GC	13771
Ġsubd	13771
Ġstudio	13767
Ġscratch	13764
Ġtick	13763
price	13762
expr	13762
ĠLabor	13762
ĠÐ¸	13761
Ġelastic	13761
Ġbas	13761
Ġimportantly	13760
##umer	13759
##lex	13758
ĠĊĠĠĠĠĠĠĠĠĠĠĠ	13758
âĢĿ)	13757
cases	13756
Ġlands	13752
##amb	13747
Ġmus	13746
##chn	13744
]{}\	13743
Ġshame	13742
Ġanalog	13742
Ġchill	13740
Ġpermits	13739
ĠEmp	13739
Message	13737
##ologies	13736
Ġsocket	13735
Ġcure	13735
Ġquark	13734
Ġproton	13734
##abilities	13731
Ġster	13730
ĠKel	13730
ĠGovernor	13730
ĠBBC	13730
TM	13729
)*-	13728
à¤¾	13727
Ġbrothers	13721
##enter	13720
^*$	13719
##holder	13719
ĠMaryland	13717
Ġinstitutional	13716
Ġattacked	13715
ĠElement	13714
Method	13713
##esh	13713
##GN	13713
##Cap	13712
ĠSteel	13712
Ġfirms	13710
pmatrix	13708
##http	13707
Ġpas	13707
selected	13706
##rupt	13706
Ġconsult	13706
ĠLED	13706
Ġ182	13706
âĢĻ,	13705
Ġslope	13704
LICENSE	13702
##otion	13700
Ġcontinuously	13700
##gb	13699
Ġgains	13699
ĠMun	13697
##Ms	13694
Ġethical	13694
Ġlesion	13692
Ġupcoming	13691
Direct	13689
##iment	13688
##}(	13687
##oming	13687
card	13684
ĠSummer	13684
encode	13681
Ġconflicts	13678
Ġdownstream	13677
dimen	13676
ĊĊĠĠĠĠĠĠĠĠĠ	13674
ĠTs	13673
ĠNavy	13672
Ġquoted	13671
abstract	13670
\)	13670
ĠBroad	13670
tool	13667
ĊĠĠĠĠĠĠĠĠĠĠĠĠĠĠĠĠĠĠĠĠĠĠĠĠĠ	13666
Ġprofits	13665
##owing	13664
##*/	13663
ĊĠĠĠĠĠĠĠĠĠĠĠĠĠĠĠĠĠĠĠĠ	13663
##size	13662
Ġconvinced	13662
Ġ139	13662
ĠNothing	13659
mut	13656
##Session	13656
Ġsy	13655
ĠClick	13653
Ġexpertise	13652
Ġ1979	13650
ĠPack	13649
Ġmayor	13648
Ġinst	13646
wave	13645
bind	13643
five	13642
Ġtooth	13642
ĠGun	13642
##opy	13641
Ġlogin	13640
##éĢ	13637
ĠFil	13636
ĠĊĠĠĠĠĠĠĠĠĠĠĠĠĠĠĠĠ	13636
##ÐµÐ	13635
Ġvalidate	13634
ĠLeft	13634
##ody	13633
println	13627
Edit	13624
:=	13620
Each	13619
Ġretained	13619
Abstract	13618
Ġdatasets	13617
ĠComm	13616
stage	13614
##aud	13612
Ġwebsites	13612
cam	13611
Ġfluctuations	13610
##ife	13608
Ġbags	13606
ĠOregon	13606
ter	13605
admin	13603
##oting	13603
)})	13602
##ONE	13601
Ġfeatured	13600
Ġscanning	13598
ĠHaving	13597
Ġpersist	13596
Ġcausal	13595
##Helper	13594
##eme	13592
Ġgraduate	13592
Ġrelied	13590
Ġbell	13590
ĠRN	13589
ĠBowl	13588
Ġethanol	13584
Ġburning	13584
ĠImm	13584
ĠĠĠĠĠĠĠĠĠĠĠĠĠĠĠĠĠĠĠĠĠĠĠĠĠĠĠĠĠĠĠĠĠĠĠĠĠĠĠ	13583
ur	13581
##udio	13581
##ï	13580
Ġbackup	13579
Ġediting	13576
##rag	13575
ĠDom	13575
##aged	13572
Ġguaranteed	13571
Ġns	13569
##function	13568
Ġpainting	13568
Ġordering	13568
ĠFP	13568
189	13567
##Def	13567
.""	13564
Miss	13563
ĠOil	13563
##thing	13561
Ġdrives	13561
##put	13560
Ġsocio	13556
Ġdevelopmental	13555
Ġ181	13555
WE	13551
Ġgal	13551
mol	13550
1986	13549
Ġ....	13549
Ġchampionship	13548
Ġinhibit	13547
Ġcontemporary	13547
ĠLink	13545
Ġtopological	13544
war	13543
eb	13542
Ġpale	13542
##iny	13540
Ġmob	13539
Ġgathered	13538
ĠPrince	13538
Ġterrorist	13534
##ãĤĴ	13533
Ġconsistency	13532
Hand	13531
Ġelite	13531
ĠGuide	13531
Ġindicator	13530
Ġstimuli	13529
##tty	13528
Ġcytokines	13528
account	13527
Ġ\*	13527
ĠHong	13526
Ġts	13525
Application	13524
Ġscreens	13523
Ġprof	13522
Ġchromosome	13522
Pres	13520
)},	13520
ĠAnt	13519
ĠĠĠĠĠĠĠĠĠĠĠĠĠĠĠĠĠĠĠĠĠĠĠĠĠĠĠĠĠĠĠĠĠĠĠĠĠ	13517
##ops	13515
Ġincubation	13515
linux	13514
Ġtobacco	13514
##ores	13512
##uing	13511
Ġhydrox	13511
ĠRab	13511
Ġaw	13508
Net	13505
ĠVictoria	13505
Group	13502
##VM	13501
Ġmodulation	13501
Ġaccounting	13500
1989	13499
Ġcave	13497
Ġsyntax	13495
ĠOd	13495
##just	13494
Ġaffinity	13494
EP	13493
##agon	13493
##vet	13492
Ġdispos	13492
Ġwriters	13486
Ġrental	13486
ĠRoss	13486
##FP	13484
ĠHus	13484
Ġfate	13483
Ġproto	13481
Ġ(_	13481
ĠRac	13478
##atar	13477
Ġexpectation	13477
fire	13475
Ġdeposit	13475
Ġreaches	13471
Ġmacrophages	13471
ĠFan	13469
Ġought	13468
ĠLac	13467
##itt	13466
Ġgru	13466
ĠVP	13466
Ġclothing	13464
Ġfort	13462
Ġmanifold	13461
##UTE	13460
Ġinnocent	13460
ĠKIND	13458
Ġlum	13457
##DM	13456
Ġstrengthen	13456
ĠEnc	13456
Ġoz	13453
LD	13451
Ġconsisted	13451
043	13449
##NER	13447
ĠLevel	13446
Ġlacking	13445
Ġdra	13444
Ġsolvent	13441
Ġtermination	13438
mask	13436
Ġhr	13436
Ġentertainment	13436
switch	13434
Ġ"_	13433
ĠExecutive	13432
##achment	13431
ĠHarry	13431
ĠBox	13431
##Top	13427
custom	13419
ĠSmall	13418
)}_{	13416
route	13415
##but	13411
Ġgenerates	13411
##orious	13409
Ġstruggling	13409
Ġsanctions	13409
FC	13406
Ġtrailer	13406
stre	13402
Ġstaying	13402
Ġasymptotic	13402
##UF	13401
Ġoccupation	13401
Ġtemple	13400
metadata	13398
##Order	13397
Ġcarb	13397
##pal	13396
lb	13395
Ġhypot	13394
##ÐµÑĢ	13391
##uls	13391
ĠRelated	13390
=================================================	13388
Given	13387
##info	13386
##cept	13385
##open	13384
##Ge	13383
ĠHat	13383
Ġdebug	13382
##YP	13380
Ġretired	13379
##Expression	13375
arm	13374
Ġmedications	13374
.",	13373
Ġpredictive	13373
schema	13372
Ġsubstances	13371
Ġtackle	13369
Ġ'/	13368
ten	13366
Ġmicrop	13366
ĠEditor	13363
ĠDefault	13363
##*}	13362
Subs	13361
Ah	13361
Ġcarries	13361
ĠMuslims	13360
Ġcorrected	13359
ĠScientific	13359
ĠHillary	13359
##New	13358
Ġdear	13358
ĠInstr	13356
##umab	13355
##oint	13355
Ġenormous	13354
Ġacqu	13352
Will	13346
Ġbeg	13344
ĠReturn	13344
react	13342
##ometer	13341
Ġservers	13341
##ARD	13340
days	13339
mass	13338
Cho	13333
##bour	13333
ĠPel	13333
##isting	13332
ĠCredit	13332
##igma	13330
Ġcann	13330
ĠUbuntu	13329
ĠMN	13328
Ġspect	13325
Ġreplacing	13325
ĠMoh	13323
Ġpt	13320
Ġdistant	13319
Round	13316
Ġhighway	13316
Ġplacebo	13314
ĠFive	13314
##ĊĠĠĠĠĠĠĠ	13312
##El	13311
Ġolig	13308
fit	13307
##reas	13307
Ġantioxidant	13305
ĠCole	13305
Ġfragments	13302
ĠHen	13302
Ġcollision	13301
ĠLab	13301
##Handle	13298
##AV	13297
Ġspinal	13292
demo	13291
Op	13290
ĠWS	13290
Ġconscious	13286
Ġdreams	13285
fail	13283
##æĺ¯	13283
Ġreporters	13283
xff	13282
ĠSY	13279
ĠHollywood	13278
Ġ1977	13276
##Hz	13275
ĠAz	13270
Ġmorph	13269
ĠÐº	13264
Ġentropy	13264
##uster	13262
ĠNik	13261
Ġroutes	13260
exec	13259
Ġarchive	13259
ĠThor	13258
##Changed	13257
Ġpainful	13257
Ġexceptions	13255
ĠSus	13255
##amin	13254
##Widget	13245
ĠSimon	13245
Ġcontributing	13244
containing	13243
Ġscenarios	13243
ĠĠĠĠĠĠĠĠĠĠĠĠĠĠĠĠĠĠĠĠĠĠĠĠĠĠĠĠĠĠĠĠĠĠĠĠ	13243
Ġhind	13238
ĠMiami	13238
Ġsys	13237
Ġinitiative	13234
Ġcas	13233
ĠLanguage	13233
Ġgastric	13227
825	13226
##ORK	13226
##Mod	13225
Ġshifts	13224
initial	13219
##fire	13218
##Collection	13218
Ġnie	13216
142	13215
Ġships	13215
Ġdock	13215
Ġ179	13213
Ġkil	13211
gif	13208
ĠAlabama	13206
ĠâĢ	13205
Ġesp	13204
ĠARE	13200
ĠPhiladelphia	13197
ĠVideo	13196
##hop	13195
Ġschemes	13194
ĠStre	13194
Ġcompiler	13193
##Operation	13192
Ġsweat	13192
ĠRap	13191
ĠPs	13191
Ġhip	13189
##mos	13188
Ġstraightforward	13188
165	13187
Ġsor	13186
Ġinhibitory	13185
185	13184
Ġdr	13184
ĠSimilar	13184
Ġtendency	13183
Ġ240	13183
146	13181
ĠMatthew	13181
##actor	13179
Ġpossibilities	13178
ĠEffect	13178
Ġguilt	13175
Ġfetch	13175
Ġpig	13174
ĠWy	13174
BM	13170
Ġbroader	13170
Ġforecast	13169
Ġ(<	13168
##othe	13167
ĠDim	13167
ĠDIS	13167
Ġhired	13166
##mc	13164
Ġlicensed	13163
Microsoft	13162
Ġ220	13162
Ġtrop	13160
Ġprefix	13160
ĠOklahoma	13160
Ġpoorly	13159
Ġ$${\	13155
inflammatory	13154
181	13154
ĠMusic	13153
##cess	13150
Ġcharacterize	13150
##icated	13149
Ġartic	13149
Context	13147
Ġbegun	13147
Ġallele	13147
##walk	13146
ĠCells	13146
risk	13145
Ġpresenting	13145
Ġmarch	13144
standard	13140
##uj	13140
Ġstrand	13139
Ġdeck	13139
Ġ155	13139
Ġneighbors	13138
Ġ1978	13138
Att	13137
##rett	13136
Ġfitted	13136
Ġdetecting	13135
EF	13133
ĠCAR	13132
##imated	13131
##icul	13129
##cca	13129
Ġhire	13129
ĠLLC	13126
Ġspokesman	13125
Ġlawyers	13125
ĠROS	13125
ĠOper	13125
Ġencountered	13123
Ġ142	13123
Ġchairman	13119
ĠAuthor	13119
##hab	13115
Ġkg	13113
187	13111
##asts	13108
Ġmile	13108
ĠConn	13108
Ġoxid	13107
Ġnoting	13107
ĠStock	13106
##asa	13105
PRE	13102
Ġinvest	13101
ĠEdward	13101
ĠCSS	13101
0008	13100
Ġcease	13100
Ġroyal	13099
Ġneuronal	13099
present	13097
##Ã¨re	13091
##omet	13089
Ġcurvature	13089
Ġ194	13089
##etric	13086
Ġwanting	13086
##ifer	13085
Ġequity	13085
Ġanalysed	13085
Ġinvasive	13084
<\	13082
##inar	13082
Ġhemat	13081
ĠINC	13080
Ġ151	13080
Try	13079
Ġinconsistent	13078
Ġflower	13078
ĠOverall	13077
rich	13076
Ġindividually	13076
Ġmanagers	13075
Ġsphere	13073
ĠTur	13073
##emia	13072
Ġ157	13071
Ġfishing	13070
Ġaligned	13070
ĠJavaScript	13070
##Ns	13069
Ġdiagonal	13065
Ġamid	13065
Ġoccupied	13064
NE	13062
results	13060
Ġmeals	13059
138	13058
##ĊĠĠĠ	13058
##ises	13057
Ġrack	13056
ĠFun	13056
050	13055
Ġlamp	13052
Ġessay	13052
Ġmist	13050
Ġdiscipline	13047
Rel	13046
##ually	13045
Ġinterfere	13039
,[	13038
Ġstolen	13038
Ġsci	13038
##ãģ§	13033
##yle	13033
Ġash	13033
ĠJP	13033
ĠForest	13033
variable	13031
Ġlic	13031
Ġassociate	13029
Ġraises	13028
Ġhearts	13026
kind	13024
ĠCustom	13024
~-	13022
ĊĠĠĠĠĠĠĠĠĠĠĠĠĠĠĠĠĠĠĠĠĠĠĠĠĠĠĠĠĠĠĠĠĠĠĠĠĠĠĠĠĠĠĠĠĠĠĠĠĠĠĠĠĠĠĠĠĠĠĠĠĠĠĠĠ	13022
ĠStudent	13021
Ġchemicals	13020
ĠNight	13020
CODE	13018
made	13017
Ġundefined	13017
450	13016
Ġdelicious	13015
##inity	13014
Ġdont	13014
ĠDiego	13014
ĠChannel	13013
xb	13009
would	13008
track	13008
appe	13008
Ġcelebrate	13007
##bach	13005
Ġworship	13005
##anta	13004
Ġsubmission	13003
Ġgenotype	13003
Ġdistribute	13003
##istent	13000
integ	12997
Ġic	12997
Ġvirtue	12995
Ġexceptional	12995
Ġaffairs	12995
hs	12994
##Run	12994
large	12992
##acle	12992
Ġspecimens	12992
Ġhomogeneous	12992
##ork	12991
ĠSTR	12986
Ġ143	12985
##Cont	12984
ĠCapital	12983
Ġcontradict	12981
Ġidentifier	12977
Ġlogistic	12975
0020	12974
pred	12973
ĠLabour	12973
VF	12972
Ġtwe	12972
Ġfever	12972
Ġalien	12972
Ġsurrounded	12971
Ġtmp	12970
Ġlegislature	12970
Ġallocation	12970
ĠMarine	12970
Ġpositioned	12969
152	12968
Ġoperational	12966
ĠMaria	12966
grid	12965
Ġorganize	12965
Ġurine	12964
ĠSeattle	12964
##cam	12963
##Param	12961
Ġlocalized	12960
Ġformulation	12960
Ġcitizen	12960
ĠÂ«	12959
Ġovert	12957
Ġaddressing	12957
ĠMotion	12957
ĠBureau	12957
Ġhur	12955
ĠHeart	12954
Ġshapes	12953
Ġhandled	12950
Ġcheer	12948
sig	12946
ĠHub	12945
ĠDF	12944
Ġ175	12943
)}{\	12942
##hav	12938
Ġarises	12938
Med	12935
Bur	12935
##ÙĨ	12934
Ġ-------------	12934
Ġgy	12933
Ġbail	12933
expl	12932
Ġcompile	12932
Ġbite	12932
Ġ210	12932
Node	12930
Ġnit	12929
Ġprostate	12928
Ġnegotiations	12928
ĠModi	12928
spin	12926
ĠRick	12926
Ġ204	12926
ĠDun	12925
ĠFootball	12924
direct	12921
Ġbump	12920
Ġbarrel	12920
Ġbeings	12917
ĠMoon	12916
Ġslice	12914
springframework	12909
##Ã£o	12909
##eto	12908
sex	12907
Ġstir	12903
try	12901
##oly	12893
ĠInvention	12892
Ġgrants	12891
ĠTher	12891
enable	12889
God	12889
Ġlets	12888
Exception	12886
188	12883
ĠVisual	12882
ĠStone	12882
Ġ,\	12880
users	12879
##FR	12879
Ġfro	12879
Ġmel	12878
ly	12876
Ġconvenience	12876
ĠBot	12876
Based	12875
##ronic	12874
ĠEss	12874
ĠEqu	12874
Dist	12873
ĠNH	12873
ĠGab	12873
##ogenesis	12872
Ġcorporations	12871
##owa	12870
prefix	12869
ĠEuro	12868
##awn	12867
##arc	12867
##OCK	12867
10000	12864
ĠForeign	12863
uri	12862
Ġverified	12862
##oids	12861
Ġ?>	12861
blog	12859
Ġsubstitution	12858
ĠLip	12855
Ġconjugate	12854
Doc	12853
ĠHT	12853
##çĶ¨	12852
753	12850
Ġorgans	12841
ĠDoctor	12841
Ġintensive	12840
utf	12838
Ġonc	12837
Ġ360	12836
Ġdesk	12835
1985	12833
Ġpup	12829
ĠAppl	12829
Ġ203	12828
EL	12827
##Sec	12827
Point	12826
Ġrolling	12826
Ġconsiderations	12826
ĠĠĠĊĠ	12825
##NF	12823
ĠGH	12822
ĠTreatment	12814
minute	12813
Ġclubs	12812
Ġhighlighted	12811
1984	12810
##lig	12809
Ġdig	12808
##eld	12805
âĢ©	12803
137	12803
Ġcrypto	12802
##iki	12801
Ġcarriers	12801
Sur	12794
Ġsheets	12794
Ġlips	12794
Ġdrill	12793
Ġrestrict	12791
Ġ%>	12791
Ġtransmit	12790
Ġcurl	12790
iv	12789
Ġtransplant	12784
Ġredirect	12783
Ġfn	12781
mapsto	12780
Ġcosm	12780
ĠVM	12780
##cz	12778
Ġoblig	12776
##how	12775
con	12774
##earch	12773
ĠÎ¼m	12773
##rue	12772
à¥	12771
dm	12769
wait	12768
Ġoccasionally	12768
Ġhub	12767
Ġinsights	12766
Star	12765
Ġsimulated	12762
##ACK	12761
Ġpunch	12759
Ġimplements	12758
Ġexpanding	12758
##Os	12756
Ġengaging	12756
eval	12754
spe	12753
##Adapter	12753
Ġlumin	12753
Ġvibration	12752
Ġsuggestion	12751
Ġbarriers	12749
ĠÎ¼M	12748
Ġlobby	12748
court	12747
Ġleak	12746
Ġflexibility	12745
Ġbreed	12744
))/	12743
ĠTele	12743
flow	12742
Xi	12739
##ams	12739
ĠSelf	12739
ĠCurrent	12738
Ġ153	12738
##abe	12737
##ander	12736
##Process	12736
Ġenvelope	12734
Ġ165	12734
026	12732
##erb	12731
prec	12729
202	12729
171	12729
ĠLoad	12729
Ġapproached	12728
ĠLit	12728
Long	12726
Ġcf	12726
##ously	12725
Ġdistricts	12723
Ġbreathing	12723
jp	12719
ĠHelp	12719
Ġ"%	12719
Ġremarks	12715
151	12711
Ġmosqu	12707
Ġremedy	12706
ĠĠĠĠĠĠĠĠĠĠĠĠĠĠĠĠĠĠĠĠĠĠĠĠĠĠĠĠĠĠĠĠĠĠĠĠĠĠ	12706
##ÙĦ	12705
Ġtitles	12705
ppat	12704
Ġmonitored	12704
##vs	12703
ĠBD	12703
(!	12700
Ġaccommodate	12700
Ġweakness	12698
ĠDad	12698
Ġmetallic	12697
ĠNav	12697
ĠExpression	12695
ben	12694
Ġvolumes	12693
Ġangles	12693
##æľ	12692
##Ã¡n	12692
Ġdishes	12691
asp	12690
##-------	12690
Ġincredibly	12687
Ġvolunteers	12686
Ġjar	12684
Ġstabilize	12683
Ġ-----------	12683
inner	12679
Ġdeleted	12679
Ġ[(	12677
##olog	12676
Ġinference	12672
Ġimpacts	12672
Input	12669
Ġranking	12669
##BL	12667
Ġfoo	12666
Ġ1975	12664
Ġke	12663
##ached	12662
Ġarrays	12662
##dam	12658
Ġforgive	12658
Ġsleeping	12656
Ġcoin	12656
general	12654
Ġtongue	12653
Ġfin	12653
cong	12652
##dt	12652
Ġterror	12652
1988	12651
Ġcompress	12649
ĠMot	12649
ĠVir	12646
Ġconform	12645
Ġsolving	12642
##DNA	12641
Ġconversations	12639
##oster	12638
ĠProc	12638
SEC	12637
ĠOnline	12637
ĠÃħ	12636
ĠOxford	12636
1987	12631
##rf	12631
Ġteaspoon	12629
Ġencoded	12629
Ġdisposed	12629
ĠDet	12629
properties	12627
Ġabandoned	12626
Ġmandatory	12625
Ġdying	12624
##olin	12622
Ġaggregate	12622
Ġgarlic	12620
Ġ141	12617
ĠReference	12614
##../	12613
ĠĠĠĠĠĠĠĠĠĠĠĠĠĠĠĠĠĠĠĠĠĠĠĠĠĠĠĠĠĠĠĠĠĠĠĠĠĠĠĠĠ	12613
less	12610
Ġimply	12609
946	12608
Ġjoke	12608
care	12606
##ressive	12606
Ġextracts	12604
Ġtranslate	12601
##Ð½Ð¾	12598
Ġpurely	12598
Ġlemma	12598
Ġsuppressed	12597
Ġele	12597
network	12596
Ġbalanced	12594
(@	12593
pay	12592
##bury	12592
cut	12591
ĠEB	12591
Ġcong	12590
bs	12588
}}^{\	12587
Ġspoken	12586
Ġ178	12586
PER	12583
Ġadhesion	12583
feed	12580
##wick	12580
ĠDisney	12580
ĠThrough	12579
Ġox	12578
Ġligand	12578
ĠĠĊĠĠĠ	12578
ĠRan	12577
ĠGarden	12574
Ġrepl	12568
Ġlemon	12568
ĠMorris	12566
âĢĭ	12565
don	12565
Ġpension	12565
)&	12564
##rect	12564
Ġhitting	12562
Ġballot	12561
ĠEver	12560
Ġoccup	12558
ĠIde	12555
##ML	12550
Ġproceeds	12550
ĠMissouri	12549
##KA	12546
half	12545
##ament	12544
Ġdisplacement	12544
micro	12543
Ġsteal	12540
ĠWhit	12540
##ÃĦ	12537
ÃĲÂµ	12536
Ġdepict	12534
Ġretrospective	12533
Ġpremier	12533
Ġpun	12531
Ġfocuses	12531
Ġubiquit	12529
Ġaccordingly	12529
ĠRow	12529
Ġcontroversy	12528
^{+	12527
##acc	12527
Ġsixth	12527
ĠTheory	12527
##aining	12524
Ġpleased	12523
Ġpromoted	12522
Ġmig	12521
ĠLam	12520
Ġpulling	12519
Ġalk	12519
Ġ700	12519
Ġbp	12516
FB	12514
West	12513
Ġtransitions	12513
Core	12512
##osure	12512
##emo	12509
ĠSurvey	12509
Ġconsiderably	12507
Ġarguing	12507
Ġ146	12507
ĠNBA	12504
shared	12501
returns	12501
Ġdozen	12500
*\<	12497
ĠParent	12497
##Local	12496
##Ð¿	12495
ĠWithin	12494
ĠMRI	12492
##rick	12491
##orts	12491
need	12490
Ġexplaining	12489
Ġcalendar	12489
Ġexhibits	12488
quality	12487
##âĢľ	12486
##edo	12484
Ġcultiv	12483
Ġtranscripts	12481
(:	12480
Ġautomobile	12480
Ġ152	12480
Ġemit	12478
Ġindirect	12477
Ġintact	12476
##Items	12475
Ġmorphology	12475
##UCT	12474
Ġconfirmation	12474
ĠTG	12473
ĠWolf	12472
##Bytes	12469
##Flags	12465
##ument	12463
##text	12461
`.	12460
##bc	12460
ing	12459
Ġmobility	12458
##ĊĠĠĠĠĠĠĠĠĠĠĠĠĠĠĠĠ	12457
Ġanonymous	12456
ĠSite	12456
ĠSquare	12451
##dot	12449
154	12442
##sf	12440
Consider	12437
##ophil	12436
Ġcompromise	12435
ĠFrancis	12435
##ront	12434
##001	12433
Ġvolunteer	12433
350	12430
212	12428
##Left	12428
##osomes	12426
##arily	12426
##Bs	12426
##atur	12425
Ġgamma	12423
ĠFat	12422
Ġmanufacture	12420
ĠMont	12420
Author	12419
##Port	12419
##--------	12419
Ġadoption	12419
Ġties	12418
Component	12417
ĠExc	12417
iterator	12416
##Enabled	12416
without	12414
031	12414
Ġasserted	12414
Ġhistor	12413
})^{	12412
band	12412
="../	12412
##Application	12411
Ġ1976	12411
Ġdisse	12410
ke	12409
##lessly	12409
Ġconducting	12408
Ġplacing	12407
rot	12405
Ġevaluating	12405
ĠGolden	12405
}),	12404
ĠVII	12401
##comm	12400
##asc	12399
Ġreviewing	12399
Ġballs	12397
Ġreserve	12396
##cted	12393
##itting	12392
Ġtransl	12392
Ġhanging	12392
ĠHold	12392
bn	12390
Super	12389
##ryl	12389
ĠâĢĻ	12389
Ġphones	12387
##obi	12386
156	12383
##plot	12383
driver	12382
##ross	12382
##aton	12382
Ġexon	12382
ĠGy	12382
##ä¸	12381
Ġmuseum	12381
Ġenemies	12381
Ġmount	12377
##sters	12376
stud	12372
##roy	12372
^{*}	12371
Ġsubsection	12371
Ġreportedly	12370
Ġcannabis	12369
Ġvest	12362
Ġtw	12362
Ġrelaxation	12361
Ġrecruitment	12361
Ġ256	12361
ĠArg	12360
MT	12359
)</	12359
"],	12359
##Font	12357
Ġchips	12357
##MR	12356
ax	12355
Rad	12355
Ġjud	12355
ï	12354
Ġlegally	12350
##Ã¡Âº	12347
Ġprayer	12346
ĠYouTube	12346
##ilt	12344
ĠRapids	12343
##kers	12342
Ġimplementing	12342
##tml	12339
Ġofficially	12339
Ġschema	12336
Ġpink	12335
Ġens	12333
TS	12332
Ġblockchain	12331
Ġward	12330
exception	12327
({{\	12326
XF	12324
##])	12323
##Grid	12323
Ġquarterback	12321
Ġhormone	12321
Gal	12320
##uming	12320
Ġbare	12320
Show	12316
Fre	12316
ĠPlayer	12315
ĠComput	12315
cert	12314
##sky	12314
Ġcounting	12314
Ġsustainable	12313
ĠMY	12311
Ġoutdoor	12309
Ġvaries	12307
##urity	12302
##unn	12300
Ġthrew	12300
xd	12299
ĠSad	12297
Filter	12296
##ibi	12295
##erences	12294
Ġriding	12293
brief	12292
bre	12292
##icing	12291
##Match	12291
##aker	12288
tools	12285
##EV	12285
##Util	12283
ĠRelease	12283
ĠQue	12283
}}})	12282
Ġoutl	12282
Ġmp	12282
ĠNotice	12281
##aus	12280
ĠRemove	12280
Ġintim	12279
##rous	12278
Custom	12277
------------------------------	12276
##imer	12276
distance	12273
,âĢĻ	12273
ĠMagn	12273
share	12272
ĠWars	12270
Ġram	12267
ĠBUT	12266
##ulse	12265
Ġirre	12265
ĠAlexander	12264
##olved	12262
Ġconstitutes	12262
Ġbee	12262
Ġ------	12262
Ġoverwhelming	12259
ĠNL	12259
Those	12256
Ol	12256
handler	12255
ĠRequest	12254
Ġfiction	12253
Page	12252
Ġtraveling	12251
ĠDallas	12250
##ands	12249
Ġ149	12249
Ġmyel	12248
ĠNeg	12246
integer	12245
Ps	12245
##----------------------------------------------------------------	12244
Ġfestival	12244
Ġcere	12244
230	12243
Ġclaimant	12241
##Over	12240
##onc	12239
Ġmethodology	12239
ĠExtra	12239
Ġpollution	12238
##ivities	12237
Ġpref	12237
ĠBurn	12237
##One	12235
Ġferm	12235
ĠDouble	12235
Ġlig	12234
ĠLater	12233
Ġcatheter	12232
Ġbuilder	12230
Ġmunicipal	12228
Ġmetastasis	12223
Ġhes	12222
ĠVar	12222
ĠOT	12222
Ġprobation	12220
##ruction	12219
Ġdenoted	12219
ĠSure	12219
Ġcomparative	12218
Ġshifted	12215
##Ð¾Ð²	12214
ĠPalestinian	12213
Ġnuclei	12212
Ġlessons	12212
Ġlengths	12212
Ġappellate	12212
ĠTarget	12211
Ġtears	12209
ĠCOURT	12209
=[	12205
##opol	12204
Ġlecture	12204
##ytic	12203
Pan	12201
Ġextracellular	12199
ĠMAR	12199
design	12198
Ġventure	12197
anal	12194
Person	12193
Ġlesser	12193
##resh	12191
Ġdial	12190
ĠFinancial	12190
bullet	12189
Ġbiology	12189
expected	12187
ĠProcedure	12186
Ġcups	12183
ĠCel	12183
Rem	12182
Ġcs	12181
##âĢ	12179
Ġpose	12179
Ġinnovative	12179
Ġmodal	12178
Ġappearing	12178
screen	12175
##ads	12174
##ortion	12172
Ġreproduce	12171
Ġsusceptibility	12170
Ġraces	12170
Ġerroneous	12170
Ġwages	12168
Ġadvocate	12168
Ġsubstrates	12166
Ġcurious	12166
Ġadditive	12165
ĠSG	12165
Ġcit	12164
Ġdrops	12163
ĠPrevious	12163
cn	12161
Ġwithdrawal	12158
Ġpole	12157
ĠGot	12157
##Ãº	12155
=".	12154
Ġimmigrants	12154
ï¼ļ	12153
Ġol	12153
ĠWu	12153
factor	12151
Ġwheat	12151
Ġgather	12150
Ġbasal	12150
ĠUpon	12150
ĠWould	12149
ĠPier	12148
Ġviable	12146
speed	12144
Ġconfigurations	12144
Ġspeaker	12143
##irs	12141
Ġdispens	12141
Ġpra	12140
ĠPsych	12140
ĠGall	12140
0006	12138
Ġrally	12138
Ġobjectives	12138
Ġorganisms	12137
ren	12136
execute	12136
##uba	12136
Ġdf	12134
}$-	12133
Ġstepped	12131
ĠRoberts	12131
Ġcaptain	12129
##STR	12128
Ġoxidation	12128
Ġdro	12128
Ġmerits	12127
##Body	12126
)/((-	12125
Ġmot	12122
##AE	12121
ĠRules	12121
##eria	12120
##iler	12118
ĠTony	12118
âĦ¢	12117
Ġdiscussing	12117
Only	12116
ĠRand	12116
Ġsubtle	12115
ĠAy	12115
##Åį	12114
##wide	12114
Ġabilities	12114
##upt	12113
##itated	12112
##Writer	12112
Ġdramatically	12112
ĠTennessee	12112
Ġinfluenza	12111
>()	12110
ĠMother	12110
Ġasserts	12109
ĠSingapore	12109
Ġfallen	12108
ĠTag	12108
ĠOk	12108
##aha	12106
Ġmanipulation	12105
delim	12102
DL	12102
ĠCulture	12102
Ġvacation	12101
BS	12099
ĠBerlin	12099
(.	12098
ĠNG	12098
Ġtransverse	12097
##uration	12096
Ġinvestigators	12096
Ġcatalog	12096
##wy	12095
##inger	12095
Ġdevelopments	12095
lower	12094
Ġcharging	12094
Ġ---------	12094
Ġproducer	12093
Math	12092
024	12091
Ġhighlights	12091
ĠrÃ©	12088
##iously	12087
Ġrobbery	12085
##Web	12084
##Ã©m	12083
cost	12080
ĠWalker	12079
##Del	12077
Ġsalad	12077
Ġcirc	12077
##ilic	12076
focus	12075
Ġment	12073
both	12072
Ġcin	12072
Ġnom	12070
Ġly	12070
ĠEmb	12070
identifier	12069
ĠBeck	12068
human	12066
Ġwisdom	12064
Ġnecessity	12063
ĠRD	12063
depth	12062
apply	12061
Ġprize	12061
161	12060
uns	12058
186	12058
expression	12057
ĠSK	12056
ĠMorgan	12053
inline	12052
Ġapt	12052
twitter	12051
Ġdialogue	12051
Ġ----------	12051
equals	12049
Ġfluorescent	12049
Ġalternate	12049
##[[	12048
Ġ--------------	12048
##ouse	12047
Ġconvex	12047
##âĢĵ	12046
##burn	12046
ĠLeg	12045
##ALL	12044
Ġoperates	12044
.[]{	12042
Ġreceipt	12041
Ġexcitation	12041
ĠProtection	12041
Î³	12039
##ieve	12039
Ġzip	12037
Http	12035
Ġattending	12035
ĠPas	12035
ĠPURPOSE	12035
keys	12034
Ġnutrition	12033
Ġhumanity	12032
ĠSingle	12032
))*	12031
single	12029
Evaluate	12029
Ġassertion	12029
ĠCut	12029
Ġdiscontin	12028
ĠHunt	12028
Defendant	12027
Ġads	12027
review	12026
pg	12025
EXT	12025
plain	12022
Ġgathering	12022
Ġcredibility	12022
ĠRG	12022
Ġwip	12019
##Can	12018
Ġmodest	12017
Ġdefence	12017
suppl	12015
Ġvill	12014
Ġfreely	12014
ĊĠĠĠĠĠĠĠĠĠĠĠĠĠĠĠĠĠĠ	12012
Ġprevents	12011
Ġsafely	12010
Ġlighting	12010
Ġinvoke	12009
Ġpacked	12007
though	12006
Ġpretend	12005
ĠMcK	12004
Ġ154	12004
Âµ	11999
##hem	11998
ĠCav	11998
original	11996
cent	11996
mov	11995
Ġnut	11995
Ġincorrect	11995
ĠDark	11993
sens	11991
Ġstopping	11990
Ġprojected	11990
ĠWorks	11990
scal	11989
ĠJosh	11989
Ġaffordable	11988
Ġpassive	11984
ĠGre	11983
Ġfucking	11982
ĠLang	11982
Ġtriggered	11980
Ġconnector	11980
$;	11979
Ġineffective	11979
Ġalterations	11979
ĠMexican	11979
139	11976
##inf	11975
Ġdonors	11975
Ġhanded	11971
Ġ171	11969
Ġhorror	11968
hidden	11966
enc	11964
Ġunity	11964
Ġë	11963
Ġpromises	11961
148	11960
'-	11958
exper	11957
Load	11956
Ġarbitration	11955
Ġremand	11953
Ġbow	11953
Ġutilize	11952
ĠVector	11952
Ġinterc	11949
Ġgolden	11949
Ġ225	11949
Fil	11945
Ġell	11945
Client	11941
Ġopp	11940
typedef	11939
Ġconn	11937
ĠPremier	11937
Ġmeets	11936
success	11935
##Inv	11934
Ġexam	11934
Ġcombining	11934
Ġbother	11933
Ġjam	11931
GS	11930
157	11930
Ġamplification	11929
Ġnurses	11926
Ġcameras	11926
ĠLock	11926
ĠChampionship	11925
ĠBuilding	11924
Ġroller	11923
ĠHawaii	11923
##pn	11920
xsl	11916
028	11915
Ġinherent	11913
Ġretention	11912
ĠSarah	11912
ĠJason	11911
##ague	11910
Ġure	11910
Ġathletes	11909
ĠProtein	11907
##kg	11905
Ġbroker	11905
Ġdeficit	11904
ĠMeanwhile	11904
##Rule	11903
Ġconcert	11901
Ġbonus	11900
Ċĉĉĉĉĉĉĉ	11900
Ġinitiation	11899
##standing	11898
##plane	11898
##mail	11897
ĠBear	11896
Ġdensities	11894
##osity	11893
Ġmetrics	11891
Ġswap	11887
##atible	11886
Ms	11884
ĠHoward	11884
##ULT	11883
ĠWHERE	11881
Ġbitter	11880
##æķ°	11878
ĠAnna	11878
Ġrival	11876
:</	11875
Ġwrit	11874
Ġreass	11874
Ġoccasions	11874
##ĠĠĠĠĠĠĠĠĠĠĠĠĠ	11870
Ġinvestments	11867
Ġartists	11867
##===	11866
Ġ[\	11866
ĠVice	11866
164	11863
041	11862
##ãģĹ	11862
Ġfence	11862
ĠUSB	11862
ĠFront	11862
##____	11861
Ġaqu	11861
Mal	11860
Ġconsultation	11860
Ġclimb	11860
##Names	11856
complete	11851
##yz	11851
##ORY	11851
Ġ------------	11851
ĠAuthority	11849
Ġprotests	11848
Ġinsist	11847
}^*	11846
##ÃĹ	11846
##rade	11845
Ġ177	11845
##irect	11843
Â¤	11842
ĠConvention	11842
fat	11840
BD	11839
tan	11837
##bian	11837
Ġdowns	11836
ĠAddress	11835
##ologists	11834
##ERY	11833
Ġinspiration	11831
ĠDog	11831
Ġdemocratic	11830
##pie	11827
##rica	11824
ĠInfo	11824
Ġhepat	11823
ĠMeg	11821
ĠAccount	11821
Ġinsured	11820
##erson	11819
Ġjudges	11819
iter	11818
##ulous	11817
ĠSac	11815
ĠMount	11813
ĠEE	11813
ĠStudio	11812
Ġ158	11812
Ġmistakes	11811
ĠÐ¾	11810
Ġfloating	11806
HS	11804
ĠĠĠĠĠĠĠĠĠĠĠĠĠĠĠĠĠĠĠĠĠĠĠĠĠĠĠĠĠĠĠĠĠĠĠĠĠĠĠĠ	11803
Ã©	11801
Ġdatabases	11801
ĠMic	11796
184	11795
Ġverb	11795
##aming	11793
SW	11790
ĠLicensed	11790
ĠExample	11789
library	11787
Size	11787
Men	11786
Ġmotivated	11786
Ġdir	11784
##imum	11783
Ġensuring	11783
LIB	11781
Ġdated	11781
##osite	11780
##chy	11779
Ġpalm	11778
Ġcircum	11778
ĠFred	11777
xx	11775
Ġsav	11774
ĠAndre	11774
Ġbaking	11773
182	11772
Ġdeparture	11772
##zone	11771
ĠTex	11771
sem	11770
ĠAut	11769
>;	11768
##utable	11768
CG	11767
##urance	11766
##''	11766
Ġsoup	11766
Ġfacial	11766
Ġboards	11766
ÃĲÂµÃĳ	11765
Âĩ	11765
_-	11765
Ġactivists	11764
DF	11763
Ġdeployment	11763
Vis	11762
##like	11761
##icks	11761
##IME	11761
##isted	11758
Ġabundant	11758
Path	11757
Ġearnings	11757
ĠInteger	11753
Ġreactive	11751
Ġ156	11750
FONT	11749
virtual	11748
Ġluc	11748
##riting	11747
Ġpremises	11747
1980	11746
##Mon	11744
Ġwithdraw	11744
Ġlag	11744
Ġamongst	11744
Ġsurge	11742
ĠEmploy	11741
##Icon	11740
ĠArabia	11739
coll	11738
ĠCaptain	11738
##sim	11737
##zb	11736
ĠDick	11736
Ġduct	11735
ĠNK	11735
##utor	11734
##roe	11734
Ġds	11734
162	11733
Ġthrowing	11733
Ġtheater	11733
Ġaz	11731
ĠKin	11729
Ġhypert	11728
Ġdisadvantage	11728
Ġui	11727
Ġdowntown	11727
Ġprognosis	11726
Ġantagonist	11726
ĠVery	11725
very	11723
Ġmodul	11721
Ġcats	11718
Ġtherapies	11715
##ervation	11714
Ġshops	11714
Ġattr	11712
##cious	11709
##Panel	11709
Ġvent	11707
##hydro	11705
Mus	11704
Ġlos	11703
ĠDN	11701
Ġ205	11699
##Ins	11698
##IRE	11698
Ġ"",	11696
Ġgrey	11694
PB	11692
Output	11692
Ġindustries	11690
AND	11689
Ġoutline	11688
ĠMayor	11688
Ġ148	11687
Ġintercept	11684
Ġrepository	11683
ĠKnow	11683
##ÐµÐ½	11682
ĠTurn	11682
ĠAbs	11682
ĠElizabeth	11681
Action	11680
##dk	11679
ĠIranian	11679
Ġcytos	11678
ĠCruz	11676
##istance	11675
Ġrefuse	11675
Ġlac	11675
Ġjustified	11674
Ġchopped	11673
Ġspeaks	11670
unc	11669
Factor	11669
EA	11668
Ġtrait	11668
ĊĉĊ	11663
##gor	11660
Ġuniversities	11660
ĠSenior	11660
Ġrush	11658
##Identifier	11655
Ġpassenger	11655
Ġmanufacturers	11655
##OA	11654
ĠLM	11653
IB	11652
##pass	11652
##bow	11652
ĠHash	11652
ĊĠĠĠĠĠĠĠĠĊĠĠĠĠĠĠĠ	11650
174	11649
1983	11648
##lass	11647
Ġmusical	11647
Ġcursor	11645
##ilia	11644
Ġalg	11642
ĠCreat	11642
bytes	11641
ĠDutch	11640
Ġdialog	11637
ĠcDNA	11637
##bid	11636
Ġemails	11636
Ġantibiotics	11636
##rell	11635
>();	11634
##ãģŁ	11633
Ġter	11633
Ġobligations	11633
ĠTr	11633
##init	11632
ĠâĢľ[	11632
ĠBart	11632
Ġdismissal	11631
David	11630
ĠCin	11628
##fort	11627
ĠPARTICULAR	11627
##Layer	11626
Ġoptim	11625
Ġpackaging	11624
##Back	11623
Ġaveraged	11623
Ġ1950	11623
Ġtower	11622
##ync	11621
##print	11621
##RU	11619
##ILL	11619
Ġ161	11619
bad	11618
Ġarts	11617
NOT	11616
512	11616
Ġplatelet	11616
hw	11615
=\"	11615
##omm	11615
ĠBrad	11615
ifndef	11614
username	11613
Ġprofound	11613
##ardi	11612
##UST	11611
Ġveteran	11608
Ġavoided	11608
Ġ164	11608
##agi	11606
Ġfruits	11606
Ġfought	11606
organ	11605
ĠÐ´	11603
score	11602
##USE	11602
Ġmainstream	11601
Ġcaps	11600
Ġconvention	11599
Link	11598
/)	11598
##icy	11598
Ġdeserve	11596
ĠLegend	11595
Ġ168	11594
ĠPetitioner	11593
Ġ163	11593
Ġlar	11592
men	11591
compl	11591
Ġratings	11591
##ILE	11590
Ġactu	11590
alg	11588
Ġmicroscope	11588
##stru	11587
ĠCOVID	11587
Ġphag	11586
Ġceiling	11586
Ġholder	11585
Ġfig	11585
dfrac	11583
Ġcaution	11583
sel	11581
exists	11581
##erver	11579
since	11576
leg	11576
Ġpreserved	11575
Ġexperiencing	11575
##Values	11574
Ġthroat	11574
ĠIntel	11574
Ġupstream	11573
Ġramp	11571
##eling	11570
Mer	11568
Ġhorizon	11568
LOC	11565
Ġalternatives	11565
FOR	11561
##å°	11561
Ġsupplement	11559
Ġpanic	11556
Ġ162	11556
Den	11555
Ġgranting	11554
176	11552
Ġsteep	11552
Configuration	11551
)$-	11551
Ġlabour	11550
Ġuncon	11549
Ġadvances	11549
360	11548
Ġkiller	11547
Ġintelligent	11547
ĠWales	11546
Ġdispatch	11545
Ġsearched	11543
##SR	11542
ALL	11539
Ġbrilliant	11537
ĠBuck	11537
Ġplaque	11536
Ġagricultural	11536
Ġadventure	11536
ĠVC	11536
ĠExpress	11536
##inct	11535
extern	11532
Ġvoluntary	11532
Ġbot	11530
Ġ1973	11530
##Rel	11528
Ġhappiness	11526
variant	11525
program	11524
##irc	11524
Ġfork	11524
##----------------	11520
Ġexploration	11520
rule	11519
Ġrubber	11517
ĠBesides	11516
##stream	11513
Ġthumb	11513
##iring	11511
Ġexceed	11510
Comm	11507
ĠNormal	11506
allow	11505
NM	11504
##rance	11504
Ġresidue	11503
##Ac	11502
Ġeastern	11501
train	11499
regulated	11499
]-[@	11499
320	11499
##aving	11499
Ġregret	11499
ĠFITNESS	11499
##illo	11497
Ġhint	11497
Ġexplosion	11497
Ġmort	11496
ĠSize	11496
ĠMember	11496
platform	11494
Ġsubjective	11494
Ġsusceptible	11492
Ġunlawful	11491
Ġ$|\	11491
COMP	11490
Ġrevised	11490
Ġdispar	11490
Ġcontamination	11490
ĠRich	11490
ĠOA	11490
vm	11487
##cht	11485
ĠBlood	11485
Ġstarter	11484
Ġfid	11484
Ġbrains	11484
Ġimpe	11483
##Ã©n	11481
Ġfasc	11481
Ġevolutionary	11481
##ê	11480
Ġdos	11478
Ġbuttons	11478
ĠNeed	11473
ĠCann	11473
##acing	11471
Ġselecting	11471
Ġloads	11470
ĠUtah	11470
213	11469
Ġresponsive	11469
Ġfertil	11468
children	11465
Ġclarify	11465
Ġunh	11462
Ġdiabetic	11462
Ġsuspicion	11461
Ġclinically	11460
Ġ147	11460
pack	11459
##zr	11459
INFO	11457
033	11457
##{"	11456
Ġdrift	11456
Ġdistal	11455
Ġtrustee	11454
)~	11453
##org	11453
##/>	11452
hd	11451
Play	11451
Ġcabinet	11451
Ġadhere	11450
required	11449
Ġmedal	11449
Ġinvite	11448
ĠUnlike	11448
##onst	11447
Ġvon	11446
Ġtumour	11446
ĠOrgan	11446
Ġmang	11445
Ġdx	11443
utils	11442
AE	11442
##rodu	11441
ĠArts	11441
done	11440
Ġpou	11439
Ġstationary	11436
1982	11435
Ġyard	11435
found	11434
HT	11433
Ġviability	11433
Ġcompl	11433
Ġstamp	11432
Ġconsumed	11432
Ġprimers	11431
Ġket	11430
Ġdisclose	11429
Ġdesktop	11428
##ä½	11426
##AMP	11425
Enter	11424
Ġinvent	11424
Ġadvert	11424
##ims	11423
ĠOD	11423
Ġ========	11423
Ġpride	11422
Ġillustrate	11421
Ġbuf	11421
NP	11419
Ġredshift	11419
Ġexponential	11419
Ġranked	11418
##fit	11417
Ġrecipes	11417
Ġintend	11414
Ġwaiver	11412
gg	11411
##ppy	11411
Ġrelevance	11411
Ġdisl	11411
##Par	11409
Ġcounted	11409
.")	11407
##upp	11407
##elle	11405
Ġpap	11405
Ġthereafter	11403
Ġmimic	11403
ĠNEW	11403
177	11401
##Current	11401
##Stack	11400
##JS	11400
Ġpremium	11400
##emic	11398
ĠSay	11398
ĠĊĉ	11398
##ãģ¯	11394
CONT	11393
##uity	11392
Ġphosphate	11392
Ġtranscriptional	11390
Ġunderw	11389
Ġrocket	11389
Ġgoogle	11389
ĠEquation	11389
Bel	11388
commit	11386
Ġ1972	11384
Ġdisrupt	11381
Ġpile	11380
Ġposter	11379
ĠSeason	11379
Ġcmd	11378
ĠDuke	11377
##Async	11376
ĠLV	11376
Ġembarrass	11375
Ġphys	11374
ĠMars	11374
ĠLat	11373
##ault	11372
Ġincomplete	11372
Ġpeaceful	11370
ĠMg	11370
##Search	11369
##tip	11368
ĠWHO	11367
pair	11366
##Last	11366
Ġbuck	11366
Ġappellants	11364
LP	11363
Ġsie	11362
##Core	11361
jd	11360
##á	11359
Ġfigured	11358
Ġexcit	11358
simple	11357
ĠLouisiana	11355
_)	11354
Ġprinter	11354
Ġlake	11354
Ġendogenous	11354
Cur	11353
##Ã´	11353
ĠNASA	11353
ĠGET	11353
tests	11352
âĤ¬	11351
Ġfetal	11350
##->	11347
Ġintroducing	11347
ple	11345
ĠRy	11345
Ġfurniture	11344
Ġcenturies	11343
Ġstri	11342
ĠOtherwise	11342
Ġpredetermined	11341
)+\	11340
ĠTon	11340
179	11339
ĠTerm	11338
ĠTree	11337
Ġremind	11336
ĠPRE	11336
Ġcycl	11335
0007	11333
Ġdecomp	11333
ĠStop	11333
ĠAssistant	11333
Art	11332
Ġtickets	11332
##isor	11331
Ġtransp	11331
Ġrew	11331
ĠAbu	11331
hydroxy	11329
##piece	11329
Ġlaptop	11325
Ġblade	11324
ĠChap	11324
##olve	11322
Ġbeef	11322
##Hash	11321
ĠLPS	11319
prot	11318
##imo	11318
Ġprolonged	11316
ĠPAR	11316
Ġreception	11315
Ġgraphics	11313
})$.	11312
>::	11312
parameter	11310
ĠTrib	11309
Ġincidents	11308
Ġclassroom	11307
quoting	11306
##Root	11306
ĠElectric	11302
##Next	11301
Ġcrossed	11301
ĠBeing	11301
Ġprimer	11300
))?	11299
Ġdeadline	11299
ĠMig	11298
valid	11297
Ġvoc	11297
Function	11296
Ġeng	11296
Ġemphasize	11296
Ġcardi	11292
333	11290
ĠPhysics	11289
ĠPLA	11285
PATH	11284
##erved	11283
DEBUG	11281
Ġinfectious	11281
Ġconcurrent	11281
##itative	11278
Ġcad	11277
ĠDave	11277
Ġconjunction	11276
Ġclearance	11276
##________	11275
Ġepit	11275
Ġprospect	11274
Ġannounce	11273
Ġtau	11272
|$	11269
##odia	11269
Ep	11268
##ISH	11268
ĠThink	11268
Ġinqu	11267
Ġbatt	11264
South	11263
Ġseemingly	11263
ĠSaint	11263
Ġcorrections	11260
##util	11259
##after	11259
ĠBag	11259
Ġventricular	11258
Ġrhythm	11258
Ġunn	11257
Ġcube	11256
ĠSant	11256
Ill	11255
Ġcertified	11255
ĠVS	11254
ĠPle	11254
Ġtrib	11252
Ġ.$$	11252
Further	11250
##operative	11248
CV	11247
Ġsheep	11247
Ġlocus	11246
Ġrecommendation	11244
ĠLou	11244
Ġdisin	11242
##zza	11241
ĠPac	11240
Ġhabitat	11239
##illed	11237
Ġhorses	11237
HD	11235
##Rem	11235
Ġevolved	11235
ĠDiff	11234
Ġenumer	11233
fileID	11230
ĠExpl	11229
:[	11228
##itary	11227
Ġabdominal	11226
Trump	11225
##Î²	11225
##iko	11224
##Build	11224
![](	11224
##wt	11223
ĠQuant	11223
##HL	11222
Ġintro	11219
Ġgri	11218
cause	11217
##aria	11217
##HD	11217
Ġsing	11217
ĠiPhone	11217
Ġbrands	11217
ĠFlow	11217
ĠNetherlands	11216
ĠAffairs	11216
##imm	11215
ĠLind	11215
Ġemployers	11214
ĠCong	11214
ĠRespondent	11213
##aration	11212
Ġ172	11211
##oda	11210
Ġsubspace	11210
ĠRange	11210
Ġprecip	11208
ĠLot	11208
##RNAs	11206
##OME	11206
Ġgravitational	11206
Lat	11205
ĠExcel	11204
##ä¹	11203
##)\	11203
area	11201
arXiv	11200
Ġč	11200
Ġrotating	11199
Ġundergoing	11198
Ġvir	11197
Ġtwelve	11197
Ġresume	11197
Ġharvest	11196
Ġorthogonal	11195
Ġfracture	11194
Ġawards	11194
$:	11193
##ELL	11193
Obv	11192
ĠINS	11192
ĠPerson	11191
ĠPain	11191
ĠNigeria	11191
Ġdynamical	11190
Ġdesert	11188
Ġdemonstrating	11186
ĠMERCHANTABILITY	11183
alloc	11182
##aves	11177
##xis	11176
##mus	11176
ĠColon	11176
Ġremark	11175
ĠHum	11174
##rand	11173
##ailed	11167
ĠRecently	11167
jar	11166
172	11166
##ante	11165
Ġrendering	11165
##esse	11163
Ġupward	11163
ĠTokyo	11163
ĠMand	11162
ĠAnne	11161
ĠPil	11158
##pret	11157
##azz	11156
Current	11155
Ġordinance	11153
Ġactin	11152
Ġinsurer	11151
Ġcouples	11151
Ġrecombinant	11150
employ	11146
##Ã§Ã£o	11146
##zel	11146
Ġlamin	11146
##erve	11145
Ġsupervisor	11144
Ġfeasible	11144
Ġ1974	11144
elect	11142
ĠCounsel	11142
Ġ--------	11141
Ġsuff	11140
ĠEdit	11140
ĠInvestig	11139
API	11138
[...]
