.	51022967
Ċ	48043891
,	43712697
Ġthe	41289998
Ġof	23447630
Ġand	19928980
Ġto	19254502
-	15906258
Ġa	15438009
Ġin	14135447
_	9914453
Ġis	9693843
Ġ(	8456372
Ġthat	8319551
Ġfor	7475339
##s	7386377
)	7324926
:	6887665
Ġwith	5754517
1	5583651
(	5441511
2	5393583
Ġ"	5194293
Ġon	4918372
/	4591156
Ġas	4484100
Ġbe	4359521
Ġwas	4355123
Ġit	4296507
ĠI	4045652
Ġby	3937399
Ġare	3893211
Ġ=	3875764
;	3700599
Ġ-	3562747
ĠThe	3414279
Ġthis	3395785
0	3357991
Ġfrom	3297906
Ġat	3285546
Ġyou	3263446
Ġ$	3253011
âĢĻ	3205650
Ġor	3193268
{	3162809
Ġnot	3155327
Ġ\	3116112
ĉ	3082552
*	3014044
Ġhave	2950351
Ġan	2794693
's	2794505
s	2748458
\	2720991
3	2692685
}	2681540
"	2612690
Ġ0	2541298
ĊĠĠĠ	2468083
>	2456475
Ġ*	2418443
Ġwe	2307585
Ġcan	2120409
Ġwere	2087093
##ing	2053965
Ġ	2000312
."	1975483
Ġ1	1972054
Ġwhich	1950813
="	1915275
Ġhas	1878682
$	1856833
##e	1826683
4	1826611
Ġ+	1807745
Ġ{	1777318
Ġbut	1772088
ĊĠĠĠĠĠĠĠ	1714571
Ġwill	1707640
The	1700996
Ġhe	1699990
).	1669904
##ed	1663230
Ġall	1656263
?	1633343
Ġif	1618188
ĊĠ	1575080
Ġhis	1571296
Ġone	1567796
t	1555240
Ġ2	1534958
x	1528279
5	1525481
Ġthey	1506917
a	1427683
Âł	1412560
Ġtheir	1404600
Ġmore	1398296
I	1357625
**	1312750
A	1282547
Ġhad	1279809
_{	1271727
##a	1270632
##d	1266172
Ġ$\	1265702
Ġbeen	1263749
Ġalso	1227988
Ġyour	1226445
n	1225638
Ġ<	1211426
d	1208014
),	1195284
##y	1192456
i	1191108
##er	1190540
);	1184155
<	1183159
Ġabout	1175740
Ġwhen	1163735
Ġwould	1158863
Ġtime	1134959
Ġso	1133967
Ġthere	1131423
Ġout	1126843
't	1121211
ĠIn	1121157
Ġother	1110793
]	1108606
Ġ3	1105848
Ġmy	1082880
ĠâĢľ	1078687
Ġwho	1075782
B	1073869
=	1065515
Ġdo	1047804
Ġthan	1039365
##t	1033162
Ġno	1030875
^	1029572
'	1020793
Ġup	1020346
Ġ[	1018574
ĠA	1009992
##ly	1006953
6	993247
##o	992880
ĠĠ	988940
Ġits	982825
Ġinto	980501
Ġ}	968511
Ġ'	967862
Ġ&	964130
Ġour	945662
[	943190
Ġonly	939429
##r	938688
Ġtwo	935711
##n	934419
Ġher	926714
Ġsaid	925776
##0	916595
b	916277
Ġwhat	906511
Ġlike	904985
ĊĠĠĠĠĠĠĠĠĠĠĠ	904596
C	902693
Ġany	897040
p	896471
Ġsome	883496
Ġnew	882400
Ġmay	880813
ĠIt	871125
ĠThis	870410
8	867225
c	858311
##i	850649
Ġfirst	847159
Ġsuch	847080
##S	844429
Ġ4	833176
Ġthese	829162
S	825259
k	821988
m	819268
7	815743
Ġget	802385
##l	802271
Ġthem	798440
%	796922
Ġuse	777040
ref	777010
Ġthen	774086
Ġjust	767884
Ġme	766703
f	764014
Ġ5	762825
Ġafter	761997
Ġbetween	756703
ĠWe	752399
e	737068
type	736400
Ġover	732406
Ġused	720026
Ġwhere	716071
Ġcould	714447
Ġdata	711946
.,	709116
g	692509
ĊĠĠĠĠĠ	686399
Ġpeople	685163
+	678333
9	672604
Ġshe	670830
",	669125
##al	666309
Ġusing	663039
</	661341
in	657321
Ġbecause	654689
##es	636125
##on	635341
Ġshould	625445
R	624000
{\	619416
ĊĠĠĠĠĠĠĠĠĠĠĠĠĠĠĠ	616800
##A	615774
Ġ[@	614700
h	614073
10	613315
Ġwell	612511
F	608186
Ġv	605501
Ġhow	604288
#	603881
Ġ.	603705
E	601998
Ġmost	598755
Ċĉ	596396
r	594308
Ġeach	590850
Ġcase	588530
){	587662
##C	587219
D	583750
Ġhim	582980
Ġi	582871
Ġ|	578021
}\	577575
Ġ10	576180
j	575821
!	571781
Ġclass	568880
In	565542
Ġmake	554795
ĠHe	553496
Ġunder	552404
##k	545509
Ġthrough	543767
Ġwork	542182
Ġ@	539565
Ġsame	538195
##T	536900
Ġway	536319
ĊĊ	536056
Ġsee	527851
v	525393
Ġeven	524846
Ġthose	522149
Ġnow	521134
->	520858
Ġyears	519984
Ġvery	519947
##R	519860
frac	519149
Ġboth	516651
Ġknow	515676
##D	511187
Ġ_	510831
T	510049
##m	509251
Ġset	508814
Ġbeing	505755
Ġdid	502456
Ġmany	499021
Ġneed	497898
~	496954
Ġbefore	494990
##8	493354
Ġnumber	492725
##P	492483
Ġdifferent	491689
Ġreturn	490676
##in	490509
u	489362
?"	488516
Ġright	487735
Ġ6	486355
y	485639
()	482491
P	480112
âĢī	479595
Ġdon	477090
](#	476537
Ġback	474909
N	474441
Ġhere	474268
">	472146
##7	470287
##2	468216
::	466828
right	466537
}$	465501
##1	464694
ĠC	464646
left	464637
Ġus	464479
##M	461804
ĊĊĠĠĠ	460185
##3	458878
Ġmade	458773
##9	458555
Ġvalue	458488
ĠU	456333
ĠĠĠ	455895
fig	453197
##x	453052
Ġ\[[@	452581
Ġwhile	451746
ĠâĢĵ	450309
://	448977
Ġhigh	445892
Ġsystem	445639
H	445610
##6	445400
##\	444941
M	442903
Ġfound	442404
Ġ**	441894
##p	440614
##4	440558
ĠS	440166
##5	438748
Ġp	437138
L	436313
Ġmuch	436039
##ic	434524
âĢĿ	432975
Ġstudy	432234
##ti	432106
K	430937
##g	429635
Ġgood	429572
Ġstate	429528
.âĢĿ	429213
Ġthree	429134
Ġfunction	428043
":	426226
ĠIf	425614
Ġwant	425550
##h	425068
12	424832
Ġpatients	423185
Ġpublic	422941
com	419215
Ġwithout	418612
to	417864
ĠFor	417798
Ġduring	417447
Ġx	417367
Ġ//	416792
Ġcells	415973
We	414819
ĠLet	414196
Ġcourt	414080
--	412931
z	411867
Ġname	411481
##c	410550
the	409966
Ġdoes	407969
What	407106
_{\	406677
##E	405694
Ġthink	405586
Ġorder	403284
X	402610
,"	400787
Ġ:	399540
ĠF	397244
Ġyear	396117
Ġend	395218
11	394304
##ation	393833
##L	392613
q	390162
Ġpart	389025
Ġgo	388312
$,	387682
Ġgroup	387027
Ġ7	386696
##F	381963
Ġlong	381864
Ġagainst	381693
It	380590
Ġtake	375710
##ers	374575
Ġdown	374489
Ġstill	371643
Ġmust	371586
w	371315
Ġlast	368113
Ġ8	367752
$.	367744
Ġm	366652
("	366175
##B	365805
Ġtype	365721
##b	362382
ĠBut	361842
Ġinformation	361035
',	360482
##ta	359297
Ġday	355461
##en	354868
Ġsecond	354307
}{	353407
Ġ,	353385
Let	350316
##us	350191
ĠR	348949
##I	348929
get	347785
mathcal	347527
Ġresults	347038
##an	346289
Ġnon	345126
V	344140
l	344092
##u	340481
Ġfollowing	340352
();	339833
ĠAs	338884
//	337505
Ġfind	337060
W	337001
Ġal	336078
Ġoff	335151
ĠĠĠĠ	334671
##,	334645
(\	334420
Ġgoing	334385
This	334181
ĠJ	333679
...	332617
##N	332227
th	331408
##able	330126
Ġlife	329149
G	328608
ĠYou	328570
Ġwithin	328074
],	327921
##le	325601
ĠAnd	324528
].	324423
Ġaround	323402
'm	322190
end	322131
ĠB	322036
Ċĉĉ	321424
Ġpoint	321393
Ġsince	320232
)$	318907
Ġmodel	318723
Ġam	318698
âĢľ	317968
##G	317354
^{	317253
Ġe	316254
Ġ*/	315776
alpha	315535
ĠT	314985
Ġcontrol	314849
##ity	314774
Ġanother	314152
00	313228
,âĢĿ	309152
##f	308471
Ġ</	307655
ĠP	305910
Ġ#	305835
int	305645
Ġown	305364
Ġn	305219
J	304725
Ġexample	304627
Ġline	304518
##or	304070
Ġincluding	302561
Ġself	302428
]\].	302378
ĠE	301685
and	301641
Ġtest	300315
Ġtoo	300224
Ġ12	300023
Ġde	299816
Ġcell	299741
Ġevery	298854
Ġgiven	298230
âĢĵ	296451
You	296224
##H	295958
Ġshow	295735
##z	295551
ĠNo	295529
Ġhelp	295465
##ate	295380
ĠM	295368
Ġreally	294673
##O	294577
Ġmight	294501
Ġet	294154
Ġworld	293903
##v	292813
Ġsay	292732
Ġresult	292695
ĠHowever	292202
Ġprocess	291213
ĠThey	289795
Ġ{#	289606
000	289219
Ġfile	288992
Ġ$$\	288168
č	287879
Ġpresent	286719
Ġbased	285525
ĠL	285112
##X	285008
##te	283398
##V	283345
Ġsupport	283245
##ia	282575
're	282458
16	282100
20	281905
Ġ20	281835
ĠH	281282
15	280999
ĊĊĠ	280891
Ġt	280698
Ġform	280456
Ġ9	279880
ĠN	279731
Ġd	279716
ĊĠĠĠĠ	279483
ĠD	278589
ĠQ	278283
Ġhome	278161
##Y	277561
Ġbest	277502
Ġanalysis	277476
Ġ\[	277014
ĊĠĠ	276271
CR	276053
if	275828
|	275695
Ġnext	275151
ĠâĢĶ	274877
Ġper	274342
Ġevidence	274118
&	273416
\]	272601
Ġsomething	272176
Ġleft	272095
Ġc	271936
Ġchange	271182
Ġsmall	270024
Ġwhether	269902
Ġmethod	269861
Ġh	267345
##(	266823
Ġs	265747
ĠThere	264099
ĠWhat	263382
13	263184
Ġfact	262512
id	262144
ĠNew	261519
##ion	260427
Ġplace	260382
##W	260363
Ġimportant	259759
Ġpower	259506
Ġless	258838
Ġfew	258381
Ġbetter	257953
}(	257665
##nt	256835
Ġabove	256756
Ġlarge	256320
Ġlevel	255116
##K	254770
Ġtrue	253882
Ġwater	253512
,\	252740
âĢĶ	252572
Ġnever	252512
Ġy	252446
ĠX	251326
Ġ{\	251218
mathbb	250545
label	250427
mu	249249
Ġk	249160
Ġtreatment	248962
Ġdue	248920
Ġleast	248761
Ġlittle	248224
Ġcome	248115
Ġpossible	247883
text	247715
Ġg	247193
Ġ11	246632
32	246375
ĠTo	246186
div	246032
Ġthings	245955
Ġproblem	245499
14	245106
Ġlow	244633
Ġ15	244410
Ġf	243582
Ġr	243138
))	242217
Ġb	242200
Ġgreat	240855
Ġlook	239296
##et	239182
Ġlaw	239024
o	238742
U	238454
##.	238064
)\	237867
Ġfield	237732
Ġhaving	236299
Ġgive	236197
Ġdays	236150
!"	235975
Ġshown	235641
Ġcommon	235438
Ġgot	234120
begin	233875
O	233239
Ġtrial	233185
ĠShe	233160
##si	233117
##ies	232884
Y	232558
Ġeffect	232528
##is	232477
Ġgame	231542
ĠSo	231460
##-	230903
Ġfurther	230822
##ine	230513
name	230300
Ġcode	229421
data	229350
##ch	229244
##ng	228747
Ġsize	228494
('	228422
##"	228387
Ġhealth	228018
ĠĠĠĠĠ	227924
Ġ)	227412
Ġlet	227378
Ġ/	227330
Z	227086
Ġprovide	227081
Ġexpression	226788
Ġl	226520
or	225807
Ġalways	225793
Ġint	225743
Ġ--	225519
Ġcurrent	225411
##st	225184
Ġagain	224899
Ġfree	224438
Ġgovernment	224300
##w	224054
Ġeither	223743
Ġfour	223742
ĠK	223320
Ġknown	223156
##ive	222841
Ġcalled	222616
Ġside	221983
ĠState	221615
ĠThese	221579
Ġman	221235
Ġ30	221033
Ġuntil	220839
Ġsingle	220263
Ġavailable	220231
ĠUnited	220100
Ġfamily	220041
Ġhuman	219816
Ġlocal	219747
##ne	218974
01	218942
18	218807
ĊĠĠĠĠĠĠĠĠĠ	218575
Ġelse	218122
If	217887
ĠCourt	217862
##se	217543
Ġmeans	216675
Ġaction	216506
##man	216152
Ġ==	215951
aligned	215008
Ġvalues	214738
##)	214411
Ġmean	214379
ĊĊĠĠĠĠĠĠĠ	214310
Ġtimes	213984
Ġable	213878
Ġcases	213859
Ġchildren	213592
Ġtop	213504
Ġreal	213213
Ġseveral	213096
##ment	212947
##um	212785
Ġlight	212693
ĠAll	212664
ĠV	212181
Category	212014
ĠThat	211277
##sh	210917
Ġhigher	210467
usepackage	210434
ĊĠĠĠĠĠĠĠĠĠĠĠĠĠĠĠĠĠĠĠ	210410
Ġarea	210290
"}	210262
##ry	210160
Ġcare	210055
lambda	209547
pone	209312
##ist	209177
Ġstudies	209078
Ġteam	208658
Ġbody	208645
Ġtotal	208405
've	208313
Ġfull	207369
Ġput	207192
##id	207186
Ġ100	207155
Ġsignificant	207009
##ar	206941
Ġrate	206855
17	206505
##$	206384
Ġerror	206239
##ck	206187
Ġwhy	205836
this	205793
Ġpost	205624
##el	205303
Ġstart	205303
##na	205162
}$$	204879
re	204618
Ġrun	204223
Ġenergy	203890
ĠZ	203345
):	202758
Ġu	202550
##ss	202388
import	202282
Ġdidn	202137
ĠStates	201266
span	200310
Ġsimilar	200020
19	199636
Ġopen	199456
Ġalready	199304
Q	199281
ĠĠĠĠĠĠ	198583
##li	198295
ĠG	198260
##ness	198200
Ġperson	198200
ÃĲ	198038
##it	197531
He	197495
Ġlot	197396
Ġassociated	197392
ĠWhen	197385
Ġlevels	196924
Ġspace	196423
Ġ16	196026
30	195962
Fig	195899
Ġresponse	195615
Ġgeneral	195318
Ġfinal	195311
http	195142
##ll	193617
25	193595
pi	193327
Ġissue	192996
\[	192935
rm	192886
Ġquestion	192877
Ġdone	192711
Ġwomen	192697
Ġw	192642
Ġrequired	192548
'll	191842
Ġ14	191834
mathbf	191716
Ġaway	191704
Ġsays	191254
Ġhand	190886
Ġkey	190690
Ġ${\	190505
}_	190348
Ġcall	190203
><	190193
Ġoften	190035
Ġlist	189248
Ġspecific	188667
Ġterms	188106
Ġactivity	187838
ĠY	187404
Ġ=>	187278
Ġsure	186969
];	186921
##{	186339
##U	186321
##ie	186314
Ġgroups	185980
Ġhowever	185842
Ġ13	185809
Ġamong	185808
Ġfar	185603
@	185577
Ġreported	185378
ĠO	185291
Ġthing	185284
Ġconst	185188
Ġz	185087
##ated	185023
set	184648
Ġ`	184396
##Name	184120
Ġ%	184030
Ġlater	183840
Ġage	183525
To	183327
Ġread	183304
##to	183291
Ġcourse	182967
}}	182873
Ġenough	182816
##rs	182710
ĠOn	182485
##Type	182303
Ġtold	182099
##j	181661
Ġthough	181657
##de	181386
beta	181355
Ġposition	181325
org	180945
table	180876
Ġcompared	180871
},	180309
Ġalong	179694
ĠĠĠĠĠĠĠ	179326
sigma	179320
Ġworking	179273
Ġprovided	179187
Ġmaking	179110
As	178677
_\	178533
Ġinclude	178282
And	178234
Ġlower	177800
is	177619
return	177309
Ġvoid	177261
Ġupon	177128
Ġconditions	176808
Ġresearch	176791
##Q	176460
##J	176395
Ġrisk	176345
Ġweek	176324
Ġrole	176308
Ġ([	176308
Ġold	176249
##[	176073
string	176064
Ġrange	175961
##ter	175853
##ve	175746
##Z	175723
Ġpotential	175629
Ġsection	175063
Ċĉĉĉ	174642
ĠSee	174447
21	174389
Ġincrease	174329
Ġeffects	174166
But	174042
Ġ18	173937
Ġseen	173925
Ġsource	173727
##nd	173611
Ġhead	173525
Ġplay	173503
Ġdevelopment	173284
Ġchanges	173279
Ġdoesn	173020
Ġkeep	173016
Ġo	172377
For	172186
]).	172007
Ġ([@	171688
Ġmoney	171587
Ġtogether	171454
##q	171432
##ent	171362
Ġservice	171248
ĠâĢĺ	171201
##ty	171167
##th	170759
Ġimage	170630
Ġprotein	170601
##no	170582
Ġproperty	170557
64	170094
Ġincreased	169933
So	169910
Ġbecome	169897
Ġschool	169779
Ġprogram	169385
Ġfactors	169096
Ġmain	168763
Ġtry	168606
##ge	168568
Ġaddition	168557
Ġcannot	168357
Ġobserved	168280
li	168186
Ġlove	168130
Ġbusiness	168121
Ġj	168084
Ġparticular	167949
Ġdisease	167602
Ġthird	167349
sum	167291
www	167006
ĠUniversity	166767
ĠW	166733
}_{	166699
"}).	166673
Ġ50	166419
Ġaccording	166167
Ġmonths	166128
Ġuser	166126
of	165891
sec	165778
></	165373
Ġdoing	165275
05	165215
Ġmultiple	165012
Ġearly	164949
50	164703
##ized	164645
Ġcreate	164533
html	164157
Ġcountry	163769
Ġ24	163733
Ġadd	163203
Ġstructure	162870
for	162824
Ġdefendant	162637
^{\	162552
24	162352
Ġdescribed	162117
mathrm	161853
Ġprivate	161832
Ġview	161830
###	161473
##ism	161292
sqrt	161142
##*	161015
Ġpositive	160979
Ġactually	160956
td	160692
##da	160561
Ġcompany	160493
Ġpoints	160444
Ġversion	160367
ĠAt	160292
Ġthought	159969
Ġobject	159771
##re	159750
Ġbase	159714
##ant	159682
Ġsurface	159387
22	159367
Ġcontent	159307
ĠĠĠĠĠĠĠĠ	158985
Ġacross	158973
No	158256
Ġothers	158109
Ġreport	158019
Ġshort	157915
##at	157651
There	157615
##ization	157393
}^{	157264
Ġrather	156963
Ġcame	156937
##;	156909
Ġonce	156769
##sa	156532
##ce	156340
Ġhard	156304
Ġmatter	155866
Ġstring	155827
gamma	155767
Ġfive	155562
Ġlikely	155509
Ġmen	155449
Ġid	155389
Ġ>	155002
Ġshows	154979
Ġ25	154663
Ġmillion	154648
Ġperformed	154566
Ġperiod	154481
Ġshowed	154453
Ġbelow	154370
Ġamount	154343
Ġclear	154286
##est	154236
ĠAmerican	154236
pm	154102
delta	153876
Ġfeel	153847
Ġbig	153589
Ġterm	153458
##ating	153441
Ġpast	153431
##ra	153357
##os	153315
Ġsystems	153147
Ġstandard	152859
---	152778
ĠGod	152622
Ġsite	152580
Ġfalse	152359
Ġcause	152196
Ġobtained	151768
Ġseason	151657
Ġtook	151567
Ġfactor	151538
Ġanti	151511
Ġmakes	151430
Ġ(*	151111
##la	150523
bib	150220
Ġfood	150155
.)	150130
Ġever	150128
value	149997
Ġapplication	149938
Ġvarious	149934
Ġcancer	149628
Ġexperience	149471
Ġinterest	149320
Ġsocial	149272
Ġ$(	149177
Ġwhole	149163
##as	149010
ĠOne	148902
##ian	148774
'd	148759
Ġtaken	148505
Ġconsidered	148115
Ġfuture	148052
Ġadded	148052
Ġbelieve	147894
Ġrelated	147887
Ġq	147684
class	147192
\_	147104
Ġyet	146993
Ġaccess	146850
##ure	146772
Ġtext	146750
##ns	146720
##ma	146519
Ġdefined	146136
)(	145531
Figure	145019
80	145018
ĠUS	144975
##{\	144864
##tr	144805
Ġproject	144492
Ġre	144343
Ġapproach	144018
ĠThen	143709
##_	143700
Ġsolution	143372
ve	143161
Ġcommunity	143154
ĠAfter	143148
partial	143041
rho	143029
Ġblood	142921
Ġbit	142639
23	142631
##ci	142597
Ġmajor	142591
Ġstates	142548
Ġ17	142479
Ġminutes	142432
100	142424
Ġwent	142376
Ġkind	142227
%)	142015
ĠAn	141681
Ġdecision	141449
Ġindividual	141304
}^	140956
Ġdevice	139931
Ġtrying	139631
Ġincluded	139551
##ial	139478
Ġreason	139423
^{-	139102
Ġclose	138824
Ġtoday	138538
##mo	138456
Ġmembers	138303
##:	138244
Ġ},	138190
##ling	138068
phi	137994
Ġmaterial	137982
Ġrespectively	137953
Â°	137948
Ġregion	137856
theta	137845
Ġvia	137649
ĠĊ	137588
ĠIs	137575
bar	137538
Ġchild	137319
)/	137277
##tor	137245
ÂĤ	137204
],[@	137187
Ġreceived	137137
[@	137046
Ġwon	136951
Ġadditional	136784
Ġsimple	136741
Ġcity	136337
Ġanything	136180
Ġevent	136173
Ġsignificantly	136171
Ġpatient	136016
`	135817
Ġpercent	135801
include	135701
Ġface	135593
Ġcertain	135567
omega	135271
Ġnormal	135089
Ġhalf	135081
Ġnull	135030
Ġgrowth	134848
Ġclaim	134698
ĠĠĠĠĠĠĠĠĠ	134677
Ġ\\	134630
##'	134388
Ġneeds	134291
##}	134197
Ġasked	134181
##ey	133724
Ġdeath	133685
Ġreview	133615
")	133448
Ġgetting	133411
");	133081
Ġnight	133048
Ġhistory	133010
##ot	132507
tau	132419
##/	132321
Ġproduct	132027
Ġlooking	131899
leq	131704
Ġroom	131566
##ct	131447
Ġdifference	131411
ĠMr	131343
Ġhref	131156
Ġmethods	131072
Ġpay	131071
001	131059
Ġseries	130973
Ġparty	130964
##ton	130818
Ġperformance	130738
Ġtarget	130541
Ġproblems	130376
Is	130321
##il	129985
based	129967
Ġrecord	129961
Ġthus	129772
Ġmass	129535
Ġissues	129500
Ġinvolved	129491
Ġcar	129335
Ġnetwork	129278
Ġalmost	129212
Ġprevious	129025
Ġnothing	128921
Ġhours	128781
Ġcost	128691
Ġcheck	128685
Ġservices	128661
Ġla	128634
Ġtherefore	128587
infty	128578
code	128356
Ġair	128356
Ġneeded	128349
Ġexpected	128340
times	128292
Ġ21	127917
40	127819
Ġpolice	127803
Ġheld	127480
Ġ(-	127386
Ġconsider	127275
Ġpopulation	126917
Ġinstead	126847
##ting	126814
Ġpaper	126799
ĠBy	126760
Ġweight	126748
Ġcomplex	126674
##age	126438
year	126413
ĠÂ§	126367
Ġtell	126060
Ġ19	125975
##lo	125897
Ġidea	125859
ĠDr	125690
How	125674
Ġrecent	125656
##=	125554
##ts	125553
Ġproduction	125481
}{\	125415
Ġlines	125374
When	125306
Ġseems	125137
see	125082
##up	125049
Ġunderstand	125028
##co	124976
Ġdesign	124884
Ġgene	124850
Ġmove	124845
Ġstep	124840
Ġspecial	124780
Ġ...	124543
Ġloss	124538
##lu	124286
Ġjob	124271
Ġcondition	124076
ĠMy	123891
Ġmotion	123797
Ġ60	123662
Ġpre	123633
https	123617
Ġprior	123561
##di	123390
Ġplan	123356
Ġtable	123344
Ġcomes	123309
Ġpage	123265
Ġstudents	123157
test	123141
Ġmedia	123098
Ġfilm	123018
Ġvar	122970
size	122842
Ġhouse	122796
Ġlive	122713
eq	122683
Ġlead	122561
##hi	122543
Ġquality	122533
##ous	122500
Ġsomeone	122383
$-	122326
Ġmodels	121860
Ġtaking	121838
27	121808
Ġmarket	121707
Ġmind	121569
Ġstarted	121452
ĠYork	121417
Ġblack	121411
Â±	121158
Ġpath	121007
nu	120932
time	120923
Ġsignal	120859
Ġprovides	120854
Ġdistribution	120688
Ġpolicy	120637
Ġstrong	120636
##io	120613
Ġitself	120548
##Id	120512
Ġstory	120394
ĠThus	120387
ĠNational	120363
Ġnecessary	120306
âĢ¦	120225
ĠInc	120178
ĠSt	119962
Ġheart	119754
##ol	119590
##ical	119419
Ġaverage	119379
st	119252
on	119078
09	119078
Ġ/*	118901
ĠTHE	118893
Ġworks	118816
Ġoriginal	118700
##ator	118668
/*	118595
up	118573
##ke	118499
Ġrights	118412
ĠTrump	118388
##ize	118372
##am	118293
ĠCo	118247
Ġprobably	118091
Ġ||	117984
Ġphase	117699
new	117625
Ġturn	117551
Ġshall	117376
##ble	117330
Ġclinical	117225
Ġallow	117122
define	117058
Ġsample	117050
self	117006
08	117000
Ġaccount	116907
##bi	116757
ĠMay	116531
Ġfunctions	116300
That	116276
Ġlength	116259
Ġproducts	116204
Ġsimply	116195
Ġ40	116081
Ġ22	116033
02	115984
Ġmedical	115983
Ġsequence	115943
ĠOF	115893
28	115782
##ni	115707
Ġespecially	115550
Ġyoung	115544
Ġtemperature	115438
Ġoutside	115400
Ġwords	115361
Ġcolor	115191
log	115173
var	115104
On	115081
ĠWith	114981
param	114948
Ġrest	114943
Ġproperties	114751
ĠĠĠĠĠĠĠĠĠĠ	114732
Ġstatic	114706
Ġinput	114656
##ee	114611
##Data	114458
ll	114408
Ġinside	114359
Ġ!=	113991
Ġaddress	113922
Ġcomplete	113908
hat	113789
##son	113680
key	113644
Ġnear	113596
Ġsix	113503
Ġpressure	113498
Ġpresence	113490
60	113445
ĠCity	113373
45	113325
Ġdetermined	113269
Ġelement	113238
add	113216
Delta	113205
]\]	113161
Ġbook	113026
Ġsense	112848
^\	112710
Ġevents	112619
26	112588
Ġco	112515
##ide	112427
Ġgenes	112408
*,	112376
Ġfollow	112376
##less	112271
##View	112224
##ance	112180
Ġpolitical	111954
Ġfront	111683
Ġarray	111609
Ġdate	111571
##ur	111465
Ġwhite	111214
##mp	111179
Ġeffective	111178
Ġtypes	111109
<UNK>	111087
Ġoutput	110968
Ġprimary	110953
Ġstop	110803
Ġlanguage	110776
Ġrespect	110771
px	110760
Ġsubject	110568
Ãĳ	110501
Ġeverything	110386
Ġ&&	110339
Ġbreak	110191
##ad	109903
Ġphysical	109666
Ġfeatures	109639
ĠÂ±	109625
Ġlonger	109608
Ġdetermine	109293
Ġpresented	108872
Ġeasy	108866
##|	108767
min	108731
##^	108616
Ġjudgment	108551
Ġquite	108536
Ġidentified	108455
Ġcreated	108442
35	108373
Ġbad	108368
ĠAct	108323
Ġrunning	108212
##ea	108097
Ġsamples	108037
Ġcross	107988
Ġstatus	107969
));	107925
##tt	107925
##ff	107899
003	107884
Ġbasis	107846
ĠĠĠĠĠĠĠĠĠĠĠ	107841
ĠString	107765
Ġ$$	107756
ĊĠĠĠĠĠĠĠĠĠĠĠĠĠĠĠĠĠĠĠĠĠĠĠ	107716
##>	107700
Ġformer	107699
##]	107637
##one	107561
Ġisn	107497
##ga	107424
Ġparameters	107384
Ġwanted	107253
31	107162
Ġmember	106990
Ġfollows	106981
}}\	106947
##tic	106842
public	106835
Ġstatement	106810
##ki	106729
Ġground	106691
čĊĠĠĠ	106640
##ID	106569
])	106483
as	106463
Ġpersonal	106390
Ġareas	106240
Âĥ	106221
Ġvideo	106125
Ġago	106043
##me	105880
($	105843
##rt	105839
##+	105793
ĠLicense	105755
##line	105613
Ġindex	105518
Ġinitial	105472
Ġelements	105448
Ġweeks	105178
Ġdirectly	105064
]{}	104958
Ġ23	104845
##per	104578
Ġquestions	104497
Ġsearch	104409
le	104401
##ha	104366
Ġrequest	104250
Ġrelationship	104229
Ġred	104218
Ġnatural	104149
03	104039
ĊĠĠĠĠĠĠ	104009
Ġmemory	103907
Ġtraining	103753
Ġforce	103752
##ary	103554
Ġgames	103549
##ut	103449
')	103427
Ġtheory	103365
My	103234
##ba	103206
Ġtax	103092
Ġmice	102931
##ally	102885
)}	102736
Ġacid	102673
Ġcontext	102642
Ġgas	102633
##ase	102544
##To	102492
##ka	102404
Ġ(\[	102353
no	102342
Ġcontinue	102225
29	102184
Ġmap	102050
Ġnational	101938
ĠDNA	101804
rangle	101799
xi	101590
Ġnews	101543
Ġbuilding	101536
##ER	101510
##ful	101509
Ġbehind	101496
Ġunit	101386
Ġdeal	101342
Ġstyle	101327
04	101232
tilde	101205
##ue	101195
Ġsub	101159
##ip	101146
Ġgreater	101029
##ise	100968
Ġapplied	100852
Ġdifficult	100800
##za	100791
33	100715
##ir	100704
Ġlimited	100591
ĠSuppose	100533
Ġflow	100505
##ro	100502
Ġmonth	100340
Ġrelease	100294
Ġrequire	100292
Ġdistrict	100178
Ġpreviously	100166
bf	100094
Ġsaw	100077
ĠOur	100011
Ġtitle	99961
Ġwrong	99933
Ġincludes	99902
Ġreduced	99878
pt	99858
ĠCD	99790
ĠTherefore	99701
Ġdrug	99646
array	99546
const	99503
Ġability	99430
Ġinvention	99299
eta	99285
Ġbar	99277
Ġmessage	99231
Ġword	99208
ĠJohn	99153
Ġlayer	99123
##ho	99081
Table	99011
Ġ28	98930
Ġdef	98927
Ġknowledge	98840
Ġclaims	98744
Ġdeveloped	98688
Ġarticle	98589
##<	98577
Ġbuild	98529
Ġoil	98434
cdot	98406
âĢĲ	98365
out	98256
Ġindependent	98254
}$,	98108
Ġcontact	98010
Ġimpact	97997
\])	97903
##Ã©	97868
:**	97830
Ġetc	97795
ĠPresident	97791
}(\	97707
void	97595
Ġsoftware	97574
##sp	97539
Ġwar	97524
Ġwrite	97523
Ġhttp	97491
##ite	97465
ÃĤ	97240
##ler	97136
Ġnegative	96973
tr	96970
ĠII	96968
Ġ2012	96755
Ġnumbers	96650
95	96647
Ġplayers	96624
Ġdouble	96621
Ġcut	96591
Ġwritten	96583
file	96455
Ġcoming	96388
Ġreference	96381
Ġfollowed	96263
Ġleave	96205
##ay	96135
Ġparticularly	96082
().	96037
ĠCounty	96007
##do	95967
Ġactive	95877
##List	95876
ĠSince	95802
Ġlate	95626
Ġdirect	95610
Ġblock	95388
Ġobtain	95367
Ġsecurity	95340
ĠWhile	95290
ĠHis	95194
Ġnature	94979
Ġforward	94954
ĠHere	94946
Ġdefault	94932
from	94686
Ġcorresponding	94497
ĠDo	94479
Ġ[*	94434
Ġentire	94409
Ġnote	94155
Ãĥ	93997
Ġspecies	93983
Ġglobal	93974
Ġusually	93973
width	93910
Get	93777
Ġrule	93714
Ġrates	93648
Ġdifferences	93628
Ġ2013	93538
69	93533
Ġliving	93514
##yl	93457
Ġoffice	93426
Ġanswer	93339
Ġalthough	93309
Ġwhose	93193
##vi	93137
##ED	93099
36	93085
](	93078
Ġhold	93031
Ġpractice	92994
ĠWorld	92959
06	92953
})	92932
Ġtried	92932
Ġ2016	92853
##log	92814
##ons	92804
Ġargument	92797
Ġonline	92674
##Value	92425
at	92244
Ġgenerally	92216
".	92191
Ġlost	92183
90	92081
Ġrecently	92070
Ġ2014	92039
psi	91876
##ner	91827
07	91809
Ġlegal	91805
Suppose	91689
Ġthemselves	91679
ĠSouth	91612
";	91596
Ġplaintiff	91572
ĠHouse	91540
Ġanyone	91512
##ING	91483
Ġfederal	91460
Ġhope	91436
Ġtakes	91355
##ists	91339
Ġsaying	91322
ĠAmerica	91316
Ġproposed	91269
Ġcountries	91248
ĠSome	91221
}$.	91217
All	91217
Ġagreement	91120
Ġpurpose	91110
ĠMarch	91099
Ġpain	90875
ĠĠĠĠĠĠĠĠĠĠĠĠ	90746
ĠFig	90742
Ġshare	90708
ĠâĪĴ	90682
Ġsituation	90598
##land	90542
55	90540
Ġdensity	90523
Ġ26	90510
not	90421
75	90419
Ġ/>	90413
Ġbrain	90351
70	90250
She	90220
Ġcenter	90202
Ġtreated	90195
##mi	90121
ĠChina	90015
##Ġ	89977
Ġhimself	89851
##ile	89845
##va	89742
ĠNot	89681
44	89558
-\	89543
ĠHow	89463
Ġland	89427
Ġenvironment	89100
Ġ2015	88809
Ġcharge	88806
##les	88795
##ec	88785
Ġbecame	88716
ĠDepartment	88684
Ġrelative	88609
Ġpretty	88519
..."	88440
it	88434
String	88411
epsilon	88383
Ġways	88349
with	88277
Ġprice	88195
##so	88007
Ġfailed	87960
42	87950
Ġoffer	87891
##nc	87871
Ġpublished	87796
Ġtalk	87768
34	87647
![	87612
Ġlimit	87592
Ġun	87579
Ġdi	87496
Ġ);	87351
Ġact	87267
Ġfocus	87237
varepsilon	87209
Ġhighly	87169
Ġwoman	87163
99	87160
Ġnode	87153
ĠNorth	87127
Ġfindings	86937
Ġderivative	86835
Ġallowed	86822
Omega	86775
Ġselected	86631
##ish	86574
##der	86499
Ġdegree	86478
old	86459
Ġ80	86449
ĠĊĠĠĠĠĠĠĠĠĠĠĠĠĠĠĠ	86448
Ġcontract	86386
ĠOR	86338
Ġcomponent	86266
##ping	86235
##bl	86191
Ġgave	86186
Ġstage	86131
ĠFirst	86113
ĠSystem	86101
document	86087
ĠGeneral	86027
Ġlarger	86002
Ġdesigned	85987
Ġmeasured	85985
like	85982
)=	85899
Ġinstance	85894
Ġoperation	85884
Ġprime	85876
Ġbring	85865
Ġjury	85831
Ġart	85781
Ġconstant	85745
##rd	85714
Ġ?	85633
Ġdetails	85622
Gamma	85600
53	85505
##out	85460
Ġindividuals	85425
.'	85402
##ap	85310
Ġwasn	85302
Ġeveryone	85297
Ġpass	85257
Ġimages	85167
Ġcurrently	85051
list	85040
Ġcaused	85027
Ġ2011	85003
Ġalone	84996
Ġmoment	84848
Ġlocation	84827
Ġbackground	84762
Ġfriends	84745
Ġproteins	84631
Ġ///	84628
ĠJune	84580
that	84575
Ġ27	84464
##ities	84462
ĠNow	84425
Ġgives	84403
Ġ2010	84399
Ġbehavior	84298
Ġ:=	84281
function	84273
Ġask	84266
At	84256
Ġeyes	84241
Ġcomponents	84225
ĠLa	84213
43	84203
Ġscale	84198
Ġdirection	84192
ĠAlthough	84189
Ġ[**	84183
Ġratio	84143
(-	84118
Ġfiles	84080
Ġattention	84041
##nn	84036
##ep	83884
Ġmatrix	83882
48	83847
Ċĉĉĉĉ	83813
ell	83773
Ġchoice	83768
##</	83711
Ġrequires	83697
+\	83656
Ġ;	83617
##ard	83539
##izing	83499
Ġsent	83409
Ġfixed	83386
Ġappropriate	83385
Ġ90	83329
##ative	83260
51	83254
Ġcompanies	83170
čĊ	83057
Ġapp	83033
Ġbegan	83027
Ġknew	83016
Ġ2017	82876
##ted	82800
52	82789
Ġhit	82775
Ġcharacter	82748
Ġleading	82740
Ġfine	82692
Ġoptions	82691
Ġled	82647
Ġdisplay	82583
item	82541
Ġseem	82505
Ġfailure	82417
Ġmother	82374
Ġmanagement	82276
##ca	82235
Ġhost	82222
Ġsuper	82164
=\	82142
Ġfinancial	82127
Ġfrequency	82102
Ġusers	82081
Ġunique	82036
##op	82002
Ġ->	82000
__	81990
Ġeducation	81874
##mer	81647
##go	81585
Ġcentral	81527
Ġtechnology	81523
##ko	81456
##ks	81413
Ġcontains	81386
Ġson	81371
ĠĠĠĠĠĠĠĠĠĠĠĠĠ	81252
Ġen	81235
Ġgoal	81191
ĠIS	81166
Ġwin	81107
Ġdivided	81090
Ġheat	81037
Ġcompletely	81008
Ġincreasing	80968
$\	80948
##ya	80906
..	80884
Ġpattern	80853
Ġcosts	80790
}}$	80785
Ġcount	80782
Ġlack	80734
Ġconnection	80710
un	80653
Ġorg	80542
Ġ29	80504
Ġparts	80473
(),	80438
##min	80430
Ġapply	80345
Ġindustry	80290
Ġparties	80283
Ġserver	80250
Ġexpect	80230
Ġoption	80226
ĠJanuary	80217
##hr	80213
ĠApril	80166
##sc	80163
Ġsuggest	80108
##ps	80062
65	80059
Ġweb	80039
Ġdistance	80032
Ġequal	79944
Ġearlier	79898
ĠLe	79768
##ley	79742
Ġstress	79726
Ġmode	79626
Ġexpressed	79577
Ġuseful	79556
Ġ70	79525
Ġ\<	79523
##ors	79502
ĠJuly	79491
Ġoverall	79483
Ġextra	79442
Do	79375
##CA	79301
##ier	79282
Ġsupported	79274
ĊĠĠĠĠĠĠĠĠ	79236
Ġgenerated	79231
varphi	79174
Ġestablished	79105
Ġstated	79095
js	79083
Ġallows	79067
Ġ^	79029
Ġmet	78991
Ġdevices	78981
38	78927
max	78907
čĊĠ	78882
##zi	78825
Ġeasily	78732
\\	78685
An	78682
user	78660
Ġstay	78650
58	78618
Ġ<<	78575
Ġsites	78421
"><	78393
ĊĊĊ	78369
Ġcontaining	78361
They	78319
Ġreasons	78316
49	78215
##ology	78202
Ġ31	78166
Ġreduce	78136
Ġfinding	78091
Ġvs	78070
Ġsoon	77958
Ġfire	77948
ĊĠĠĠĠĠĠĠĠĠĠĠĠĠ	77816
Ġ!	77801
Now	77796
Ġhighest	77774
Ġmeasure	77765
##nce	77758
ĠWest	77752
Ġcritical	77744
Ġcopy	77736
##gen	77727
39	77725
Ġlocated	77721
());	77718
Ġparameter	77536
Ġcorrect	77528
ĠCir	77508
Ġproduced	77507
Ġactivities	77431
ĠDi	77393
Ġeconomic	77384
##&	77352
path	77346
Ġexcept	77311
Ġstaff	77237
Ġfiled	77202
index	77162
Ġnotice	77147
Ġlink	77116
67	77101
Ġfelt	77094
ĠIN	77078
Ġrelevant	77066
be	76923
Ġclearly	76913
Ġactual	76902
##ow	76851
ĠOr	76832
Ġauthors	76755
){#	76747
Ġmin	76710
Ġskin	76633
##AL	76626
Ġstore	76586
Ġvariable	76562
Ġappeal	76559
##cy	76554
Ġopinion	76537
ĠAND	76493
ĠId	76449
##bo	76437
Ġcampaign	76363
One	76315
Ġsign	76274
Ġ($	76242
Ġbox	76182
čĊĠĠĠĠĠĠĠ	76045
57	76035
Ġwriting	76027
Ġbinding	75991
Ġshowing	75939
Ġwebsite	75819
Ġspeed	75795
Ġpresident	75737
86	75673
Ġinjury	75672
._	75659
Ġchanged	75651
La	75644
##%	75632
Ġbrought	75624
Ġlearn	75613
Ġboard	75609
Ġunderstanding	75536
overline	75447
##ability	75435
Ġmatch	75426
Ġchar	75394
59	75386
Ġreceive	75367
Ġsmaller	75363
Ġlearning	75337
##pe	75316
Ġgoes	75294
Ġ2008	75288
Ġuses	75218
Ġexperiments	75172
Ġitems	75122
term	75106
Ġhands	75099
langle	74976
Ġwidth	74969
Ġappears	74960
Ġrules	74925
Ġvector	74888
operatorname	74861
Ġ32	74859
Ġfast	74770
Ġlooks	74676
ĠSp	74668
Ġbeyond	74658
Ġheard	74634
Ġcomputer	74614
Ġremains	74598
base	74584
Ġdoor	74583
Ġculture	74583
Ġwide	74579
)$.	74552
Ġ95	74503
Ġ__	74493
ĠAm	74442
Ġbuilt	74438
##ium	74349
ĠFrom	74337
##ice	74323
='	74300
Ġplease	74281
state	74227
Ġcouple	74218
##ger	74206
Ġhearing	74206
##ģ	74160
Ġmeet	74143
##mb	74131
Ġmorning	74064
ĠData	74048
Ġtumor	73956
72	73920
Ġinternal	73905
Ġlooked	73899
Ġturned	73814
Ġworked	73729
Ġauto	73681
âĢĥ	73677
all	73671
Ġtowards	73666
\].	73622
fn	73580
##ST	73479
Ġmajority	73455
Ġcommand	73379
##ig	73360
Ġones	73351
Ġappear	73278
Ġproduce	73221
Ġregarding	73202
Ġfall	73200
Ġvariables	73197
Ġdecided	73134
ĠHealth	73112
\'	73050
41	73049
Ġexists	73002
title	72950
Ġtherapy	72875
Ġbenefits	72821
##Key	72811
"/>	72809
##00	72804
Ġfully	72771
)^	72745
Ġimprove	72718
Ġle	72713
ĠDistrict	72675
##met	72671
Ġ2009	72641
Ġconcentration	72637
Ġtissue	72591
cm	72576
ĠAugust	72532
Ġparents	72502
Ġreports	72466
Ġtransfer	72465
Ġtask	72427
Ġrandom	72419
Ġmilitary	72419
##10	72382
Ġresulting	72363
37	72354
}_{\	72310
mm	72282
Ġfather	72102
Ġexactly	72065
":"	72051
Ġprevent	71972
ĠPhys	71959
Ġpoor	71933
Ġcontrast	71930
Ġindicated	71897
line	71883
Ġandroid	71862
ĠGo	71858
Ġlinear	71853
Ġerr	71848
Ġvolume	71836
Ġcounsel	71806
Ġnor	71802
Ġinfection	71792
ĠOctober	71775
##rr	71735
94	71709
Ġsetting	71704
Ġmedium	71698
ĠPM	71687
Ġwrote	71685
Ġinteresting	71567
##ls	71493
88	71464
Ġ45	71410
Ġ(\	71307
ĠTO	71303
he	71275
##Object	71266
Ġmaterials	71232
Ġzero	71221
chi	71219
Ġreading	71176
Ġvehicle	71152
##ence	71117
Ġplayed	71096
java	71083
ĠSeptember	71082
Ġfeature	71076
Ġadministration	71058
ĊĊĠĠĠĠĠĠĠĠĠĠĠ	70950
Ġscore	70938
ĠSan	70899
Ġgets	70862
nbsp	70857
Ġstd	70826
free	70812
Ġavoid	70808
ĠDecember	70802
54	70789
Ġdefine	70786
Ġcolumn	70785
Ġmeeting	70703
Ġseparate	70681
##pa	70645
Ġfields	70630
Ġ2018	70549
Ġreasonable	70537
app	70529
##Info	70528
ĠĠĠĠĠĠĠĠĠĠĠĠĠĠ	70517
Ġvisit	70461
Ġproof	70393
)).	70381
##Ī	70381
##im	70377
ĠUSA	70358
##ex	70349
Ġreaction	70307
Ġplayer	70288
63	70261
Ġconstruction	70255
Ġfit	70245
61	70211
81	70177
*~	70161
Ġheight	70149
Ġfriend	70136
Ġstarting	70108
Ġapplications	70108
92	70088
ĠIL	70036
static	70032
##om	69986
Ġmaximum	69878
Ġthroughout	69874
Ġlives	69866
*.	69861
}=	69859
Ġparticipants	69812
Ġchance	69789
Sh	69787
Ġexist	69741
True	69713
Ġnoted	69711
Ġdamage	69696
Ġprocesses	69687
by	69679
Ġregions	69628
Ġdomain	69617
Ġ]	69617
ĠBe	69614
Ġdrive	69609
Ġformation	69596
Ġconnected	69538
56	69528
Ġ/**	69489
##**	69478
big	69473
Ġsafety	69462
Ġclosed	69460
ĠAl	69452
}^{\	69393
##ins	69325
Ġbecomes	69321
Ġformed	69310
ĠÃĲ	69293
ĠBecause	69291
68	69287
Ġinternational	69231
Ġsources	69225
##String	69165
##by	69155
Ġsuccess	69139
ĠMore	69090
Ġitem	69081
def	69073
Ġrec	69066
Ġphone	69031
sub	68991
Ġtests	68973
73	68941
Ġdocument	68930
Ġrevealed	68925
##File	68874
Ġinteraction	68856
##fi	68805
Ġsex	68765
002	68758
Ġradio	68698
ĠSection	68676
Ġinfluence	68648
##ver	68594
##name	68549
true	68523
Ġotherwise	68510
Ġbasic	68510
Ġcollection	68509
74	68476
ĠNovember	68464
##ified	68463
##ara	68395
ĠCenter	68348
)*	68312
Ġsl	68311
47	68257
struct	68253
Ġequation	68244
Ġimmediately	68237
Ġfunctional	68231
':	68216
##and	68210
sim	68191
en	68173
sp	68140
ĠMoreover	68072
Ġroot	68067
cr	68040
['	68031
After	68029
##Ħ	67992
Sec	67976
##ped	67968
Ġcover	67896
Ġwindow	67894
Ġactions	67887
##Path	67860
Ġreduction	67823
71	67820
Ġreleased	67809
ĠWashington	67712
##ĳ	67679
Ġdefense	67664
which	67624
Ġopportunity	67616
Ġresistance	67605
Ġtoward	67583
Ġbuy	67574
Ġpaid	67541
};	67523
ĠWar	67513
my	67500
vec	67485
Ġgiving	67482
Ġmechanism	67480
ĠĠĠĠĠĠĠĠĠĠĠĠĠĠĠ	67453
ĠOf	67417
cal	67403
Ġcombination	67358
Ġstar	67226
');	67220
97	67219
Ġroad	67203
input	67140
Ġblue	67127
Ġtool	67110
##led	67097
Ġconsistent	67087
Ġhospital	67067
top	67061
Ġdeep	67059
Ġtesting	67057
Ġidentify	67057
Ġfigure	67021
Ġcomment	66961
##¡	66942
##ķ	66899
##qu	66857
Ġrelatively	66815
Ġten	66797
Ġforms	66721
mathfrak	66720
Ġensure	66697
br	66693
Ġsometimes	66693
85	66642
Ġsolid	66592
Ġresources	66591
Ġ35	66541
82	66514
geq	66505
Ġfun	66501
##NG	66476
Ġbottom	66471
Ġrace	66422
######	66414
Ġwall	66393
php	66332
Ġquickly	66301
Ġclient	66287
Ġplant	66277
##ze	66272
Ġmiddle	66238
83	66223
46	66206
Ġchoose	66205
62	66181
Ġremove	66180
ĠApp	66168
##ations	66166
*-	66134
Ġex	66134
Ġprove	66125
77	66118
##Size	66113
Ġthinking	66093
Ġmulti	66087
##TE	66076
Ġ(**	66071
##fe	66066
Ct	66050
}}_	65960
98	65902
Ġmyself	65896
length	65878
66	65847
Ġprocedure	65844
Ġsound	65804
96	65793
Ra	65735
Ġplaying	65727
Ġtrade	65714
Ġcore	65705
ĠTable	65701
93	65697
##ning	65665
Ġnearly	65636
Ġbenefit	65605
Ġonto	65604
76	65601
ĠSchool	65590
ĠObama	65535
Here	65517
Ġportion	65508
Ġproviding	65481
Ġmovement	65466
Ġready	65453
Ġmoved	65444
##ber	65441
ĠMan	65428
Ġdetected	65424
Ġsafe	65419
Ġagree	65412
Ġborder	65410
Ġchannel	65403
Ġhappened	65396
Ġdatabase	65391
Ġconducted	65372
App	65331
Ġhair	65323
Ġque	65311
Ġmoving	65256
Ġregular	65239
Ġexisting	65221
Ġobjects	65217
Ġsteps	65155
)$,	65123
ĠPat	65120
##ible	65095
##ular	65083
Ġstand	65072
##lin	65067
ĠGu	65037
##rm	65022
Ġhappen	65000
Ġreach	64998
78	64969
89	64959
Ġcom	64957
##end	64941
Ġdaily	64920
dev	64918
ĠCalifornia	64893
##Ļ	64888
ĠTi	64870
Ġcalculated	64808
Ġfacts	64787
ĠRed	64767
##ph	64765
Ġda	64761
net	64688
##ĊĠ	64682
Ġfinally	64676
Ġanimals	64606
ĠHer	64605
Bo	64604
Ġupper	64550
##ess	64533
##ION	64528
ĊĊĠĠĠĠĠ	64527
str	64499
Ġindicate	64485
Ġsort	64457
Ġyourself	64428
color	64423
read	64422
Ġtown	64410
Ġattack	64407
84	64373
Ġdemonstrated	64294
^{(	64265
Ġnearest	64258
Ġemail	64238
##be	64228
##gh	64197
ĠWhite	64187
co	64185
Ġworth	64183
())	64120
##ain	64109
ĠDe	64067
##den	64063
##fa	64028
ĠAlso	64013
##men	63962
Ġunits	63924
Ġserious	63924
Ġbegin	63889
##Item	63881
Ġdefinition	63862
##ual	63826
Ġcomments	63820
em	63813
Ġremain	63813
node	63769
,-	63759
Ġperfect	63694
ĠPublic	63664
ĠNULL	63645
Ġremember	63597
image	63550
Ġmg	63550
)-	63539
##?	63534
ĠID	63485
Ġshape	63478
an	63476
]:	63452
Ġcapacity	63437
Ġseven	63400
##ging	63396
##ja	63371
Ġcarried	63324
Ġ~	63318
Ġsufficient	63317
Ġremoved	63315
Ġmachine	63279
Ġreplacement	63272
Ġplaced	63254
Ġprocessing	63251
##sm	63199
Ġhot	63191
Ġmanner	63137
With	63114
ĠGa	63109
rightarrow	63061
%,	63021
##dd	63007
##lt	62970
##ms	62960
Ġvariety	62957
quad	62952
Ġsets	62946
##Exception	62910
Ġperform	62891
Ġrepresent	62883
##que	62878
##ised	62865
Ġwife	62842
.[	62823
Ġpackage	62822
Ġsend	62819
##Ĩ	62815
##ron	62802
Ġmagnetic	62799
##ah	62789
Ġhear	62782
##ics	62777
##ak	62775
##mm	62737
##ac	62672
Ġ200	62650
Ġoperator	62642
ĠFebruary	62594
Ġdistributed	62569
Ġprint	62568
ĠGet	62559
Ġ2007	62520
Ġnice	62490
Pi	62479
Ġtransition	62478
ĠCI	62435
##Text	62426
Ġframe	62417
##ix	62402
Ġselection	62374
##ĺ	62331
##¥	62323
ĠEven	62302
By	62245
Ġsave	62176
Ġsuggested	62171
##bb	62167
##ina	62142
##LL	62100
Ġbeginning	62092
]\],	62082
##lla	62072
lib	62070
Ġwait	62061
##ification	62050
ĠFigure	62031
ĠRev	61948
ĠBoard	61934
Ġauthor	61905
Ġnamed	61861
Ġ64	61847
##Context	61823
##way	61813
Ġprograms	61799
##TA	61777
##°	61754
004	61718
Ġcomparison	61689
##gi	61679
Ġworkers	61637
\],	61620
False	61591
Ġhealthy	61531
Ġgreen	61476
Ġincreases	61474
##SE	61436
Ġsh	61415
Ġscreen	61414
##Error	61404
79	61401
ĠEuropean	61379
)**	61378
##ten	61377
##ny	61367
Ġimport	61367
Ġdetection	61318
Ġexposure	61292
Ġeye	61285
related	61266
##gn	61238
Ġmaybe	61214
##em	61171
Ġpassed	61142
ĠIndia	61136
Ġletters	61126
Ġdark	61115
Ġmusic	61068
Ġplaces	61063
Ġdes	61056
ĠPA	61046
##Ģ	61040
Ġresponsible	61012
Ġ\,	61007
Ġmeasures	60992
Ġrow	60991
Ġletter	60989
Ġdiscussed	60970
Ġupdate	60963
am	60953
##ub	60930
Ġdrugs	60928
Ġedge	60903
Ġactivation	60895
Ġdevelop	60861
Ġapproximately	60808
ĠResearch	60798
##Ã¡	60752
Ġpicked	60736
Ġincome	60721
Ġinsurance	60709
91	60701
Ġcharacteristics	60695
##ĵ	60694
$$	60656
##int	60631
ĠTh	60620
Ġ48	60611
##king	60572
Ġsymptoms	60559
##ib	60490
Ġcircuit	60369
Be	60368
##gl	60347
87	60346
ĠST	60316
error	60276
Ġstructures	60257
##graph	60255
.\	60244
Ġround	60238
Ġpanel	60229
Ġmodern	60210
Ġchallenge	60201
Ġmale	60195
##ī	60185
##ala	60185
Ġtalking	60161
##ai	60160
##ON	60141
ĠUK	60077
Ġessential	60052
Ġnone	60011
start	60010
##ore	59984
Ġcontinued	59979
over	59975
*)	59949
Ġparent	59924
##ric	59918
Ġ56	59869
##ri	59839
Ġtree	59800
##gu	59763
Ġ75	59756
source	59726
ĠHigh	59712
Ġtestimony	59692
Ġinvestigation	59685
##wa	59664
Ġeight	59654
Ġassume	59650
##RI	59638
Ġeffort	59583
link	59551
Ġreturned	59519
ĠCal	59503
Ġpick	59478
Ġhappy	59448
ge	59437
[]	59427
##LE	59383
ĠFurthermore	59343
Ġstuff	59318
ĠCa	59318
ĠList	59263
ĠUn	59262
ĠPaul	59224
Ġstock	59209
##Ķ	59190
Ġ((	59159
al	59156
Ġ});	59145
Ġbillion	59136
)/(-	59110
Ġwatch	59066
##of	59053
##ern	58956
info	58951
Ġ2000	58943
ĠĠĠĠĠĠĠĠĠĠĠĠĠĠĠĠ	58941
Ġpair	58924
}}(	58863
Ġpopular	58840
Ġproper	58836
##lan	58808
##·	58806
Ġkids	58801
ĠAM	58778
Ġlog	58734
Oh	58714
Ġ55	58676
Ġexercise	58670
Ġtruth	58661
Ġload	58647
Ġball	58647
Ġdescription	58600
##NT	58581
##ding	58569
Ġinterface	58546
ĠMS	58533
##IT	58499
"},	58498
Ġconduct	58468
##ana	58427
##į	58409
Ġpress	58369
##ast	58355
ĠEnglish	58343
Ġ-->	58232
Ġcouldn	58228
Ġwalk	58227
##ft	58185
Not	58163
form	58159
Ġprofessional	58113
##IN	58109
##OR	58105
Ġspent	58049
Ġspecifically	58029
Ġdenied	58007
Ġplans	57982
Ġcontain	57974
/(-	57971
Ġsurgery	57950
##ied	57923
Ġliquid	57900
Ġfamilies	57874
ĠCongress	57852
Ġ(!	57850
Ġserve	57827
Ġstrategy	57826
Ġplus	57818
/**	57803
ĠInternational	57791
Ġsolutions	57773
Ġsleep	57760
ĠCode	57756
##dy	57752
Ġalternative	57747
Ġspin	57740
so	57717
ĠFe	57708
##bar	57705
Ġtested	57670
Ġcycle	57667
Ġdead	57607
##~	57598
Ġcareer	57595
Ġofficials	57579
Ġ65	57518
ĠNi	57507
ĠNews	57502
Ġbuffer	57492
Ġsummary	57485
Ġwants	57458
Ġ2006	57450
##ł	57441
Ġmentioned	57428
res	57403
##ane	57395
Ġstrength	57344
ldots	57342
Ġelection	57310
##har	57305
Ġnil	57273
Ġhuge	57265
##State	57259
bm	57204
##tra	57185
ĠCan	57153
##¤	57147
Ġbill	57106
ĠYour	57086
Ġsp	57082
##12	57063
Ġprepared	57029
Ġmicro	56992
Ġaffect	56961
ul	56947
Ġsum	56932
one	56927
Ġleads	56880
Ġofficial	56878
Ġret	56876
ĠWi	56876
Ġdespite	56870
##ome	56864
Yes	56832
Ġtrust	56821
##@	56820
Ġstudent	56792
Ġunless	56779
Ġfemale	56779
Ġagent	56774
##res	56757
ĠMo	56705
ĠPR	56677
Ġmodule	56649
Ġstudied	56647
script	56599
Ed	56592
Ġ("	56582
Ġimproved	56573
Ġnuclear	56551
##RE	56531
content	56520
ĠDon	56506
##her	56502
Ġtypically	56478
day	56467
##ral	56464
Ġmetal	56463
Ġcombined	56463
Ġexplain	56427
##¸	56412
##cat	56404
Ġ37	56404
Ġwave	56365
Ġprotect	56357
Ġsuccessful	56302
Ro	56293
dot	56267
##ino	56249
Ġexperimental	56248
Ġsurvival	56243
Ġgrowing	56205
Calculate	56201
Ġcontrols	56178
ĠDavid	56171
Â¾	56158
Ġmeaning	56150
##ort	56143
Ġcommunication	56128
Ġbound	56116
Ġentry	56111
Ġminimum	56085
Ġvote	56080
","	56036
ad	56026
Ġoccur	55980
Ġjava	55931
**)	55921
##box	55921
Ġattempt	55918
##act	55901
Phi	55879
Ġconfirmed	55872
Ġpiece	55851
Al	55840
##ds	55815
##ek	55812
Ġkilled	55791
Ġhour	55748
';	55720
},\	55708
Ġshot	55695
##¯	55665
Ġchain	55652
ĠTV	55637
ĠNote	55631
Ġforeign	55626
500	55616
Ġmolecular	55591
Ġguy	55580
Ġcircumstances	55521
##!	55510
Ġsociety	55502
Ġinduced	55498
object	55492
rec	55470
Ġperhaps	55459
Ġhttps	55451
Ġwouldn	55436
]^	55431
Ġcounter	55428
Co	55413
Ġnames	55401
##pi	55395
Ġagreed	55387
Ġtools	55381
##Set	55379
Ġraised	55324
Ġoperations	55297
Ġcalls	55279
Ġad	55274
Ġanalyzed	55250
##ster	55243
Ġlinks	55242
Ġjudge	55235
Ġassociation	55224
Ġreached	55186
##cc	55184
Ġwhereas	55156
github	55149
##Ĥ	55141
Ġaffected	55134
ID	55111
[^	55109
Well	55100
Ġdied	55100
Ġfeet	55066
##ĠĠ	55054
##tes	55028
Ġemployees	55004
Ġofficer	55002
Ġclasses	54995
ac	54994
Ġhandle	54992
\,	54974
ĊĠĠĠĠĠĠĠĠĠĠĠĠĠĠĠĠĠĠĠĠĠĠĠĠĠĠĠ	54962
##ab	54953
but	54947
we	54946
Ġsentence	54914
ÂŃ	54901
ĠMost	54862
{{\	54854
Gr	54849
Ġcauses	54805
ĊĊĉ	54777
Ġsrc	54758
##ica	54714
##ľ	54713
ĠPi	54698
Ġ53	54692
Ġselect	54638
##ify	54629
Ġinter	54621
Ġprobability	54609
##çļĦ	54579
Ġcredit	54572
Ġkept	54523
Ġcriminal	54482
Ġmental	54479
Ġassert	54478
ĠCA	54454
##	54423
ĠĠĠĠĠĠĠĠĠĠĠĠĠĠĠĠĠ	54409
Ġefforts	54386
group	54385
otimes	54379
Ġres	54375
##In	54369
Ġcollected	54362
\<	54345
Ġ58	54314
##ates	54299
Ġtraditional	54292
prime	54254
Ġoccurred	54247
Ġvoice	54220
##ings	54206
boldsymbol	54180
ĠPC	54171
##Ĳ	54147
Ġcorrelation	54132
Ġintroduced	54082
ĠPark	54038
Ġarm	54037
##ŀ	54020
##ker	54013
Ġdiscussion	54005
##era	53995
Ġsuggests	53990
Ġstorage	53975
Ġrelation	53967
Ġestimated	53884
Ġ42	53870
Ġcertainly	53856
ĠGroup	53853
ĠLondon	53808
Ġexplained	53801
Ġtechniques	53784
##dr	53779
##hip	53770
url	53769
Ġstation	53758
##Index	53745
##ld	53729
Why	53720
Ġmovie	53708
Ġdiagnosis	53687
##ire	53668
ĠMe	53666
ĠTa	53652
Ġformat	53651
Ġphoto	53618
Ġgeneration	53617
Ġstatute	53614
Ġgone	53597
circ	53590
Ġremaining	53576
##oid	53547
Ġabsence	53547
Ġ36	53540
ĠSch	53538
Ġprotection	53529
ĠGi	53502
Ġsexual	53496
Ġ72	53482
##ud	53454
Ġappellant	53451
See	53429
Ġsummer	53426
New	53332
##rn	53329
Ġwhom	53318
##ul	53287
Ġforces	53286
src	53283
Ġalgorithm	53276
Ġ2005	53237
##red	53193
specific	53172
Ġvalid	53170
field	53134
ab	53122
Ġrequirements	53117
Ġpl	53089
Ġbiggest	53057
ch	53053
ĠCH	53047
Ġloop	53005
Ġrecords	52996
##ky	52990
##ene	52973
##ose	52964
##ES	52941
Ġ59	52916
Ġpro	52884
Ġbed	52874
Ġclean	52861
##cl	52841
Ġband	52830
Ġ62	52826
create	52797
Mo	52783
005	52770
Ġgun	52754
ĠLi	52728
Our	52713
ĠHi	52713
et	52669
##ious	52668
Sigma	52657
##ev	52652
Ġconventional	52631
Ġdu	52617
:"	52610
##IC	52560
Ġolder	52556
##ries	52540
Ġpicture	52530
Ġexchange	52529
Lambda	52507
Ġmissing	52474
Ġresponses	52462
Ġfloor	52448
Ġfear	52442
ĠEast	52431
Ġorganization	52424
Ġserved	52421
Ġlaws	52409
Ġextent	52407
Ġ54	52374
006	52346
ĠEach	52341
Ġadding	52328
##rc	52321
count	52275
Ġoffers	52273
Ġoptical	52259
Ġcapital	52250
Ġwild	52246
do	52245
Ġexternal	52243
##po	52220
##gg	52190
Ġquantum	52184
Ġderived	52147
##ens	52122
Ġsevere	52119
Ġcreating	52110
Ġbank	52075
Ġ66	52052
ĠTexas	52041
Ġscience	52027
Ġsubjects	52019
##Node	52017
While	52002
Ġpurposes	51999
##OS	51994
##oe	51992
##ae	51928
##ions	51925
Ġenter	51921
Ġmid	51917
##LA	51914
##ĩ	51907
##);	51900
ĠHo	51887
Ġeconomy	51872
Ġanimal	51867
Ġ63	51839
ĠLu	51801
ĠBlack	51794
*(	51791
200	51747
Ġideas	51736
Ġintended	51702
Ġschools	51695
##ick	51694
config	51688
##Color	51659
ĠMon	51613
##GE	51610
Ġfresh	51589
Ġproperly	51517
.](	51511
##ME	51488
##SS	51483
map	51479
ĠStreet	51469
Ġrepresents	51463
Ġ51	51436
Ġresolution	51419
Ġab	51398
Ġtrack	51394
##eg	51393
']	51371
Ġmotor	51355
ĠIsrael	51354
Ġ""	51338
ĠBritish	51332
Ġ33	51323
Ġ${	51313
##GA	51312
Ġexperiment	51291
Ġdecreased	51290
Ġdirector	51284
Ġse	51278
Ġachieve	51184
##lic	51177
ĠAd	51161
##RT	51152
Ġdie	51151
ĠSupreme	51123
Ġ57	51099
Ba	51097
##ach	51064
Ġauthority	51041
mbox	51011
Ġ49	50995
Ġrise	50989
nonumber	50986
Ġmechanisms	50986
Ġprofile	50985
Ġdoubt	50980
Ġvirus	50970
Ġprotected	50948
ĠGoogle	50947
ĠEurope	50923
Ġsoft	50914
##ged	50906
ĠBl	50901
Ġlargest	50886
induced	50880
##board	50862
Ġfeeling	50854
##¶	50847
Ġattorney	50847
##back	50834
case	50831
Ġnovel	50808
Ch	50765
Le	50759
Ġcold	50759
ĠFoundation	50755
Ġinterests	50735
level	50729
ne	50723
Ġteams	50721
Ġcatch	50698
Ġeat	50680
Ġmembrane	50661
ensuremath	50639
Ġtechnique	50637
"></	50636
ĠPeople	50635
##ov	50632
Ġcrime	50604
Ġofficers	50601
##ji	50594
Ġsc	50589
##Ń	50577
##fl	50576
##cr	50513
Ġcontained	50502
Ġfoot	50484
Ġnet	50483
##»	50473
Ġequivalent	50470
However	50465
ĠBa	50463
sh	50452
Ġslightly	50439
##ological	50421
##Ľ	50408
ĠFriday	50377
Ġel	50370
##£	50356
##hu	50313
ĠRNA	50296
##ª	50287
ĠTwo	50287
((	50277
##ug	50249
Ġcoverage	50245
ĠCouncil	50205
default	50191
Ġsales	50180
Ġ61	50176
ĠQu	50166
body	50140
}-	50112
Ġfight	50108
Ġdriver	50091
Ġbool	50083
Ġshared	50081
)?	50075
Ġguys	50034
Ġslow	50032
ĠCommission	50032
Ġcard	50014
Ġcharged	50000
Ġerrors	49956
Ġcharacters	49947
Ġopening	49945
##ui	49938
Ġlatest	49880
ĠCalculate	49862
Ġprojects	49836
ĠCanada	49833
ĠChinese	49826
Ġdose	49775
Ġtravel	49770
Ġoffered	49747
##º	49742
Ġholding	49687
Ġannounced	49624
Ġscript	49611
##ona	49548
Ġring	49542
Ġdescribe	49530
Ġval	49508
ĠEn	49478
Ġprogress	49470
Data	49443
Ġentered	49443
Ġgain	49400
##Į	49397
Ġinteractions	49356
Ġagents	49354
Re	49329
ĠGreen	49326
##uri	49322
Hi	49295
ĠSC	49284
##Ĺ	49282
##With	49275
model	49252
##Class	49250
ĠJust	49225
Ġsupply	49213
result	49192
ĠNa	49192
de	49171
Ġaccept	49153
0000	49132
view	49131
2015	49127
Ġdecrease	49104
Ġbio	49102
Ġdog	49077
api	49073
ĠJames	49073
db	49063
Dr	49041
Ġdrop	49036
**]{},	49018
Ġagency	49000
##od	48996
Ġswitch	48968
version	48962
Ġanalyses	48962
core	48957
##¨	48953
.[@	48948
Ġfilter	48922
Ġblog	48912
Ġwish	48902
ra	48901
##ali	48897
Ġviews	48896
(&	48892
Ġconcentrations	48888
py	48885
comp	48871
Ġ"[	48852
âĢ¢	48851
Ġdigital	48844
open	48840
##¦	48829
Ġchronic	48822
Ġoutcome	48790
čĊĉ	48789
ĠPost	48775
Ġ+=	48758
##Time	48757
ĠFOR	48724
čĊč	48711
Ġgenetic	48700
##han	48698
Ġexistence	48698
ĠSuch	48697
Ġreceptor	48684
âĢĬ	48683
Ġstable	48655
ĠJa	48641
summary	48615
##ving	48603
##ru	48593
Ġfinite	48546
Ġcommercial	48546
Ġexpress	48538
Ġequipment	48509
Ġpossibility	48508
Ġstars	48504
Ġ44	48492
##sen	48486
Ġplants	48486
ĠMonday	48452
Ġdriving	48451
Ġoperating	48450
##Ŀ	48400
##un	48397
Ġcompleted	48394
ĠRec	48383
čĊĠĠĠĠĠĠĠĠĠĠĠ	48380
Ġ34	48378
Ġmax	48348
Ġgirl	48344
Ġreturns	48340
Ġquery	48338
ĠMac	48333
##IS	48329
material	48318
Ġ2004	48317
ĠBi	48314
##©	48313
ij	48312
Ġpatterns	48307
Ġbeautiful	48306
##ect	48291
Ġhyper	48277
ĠCO	48276
##og	48264
Ġinteger	48257
func	48248
Ġsignals	48238
_.	48234
Ġwhatever	48231
Ġheavy	48215
use	48202
##Ł	48182
Ġliver	48171
##RA	48170
âĢĿ.	48159
##{{\	48153
Ġidentity	48153
ĠNO	48132
Ġinner	48119
ĠAS	48108
##ora	48079
##ight	48065
ĠĠĠĠĠĠĠĠĠĠĠĠĠĠĠĠĠĠĠ	48060
Ġscene	48058
)"	48046
Ġmobile	48044
##val	48043
Ġdiseases	48010
off	48002
Ġinterested	47988
Ġgenerate	47987
Ġalleged	47985
cap	47968
Ġtransmission	47966
ĠBank	47961
ĠService	47960
({\	47959
go	47953
Big	47933
Ġprob	47923
ĠAr	47901
Ġbutton	47875
Ġpoly	47856
ĠEl	47824
Ġ()	47799
Ġappeared	47780
Ġ};	47774
Ġimportance	47762
Ġfair	47762
Ġindicates	47754
Ġmaintain	47748
fa	47706
Ġaren	47695
Ġ00	47687
Ġ68	47657
From	47654
style	47649
##let	47645
Ġspectrum	47630
##pp	47618
Ġruns	47607
ĠBoth	47588
ĠIP	47585
##Map	47584
##¾	47567
##ert	47550
Ġconfiguration	47550
Ġhusband	47541
Add	47529
Ġcontrolled	47529
Ġconcept	47510
la	47499
Fe	47465
Ġhappens	47456
Ġholds	47455
ĠSunday	47438
widetilde	47434
ĠMI	47414
Ġconclusion	47412
Ġdemand	47403
Ġsequences	47393
Ġ2019	47358
Ġabuse	47355
exp	47342
Ġmouse	47341
Ġstraight	47309
##xi	47307
ĠWestern	47305
Ġfootball	47280
init	47266
##art	47251
##Array	47240
##ys	47223
Ta	47220
kappa	47211
##§	47209
Ġstruct	47207
Ġparticles	47175
##lli	47145
nabla	47143
Ġempty	47109
io	47102
Ġ67	47100
*]{}	47078
##MA	47073
##ĠĠĠ	47069
Ġthrow	47061
Ġsecondary	47048
Ġdefendants	47044
Ġreality	47037
Ġbalance	47037
Ġgrow	47028
({	46994
ĠNe	46992
Ġshift	46946
property	46921
Ġnoise	46921
Ġformula	46864
Ġplasma	46847
Ġreferred	46818
Ġgraph	46817
Ġmeasurements	46805
][	46795
ĠInstitute	46794
##ole	46785
##ration	46774
##ua	46771
##Code	46765
ĠTheorem	46737
##au	46720
##¬	46715
##chi	46715
Ġport	46673
Ġ500	46668
fe	46661
ĠLaw	46659
##pro	46634
Ġrel	46632
Ġsession	46625
Ġrepresentation	46615
ĠAccording	46609
##13	46602
Ġcontinuous	46585
##Event	46576
##our	46566
Ġrep	46556
Ġinterview	46540
Ġseemed	46514
##oc	46498
Ġ52	46473
ĠArt	46469
Ġdeveloping	46468
date	46422
##over	46386
Ġstatements	46378
Ġremainder	46365
ĠSmith	46360
##For	46332
Ġspeak	46321
Ġlibrary	46282
ĠĠĠĠĠĠĠĠĠĠĠĠĠĠĠĠĠĠ	46279
ĠDay	46275
Ġadvantage	46262
##wi	46251
ĠMichael	46242
ĠAdd	46222
Ġfat	46198
ĠFA	46191
##ĭ	46183
ĠYes	46179
Ġnation	46174
Ġmm	46174
ĠSl	46167
ex	46162
Ġ99	46144
Ġjobs	46115
008	46068
##vo	46035
Ġsi	46015
##ht	46007
ĠCu	46000
##all	45981
Ġleaders	45975
Ġhaven	45973
Ġadult	45950
^[@	45942
Ġliterature	45939
ĠCompany	45925
ĠPress	45921
Ġchemical	45917
Ġenvironmental	45916
ĠHa	45915
##ime	45898
Ġsw	45890
Ġcollege	45889
Ġapproved	45872
Ġplatform	45859
ĠMA	45849
Ġworse	45841
##22	45838
##und	45835
Ġlatter	45747
ĠFacebook	45739
Ġcarry	45729
false	45715
Ġissued	45681
ĠBig	45678
##ans	45659
##Manager	45615
Ġclub	45598
007	45594
Ġsquare	45587
CD	45584
Ġextremely	45584
ĠRe	45582
ĠMar	45581
##´	45569
Ġ38	45566
##ani	45558
Ġspeech	45553
ĠCommittee	45543
Go	45526
Ġborn	45495
Ġknows	45486
##Of	45485
##±	45463
Ġbooks	45429
Ġalcohol	45420
Ġestimate	45405
Ġexamples	45376
Ġleader	45369
##¼	45368
Ġcharges	45364
Ġcovered	45358
##field	45336
ĠUnion	45301
##net	45293
Ġserum	45291
Name	45286
ĠJapan	45259
##gan	45251
Ġexception	45251
Ġahead	45250
ĠFree	45237
##yn	45235
Ġregulation	45235
Fa	45227
ĠKa	45226
ĠDu	45224
Don	45223
ĠSet	45191
Ġcool	45173
ĠDO	45157
Ġst	45145
Ġaware	45113
Ġcent	45112
Ġsubstantial	45106
ml	45091
Ġsigned	45089
Ġguess	45089
]),	45088
Ġopened	45079
Sp	45078
ĠWhy	45075
ĠTime	45075
##ets	45072
Ġimplementation	45035
Ġfluid	45019
##ham	44990
Ġsmooth	44988
##ye	44968
##ress	44962
apache	44951
Ġcustomers	44941
##hy	44936
Some	44931
dr	44923
Test	44911
Ġsuit	44908
Ġchurch	44904
Set	44902
Ġpar	44901
Ġ69	44900
##ell	44878
Ġoccurs	44844
Ha	44833
2016	44823
##DE	44795
Ġlose	44781
Ġfish	44776
").	44774
ĠLeague	44773
Ġextension	44762
ĠPar	44740
Ġrecorded	44718
ĠPa	44714
##time	44704
Ġdelivery	44697
Ġcompounds	44692
Ġtransport	44690
}}{	44687
ĠAD	44680
Ġdecisions	44660
ĊĊĠĠĠĠĠĠ	44648
##ato	44647
ĠNOT	44646
Ġexact	44640
Ġran	44637
##SI	44635
Ġdiscuss	44632
Ġcalling	44626
Ġdel	44623
##23	44605
Ġcarbon	44576
##Request	44570
Ġlabel	44556
main	44555
Ġfloat	44546
)]	44540
Ġreceiving	44531
Ġrich	44530
Ġevaluated	44524
ms	44518
Ġnetworks	44515
ST	44514
##18	44513
Ġdiet	44489
Ġpowerful	44488
ĠTuesday	44487
Can	44482
Ġallowing	44450
##³	44445
Ġextended	44437
Ġviolence	44429
Ġleaves	44427
ĠAmericans	44416
ĠFrench	44401
Ġfix	44400
ĠPD	44367
Ġ2003	44347
Ġpeak	44338
Ġpercentage	44317
##¹	44315
ĠCor	44314
ĠAT	44302
Ġestablish	44289
ĠUnder	44285
)*(	44276
Ġoutcomes	44276
ĠTest	44272
2013	44264
Ġsale	44246
##83	44237
##ring	44231
Ġconcerns	44228
Ġsubsequent	44207
Ġleaving	44198
2014	44187
Ġassessment	44187
Ġbirth	44180
block	44172
ĠCollege	44165
Ġthousands	44164
##zz	44161
endif	44140
##zo	44117
Ġfaith	44111
Ġtestified	44102
Ġhelped	44100
height	44089
})$	44084
Ġmuscle	44081
Ġmostly	44072
ĠOpen	44064
Ġimmune	44061
##ack	44050
Ġowner	44046
Ġunderlying	44042
Ġevolution	44021
##45	44004
Ġflat	44001
Ġarguments	44000
ĠFinally	43993
CH	43986
##Ð¸	43977
Li	43976
Cl	43976
Ġraise	43940
ĠAssociation	43938
Ġefficiency	43936
ĠDuring	43913
##]{}	43901
##ı	43848
ï¼Į	43839
ĠPS	43827
util	43815
Ġcriteria	43783
Ġtraffic	43775
##ford	43771
Ġrepresented	43765
##Test	43755
ĠGovernment	43755
Ġ47	43748
##14	43736
ĠUsing	43736
##®	43718
##78	43714
Ġcentury	43710
0001	43683
Ġbaby	43672
##ale	43659
red	43636
Ġapparatus	43633
Ġgreatest	43590
using	43588
Ġexamined	43577
local	43559
##he	43548
ĠKing	43526
NS	43525
##IP	43519
where	43490
Ġthank	43480
Ġspecified	43462
Ġlearned	43461
Ġplane	43456
,'	43454
ĠSc	43446
ĠCT	43416
ĠSuper	43415
Ġeventually	43408
##38	43403
fl	43400
Ġ96	43387
ĠOther	43378
##19	43377
##xe	43372
zeta	43371
ĠInter	43359
##kin	43350
##eu	43319
##¿	43308
Ġcandidate	43290
Ġcurve	43287
you	43277
Un	43270
ĠPer	43261
ĠChrist	43259
Ġscheme	43250
Ġdry	43229
val	43226
Ġvisual	43214
Ġdepends	43212
message	43208
ĠMany	43194
Ġlimitations	43191
##62	43181
##CE	43174
##ĥ	43167
##16	43165
Ġbreast	43143
ĠChurch	43140
Ġpositions	43134
Ġlicense	43128
Ġstream	43111
##ably	43110
Ġ85	43101
##atic	43080
##42	43065
ar	43059
}}^	43057
ĠJudge	43056
##ero	43051
##20	43024
Ġvoltage	43020
ĠGermany	43018
Ġdistinct	43009
Ġsurvey	43006
Ġmaster	43006
##ox	43003
2012	43000
Ġ41	42992
ĠIII	42967
Ġfuel	42953
check	42952
vi	42947
##ult	42938
Ġyes	42930
Ġinvestigated	42926
Ġ77	42926
ĠâĢ¦	42919
##_{	42916
##ned	42894
##PA	42885
\{	42872
Ġspread	42853
##AP	42849
Ġachieved	42831
dots	42812
ĠNone	42805
ĠScience	42804
ĠWell	42794
}}_{	42786
##ves	42785
Ġenjoy	42785
Ġtypical	42783
ĠRA	42783
Da	42770
first	42746
MA	42746
Ġ73	42745
Ġpathway	42733
##²	42732
Ġ2001	42725
Ġgoals	42717
Ġpurchase	42706
Ġ39	42701
Ġ${{\	42686
##15	42685
Ġmixed	42685
Ġap	42678
Ġpo	42666
Ġchanging	42658
ĠEq	42638
Ġpolicies	42635
Ġcast	42627
Ġglass	42620
Ġspend	42607
dimensional	42599
Ġsun	42594
Ġcustom	42591
ĠSE	42575
ĠEx	42562
Ġprocedures	42535
Ġdigit	42534
dt	42533
Ġstandards	42532
ĠPl	42524
el	42522
Ġfilms	42519
]{	42499
Ġtrip	42498
supplementary	42495
Ġ71	42483
Di	42480
Ġrecovery	42480
##ļ	42462
write	42461
Ġapplicable	42451
ĠUN	42449
Ġcomplaint	42434
Ġgranted	42430
Ġ81	42421
##list	42420
da	42411
Ġangle	42402
cell	42398
dependent	42381
Ġ74	42376
Ġquick	42364
ĠMa	42355
ĠBar	42355
##ĸ	42346
Ġjoin	42341
Ġcivil	42335
##`	42320
?âĢĿ	42309
##98	42300
##berg	42298
.</	42276
ĠCl	42269
##ments	42267
Ġstrain	42258
##LI	42240
List	42235
ĠKe	42235
##AN	42232
These	42231
Ġacts	42200
Ġisolated	42188
Ġsalt	42167
Ġfavor	42166
page	42163
##ven	42158
##Service	42156
Ġmurder	42153
ĠIC	42151
##--	42146
ĠBE	42146
##RO	42138
)=\	42137
##ute	42134
ĠNS	42133
Ġtrain	42132
##Field	42102
##are	42092
Ġdesired	42085
Ġdelay	42084
##gs	42083
Ġcup	42063
Ġseeing	42042
Ġevaluation	42042
ĠGeorge	42039
ast	42038
ĠAir	42033
ĠAb	42004
##ode	41983
2017	41981
Ġeasier	41968
Ġinstall	41955
Ġstanding	41940
ĠPro	41936
Ġsubstrate	41926
Ġmanager	41878
Ġevaluate	41866
Ġindeed	41864
Ġsections	41863
##ari	41859
Ġrelief	41831
Ġstrongly	41829
}+	41810
post	41799
Ġdetailed	41798
Ġfunds	41796
Ġelectronic	41792
##mit	41774
Ġ76	41770
##du	41760
Ġinvestment	41759
Ġinvestigate	41733
Ġobvious	41717
Then	41711
ĠWhich	41707
Ġweak	41703
##ang	41702
Ġchosen	41701
button	41697
##ators	41688
Ġfourth	41684
Ġ78	41668
##ign	41665
rd	41645
Ġkill	41641
##rl	41637
Ġentitled	41637
Ġ300	41635
Ġ{{\	41634
å	41633
format	41624
##cu	41624
##NS	41619
##rate	41613
ĠSA	41606
Ġdis	41602
Ġecho	41589
Ġlo	41586
ĠMark	41584
Ġsell	41568
Ġfreedom	41553
##44	41545
Ġstored	41539
Ġcategory	41539
ĠThursday	41530
##my	41514
pre	41493
##17	41478
##EN	41473
Ġbroad	41455
ĠPo	41446
Ġcommitted	41437
Ġcluster	41432
ĠBill	41424
Ġbl	41422
Ġpush	41420
##ura	41419
Ġdaughter	41399
font	41386
Ġmeant	41379
"}.	41374
Ġduty	41368
Ġconclude	41368
Ġconsidering	41341
ĠKu	41338
ĠEngland	41316
##set	41310
Ġdirected	41298
++	41291
##39	41284
##68	41279
Ġassay	41274
##itis	41251
Ċĉĉĉĉĉ	41244
##AR	41234
ĠOS	41233
ĠFlorida	41231
Cr	41230
2000	41207
Ġpayment	41207
Ġthanks	41204
Ġscope	41204
ĠĠĠĠĠĠĠĠĠĠĠĠĠĠĠĠĠĠĠĠ	41200
##istic	41191
ĠWednesday	41191
ĠSO	41191
##CT	41188
##67	41177
Ġclick	41176
Ġprices	41168
Ġskills	41167
Or	41164
ĠTu	41152
Â½	41151
##ata	41149
Ġvictim	41145
##93	41128
order	41119
Ġdocuments	41105
Ġforced	41103
ĠParty	41098
##29	41091
bo	41084
Ġreligious	41082
Just	41060
##ND	41038
Ne	41032
Ġdebt	41009
##US	41006
Ġintervention	41005
Ġspot	40995
Ġlisted	40994
Ġge	40963
##28	40957
##ik	40950
Ġ120	40948
AS	40947
##97	40947
ĠHar	40939
##tle	40931
Ġ2002	40931
}}}	40930
##ural	40923
ĠBrown	40921
Ġplays	40919
Na	40891
##ory	40887
ĠFr	40868
Ġconflict	40857
Ġdetermination	40839
ĠCopyright	40827
Ġstories	40825
##54	40821
Ġequations	40817
Ġfocused	40796
PR	40779
##oni	40779
ĠSolve	40767
Ġplate	40763
ĠSi	40760
##acy	40755
Ġdepending	40755
##pt	40751
##59	40751
##nes	40727
target	40724
##EA	40712
Ġwaiting	40712
ĠWill	40705
Ġsold	40704
##IA	40699
Ġconcern	40694
##ç	40692
ĠRa	40689
ĠHu	40688
##ef	40687
null	40686
Ġvirtual	40676
nd	40673
Ġcash	40673
Î²	40665
##ord	40664
err	40653
dd	40650
Ġexcellent	40640
Ġbrief	40640
Ġresulted	40628
ĠGe	40628
ĠRussia	40625
##37	40615
Ġfans	40604
##Ĭ	40578
##ano	40571
CA	40567
##wn	40566
Ġmeasurement	40557
Ġsemi	40546
Ġuint	40543
ĠSaturday	40528
Ġobservations	40519
Ġpossibly	40514
Ġsea	40509
Ġem	40494
Ġversus	40489
##ħ	40484
Ġparallel	40482
Ġmodified	40468
Ġbelieved	40444
##Image	40439
##als	40435
ti	40432
##ade	40429
TR	40424
cdots	40420
Ġtreat	40393
Ġprotocol	40383
ĠHIV	40383
Ġregard	40375
##52	40340
##use	40326
##isation	40326
sin	40325
Ġassuming	40300
##ulation	40298
ĠFile	40290
cl	40288
##eri	40272
ĠCircuit	40271
First	40261
ĠTom	40228
Ġnodes	40226
Ġhousing	40226
Ġneither	40223
Ġtouch	40213
010	40199
##ery	40195
Ġref	40188
Ġfees	40188
ĠOffice	40186
ĠSha	40184
Ġduration	40173
##âĢĿ	40170
Ġoffense	40143
##53	40112
##ake	40109
##µ	40101
Ġtwice	40101
ĠEd	40098
ĠIT	40088
ĠLord	40083
##56	40074
Ġemployed	40062
Ġqui	40058
##ising	40055
Th	40053
Ġapproaches	40048
Ġcommunities	40042
Ġ_{	40040
Ġ82	40035
##ong	40014
Ġresource	40014
Ġdamages	40008
##26	40004
Ġdetail	39986
##ou	39982
ĠPe	39970
Ġcompare	39953
Ġ88	39953
##ville	39948
ĠEnd	39942
##sl	39930
vert	39923
Ġconfidence	39922
##OL	39920
ba	39917
ĠFa	39912
Ġplanning	39891
##tz	39872
##ET	39867
##ants	39844
##Count	39844
ĠWeb	39826
##oa	39794
json	39765
##64	39763
di	39743
##43	39738
ĠUse	39738
##ax	39730
Ġ92	39730
ĠWindows	39703
Ġscores	39702
Ġstreet	39690
##CH	39674
Ġfunding	39662
ĠLo	39649
Ġaccuracy	39644
##Box	39626
status	39611
Ġcm	39606
Ġhelps	39603
##ku	39581
Ġconcerned	39569
]--[@	39562
2011	39545
ĠDC	39542
Ġefficient	39535
ĠĊĠ	39535
num	39525
Ġtrials	39525
inter	39495
ha	39493
Type	39481
##è	39480
Ġsensitivity	39478
Ġadvice	39450
##¢	39436
2010	39435
ĠDec	39433
Ġmainly	39400
##sis	39393
Ġguilty	39388
ĠĠĠĠĠĠĠĠĠĠĠĠĠĠĠĠĠĠĠĠĠ	39383
ĠKo	39377
Ġsecret	39374
Ġbudget	39364
Ġboundary	39360
Ġasking	39356
Ġadults	39330
Ġrelationships	39321
Ġfirm	39304
##27	39298
Ġreverse	39254
ĠJapanese	39246
Ġinvolving	39236
Ġexperienced	39228
##50	39220
ĠComp	39210
context	39203
Ġdraw	39203
event	39193
Ġburden	39187
Ġelectron	39178
Ġfinished	39171
Since	39158
Ġexposed	39148
%.	39143
Ġfan	39141
##ez	39133
....	39127
##VE	39119
has	39116
Which	39115
Ġexpansion	39108
##if	39103
Ġsignaling	39101
Ġcontribution	39098
Ġbus	39082
Ġextends	39075
Ġconsent	39065
Ġthin	39051
ĠSP	39037
ĠBen	39028
ĠMinister	39022
'.	39016
ĠFederal	39014
Ġ43	39007
##41	38995
ĠRo	38995
##che	38991
##ag	38988
Ġemployee	38985
Ġ84	38984
Ġtend	38983
ĠOver	38980
ă	38978
Ġcapable	38976
ĠJesus	38976
Ġlib	38975
Ġcoach	38970
Ġframework	38961
Ġacute	38961
Ġmono	38952
lang	38942
MS	38936
Ġideal	38924
##½	38922
Ġcontinues	38918
##80	38913
Ġintent	38908
ĠÃĹ	38903
Ġ83	38903
Ġfundamental	38891
##af	38890
##des	38888
bb	38864
xml	38854
author	38853
client	38830
##ill	38826
##48	38825
Ġcomposition	38825
ĠGood	38813
Ġsettings	38812
ĠCP	38802
ĠLA	38799
parent	38788
ĠAustralia	38787
ĠInternet	38783
##ama	38775
Ġdepartment	38773
ĠJustice	38771
Ġassessed	38770
##AS	38766
Ġintensity	38766
##lia	38753
##UN	38753
##Ðµ	38752
Ġfill	38748
##Â	38744
ĠBay	38740
Ġsides	38724
čĊĠĠĠĠĠ	38724
ĠType	38691
**(-	38690
##jo	38672
md	38670
Ġguide	38662
##ock	38659
"})	38646
ĠSun	38626
##TC	38622
std	38599
|\	38591
Ġice	38588
Sa	38584
Ġgrant	38579
Ġordered	38575
Ġdemonstrate	38571
Ġadvanced	38570
}.	38568
Ġpull	38565
Ġbiological	38565
Ġmassive	38564
Ġdecide	38558
Si	38549
Ġpartner	38549
Ġplaintiffs	38547
Ġincident	38545
##ws	38540
##ition	38529
Ġrelates	38515
##95	38501
##CC	38499
Ġgold	38492
arg	38485
layout	38476
Sc	38467
Ġ79	38444
##wood	38434
kg	38433
##63	38419
Ġassess	38413
else	38408
ĠPlease	38402
Ġpersons	38401
char	38398
Ġgl	38333
Ġbrother	38326
Ġchallenges	38313
ĠRule	38310
Ġpotentially	38306
Ġinterval	38303
Ġsuitable	38298
Ġimaging	38295
ĠCS	38279
##ote	38271
Ġjoint	38264
Ġhumans	38258
Ġvelocity	38252
##NA	38247
Ġth	38247
##47	38221
Ġconference	38212
Ġrats	38191
scale	38184
Ġstopped	38179
ĠDis	38165
ĠRef	38160
2018	38148
Ġstatistical	38136
Ġchief	38136
Ġdoctor	38134
ĠVo	38132
Ġidentification	38129
012	38108
Ġimprovement	38106
Ġintra	38087
Ġsit	38084
Me	38053
Ġengine	38048
Ġcourts	38048
Ġrare	38041
Ġ150	38040
ĠNA	38035
##49	38025
##73	38024
Ġ[]	38022
ĠAP	38020
ĠDefendant	38004
Simplify	37985
SD	37984
Ġclaimed	37981
Ġremained	37971
##off	37963
##oo	37954
Ġcap	37950
}=\	37948
Ġopposite	37942
mg	37888
Ġlung	37883
Ġended	37861
ĠInt	37858
Ġreplace	37856
current	37853
Ġspring	37836
##TT	37831
##nu	37830
Ġunknown	37815
Ġroute	37807
Ġpartial	37807
Ġorigin	37799
##Model	37779
II	37775
Ġser	37762
128	37751
Ġsuggesting	37751
##mic	37749
##ĠĠĠĠ	37738
ĠRussian	37737
)^{	37713
Ġbag	37713
##ux	37712
##AC	37693
Ġfrequently	37689
Ġdiscovered	37679
Ġhence	37662
Ġreflect	37661
ĠÂ£	37641
Ġradiation	37639
Ġnine	37632
ĠRepublican	37627
.**	37598
Man	37597
##ula	37575
NO	37574
run	37562
ĠFurther	37560
Ġne	37534
ĠMal	37522
##ming	37521
Ġsweet	37518
Ġargues	37518
Ġbone	37498
Ġjustice	37490
^âĪĴ	37487
Ġgap	37468
Ġlimits	37467
Ġnecessarily	37434
Ġwind	37420
Ġestate	37419
Ġarms	37401
Ad	37386
Ġpool	37375
##dg	37365
ĠSam	37353
ii	37349
Ġannual	37338
ĠANY	37300
Ġ[[	37296
>(	37290
##ail	37290
ĠAR	37290
Ġseconds	37263
Ġaxis	37261
##46	37260
##69	37249
##nic	37238
Ġimp	37238
##cha	37236
âĢĿ,	37229
**]{}	37224
##55	37223
Ġassembly	37210
According	37203
Ġstability	37191
select	37186
##mat	37181
Ġvariation	37179
Override	37169
Ġtri	37169
ĠGerman	37151
Ġdependent	37138
##mon	37133
ĠTA	37121
ĠHence	37117
Ġ97	37117
Ġgender	37099
##ust	37094
ĠObject	37090
Ġwidely	37087
ret	37080
Ġ86	37074
Ġoral	37071
ĠName	37052
ĠTwitter	37039
âĪĴ	37038
Ġantibody	37024
Ġthereby	37020
ĠJohnson	37016
##uct	37001
ĠAny	37000
##sk	36980
Ġdefinitely	36979
Ġthread	36977
back	36976
request	36973
Ġbrand	36968
Ġthreshold	36967
Ġabsolute	36957
##rus	36955
Ġprovision	36933
ĠCC	36931
009	36930
Ġforth	36930
ĠBo	36927
sc	36922
Ġseek	36903
show	36891
Ġlinked	36884
Ġha	36874
ĠFo	36857
Ġaspects	36856
Note	36840
Ġstarts	36830
Ġpeace	36828
ĠSecond	36817
Ġattacks	36816
ĠRes	36811
Ġnumerous	36807
ĠRobert	36807
Ġcamera	36805
prop	36802
Ġkeeping	36796
ĠMath	36793
Ġimplies	36788
ĠFrance	36786
ĠMP	36782
Ġelectric	36775
Ġpopulations	36771
Ġsupra	36767
Ġindicating	36752
Î±	36738
##AM	36735
"),	36735
Ġmouth	36734
Ġrelations	36728
ĠGive	36728
.*	36721
##65	36716
##uring	36707
##ered	36705
Ġpp	36694
##IL	36693
Rev	36684
Ġmixture	36684
ĠOnce	36679
Ġder	36668
'}	36645
##iv	36623
Ġaccepted	36612
su	36606
Ġinterpretation	36603
ĠChristian	36580
##mal	36576
ĠOnly	36562
ĠPre	36557
##ening	36552
Ġunable	36547
Ġmortality	36546
Ġinfo	36537
Ġends	36534
Ġinstructions	36532
##ãĥ	36531
inf	36530
Ġentirely	36525
Ġviolation	36523
##DA	36521
Solve	36520
ĠRT	36516
Ġmission	36512
Ġenable	36494
row	36493
na	36491
web	36490
Ġtruly	36481
Ġrecognized	36466
Ġsupposed	36457
Ġhole	36456
##Button	36455
Ġcellular	36436
Ġgonna	36432
ĠĊĠĠĠ	36428
##col	36421
ĠPart	36404
Ġscientific	36394
Ġpractices	36391
Ġcontribute	36385
Ġgirls	36374
Ġaward	36366
msgid	36360
me	36356
##code	36341
##Message	36340
Ġnotes	36339
##ique	36316
equiv	36310
Ġ}}	36310
Ġaim	36303
Ġarrest	36298
Ġdegrees	36288
$)	36283
##IR	36271
Ġsupporting	36248
Ġemployment	36246
Ġ89	36244
ĠClass	36238
ĠGL	36221
Ġfraction	36217
##ati	36202
##Int	36200
ĠHospital	36193
ĠSenate	36190
Ġ87	36185
msgstr	36175
Ġbattle	36174
##ich	36172
##ars	36159
##gra	36156
##92	36156
ĠTimes	36135
Ġresponsibility	36123
Ġtag	36093
Ġmiles	36091
Ġbecoming	36090
Ġsigns	36089
##Cs	36087
Ġminute	36085
img	36078
300	36077
)}\	36066
Ġche	36055
bi	36038
Ġuna	36037
ãĢĤ	36030
Ġwaste	36027
ÃĹ	36025
Ġattached	36018
Ġuns	36010
Ġappearance	36003
++)	35994
Ġvitro	35990
Ġdisk	35989
##Table	35978
Ġtechnical	35971
##ace	35939
ĠSM	35931
Ġsensitive	35927
ĠSD	35925
ĠLife	35922
Ġfail	35918
Ġ*)	35916
ĠHall	35911
##ering	35907
Ġiso	35906
##58	35902
^+^	35896
ĠIndian	35888
Ġcompound	35887
^*	35883
Ġmanaged	35882
Ġresidents	35879
point	35871
##ient	35866
Ġ91	35861
##oma	35848
ĊĠĠĠĠĠĠĠĠĠĠĠĠĠĠĠĠĠ	35823
ĠFu	35804
Ġmolecules	35791
Ġdynamic	35791
##$$	35789
Ġboy	35789
widehat	35785
Ġconcluded	35775
##iz	35758
Ġac	35736
ĠAPI	35736
##omp	35726
Ġdev	35719
png	35706
Ġfl	35706
##79	35692
Ġwear	35691
ĠCon	35688
Ġtemplate	35685
##TH	35681
Ġplot	35679
Ġamounts	35679
Ġcommonly	35677
Ġsplit	35675
ĠHuman	35672
##ost	35661
ĠPh	35660
Se	35659
ĠThomas	35659
op	35653
_{{\	35641
##cal	35640
Ġra	35637
Pa	35628
module	35621
Ġbi	35618
Ġassigned	35613
}})	35610
Ġconsideration	35607
Ġurl	35606
ĠCR	35591
Psi	35590
ĠBra	35582
long	35572
match	35567
Ġ94	35563
##VI	35561
Ġ98	35560
ĠOut	35549
ĠStar	35543
Ġiron	35537
col	35530
Ġunderstood	35524
Ġarticles	35521
Ġdynamics	35514
ĠTheir	35513
ĠSal	35508
Ġsought	35488
reg	35486
Are	35485
android	35482
##view	35482
Ġrequirement	35477
Ar	35466
Ġfell	35465
ĠInstead	35463
##æ	35459
Ġyield	35440
ĠMor	35438
Ġeffectively	35426
Ġaccurate	35425
References	35422
Ġexpert	35419
Ġprinciple	35416
##len	35401
##87	35395
ĠSub	35394
Ġconnect	35375
##fu	35373
Pro	35372
sl	35359
ĠAg	35352
lo	35321
ĠAfrica	35321
Ġestimates	35320
gl	35308
ĠHA	35307
##51	35306
Ġ110	35301
##br	35299
ĠAfrican	35297
ray	35289
##ida	35275
Ġ93	35256
Ġjurisdiction	35254
Ġest	35248
Ġspaces	35243
##osis	35233
##hn	35224
Ġfilled	35220
Ġoxygen	35213
##bs	35209
ĠSer	35202
##gr	35191
ĠPlaintiff	35188
System	35182
##gar	35181
Ġgu	35174
120	35165
\]).	35163
split	35158
.$$	35155
Ġna	35150
Ġearth	35133
find	35128
Ġdecades	35113
Ġusual	35111
Ġhomes	35110
ĠBC	35109
sa	35108
Con	35096
Ġmessages	35086
uint	35085
ijms	35071
Ġbinary	35057
##Group	35049
##ened	35043
Ġsin	35043
Ġzone	35039
next	35035
Ġspending	35027
##port	35019
Ġwww	34988
ĠPCR	34988
cc	34981
Object	34974
##UM	34969
Ġseeking	34962
##str	34961
##ash	34944
Ġsenior	34927
Ġadmitted	34924
##ãĤ	34916
~~~	34913
##DI	34909
Ġstr	34901
##NE	34898
Ġfavorite	34898
media	34897
Your	34885
\/	34877
##90	34873
Ġsugar	34857
ĠEarth	34857
Ġconsumption	34844
ga	34843
ĠRiver	34838
##ath	34832
}/	34823
Ni	34822
Ġtelevision	34818
Ġbaseline	34816
Ga	34809
Ġwilling	34806
SC	34793
ca	34776
range	34768
SP	34767
Ġstrategies	34766
Ġnative	34762
\*	34745
Ġobjective	34743
##kh	34725
ĠDa	34722
Ġmis	34720
Ġsqrt	34693
was	34691
Ġdepth	34671
Ġassistance	34671
ĠIV	34668
Ġbroken	34664
Ġvan	34653
Ġcharacterized	34621
ĠMC	34608
Ġlabor	34604
Ġminor	34545
##User	34535
Ġprincipal	34535
Ġorganic	34530
Ġoptimal	34528
Ġamino	34516
action	34512
Ġaid	34504
Ġsmallest	34503
Sch	34502
fr	34497
ĊĠĠĠĠĠĠĠĠĠĠĠĠĠĠĠĠĠĠĠĠĠĠĠĠĠĠĠĠĠĠĠ	34493
Ġcompetition	34462
Please	34449
ĠSS	34447
ĠMD	34446
Ġcompact	34441
Ġpredicted	34436
output	34425
Yeah	34420
Ġemission	34413
##ini	34410
ĠIndeed	34410
##40	34397
Ġdangerous	34388
/\	34387
Ġtissues	34379
Ġav	34376
Ġma	34371
Ġship	34363
##yp	34356
Ġprop	34351
Ġorders	34338
Ġamazing	34329
ĠLemma	34328
Ġwitness	34317
ĠInformation	34315
Ġexpensive	34305
pl	34293
print	34289
##uc	34277
Ġ46	34277
ĠUI	34275
ĠDE	34274
##NC	34273
##60	34272
Ġdisc	34266
Mi	34239
Ġneurons	34232
Ġvision	34221
Ġmilk	34208
ĠMedical	34201
Ġpages	34200
##",	34197
Mar	34188
/(	34180
Ġins	34178
ĠAC	34167
Ġmarriage	34159
Â¸	34151
ĠFIG	34122
Ġmon	34119
Ġrecommended	34114
ĠAss	34112
ĠÃ	34108
Ġphotos	34106
private	34089
Ġsupports	34088
ĠControl	34076
Ġcustomer	34062
##car	34042
##Element	34041
ĠGA	34025
011	34024
mL	34021
Ġparticle	34017
#:	34015
Ġpieces	33999
Ġexit	33981
**,	33969
2008	33968
Ġwarm	33956
Ġmanuscript	33947
Read	33928
Ġinhibition	33927
Ġwatching	33926
Ho	33898
last	33882
Ġsat	33879
##ung	33878
####	33872
Ġfinish	33867
##ther	33866
ĠpH	33850
subset	33838
##sy	33834
Ġcausing	33833
Ġch	33824
assert	33816
Ġchannels	33816
##PE	33811
Ġsuccessfully	33809
ĠSu	33803
Ġthreat	33802
ĠSta	33793
Ġnorth	33791
ĠLee	33787
Ġ1999	33771
##mu	33761
Ġtargets	33743
ĠCentral	33721
Ġmark	33719
CC	33707
##ule	33707
Ġcomposite	33698
ĠEU	33686
Ġfruit	33684
ĠĠĠĠĠĠĠĠĠĠĠĠĠĠĠĠĠĠĠĠĠĠ	33669
Ġpure	33664
section	33652
Ġthermal	33651
Ġcrisis	33651
Ġquarter	33650
Ġreducing	33649
##ith	33640
:\	33638
;&	33636
Ġouter	33616
Gu	33600
Ġau	33591
Ġrecommend	33589
///	33587
ĠField	33583
Ġsitting	33579
cs	33576
Ġrev	33576
Ġbias	33575
ĠClinton	33568
Ġimpossible	33567
Ġlargely	33560
2009	33554
Ġunion	33549
Ġrepresentative	33539
St	33534
##57	33534
Ġrespond	33534
ĠVal	33533
Ġmargin	33523
Ġgrand	33511
ĠSI	33509
})\	33506
ĠME	33488
Ġautomatically	33481
Ġpetition	33470
##je	33466
Ġmine	33466
Ġfeed	33457
##med	33445
##tre	33436
##ew	33436
Ġinstalled	33434
Ġinformed	33433
ĠON	33422
##MI	33421
ĠIts	33419
Ca	33414
Ġauthorities	33398
ĠDan	33398
Ġund	33391
Ġdiabetes	33389
Ġpromote	33387
Ġresearchers	33373
ĠBA	33373
Ġtight	33370
Ġsolve	33367
bl	33363
Ġles	33358
Ġstructural	33347
Ġrat	33342
##rop	33340
ĠHome	33331
##ita	33316
si	33301
ĠDM	33294
Ġconversation	33279
##Äģ	33275
ĠSoftware	33271
Ġsector	33268
Â·	33263
##die	33254
Ġseat	33244
Ġexamination	33243
Ġmarried	33239
Ġdisorder	33239
##AT	33236
AD	33216
Ġforget	33207
ĠRep	33205
101	33202
ĠProject	33198
head	33181
##eh	33180
Ġdebate	33163
([	33160
##ward	33142
##don	33134
Ġpan	33129
Ġ---	33129
option	33128
Ġrefer	33126
ĠChicago	33104
Ġconfig	33095
Ġvisible	33090
Ġstrains	33090
Ġweekend	33087
SE	33068
Ġturns	33068
ĠReg	33056
##lar	33049
Ġputting	33046
bin	33009
Ġjoined	33005
Ġfaster	33004
per	33000
Ġconcerning	32987
æ	32983
Ġdetect	32982
ĠView	32979
##aw	32978
Ġinc	32971
Ġreplaced	32951
ĠLong	32949
Ġfacilities	32944
ĠGreat	32944
##key	32923
```	32922
Ġoffset	32912
Ġmeat	32908
##fs	32906
##book	32904
Ġnarrow	32895
##EM	32894
Of	32888
ĠEr	32882
Ġherself	32881
append	32880
gt	32848
se	32839
Am	32820
Ġpara	32819
Ġacting	32817
##ram	32811
ĠCh	32810
Ġcreation	32807
Ġ101	32792
ĠInd	32788
Ġargue	32784
##zed	32783
##ENT	32782
Ġlayers	32782
Ġillegal	32775
bit	32772
Thanks	32771
âĢ²	32770
##(\	32769
Ġadvance	32769
Ġuniform	32763
##down	32762
Ġmeta	32762
Ġformal	32762
##ila	32756
##EL	32751
Ġmenu	32750
Ġmention	32750
Ġdec	32749
Ġevening	32745
Ġcitizens	32742
Ġcorner	32739
ĠAnother	32731
Ġantibodies	32712
Ġassumed	32707
##ivity	32706
ĠDA	32706
dir	32704
Although	32692
##its	32688
Ġprison	32685
##Handler	32677
Ġcandidates	32675
[\	32664
##«	32649
Ġrepair	32647
Ġinvolves	32645
##ì	32638
ĠmRNA	32636
Mr	32634
Ġplastic	32623
Ġharm	32622
ĠWa	32618
Ġmatters	32611
Ġmerely	32610
Ġtherapeutic	32595
Hu	32592
Ġemergency	32592
Ġsecure	32574
##ena	32573
ĠMer	32568
Ġ2020	32560
Ġ1990	32559
ĠSecurity	32538
ĠLike	32536
##OM	32528
Ġmo	32525
##eas	32524
ĠCup	32520
Ġcontainer	32514
Ġobservation	32507
Ġneutral	32495
Ġdifferential	32495
##SC	32482
Ġperspective	32482
Ġexperiences	32481
##Un	32475
Ġsn	32473
##oh	32472
##As	32469
Ġhundreds	32469
Ġmix	32462
Ġhundred	32449
Ġpassing	32438
***	32435
##).	32427
$$\	32422
Ġhate	32412
pa	32408
##ination	32401
Ġpin	32401
Ġlowest	32394
##St	32393
Any	32392
Ġexecutive	32391
Ġpairs	32386
Ġexplore	32385
ĠChi	32380
Ġdetermining	32366
##AA	32358
ĠĠĠĠĠĠĠĠĠĠĠĠĠĠĠĠĠĠĠĠĠĠĠ	32353
##RS	32352
ĠAre	32347
ĠRead	32325
##}\	32313
ĠSe	32309
##Config	32307
File	32305
##ney	32285
Ġlived	32281
##ave	32276
Ġaspect	32261
Ġfamiliar	32259
Ð	32258
En	32252
high	32249
={	32248
Ġclosely	32243
css	32235
##UR	32206
ĠÃł	32199
Ġproved	32192
Ġ\{	32186
Ġdirectory	32175
Ġwrt	32174
Ġextract	32172
Ġshut	32162
Ġregister	32142
Ġposted	32134
Ġwalking	32122
Ġtip	32121
ĠBio	32121
150	32120
Ġsignificance	32113
Another	32111
Ġpolitics	32111
Ġtelling	32110
##cent	32108
Ġscreening	32107
##ded	32106
##orm	32101
Ġterminal	32100
float	32077
Ġliability	32060
ĠGl	32059
Ġtrans	32058
Ġtrees	32051
ĠCF	32045
Ġvivo	32040
ĠCM	32037
Ġrapid	32033
Ġserving	32030
ĠSen	32024
build	32017
##ria	32016
)[	31990
rs	31989
ĠSea	31989
##74	31984
##Property	31983
##row	31969
##EE	31956
Pr	31949
Ġmonitoring	31944
Ġed	31932
Ġprimarily	31930
Ġblocks	31930
Ġpe	31923
pr	31904
Ġbranch	31887
##ids	31885
description	31884
Ġtube	31879
query	31873
Ġinitially	31870
Ġloved	31856
"]	31845
##var	31840
ĠEC	31836
ĠGen	31823
Ġclassification	31819
Where	31810
##Result	31809
Ġcities	31794
Ġoperators	31792
Ġidentical	31772
ĠSa	31772
ĠPI	31770
##unt	31765
Ġsa	31762
##KE	31760
##mar	31755
##cs	31754
##alo	31749
Ġmedian	31748
Ġtrend	31738
Ġlots	31732
Ġextend	31732
Ġmaps	31730
}]	31728
Ġsports	31728
Ġconsole	31728
Ġbeam	31721
Ġregression	31710
##ink	31708
Ġdollars	31699
ui	31688
##izer	31686
Ġinjuries	31683
##ira	31680
Ġeating	31674
Ġsouth	31668
ĠAL	31667
minimal	31663
Ġdimension	31659
Comp	31654
ĠJan	31651
amp	31648
Ġleague	31645
à¤	31644
Ġdelivered	31643
##ris	31640
Ġimplemented	31636
tab	31630
Ġdisorders	31616
Ġdrink	31613
options	31610
Ġclassical	31603
013	31600
Ġcloser	31596
documentclass	31592
Ġgrown	31592
Ġsensor	31584
Ġfund	31584
len	31573
Ġbusinesses	31571
ĠPT	31568
Ġfont	31565
##well	31564
Ġminimal	31563
ĠJones	31549
Ġcontributions	31536
Ġconsists	31530
ĠKey	31522
Ġinjection	31515
ĠAc	31512
ĠDel	31498
Ġ"(	31494
Ġaccordance	31486
Ġ400	31480
##oke	31478
Ke	31467
Ġ1998	31464
Ġbigger	31440
##32	31436
Ġenhanced	31429
Ġka	31428
Ġremoval	31427
CIT	31426
Ġleadership	31416
Ġpet	31415
server	31402
home	31401
ĠIran	31397
ĠÎ²	31387
Ã	31367
Ġind	31354
cos	31351
##70	31351
##ob	31350
Ġlaser	31330
Ġbodies	31323
Ġgrid	31319
trans	31317
ro	31313
Ġprevalence	31313
##EC	31312
Ġpatent	31312
Ġneck	31298
jpg	31291
number	31282
##otic	31282
##map	31279
obj	31277
make	31249
##aa	31245
Ġaccounts	31245
##Be	31244
##file	31241
Ġcaught	31233
##fer	31227
Ġsurgical	31227
ĠVer	31227
##con	31226
.-	31224
Ġorganizations	31223
Ġgenome	31218
Ġapparent	31206
Ġlocations	31201
##ass	31197
##py	31190
Ġsynthesis	31182
Ġconsequences	31164
ce	31160
Ġapproval	31158
Ġopportunities	31149
Ġsorry	31146
ĠTrans	31145
Ġelectrical	31133
Id	31124
##Ref	31106
Two	31093
ĠVan	31086
man	31084
Ġcorrectly	31081
Ti	31073
ĠIll	31065
Ġdownload	31062
##cing	31060
Ġdepression	31054
Ġmaintenance	31053
Ġfigures	31049
##ĉ	31043
##Ã³	31041
Ġrepeated	31033
os	31030
mail	31017
##hl	31016
Ġdenote	31010
Ġarrived	31010
ĠTri	31000
ĠGar	30994
Ġinternet	30991
Ġfacility	30982
##late	30973
##yo	30971
ĠCheck	30965
Ġ"\	30953
##Client	30946
Ġthoughts	30939
Ġrotation	30934
Int	30931
Ġclosest	30927
ĠÃĳ	30919
##NI	30916
\"	30914
Ġpathways	30914
ĠNC	30912
called	30904
''	30896
Lo	30880
##iation	30862
ĠIR	30861
Ġsyndrome	30857
##Page	30834
##|\	30830
##,\	30830
##From	30825
##Ċ	30822
##-\	30821
Ġshop	30820
Ġ1000	30819
ĠApple	30817
Ġaccident	30812
Ġproportion	30803
Ġremote	30802
Ġ{}	30796
ea	30784
Ġtrouble	30770
Ġposts	30761
template	30748
Ġpointed	30746
Ġdisplayed	30746
Ġsurrounding	30742
##ima	30740
##82	30738
ĠUp	30728
##30	30718
Ġmutations	30714
Ġcharacteristic	30713
ĠProgram	30698
##HA	30697
Ġabsolutely	30686
]^.	30685
ĠDemocratic	30685
Ġmiss	30684
ĠCall	30683
Ġdepend	30678
Ġpark	30669
Ġpractical	30668
Ġlaunch	30664
##eb	30662
2007	30652
Ġinstruction	30644
Ġupdated	30640
Ġsounds	30639
##ren	30635
Ġbacteria	30630
ĠMs	30628
Ġden	30619
400	30608
Ġapparently	30598
##onic	30593
Ġintegrated	30584
Ġemotional	30576
Ġcultural	30559
##Version	30535
Ġclients	30535
Ġstages	30530
ĠVi	30514
lt	30511
Ġtea	30508
Ġhelping	30505
ĠMartin	30502
Ġ1997	30502
Ġhypothesis	30499
non	30496
##ros	30491
##Cl	30469
##61	30461
Ġsoil	30457
Ġcentre	30446
Ġsheet	30441
Ġlen	30433
##iver	30427
ĠLand	30427
##Line	30426
]);	30418
Ġspectra	30406
1000	30404
Ġ"""	30404
ĠWilliams	30399
ĠPolice	30388
2006	30380
##itation	30376
Ġcommittee	30374
google	30371
Ġcoupling	30365
Ġconviction	30360
Ġfashion	30347
Ġimplied	30345
').	30334
Ġincidence	30334
ĠSk	30334
##ark	30328
103	30322
ĠDen	30317
Ġadopted	30316
call	30315
##ugh	30313
Ġsubmitted	30297
##mia	30295
Ġkitchen	30285
ĠCL	30284
Ġce	30283
ĠAppellant	30282
##lib	30279
ĠES	30279
##pu	30275
##fo	30263
mode	30252
Ġdomestic	30238
update	30236
ĠDes	30236
LA	30233
Ġtopic	30228
)/(	30226
##By	30225
Ġsolar	30222
sensors	30214
Ġdraft	30212
Ġneuro	30197
Who	30182
dec	30165
Ġconstructed	30163
Č	30155
Ġargued	30150
Ġdogs	30143
Per	30142
Ġdescribes	30140
Ġwh	30130
Ġcoffee	30130
cor	30129
Ġpictures	30123
##Ð°	30110
##ien	30102
##ÃŃ	30098
Ġprovisions	30098
Ġtransformation	30085
##gue	30084
ĠShi	30073
##get	30068
Ġepisode	30067
##72	30063
\]),	30060
conf	30059
ins	30055
Ġprefer	30048
Ġimplement	30037
ĠHE	30033
sm	30031
Ġclimate	30018
Ġcounts	30007
##ibility	30005
Po	30002
search	29997
Ġapart	29988
##kl	29983
ĠOs	29983
Ġflag	29982
pdf	29981
ĠOl	29971
ĠJo	29970
Ġessentially	29960
Ġconstitutional	29949
Ġ\>	29942
Ġconversion	29935
Ġmarkets	29933
##dir	29926
mod	29925
Ġmanage	29924
Ġmarked	29920
Ġcopyright	29920
ĠAttorney	29900
##CO	29896
ind	29894
control	29892
tra	29889
##Ñĥ	29886
ĠDevelopment	29883
Click	29882
}{-	29880
Ġtasks	29880
Ġtotally	29874
auto	29864
Ġencoding	29863
##fr	29862
##^{	29859
##Ãĥ	29851
Ġexplanation	29848
Ġbright	29848
ĠTop	29847
##Is	29831
Ġdiscretion	29831
##IO	29829
##oz	29827
port	29824
Ġcategories	29815
##las	29807
Ġspatial	29807
Te	29804
##ado	29798
ĠReal	29798
ĠCare	29797
Ġtaxes	29776
Ġfeedback	29767
Ġtaste	29764
Ġguidelines	29759
014	29744
Bi	29743
##cer	29739
Ġng	29725
Â	29721
160	29720
)+	29705
Str	29700
Ġspeaking	29700
setlength	29693
Ġmaintained	29685
Ġar	29684
Ġraw	29678
##osa	29677
Ġ1996	29675
Ġop	29673
##vel	29671
Ġdream	29663
##Mode	29655
Ġdesire	29650
Ġchapter	29645
Ġdep	29644
small	29640
SO	29636
ĠGC	29631
Ġent	29627
Ġdeclared	29626
Ġ})	29622
Â»	29618
ps	29618
pos	29618
Ġregime	29617
ĠSh	29616
##PS	29614
##oi	29613
Ġrecording	29613
Ġimmediate	29602
##RD	29601
Ġclock	29596
ĠWho	29596
Ġultimately	29587
ĠĠĠĠĠĠĠĠĠĠĠĠĠĠĠĠĠĠĠĠĠĠĠĠ	29582
##burg	29581
ĠServices	29553
ĠTra	29547
Ġcognitive	29534
package	29524
TO	29517
Ġoffering	29515
Ġph	29504
amsmath	29495
Ġ01	29472
other	29462
##uit	29461
Ġgi	29456
Ġgrade	29452
ĠCorp	29451
El	29450
Ġwonder	29447
Ġtells	29446
##Source	29445
Ġsm	29441
txt	29417
\}	29414
##enti	29407
ĊĠĠĠĠĠĠĠĠĠĠĠĠ	29407
##ware	29403
put	29396
GL	29366
Ġreporting	29366
Ġcon	29365
Ġrecognition	29359
Ġpreparation	29352
Ġrealize	29348
Ġfiber	29344
]]	29341
##ture	29334
Ġtreatments	29334
Ġcat	29331
ĊĊĠĠ	29330
ĠPower	29325
Ġ&\	29325
Ġcha	29317
##rin	29312
Ġwine	29311
Ġpermit	29302
Ġtransform	29301
Ġcur	29300
##UL	29288
##ters	29279
amssymb	29275
016	29270
ĊĠĠĠĠĠĠĠĠĠĠ	29269
##SA	29268
SA	29264
Ġok	29263
##Number	29260
ĠBR	29244
UN	29240
##ision	29233
Text	29232
##ori	29225
][@	29216
Ġlogic	29215
Ġhelpful	29214
Ġnm	29213
015	29212
}}{\	29210
amsfonts	29207
Ġmodify	29202
##imi	29200
Ġregulations	29198
]$	29184
Ġbond	29177
Ġfinds	29176
Ġexamine	29176
Ġbars	29175
Ġrespective	29170
##94	29168
Ġspoke	29166
Ma	29155
car	29154
Ġcurves	29142
##ind	29141
Ġobviously	29141
mathrsfs	29140
Ġcamp	29138
Ġrequested	29134
Ġprinciples	29134
amsbsy	29132
upgreek	29126
110	29125
##AD	29123
doc	29122
##path	29114
##ola	29114
frame	29111
Find	29099
oddsidemargin	29097
wasysym	29091
only	29090
##cher	29081
Ġ$(\	29076
Ge	29071
Ġdiscovery	29070
ĠHO	29062
Ġsituations	29058
bool	29057
Ġleg	29043
ĠMake	29037
ĠMicrosoft	29034
ip	29032
ĠER	29030
Ġmoral	29018
IS	29015
##ada	29015
##IM	29013
qquad	29010
##),	29007
##On	29001
star	29000
>,	28998
Ġtumors	28997
ĠDonald	28976
##ii	28966
Ġbug	28943
2005	28941
ĠHill	28935
Ġqu	28929
ĠIsland	28918
]\	28916
ĠSecretary	28911
Ġparticipate	28904
Ġworst	28892
##Ã¤	28889
##ett	28889
130	28877
Ġlies	28873
ĠText	28868
part	28862
Ġbeat	28858
##yst	28857
ĠAdditionally	28854
##ame	28853
##ont	28850
ĠLO	28845
##All	28841
method	28834
##à¸	28811
Ġshooting	28808
##iss	28805
##we	28804
##..	28804
Ġanyway	28795
strong	28789
Ġcrucial	28787
##Ĵ	28780
]}	28771
##000	28767
Ġcompliance	28764
000000	28762
Ġyouth	28759
##İ	28756
Du	28753
ĠÎ±	28752
ĠPeter	28747
Ġion	28746
Because	28741
Ġloan	28740
ĠCha	28729
ĠModel	28728
Ġ192	28707
##86	28706
ĠDemocrats	28703
Ġbought	28702
Ġsetup	28701
Ġstem	28691
Ġalpha	28691
##MP	28681
ap	28680
Ġrain	28676
Ġcalculate	28671
2001	28670
Ġassets	28665
Ġpulled	28654
:(	28645
Other	28642
##din	28640
}^{(	28639
##75	28632
root	28628
meta	28627
##ÑĤ	28625
Ġsegment	28621
Ġhappening	28610
Ġfa	28609
##Ã¶	28608
ĠJournal	28604
Ġfamous	28602
##els	28589
ĠIns	28583
Ġsomewhat	28575
entry	28574
Ġrequests	28572
102	28570
Ġtransaction	28565
==========	28561
Ġtranscription	28560
Ġgate	28559
Ġowners	28548
ph	28543
Ġspectral	28541
Ġho	28540
Ġbehaviour	28537
##84	28531
Ġ250	28529
Ġarrested	28522
Ġcontents	28516
Ġenforcement	28515
##MS	28502
ĠTH	28502
Ġhurt	28493
##rio	28491
>>	28483
ĠDirector	28483
ĠCho	28479
Ġruling	28474
Ġdrawn	28474
##ym	28469
##can	28463
Ġpres	28462
##Date	28451
##ography	28445
##Factory	28443
ĠSociety	28438
Ġbra	28435
##house	28423
Ġteaching	28417
Ġbear	28406
Ġglucose	28404
Ġimagine	28399
##rad	28395
čĊĉĉ	28389
Supplementary	28388
Ġpreferred	28376
Ġune	28368
ĠRock	28368
Ġpop	28366
Ġ],	28364
pro	28357
Ġpossession	28351
Ġconfirm	28350
Ġacc	28348
Ġworry	28347
Ġintelligence	28335
Ġpicking	28332
Ġhidden	28327
##Label	28322
approx	28314
ĠCont	28309
Ġinfected	28306
##bit	28303
##uk	28298
##Buffer	28291
Ġthick	28285
Ġdeaths	28283
##×	28281
ĠTE	28274
$(	28273
center	28270
ĠOP	28266
Ġschedule	28262
##yr	28254
Ġdriven	28254
##ining	28250
Ġweather	28245
##ico	28242
##ides	28232
##yer	28231
Ġpy	28231
Ġass	28217
Ġwonderful	28214
##ega	28211
push	28210
##nz	28198
##hood	28187
Ġenzyme	28186
Ġfighting	28184
Ġrein	28177
Ġlay	28172
ĠThose	28160
Ġapplying	28156
Ġvi	28155
ĠCE	28145
Ġinstant	28143
response	28141
Ġnormally	28136
Ġbeta	28135
Ġvillage	28126
Ġvoters	28119
##Fi	28088
Ġpowers	28088
ĠRoad	28085
Ġescape	28073
Ġim	28071
Time	28069
tt	28061
##rit	28060
Ġweapons	28056
Ġnoticed	28055
##ency	28050
##App	28049
##ures	28041
##type	28040
CF	28037
ĠmM	28031
Ġproliferation	28028
ĠBu	28023
ĠSocial	28018
Ġwood	28013
##vin	28012
Ġcarrying	28012
Ġrealized	28006
fi	28002
Ġcounty	27999
More	27995
##ush	27983
Ġ:)	27965
Ġdivision	27963
Ġextreme	27953
Ġroles	27952
Ġpermission	27951
Ġassumption	27949
align	27944
buffer	27941
Ġvertical	27933
Ġmechanical	27933
##pl	27929
Ġcontroller	27929
Ġ102	27925
##ily	27923
ĠBur	27923
##Method	27921
Ġtough	27919
ĠKi	27919
##ines	27918
Ġdischarge	27918
##pen	27917
Ġreads	27913
Ġintegral	27913
Ġobserve	27905
ĠTe	27879
mid	27867
Ġpa	27863
^+	27855
Ġoverride	27853
##ãģ	27850
Ġourselves	27848
Ġassault	27843
ĠValue	27834
ĠVol	27830
host	27825
Ġregistered	27814
Ġos	27806
Ġacids	27801
Ġsubstantially	27794
Ġseparation	27792
##Stream	27790
Ġattempts	27790
017	27787
Ġinfections	27784
ĠEducation	27772
##II	27771
sup	27767
##UT	27758
Ġban	27756
##fully	27755
Ġmetric	27753
molecules	27752
##OP	27749
Bu	27739
ĠLos	27736
ptr	27726
Ġ===	27720
Value	27710
ĠAF	27698
Ġboolean	27697
##OC	27695
Ġcl	27691
Ġaccused	27677
%),	27673
##nel	27668
Ġmillions	27652
{}	27647
msg	27647
Ġexcited	27642
##ken	27638
Ġseparated	27633
AC	27631
)}$	27629
Ġseed	27628
ĠKorea	27627
Ġmoderate	27618
##ound	27614
Ġconstruct	27605
foo	27587
Ġexperts	27585
Ġresolve	27583
Bar	27567
##Ã©r	27563
Ġlegislation	27563
Ġdiameter	27557
Ġintegration	27548
Ġbrown	27542
##Response	27539
Ġ104	27539
Ġpaying	27535
##vis	27534
Ġdropped	27530
##Sp	27516
Ġmedicine	27506
Ġuniversity	27500
##96	27499
Ġpi	27495
Ġcorrelated	27484
2019	27482
ĠDivision	27477
df	27472
tag	27456
Ġradius	27447
Ġviral	27445
##load	27440
Key	27431
cf	27426
Ġconsumer	27426
Ġchi	27426
Ġopposition	27422
Ġcla	27417
Ġplanned	27413
ĠNE	27413
Ġfee	27402
018	27391
##Base	27386
##Action	27384
##}}	27383
ĠWilliam	27382
Ġdealing	27381
Min	27380
Ġintroduce	27375
##uch	27374
Ġstick	27372
neq	27369
ta	27368
-------------------------------------------------	27365
##pc	27364
##ici	27362
Ġni	27362
Ġdocumentation	27361
##pace	27358
Ġrecognize	27356
Ġbowl	27354
ĠBlue	27345
Ġ>=	27342
Ġsister	27339
Ġdinner	27339
180	27332
Ġorgan	27322
ĠAnti	27321
Ġplain	27319
Ġinstitutions	27319
ĠOrder	27311
2004	27299
##De	27295
ĠGO	27287
>&	27283
Ġcars	27281
##zing	27280
ĠGNU	27276
bottom	27252
Ġpurchased	27252
##lor	27248
##ito	27247
##esc	27247
Ġsmart	27246
Ġev	27246
Ġsizes	27243
Ġflash	27243
Ġsimulation	27235
Ġknowing	27235
^-	27234
Ġreactions	27212
inc	27209
ĠSec	27208
Ġmail	27207
ed	27200
Ġfeels	27199
Ġinf	27194
Ġcrystal	27192
te	27187
ĠWhere	27179
ĠPO	27174
Ġcorporate	27173
ass	27168
ĠAnn	27166
ĠAN	27154
Ġwinning	27139
}'	27134
Cor	27131
Ġpromise	27128
ĠInf	27128
##mann	27123
ĠSm	27122
##',	27119
##mes	27111
CL	27104
Ġreligion	27098
Ġreliable	27098
125	27096
ĠPort	27093
ĠMen	27089
ĠCar	27077
**(	27075
Ġsharing	27071
Ġincreasingly	27070
ĠGame	27069
["	27060
Ġokay	27050
Ġowned	27043
Ġ\-	27042
mathsf	27035
Ġtransferred	27023
Ġkinds	27023
ĠKar	27016
Ġfi	27014
ĠBO	27011
##wo	26996
Ġcomplicated	26986
ĠCol	26985
Ġconvert	26981
Ġentity	26980
Ġindustrial	26979
ĠDR	26977
Ġsubstance	26973
filter	26964
ĠMaybe	26958
who	26954
Ġci	26951
Ġanswers	26951
Ġdist	26950
ĠAmendment	26947
##Al	26946
Ġvictims	26936
Ġkeys	26936
##ran	26931
ĠPE	26930
Ġrapidly	26924
ĠExp	26924
ĠLake	26923
Ġdust	26922
UI	26919
Ġdecade	26916
##hed	26910
Ġoriginally	26909
Ġforming	26909
Ġdual	26907
FA	26906
ĠVa	26906
Ab	26904
ĠGrand	26890
People	26888
ĠMO	26877
Web	26873
##ncy	26868
##aring	26863
Ġinduction	26859
##lam	26858
)*(-	26855
Ġslowly	26846
service	26844
##van	26844
Ġextensive	26843
AL	26841
Ġbrowser	26837
Ġ--------------------------------	26836
##UI	26825
##Filter	26824
*^	26812
------	26805
disc	26802
##25	26801
ĠĠĠĠĠĠĠĠĠĠĠĠĠĠĠĠĠĠĠĠĠĠĠĠĠ	26799
##oss	26797
ĠmiR	26793
Ġacquired	26778
ĠMexico	26777
]{},	26770
Ġguard	26770
header	26766
Supp	26766
mem	26763
Ġ1995	26761
##elo	26754
Ġlie	26753
Ġ-\	26747
Ġtheorem	26746
##gin	26739
##amine	26731
##zy	26721
ĠEvery	26720
##Token	26718
-(	26710
Ġinv	26691
Ġrender	26680
element	26679
Ġrestaurant	26677
##ere	26674
ĠIraq	26674
Ġbattery	26671
Ġpresentation	26662
ĠFL	26656
ĠAli	26655
Ġlock	26653
Ġprobe	26650
Date	26647
##ë	26645
Ġaddressed	26643
Ġcol	26642
##Point	26640
Ġrisks	26640
None	26632
ĠTR	26630
Ġregulatory	26626
Ġpsych	26626
##LO	26625
##atory	26619
Ġcolumns	26609
Ġflu	26599
Ġwinter	26598
Ġheader	26593
Ġcircle	26592
some	26589
ĠBre	26587
##Format	26586
ĠAI	26583
Ġpayments	26579
Hey	26575
Ġfails	26571
Before	26570
Ġera	26567
Ġreviewed	26566
019	26561
Ġ{{	26561
Ġstatistics	26551
Ġcompensation	26545
Ġrecall	26541
Ġil	26541
ĊĊĠĠĠĠĠĠĠĠĠĠĠĠĠĠĠ	26539
Ġmigration	26537
Ġill	26533
ĠDar	26531
Ġ<-	26531
Ġshell	26529
##IF	26525
Ġfairly	26524
Ġcoll	26524
##par	26517
ĠAu	26512
Ġsymbol	26505
Ġinflammatory	26501
##iti	26497
Ġaudience	26488
Thank	26487
Ġrows	26487
##light	26480
Ġwire	26478
##kt	26475
Ġdependence	26475
Ġhydrogen	26467
Ġwindows	26455
##GI	26451
Error	26450
ĠKr	26450
ĠWall	26443
Ġmomentum	26441
##IE	26433
Last	26431
##TER	26428
Ġenhance	26428
##Layout	26426
Ġsuffering	26426
##Ex	26425
ĠHR	26420
ĠMel	26414
Ġclusters	26413
Ġexcess	26407
(_	26406
Ġrecover	26402
Ġgoods	26398
args	26393
250	26393
Ġhotel	26392
##CS	26390
ĠVersion	26377
Ġfe	26362
ĠIF	26362
##rp	26354
ĉĉ	26341
ĠMu	26330
RA	26324
Ġflux	26321
Ġexpand	26318
Also	26311
ĠVirginia	26310
ĠTeam	26310
Ġlisten	26309
Ġchoices	26308
ĠScott	26299
Ġtwenty	26289
Ġ105	26289
});	26283
Ġregardless	26279
##Status	26273
Ġtemperatures	26264
}+\	26254
Ġ1980	26254
Trans	26253
##Se	26249
vector	26239
Ġpursuant	26238
105	26210
##een	26208
Ġwarning	26201
##illa	26195
##arr	26194
Ġuniverse	26190
box	26185
any	26184
Ġengaged	26182
Ġcomfortable	26178
Ġmini	26172
##ement	26168
Ġvehicles	26167
)))	26166
##ras	26165
##iness	26155
Ġregional	26154
ĠCharles	26146
Ġadverse	26144
##FI	26142
Ġcapture	26142
##rv	26138
Ġsimulations	26137
Ġbanks	26135
Ġsurfaces	26129
ev	26128
Ġpublication	26122
##Ca	26117
Ġcook	26099
ĠChief	26094
Ġaside	26087
ĠOhio	26086
are	26083
"}),	26078
Ġyounger	26074
Ġtab	26072
Ġå	26071
ĠDoes	26069
Ġedges	26059
}\,	26054
##nie	26051
Ġkilling	26051
Â¼	26046
Ġrational	26032
American	26031
Ġreform	26022
ĠMrs	26022
##Co	26021
Ġrock	26020
##uel	26019
Ġlaboratory	26018
Ġcoupled	26017
00000	26011
Ġoperate	26011
##bra	26010
ĊĠĠĠĠĠĠĠĠĠĠĠĠĠĠ	26001
down	25996
##hal	25996
ĠThree	25996
Ġdeliver	25992
##bin	25990
Ġsuffered	25990
Ġscenario	25990
Ġprogression	25981
De	25979
Ġbin	25978
Ġja	25975
Ġnum	25971
ĠGra	25970
194	25964
Ġodd	25961
##osition	25953
Ġstores	25952
Ġdelete	25947
##=\	25944
Ġturning	25939
PC	25933
Ġmutation	25932
&\	25931
Ġsky	25930
}}}}	25923
##iat	25923
Ġsubsequently	25921
##76	25920
ĠAppeals	25918
Ġver	25917
##ÑĢ	25911
ĠReview	25909
##nia	25908
Ġheads	25908
Ġbreath	25908
Ġfo	25888
gr	25883
##ju	25881
##Ã¼	25875
ĠNon	25870
Ġperi	25864
common	25856
="#	25856
Image	25852
Ġrefused	25851
Ġcolors	25844
Ġbuildings	25835
ln	25834
Ġelectrode	25833
Ġ103	25832
Ġcalculation	25831
Ġalign	25831
Ġattempted	25817
Ġproducing	25814
Ġwriter	25811
Ġgrounds	25807
Ġhell	25805
)}{	25802
ĠMary	25792
##iva	25790
ĠWE	25788
ĠCanadian	25785
Ġinhibitor	25784
ĠOh	25782
Ġboost	25781
Ġsmoking	25780
Ġfoods	25779
##LY	25770
Ġstrike	25769
Ġwalls	25767
Ġ106	25767
Tra	25754
Ġstimulation	25751
Ġproposal	25743
system	25742
let	25735
double	25733
Ġstood	25732
AA	25729
Ġroll	25727
Pl	25726
Ġbo	25720
Ġflight	25718
ĠLog	25716
Ġ109	25715
Ġcorresponds	25713
ĠJewish	25705
Ġapoptosis	25697
Ġemployer	25689
}"	25675
Ġfarm	25672
##SP	25670
CO	25668
ĠMiddle	25667
ĠBush	25664
attr	25659
ĠCell	25658
Ġtail	25657
Ġstack	25657
Ġboys	25655
Ġshock	25650
Ġbelief	25650
##Controller	25648
Ġstands	25647
Ġfacing	25639
Ġversions	25638
Ġtrace	25636
Ġbeer	25629
can	25628
Ġwelcome	25628
}^\	25620
Ġcontributed	25614
020	25612
ĠCarolina	25610
ĠMil	25605
ĠRichard	25592
ĠPrime	25592
Ġrepresenting	25590
##table	25584
Ġplenty	25577
2003	25573
Ġhash	25571
Ġproceedings	25570
Ġlens	25570
/>	25565
Ġbasically	25562
IN	25561
OR	25556
Vert	25555
Ġinvolvement	25545
ts	25544
Ġsuperior	25533
ĠGiven	25525
ĠGP	25523
eps	25522
ĠAv	25520
Ġminister	25514
Ġinflammation	25510
Ġexecution	25498
ĠAmong	25498
Ġwa	25496
Ġreceptors	25496
ĠRepublicans	25492
Ġ$|	25487
##fin	25486
Ġtheme	25485
ĠBell	25483
##Style	25479
Ġrepeat	25468
##](	25466
##lation	25465
Ġ130	25464
Ġyellow	25449
ĠError	25446
ĠZe	25442
Ġmapping	25439
Ġarbitrary	25438
ĠCe	25438
position	25435
ĠAge	25434
##nis	25431
Âģ	25425
Ġchamber	25425
##á»	25422
Ġinclusion	25421
Ġgauge	25417
##win	25415
ĠAustralian	25412
%;	25407
Ġattribute	25407
remove	25401
Ġprotest	25390
Ġ1994	25389
month	25387
Ġteacher	25381
Ġhyp	25380
##aries	25379
##point	25367
##Log	25363
device	25360
Ġmodes	25358
##uo	25357
rel	25356
Gi	25356
##BA	25355
##gy	25351
##PO	25351
ĠWA	25350
Ġwalked	25348
BA	25346
256	25345
Ġprepare	25342
ĠJoe	25342
Ġequally	25335
##ats	25331
##WA	25330
Ġfellow	25327
Ġcoefficient	25326
ni	25321
##Sh	25316
Ġverdict	25310
Ġthickness	25309
##ple	25308
Ġpulse	25308
Ġconsumers	25304
##mark	25302
Ġopposed	25300
gen	25297
Ġthrows	25297
Ġisland	25292
ĠJackson	25282
Ġperforming	25281
ĠMc	25280
ĠJack	25280
]"	25272
##å	25268
##och	25265
##01	25262
Ġmoves	25256
Ġjourney	25254
Ġuniversal	25253
AP	25252
Ġbacterial	25242
ĠRen	25236
Ġapplies	25232
192	25222
close	25221
space	25214
Ġaudio	25209
ĠAccordingly	25200
##LD	25189
Ġagencies	25186
Ġnano	25182
Ġfly	25180
child	25179
Ġdiversity	25177
Ġsand	25175
Ġmes	25174
Ġ190	25174
AB	25163
Ġvol	25157
##ians	25153
Ġadjacent	25153
ng	25152
Ġcontrary	25149
project	25148
Ġplanet	25142
>.	25137
Ġpregnancy	25135
cd	25130
Ġdecline	25121
ĠMike	25119
Ġinduce	25118
##Options	25116
Ġro	25116
Ġperiods	25111
Ġsatisfied	25105
Ġsharp	25102
Ġfore	25099
Ġstronger	25088
Even	25085
Ġcouncil	25078
ĠPu	25074
load	25063
Ġmissed	25062
Ġbutter	25062
namespace	25049
Ġusage	25047
Ġrank	25043
Ġcreates	25040
Ġbulk	25039
ĠPL	25039
##Or	25036
##Get	25035
Ġ111	25032
THE	25019
Ġgarden	25018
Ġwherein	25017
Ġdimensions	25017
ĠUser	25016
Ġpermanent	25013
Ġmagnitude	25009
Ġcards	25009
ĠNetwork	25009
Ġmutant	25004
Ġsaved	25002
Ġstatistically	24998
ĠYet	24998
ĠMap	24973
Ġbegins	24968
Ġshares	24962
Ġclassic	24952
Ġongoing	24950
~,	24948
TYPE	24947
Ġprofiles	24944
ĠWater	24943
ĠPur	24941
Ġthereof	24939
Ġintake	24939
ĠED	24939
Â´	24927
##rim	24925
Ġconnections	24922
Ġdivide	24916
Ġcoefficients	24915
Ġmarkers	24905
##ĠĠĠĠĠ	24903
two	24902
Ġspirit	24901
Ġdecreasing	24900
Ġexcluded	24879
Ġdiv	24879
Ġbringing	24877
Ġcutting	24872
Car	24858
Ġnewly	24855
Ġeditor	24849
replace	24846
##ction	24845
Ġacademic	24840
Ġsubs	24827
##BC	24821
Ġevil	24820
##rated	24817
Ġ),	24812
View	24805
ĠNext	24804
ĠMain	24801
##GL	24800
Ġsymmetry	24799
ĠNor	24796
==	24792
##lock	24792
##eno	24791
Ġcomprehensive	24790
inv	24788
Ġvariance	24785
ĠSH	24780
Ġteachers	24778
Ġefficacy	24778
ĠTer	24778
Ġ108	24775
čĊĠĠĠĠĠĠĠĠĠĠĠĠĠĠĠ	24774
Ġanxiety	24772
xe	24769
Ġvictory	24767
Ġintermediate	24767
SU	24763
ĠLE	24762
ĠFire	24759
Ġconsequence	24748
mathscr	24740
Ġsubset	24737
Ġrequiring	24735
Ġsick	24734
fold	24733
Ġmask	24733
Ġreader	24732
Ġlosing	24729
About	24723
Ġchose	24722
.âĢĻ	24719
Ġshouldn	24714
ĠFind	24711
=======	24705
Ġmanufacturing	24702
Ġselling	24699
ĠIM	24696
ĠDep	24685
Ġju	24677
Ġcomplications	24673
Ġadequate	24673
##And	24672
##ked	24661
Ġdiagnostic	24660
Ġextracted	24659
Ġtargeted	24653
ĠCON	24641
##85	24634
##pol	24622
Ġcache	24613
)|	24612
Pe	24611
User	24610
Ġlesions	24603
Ġinjured	24599
internal	24598
Ġpowder	24593
104	24592
Ġ::	24591
Ġpaint	24587
}|	24581
Ġanalyze	24579
ĠFrank	24577
ĠSimilarly	24572
ĠGold	24571
Ġ<=	24569
offset	24560
"}](	24559
;</	24555
Ġsuspect	24554
##é	24545
Ġbits	24535
ĠAnalysis	24526
Ġtrained	24517
2002	24509
##RC	24504
ĠShow	24500
##db	24499
Ġinfrastructure	24490
##link	24484
Ġsu	24484
##err	24481
123	24476
Ġpredict	24470
ĠLocal	24467
111	24461
ci	24457
Ġprec	24456
Ġtour	24452
##Frame	24451
Ġexp	24448
ĠImage	24448
Ġmetabolic	24439
Ġstrange	24435
##ifies	24428
Ġvaluable	24415
Bl	24414
nav	24410
ĠMedia	24402
Ġbridge	24399
Ġafternoon	24399
Ġ128	24394
Ġprofit	24389
Ġcomputed	24387
ĠTrue	24376
##yd	24375
Ġbrings	24374
ĠArmy	24372
##11	24369
Ġinstances	24369
bu	24368
ĠBoston	24361
Ġwearing	24353
ir	24347
Ġconservative	24347
Ġdiagram	24346
Ġmoments	24341
Ġfaces	24341
##ope	24333
display	24332
##isi	24330
Ġmild	24320
(*	24312
ĠSU	24312
example	24309
Ġreserved	24308
Class	24292
Ġ$\{	24291
##Ps	24287
ĠPet	24287
Ġlymph	24282
qu	24279
Ġcalculations	24277
ĠAA	24277
ĠTC	24273
Ġtape	24272
when	24264
Ġdifferentiation	24260
Ġactivated	24259
Ġtechnologies	24249
Ġtruck	24246
PA	24243
ĠKh	24242
##â	24235
ĠFROM	24232
Ġ180	24232
Ġreviews	24228
ĠCat	24226
ĠVI	24223
}},	24221
Ġapartment	24221
Ġkernel	24218
Ġcloud	24218
CI	24204
Ġrely	24201
ĠDespite	24199
##active	24198
##work	24194
##usion	24194
##Block	24193
##36	24192
dx	24189
His	24187
^,	24185
Ġ1993	24173
Ġdecay	24172
ĠChristmas	24168
PS	24164
DA	24164
##ree	24162
##Ch	24144
ĠAG	24144
Ġ1992	24137
Ġconf	24131
Ġchicken	24131
##ically	24129
ec	24123
##wan	24121
##ao	24114
before	24104
$_	24104
##91	24095
Ġcardiac	24095
108	24094
final	24089
Ġallegations	24088
ĠFed	24083
there	24082
Ġunsigned	24076
Ġya	24074
Ġnu	24071
Ġelected	24068
##Attribute	24067
Ġ"/	24065
Ġrenal	24042
ĠBased	24037
Ġdedicated	24035
Ġchecked	24033
Ġintroduction	24026
ĠCorporation	24024
.$	24023
Ġstroke	24017
Ġclassified	24017
ĠĠĠĠĠĠĠĠĠĠĠĠĠĠĠĠĠĠĠĠĠĠĠĠĠĠ	24017
including	24014
Ġinfl	24013
Ġsatisfy	24012
##rb	24011
ĠLight	24009
##ok	24006
values	24000
##action	23996
Ġseriously	23995
##TS	23991
Ġordinary	23991
Ġsurprise	23990
193	23985
##ela	23982
RE	23980
Ġrevenue	23972
HA	23967
Ġdistributions	23960
##ese	23958
##nal	23941
Ġgalaxies	23937
Ġvary	23932
Ġanywhere	23932
Ġaged	23931
Ġhistorical	23930
Ġbytes	23927
##OW	23921
600	23918
ĠDI	23918
##Î±	23915
Ġsnow	23913
ĠPan	23912
US	23900
Ġsteel	23894
1999	23891
Ġbr	23874
Ġsemiconductor	23872
rest	23871
Ġinstrument	23871
Ġcorrection	23871
ĠFE	23870
Qu	23868
##GC	23866
ĠParis	23865
Ġcolour	23864
##ãģ®	23857
Ġpresents	23856
Ġmatches	23854
Ġgift	23854
Ġstrict	23845
}}^{	23844
ĠSpecial	23842
ĠRight	23840
Ġkit	23839
##Comp	23835
##È±	23831
Ġtheoretical	23828
nm	23822
ĠTro	23822
Ġwarrant	23820
Â²	23819
##SH	23810
ĠClub	23805
##Width	23804
##com	23803
Ġlattice	23803
Ġperfectly	23802
Ġca	23801
ĠTS	23801
Ġpot	23799
0002	23789
Ġinvolve	23789
Ġpartners	23788
ĠGr	23782
##Input	23780
ĠMass	23778
ĠPage	23777
Ġmom	23769
##88	23768
limits	23760
.^[@	23757
Ġdiagnosed	23757
ĠNI	23756
Ġtoken	23753
Ġstaining	23743
Ġillness	23741
Ġfu	23740
Ġ&=	23731
ep	23730
CT	23730
positive	23729
Ġprediction	23728
MI	23718
##35	23717
Ġlaunched	23710
##lon	23697
Ġhem	23697
ĠCG	23685
ĠWT	23682
Ġincubated	23677
##ifier	23676
Ġchest	23676
Ġdataset	23672
##ges	23671
Ġdiffer	23671
real	23666
ĠDS	23665
##ished	23653
Ġcommit	23652
195	23648
Ġmetabolism	23645
ĠDate	23645
cpp	23643
Ġcarefully	23641
Good	23636
Ġeducational	23625
##oy	23624
Ġafford	23616
Ġstatutory	23613
Ġli	23613
ĊĠĠĠĠĠĠĠĠĠĠĠĠĠĠĠĠĠĠĠĠĠĠĠĠĠĠĠĠĠĠĠĠĠĠĠĠĠĠĠĠĠĠĠĠĠĠĠĠĠĠĠ	23613
##ede	23602
Most	23592
Ġyesterday	23591
Ġurban	23591
ĠJava	23590
##yc	23589
Ġdb	23586
Ġfraud	23582
Ġcho	23580
ĠLy	23580
##cast	23579
ĠGR	23571
##ape	23570
Ġ\;	23567
============	23557
ĠThanks	23553
EC	23549
ĠÐ	23549
ĠWomen	23547
Ġinsulin	23546
(\[	23542
ĠRO	23542
Ġ++	23539
rem	23537
ĠRet	23534
Ġà¤	23530
ĠYOU	23519
##ball	23517
Ġbreaking	23517
*/	23514
Ġlit	23512
Pre	23507
Ġthousand	23507
Ġmonitor	23505
Ġwest	23504
Res	23502
ĠAngeles	23497
ĠDetermine	23485
Ġhardware	23480
Ġride	23478
ĠPP	23475
##js	23467
Use	23460
Ġrounded	23458
address	23457
##data	23456
##BI	23452
##ection	23447
Ġ125	23447
##inc	23432
ĠĠĠĠĠĠĠĠĠĠĠĠĠĠĠĠĠĠĠĠĠĠĠĠĠĠĠ	23422
Ġdomains	23419
step	23417
Ġgeneric	23409
Ġpseudo	23403
icon	23402
##ĠĠĠĠĠĠ	23400
##INT	23399
Ġloaded	23399
lim	23395
Ġdrinking	23395
Ġsole	23391
ĠFar	23391
Ġdance	23389
Ġreferences	23386
Ġcarrier	23385
lock	23383
Ġsufficiently	23381
Ġroutine	23376
Ġcontends	23375
##URE	23373
##ead	23370
ĠRI	23370
ĠBefore	23366
Create	23364
##ech	23363
IP	23352
##etic	23352
Ġtranslation	23351
Ġcomplexity	23346
cons	23344
Ġes	23344
Ġpartially	23342
Ġvo	23340
##âĪĴ	23337
Ġimposed	23336
Ġneighborhood	23333
{-	23330
140	23329
Ġer	23329
Ġstrip	23311
\}$	23310
=(	23301
ĠSpace	23300
Ex	23299
##Builder	23299
Ġcomparable	23290
Ġdisclosed	23287
Ġsomewhere	23286
ĠCur	23282
ĠSN	23278
Ġjump	23276
##OT	23268
Ġtables	23262
Ġyields	23261
ĠSw	23258
##Br	23254
Fi	23253
Ġcontrolling	23242
##No	23241
Ġdenominator	23239
##ais	23238
ĠURL	23234
##DS	23230
ĠOld	23227
Ġ112	23224
Ġeast	23217
ĠEM	23213
Ġexc	23210
##Impl	23207
##kins	23203
Ġnumerical	23203
Ġcrowd	23202
Par	23200
##ĠĠĠĠĠĠĠ	23194
Ġdiscrimination	23190
Ġbelieves	23190
##onal	23189
Ġreveal	23188
##head	23186
us	23183
ĠBritain	23166
##+\	23160
Ġ191	23153
##ject	23148
EN	23142
ĠConstitution	23142
##oxy	23141
Ġsampling	23140
Ġconstraints	23140
ĠBL	23137
Ġbehalf	23136
,$	23135
dep	23128
mp	23122
Ġkn	23118
##Le	23116
Ġspo	23116
av	23115
##Content	23115
##iate	23111
Ġperipheral	23111
Ġtrigger	23099
##ident	23094
Ġadmission	23093
Ġsight	23089
IC	23087
Ġbread	23076
Ġmarketing	23075
ĠHTML	23069
Ph	23067
ç	23063
##ret	23057
##ius	23051
Ġ}\	23048
Ġserves	23047
During	23045
##ider	23038
##uta	23033
dist	23028
ĠMat	23024
021	23022
ĠMatt	23022
Like	23017
break	23012
##pat	23005
after	23004
ĠFox	23004
Ġ140	22998
"))	22996
ĠForce	22995
Ġscan	22990
mediated	22977
Ġhandling	22976
ĠYoung	22973
##eed	22971
Ġpassword	22965
##Bar	22963
Ġkid	22955
##ota	22945
##ml	22944
Ġchallenging	22943
Come	22938
Ġexplicitly	22938
##amp	22934
Ġ160	22932
ĠBusiness	22929
231	22927
Ġalive	22922
##ility	22918
textbf	22916
Expand	22906
ĠEm	22906
##the	22903
ubuntu	22901
Ġgrew	22900
aa	22894
Ġcited	22893
##hen	22881
Ġserial	22880
Ġneural	22878
BR	22874
ĠInv	22873
Ġsimultaneously	22867
ĠMin	22865
Ġtiming	22860
Many	22856
mo	22846
tmp	22840
Ġcompute	22839
ĠToday	22839
##bre	22837
Ġcu	22835
Ġloading	22834
##day	22831
Ġalgebra	22823
Ġmales	22819
cb	22814
Ġsubt	22806
Ġproven	22803
##HI	22801
Ġquiet	22788
ds	22786
ĠUP	22783
ĠAsia	22783
ĠUV	22771
Ġlunch	22770
Ġfiling	22768
Ġvariations	22765
Ġhealthcare	22753
112	22747
Ġgreatly	22745
ĠAng	22743
ĠTechnology	22741
##Ð¾	22736
Ġfunc	22731
##NO	22730
##ĠĠĠĠĠĠĠĠ	22730
Her	22729
ĠBr	22720
##ulated	22711
Ġresponded	22702
),\	22701
##yt	22699
Ġprovider	22695
Â¶	22694
ĠBest	22690
Ġamplitude	22687
##dis	22683
Ġ**(	22683
Ġcovering	22679
sha	22678
Rec	22678
##gic	22676
Finally	22671
##')	22671
Ġcopies	22668
Ġimproving	22665
##ential	22662
##ison	22658
ĠHor	22656
Ġquantity	22654
xc	22651
â	22645
##wise	22645
Ġfed	22642
##rint	22641
Ġvast	22634
Ġingredients	22634
##ying	22633
Ġnorm	22633
Ġobj	22631
Ġfewer	22631
##ols	22630
dis	22626
ĠRob	22625
Ġadministrative	22620
Ġmu	22619
should	22613
ĠRam	22612
ĠJr	22611
Ġmarker	22608
SM	22607
Ġclo	22606
ĠOK	22606
Ġpenalty	22603
ĠNov	22603
rep	22602
Open	22599
ĠYu	22598
Ġexplicit	22588
Ġbid	22581
ĠPut	22581
##cle	22572
Ġmatching	22567
Ġrose	22566
Ġapproximation	22562
such	22561
'$	22554
Ġgli	22554
##rot	22545
Ġchair	22544
ĠChapter	22541
ĠLove	22539
##ffe	22535
ĠSQL	22533
Ġsending	22531
Ġmovies	22531
Ġcohort	22531
ĠDem	22530
Ġcollect	22527
Ġcodes	22526
Ġelevated	22525
Ġdrivers	22520
ĊĠĠĠĠĊĠĠĠ	22512
cup	22509
##66	22509
Ġmill	22506
})}	22504
DO	22501
Ġhasn	22501
Ġnamely	22496
ĠMad	22494
Ġrooms	22490
ĠCivil	22490
Ġfailing	22489
Ġgay	22479
ĠIsraeli	22479
Ġomitted	22476
ĠDB	22476
Ġnearby	22469
full	22465
##Instance	22465
Rep	22459
ĠKim	22458
normal	22457
ĠValley	22454
Ġsubmit	22453
ĠMB	22451
Ġcomparing	22445
Ġsignature	22444
##iter	22441
Ġdifficulty	22440
ĠDisc	22429
Ġ123	22428
Ġpapers	22427
ĠIllinois	22422
ĠReport	22419
ĠDavis	22418
##ski	22414
##kar	22412
##ump	22411
Ġrejected	22410
ĠPlan	22410
##UD	22409
##Window	22400
##ype	22390
ĠBal	22390
}-\	22388
Ġleaf	22384
##OB	22379
Ġba	22378
Ġcommitment	22373
##Î	22369
ĠFund	22367
ss	22364
##cho	22362
DE	22359
Ġfrequent	22354
Ġprecisely	22353
##ÃĹÂ	22351
white	22347
Ġfifth	22339
ĠRoyal	22337
Ġgear	22331
Ġ107	22330
years	22328
sys	22326
##Start	22324
ff	22321
Ġinequality	22318
pc	22309
ĠForm	22306
Ġdivisor	22304
more	22294
Ġspiritual	22293
AM	22291
##ior	22288
Ġovercome	22287
ĠItaly	22284
Ġinvestors	22280
##ved	22278
ÂĢ	22275
Ġmachines	22274
##arn	22268
##89	22267
Ġatoms	22257
ĠMichigan	22255
##ended	22251
ĠDescription	22251
Ġabsorption	22246
Ġnotion	22244
Tr	22243
Ġscientists	22242
Ġexhibit	22242
Ġbusy	22233
ĠYear	22231
exc	22230
Ġbuying	22230
Ġtemp	22228
Ġfemales	22219
##uv	22214
Ġargs	22212
process	22209
Ġverify	22207
Ġbundle	22207
Ġcompetitive	22203
ĠAmazon	22200
stream	22199
ĠEnergy	22197
Ġwet	22194
Ġnaturally	22194
Ġko	22179
Ġheter	22178
Ġdoctors	22178
Ġclosing	22178
Ġdiverse	22174
##ots	22173
they	22171
{(	22168
acc	22165
Ġhat	22160
##ils	22154
~*	22153
)),	22149
##ographic	22148
##AI	22145
Ġtensor	22142
ĠSte	22142
menu	22133
##Cr	22133
Ġcareful	22132
active	22124
ĠGal	22121
##FA	22119
022	22109
Ġconc	22108
ĠEp	22104
ĠMT	22099
##77	22098
Ġparticipation	22098
End	22097
Ġcuts	22092
env	22091
Ġga	22090
Ġscored	22082
Ġmeasuring	22080
Ġelections	22078
##anti	22074
ĠCross	22072
Ġengage	22069
ĠTB	22069
ĠMiss	22065
ĠStra	22063
Ġroof	22062
Ġrestricted	22062
Ġcoordinates	22061
DC	22059
ĠResults	22059
Ġcheese	22057
Ġcream	22051
fin	22050
##ined	22047
Ġjo	22042
ĠChris	22039
ĠBY	22038
Ġenabled	22037
ĠBack	22037
ĠCatholic	22034
Je	22033
Ġhide	22033
Ġsurprised	22024
ĠLS	22023
Ġriver	22019
Ġprivacy	22019
%).	22017
##Url	22014
Ġreduces	22012
Ġmodification	22010
Ġadjusted	22006
##GG	22002
##ipe	21999
}_\	21993
est	21993
quot	21992
ĠPhoto	21979
Ġtelephone	21977
Ġ\"	21973
Ġscheduled	21971
##eal	21968
Ġcomfort	21967
##PT	21963
Ġcable	21962
ĠLast	21962
Ġyards	21960
##kes	21959
##ship	21958
click	21956
##pan	21952
ĠIr	21948
AF	21938
Ġcomposed	21934
##ield	21933
Ġfeelings	21925
ĠWork	21925
Ġindependently	21923
ĠStat	21918
##DB	21912
ĠĠĠĠĠĠĠĠĠĠĠĠĠĠĠĠĠĠĠĠĠĠĠĠĠĠĠĠĠĠĠĠĠĠĠĠĠĠĠĠĠĠĠĠĠĠĠĠĠĠĠĠĠĠĠĠĠĠĠĠĠĠĠĠĠĠĠĠĠĠĠĠĠĠĠĠĠĠĠĠĠ	21909
Ġsuffer	21908
tri	21906
BU	21903
ĠSR	21902
Ġadds	21900
ĠSn	21899
Results	21895
ĠEli	21888
Ġcheap	21885
##At	21881
Ġdominant	21876
ĊĊĠĠĠĠĠĠĠĠĠĠĠĠĠĠĠĠĠĠĠĠĠĠĠĠĠĠĠĠĠĠĠĠ	21875
background	21873
Ġmistake	21871
ĠSyria	21869
ĠHol	21869
ĠAp	21867
math	21858
Ġarmy	21856
Ġ189	21855
Ġalignment	21854
way	21848
Ġanymore	21847
ĠCEO	21847
ĠFour	21846
Ġcontinuing	21843
Ġpresidential	21842
ĠBru	21841
##itive	21839
ĠTen	21834
Ġsuppose	21832
pe	21829
location	21829
Ġkinase	21829
Ġexecute	21829
##hin	21826
ĠLC	21816
Ġsettlement	21814
Ġsilver	21813
ĠNF	21810
ĠMcC	21809
ĠNY	21807
Ġalter	21802
ĠGlobal	21801
ĠMax	21800
##yme	21798
ĠFR	21798
##itic	21794
ĠHD	21794
Ġlipid	21787
##ido	21784
Ġje	21783
prod	21779
!âĢĿ	21778
Ġhi	21775
ĠMR	21771
Ġlists	21768
##kk	21767
Ġteeth	21763
ĠNumber	21752
##ught	21751
Ġcommission	21747
ĠSource	21747
##$\	21737
Ġcrimes	21736
##oom	21730
##esis	21730
Ġprogramming	21730
ĠPen	21730
ĠJe	21728
ext	21721
Ġboat	21721
Gl	21720
fs	21718
Does	21718
Ġtalked	21715
Ġdeb	21715
hi	21714
ĠSur	21714
materials	21713
Ġcommunications	21711
##CK	21706
##---	21700
Next	21698
Ġaircraft	21692
Ġherein	21691
ctx	21690
##eli	21686
ĊĊĊĊĊ	21683
ĠCreate	21682
##RR	21680
byte	21676
pp	21675
Ġbroke	21671
Ġprecise	21669
Ġgenerating	21668
product	21654
##Query	21653
ĠAsian	21652
##ifying	21649
Ġsmoke	21648
Ġopinions	21647
##rat	21640
ĠManagement	21630
Ġreceiver	21626
Ġcont	21624
known	21615
##flow	21614
det	21613
Ġexecuted	21612
Ġsal	21608
ĠTake	21606
Ġski	21598
usr	21597
column	21596
John	21586
Ġwealth	21582
Ġpriority	21581
Ġpetitioner	21574
Ġlegs	21574
Ġdad	21574
Ġpartition	21572
Ġvectors	21567
ĠLI	21567
ĠAtt	21566
Ġshoulder	21563
Ġdanger	21563
107	21562
214	21561
##anc	21561
ĠItalian	21560
\|	21557
Ġlocally	21555
Ġwaves	21554
Ġ115	21553
ĠConf	21546
ĠPoint	21544
Ġafraid	21538
ĠGeorgia	21537
Ġinfinite	21534
Ġradical	21526
Ġorientation	21526
Ġ600	21524
##ova	21522
##ited	21518
Ġpour	21517
Ġ1991	21517
##ties	21511
##Qu	21507
Ġextraction	21504
Ext	21501
Ġblind	21501
##21	21500
Ġrefers	21493
Ġdeclare	21492
ĠTim	21492
Ġcrazy	21490
Ġwhenever	21487
what	21479
dim	21478
Ġsuddenly	21476
ĠTor	21468
SS	21465
Ġhouses	21464
ĠFC	21463
Ġlip	21457
Ġhonor	21453
dp	21443
Ġarg	21430
ĠThough	21430
Ġaimed	21428
Ind	21424
##Exp	21420
ser	21419
##Ð»	21419
^)	21418
ĠChe	21416
Ġblo	21408
##urn	21402
Ġjail	21401
Ġbath	21399
##RNA	21398
Ġinhibitors	21395
à¸	21392
Ġtaught	21387
Ġpad	21385
Ġacquisition	21384
du	21383
blue	21381
##sch	21381
Ġtemporary	21381
ĠCook	21381
External	21380
Ġnamespace	21376
Ġforum	21376
Ġpur	21374
Ġplea	21374
Ċĉĉĉĉĉĉ	21374
tu	21371
Ġattend	21371
NA	21369
##rol	21356
opt	21353
##ude	21350
Ġstreets	21350
ĠApplication	21349
##FE	21345
Ġexpenses	21343
Ġbreach	21337
Ġcultures	21335
ĠTre	21332
106	21316
Ġweapon	21314
Ġmod	21314
ĠPolicy	21312
##zu	21311
NAME	21310
ĠAction	21309
##31	21303
Ġencourage	21299
ĠVA	21297
Ġproduces	21294
Ġpassage	21293
hand	21292
Ġvital	21292
##Âł	21289
##yan	21289
Ġupdates	21289
.;	21287
Ġconsecutive	21287
ĠProposition	21283
Ġinvalid	21281
##à¤	21276
Ġresist	21276
Ġalert	21270
)_	21263
Ġ>>	21259
Ġpipe	21257
##form	21253
ĠBP	21244
Ġrear	21237
Ġatmosphere	21237
handle	21232
Mon	21232
Cu	21230
##rel	21230
Ġwatched	21230
Ġwestern	21229
##ocation	21227
Ġtiny	21218
190	21215
ĠRights	21214
ĠMicro	21209
Ġsymmetric	21206
Ġattributes	21203
Ġproviders	21195
Ġplurality	21195
params	21194
##hor	21185
Ġnerve	21185
Ġag	21182
Ġreasonably	21180
##itor	21179
##PL	21173
Ġappreciate	21168
ĠThank	21168
##FF	21166
AR	21165
ĠWh	21164
##ket	21163
Ġignore	21161
Ġfrequencies	21159
Ġvertex	21151
Ġearn	21151
ĠEN	21150
Ġreg	21149
Ġvalve	21148
<!--	21146
##mod	21144
Ġsoul	21144
Okay	21143
Ġtrading	21141
Ġprocessed	21140
##UE	21136
}^{-	21131
SI	21129
Ġmar	21127
##ract	21125
Ġawareness	21110
Ġpsychological	21109
Ġmut	21097
empty	21095
Ġlosses	21093
117	21080
Ġassist	21076
_{(	21074
pop	21072
Part	21069
Ġdestroy	21069
'),	21066
Har	21065
##ait	21063
##34	21061
ĠCount	21060
##eta	21059
##TR	21059
ĠBM	21057
Ġpu	21055
ĠGM	21047
buf	21044
Ġlawyer	21043
##uce	21041
Ġpersonnel	21040
Ġwitnesses	21038
ĠCN	21038
():	21037
ĠCra	21037
?'	21033
her	21031
Ġcompletion	21028
Ġimprovements	21022
##iff	21021
Ġplates	21020
Ġep	21010
AN	21009
Ġsomehow	20998
ĠNP	20995
total	20990
Ġsauce	20990
Ġunf	20989
ĠĠĠĠĠĠĠĠĠĠĠĠĠĠĠĠĠĠĠĠĠĠĠĠĠĠĠĠĠĠĠĠĠĠĠĠĠĠĠĠĠĠĠĠĠĠĠĠĠĠĠĠĠĠĠĠĠĠĠĠĠĠĠĠĠĠĠĠĠĠĠĠ	20980
##iro	20967
Ġmarks	20964
##char	20963
Ġvascular	20961
ĠMiller	20961
Ġstruggle	20959
ĠLine	20958
well	20956
##reg	20956
##ami	20956
ĠSim	20956
Ġweren	20955
Ġvideos	20949
Ġtank	20948
Ġpatch	20942
Ġfluorescence	20941
Ġtalks	20940
Ġaffirm	20940
ĠWilson	20940
Ġsur	20933
Ġexplains	20931
##oca	20925
##ict	20919
ĠPH	20919
##99	20916
##81	20916
Ġoxide	20916
Ġlayout	20916
Ġholes	20913
ĠCard	20913
ĠDist	20912
##urs	20908
Ġcons	20906
Ġantigen	20903
Ġtemporal	20901
Ġrid	20898
##Link	20896
Ġtall	20889
Ġdet	20889
Ġ($\	20888
Ġorganized	20875
Ġgoverning	20869
Ġreturning	20868
ns	20865
Ġdem	20865
-----------------------------------------	20861
conv	20856
Ġadopt	20852
Ġ(%)	20850
Ġmanufacturer	20841
ĠLow	20841
law	20839
Ġstone	20835
temp	20833
km	20833
##uli	20828
ĠCB	20827
ĠRP	20823
##sto	20821
ĠTM	20820
Ġcolon	20817
##app	20814
##sel	20805
##AND	20805
Br	20803
PP	20798
Ġrespiratory	20798
Ġinterior	20796
State	20795
Ġ02	20795
##idi	20791
Ġunlikely	20791
ĠĠĠĠĠĠĠĠĠĠĠĠĠĠĠĠĠĠĠĠĠĠĠĠĠĠĠĠĠ	20791
##wl	20789
Ac	20783
Ġroughly	20783
ĠUr	20780
Ġ121	20780
have	20773
Ġcert	20771
Ġchecks	20768
DM	20766
##tti	20765
Ġarchitecture	20759
##odi	20756
Ġcreative	20756
##gre	20755
Ġpermitted	20755
ĠCentre	20753
Ġinteract	20752
Ġgel	20749
##PI	20741
Ġnervous	20740
Ġdirections	20740
Ġms	20738
Ġmodules	20733
Ġrecipe	20723
##Te	20720
##TG	20720
Ġcorrespond	20715
Ġcooking	20713
Tri	20712
Ġarch	20708
Ġ''	20707
Ġcre	20702
Ġfoundation	20701
Ġuncertainty	20698
##Command	20694
ĠHI	20692
Ġelsewhere	20689
ĠFla	20688
ĠET	20685
Ġcovers	20666
##uck	20664
##ital	20664
800	20663
##Provider	20648
Ġmeal	20647
Ġrestriction	20639
Ġparking	20637
Ġgeometry	20637
then	20635
win	20629
Ġdeviation	20629
Ġreb	20617
ĠRepublic	20617
Ġbounded	20616
Ġsystematic	20611
ĠFood	20608
cont	20607
Ġpaths	20604
Ġfolder	20599
Ġ\|	20599
Ġcleaning	20595
ĠMuslim	20595
Ġsodium	20593
ĠWil	20588
##cul	20586
##cin	20586
Ġconsisting	20586
Ġ1970	20582
##Ptr	20581
##lie	20577
Ġhall	20577
life	20572
Ġcycles	20571
##oph	20570
Ġunp	20569
##top	20566
parse	20564
cur	20559
)}}	20559
ĠGE	20557
Ġpolymer	20555
}\\	20553
Ġkeeps	20549
ĠDesign	20549
Ġinvasion	20545
!!	20541
Ġutility	20541
Ġ"$	20538
##ogenic	20537
##Res	20534
Tab	20533
ĠPal	20530
Dec	20528
##GT	20526
Ġmarijuana	20522
Ġexport	20521
Ġcontracts	20521
ĠServer	20517
Ġdisability	20514
Ġseasons	20513
Ġpeptide	20513
Ġ119	20512
##uous	20506
Ġviolent	20505
container	20503
Ġsad	20503
Ġunt	20501
ĠTan	20498
##24	20497
Ġalgorithms	20497
Ġaffects	20492
Ġconclusions	20491
##ired	20490
##erc	20490
127	20489
ĠCU	20472
export	20469
##tn	20466
Ġbike	20463
Ġconcrete	20462
Ġchip	20462
##via	20461
Ġgiant	20461
ĠTotal	20458
Ġext	20457
##ature	20454
ĠUC	20454
Ġpor	20453
##ington	20450
##Listener	20448
Ġwake	20441
Ġoffensive	20441
~)	20437
##aka	20431
gu	20425
.]	20424
##.\	20423
Ġtheories	20421
Ġbyte	20421
Ġ187	20414
Ġscattering	20412
Ġmedication	20412
Ġrice	20410
ĠLett	20410
Ġconverted	20407
ĠCommunity	20406
im	20404
ĠĊĠĠĠĠĠĠĠ	20400
Ġconsiderable	20399
Ġbroadcast	20398
Ġ113	20394
##dor	20393
email	20387
Ġreaders	20383
cache	20382
Ġstrings	20379
##oon	20375
Ġaccumulation	20375
Â¿	20373
Ġdispute	20372
Ġhybrid	20371
Tex	20368
##cor	20367
ĠIslam	20362
Ġavailability	20356
Ġonset	20354
ĠSouthern	20350
Ġsong	20345
##HO	20344
Ġ$[	20344
Ġtract	20341
ĠWood	20341
textrm	20338
##Cell	20338
##ression	20334
Ġrobust	20333
Ġcond	20332
Ġdoctrine	20331
##__	20329
Ġspan	20329
Ġenc	20319
Ġresolved	20313
##ele	20311
Ġcra	20309
Ġhorse	20308
Ġviewed	20302
##Ø	20298
ĠJersey	20297
##ear	20296
Ġrural	20296
ĠÃ©	20287
Ġmaintaining	20285
##La	20284
ĠAB	20283
Ġprevention	20281
vs	20280
Ġsubc	20275
Ġdiscover	20275
Ġfault	20270
Ġkm	20268
Ġpushed	20267
##aging	20265
##iel	20264
377	20263
ĠHS	20263
##zer	20259
Ġpersonally	20257
Ġhang	20254
##vent	20253
Sub	20251
##EP	20250
âĢĺ	20248
Ġpilot	20243
Ġcoli	20241
##URL	20233
##gers	20232
##comp	20231
109	20229
ĠHal	20229
Ġ((-	20227
po	20226
Ġentries	20222
Ġ114	20218
##asi	20217
Ġ=\	20214
##inal	20210
##.$$	20209
##ulate	20206
Reg	20205
Ġconvicted	20203
Ġking	20202
##ching	20198
ĠSat	20198
ĠEX	20197
Ġadvantages	20196
ĠOfficer	20191
##matic	20184
##loc	20183
debug	20181
Ġguarantee	20177
site	20176
ĠMi	20176
Fl	20175
##ias	20175
Ġmirror	20173
ĠTw	20168
ĠDid	20168
Ġfired	20167
ĠRE	20166
Ġending	20164
Ġbarrier	20163
Ġphenomenon	20162
Ġinterference	20162
##eth	20161
##TY	20161
0005	20160
ĠRun	20147
Ġdysfunction	20145
Ġsurvive	20136
Ġlifetime	20136
Ġdiscussions	20135
Ġownership	20134
Ġsequencing	20133
Ġquasi	20131
Ġast	20127
Ġ('	20127
Ġteach	20124
uk	20122
Col	20119
ĠChar	20118
1998	20117
Ġhousehold	20110
##ices	20108
##Th	20104
IR	20098
Ġdefeat	20093
ĠProv	20088
##xt	20080
##water	20079
Ġvacuum	20077
ĠRC	20070
sw	20068
Ġexclusive	20067
Ġ(âĢľ	20067
Ġsir	20066
NET	20064
##ĊĊĠ	20063
Ġregularly	20063
TD	20062
255	20050
Theta	20049
Ġcompeting	20042
##amo	20035
Ġì	20033
Ġpen	20032
Inter	20030
Ġeggs	20027
Ġoperated	20025
Ġ['	20024
Ġtens	20019
ĠCons	20019
ĠMulti	20016
Ġfinger	20014
##test	20013
)$$	20006
Ġcrew	20006
rb	20005
ĠArab	20004
Ġ188	20002
ĠWITHOUT	19997
Once	19996
ĠGI	19995
##orn	19992
Ġtele	19988
##Rec	19987
Ġcomprising	19987
Ġflavor	19984
Ġprofessor	19983
Ġquantitative	19980
Ġbu	19978
##edi	19976
##doc	19976
Ġguns	19975
Ġcenters	19974
+^	19965
##av	19963
Ġthinks	19963
interface	19958
docs	19956
Log	19956
Ġreact	19956
join	19953
support	19947
##olo	19945
Ġliberal	19933
Ġentering	19933
CS	19932
Ġfusion	19932
ĠCase	19931
Ġ800	19931
}[	19928
Ġjudicial	19928
Ġear	19928
how	19921
ĠHenry	19919
##nan	19916
Ġsqu	19911
ĠCas	19906
Ġtr	19902
reference	19897
Ġhorizontal	19891
Ġancient	19889
##tta	19886
unsigned	19884
Ġworker	19884
##ced	19878
ĠSpanish	19876
Ġpm	19874
##lab	19872
##ces	19870
Ġsustained	19869
Ġgovernments	19867
##Not	19865
zero	19862
Ġfalling	19860
Ġdegradation	19859
clear	19856
Ġsatisfies	19856
Ġease	19855
global	19846
Ġcaptured	19841
Ġproud	19840
Â®	19838
PI	19837
ĠConference	19837
Ġtomorrow	19831
Ġrem	19827
'>	19820
ĠWhether	19819
INT	19814
Ġrent	19811
ERROR	19806
Ġhum	19805
Ġreaching	19802
232	19801
Ġexpanded	19797
Ġdemands	19795
Ġknee	19792
Ġinterventions	19790
ĠBol	19790
##mas	19789
Ġedit	19789
Sw	19788
sk	19786
Ġcomp	19786
Ġremoving	19780
Ġoste	19780
Ġcolleagues	19778
Collect	19777
##QU	19775
Ġdismissed	19773
Ġvice	19768
##ents	19766
##Dir	19764
ĠStandard	19764
Ġstorm	19762
Ġrecommendations	19760
unit	19757
ĠĠĠĠĠĠĠĠĠĠĠĠĠĠĠĠĠĠĠĠĠĠĠĠĠĠĠĠ	19750
Ġcoding	19748
Ġadmit	19745
application	19738
##num	19735
Ġroots	19732
ĠOff	19730
Ġqualified	19725
Ġfalls	19720
Ġcoast	19720
ĠÂ°	19719
ĠBon	19712
ĊĠĠĠĠĠĠĠĠĠĠĠĠĠĠĠĠ	19712
Ġportions	19711
Ġ1989	19709
Ġincorporated	19699
work	19693
##Resource	19691
ĠHas	19691
Ġchart	19690
weight	19689
##ational	19683
Ġhydro	19682
Ġ..	19679
##rid	19672
##Task	19670
Ġmess	19667
ĠFl	19667
ĊĉĠĠĠ	19667
ĠNu	19660
ĠNFL	19659
ĠFrancisco	19658
Ġworldwide	19654
Ġprospective	19653
Ġarise	19653
gra	19652
ĠSir	19650
about	19649
ĠPakistan	19647
Ġpackages	19643
##rant	19635
Ġmasses	19634
Ġkidney	19632
Ġdestination	19627
Lu	19625
Ġgradient	19623
ĠApache	19623
Dis	19619
Code	19617
##nder	19617
Ġstations	19617
dl	19613
Ġta	19606
ĠDor	19605
Ġadministered	19604
##inate	19603
act	19602
Ġsizeof	19599
bp	19597
ĠLev	19597
ĠEst	19595
Ġfaced	19594
fd	19588
Ġbottle	19587
ĠTrust	19585
sol	19584
Ġscalar	19584
Ġassays	19583
ĠDefendants	19583
Ġexcessive	19577
##HE	19576
##eur	19568
Ġbind	19566
##")	19565
ĠBor	19562
Ġunb	19559
Ġscales	19559
treated	19554
Ġresidence	19553
','	19541
ĠBob	19541
Ġseparately	19536
##KI	19534
ĠEP	19534
##BO	19532
ĠMah	19531
now	19528
Ġgut	19528
##YS	19527
Ġfolks	19526
Ġdoors	19526
ĠUpdate	19526
Ġmsg	19525
##Server	19524
ĠEc	19523
Ġunc	19522
Under	19520
impl	19514
Content	19507
Ġdecreases	19507
ĠLie	19507
CM	19502
##ees	19501
Ġstuck	19501
ĠHC	19497
ĠPlay	19489
Ġ1988	19488
Ġglad	19487
##uation	19486
Ġphysics	19481
Using	19477
ĠPath	19476
##ume	19474
##Header	19473
ĠDaniel	19471
ĠBase	19467
!)	19466
Ġvotes	19464
ĠALL	19463
Ġintervals	19462
ĠStudies	19461
Ġprominent	19459
Phys	19457
Ġmounted	19456
Ġfriendly	19451
GA	19443
PD	19441
will	19440
##VER	19435
Ġthr	19432
May	19421
Ġvalidation	19414
Ġprotective	19413
##}$	19412
##33	19412
sf	19411
binding	19411
Ġtoxic	19408
BO	19407
Ġtargeting	19407
Ġaddresses	19405
mon	19404
##PR	19401
Ġegg	19400
Ġ186	19398
mat	19397
##case	19397
##GS	19394
Ġbunch	19394
ĠSL	19389
Ġbeach	19377
PO	19376
Ġcal	19376
just	19370
Ġfer	19365
Ġâ	19357
ĠPatent	19356
Ġprofessionals	19355
Ġshit	19354
##UP	19350
ĠSol	19343
Ser	19342
files	19340
##Row	19339
Ġunm	19339
Ġclinic	19338
subseteq	19335
Ġenv	19333
Ġbearing	19322
gov	19320
##ono	19311
Ġpromoter	19310
Ġvariants	19309
ĠAuto	19307
##used	19301
Ġrising	19299
Ġpit	19299
ĠAnal	19297
Ġbands	19290
ĠNR	19290
ĠAbout	19287
ĠLouis	19286
##body	19284
Ġdismiss	19280
ĠTaylor	19276
access	19273
0003	19273
Ġabsent	19273
Ġappointed	19271
send	19270
Ġappeals	19268
xy	19267
Ġhonest	19266
ĠWas	19265
Ġflexible	19261
Ġconstitute	19260
##Offset	19254
##//	19252
ĠTI	19249
ĠMag	19249
Ġheavily	19248
CE	19245
Ġpasses	19241
she	19237
##cks	19237
##pto	19234
Ġflags	19234
Ġpump	19233
Ġexpressions	19233
ma	19231
ĠAcc	19230
Ġdrawing	19229
black	19228
Ġhist	19228
ĠSho	19226
##room	19223
Ġlikelihood	19222
##osing	19221
191	19219
##71	19218
Ġreflected	19216
Ġseverity	19214
Ġburn	19212
##ella	19210
Ġexpectations	19210
##iling	19209
##CP	19209
Ġjuice	19207
Ġinform	19204
Ġaccomplish	19201
Ġinsufficient	19196
ĊĠĠĠĠĠĠĠĠĠĠĠĠĠĠĠĠĠĠĠĠĠ	19196
Ġdress	19193
##ided	19192
HE	19190
##unk	19186
ĠRu	19182
delete	19179
Ġabstract	19179
DR	19177
Ġpace	19167
##Ãł	19165
Ġjoy	19163
310	19160
bc	19159
tree	19158
##End	19156
ĠEA	19155
mi	19153
##phi	19153
##iving	19150
Ġratios	19147
language	19146
Ġdish	19146
MR	19145
Ġlimitation	19145
equal	19144
ĠHead	19143
Ġmovements	19140
Ġyeah	19139
##uro	19137
ĠPatients	19136
echo	19134
##roid	19134
Ġsolely	19134
Ġsoldiers	19134
##Script	19131
Ġseeds	19129
Ġsimilarly	19124
Ġvaccine	19122
Ġgod	19118
Ġadvertising	19114
Ġcarcinoma	19111
Ġrelating	19110
##pect	19109
Ġconstantly	19107
Ġsees	19098
ĠBeach	19097
Ġrs	19095
release	19088
Ġhospitals	19087
ĠCarl	19087
Ġstupid	19082
Ġ116	19082
##RP	19079
Ġenzymes	19079
Ġ127	19075
##Sub	19074
ĠTax	19069
113	19068
Ġbeauty	19068
ĠNorthern	19067
Ġsta	19066
Ġimmuno	19066
ĠCom	19065
ĠJoseph	19064
ĠAndroid	19063
##Length	19062
sql	19058
Ġawarded	19057
Ġanswered	19052
dict	19051
##inated	19051
##side	19049
multi	19046
associated	19042
Ġrestrictions	19042
Ġslip	19040
Ġbet	19040
rc	19037
Ġorth	19035
ĠSpe	19034
Ġengineering	19032
Ġcoordinate	19032
Ġ$-	19028
ĠAcademy	19017
Ġforest	19016
##ille	19015
##iet	19013
Ġsubjected	19011
Ġblow	19011
Ġfeeding	19008
##page	19004
Ġmeetings	19004
Ġdense	19001
AT	19000
Ġmanual	19000
##ues	18995
##imal	18991
Ġdisclosure	18987
Ġvarying	18984
Ġcomprises	18984
Ġsupplied	18978
Ġchat	18976
##FT	18972
##rec	18970
}}}\	18969
##mt	18969
Ġinsert	18969
ĠLT	18969
##Up	18967
er	18960
121	18959
Ġbull	18957
##áĥ	18955
##MENT	18952
Ġprosecution	18952
Ġbeneficial	18952
Ġæ	18947
'_	18944
Ġhoping	18944
ĠPennsylvania	18944
Ġprojection	18943
fp	18937
##MC	18936
ĠMedicine	18935
##ond	18933
##astic	18930
##oli	18929
Ġslight	18928
Ġpixel	18927
Ġpack	18925
}}}$	18922
Put	18922
##CL	18919
ĠMM	18917
Ġproceed	18916
thm	18905
DIR	18903
##PC	18903
SELECT	18901
Ġproceeding	18900
DB	18899
Ġnations	18899
ijerph	18896
Ġenjoyed	18892
Ġaccessible	18892
Ġwheel	18891
Ġ122	18890
##Control	18889
task	18887
##town	18887
Ce	18884
Ġimmunity	18883
Ġlights	18882
Ġimplications	18882
##ATION	18879
Out	18877
TA	18874
Ġphysician	18874
cast	18872
ĠRoman	18868
ĠSupport	18866
023	18858
Ġinline	18855
ĠPlaintiffs	18855
ĠIslamic	18852
Ġcombat	18851
##oin	18848
ĠBI	18848
Did	18847
Ġfragment	18846
ĠRel	18844
es	18837
##oth	18837
##rom	18834
Ġclothes	18832
super	18829
##gel	18828
##iers	18823
ĠFBI	18816
170	18814
##ival	18811
##eq	18808
Ġages	18804
ĠCy	18803
ãģ	18801
ĠPol	18800
Ġsmile	18792
Ġmaximal	18792
##Address	18789
##una	18788
ĠFollowing	18788
Ġ202	18785
note	18776
ĠRyan	18774
ĊĊĉĉ	18768
##Range	18765
Ġsuicide	18762
setminus	18757
116	18754
Ġlaid	18753
spec	18752
Ġcalm	18752
##pot	18751
PCR	18745
115	18742
Ġmat	18739
##âĢĶ	18733
FR	18732
ĠFort	18731
##uz	18729
Ġcalcium	18725
Ġbonds	18722
Ġbomb	18718
##CR	18717
ĠDue	18715
Cal	18712
âĢħ	18702
##air	18702
ĠRad	18702
cp	18701
Ġabundance	18700
TH	18699
Ġdefines	18697
##IVE	18694
Ġcord	18692
##FS	18690
##cel	18688
Ġheating	18687
ĠSteve	18681
ĠGreek	18680
TC	18679
##ocal	18677
##Ds	18676
Ġtips	18673
Ġjet	18666
OK	18665
par	18664
##pre	18658
Ġparse	18658
Ġspa	18657
Ġpipeline	18656
ĠBer	18653
Ġcallback	18652
Ġvitamin	18649
]=	18648
ME	18648
ĠBel	18645
-*	18644
ĠUt	18643
Ġcorporation	18641
ĠLinux	18641
&&	18640
token	18637
Ġartery	18635
ĠPy	18629
>\	18628
##GH	18628
##dom	18623
underline	18622
Ġâī¥	18619
Ġ117	18609
Ġdestroyed	18606
Ġspecify	18604
ĠIndex	18603
ĠâĢ¢	18602
Ġranging	18602
Ġpadding	18601
fc	18597
DI	18597
ĠAdministration	18596
ĠBook	18595
Ġautomatic	18590
Â»Â	18589
Ġinstallation	18586
Post	18585
Check	18583
Ġimmigration	18581
Ġdefensive	18579
Ġ118	18576
ĠArray	18574
##Out	18570
Ġ"#	18569
Ġassignment	18564
Look	18558
##ank	18558
ĠSanta	18557
Ġink	18553
Ġdesirable	18551
Ass	18549
insert	18547
##has	18545
Ġdevelopers	18543
##rap	18541
Ġfur	18540
Ġdys	18532
Ġcollective	18531
##xy	18526
Ġ![	18526
wa	18522
Ġeligible	18521
ĠTHIS	18521
Ġgrass	18511
Ġtra	18501
Ġerred	18499
ĠLen	18495
##ICE	18492
Ġarmed	18492
##ony	18491
##itude	18491
##rating	18490
Ġpoll	18489
Ġant	18489
Ġunusual	18487
Ġaff	18486
Ġinsight	18485
Ġaltered	18484
ĠMaster	18484
Ġacceptable	18483
ĠPra	18482
ĠNevertheless	18481
##group	18479
abs	18477
Ġluck	18475
##ained	18474
Ġeffectiveness	18471
##SO	18467
Ġboot	18467
Ġlab	18461
##uff	18459
Ġearned	18459
Ġlateral	18457
ĠLtd	18457
instance	18455
Ġpreliminary	18452
Ġshoot	18448
Ġstruck	18442
ĠSon	18441
Ġedition	18436
##tto	18435
Ġunclear	18434
Ġconsistently	18431
Ġsport	18428
##pher	18426
ĠJim	18420
Ġattractive	18418
lem	18417
##UC	18416
Ġhom	18415
Ġsessions	18414
Ġguidance	18407
defined	18405
Ġoccurrence	18402
Ġwound	18399
##uss	18397
##pir	18397
##OD	18395
Ġprecision	18394
Ġvisited	18393
Ġmatrices	18393
rt	18392
Ġvoting	18392
Ġsubm	18391
Ġ["	18384
##une	18378
Ġ\#	18378
ĠPython	18378
ĠImp	18376
Tu	18373
##ald	18373
##Dis	18373
Ġve	18372
draw	18370
##Å	18369
Ġmock	18366
Ġalt	18366
Ġte	18363
Ġfacilitate	18357
Ġintention	18355
hour	18354
Ġhadn	18354
Ġnormalized	18349
Ġloose	18349
ĠColorado	18348
Ġoverlap	18343
dagger	18340
Ġmacro	18340
Fla	18339
Ġperceived	18339
iso	18337
Ġregistration	18337
hash	18335
Ġtracking	18334
Ġpacket	18331
##iy	18327
Ġeverybody	18326
ĠKl	18326
Ġmolecule	18325
Ġawait	18325
ĠStudy	18324
transform	18316
Ġarrangement	18315
Ġangular	18302
##ref	18297
Ġmagic	18296
Ġtone	18295
session	18291
##phy	18289
##dal	18284
LE	18281
##dh	18280
Ġps	18279
Ġpepper	18269
}({\	18265
.),	18262
ĠHave	18260
Ġlease	18258
Ġshopping	18255
profile	18253
Ġsystemic	18253
Ġru	18253
translation	18249
##dit	18246
Ġintense	18243
Ġadapt	18240
ĠDer	18239
week	18237
Ġmountain	18237
ĠIreland	18237
##$.	18236
BL	18235
Ġsteady	18235
Ġidentifying	18235
Ġcomplexes	18234
ĠArizona	18233
Ġbirds	18226
ĠProp	18226
##adi	18225
Ġrarely	18222
Ġruled	18220
700	18219
Ġrandomly	18219
Ġtreating	18215
command	18213
Ġcry	18213
114	18211
ĠFamily	18211
|^	18209
ĠUnfortunately	18209
Ġattended	18208
Ġshorter	18202
ĠKn	18202
##ulin	18201
##Update	18201
Second	18200
Event	18197
Ġpromising	18196
Ġdesigns	18192
ĠJews	18188
##eva	18187
ĠOct	18187
ĊĠĠĠĠĠĠĠĠĠĠĠĠĠĠĠĠĠĠĠĠĠĠĠĠĠĠĠĠĠĠĠĠĠĠĠ	18186
Ġtransportation	18185
Ġchildhood	18184
##Height	18183
ĠStr	18183
Ġpoliticians	18177
##gon	18172
doi	18170
##stone	18169
##mate	18169
Ġaging	18167
Ġultimate	18161
images	18159
BE	18155
##ento	18155
Ġartificial	18155
-$	18154
##osed	18154
ĠStart	18153
ĠAgreement	18153
Ġbur	18152
##ette	18148
Ġintegrity	18148
Ġ<!--	18147
ĠCi	18146
##rac	18136
).$$	18134
MO	18133
ĠUnit	18133
Ġ+/-	18133
##...	18131
##iol	18130
Ġpeer	18129
030	18127
ĠGro	18126
Ġflour	18124
Ġpointer	18123
Ġchemotherapy	18122
word	18121
ĠPG	18121
ĠWin	18119
Ġdeposition	18118
ĠKit	18115
##OK	18114
ĠØ	18112
Ġdemo	18112
Ġwashed	18111
Over	18108
DD	18108
Ġclause	18108
side	18106
Ġsol	18105
Ġpregnant	18103
Ġ132	18103
Ġdeeply	18100
ĠIO	18100
pass	18094
}}$.	18092
CB	18092
none	18091
Ġsentencing	18090
ĠFO	18088
ĠCre	18088
Ġ124	18087
Ġpos	18085
Ġneo	18084
##ressed	18083
##omy	18080
##Default	18077
Ġconcepts	18077
Ġdip	18076
Ġblame	18073
dc	18068
Ġsyn	18067
Ġharder	18067
Ġdenial	18066
ĠJSON	18066
##unc	18055
ĠCancer	18052
ĠGrant	18051
Ġwash	18050
Ġparam	18049
Ġjson	18046
*]{},	18045
ĠSeveral	18041
game	18039
ĠEL	18039
##ste	18038
Ġmal	18038
##bed	18036
ĠÎ	18035
ĠIntroduction	18035
##[@	18032
Ġlabels	18031
Ġeverywhere	18030
Ġ1983	18026
Ġforever	18025
Che	18021
119	18018
##del	18015
##Ð²	18013
Ġresidues	18013
Ġdefect	18012
ĠDev	18012
ãĢģ	18011
ĠAccess	18003
desc	18000
##ense	17999
##ava	17997
Ġamended	17997
##VA	17994
Ġmere	17992
Ġdefend	17990
Ġallegedly	17984
ru	17983
Ġmixing	17982
mean	17978
xf	17976
Ġphases	17973
ĠLD	17971
comment	17966
ĠRay	17964
\^	17959
Ġdisabled	17958
Ġskill	17957
Ġprogressive	17956
##Form	17953
Ġretain	17949
Ġinstitution	17949
ĠBan	17944
Ġclosure	17940
ĠIE	17938
second	17935
##Per	17935
##Str	17927
Ġmanifest	17927
Ġfold	17925
##cia	17923
Ġfunny	17922
cmd	17918
Ġfinance	17916
Ġcrash	17903
Ġnewspaper	17902
##kel	17900
ĠCap	17900
Ġcampus	17898
ĠBitcoin	17894
Ġcomputing	17892
ĠJu	17891
##ured	17888
jo	17887
##pin	17884
ĠInclude	17882
ĠSeries	17879
##ray	17878
##iding	17876
##IX	17874
Ġcollapse	17873
ĠHistory	17872
##uer	17871
layer	17868
Ġcurrency	17868
auth	17867
disp	17863
##lim	17856
{{	17855
domain	17854
del	17851
1996	17849
Ġmonthly	17848
MOESM	17844
##pri	17844
Mod	17843
##oll	17840
}}_{\	17837
sn	17836
##))	17836
IF	17830
Ġutilized	17830
Ġrepeatedly	17829
Ġlegislative	17824
ĠCPU	17823
hspace	17822
art	17822
Ġtexture	17822
##rum	17821
Ġwrites	17821
'\	17820
ĠCt	17815
Count	17814
Ġinit	17809
##Pro	17807
ĠCla	17806
##iated	17800
Ġlandscape	17800
ĠMari	17800
##rite	17799
ĠSin	17799
Ġthi	17795
Ġham	17795
Ġcomplement	17794
Ġenemy	17793
Ġintellectual	17782
Ġaccompanied	17782
axis	17778
##uth	17777
##tain	17776
Ġml	17776
Ġoven	17771
##Ã©e	17770
Ġexhibited	17768
Ġbankruptcy	17768
##PH	17767
##Tree	17766
bound	17765
wedge	17762
ĠDown	17762
##Component	17760
Ġdece	17758
ĠFair	17758
##cell	17755
Ġmit	17753
Ġreporter	17752
Ġviolated	17751
Ġlying	17751
Ġarranged	17749
ĠdÃ©	17744
##hs	17742
xs	17739
ĠMed	17738
para	17736
##low	17735
Model	17728
Ġmitochondrial	17728
Ġchecking	17722
Ġgovernor	17721
loop	17719
Ġpulmonary	17716
Ġvessel	17714
Ġenvironments	17711
ĠSpain	17706
ĠBro	17706
Ġdiscrete	17705
##war	17703
##WE	17703
Ġarc	17699
ĠRegister	17699
##ois	17693
##ios	17689
Ġ(@	17689
Ġsurveillance	17688
ĠĠĠĠĠĠĠĠĠĠĠĠĠĠĠĠĠĠĠĠĠĠĠĠĠĠĠĠĠĠ	17688
Ste	17687
Ġfitting	17686
VI	17680
ĠPF	17678
MM	17671
Ġoccurring	17670
Ġdisagree	17670
ĠYe	17667
##ocytes	17666
133	17663
Ġlanguages	17663
Ġ1986	17659
Ġpr	17654
##lies	17652
ĠFull	17652
Ġreveals	17651
report	17644
Ġio	17642
Ġultra	17641
Ġaudit	17641
Ġtopics	17634
Ġ185	17634
Ġstudying	17633
ĠLook	17632
Ġphilosophy	17628
Ġdistinguish	17626
window	17620
217	17616
Ġatom	17615
Ġvoted	17613
Ġreadily	17613
Ġputs	17605
Ġing	17605
Ġdeclined	17605
Ġpropose	17602
Ġsec	17601
Ġrough	17601
Ġ×	17596
Ġrecovered	17596
##erence	17593
Ġperception	17591
124	17590
##ived	17588
Ġadjust	17587
Ġsupporters	17583
Ù	17581
Ġfabric	17581
Ġqueue	17580
Ġspec	17579
cells	17578
Ġunlike	17578
anti	17577
Ġlift	17577
ĠEastern	17574
##DC	17563
ĠFT	17562
Ġpanels	17561
Ġpod	17560
even	17558
Ġreversed	17558
Win	17557
ĠKingdom	17555
999	17553
##Entry	17553
ĠAsh	17552
ĠAgain	17549
edu	17545
##inn	17544
Ġderivatives	17540
##\\	17538
.*]{}	17537
##ull	17536
ct	17533
ĠMean	17533
1997	17531
Ġopt	17521
ĠVe	17521
ĠSW	17519
ĠMarket	17517
Ġdefects	17514
##uction	17513
Ġdoses	17513
##asm	17512
Ġembedded	17509
Ġinterpreted	17508
Red	17505
Ġze	17500
Ġtransactions	17500
!!!	17498
Ġtroops	17498
ĠMethods	17495
Ġcorrelations	17494
##LS	17487
_+	17486
Ġtrauma	17483
ĠGas	17482
Ġsouthern	17476
stat	17472
##Location	17472
Ġstellar	17469
##ometric	17467
##iner	17466
Photo	17463
GR	17455
Ġ'\	17455
Mac	17453
matrix	17450
Ġminimize	17450
Ġliked	17447
ĠÂĹ	17446
ĠMus	17444
va	17439
##FO	17429
Ġfibers	17429
Ġcholesterol	17428
Ġtill	17426
Sal	17424
##ards	17424
ĠChildren	17424
edit	17423
##uan	17421
Right	17420
Make	17418
##bal	17415
##band	17413
Ġwedding	17407
Ġ1987	17407
negative	17402
Ġwireless	17402
Ġcombine	17399
Ġduties	17394
Ġprinted	17393
Ġlifestyle	17390
Ġcrack	17388
##GR	17387
perp	17382
Ġcriticism	17382
##ulf	17381
Ġ|\	17381
che	17379
##rial	17379
Ġwo	17378
CON	17376
Ġreset	17376
ĠML	17376
}}(\	17375
##0000	17373
light	17372
Ġactor	17371
Ġprosecutor	17370
126	17368
ĠTitle	17368
RS	17363
Ġlabeled	17358
copy	17357
Ġtu	17357
Ġcooling	17352
play	17349
Ġfilling	17349
Ġrating	17348
##Check	17347
Ġprinting	17347
ĠSB	17346
Ġexciting	17344
0004	17340
##Me	17339
ĠÑģ	17338
Ġauthorized	17338
Ġnorthern	17335
Ġphysiological	17333
Ġevident	17330
,{\	17327
Map	17325
Ġdiffusion	17324
Up	17318
}}$,	17317
##iant	17315
Ġexpressing	17312
ĠHim	17309
Ġinfluenced	17305
Ġwage	17302
Ġillustrated	17302
imp	17301
Ġplug	17301
Ġassociations	17297
ĠWARRANTIES	17297
ĠĠĠĠĠĠĠĠĠĠĠĠĠĠĠĠĠĠĠĠĠĠĠĠĠĠĠĠĠĠĠ	17297
##ific	17290
Ġdistinction	17288
##outs	17286
##hes	17285
##ete	17285
Ġcourses	17284
Ġgained	17275
Ġintersection	17271
##itch	17270
132	17263
Ġ129	17263
shape	17260
Ġfib	17255
Ġisolation	17254
##ysis	17252
Ġraising	17249
Ġpending	17249
ĠNat	17248
##BE	17247
Ġphenotype	17247
Ġnp	17247
ĠRadio	17246
čĊĉĉĉ	17246
Em	17245
Ġgenomic	17244
Ġpred	17240
Ġdiff	17238
colon	17235
Ag	17235
Ġattitude	17235
Ġloans	17230
Ġtension	17228
##ount	17227
ĠNT	17227
ĠImages	17225
javascript	17222
Ġye	17213
Ġconnecting	17213
ĠSpring	17213
types	17208
Ġinspired	17207
Ġbrush	17206
Ġ135	17205
under	17204
Ġvalidity	17204
##bert	17201
ĠThird	17201
ĠĊĊ	17195
##Change	17190
Ġ&=&	17186
conc	17180
ĠPacific	17179
##Spec	17177
Ġmad	17174
Ġgalaxy	17174
ĠAlex	17171
##bon	17168
Sl	17164
Ġss	17162
ĠPoly	17161
Ġpitch	17159
ĠKorean	17158
CP	17156
##Module	17152
Ġhopes	17152
147	17151
Ġsomebody	17145
175	17144
Ġxe	17143
122	17142
##wer	17142
IT	17141
##Connection	17141
Ġgross	17141
short	17140
Ġguest	17139
ĠHan	17138
component	17137
Ġignored	17137
ĠCommissioner	17137
record	17135
Ġasc	17135
**.	17133
Ġcontacts	17132
.(	17129
Ġinvariant	17129
Ġawesome	17122
Ġ126	17116
Ġ+\	17116
##iri	17113
Ġtolerance	17109
Ġresonance	17109
Ġglyc	17109
ĠSF	17109
##erg	17107
ĠmL	17104
##ulating	17101
##ancy	17098
Ġperiodic	17097
##åħ	17096
Ġicon	17095
ĠWithout	17090
##Cache	17088
Ġ"<	17086
Ġdenotes	17085
Ġprost	17080
,$$	17079
ĊĊĠĠĠĠ	17079
Ġtherm	17075
save	17073
Ver	17070
168	17069
##_{\	17069
Ġcardiovascular	17068
##eon	17066
Ġhtml	17065
ĠGames	17065
border	17064
Ġpreventing	17061
Ġphosphorylation	17059
(){	17055
248	17049
ĠAgency	17049
Ġequilibrium	17043
ĠColor	17040
##aro	17037
ĠAnderson	17037
Ġtransmitted	17033
Three	17031
Ġalarm	17028
Ġestimation	17026
##ister	17024
1995	17022
Ġliterally	17022
/.	17021
ĠRF	17020
##ages	17018
135	17017
Ġtin	17017
Ġappend	17014
ĠZealand	17014
member	17013
ĠStephen	17013
##è¯	17012
##Position	17008
*~*	17007
mar	17005
stop	16996
##ques	16995
Ġpounds	16994
Ġmethyl	16994
bigg	16992
Ġswitching	16990
Ġstretch	16989
Ġbatch	16989
Ġembodiment	16988
##Bl	16985
Ġkick	16985
Ġeliminate	16985
Ġmotivation	16978
Ġfactory	16978
##Types	16977
ĠÂ¶	16977
licenses	16974
square	16967
Ġretro	16964
##vor	16962
Ġgenuine	16962
ĠGer	16959
Bro	16957
scope	16955
##ika	16952
Ġpublicly	16950
##uni	16948
den	16947
Ġorbit	16947
Ġgravity	16946
Ġenhancement	16946
##kan	16943
Ġdestruction	16942
Ġtonight	16937
Ġovernight	16936
\.	16933
##oso	16929
##ution	16925
Ġelectricity	16916
Ġnose	16915
ĠBS	16912
Ġregulated	16908
Ġworried	16907
##Thread	16905
Ġphysically	16902
Ġobesity	16902
##AGE	16899
because	16893
Ġamendment	16888
Ġdifficulties	16885
Project	16883
##Net	16878
ĠPres	16875
Ġdelayed	16873
Ġboxes	16873
ĠPrior	16872
Ġspecificity	16871
##max	16870
Ġaggressive	16870
)\,	16864
##ched	16862
ĠTF	16861
Ġelectro	16859
FE	16857
Ġassumptions	16857
Ġ131	16853
MAX	16852
Ġepisodes	16850
Every	16848
help	16843
Ġsearching	16843
##Sc	16840
au	16838
sort	16834
ĠHamiltonian	16834
Ġ255	16833
210	16832
ĠOp	16832
ĠIowa	16831
Ġfounded	16829
Ġpoverty	16827
Dep	16826
pd	16825
##Level	16820
Ġnucle	16819
##old	16817
Ġjustify	16816
ĠRest	16814
Ġfake	16813
ĠConsequently	16813
##âĢĻ	16805
rev	16804
Ġattributed	16803
ĠStill	16798
ste	16797
hr	16791
ĠDocument	16790
129	16788
##ean	16787
Ġcommunicate	16786
ĠRS	16786
##rar	16783
ĠPerhaps	16782
move	16781
Ġhardly	16779
MC	16777
##ECT	16776
Ġdisplays	16776
131	16772
ĠRem	16772
##base	16771
Ġretail	16771
ES	16770
Ġip	16769
Hello	16768
##genic	16768
Ġsynthetic	16768
ĠProfessor	16768
Ġacknowledge	16767
store	16765
##rov	16763
##pha	16763
##EG	16762
$]{}	16761
Ġclip	16761
##eration	16759
ĠSky	16757
##ough	16755
Ben	16754
Ġblocked	16750
Ġtranscript	16749
Ġinverse	16748
Ġcompatible	16744
Ġabortion	16744
oplus	16743
Ġweird	16743
ĠAV	16741
Ġpic	16740
etc	16739
Ġhits	16739
ĠPlace	16738
âĢ²-	16737
##ogen	16736
ĠWITH	16736
Ġsmell	16735
##Ñı	16733
Ġwing	16733
Ġ1985	16727
Ġcompete	16723
ĠCore	16716
##Ðº	16710
##rich	16710
Ġshoes	16710
Ġpunishment	16710
Ġsilence	16709
Ġframes	16708
green	16703
Ġrevolution	16702
##chem	16701
Ġbeliefs	16696
##emb	16692
ĠSaudi	16692
ĠPri	16684
Ġrescue	16683
##WS	16681
ĠTea	16680
ho	16679
BC	16677
ĠFord	16676
Ġpermissions	16671
##eric	16668
ĠMU	16668
ĠÐ²	16662
Ġunre	16661
Ġboss	16661
\>	16659
##ãģĦ	16658
Ġmature	16658
Ġpartnership	16655
foot	16652
Ġ170	16652
##Equal	16651
Ġpleasure	16648
;\	16646
Ġvisits	16646
Ġenables	16646
Source	16645
Ġaffecting	16642
##card	16640
good	16638
##ando	16638
Ġobtaining	16638
Ġ133	16638
ĠSav	16636
ĠAdditional	16635
##izes	16634
United	16630
Ġ$.	16629
Ġcoal	16627
Ġmeaningful	16626
Ġgenerator	16625
Ġpotent	16620
family	16619
ĠOb	16618
##Pre	16614
Ġ{@	16613
Ġgotten	16613
Ġcraft	16613
Ġtrends	16612
ĠCarr	16611
Des	16610
)_{	16608
High	16606
##equ	16605
Ġple	16600
##rep	16589
SIZE	16585
ĠSpecifically	16584
ĠAve	16584
Ġdifferently	16583
##Call	16582
being	16581
Ġpolar	16579
Ġengagement	16579
##Container	16576
ĠMethod	16573
Ġweights	16572
##uge	16571
ĠNatural	16565
Ġdescribing	16564
ĠFin	16564
##OO	16562
Ġyeast	16562
Ġbehaviors	16562
##NN	16560
ĠTP	16559
##igo	16558
Ġbreaks	16558
##Function	16557
##df	16555
Ġtradition	16552
ĠIA	16552
Ġfits	16550
##hou	16549
)}(	16548
Sy	16547
##Con	16547
Ġreflects	16547
wide	16543
Ġcontest	16541
ĠPBS	16541
widget	16540
master	16538
Pol	16536
##ners	16535
Ġloud	16535
##rib	16534
git	16532
##bel	16532
LO	16531
Have	16529
Ġasks	16529
ĠNode	16527
Ġrepo	16526
ĠMinistry	16526
DS	16525
Ġfunctionality	16522
Ġdemocracy	16522
ĠColumbia	16521
Ġcommands	16517
Take	16514
Ġeu	16513
ĠJordan	16513
cat	16511
Ġdesignated	16511
Ġdeals	16511
##ulo	16508
Ġfactual	16505
change	16501
144	16499
Ġselective	16495
Ġunderwent	16493
Ġmi	16492
##iled	16489
Ġintrinsic	16489
'(	16488
ĠNick	16487
Ġagenda	16486
Ġinterviews	16485
Ġpredictions	16482
ĠRound	16482
plugin	16481
Ġpolynomial	16479
Ġinvestigations	16479
channel	16476
EX	16475
##AG	16474
Ġequality	16472
connection	16467
##iona	16467
ĠRather	16466
^{-\	16462
è	16460
ĠFalse	16458
ĠAlt	16458
##rie	16457
Ġapps	16456
}.$$	16455
##pad	16455
Ġanger	16455
Ġorange	16452
##aco	16451
Ġcart	16447
##ologic	16442
ĠMajor	16441
Ġannouncement	16440
Ġemphasis	16439
his	16438
addr	16438
tbl	16437
##Ã¢	16434
Ġbis	16434
Ġimm	16426
čĊčĊĠĠĠ	16418
ĠFS	16416
III	16415
Ġfitness	16414
cit	16411
##](#	16407
}}}_	16405
ĠFarm	16403
Ġprogramme	16402
##$(	16399
ĠAward	16395
Ġsegments	16394
face	16392
Ġpython	16392
Ġpassion	16390
Ġretirement	16381
Ġlistening	16379
Ġvariant	16371
##ession	16367
##opt	16366
Ġweekly	16362
Ġmortgage	16359
Ġradial	16358
Ġflo	16356
##dn	16354
##sd	16353
Spec	16352
Ġspray	16352
||	16349
Ġmem	16349
Ġrub	16346
}:	16339
##mble	16338
Ġdetector	16338
##vic	16336
Ġti	16336
Ġfarmers	16336
Ġcrossing	16336
Ġoptimization	16333
Maybe	16330
ĠKat	16328
Ġcomputational	16325
Ġconspiracy	16324
Ġxmlns	16322
FILE	16319
ĠArticle	16318
ĠGaussian	16317
MB	16314
$^{-	16313
Ġstat	16313
|-	16312
##},	16312
ĠEric	16310
##vie	16309
Ġproportional	16309
Ġhypertension	16309
Ġconsciousness	16309
Ġ1984	16309
Ġfocusing	16308
00000000	16302
##Null	16301
Ġboundaries	16299
Ġinserted	16298
Ġmath	16296
##berry	16289
##arch	16288
))/(	16284
ĠJS	16282
Ġ03	16282
ĠAst	16280
world	16279
##Case	16274
ĠTar	16274
Ġfavorable	16272
##ibly	16269
Ġattempting	16268
Ġtie	16267
ĠSand	16267
Ġtrivial	16266
ĠSciences	16266
##iser	16265
##Record	16265
Ġconvey	16264
##cker	16262
Ġscaling	16258
|}	16252
âĢ¯	16248
Ġangry	16248
Ġtrail	16246
Ġvertices	16244
]{.	16243
Ġphrase	16242
ĠNM	16239
ĠTry	16237
ĠAdam	16235
##Ñĭ	16233
##Utils	16230
Ġcomputers	16230
âĢĻ.	16228
Ġfranchise	16228
ol	16226
Ġindices	16222
Ġob	16221
ĠCro	16221
##EX	16218
##ites	16215
Sta	16214
ĠBible	16212
280	16210
Ġadapted	16207
Ġheading	16206
##${	16204
##az	16203
##BS	16203
Ġrendered	16196
Ġroads	16195
##Ã©s	16193
Ġregulate	16192
Ġintracellular	16192
Ġphysicians	16191
Ġterrible	16190
Ġ***	16190
Ġvaried	16187
Ġdates	16186
aw	16182
155	16177
ĠSpirit	16177
Ġhero	16173
Ġexclusion	16173
ĠLP	16172
Ġimpressive	16169
Ġconvenient	16168
Ġchocolate	16168
Ġfatty	16162
ĠCou	16160
##CG	16155
Ġcombinations	16155
Ġaims	16155
Ġdeeper	16151
##rator	16149
Ġreflection	16149
Call	16146
##awa	16145
1994	16144
##ĊĠĠ	16142
##],	16141
eqn	16138
ĠArch	16135
ĠSil	16134
yes	16133
ĠRose	16130
Ġsettled	16129
Ġdesc	16127
##omb	16126
ĠAk	16126
##cm	16121
Ġfunded	16118
att	16117
Pat	16117
##AB	16115
Ġimpression	16115
WA	16114
Ġnegligence	16114
##imate	16113
adv	16112
Ġtap	16112
SN	16108
Ġdans	16107
Ġrestaurants	16105
tw	16103
Ġreply	16103
ĠLar	16101
cy	16097
Ġpeaks	16096
ĠHam	16096
terminal	16095
ĠSupp	16095
Ġracial	16091
Ġsuspension	16088
##Ð´	16086
Ġmatched	16086
Ġlimiting	16084
Ġcontra	16081
Ġchains	16081
FF	16078
##ego	16075
Ġmood	16075
ĠDef	16073
##iga	16070
##Rect	16070
Step	16065
Ġquantities	16065
Ġfatal	16065
Ġepithelial	16065
wp	16064
##stein	16064
Ġ05	16064
Ġsatisfying	16061
round	16060
eff	16060
204	16060
Ġquit	16060
Local	16059
Ġprejudice	16059
Ġsettle	16058
Ġou	16058
Ġmagazine	16058
Ġbelt	16058
##ones	16056
##ij	16056
Ġfingers	16055
ĠDH	16055
##ener	16054
derived	16053
Ġdrama	16052
1993	16049
Ġcontend	16049
forall	16048
##wd	16046
Ġtransparent	16043
Ġscoring	16043
##Bo	16041
Ġsucceed	16040
Ġgro	16040
##Num	16039
Ġequ	16036
##oids	16033
Ġbil	16033
##cos	16032
##Target	16031
Ġ",	16031
##oto	16030
Ġconsensus	16028
ĠLittle	16028
Non	16021
ĠÐ¿	16020
âĢ	16018
Ġproposition	16017
##ANT	16015
cli	16014
##bro	16014
ĠInst	16014
resource	16011
Ġbreakfast	16011
Ġprima	16010
##Pr	16003
ĠWI	16003
Ġ04	16003
lu	16000
Ġgrip	16000
Ġskip	15999
Ġchoosing	15997
Ġdollar	15996
Ġvulnerable	15995
##Op	15990
simeq	15984
Ġlawsuit	15984
ĠArea	15984
Ġmanually	15975
Ġconfident	15974
Ġsed	15970
ĠAdv	15970
Ġ09	15969
Ġpreferably	15967
##MM	15966
Ġdamaged	15966
##Configuration	15964
Ġcor	15964
Ġwondering	15963
ĠRou	15963
Main	15958
ĠDP	15956
mb	15951
Ġlikes	15951
ĠCoast	15951
##PP	15950
Ġ134	15950
##part	15949
GET	15948
Ġstrictly	15942
Ġrepresentations	15940
Ġdoc	15938
##race	15937
Ġtied	15937
##pr	15932
##ever	15925
ĠTurkey	15925
Ġholiday	15924
ag	15921
ĠKan	15919
##BR	15917
Ġdeveloper	15916
Ġscr	15915
Ġquote	15914
ĠSV	15914
ĠCommonwealth	15912
Ġsupplies	15910
\,\	15908
Ġshots	15908
Ġbelong	15906
ĠLim	15906
Ġlegitimate	15903
ft	15901
bibr	15898
ĠProperty	15898
Total	15897
np	15896
Bre	15895
##iction	15892
Ġresidual	15887
install	15886
RO	15883
Ġbounds	15883
Ġisolates	15876
degree	15874
{"	15872
##stic	15863
Del	15861
ĠND	15857
ĠMinnesota	15857
born	15852
##bie	15851
153	15850
PL	15849
##enter	15848
.).	15846
Ġpushing	15844
ĠPHP	15844
low	15840
##åı	15840
Ġtre	15840
Ġbehavioral	15836
="/	15835
2020	15834
Ġions	15834
Ġgray	15831
Ġlap	15830
Ġvisitors	15828
ĠLive	15827
your	15825
Ġentities	15825
ĠSel	15822
ĠParliament	15822
exe	15821
Ġbills	15820
##oice	15818
##wing	15817
Ġum	15812
Ġreputation	15812
Ġlogical	15810
Ġobjection	15808
Ġtort	15803
Ġshr	15802
1990	15799
ĠFisher	15799
Ġviruses	15797
ĠEV	15794
##gal	15791
ĠConc	15789
figure	15787
0010	15786
Ġscroll	15784
##hole	15779
Ġrestore	15779
ĠLin	15779
License	15772
Ġdimensional	15772
ĠSoviet	15772
##omic	15766
ĠSign	15764
ĠHarris	15763
ĠDam	15763
ĠHon	15760
Base	15759
xa	15758
Additional	15758
ĠHTTP	15757
()->	15756
##ih	15756
Ġassistant	15756
Ġdebtor	15753
Ġtrim	15752
##lines	15747
##Template	15745
_*	15744
resp	15741
ĠPr	15741
##Max	15739
Ġprov	15737
ĠBat	15735
Ġ##	15727
ĠTNF	15726
Ġbaseball	15725
##hing	15723
Ġrob	15721
Ġnucleus	15721
]{}]{}	15717
##oper	15717
Ġemerging	15716
Color	15715
Ġhealing	15712
Ġreferring	15711
Ġposterior	15710
Ġequipped	15710
Despite	15704
ĠLewis	15704
ĠKal	15704
Ġpreserve	15702
##arm	15700
##nh	15699
##{}	15697
Ġdecor	15697
;">	15695
ĠAssembly	15695
Ġinquiry	15694
##ored	15693
Ġbirths	15690
ĠDol	15690
Jo	15684
ĠCV	15682
##vity	15678
ĠCambridge	15678
RT	15674
Ġmembership	15674
Ġcertificate	15674
##ift	15672
ĠBh	15672
##icon	15667
Ġcavity	15666
ĠBrazil	15666
##izable	15664
##Do	15664
ĠUnless	15663
Ġdeficiency	15662
##ĠĠĠĠĠĠĠĠĠĠĠĠĠĠĠĠĠĠĠ	15660
##Ñģ	15659
Ġpocket	15659
##ishing	15658
##tw	15657
Ġven	15657
Ġsensors	15656
ĠMAP	15655
Ġdeny	15652
Ġterritory	15651
Ġtoxicity	15647
ĠMoore	15647
random	15645
Ġtetra	15644
Ġauthentic	15642
Ġplatforms	15641
ĠYeah	15637
Ġdil	15636
Ġoxidative	15635
ĠAndrew	15635
Ġ184	15635
Ġnonc	15634
Ġprep	15632
Ġinvited	15630
ĠException	15630
##cp	15625
Ġvessels	15623
Ġstomach	15623
Ġarrive	15622
Ġmoon	15621
##urb	15620
Ġpromised	15619
ĠDaily	15618
145	15616
##AF	15614
Ġinspection	15614
ox	15612
Ġtired	15610
Ġmuscles	15608
Ġsaving	15606
Ġextending	15606
Ġ".	15606
Â³	15604
Ġdefining	15602
ĠIFN	15602
ED	15601
Ġsink	15600
Ġ136	15599
Ġenforce	15597
##right	15596
##cont	15596
Ġodds	15596
Ġmodeling	15596
##hand	15595
Ġparticipated	15590
obs	15589
Ġagreements	15589
Ġnurse	15588
##lands	15579
Ġhighlight	15578
ĠTour	15575
##ago	15573
Ġobligation	15573
##DD	15572
Ġstrategic	15572
ĠScale	15571
ĠTT	15569
ĠIndiana	15568
##aster	15567
pin	15565
Ġinflation	15564
ĠMet	15563
##Document	15558
Ġpromotion	15557
900	15551
ĠToronto	15551
Ġopens	15549
Ġinjected	15548
ĠDefense	15548
Ġpointing	15547
Ġaccurately	15543
Number	15537
Ġtransit	15536
password	15532
Ġencounter	15531
##Val	15529
age	15527
Ġnobody	15526
##HC	15524
Ġtor	15521
Ġsuspected	15521
ĠPass	15521
##Part	15519
Ref	15515
##{{	15513
Ġestablishment	15512
Ġemb	15511
ĠFM	15511
ĠAfghanistan	15511
Ann	15510
San	15508
Ġconstructor	15507
Ġax	15506
##mn	15505
ĠContent	15504
Ġregarded	15503
ĠHaw	15503
##omi	15502
Ġnavigation	15502
GP	15501
Convert	15501
Ġgrateful	15501
Windows	15500
Ġsuppress	15500
Ġcortex	15500
Cons	15498
##bul	15497
also	15494
Ġplugin	15494
ĠSort	15493
sample	15492
##ann	15491
Ġ[$	15491
ĠĠĠĠĠĠĠĠĠĠĠĠĠĠĠĠĠĠĠĠĠĠĠĠĠĠĠĠĠĠĠĠĠĠ	15491
Ġexpense	15489
Ġtalent	15488
Ġpublish	15487
##TP	15483
118	15481
Ġdeemed	15481
ĠBridge	15480
##Trans	15478
Ġbird	15478
MP	15476
##icle	15475
)^{-	15473
##ema	15473
Ġunw	15473
Ġsuspended	15473
##vas	15472
Ġgen	15469
ĠWay	15468
Sort	15466
áĢ	15464
ĠFather	15462
render	15460
Ġresistant	15459
fo	15456
220	15456
Ġcomply	15454
Ġfavour	15452
Ġstayed	15451
ĠDiv	15449
Chapter	15446
flags	15445
Ġreliability	15445
Ġpat	15444
ae	15442
##ively	15442
ĠSports	15441
stack	15439
fields	15439
##space	15439
Ġpharmac	15437
Ġpromoting	15436
++;	15435
Ġresort	15435
Ġarising	15434
=========================	15430
PT	15428
Ġ-------	15427
Cat	15426
ĠBas	15422
Ġpossess	15421
Discussion	15420
Ġ1981	15419
Ġreplication	15418
Ġcomparisons	15417
Ġindication	15416
Ġticket	15415
Ġresident	15415
Ġelectrons	15415
ĠMol	15414
##Ãª	15413
Ġlas	15413
Mor	15412
Ġmicroscopy	15408
Ġassign	15408
IO	15407
ĠLibrary	15406
register	15401
Ġendothelial	15401
Ġanalytical	15401
Ġelderly	15400
Ġsuppression	15397
Ġadjustment	15397
##Ð¼	15396
ĊĊĠĠĠĠĠĠĠĠĠĠĠĠĠĠĠĠĠĠĠĠĠĠĠ	15395
##igen	15394
ĠIm	15394
ĠWrite	15393
##umb	15388
Ġtrick	15388
ĠHouston	15385
ĠRat	15384
##ued	15383
Ġ).	15381
Ġhoney	15379
_{-	15378
Inc	15375
Ġinputs	15375
Ġenergies	15375
ĊĊĊĊ	15374
Ġpersonality	15371
Bra	15370
ĠHad	15370
ĠSem	15364
Ġdemonstrates	15363
margin	15362
ĠWeek	15362
ĠChen	15360
ĠTrade	15359
Ġ08	15357
Ġbranches	15356
##Ar	15354
Ġble	15353
Ġblast	15353
##Interface	15352
ĠĠĊ	15350
205	15348
Ġspots	15347
ĠSystems	15346
ĠColl	15346
Ġgrain	15345
Ġbases	15344
##read	15342
ĠPV	15342
Ġarrival	15340
##uting	15339
tx	15337
Ġexisted	15337
Ġthreats	15333
Ġdistances	15333
Ġ144	15330
Ġuptake	15329
Ġparagraph	15329
Ġdefinitions	15329
ÃĲÂµÃĲ	15321
Ġtournament	15320
##$,	15319
Ġrape	15316
Ġrail	15313
Ġ^{	15313
##ook	15312
Ġinhibited	15311
ĠRos	15310
##Settings	15309
ĊĊĠĠĠĠĠĠĠĠĠĠĠĠĠĠĠĠĠĠĠ	15309
##OH	15307
Ġvariability	15305
making	15304
Ġdom	15304
##ITE	15299
Ġvisiting	15298
Ġlocalization	15298
##isa	15297
Ġhabit	15297
ĠAla	15296
Ġdocumented	15295
SL	15294
##ube	15290
##^{\	15289
Imp	15286
##away	15284
ĠĠĠĠĠĠĠĠĠĠĠĠĠĠĠĠĠĠĠĠĠĠĠĠĠĠĠĠĠĠĠĠĠ	15282
Ġranges	15276
##dev	15275
Ġtends	15274
Ġpub	15274
##ives	15271
analysis	15266
energy	15265
each	15265
##GF	15265
Ġanchor	15265
Ġsatisfaction	15262
Ġwarranty	15260
Ġwrap	15259
Ġlibraries	15255
136	15253
Ġhandler	15252
##dm	15250
##Column	15250
Ġcoat	15245
Ġminority	15241
_>	15240
.:	15240
SH	15238
Ġ1960	15236
Ġpolarization	15235
Update	15229
##elect	15229
century	15228
ĠTown	15228
ĠQueen	15227
}$$\	15224
349	15224
Ġcharacterization	15224
Ġconfusion	15222
##dar	15221
Ġcomplaints	15220
ĠPay	15216
Ġcapabilities	15215
Ġheaded	15214
##jan	15211
ĠSym	15211
##Man	15210
##ways	15209
##Re	15208
ĠHand	15208
ĠSilver	15207
##------	15206
wrap	15203
##OG	15203
Ġdecimal	15199
##Var	15196
Ġnitrogen	15196
ĠGT	15196
Ap	15195
##Ãħ	15195
##aching	15194
ĠTD	15192
ĠDirect	15192
ĠChristians	15190
##An	15189
##----	15186
fill	15183
GO	15182
025	15181
##rent	15180
FD	15178
Ġthirty	15175
Ġalongside	15175
rate	15174
ĠBoy	15173
`,	15169
ĠEvent	15168
ĠMonte	15164
ĠWild	15161
ĠMill	15160
ĠHM	15157
##Output	15156
Ġdental	15156
modules	15155
Ġemerged	15155
ĠPrice	15147
Ġsurprising	15146
Ġsuggestions	15146
ent	15145
Ġdenying	15145
##cur	15141
##obe	15140
}})$	15139
pub	15135
Ġblot	15134
Ġbench	15133
region	15130
ok	15129
##mel	15125
Ġupset	15125
##inary	15123
1992	15122
##uf	15122
##Parameter	15122
ĠInterestingly	15121
while	15113
##pic	15113
ĠSche	15113
Ġwise	15112
Ġ{"	15108
##ected	15105
linear	15104
Ġbro	15104
ĠMcG	15104
category	15102
Ġcran	15102
Ġparticipant	15101
Ġmac	15101
Ġbasketball	15097
##lem	15096
ĠNations	15093
Ġà	15092
Ġdrain	15092
ee	15090
Ġfaculty	15090
Ġcru	15089
connect	15087
Today	15081
##ATE	15080
Ġpreparing	15079
ĠShould	15075
ĠHz	15073
##kn	15072
##ivo	15072
Ġtear	15069
Ġinduces	15069
END	15068
Ġrum	15067
##-----	15065
Ġsigning	15064
Ġhosts	15063
ĠCru	15063
##gate	15061
ĠReact	15061
##cd	15060
##UA	15059
##lg	15058
##Store	15055
Ġatomic	15049
1991	15048
##RY	15048
Ġoccasion	15045
##otype	15044
##lay	15043
Ġwinner	15042
Product	15041
Er	15041
##})	15039
Ġtransformed	15038
##ience	15037
Ġprote	15037
##uda	15033
Ġcollaboration	15032
PE	15031
phase	15025
Ġtar	15025
##icate	15024
Ġvirtually	15024
Ġextrem	15024
ĠWatch	15021
##mission	15020
Ev	15019
BB	15019
##Read	15017
Ġgang	15006
Ġeq	15005
##ribution	15002
Free	15001
ĠEll	14997
##Unit	14994
aff	14991
##\[	14988
NC	14987
##using	14986
Ġtransient	14985
ĠKeep	14984
ĠPin	14982
Ġmagnet	14981
loc	14978
Ġwelfare	14977
Ġclaiming	14977
"));	14976
Ġconstraint	14968
##asing	14967
Ġprobable	14967
##ently	14966
##api	14966
Ġasset	14966
bd	14963
Ġblocking	14961
Ġwaters	14960
Ġreceives	14957
##rog	14949
Ġrespondents	14949
ON	14945
Ġcoronary	14945
Ġcompression	14944
here	14943
nutrients	14939
Ġswing	14939
Ġfiscal	14939
ĠPB	14937
Ġinterpret	14935
Ġlocked	14931
Ġfrozen	14931
ĠBall	14930
Ġlys	14929
##ifi	14928
Ġva	14928
Ġlongitudinal	14926
##Es	14924
##uate	14923
ĠHard	14922
OP	14921
Auto	14921
ĠBit	14921
Ġnotation	14916
Char	14913
ĠStore	14913
Ġprotocols	14908
Nat	14906
ĠčĊ	14905
Ġgerm	14904
ĠChange	14902
Ġtags	14901
?)	14900
##rian	14899
Ġbleeding	14898
##ride	14894
Description	14893
ĠKer	14893
Age	14891
Ġrecurrence	14890
Ġchances	14889
Ġaffirmed	14889
ĠIgG	14888
Ġbold	14881
ĠGene	14877
ĠWis	14876
##place	14874
REG	14873
Ġconstants	14868
ĠĠĠĠĠĠĠĠĠĠĠĠĠĠĠĠĠĠĠĠĠĠĠĠĠĠĠĠĠĠĠĠ	14868
Ġhistoric	14867
ĠLib	14865
*(-	14861
Ġphosph	14861
Ġdecomposition	14861
##iles	14859
ĠCNN	14859
Mark	14858
ĠBB	14857
##ange	14854
Ġparams	14854
ĠÎĶ	14852
Introduction	14850
##iance	14848
##Load	14848
ĠAff	14848
##ORT	14847
Ġwavelength	14847
Ġsteam	14846
ĠHP	14846
Ġmisc	14845
<?	14844
Ġsubgroup	14844
Ġsudden	14843
Ġcultured	14843
ĠStation	14843
Top	14842
Ġnonlinear	14842
=-	14840
##Reference	14838
Ġpal	14837
Ġoptional	14836
Ġshortly	14834
ĠRM	14831
##rig	14830
Ġshower	14830
Ġwins	14829
##opic	14827
Ġappreciated	14826
Start	14825
ĠOC	14824
##\]	14822
Ġcircular	14822
items	14819
Hy	14819
Ġshaft	14819
Ġdetermines	14819
Ġtimely	14817
iii	14815
##Callback	14812
Ġbacks	14812
ĠÂ»	14808
Ġdonor	14808
ĠAug	14808
Ġtracks	14807
Ġslot	14807
##ban	14806
mM	14802
##Device	14802
ĠClinical	14801
Ġir	14800
fb	14799
Ġdistress	14799
Ġsolved	14798
Ġdim	14798
##rod	14796
Ġsilicon	14794
Ġappointment	14794
python	14790
Ġtwist	14790
##ACT	14786
EM	14785
##Rep	14780
ĠTHAT	14776
ĠAllen	14776
Ġcookies	14774
##lip	14771
Ġspl	14770
ĠChild	14770
Max	14768
CN	14768
ĠFinal	14768
Ġefficiently	14767
##oj	14766
Item	14765
Ġmutants	14765
Ġsecured	14761
Ġthrown	14760
Ġpursue	14757
ĠFeb	14757
##Params	14756
##any	14753
Ġ1982	14752
ĠFilm	14751
141	14747
##LC	14745
##gt	14744
ĊĉĠ	14743
##SD	14742
gathered	14741
deg	14738
##Ph	14732
Ġpostoperative	14732
Ġthreatened	14730
ĠConsider	14730
ĠVen	14729
Ġtender	14726
Ġupload	14725
$^	14723
Ġheaven	14721
Ġreward	14720
Ġmemories	14720
Ġcustody	14720
čĊĠĠĠĠ	14717
Gen	14715
ĠOUT	14715
ER	14713
ĠMas	14709
Ġstimulus	14708
FIG	14706
Ġsilent	14706
##FC	14704
ĠHoly	14704
Ġblank	14700
)'	14698
ĠInsurance	14697
Ġstriking	14696
ÎĶ	14694
pres	14694
ÂĹ	14692
ĠImmun	14691
##Activity	14688
Ġinfer	14688
RES	14686
ĠRome	14685
##ances	14683
##roc	14682
Ġanybody	14681
Ġabnormal	14681
eg	14680
Î	14675
ĠJean	14674
attribute	14673
Ġcancers	14672
Ġtech	14671
ĠEF	14670
##Reader	14669
ĠÃĹÂ	14667
))$	14666
Ġdot	14665
$_{	14663
ĠSoc	14663
##ril	14662
Ġmothers	14661
Ġcircuits	14661
ĠBarr	14661
Ġinstruments	14660
Array	14657
Ġkin	14657
dom	14655
Ġflying	14655
Ġfantastic	14650
kn	14649
Ġtriple	14649
party	14644
Ġartist	14643
$^{	14641
##Ã³n	14636
Ġmerit	14634
##actic	14633
Act	14626
Ġtries	14626
Ġliable	14626
Ġchallenged	14624
ĠSar	14623
Ġdamn	14621
Ġlitigation	14620
Ġtraits	14618
##omm	14616
Ġattract	14615
##riz	14612
ĠWisconsin	14611
ĠMid	14606
Ġeveryday	14605
[**	14604
##lets	14604
Ġxml	14604
Ġentrance	14604
Ġconserved	14603
ĠXML	14603
Ġflip	14602
ĠCam	14602
##isk	14600
DATA	14599
##hm	14599
ef	14597
Thus	14596
sb	14588
ĠABC	14588
##Wh	14587
IV	14584
ai	14583
=""	14583
Ġacted	14582
ĠFF	14582
čĊĠĠ	14582
##bot	14581
ĠMerc	14581
Ġinches	14578
ĠDra	14576
##WN	14574
Cy	14572
Ġconvergence	14572
ĠĠĠĠĠĠĠĠĠĠĠĠĠĠĠĠĠĠĠĠĠĠĠĠĠĠĠĠĠĠĠĠĠĠĠ	14571
_(	14570
Ġbelongs	14570
##IAL	14569
Ġresidential	14569
Ġdrove	14569
Ġdried	14567
Ġdispersion	14567
Ġvegetables	14566
Ġmathematical	14565
news	14563
Ġcorn	14563
Ġflows	14560
Ġjournal	14555
Ġstained	14554
Ġdin	14548
Unc	14546
é	14545
ĠXi	14545
btn	14544
edge	14543
Ġoh	14543
##ben	14541
Ġpol	14540
Ġfilters	14539
Ġ___	14539
Ġsatellite	14537
Ġflex	14536
##bound	14535
Ġviewing	14535
Ġmining	14535
ĠUSE	14534
four	14533
Ġshake	14533
##TO	14531
##ication	14528
Ġphoton	14527
'],	14525
##lag	14524
##ensive	14523
Ġadaptation	14523
ĠReturns	14522
##)$	14520
##ÑĮ	14518
Ġseats	14518
Ġanimation	14518
ĠLuc	14518
Ġminds	14517
ĠVin	14516
Ġgraphs	14515
diff	14514
ĠÎ¼g	14514
Sen	14513
ĠProcess	14513
##ality	14511
Ġfra	14509
Ġresin	14508
##irl	14505
##Tag	14505
ĠSEC	14505
Ġexclusively	14504
Ġasthma	14504
ĠSometimes	14504
ĠGS	14503
Ġreconstruction	14502
mt	14501
SET	14499
Ġgradually	14496
poly	14494
##LT	14493
ĠOm	14491
.\[[@	14490
Ġbedroom	14490
ĠâĤ¬	14489
Ġfuck	14489
Bio	14488
Ġprevented	14488
OS	14486
Ġperpet	14486
require	14483
TE	14483
##lot	14481
POST	14478
EE	14478
Ġsubstitute	14478
ĠNet	14478
##Ä±	14477
Ġlady	14476
Ġinsertion	14476
Ġsentenced	14475
ĠGB	14474
##IG	14472
Ġimpairment	14472
Ġflowers	14468
Ġ<?	14466
ĠKelly	14463
##own	14462
RI	14456
##oqu	14456
Ġwidespread	14456
Ġrespondent	14455
Ġgeneralized	14455
Ġestablishing	14455
Ġsimilarity	14454
security	14452
nt	14452
##ror	14451
Ġconfused	14450
Ġadm	14450
Ġactors	14448
ĠCooper	14445
PH	14443
Ġmaternal	14442
prov	14439
##INE	14437
##mac	14436
Ġjoining	14435
ld	14434
ĠBrian	14433
Ġstating	14432
##NK	14430
ws	14427
Ġmarginal	14427
##kov	14424
ĠSearch	14423
Field	14422
Both	14422
CONFIG	14419
Default	14417
Ġindependence	14417
##Fl	14415
Ġpersistent	14415
TEST	14414
NULL	14414
##Min	14414
Ġmethylation	14412
Ġbelonging	14407
Ġdescending	14405
Ġknife	14404
Ġacceptance	14403
Sign	14401
Ġreplied	14401
Ġcrop	14400
##OF	14399
##Ã	14397
##ĠĠĠĠĠĠĠĠĠĠĠ	14396
âĢ¦.	14394
ĠFri	14394
Ġ07	14392
Select	14390
Ġbarely	14390
'))	14388
##ller	14388
hep	14383
143	14381
Ġ183	14378
Ġscenes	14377
Ġsymbols	14375
Ġseeks	14374
MD	14372
##âĢ¦	14372
Ġmate	14372
ĠKansas	14372
##omo	14371
Ġsquad	14371
##vert	14369
ĠKra	14369
Ġpc	14366
}}}(	14363
Ġanterior	14362
ĠRon	14360
Four	14359
Ġmotions	14359
##aged	14357
Ġguests	14357
Ġplacement	14356
##Ø§	14355
##oci	14353
Ġloves	14353
sd	14351
KEY	14351
##rey	14350
ĠBad	14346
hbar	14345
comm	14345
ĠMeta	14345
##alt	14343
Ġsalary	14343
Ġtam	14341
Ġpreference	14341
Ġocean	14338
##FL	14337
Ġrealistic	14337
Ġhook	14337
methyl	14336
ic	14336
Ġexhaust	14335
Ġquestionnaire	14334
##fall	14333
ĠTask	14333
##lers	14330
Ġprocessor	14330
ifdef	14329
##Create	14326
ĠFD	14326
ĠDT	14324
Ġcomputation	14323
Ġsake	14321
Ġcanonical	14318
240	14317
Ġpri	14317
Ġcapability	14317
Ġprescribed	14310
Ġincredible	14310
ĠKam	14306
##Ñĩ	14303
ĠBos	14303
\_[	14302
Ġ145	14301
Ġairport	14297
ĠEle	14297
ĠLatin	14295
power	14291
ĠNature	14288
Ġtestify	14287
Write	14286
Ġdramatic	14284
ĠHy	14282
ĠMir	14280
Ġdating	14279
Ġesc	14277
##front	14274
Ġ138	14272
Ġunfair	14270
Ġmanaging	14267
Ġattorneys	14267
##mid	14266
##cript	14265
person	14262
Ġcontroversial	14261
}&	14260
Ġshed	14260
proc	14258
##bling	14255
ĠMassachusetts	14254
Ġbriefly	14251
ĠOrganization	14248
Ġcos	14246
##alis	14244
##ometer	14241
##kit	14241
à¥į	14232
##aver	14232
ĠIl	14230
##CU	14226
Ġattachment	14225
##ocyte	14224
ĠFre	14223
Ġstyles	14222
Ġcocaine	14221
ĠBin	14219
Ġindictment	14218
ĠNar	14218
##cut	14216
Ġcritic	14216
##irm	14214
Ġacknowledged	14214
Ġviolations	14211
##Ï	14209
##oral	14208
##The	14208
ĠSanders	14208
Ġisot	14207
Ġemissions	14205
PM	14203
priv	14202
vol	14199
Ġcancel	14199
##AY	14198
Ġpeptides	14197
##ises	14193
Ġ137	14190
Ġhex	14188
##ITY	14187
Ġpartly	14187
Ġgrace	14182
Ġsurely	14181
##Title	14178
Ġcontention	14178
Ġoffices	14174
Ġethnic	14170
Ġscrap	14169
Ġdietary	14167
ĠMessage	14167
Ġstere	14163
ĠNeuro	14163
##dro	14161
##END	14160
Ġprotecting	14160
Ġempirical	14160
ĠMuseum	14160
*\	14158
##vol	14157
##ases	14155
Ġacquire	14154
Ġletting	14153
ĠSyrian	14153
##ove	14152
ĠShar	14151
Ġparticipating	14150
Sm	14149
##+-	14149
Ġrandomized	14147
ĠKevin	14146
##cri	14145
Ġsavings	14145
Ir	14144
Ġinvestigating	14141
IL	14140
ĠPlus	14140
queue	14139
callback	14137
Ġseal	14136
##EF	14134
Ġconservation	14134
##lement	14132
Ġprovince	14132
##wh	14130
"};	14130
Ġfelony	14130
mc	14128
ĠGOP	14121
##emia	14120
xF	14119
##mos	14119
toString	14118
Ġgrab	14118
##elli	14117
Ġunnecessary	14116
ĠHel	14116
##att	14114
Ġemploy	14112
##Ã±	14104
ie	14103
)^{\	14100
##Rs	14100
ĠDrug	14099
ĠCome	14098
ĠBus	14098
Ġgolf	14096
##ili	14095
ĠSix	14094
ĠHart	14094
Ġadvised	14093
Ġmediated	14090
Ġconditional	14085
##cap	14083
Ġrepresentatives	14079
ĠÂł	14078
Ġtherein	14077
video	14072
}}=	14069
IM	14068
pgen	14066
wiki	14063
General	14060
##RL	14058
Ġshadow	14055
##ÃŃa	14053
bio	14049
Ġmodifications	14047
Ġduplicate	14044
ĠRh	14042
Ġrh	14037
ĠScotland	14036
##Dialog	14033
filename	14032
##worth	14032
Ġoutstanding	14031
af	14029
##cular	14028
134	14027
ĠRod	14027
STR	14026
Ġcopper	14021
ĠHotel	14021
Section	14020
Has	14020
Ġplots	14018
Ġphenomena	14018
LI	14017
##hat	14017
Ġtent	14017
##GP	14016
Ġton	14016
Ġremarkable	14014
ĠAE	14014
Ġmembranes	14013
graph	14012
ĠDD	14010
Ġlovely	14009
##ctor	14008
ĠKong	14005
ĠEt	14005
subst	14000
ĠDoc	14000
alt	13998
Ġcooperation	13998
ĠBMI	13998
##hel	13997
Ġmesh	13994
Ġ]{}	13994
settings	13992
ĠIrish	13988
Ġcoating	13987
##por	13985
Ġwarned	13985
Ġsentences	13985
Ġpurified	13984
arr	13983
ĠPU	13982
plan	13980
##rates	13980
Ġ------------------------------------------------	13978
##Ad	13977
ĠCommon	13977
Ġemotions	13976
Ġelectrodes	13976
ĠBT	13975
Ġconfigured	13974
Ġasp	13974
ĠJeff	13973
Ġinfant	13972
ĠCHECK	13971
Ġ06	13970
Sim	13969
book	13968
##ension	13968
ĠExt	13968
OH	13967
$).	13967
##Ne	13966
Request	13965
three	13964
Ġimpaired	13964
ĠAssert	13954
##inator	13953
Ġ350	13953
Ġtowns	13952
idx	13951
Ġcyclo	13950
Ġpaste	13949
Ġlucky	13948
ĠCommand	13944
ĠBull	13944
Ġnursing	13940
Ġactively	13938
ĠUkraine	13938
raw	13935
##">	13935
Ġtro	13935
>)	13932
enum	13929
*=	13929
,_	13926
Ġdebut	13925
Ġcop	13921
##rative	13915
Ġaf	13911
Ġsecretion	13910
##itz	13905
##iot	13904
Ġemerge	13897
##ãģ«	13896
Ġaccomplished	13895
##oms	13894
ĠAvenue	13894
Ġshipping	13892
Ġarrow	13891
ob	13890
Ġrelate	13890
Ġutil	13889
Ġrings	13889
##iment	13883
Ġlogo	13883
Ġpixels	13882
##aris	13872
Ġwider	13870
Ġdecent	13870
Ġorbital	13869
Ġencouraged	13866
##LP	13864
Ġslide	13864
Ġolive	13862
##Cap	13861
thread	13860
shaped	13859
##ike	13859
Debug	13858
Ġintestinal	13858
Ġdiscloses	13858
##System	13857
Ġmas	13857
_,	13856
Ġfilename	13856
ĠMom	13856
040	13855
Ġcorruption	13855
Ġshield	13854
------------------------------------------------------------------------	13852
Ġnest	13849
Ġinitiated	13849
Ġposting	13848
ĠManager	13846
Ġinfants	13845
Ġproxy	13844
##sim	13843
čĊĠĠĠĠĠĠĠĠĠĠĠĠĠĠĠĠĠĠĠ	13843
ĠJay	13842
Ġrelies	13840
Ġmutual	13840
##fish	13838
ĠFuture	13838
ĠATP	13838
##but	13837
Ġdisaster	13835
ĠTRA	13835
ĠSab	13832
models	13831
##aking	13830
##Pos	13829
Ġprivilege	13828
rank	13825
ĠStep	13825
Dem	13822
Ġreasoning	13817
##aration	13816
Ġrib	13816
ĠResponse	13816
il	13815
Ġfiring	13814
req	13813
Ġovers	13811
Ġcircles	13811
Ġsecretary	13809
Ġpositively	13808
Ġgenerations	13808
ĠPop	13808
##PD	13807
Ġmerge	13807
##iest	13804
##UTE	13802
Ġbirthday	13802
ĠSau	13801
Back	13800
Ġfunctioning	13797
ĠCollection	13797
Ġstops	13793
theme	13790
Ġlaugh	13790
##angle	13788
Ġexplored	13786
__(	13783
##isp	13783
ĠEgypt	13782
##ories	13779
HR	13776
displaystyle	13775
Ġgraft	13775
Ġdominated	13775
ĊĠĠĠĠĠĠĠĠĠĠĠĠĠĠĠĠĠĠĠĠĠĠĠĠĠĠĠĠĠĠĠĠĠĠĠĠĠĠĠ	13773
##icit	13772
Ġstudio	13767
Ġscratch	13764
price	13762
ĠLabor	13762
ĠÐ¸	13761
Ġelastic	13761
##IST	13760
Ġimportantly	13760
ĠWal	13759
ĠĊĠĠĠĠĠĠĠĠĠĠĠ	13758
âĢĿ)	13757
cases	13756
##ĠĠĠĠĠĠĠĠĠ	13756
##ston	13754
##craft	13753
##eral	13752
Ġlands	13752
Ġimpose	13752
Ġmus	13746
##opy	13744
Ġshame	13742
Ġanalog	13742
Ġchill	13740
Ġpermits	13739
Message	13737
##ln	13737
ĠNic	13736
Ġsocket	13735
Ġcure	13735
ĠKel	13730
ĠGovernor	13730
ĠBBC	13730
TM	13729
)*-	13728
##ending	13728
à¤¾	13727
Ġbathroom	13727
##icular	13722
Ġbrothers	13721
^*$	13719
ĠCle	13719
ĠMaryland	13717
Ġinstitutional	13716
##cription	13715
Ġattacked	13715
Method	13713
##ulator	13712
##ql	13712
Ġfirms	13710
pmatrix	13708
Ġpas	13707
selected	13706
Ġ182	13706
âĢĻ,	13705
Ġslope	13704
LICENSE	13702
Ġcontinuously	13700
Ġgains	13699
Ġethical	13694
Ġlesion	13692
Ġupcoming	13691
Direct	13689
card	13684
ĠSummer	13684
Ġai	13683
Ġconflicts	13678
Ġdownstream	13677
ĠTs	13673
ĠNavy	13672
Ġquoted	13671
abstract	13670
\)	13670
ĊĠĠĠĠĠĠĠĠĠĠĠĠĠĠĠĠĠĠĠĠĠĠĠĠĠ	13666
Ġprofits	13665
ĊĠĠĠĠĠĠĠĠĠĠĠĠĠĠĠĠĠĠĠĠ	13663
Ġconvinced	13662
Ġ139	13662
##IV	13661
ĠNothing	13659
mut	13656
##MT	13656
ĠClick	13653
Ġexpertise	13652
Ġ1979	13650
##HS	13648
Ġmayor	13648
Ġinst	13646
wave	13645
Ġmol	13645
bind	13643
five	13642
Ġtooth	13642
ĠGun	13642
##*/	13641
Ġlogin	13640
##Session	13638
##ÐµÐ	13637
ĠĊĠĠĠĠĠĠĠĠĠĠĠĠĠĠĠĠ	13636
Ġvalidate	13634
ĠLeft	13634
##IB	13630
println	13627
Edit	13624
:=	13620
Ġouts	13620
Each	13619
Ġretained	13619
Abstract	13618
##Ã¨	13617
##olar	13617
Ġdatasets	13617
ĠComm	13616
stage	13614
Ġwebsites	13612
Ġfluctuations	13610
Au	13609
Ġbags	13606
ĠOregon	13606
ter	13605
admin	13603
)})	13602
Ġreject	13601
Ġfeatured	13600
Ġscanning	13598
ĠHaving	13597
Ġcausal	13595
limit	13593
##Helper	13593
Ġgraduate	13592
##pack	13590
Ġrelied	13590
Ġbell	13590
##DR	13588
ĠBowl	13588
FL	13585
##pal	13585
Ġethanol	13584
Ġburning	13584
ĠĠĠĠĠĠĠĠĠĠĠĠĠĠĠĠĠĠĠĠĠĠĠĠĠĠĠĠĠĠĠĠĠĠĠĠĠĠĠ	13583
##Def	13582
ur	13581
Ġbackup	13579
Ġediting	13576
Ġguaranteed	13571
place	13570
##igh	13569
Ġns	13569
Ġordering	13568
ĠFP	13568
189	13567
Ġtit	13564
Miss	13563
ĠOil	13563
Ġdrives	13561
##uh	13560
##olution	13560
##BER	13558
Ġsocio	13556
Ġdevelopmental	13555
Ġ181	13555
##FP	13554
##ester	13552
WE	13551
mol	13550
1986	13549
Ġ....	13549
Ġinhibit	13547
Ġcontemporary	13547
Ġtopological	13544
war	13543
eb	13542
Ġgathered	13538
ĠPrince	13538
Ġterrorist	13534
##ãĤĴ	13533
Ġspell	13533
ĠTru	13533
Ġconsistency	13532
Ġelite	13531
ĠGuide	13531
Ġindicator	13530
Ġstimuli	13529
Ġcytokines	13528
account	13527
Ġ\*	13527
ĠHong	13526
Ġts	13525
Application	13524
Ġchromosome	13522
##fy	13520
ĠAnt	13519
ĠĠĠĠĠĠĠĠĠĠĠĠĠĠĠĠĠĠĠĠĠĠĠĠĠĠĠĠĠĠĠĠĠĠĠĠĠ	13517
Ġincubation	13515
linux	13514
Ġtobacco	13514
ĠBou	13514
##uing	13511
ĠRab	13511
##áº	13508
Net	13505
ĠTem	13505
Group	13502
Ġmodulation	13501
Ġaccounting	13500
1989	13499
Ġcave	13497
##lish	13495
Ġsyntax	13495
Ġri	13495
ĠOd	13495
Ġaffinity	13494
EP	13493
##def	13492
Ġwriters	13486
Ġrental	13486
ĠRoss	13486
Ġfate	13483
Ġproto	13481
Ġexpectation	13477
##sci	13476
fire	13475
Ġdeposit	13475
Ġreaches	13471
Ġmacrophages	13471
Ġcake	13470
ĠFan	13469
Ġought	13468
ĠLac	13467
Ġgru	13466
Ġclothing	13464
##Entity	13463
##ales	13462
Ġfort	13462
Ġmanifold	13461
Ġinnocent	13460
ĠKIND	13458
ĠFunction	13458
ĠEnc	13456
Ġoz	13453
LD	13451
Ġconsisted	13451
043	13449
ĠLevel	13446
##CD	13445
Ġlacking	13445
Ġsolvent	13441
Ġtermination	13438
mask	13436
Ġentertainment	13436
ĠClark	13436
switch	13434
ĠExecutive	13432
ĠHarry	13431
ĠBox	13431
Ġunexpected	13429
##igation	13427
##ext	13423
custom	13419
##Menu	13419
ĠSmall	13418
Ġgenerates	13411
Cell	13409
Ġstruggling	13409
Ġsanctions	13409
FC	13406
Ġtrailer	13406
stre	13402
Ġstaying	13402
Ġoccupation	13401
##uto	13399
metadata	13398
Ġcarb	13397
##Order	13396
lb	13395
##Top	13392
##ÐµÑĢ	13390
ĠRelated	13390
Given	13387
ĠHat	13383
##fold	13382
Ġdebug	13382
Sk	13380
##http	13379
Ġretired	13379
##à	13378
##UB	13375
arm	13374
Ġmedications	13374
.",	13373
Ġpredictive	13373
schema	13372
Ġsubstances	13371
Ġtackle	13369
Ġ'/	13368
Ġdiss	13367
ten	13366
Ġdump	13363
ĠEditor	13363
ĠDefault	13363
Ah	13361
##Expression	13361
Ġcarries	13361
ĠMuslims	13360
##rist	13359
Ġcorrected	13359
ĠScientific	13359
ĠHillary	13359
Ġdear	13358
##inity	13356
Ġenormous	13354
Ġproc	13353
ĠSelect	13353
##oro	13352
Will	13346
##come	13346
##[\	13345
##nam	13344
Ġbeg	13344
ĠReturn	13344
react	13342
Ġservers	13341
days	13339
mass	13338
ĠLas	13337
ĠCredit	13332
Ġcann	13330
ĠUbuntu	13329
##itu	13325
Ġreplacing	13325
##aga	13321
Ġpt	13320
Ġdistant	13319
##ĠĠĠĠĠĠĠĠĠĠĠĠ	13318
Round	13316
Ġderive	13315
Ġplacebo	13314
ĠFive	13314
##ilo	13313
Ġolig	13308
fit	13307
Ġfragments	13302
ĠHen	13302
Ġcollision	13301
seq	13297
Ġspinal	13292
demo	13291
##rome	13290
ĠWS	13290
Ġconscious	13286
Ġdreams	13285
ĠDy	13284
##æĺ¯	13283
##imated	13283
Ġreporters	13283
xff	13282
ĠTal	13282
##iza	13279
ĠSY	13279
##utt	13278
ĠHollywood	13278
##ytic	13276
Ġ1977	13276
Work	13274
##El	13270
ĠAz	13270
##New	13266
##Collection	13265
ĠÐº	13264
Ġentropy	13264
Ġroutes	13260
exec	13259
ĠThor	13258
Ġpainful	13257
Ġexceptions	13255
ĠSus	13255
##Changed	13254
##ç»	13251
Ala	13248
ĠSimon	13245
##Handle	13244
Ġcontributing	13244
containing	13243
Ġscenarios	13243
ĠĠĠĠĠĠĠĠĠĠĠĠĠĠĠĠĠĠĠĠĠĠĠĠĠĠĠĠĠĠĠĠĠĠĠĠ	13243
Ġhind	13238
ĠMiami	13238
##aid	13237
Ġsys	13237
##run	13236
Ġinitiative	13234
##ACK	13233
ĠLanguage	13233
##frame	13232
##Widget	13231
Ġchlor	13229
Ġgastric	13227
825	13226
Ġshifts	13224
Ġnie	13216
142	13215
Ġships	13215
##Mod	13214
Ġ179	13213
##for	13212
gif	13208
ĠAlabama	13206
##aining	13205
ĠâĢ	13205
Ġesp	13204
ĠARE	13200
Ġburst	13198
ĠPhiladelphia	13197
ĠVideo	13196
Ġschemes	13194
Ġcompiler	13193
Ġsweat	13192
ĠPs	13191
##Operation	13190
Ġhip	13189
Ġstraightforward	13188
165	13187
Ġinhibitory	13185
185	13184
Ġdr	13184
ĠSimilar	13184
Ġtendency	13183
Ġ240	13183
Ġsto	13182
146	13181
##lex	13180
Ġpossibilities	13178
ĠDur	13176
Ġguilt	13175
Ġfetch	13175
Ġpig	13174
##lass	13170
Ġbroader	13170
Mc	13168
Ġ(<	13168
ĠDim	13167
ĠDIS	13167
Ġhired	13166
Ġfri	13164
Ġlicensed	13163
Microsoft	13162
##idence	13162
ĠAle	13162
Ġ220	13162
Chi	13161
Ġprefix	13160
ĠOklahoma	13160
Ġpoorly	13159
##mber	13155
Ġ$${\	13155
inflammatory	13154
181	13154
ĠMusic	13153
##iac	13150
Ġcharacterize	13150
Context	13147
Ġbegun	13147
Ġallele	13147
##ums	13146
##ache	13146
ĠJun	13146
ĠCells	13146
risk	13145
Ġpresenting	13145
Ġmarch	13144
standard	13140
Ġapi	13140
Ġdeck	13139
Ġ155	13139
Ġneighbors	13138
Ġ1978	13138
Att	13137
Ġfitted	13136
Ġdetecting	13135
EF	13133
ĠCAR	13132
##&\	13130
Ġhire	13129
##fect	13128
ĠLLC	13126
Ġspokesman	13125
Ġlawyers	13125
ĠROS	13125
Ġencountered	13123
Ġ142	13123
des	13122
Ġste	13120
Ġchairman	13119
ĠAuthor	13119
Ġkg	13113
187	13111
##lated	13108
Ġmile	13108
Ġcyt	13108
ĠConn	13108
##001	13107
Ġnoting	13107
Ġdict	13106
ĠStock	13106
PRE	13102
Ġinvest	13101
ĠEdward	13101
ĠCSS	13101
0008	13100
Ġneuronal	13099
##BL	13098
present	13097
Ġchemo	13093
##ulsion	13092
Ġcurvature	13089
ĠCamp	13087
##othe	13086
Ġwanting	13086
Ġequity	13085
Ġanalysed	13085
Ġinvasive	13084
<\	13082
##acle	13080
ĠINC	13080
Ġ151	13080
Try	13079
Ġinconsistent	13078
ĠOverall	13077
rich	13076
Av	13076
##prop	13076
Ġindividually	13076
Ġmanagers	13075
##iba	13074
Ġscar	13074
Ġsphere	13073
ĠTur	13073
Ġ157	13071
Ġfishing	13070
Ġaligned	13070
ĠJavaScript	13070
Ġhack	13069
Ġdiagonal	13065
Ġamid	13065
Ġoccupied	13064
NE	13062
##}{	13062
##uted	13062
results	13060
Ġmeals	13059
138	13058
##raph	13056
Ġrack	13056
ĠFun	13056
050	13055
##ĊĠĠĠ	13054
##zh	13051
##wards	13047
Ġdiscipline	13047
Rel	13046
Multi	13043
Ġinterfere	13039
,[	13038
Ġstolen	13038
##mont	13035
##ãģ§	13033
ĠJP	13033
ĠForest	13033
Ġassociate	13029
Ġraises	13028
Ġhearts	13026
Exp	13025
kind	13024
##SM	13023
~-	13022
ĊĠĠĠĠĠĠĠĠĠĠĠĠĠĠĠĠĠĠĠĠĠĠĠĠĠĠĠĠĠĠĠĠĠĠĠĠĠĠĠĠĠĠĠĠĠĠĠĠĠĠĠĠĠĠĠĠĠĠĠĠĠĠĠĠ	13022
ĠStudent	13021
Ġchemicals	13020
ĠNight	13020
Ġexcuse	13019
CODE	13018
Appellant	13018
made	13017
Ġundefined	13017
450	13016
Ġdelicious	13015
Ġdont	13014
ĠDiego	13014
Ġcro	13013
ĠChannel	13013
xb	13009
would	13008
track	13008
appe	13008
Ġcelebrate	13007
Ġworship	13005
Ġgenotype	13003
Ġdistribute	13003
Ġic	12997
##tk	12996
Ġvirtue	12995
Ġaffairs	12995
hs	12994
large	12992
Ġspecimens	12992
Ġhomogeneous	12992
##bus	12990
##more	12988
ĠSTR	12986
Ġ143	12985
ĠCapital	12983
ĠAh	12982
Ġidentifier	12977
0020	12974
pred	12973
ĠLabour	12973
VF	12972
Ġfever	12972
Ġalien	12972
Ġsurrounded	12971
Ġtmp	12970
Ġlegislature	12970
Ġallocation	12970
ĠMarine	12970
Ġpositioned	12969
152	12968
Property	12966
Ġoperational	12966
ĠMaria	12966
grid	12965
Ġurine	12964
ĠSeattle	12964
##erb	12962
##oting	12960
Ġlocalized	12960
Ġformulation	12960
Ġcitizen	12960
ĠÂ«	12959
ĠDU	12959
##sky	12958
##VM	12957
##Param	12957
Ġaddressing	12957
ĠMotion	12957
ĠBureau	12957
ĠHeart	12954
Ġshapes	12953
##ason	12951
Ġhandled	12950
##We	12948
Ġcheer	12948
sig	12946
##oring	12945
##fire	12944
ĠUs	12944
ĠDF	12944
Ġ175	12943
)}{\	12942
##ores	12942
Ġarises	12938
Ġcomme	12937
Med	12935
Bur	12935
##ÙĨ	12934
Ġ-------------	12934
##Cont	12933
Ġbail	12933
expl	12932
Ġcompile	12932
Ġ210	12932
Node	12930
##ional	12930
Ġdrag	12929
Ġprostate	12928
Ġnegotiations	12928
spin	12926
ĠRick	12926
Ġ204	12926
ĠDun	12925
Ġexclude	12924
ĠFootball	12924
direct	12921
##tein	12920
##ONE	12920
Ġbump	12920
Ġbeings	12917
ĠMoon	12916
Ġslice	12914
Ġur	12913
ĠJon	12911
springframework	12909
##Ã£o	12909
sex	12907
##isc	12905
Ins	12903
try	12901
##uma	12897
##ely	12894
ĠInvention	12892
##ronic	12891
Ġgrants	12891
ĠTher	12891
enable	12889
God	12889
>"	12889
Ġlets	12888
Exception	12886
##inating	12885
188	12883
ĠVisual	12882
ĠStone	12882
##Ms	12881
Const	12880
Ġ,\	12880
users	12879
Ġfro	12879
Ġmel	12878
ly	12876
Ġconvenience	12876
Based	12875
ĠEss	12874
ĠNH	12873
Ġcorporations	12871
ups	12869
prefix	12869
ĠEuro	12868
##info	12865
Ġsupers	12865
10000	12864
ĠForeign	12863
uri	12862
##etric	12862
Ġverified	12862
Ġ?>	12861
Ġcow	12860
blog	12859
Doc	12853
ĠHT	12853
##çĶ¨	12852
##ains	12851
753	12850
##ground	12847
Ġorgans	12841
ĠDoctor	12841
##orb	12840
##cale	12840
Ġintensive	12840
utf	12838
Ġonc	12837
Ġ360	12836
Ġdesk	12835
1985	12833
##MD	12830
##emp	12829
EL	12827
Point	12826
Ġrolling	12826
Ġconsiderations	12826
ĠĠĠĊĠ	12825
##inar	12823
Ġthromb	12819
##ivation	12818
tc	12817
##ardi	12814
ĠTreatment	12814
minute	12813
Ġclubs	12812
Ġhighlighted	12811
1984	12810
Ġdig	12808
##aca	12807
âĢ©	12803
137	12803
Ġcrypto	12802
Ġcarriers	12801
bro	12796
Ġpie	12796
ĠDal	12795
Sur	12794
Ġsheets	12794
Ġlips	12794
Ġann	12794
Ġdrill	12793
Ġrestrict	12791
Ġ%>	12791
Ġtransmit	12790
Ġcurl	12790
iv	12789
##Pa	12789
Ġtransplant	12784
Ġredirect	12783
##AIN	12781
Ġfn	12781
mapsto	12780
ĠVM	12780
ĠAna	12777
##ips	12775
con	12774
##lig	12774
##vet	12773
ĠÎ¼m	12773
ĠBlock	12772
##MB	12769
wait	12768
Ġoccasionally	12768
Ġhub	12767
Ġinsights	12766
Star	12765
ĠEv	12765
sur	12762
Ġsimulated	12762
Ġkiss	12762
##TL	12761
Ġpunch	12759
##ARD	12758
Ġimplements	12758
Ġexpanding	12758
Ġengaging	12756
##GO	12755
eval	12754
##Adapter	12754
Ġlumin	12753
Ġsuggestion	12751
Ġbarriers	12749
ĠÎ¼M	12748
Ġquadr	12748
court	12747
ĠEG	12746
Ġflexibility	12745
ĠFactor	12745
))/	12743
##==	12743
flow	12742
##BP	12741
čĊĠĠĠĠĠĠĠĠĠĠĠĠĠĠĠĠĠĠĠĠĠĠĠ	12740
Xi	12739
ĠSelf	12739
Ġprescription	12738
ĠCurrent	12738
Ġ153	12738
##AK	12734
Ġyours	12734
Ġenvelope	12734
Ġ165	12734
026	12732
prec	12729
202	12729
171	12729
##ogenesis	12729
Ġradi	12728
Ġneedle	12728
Ġapproached	12728
##anth	12727
Long	12726
Ġcf	12726
##Process	12723
Ġquant	12723
Ġdistricts	12723
Ġbreathing	12723
##inct	12720
jp	12719
ĠHelp	12719
Ġ"%	12719
Ġtrap	12716
Ġremarks	12715
151	12711
##RF	12708
Ġremedy	12706
ĠĠĠĠĠĠĠĠĠĠĠĠĠĠĠĠĠĠĠĠĠĠĠĠĠĠĠĠĠĠĠĠĠĠĠĠĠĠ	12706
##ÙĦ	12705
Ġtitles	12705
ppat	12704
Ġmonitored	12704
ĠBD	12703
(!	12700
Ġaccommodate	12700
ĠWord	12699
##amin	12698
Ġatt	12698
ĠDad	12698
ĠNav	12697
ĠExpression	12695
Va	12694
Ġvolumes	12693
Ġangles	12693
Ġdishes	12691
ĠJane	12691
asp	12690
Ġincredibly	12687
Ġvolunteers	12686
Ġ-----------	12683
##ament	12681
Ġdeleted	12679
ĠCorn	12678
Ġinference	12672
Ġimpacts	12672
Input	12669
Ġdiscount	12668
##text	12666
Ġfoo	12666
##He	12665
Ġ1975	12664
Ġke	12663
Run	12662
##sec	12662
Ġarrays	12662
gc	12661
##ĠĠĠĠĠĠĠĠĠĠ	12658
Ġsleeping	12656
Ġcoin	12656
general	12654
Ġtongue	12653
Ġfin	12653
cong	12652
Ġterror	12652
1988	12651
ĠMot	12649
##DNA	12646
Ġrect	12646
ĠVir	12646
Ġconform	12645
Ġsolving	12642
##iting	12640
##cz	12640
Ġconversations	12639
##DM	12638
SEC	12637
ĠOnline	12637
ĠÃħ	12636
ĠOxford	12636
ĠDL	12636
1987	12631
Ġty	12631
Ġteaspoon	12629
Ġencoded	12629
Ġdisposed	12629
ĠDet	12629
properties	12627
Ġdeclaration	12627
Ġabandoned	12626
Ġmandatory	12625
Ġdying	12624
Ġgarlic	12620
Ġ141	12617
##zen	12616
ĠReference	12614
ĠĠĠĠĠĠĠĠĠĠĠĠĠĠĠĠĠĠĠĠĠĠĠĠĠĠĠĠĠĠĠĠĠĠĠĠĠĠĠĠĠ	12613
##iring	12612
less	12610
Ġeff	12610
Ġimply	12609
ĠWO	12609
946	12608
Ġjoke	12608
care	12606
Ġextracts	12604
Ġtranslate	12601
Ġcomm	12601
Ġpurely	12598
Ġlemma	12598
##bury	12597
Ġsuppressed	12597
Ġfounder	12597
network	12596
Ġbalanced	12594
##Os	12593
Ġupgrade	12593
cut	12591
ĠEB	12591
bs	12588
}}^{\	12587
##./	12587
##KA	12586
##ESS	12586
Ġspoken	12586
Ġ178	12586
PER	12583
Ġadhesion	12583
feed	12580
##SL	12580
ĠDisney	12580
ĠThrough	12579
Ġox	12578
Ġligand	12578
ĠĠĊĠĠĠ	12578
ĠRan	12577
sr	12576
Ġlemon	12568
Ġov	12567
âĢĭ	12565
don	12565
Ġpension	12565
)&	12564
Ġhitting	12562
ĠEver	12560
ĠIde	12555
Ġapproximate	12551
Ġproceeds	12550
ĠMissouri	12549
##rf	12548
##rick	12546
half	12545
Ġdisplacement	12544
##Ø±	12542
##oking	12542
Ġsteal	12540
ĠWhit	12540
##ÃĦ	12537
ÃĲÂµ	12536
Ġinnovation	12531
Ġfocuses	12531
##ĉĉ	12529
Ġaccordingly	12529
ĠRow	12529
Ġcontroversy	12528
Ġconcur	12528
Ġsixth	12527
ĠTheory	12527
Ġpleased	12523
Ġpromoted	12522
ĠLam	12520
Ġpulling	12519
Ġalk	12519
Ġ700	12519
Ġbp	12516
FB	12514
West	12513
Ġtransitions	12513
Core	12512
ĠSurvey	12509
##Ð¿	12507
Ġconsiderably	12507
Ġarguing	12507
Ġ146	12507
ĠNBA	12504
##oop	12502
shared	12501
returns	12501
\|_{	12500
##md	12500
Ġnarrative	12500
Ġdozen	12500
##vy	12499
*\<	12497
##ches	12495
ĠWithin	12494
ĠMRI	12492
##ayer	12491
##ared	12490
##Tool	12490
##wall	12489
Ġexplaining	12489
Ġcalendar	12489
##onst	12488
Ġexhibits	12488
quality	12487
Ġspark	12487
##âĢľ	12486
##Ð¾Ð²	12486
Ġtranscripts	12481
(:	12480
Ġautomobile	12480
Ġ152	12480
Ġemit	12478
Ġindirect	12477
Ġintact	12476
Ġmorphology	12475
Ġconfirmation	12474
ĠTG	12473
ĠWolf	12472
Ġopera	12471
ĠâĢĭ	12469
##Local	12467
`.	12460
ing	12459
Ġmobility	12458
Ġanonymous	12456
ĠSite	12456
Ġchol	12453
##gie	12452
##Flags	12452
ĠSquare	12451
##Bytes	12448
Ġbrew	12448
##ogram	12443
154	12442
##");	12440
Ġcompromise	12435
ĠFrancis	12435
Ġ"-	12434
##^\	12433
Ġvolunteer	12433
##Ð½Ð¾	12432
##emo	12431
350	12430
##aly	12430
212	12428
##aha	12427
##ERS	12424
Ġgamma	12423
##obi	12422
ĠFat	12422
Ġmanufacture	12420
ĠMont	12420
Author	12419
Ġadoption	12419
ĠIg	12419
Ġties	12418
Component	12417
ĠExc	12417
iterator	12416
##Application	12416
without	12414
031	12414
##Enabled	12414
Ġasserted	12414
})^{	12412
band	12412
="../	12412
Ġ1976	12411
ke	12409
##osomes	12409
Im	12408
Ġconducting	12408
Ġplacing	12407
Ġevaluating	12405
ĠGolden	12405
}),	12404
##Left	12402
Ġreviewing	12399
Ġballs	12397
Ġreserve	12396
##plot	12393
Ġtransl	12392
Ġhanging	12392
ĠHold	12392
bn	12390
##onc	12390
Super	12389
Mag	12389
ĠâĢĻ	12389
Ġphones	12387
156	12383
driver	12382
ĠGy	12382
##ä¸	12381
Ġenemies	12381
##aba	12378
Ġmount	12377
##ressive	12374
^{*}	12371
Ġsubsection	12371
Ġreportedly	12370
Ġcannabis	12369
;"	12368
Ġrelaxation	12361
Ġrecruitment	12361
Ġ256	12361
ĠArg	12360
MT	12359
)</	12359
"],	12359
Ġchips	12357
ax	12355
##olog	12353
##iso	12353
Ġlegally	12350
Cont	12348
##Ã¡Âº	12347
Ġprayer	12346
ĠYouTube	12346
ĠRapids	12343
##Port	12342
Ġimplementing	12342
Ġofficially	12339
##Reg	12338
Ġschema	12336
##HR	12335
Ġpink	12335
Ġens	12333
TS	12332
##bach	12331
Ġblockchain	12331
Ġward	12330
##nl	12329
exception	12327
##istence	12327
({{\	12326
XF	12324
##Grid	12321
Ġquarterback	12321
Ġhormone	12321
Gal	12320
Ġbare	12320
Show	12316
cert	12314
##apa	12314
Ġcounting	12314
Ġsustainable	12313
ĠMY	12311
Ġoutdoor	12309
Ġvaries	12307
##GB	12304
##Fe	12301
##vc	12300
Ġthrew	12300
xd	12299
Ġasync	12299
GE	12298
Filter	12296
##sf	12293
Ġriding	12293
brief	12292
bre	12292
##rous	12291
##ophil	12290
##Ã§	12289
##ige	12287
tools	12285
ĠRelease	12283
ĠQue	12283
}}})	12282
Ġoutl	12282
ĠNotice	12281
BI	12280
##dt	12280
ĠRemove	12280
Ġintim	12279
##asa	12277
##aling	12277
##dog	12274
distance	12273
,âĢĻ	12273
ĠMagn	12273
share	12272
Inst	12271
}$)	12270
ĠWars	12270
Ġram	12267
ĠBUT	12266
##Util	12264
##Font	12264
ĠAlexander	12264
##ortion	12263
Ġconstitutes	12262
Ġ------	12262
ĠNL	12259
Those	12256
Ġana	12256
handler	12255
ĠRequest	12254
##mus	12253
Page	12252
Ġtraveling	12251
ĠDallas	12250
Ġ149	12249
integer	12245
had	12245
ĠBU	12245
230	12243
##RES	12243
Ġclaimant	12241
Ġmethodology	12239
ĠExtra	12239
##Over	12238
Ġpollution	12238
##how	12237
Ġpref	12237
ĠDouble	12235
Ġlig	12234
ĠLater	12233
Ġcatheter	12232
ji	12231
##One	12231
Ġbuilder	12230
##eto	12226
##erson	12226
##roy	12225
Ġmetastasis	12223
ĠVar	12222
ĠOT	12222
Ġprobation	12220
Ġdenoted	12219
ĠSure	12219
Ġshifted	12215
ĠPalestinian	12213
Ġnuclei	12212
Ġlessons	12212
Ġlengths	12212
Ġappellate	12212
ĠTarget	12211
Det	12210
Ġtears	12209
ĠCOURT	12209
=[	12205
##uy	12204
##Match	12204
Def	12202
Ġdest	12200
Ġextracellular	12199
ĠMAR	12199
##rill	12197
Ġventure	12197
anal	12194
Ġlesser	12193
Ġadj	12192
ĠFinancial	12190
bullet	12189
Ġbiology	12189
expected	12187
##here	12187
ĠProcedure	12186
##UG	12183
Ġcups	12183
Ġpose	12179
Ġinnovative	12179
##kers	12178
Ġappearing	12178
screen	12175
Ġreproduce	12171
##osit	12170
Ġsusceptibility	12170
Ġraces	12170
Ġwages	12168
##ires	12166
Ġsubstrates	12166
Ġcurious	12166
ĠSG	12165
Ġcit	12164
##Sl	12163
Ġdrops	12163
cn	12161
##ually	12159
Ġwithdrawal	12158
Ġpole	12157
##Ãº	12155
=".	12154
##Ñ	12154
Ġimmigrants	12154
ï¼ļ	12153
ĠWu	12153
factor	12151
Ġwheat	12151
##rans	12150
Ġgather	12150
Ġbasal	12150
ĠUpon	12150
ĠWould	12149
Ġviable	12146
speed	12144
Ġconfigurations	12144
Ġspeaker	12143
Ġdispens	12141
Ġpra	12140
ĠPsych	12140
ĠGall	12140
0006	12138
Ġrally	12138
Ġobjectives	12138
Ġorganisms	12137
execute	12136
Ġ****	12135
Ġdf	12134
}$-	12133
Ġstepped	12131
Ġcaptain	12129
Ġoxidation	12128
Ġdro	12128
Ġmerits	12127
##vers	12126
)/((-	12125
Ġmot	12122
ĠRules	12121
Ġcone	12119
ĠTony	12118
âĦ¢	12117
Ġdiscussing	12117
Only	12116
##edo	12116
Ġsubtle	12115
ĠAy	12115
##Åį	12114
##ART	12114
Ġabilities	12114
##Writer	12112
Ġdramatically	12112
ĠTennessee	12112
##eria	12111
Ġinfluenza	12111
Service	12110
>()	12110
ĠMother	12110
Ġasserts	12109
ĠSingapore	12109
Ġfallen	12108
ĠTag	12108
ĠOk	12108
Ġmanipulation	12105
delim	12102
DL	12102
ĠCulture	12102
##cht	12101
Ġvacation	12101
BS	12099
ĠBerlin	12099
(.	12098
ĠNG	12098
##Body	12097
Ġtransverse	12097
Ġinvestigators	12096
Ġcatalog	12096
Ġdevelopments	12095
lower	12094
Ġcharging	12094
Ġ---------	12094
Ġproducer	12093
Math	12092
ĠShort	12092
024	12091
Ġhighlights	12091
##zan	12089
##rea	12088
ĠrÃ©	12088
##hol	12086
##Ã¡n	12085
Ġrobbery	12085
##Ag	12083
cost	12080
ĠWalker	12079
sign	12078
Ġsalad	12077
both	12072
Ġsustain	12072
Ġly	12070
identifier	12069
ĠBeck	12068
human	12066
Ġsingular	12066
Ġwisdom	12064
##Web	12063
##ULT	12063
Ġprompt	12063
Ġnecessity	12063
ĠRD	12063
depth	12062
apply	12061
Ġprize	12061
161	12060
uns	12058
186	12058
expression	12057
ĠSK	12056
mark	12055
ĠMorgan	12053
inline	12052
Ġapt	12052
twitter	12051
Ġdialogue	12051
Ġ----------	12051
equals	12049
Ġfluorescent	12049
Ġalternate	12049
Ġ--------------	12048
Ġconvex	12047
##âĢĵ	12046
##å®	12045
ĠLeg	12045
Ġoperates	12044
.[]{	12042
Ġexcitation	12041
ĠUA	12041
ĠProtection	12041
Î³	12039
Ġzip	12037
Http	12035
Ġattending	12035
ĠPas	12035
ĠPURPOSE	12035
keys	12034
Ġnutrition	12033
Ġhumanity	12032
ĠSingle	12032
))*	12031
ĠKen	12031
single	12029
Prot	12029
Evaluate	12029
Ġassertion	12029
ĠCut	12029
ĠHunt	12028
Ġads	12027
pg	12025
EXT	12025
Ġgathering	12022
Ġcredibility	12022
Ġmodest	12017
Ġdefence	12017
suppl	12015
##Args	12014
Ġfreely	12014
ĠDifferent	12013
ĊĠĠĠĠĠĠĠĠĠĠĠĠĠĠĠĠĠĠ	12012
Ġprevents	12011
Ġsafely	12010
Ġlighting	12010
Ġinvoke	12009
##Ã©m	12007
Ġpacked	12007
though	12006
##(-	12005
##Fs	12004
ĠMcK	12004
Ġ154	12004
##imp	12002
Âµ	11999
ĠCav	11998
original	11996
mov	11995
Ġnut	11995
Ġincorrect	11995
ĠDark	11993
##cribe	11990
Ġstopping	11990
Ġprojected	11990
ĠWorks	11990
Ġaffordable	11988
##osite	11987
##kg	11987
Ġpassive	11984
Ġfucking	11982
ĠLang	11982
Ġtriggered	11980
$;	11979
Ġineffective	11979
Ġalterations	11979
ĠMexican	11979
139	11976
Ġdonors	11975
Ġmeth	11972
Fri	11971
Ġhanded	11971
Ġ171	11969
##aya	11968
Ġhorror	11968
hidden	11966
Ġwr	11966
Ġbud	11965
enc	11964
Ġunity	11964
Ġë	11963
Ġpromises	11961
148	11960
'-	11958
exper	11957
Ġrobot	11955
Ġarbitration	11955
Ġremand	11953
Ġcatalyst	11953
Ġbow	11953
Ġutilize	11952
ĠVector	11952
Ġcri	11950
Ġgolden	11949
Ġ225	11949
Lin	11946
Client	11941
typedef	11939
##burn	11937
Ġconn	11937
ĠPremier	11937
Ġmeets	11936
success	11935
##asy	11935
Ġcombining	11934
Ġbother	11933
Ġjam	11931
GS	11930
157	11930
Ġamplification	11929
##-------	11928
##tage	11927
Ġren	11927
ĠIB	11927
Ġnurses	11926
Ġcameras	11926
ĠLock	11926
ĠChampionship	11925
ĠBuilding	11924
Ġroller	11923
##ool	11919
xsl	11916
##ention	11916
028	11915
Ġuno	11914
Ġinherent	11913
Ġretention	11912
ĠSarah	11912
=$	11911
ĠJason	11911
Ġathletes	11909
##opol	11908
ĠProtein	11907
##standing	11904
##rest	11904
##ife	11904
Ġdeficit	11904
ĠMeanwhile	11904
ĠOpt	11902
Ġom	11901
Ġconcert	11901
Ġbonus	11900
Ċĉĉĉĉĉĉĉ	11900
Ġinitiation	11899
##irect	11894
##USE	11894
##Rule	11894
Ġdensities	11894
Ġmetrics	11891
Ġswap	11887
Ġsubl	11886
ĠHay	11886
Ms	11884
ĠHoward	11884
ĠWHERE	11881
Ġbitter	11880
##æķ°	11878
##mail	11878
ĠAnna	11878
Ġrival	11876
:</	11875
##was	11875
##ops	11874
Ġwrit	11874
Ġreass	11874
Ġoccasions	11874
Ġangi	11870
ĠBee	11869
Ġinvestments	11867
Ġartists	11867
Ġ[\	11866
ĠVice	11866
##pping	11865
##aming	11865
164	11863
041	11862
Ġfence	11862
ĠUSB	11862
ĠFront	11862
Mal	11860
Ġconsultation	11860
Ġclimb	11860
##è®	11859
##arian	11856
pur	11854
##IES	11854
##čĊ	11853
complete	11851
Ġ------------	11851
ĠAuthority	11849
##DP	11848
Ġprotests	11848
Ġinsist	11847
Ġgall	11847
}^*	11846
##ÃĹ	11846
Ġ177	11845
Â¤	11842
ĠConvention	11842
fat	11840
BD	11839
tan	11837
##mode	11836
##ptr	11835
ĠAddress	11835
Share	11832
Ġinspiration	11831
Ġdemocratic	11830
Fin	11829
/"	11826
Ġdivorce	11824
ĠInfo	11824
##===	11822
ĠMeg	11821
ĠAccount	11821
##jun	11820
Ġinsured	11820
Ġjudges	11819
iter	11818
##item	11814
ĠMount	11813
ĠEE	11813
##bor	11812
ĠStudio	11812
Ġ158	11812
Ġmistakes	11811
ĠÐ¾	11810
Ġfloating	11806
##Char	11805
HS	11804
ĠĠĠĠĠĠĠĠĠĠĠĠĠĠĠĠĠĠĠĠĠĠĠĠĠĠĠĠĠĠĠĠĠĠĠĠĠĠĠĠ	11803
Ã©	11801
Ġdatabases	11801
ĠMis	11800
184	11795
Ġcoil	11794
##uts	11791
SW	11790
ĠLicensed	11790
ĠExample	11789
library	11787
Size	11787
ĠFerr	11787
Men	11786
Ġmotivated	11786
Ġdir	11784
Ġensuring	11783
Ġdated	11781
nl	11780
##ried	11779
##like	11779
Ġpalm	11778
ĠFred	11777
xx	11775
Ġsav	11774
Ġbaking	11773
182	11772
##NP	11772
Ġdeparture	11772
##osity	11771
##olin	11771
ĠTex	11771
sem	11770
>;	11768
CG	11767
Ġsoup	11766
Ġfacial	11766
Ġboards	11766
ÃĲÂµÃĳ	11765
Âĩ	11765
_-	11765
Pen	11764
Ġactivists	11764
DF	11763
Ġdeployment	11763
Vis	11762
##oint	11760
Ġabundant	11758
most	11757
Path	11757
Ġearnings	11757
ĠInteger	11753
Ġreactive	11751
Ġ156	11750
FONT	11749
virtual	11748
Ġpremises	11747
1980	11746
##uj	11745
Ġ\}	11745
Ġwithdraw	11744
Ġlag	11744
Ġamongst	11744
ĠArabia	11739
coll	11738
ĠMart	11738
ĠCaptain	11738
##ief	11737
##not	11736
##Icon	11736
ĠDick	11736
##aut	11735
Ġduct	11735
ĠNK	11735
##ML	11734
Ġds	11734
162	11733
##å¤	11733
Ġthrowing	11733
Ġaz	11731
ĠKin	11729
Ġdisadvantage	11728
Ġui	11727
Ġdowntown	11727
ĠSenator	11727
Ġprognosis	11726
##Mon	11725
ĠVery	11725
##eter	11724
very	11723
Arg	11718
Ġcats	11718
Ġtherapies	11715
##Can	11714
Ġshops	11714
Ġrot	11712
Ġattr	11712
##ibi	11711
##asse	11710
##org	11709
ĠAw	11706
Ġlos	11703
ĠDN	11701
ĠMut	11700
Ġ205	11699
lat	11696
Ġ"",	11696
Ġarr	11695
Ġgrey	11694
##*^	11693
Output	11692
##rem	11692
##ieve	11692
Ġindustries	11690
AND	11689
##hydro	11688
Ġscrew	11688
ĠMayor	11688
Ġ148	11687
##EST	11684
Ġsnap	11684
Ġintercept	11684
Ġrepository	11683
ĠKnow	11683
ĠTurn	11682
ĠAbs	11682
ĠMountain	11681
ĠElizabeth	11681
Action	11680
##word	11679
ĠIranian	11679
ĠCruz	11676
##vs	11675
Ġrefuse	11675
Ġlac	11675
Ġjustified	11674
HP	11673
Ġchopped	11673
##ander	11671
Ġspeaks	11670
unc	11669
Factor	11669
EA	11668
Ġtrait	11668
##opathy	11666
##ogn	11666
ĊĉĊ	11663
##ervation	11662
Ġuniversities	11660
ĠSenior	11660
##rine	11659
Ġrush	11658
sym	11657
##oot	11657
Ġpassenger	11655
Ġmanufacturers	11655
ĠLM	11653
IB	11652
ĊĠĠĠĠĠĠĠĠĊĠĠĠĠĠĠĠ	11650
174	11649
Dan	11648
1983	11648
##RU	11647
Ġmusical	11647
Ġcursor	11645
ĠDeb	11643
Ġalg	11642
bytes	11641
ĠDutch	11640
Ġdialog	11637
ĠcDNA	11637
Ġemails	11636
Ġantibiotics	11636
>();	11634
##iable	11633
##Back	11633
Ġter	11633
Ġobligations	11633
ĠTr	11633
##Ð·	11632
ĠâĢľ[	11632
ĠBart	11632
Ġdismissal	11631
David	11630
ĠCin	11628
ĠPARTICULAR	11627
##cro	11626
Ġpackaging	11624
Ġaveraged	11623
Ġ``	11623
Ġ1950	11623
##ifer	11622
Ġtower	11622
##amb	11620
Ġ161	11619
bad	11618
Ġarts	11617
NOT	11616
512	11616
hw	11615
=\"	11615
ifndef	11614
username	11613
Ġprofound	11613
Ġveteran	11608
Ġavoided	11608
Ġ164	11608
##esse	11606
Ġfruits	11606
Ġfought	11606
organ	11605
ĠÐ´	11603
score	11602
Ġmainstream	11601
Ġcaps	11600
Ġconvention	11599
Link	11598
/)	11598
Ġdeserve	11596
##agi	11595
##+}	11595
ĠLegend	11595
Ġ168	11594
ĠPetitioner	11593
Ġ163	11593
##urg	11592
men	11591
compl	11591
Ġratings	11591
##Names	11590
Ġsho	11588
Ġmicroscope	11588
ĠCOVID	11587
Ġceiling	11586
Ġholder	11585
dfrac	11583
Ġcaution	11583
sel	11581
exists	11581
since	11576
leg	11576
##Ð°Ð	11575
Ġpreserved	11575
Ġexperiencing	11575
Ġthroat	11574
ĠNeu	11574
ĠIntel	11574
Ġupstream	11573
Ġramp	11571
Mer	11568
Ġhorizon	11568
Ġalternatives	11565
FOR	11561
##å°	11561
Ġsupplement	11559
Ġpanic	11556
Ġ162	11556
Den	11555
Ġgranting	11554
176	11552
Ġsteep	11552
Configuration	11551
)$-	11551
##Rel	11551
##inger	11550
Ġlabour	11550
Ġuncon	11549
Ġadvances	11549
360	11548
ĠCit	11548
##ectomy	11547
##Add	11547
Ġkiller	11547
Ġintelligent	11547
ĠWales	11546
Ġdispatch	11545
Ġsearched	11543
##sey	11540
##opa	11540
ALL	11539
Ġbrilliant	11537
ĠBuck	11537
Ġflood	11536
Ġagricultural	11536
Ġadventure	11536
ĠVC	11536
ĠExpress	11536
extern	11532
Ġvoluntary	11532
Ġshirt	11530
Ġbot	11530
Ġ1973	11530
##ACE	11527
Ġhappiness	11526
variant	11525
program	11524
Ġfork	11524
##Values	11520
Ġexploration	11520
rule	11519
Ġunin	11517
Ġrubber	11517
ĠBesides	11516
##iral	11514
Ġthumb	11513
DIS	11512
Ġexceed	11510
than	11509
Ġgar	11509
##orts	11508
##enn	11503
Ġresidue	11503
Ġeastern	11501
regulated	11499
]-[@	11499
320	11499
Ġregret	11499
ĠFITNESS	11499
##Layer	11498
Ġsumm	11497
Ġhint	11497
Ġexplosion	11497
ĠSize	11496
ĠMember	11496
platform	11494
Ġsubjective	11494
##illo	11493
Ġsusceptible	11492
Ġunlawful	11491
Ġinject	11491
Ġ$|\	11491
COMP	11490
Ġrevised	11490
Ġcontamination	11490
ĠRich	11490
ĠOA	11490
vm	11487
##roll	11485
ĠBlood	11485
Ġbrains	11484
Ġimpe	11483
##ague	11482
##../	11482
Ġfasc	11481
Ġevolutionary	11481
##ê	11480
##Child	11479
Ġbuttons	11478
##Identifier	11477
##ican	11476
ĠNeed	11473
ĠCann	11473
Ġselecting	11471
##Ts	11470
Ġloads	11470
ĠUtah	11470
213	11469
ĠMos	11469
Ġfertil	11468
##urt	11466
children	11465
Ġclarify	11465
##dk	11464
Ġdiabetic	11462
Ġsuspicion	11461
Ġclinically	11460
Ġ147	11460
Ġshelter	11458
INFO	11457
033	11457
Ġped	11457
Ġdrift	11456
Ġdistal	11455
)~	11453
##oming	11453
##ystem	11451
Ġcabinet	11451
Ġadhere	11450
required	11449
Ġmedal	11449
ĠProc	11449
Ġinvite	11448
ĠUnlike	11448
Ġvon	11446
Ġtumour	11446
Ġdx	11443
utils	11442
AE	11442
ĠKy	11441
ĠArts	11441
done	11440
##ading	11438
Ġstationary	11436
1982	11435
Ġyard	11435
found	11434
HT	11433
Ġviability	11433
Ġconsumed	11432
Ġprimers	11431
Ġket	11430
##piece	11429
Ġdisclose	11429
ĠVietnam	11429
Ġdesktop	11428
##ä½	11426
##NU	11426
Enter	11424
ĠOD	11423
Ġ========	11423
Ġpride	11422
Ġillustrate	11421
Ġbuf	11421
NP	11419
Ġredshift	11419
Ġexponential	11419
Ġranked	11418
Ġrecipes	11417
[$	11415
Ġintend	11414
Ġwaiver	11412
gg	11411
Ġrelevance	11411
##Panel	11409
Ġcounted	11409
##ORY	11406
Ġpap	11405
ĠHF	11405
ĠHB	11405
wr	11403
Ġthereafter	11403
Ġmimic	11403
##Current	11402
177	11401
Ġrap	11401
Ġpremium	11400
ĠSay	11398
##ãģ¯	11394
Ġmyth	11393
##cam	11392
Ġphosphate	11392
Ġtranscriptional	11390
Ġrocket	11389
Ġgoogle	11389
Bel	11388
commit	11386
##heet	11385
Ġ1972	11384
##imation	11383
Ġdisrupt	11381
Ġpile	11380
ĠSeason	11379
Ġcmd	11378
ĠDuke	11377
ĠLV	11376
##Core	11375
ĠMars	11374
##Async	11373
ĠLat	11373
Ġincomplete	11372
Ġpeaceful	11370
ĠMg	11370
##GM	11369
##anta	11367
ĠWHO	11367
pair	11366
##ÑģÑĤ	11366
AI	11365
##Ã©n	11364
Ġappellants	11364
LP	11363
Ġsie	11362
##state	11360
Ġfigured	11358
Ġexcit	11358
simple	11357
ĠCop	11357
##yard	11356
##Search	11356
##iously	11355
ĠLouisiana	11355
Ġprinter	11354
Ġlake	11354
Ġendogenous	11354
Cur	11353
##Ã´	11353
ĠNASA	11353
ĠGET	11353
tests	11352
Ġfetal	11350
##ood	11347
Ġintroducing	11347
ĠRy	11345
Ġfurniture	11344
Ġcenturies	11343
Ġstri	11342
ĠOtherwise	11342
Ġpredetermined	11341
Ġnav	11341
ĠAU	11341
)+\	11340
ĠTon	11340
179	11339
ĠTree	11337
Ġremind	11336
ĠPRE	11336
0007	11333
Ġdecomp	11333
Ġattach	11333
ĠStop	11333
ĠAssistant	11333
Art	11332
Ġtickets	11332
##sted	11331
Ġtransp	11331
ĠAbu	11331
ĠMini	11330
hydroxy	11329
Ġabsorb	11329
##lace	11327
Ġlaptop	11325
Ġblade	11324
Ġaffidavit	11324
##mc	11322
Ġbeef	11322
ĠLPS	11319
##arc	11318
Ġprolonged	11316
ĠPAR	11316
Ġ'<	11316
Ġreception	11315
Ġgraphics	11313
})$.	11312
>::	11312
parameter	11310
##Hash	11308
Ġincidents	11308
Ġclassroom	11307
quoting	11306
Hol	11304
##BLE	11303
ĠElectric	11302
##print	11301
Ġcrossed	11301
ĠBeing	11301
Ġprimer	11300
))?	11299
##Next	11299
Ġdeadline	11299
ĠMig	11298
valid	11297
##Root	11297
Function	11296
Ġeng	11296
Ġcardi	11292
##sche	11291
333	11290
ĠPhysics	11289
##encing	11286
Ġber	11286
ĠPLA	11285
PATH	11284
##ows	11283
DEBUG	11281
Ġinfectious	11281
Ġsacrifice	11279
##FR	11278
Ġcad	11277
ĠDave	11277
Ġconjunction	11276
Ġclearance	11276
Ġprospect	11274
Ġannounce	11273
Ġtau	11272
##pper	11271
|$	11269
Ep	11268
ĠThink	11268
ĠAri	11265
South	11263
Ġseemingly	11263
ĠSaint	11263
##rade	11262
Ġcorrections	11260
Ġventricular	11258
Ġrhythm	11258
Ġunn	11257
ĠSant	11256
Ill	11255
Ġcertified	11255
ĠVS	11254
ĠPle	11254
##EV	11253
##aj	11252
Ġ.$$	11252
Gar	11251
Further	11250
CV	11247
Ġsheep	11247
Ġlocus	11246
Ġrecommendation	11244
ĠLou	11244
##uba	11243
Ġdisin	11242
ĠPac	11240
Ġhorses	11237
HD	11235
Ġevolved	11235
##eny	11231
fileID	11230
ĠExpl	11229
:[	11228
Ġhalo	11226
Ġabdominal	11226
Trump	11225
AU	11225
##Î²	11225
![](	11224
EQ	11222
##ody	11222
##istent	11221
##atch	11219
cause	11217
Ġsing	11217
ĠiPhone	11217
Ġbrands	11217
ĠFlow	11217
condition	11216
ĠNetherlands	11216
ĠAffairs	11216
ĠLind	11215
Ġemployers	11214
##NF	11212
Ġ172	11211
##Build	11210
Ġsubspace	11210
ĠRange	11210
##}(	11208
Ġgravitational	11206
Lat	11205
Ġtur	11205
##ä¹	11203
Ġamb	11203
area	11201
arXiv	11200
Ġč	11200
Ġrotating	11199
##ugg	11198
Ġundergoing	11198
Ġvir	11197
Ġtwelve	11197
##zone	11195
Ġorthogonal	11195
Ġfracture	11194
Ġawards	11194
$:	11193
Obv	11192
##TOR	11192
ĠINS	11192
ĠPerson	11191
##rance	11190
Ġdynamical	11190
##mond	11189
##erm	11189
gp	11188
Ġdesert	11188
Ġdemonstrating	11186
ĠMERCHANTABILITY	11183
alloc	11182
Ġrigid	11179
ĠHum	11174
##fil	11171
##istics	11169
ĠRecently	11167
jar	11166
172	11166
Ġrendering	11165
Ġfulfill	11163
ĠTokyo	11163
ĠComb	11163
Ġsubd	11162
ĠMand	11162
ĠAnne	11161
##hop	11159
ĠPil	11158
Current	11155
##Da	11153
Ġordinance	11153
Ġactin	11152
Ġsync	11151
Ġcouples	11151
Ġrecombinant	11150
##ä»	11149
##osi	11149
Ġlamin	11146
Ġfeasible	11144
Ġ1974	11144
elect	11142
ĠCounsel	11142
Ġ--------	11141
Ġord	11140
ĠEdit	11140
job	11138
API	11138
Ġpublications	11138
Ġachieving	11137
Ġâī¤	11136
Ġjournalist	11136
Ġfool	11136
ĠCart	11135
##OUT	11134
##ematic	11131
sch	11130
Ġtopology	11125
ĠCOL	11125
##ury	11124
037	11122
Ġpressed	11122
Ġnights	11122
ĠVis	11122
Ġthreads	11119
ĠSOFTWARE	11119
Ġsorts	11118
ĠUT	11118
ĠAppendix	11117
##cca	11115
##UST	11115
Ġnons	11114
ĠCIA	11114
ĠArm	11114
ĠResources	11113
ident	11112
Ġlesson	11112
Ġenrolled	11112
Ġsem	11109
Ġcylinder	11109
compare	11108
Ġoutputs	11107
pool	11105
##Items	11102
ĠsiRNA	11102
Ġhoped	11101
through	11100
Ġsel	11097
ĠMode	11097
ĠPenn	11094
Ġsuite	11092
_;	11090
Example	11090
ĠPN	11090
à®	11089
3000	11089
Great	11087
ĠEngineering	11087
Ġspontaneous	11086
ĠVO	11086
ĠWH	11085
ĠJacob	11081
ĠMann	11080
ĠCost	11079
Ġswimming	11078
Ġcontacted	11074
}}}_{	11073
Ġneg	11073
formula	11072
FS	11071
##abil	11071
ĠConst	11070
222	11069
Ġinappropriate	11069
Ġtubes	11068
Ġmold	11068
ĠSci	11068
ĠGraph	11067
LC	11065
Ġdeletion	11064
Ġactivate	11063
cpu	11062
)-\	11062
ĠMarc	11061
odot	11060
ĠBow	11059
0015	11057
)](#	11057
ĠHell	11057
Ġfluor	11056
ĠRB	11056
Ġunemployment	11055
Ġintegrate	11055
Ġdisable	11055
##duc	11054
ĠAbb	11054
##orr	11051
ĊĉĉĠĠĠ	11051
Stat	11050
Ġtorture	11050
ĠJar	11048
mis	11046
did	11045
Wait	11042
Ġsends	11042
Ġretrieve	11042
Ġsim	11041
##EW	11039
ĠLes	11039
gal	11038
##aze	11038
Ġ"âĻª	11038
Ġconvictions	11037
159	11036
Ġcerebral	11035
Ġneighbor	11034
ĠSDS	11034
ĠNeither	11034
Ġ230	11034
Search	11032
##acing	11032
Ġdirectors	11032
ĠMaterial	11031
Express	11030
ĠShan	11030
ĠDisease	11030
ĠEND	11028
ĠDie	11028
engine	11027
027	11027
0009	11026
Ġè	11026
Ġspine	11026
APP	11025
Ġcorrupt	11025
Ġtheft	11024
Ġears	11024
##note	11021
ĠĠĠĠĠĠĠĠĠĠĠĠĠĠĠĠĠĠĠĠĠĠĠĠĠĠĠĠĠĠĠĠĠĠĠĠĠĠĠĠĠĠ	11021
neg	11020
\;	11020
)",	11020
ĠStatistical	11020
ĠFal	11020
san	11019
Therefore	11019
Ġpromotes	11019
Ġessence	11019
Sol	11018
Change	11015
Ġcul	11015
##eck	11014
Ġcontributes	11013
Ġtons	11012
ĠBern	11011
bra	11010
Ġloops	11010
Ġfatigue	11010
independent	11009
Ġadaptive	11009
)->	11008
Ġundergo	11008
Ġspecification	11008
Ġscared	11008
ĠJerusalem	11008
VERSION	11007
##hma	11007
Ġbabies	11007
operation	11006
Ġwashing	11006
Ġphen	11005
ĠKir	11005
ĠCloud	11005
Ġvaccination	11004
ĠEPA	11003
Ġloving	10998
##aks	10997
--------------------	10995
Ġfoster	10995
Ġneurop	10994
reset	10993
mk	10993
Met	10990
Ġexploit	10990
##lessly	10989
ĠSafety	10989
ĠPrep	10988
ĠBackground	10988
##imo	10987
ĠRee	10985
Ġflesh	10984
Day	10983
Ġcant	10983
##gment	10982
ĠShare	10982
##äº	10981
##ILL	10981
##play	10979
Ġapple	10979
ĠPad	10979
##Ns	10976
ĠExchange	10975
##Definition	10973
Ġkinetic	10973
ĠDomin	10973
Ġextensions	10972
bg	10971
drop	10970
##ective	10970
##Ã©t	10969
##yon	10968
Ġantenna	10966
dy	10965
Ġisomorphism	10963
Ġfre	10962
ĠFourier	10962
ĠOpp	10961
Ġ167	10961
bigl	10959
##uter	10959
Ġaqueous	10959
ĠSummary	10955
Ġproposals	10952
Ġclustering	10951
##lder	10950
ĠRoute	10948
Prop	10947
Ġrejection	10947
Ġinstability	10947
ĠDetroit	10943
RR	10942
ĠWright	10942
URL	10941
Ġinch	10941
Ġextraordinary	10941
abc	10940
Ġattain	10939
225	10937
##onia	10937
every	10935
Ġspouse	10934
##JS	10933
##thy	10932
ĠÙ	10932
Ġconcentrated	10932
Ġdelta	10930
ĠCAN	10930
Ġ(âĪĴ	10930
##ulatory	10929
##gram	10929
Ġsail	10929
##aves	10927
##Properties	10927
Ġ166	10927
Jan	10926
Ġct	10923
##occ	10922
##elle	10922
Ġpret	10922
Ġharmful	10922
Ġbeneath	10920
grade	10919
##Space	10919
}))	10916
Ġweighted	10915
Ġuniformly	10915
Ġpharmaceutical	10915
Ġgit	10914
Ġdrunk	10914
Ġdistinguished	10913
ĠEmpire	10913
Equ	10912
Ġinstructed	10911
'"	10910
##Description	10909
Ġsword	10909
ĠOntario	10908
ĠInput	10908
emphasis	10907
Ġdrinks	10907
Tom	10903
Ġlegacy	10903
Ġtransfected	10902
ĠAustin	10902
##zza	10901
##hetic	10901
Ġheated	10900
##utable	10898
were	10897
Ġsons	10895
ĠThompson	10895
216	10894
vt	10893
Ġalkyl	10893
ĠEnt	10893
Ġinadequate	10889
ĠRaj	10889
Ġforg	10887
.......	10886
##Inter	10886
ĠBet	10886
[:	10885
##*\	10884
Ġ$_	10884
##Valid	10883
Ġseg	10882
Ġnegatively	10879
183	10877
Ġwrapped	10877
Ġjunction	10877
ĠFel	10877
##''	10875
ĠPrint	10875
ĠHamilton	10874
ĠPK	10873
##upp	10872
Ġdiffuse	10872
Ġcooked	10872
}$]{}	10871
Ġcriterion	10871
ĠToo	10870
Ġgym	10869
controller	10868
Ġstocks	10868
Ġrotate	10868
Ġqueries	10868
##ross	10867
Ġsynthesized	10867
Ġinfluences	10866
]))	10865
months	10864
##erge	10864
Ġbacked	10863
ĠTN	10863
##pend	10862
##oud	10862
Ø	10860
ÂĮ	10859
ĠTam	10859
watch	10858
Wal	10858
Home	10855
##iki	10855
Ġabroad	10854
cas	10852
Ġmort	10851
ĠSweden	10851
Ġtranslated	10850
Ġsurveys	10849
##UF	10847
ĠFlu	10845
artifactId	10843
##Graph	10843
>'	10841
##gia	10839
Ġpolyp	10839
Ġautomated	10838
ĠâĨĴ	10836
Ġproducers	10834
ĠAnthony	10834
166	10833
Ġhopefully	10833
DT	10832
Ġ----------------------------------------------------------------	10831
Ġdeciding	10829
038	10828
ĠInterest	10828
ĠFall	10827
submit	10825
Ġhepatic	10824
pref	10822
names	10821
}{(	10819
Ġ(+	10819
xsd	10818
ĠCondition	10817
take	10816
\](	10815
##emon	10815
Ġdependency	10814
Ġcervical	10813
##iu	10812
ĠBerg	10812
Est	10810
Ġreleases	10809
))\	10808
Ġresection	10808
Ġcel	10807
our	10806
Ġwhilst	10806
Ġvalidated	10804
Ġstatutes	10804
Ġshade	10804
Ġdrew	10804
~\	10803
Ġlev	10803
ĠIron	10803
Ġenterprise	10801
Ġlanding	10800
##ä¸Ń	10797
Ġcomprised	10795
Ġsensory	10794
Ġrelax	10794
ĠLORD	10794
Ġ}$	10791
Ġbou	10790
clean	10789
Ġtoll	10788
ĠRub	10788
prob	10787
Ġhumor	10787
ĠGov	10785
Ġ000	10785
Ġacceleration	10784
ĠDean	10784
Plan	10783
Ġstake	10783
Ġec	10783
ĠLED	10782
##\_	10780
Ġbiopsy	10779
##core	10778
##Pool	10778
Ġutilizing	10778
Ġ176	10777
period	10776
Ġpediatric	10776
Ġmyocardial	10776
Ġbru	10775
Ġbilateral	10775
Ġethics	10770
Ġdeploy	10769
Ġridiculous	10768
Ġplotted	10768
mathop	10767
,\,	10767
Ġeigen	10767
##pie	10766
Ġenl	10764
##HD	10762
="-	10761
##itution	10761
Ġeryth	10761
Column	10759
149	10758
##ViewController	10758
Ġpsychiatric	10758
Ġhouseholds	10758
ĠOri	10758
##SQL	10757
Ġpolls	10756
##Right	10755
Ġrevision	10755
wh	10754
bel	10754
##rell	10754
Ġfavourite	10754
Sn	10753
ĠPhil	10753
unique	10752
ĠCos	10751
Common	10750
Ġunstable	10749
Ġtunnel	10749
ĠFDA	10749
Ġpron	10747
Ġheaders	10746
Case	10744
Ġacet	10743
ĠPersonal	10743
lin	10742
##ials	10742
ĠSex	10742
Ġcollecting	10740
ĠSher	10739
Ġeliminated	10738
Ġwx	10736
LOG	10735
HC	10734
Ġrestored	10733
sun	10731
decl	10731
Ġshaped	10731
##azi	10730
Ġfractions	10730
Ġconsume	10729
READ	10728
Ġconsist	10728
extra	10727
download	10726
Ġterrorism	10725
ĠDemocrat	10725
Ġserv	10723
Ġhill	10721
Ġlane	10720
Ġhabits	10719
hpp	10717
resistant	10716
Ġvec	10715
Ġmapped	10715
ĠGuard	10715
Ber	10713
##pose	10713
prom	10711
ĉĉĉ	10711
BIT	10710
Ġeg	10710
---|---|---|---|---|---|---	10709
##ules	10709
hbox	10708
Ġunto	10707
Inf	10702
Ġharsh	10702
##oga	10700
Ġheal	10700
Ġ----------------------------	10699
air	10698
211	10698
##igan	10697
##Down	10697
Ġspare	10697
=================================	10696
##Engine	10696
chain	10695
Ġopposing	10693
smallcaps	10691
ĠFourth	10691
Ġups	10685
Ġsil	10685
\[[@	10684
##olic	10681
##Obj	10678
&#	10677
Ġenrichment	10677
Ġcalibration	10676
Following	10675
Ġquestioned	10675
groupId	10673
Ġgrave	10673
Ġgrows	10672
##iko	10671
Ġmounting	10670
Inv	10669
Ġaluminum	10669
events	10668
ĠTech	10668
DP	10667
ĠRs	10666
##iste	10665
##Ass	10663
Ġdt	10663
ĠLady	10663
##amed	10662
##rÃ©	10661
Ġdemanding	10661
##rust	10660
Ġcomedy	10660
Ġcalc	10660
Ġregards	10659
##SR	10658
Ġdeposited	10658
Ġrounds	10657
Ġencouraging	10656
Ġdisruption	10655
##rier	10653
Ġenabling	10653
Ġ10000	10653
163	10651
##ABLE	10651
Ġexploring	10651
Ġconv	10650
Ġchemistry	10650
Ġwars	10649
ĠTol	10649
+)	10648
\{\	10646
driven	10645
##fore	10645
Public	10644
Ġscandal	10643
RC	10642
Ġelect	10642
ĠSept	10642
ĠEarly	10642
čĊčĊĠĠĠĠĠĠĠ	10640
sync	10639
SR	10639
Ġmultic	10638
Ġaden	10638
ĠCarter	10638
Media	10637
##Vector	10637
Ġreservoir	10637
Ġillustrates	10636
Ġgem	10636
Ġembedding	10636
203	10635
Ġabandon	10635
ĠOlympics	10635
##ached	10633
##ARY	10633
Ġfears	10633
editor	10632
Black	10632
Ġvis	10630
Ġoffenses	10630
ĠPlant	10630
ĠLan	10629
Ġrefugees	10627
ĠRR	10627
ĠGor	10627
ĠBeth	10627
##Option	10626
ĠFB	10626
Ġprobes	10625
##mad	10624
Ġreve	10624
à	10623
Î¼	10622
158	10622
Ġremembered	10622
Control	10620
ĊĊĠĠĠĠĠĠĠĠĠ	10619
##pling	10618
SF	10617
Ġfoam	10617
##vest	10616
Ġmall	10616
ĠMarx	10613
War	10610
Though	10610
Ġexamining	10610
Ġequivalence	10610
occ	10609
$),	10608
ĠStaff	10608
0011	10607
Ġrestart	10607
GB	10606
Ġcumulative	10606
ĠCast	10606
Index	10605
)\\	10602
Ġassessing	10602
ĠSyn	10602
ĠINTO	10602
ĠEngine	10602
##otion	10600
##oles	10600
its	10599
##Ð½	10599
##tp	10599
ĠObserv	10599
##block	10598
##Host	10598
Ġcoaches	10598
ĠAtlanta	10597
Ġimproper	10596
Ġdining	10596
à¬	10595
Ġdemographic	10595
Ġwalks	10594
ĠPot	10594
Ġjournalists	10593
##}_{	10592
Ġcasual	10592
ĠSeven	10591
Ġmetals	10590
Ġ450	10588
Ġcoronavirus	10587
Ġvas	10586
ĠCould	10585
their	10584
##iciency	10584
##ãĥ³	10583
##Project	10583
Methods	10581
##TM	10581
ĠClose	10581
('.	10580
Ġexpecting	10580
Ġanticipated	10579
ĠLarge	10579
##osome	10578
Ġbitcoin	10578
Java	10577
ĠANOVA	10577
Config	10576
##rand	10574
North	10573
Ġforcing	10573
Ly	10571
##with	10571
eth	10569
##ologist	10569
shift	10567
##eer	10567
##Go	10567
Ġcrude	10566
Tw	10564
##BB	10564
Ġopponents	10564
Ġloc	10559
ĠAK	10559
ĠGill	10558
annotation	10556
Ġfol	10556
ĠDeputy	10556
Ġedited	10553
Ġallocated	10551
##WR	10550
ĠBarack	10550
Ġintimate	10545
TB	10543
Ġdri	10543
ĠHAVE	10543
Ut	10540
Exc	10537
167	10537
##Tra	10537
Ġmechanics	10537
Ġchampionship	10536
ĠManchester	10536
ĠFestival	10535
Ġpreceding	10534
ĠHem	10534
Ġelevation	10533
Ġ169	10533
Sam	10531
ĠContract	10530
){\	10528
ĠCAS	10525
Mintage	10524
Ġconstitution	10524
Ġslower	10523
Ġauthentication	10522
Ġmountains	10520
Ġdrum	10517
tf	10516
ĠRelations	10516
radius	10515
Ġcoc	10515
##aire	10514
Ġgeometric	10513
Ġgarage	10513
ĠFab	10513
##enta	10511
ĠWL	10509
mock	10506
bigr	10504
##ders	10504
##URI	10504
ĠMoscow	10503
ĠGreece	10503
ä¸	10502
##hem	10502
Ġbandwidth	10502
##inf	10496
ĠNative	10496
Ġ159	10496
hard	10495
Ġsimpl	10494
expr	10493
ĠJur	10493
tp	10492
Ġ\+	10492
##Access	10491
##Us	10490
##ridge	10489
Ġsentiment	10489
Bit	10488
ĠLaboratory	10488
Ġenum	10487
miR	10486
ĠSupplementary	10485
Ġanalogous	10484
Ġ%}	10484
Ġaxial	10483
Ġdisposition	10482
ĠGil	10481
*),	10480
Ġcontainers	10480
\}}	10479
##oir	10479
Ġlegend	10479
Ġantibiotic	10479
ĠAmb	10479
Ġmicros	10478
cluster	10477
Ġnovo	10477
Ġhosted	10476
Ġprofession	10475
Ġqualify	10473
Ġproductive	10472
QU	10468
##Edit	10468
Ġallies	10468
##ault	10467
Ġbypass	10467
Ġsubscription	10466
Ġjs	10465
*:	10463
Ġaccommodation	10463
ĊĊĊĠĠĠĠĠĠĠĠĠĠĠĠĠĠĠĠĠĠĠĠĠĠĠĠĠĠĠĠĠĠĠĠ	10463
##])	10461
extend	10460
Ġcorners	10460
mer	10458
Ġpancreatic	10455
Ġavoiding	10455
ĠPatrick	10455
Build	10453
ĠSTAT	10453
}\|	10452
Ġmaximize	10451
Ġpill	10450
Ġbubble	10449
ĠRid	10449
##erved	10448
ĠCONDITIONS	10447
Ġswim	10446
Ġsimplicity	10446
Prov	10443
##aki	10443
##yle	10441
Ġsummarized	10440
##GN	10439
##Float	10439
Ġsitu	10439
Ġpassengers	10435
Ġoverview	10435
Ġborders	10435
Ġtutorial	10434
Ġregulating	10431
plus	10430
##pes	10430
Ġbal	10430
Ġthoroughly	10429
om	10428
Ġprecedent	10428
ĠLB	10428
178	10427
ĠTrial	10427
ĠStatus	10427
|^{	10426
ĠRevolution	10426
ĠLL	10426
Ġpropagation	10425
Ġagrees	10424
##pn	10423
Ġrod	10423
##cn	10422
Ġhandful	10422
Ġwhereby	10421
Ġalloc	10421
ĠCr	10421
##ÑĤÐ¾	10420
Ġfiltered	10419
##uis	10417
LL	10416
##cence	10416
##Descriptor	10416
Ġneutron	10415
Ġadequately	10415
Ġhike	10414
Ġattitudes	10414
Target	10413
##fill	10413
##č	10409
:'	10408
##aker	10408
Ġoutlined	10408
external	10407
##rete	10407
ĠWR	10404
^*(	10403
[...]
