{
  "version": "1.0",
  "truncation": null,
  "padding": null,
  "added_tokens": [
    {
      "id": 0,
      "content": "<|endoftext|>",
      "single_word": false,
      "lstrip": false,
      "rstrip": false,
      "normalized": false,
      "special": true
    },
    {
      "id": 1,
      "content": "<UNK>",
      "single_word": false,
      "lstrip": false,
      "rstrip": false,
      "normalized": false,
      "special": true
    }
  ],
  "normalizer": null,
  "pre_tokenizer": {
    "type": "ByteLevel",
    "add_prefix_space": false,
    "trim_offsets": true,
    "use_regex": true
  },
  "post_processor": null,
  "decoder": null,
  "model": {
    "type": "BPE",
    "dropout": null,
    "unk_token": "<UNK>",
    "continuing_subword_prefix": null,
    "end_of_word_suffix": null,
    "fuse_unk": false,
    "byte_fallback": false,
    "vocab": {
      "<|endoftext|>": 0,
      "<UNK>": 1,
      "!": 2,
      "\"": 3,
      "#": 4,
      "$": 5,
      "%": 6,
      "&": 7,
      "'": 8,
      "(": 9,
      ")": 10,
      "*": 11,
      "+": 12,
      ",": 13,
      "-": 14,
      ".": 15,
      "/": 16,
      "0": 17,
      "1": 18,
      "2": 19,
      "3": 20,
      "4": 21,
      "5": 22,
      "6": 23,
      "7": 24,
      "8": 25,
      "9": 26,
      ":": 27,
      ";": 28,
      "<": 29,
      "=": 30,
      ">": 31,
      "?": 32,
      "@": 33,
      "A": 34,
      "B": 35,
      "C": 36,
      "D": 37,
      "E": 38,
      "F": 39,
      "G": 40,
      "H": 41,
      "I": 42,
      "J": 43,
      "K": 44,
      "L": 45,
      "M": 46,
      "N": 47,
      "O": 48,
      "P": 49,
      "Q": 50,
      "R": 51,
      "S": 52,
      "T": 53,
      "U": 54,
      "V": 55,
      "W": 56,
      "X": 57,
      "Y": 58,
      "Z": 59,
      "[": 60,
      "\\": 61,
      "]": 62,
      "^": 63,
      "_": 64,
      "`": 65,
      "a": 66,
      "b": 67,
      "c": 68,
      "d": 69,
      "e": 70,
      "f": 71,
      "g": 72,
      "h": 73,
      "i": 74,
      "j": 75,
      "k": 76,
      "l": 77,
      "m": 78,
      "n": 79,
      "o": 80,
      "p": 81,
      "q": 82,
      "r": 83,
      "s": 84,
      "t": 85,
      "u": 86,
      "v": 87,
      "w": 88,
      "x": 89,
      "y": 90,
      "z": 91,
      "{": 92,
      "|": 93,
      "}": 94,
      "~": 95,
      "¡": 96,
      "¢": 97,
      "£": 98,
      "¤": 99,
      "¥": 100,
      "¦": 101,
      "§": 102,
      "¨": 103,
      "©": 104,
      "ª": 105,
      "«": 106,
      "¬": 107,
      "®": 108,
      "¯": 109,
      "°": 110,
      "±": 111,
      "²": 112,
      "³": 113,
      "´": 114,
      "µ": 115,
      "¶": 116,
      "·": 117,
      "¸": 118,
      "¹": 119,
      "º": 120,
      "»": 121,
      "¼": 122,
      "½": 123,
      "¾": 124,
      "¿": 125,
      "À": 126,
      "Á": 127,
      "Â": 128,
      "Ã": 129,
      "Ä": 130,
      "Å": 131,
      "Æ": 132,
      "Ç": 133,
      "È": 134,
      "É": 135,
      "Ê": 136,
      "Ë": 137,
      "Ì": 138,
      "Í": 139,
      "Î": 140,
      "Ï": 141,
      "Ð": 142,
      "Ñ": 143,
      "Ò": 144,
      "Ó": 145,
      "Ô": 146,
      "Õ": 147,
      "Ö": 148,
      "×": 149,
      "Ø": 150,
      "Ù": 151,
      "Ú": 152,
      "Û": 153,
      "Ü": 154,
      "Ý": 155,
      "Þ": 156,
      "ß": 157,
      "à": 158,
      "á": 159,
      "â": 160,
      "ã": 161,
      "ä": 162,
      "å": 163,
      "æ": 164,
      "ç": 165,
      "è": 166,
      "é": 167,
      "ê": 168,
      "ë": 169,
      "ì": 170,
      "í": 171,
      "î": 172,
      "ï": 173,
      "ð": 174,
      "ñ": 175,
      "ò": 176,
      "ó": 177,
      "ô": 178,
      "õ": 179,
      "ö": 180,
      "÷": 181,
      "ø": 182,
      "ù": 183,
      "ú": 184,
      "û": 185,
      "ü": 186,
      "ý": 187,
      "þ": 188,
      "ÿ": 189,
      "Ā": 190,
      "ā": 191,
      "Ă": 192,
      "ă": 193,
      "Ą": 194,
      "ą": 195,
      "Ć": 196,
      "ć": 197,
      "Ĉ": 198,
      "ĉ": 199,
      "Ċ": 200,
      "ċ": 201,
      "Č": 202,
      "č": 203,
      "Ď": 204,
      "ď": 205,
      "Đ": 206,
      "đ": 207,
      "Ē": 208,
      "ē": 209,
      "Ĕ": 210,
      "ĕ": 211,
      "Ė": 212,
      "ė": 213,
      "Ę": 214,
      "ę": 215,
      "Ě": 216,
      "ě": 217,
      "Ĝ": 218,
      "ĝ": 219,
      "Ğ": 220,
      "ğ": 221,
      "Ġ": 222,
      "ġ": 223,
      "Ģ": 224,
      "ģ": 225,
      "Ĥ": 226,
      "ĥ": 227,
      "Ħ": 228,
      "ħ": 229,
      "Ĩ": 230,
      "ĩ": 231,
      "Ī": 232,
      "ī": 233,
      "Ĭ": 234,
      "ĭ": 235,
      "Į": 236,
      "į": 237,
      "İ": 238,
      "ı": 239,
      "Ĳ": 240,
      "ĳ": 241,
      "Ĵ": 242,
      "ĵ": 243,
      "Ķ": 244,
      "ķ": 245,
      "ĸ": 246,
      "Ĺ": 247,
      "ĺ": 248,
      "Ļ": 249,
      "ļ": 250,
      "Ľ": 251,
      "ľ": 252,
      "Ŀ": 253,
      "ŀ": 254,
      "Ł": 255,
      "ł": 256,
      "Ń": 257,
      "ĠĠ": 258,
      "Ġt": 259,
      "Ġa": 260,
      "in": 261,
      "he": 262,
      "re": 263,
      "on": 264,
      "ĠĠĠĠ": 265,
      "Ġthe": 266,
      "er": 267,
      "at": 268,
      "Ġs": 269,
      "en": 270,
      "Ġo": 271,
      "Ġc": 272,
      "Ġw": 273,
      "is": 274,
      "it": 275,
      "or": 276,
      "es": 277,
      "ed": 278,
      "al": 279,
      "an": 280,
      "Ġp": 281,
      "Ġf": 282,
      "Ġb": 283,
      "Ġan": 284,
      "ing": 285,
      "Ġin": 286,
      "Ġof": 287,
      "ar": 288,
      "ion": 289,
      "ou": 290,
      "Ġm": 291,
      "Ġd": 292,
      "ic": 293,
      "--": 294,
      "Ġto": 295,
      "le": 296,
      "as": 297,
      "ĠĠĠĠĠĠĠĠ": 298,
      "Ġand": 299,
      "ro": 300,
      "Ġth": 301,
      "ent": 302,
      "Ġh": 303,
      "ct": 304,
      "Ġre": 305,
      "et": 306,
      "Ġn": 307,
      "el": 308,
      "st": 309,
      "om": 310,
      "il": 311,
      "Ġe": 312,
      "Ġl": 313,
      "id": 314,
      "ot": 315,
      "im": 316,
      "ig": 317,
      "ve": 318,
      "Ġis": 319,
      "ut": 320,
      "Ġg": 321,
      "Ġ(": 322,
      "ĠT": 323,
      "----": 324,
      "am": 325,
      "ol": 326,
      "ĠI": 327,
      "ation": 328,
      "se": 329,
      "ce": 330,
      "ly": 331,
      "âĢ": 332,
      "Ġfor": 333,
      "ur": 334,
      "ĠĠĠ": 335,
      "Ġbe": 336,
      "ĠS": 337,
      "ow": 338,
      "Ġthat": 339,
      "Ġu": 340,
      "ad": 341,
      "Ġon": 342,
      "ĠA": 343,
      "ĠC": 344,
      "Ġst": 345,
      "ch": 346,
      "ver": 347,
      "ay": 348,
      "ul": 349,
      "ith": 350,
      "Ġ1": 351,
      "if": 352,
      "Ġcon": 353,
      "Ġwith": 354,
      "ra": 355,
      "ĠĠĠĠĠĠĠĠĠĠĠĠĠĠĠĠ": 356,
      "Ġy": 357,
      "Ġas": 358,
      "ir": 359,
      "od": 360,
      "ter": 361,
      "00": 362,
      "Ġpro": 363,
      "Ġ\"": 364,
      "ate": 365,
      "Ġ$": 366,
      "Ġit": 367,
      "her": 368,
      "um": 369,
      "ĠM": 370,
      "ab": 371,
      "pe": 372,
      "Ġal": 373,
      "Ġwe": 374,
      "ri": 375,
      "ge": 376,
      "nd": 377,
      "Ġv": 378,
      "==": 379,
      "Ġwh": 380,
      "Ġ2": 381,
      "ĠP": 382,
      "Ġde": 383,
      "res": 384,
      "pp": 385,
      "qu": 386,
      "ac": 387,
      "Ġyou": 388,
      "ment": 389,
      "est": 390,
      "Ġex": 391,
      "os": 392,
      "ist": 393,
      "ĠThe": 394,
      "Ġwas": 395,
      "ĠB": 396,
      "us": 397,
      "Ġ\\": 398,
      "Ġhe": 399,
      "--------": 400,
      "ant": 401,
      "Ġor": 402,
      "Ġcom": 403,
      "em": 404,
      "ht": 405,
      "Ġare": 406,
      "th": 407,
      "**": 408,
      "oc": 409,
      "Ġat": 410,
      "ers": 411,
      "Ġsu": 412,
      "iv": 413,
      "Ġ=": 414,
      "un": 415,
      "ity": 416,
      "ess": 417,
      "ain": 418,
      "Ġr": 419,
      "ĠH": 420,
      "op": 421,
      "ĠF": 422,
      "Ġby": 423,
      "ĠD": 424,
      "Ġse": 425,
      "ld": 426,
      "ill": 427,
      "ction": 428,
      "ore": 429,
      "rom": 430,
      "and": 431,
      "ĠW": 432,
      "nt": 433,
      "ke": 434,
      "Ġnot": 435,
      "Ġ-": 436,
      "end": 437,
      "Ġha": 438,
      "ĠR": 439,
      "ive": 440,
      "ĠL": 441,
      "ort": 442,
      "Ġne": 443,
      "pt": 444,
      "Ġthis": 445,
      "ĊĠĠĠĠ": 446,
      "ĠN": 447,
      "âĢĻ": 448,
      "Ġfrom": 449,
      "ight": 450,
      "art": 451,
      "ud": 452,
      "red": 453,
      "ĊĠĠĠ": 454,
      "pl": 455,
      "ell": 456,
      "Ġsh": 457,
      "ial": 458,
      "ies": 459,
      "te": 460,
      "ĠG": 461,
      "Ġch": 462,
      "Ġhave": 463,
      "ated": 464,
      "ĠE": 465,
      "fe": 466,
      "Ġ*": 467,
      "ure": 468,
      "ine": 469,
      "'s": 470,
      "ould": 471,
      "our": 472,
      "all": 473,
      "{\\": 474,
      "Ġle": 475,
      "Ġ0": 476,
      "ag": 477,
      "per": 478,
      "og": 479,
      "ust": 480,
      "age": 481,
      "ical": 482,
      "Ġcan": 483,
      "ame": 484,
      ").": 485,
      "ue": 486,
      "iz": 487,
      "ĠO": 488,
      "ich": 489,
      "rou": 490,
      "cl": 491,
      "Ġ3": 492,
      "ib": 493,
      "ĊĠĠĠĠĠĠĠĠ": 494,
      "out": 495,
      "ard": 496,
      "Ġus": 497,
      "ome": 498,
      "able": 499,
      "ie": 500,
      "ase": 501,
      "Ġres": 502,
      "Ġcl": 503,
      "Ġwhe": 504,
      ");": 505,
      "Ġab": 506,
      "ath": 507,
      "Ġj": 508,
      "ack": 509,
      "====": 510,
      "ult": 511,
      "ass": 512,
      "Ġ{": 513,
      "act": 514,
      "ost": 515,
      "Ġk": 516,
      "ans": 517,
      "01": 518,
      "Ġpl": 519,
      "Ġcomp": 520,
      "ide": 521,
      "ther": 522,
      ".\"": 523,
      "Ġad": 524,
      "Ġme": 525,
      "ĊĠ": 526,
      "ast": 527,
      "=\"": 528,
      "Ġcont": 529,
      "Ġwere": 530,
      "orm": 531,
      "ĠâĢ": 532,
      "Ġim": 533,
      "The": 534,
      "Ġall": 535,
      "Ġtr": 536,
      "ub": 537,
      "ign": 538,
      "ĠJ": 539,
      "ĊĠĠĠĠĠĠĠ": 540,
      "..": 541,
      "ĠU": 542,
      "ap": 543,
      "Ġ[": 544,
      "Ġdo": 545,
      "ind": 546,
      "ition": 547,
      "ak": 548,
      "ip": 549,
      "Ġwhich": 550,
      "ĠĠĠĠĠĠĠĠĠĠĠĠĠĠĠĠĠĠĠĠĠĠĠĠĠĠĠĠĠĠĠĠ": 551,
      "ph": 552,
      "Ġhas": 553,
      "ice": 554,
      "Ġ+": 555,
      "cc": 556,
      "one": 557,
      "ary": 558,
      "ous": 559,
      "ĉĉ": 560,
      "//": 561,
      "Ġbut": 562,
      "ime": 563,
      "Ġint": 564,
      "ens": 565,
      "ĠIn": 566,
      "are": 567,
      "int": 568,
      "----------------": 569,
      "con": 570,
      "Ġwor": 571,
      "_{": 572,
      "du": 573,
      "Ġdis": 574,
      "ress": 575,
      "ong": 576,
      "ence": 577,
      "ations": 578,
      "Ġ4": 579,
      "ty": 580,
      "ff": 581,
      "Ġwill": 582,
      "ne": 583,
      "ile": 584,
      "ok": 585,
      "Ġgo": 586,
      "),": 587,
      "Ġ<": 588,
      "ru": 589,
      "Ġout": 590,
      "ep": 591,
      "ose": 592,
      "ance": 593,
      "}}": 594,
      "gh": 595,
      "Âł": 596,
      "av": 597,
      "Ġif": 598,
      "Ġper": 599,
      "ents": 600,
      "Ġen": 601,
      "au": 602,
      "ally": 603,
      "ĠTh": 604,
      "ber": 605,
      "Ġ5": 606,
      "Ġhis": 607,
      "ace": 608,
      "Ġone": 609,
      "so": 610,
      "Ġun": 611,
      "port": 612,
      "xt": 613,
      "ely": 614,
      "ia": 615,
      "ord": 616,
      "Ġthey": 617,
      "ory": 618,
      "ire": 619,
      "ear": 620,
      "ach": 621,
      "ect": 622,
      "ions": 623,
      "Ġapp": 624,
      "Ġev": 625,
      "Ġso": 626,
      "form": 627,
      "ry": 628,
      "Ġup": 629,
      "ang": 630,
      "Ġqu": 631,
      "ree": 632,
      "lic": 633,
      "Ġar": 634,
      "Ġtheir": 635,
      "âĢĿ": 636,
      "Ġmore": 637,
      "Ġpart": 638,
      "ail": 639,
      "ĠK": 640,
      "ite": 641,
      "ors": 642,
      "ll": 643,
      "Ġthere": 644,
      "ys": 645,
      "Ġag": 646,
      "Ġpre": 647,
      "ake": 648,
      "Ġother": 649,
      "Ġli": 650,
      "own": 651,
      "ĠĠĠĠĠĠĠ": 652,
      "very": 653,
      "Ġ}": 654,
      "ound": 655,
      "Ġyour": 656,
      "ft": 657,
      "Ġ$\\": 658,
      "vel": 659,
      "Ġhad": 660,
      "ount": 661,
      "fere": 662,
      "cre": 663,
      "urn": 664,
      "ĠSt": 665,
      "Ġsa": 666,
      "ata": 667,
      "Ġbeen": 668,
      "com": 669,
      "Ġsp": 670,
      "math": 671,
      "Ġman": 672,
      "ks": 673,
      "Ġalso": 674,
      "Ġwho": 675,
      "erv": 676,
      "Ġany": 677,
      "we": 678,
      "ates": 679,
      "Ġwould": 680,
      "de": 681,
      "ĠV": 682,
      "Ġno": 683,
      "[@": 684,
      "Ġabout": 685,
      "nder": 686,
      "low": 687,
      "ject": 688,
      "ĊĊ": 689,
      "Ġwhen": 690,
      "eth": 691,
      "Ġmy": 692,
      "Ġ'": 693,
      "Ġ&": 694,
      "ific": 695,
      "ook": 696,
      "\\]": 697,
      "Ġob": 698,
      "Ġtime": 699,
      "ple": 700,
      "Ġthan": 701,
      "ater": 702,
      "'t": 703,
      "ict": 704,
      "Ġass": 705,
      "wo": 706,
      "erm": 707,
      "Ġ6": 708,
      "Ġover": 709,
      "ref": 710,
      "10": 711,
      "Ġits": 712,
      "}$": 713,
      "row": 714,
      "ring": 715,
      "Ġ19": 716,
      "Ġsome": 717,
      "Ġsc": 718,
      "ĠâĢľ": 719,
      "ob": 720,
      "clud": 721,
      "rib": 722,
      "ck": 723,
      "fter": 724,
      "ays": 725,
      "ces": 726,
      "</": 727,
      "Ġspe": 728,
      "get": 729,
      "Ġbet": 730,
      "Ġsy": 731,
      "lect": 732,
      "Ġnew": 733,
      "Ġgen": 734,
      "Ġdif": 735,
      "In": 736,
      "fect": 737,
      "ĊĠĠĠĠĠĠĠĠĠĠĠ": 738,
      "old": 739,
      "Ġam": 740,
      "irst": 741,
      "ove": 742,
      "^{": 743,
      "Ġte": 744,
      "ode": 745,
      "hat": 746,
      "ied": 747,
      "Ġinter": 748,
      "vers": 749,
      "Ġfe": 750,
      "ps": 751,
      "Ġsub": 752,
      "Ġget": 753,
      "ild": 754,
      "Ġdef": 755,
      "Ġacc": 756,
      "19": 757,
      "Ġher": 758,
      "Ġoff": 759,
      "Ġkn": 760,
      "ĠY": 761,
      "reat": 762,
      "ause": 763,
      "Ġcomm": 764,
      "Ġact": 765,
      "Ġinto": 766,
      "Ġour": 767,
      "ced": 768,
      "Ġunder": 769,
      "ov": 770,
      "Ġro": 771,
      "iss": 772,
      "Ġcons": 773,
      "ings": 774,
      "ink": 775,
      "Ġpe": 776,
      "ĠIt": 777,
      "##": 778,
      "Ġdes": 779,
      "Ġrel": 780,
      "Ġmay": 781,
      "ma": 782,
      "========": 783,
      "ual": 784,
      "Ġrec": 785,
      "12": 786,
      "ick": 787,
      "Ġonly": 788,
      "ative": 789,
      "Ġtwo": 790,
      "ari": 791,
      "pon": 792,
      "Ġsaid": 793,
      "Ġthem": 794,
      "Ġval": 795,
      "ert": 796,
      "iew": 797,
      "pect": 798,
      "Ġyear": 799,
      "Ġwork": 800,
      "Ġstud": 801,
      "Ġbec": 802,
      "Ġwhat": 803,
      "ular": 804,
      "Ġlike": 805,
      "Ġadd": 806,
      "Ġind": 807,
      "Ġ7": 808,
      "hed": 809,
      "Ġret": 810,
      "ark": 811,
      "Ġmod": 812,
      "igh": 813,
      "Ġreg": 814,
      "Ġpos": 815,
      "ĠCh": 816,
      "Ġtrans": 817,
      "pro": 818,
      "unction": 819,
      "Ġinv": 820,
      "elf": 821,
      "ĠThis": 822,
      "cess": 823,
      "oint": 824,
      "Ġem": 825,
      "Ġbl": 826,
      "Ġuse": 827,
      "ock": 828,
      "stem": 829,
      "Ġco": 830,
      "itt": 831,
      "ish": 832,
      "Ġfirst": 833,
      "Ġsuch": 834,
      "ased": 835,
      "ating": 836,
      "Ġjust": 837,
      "Ġ201": 838,
      "ex": 839,
      "ont": 840,
      "Ġpr": 841,
      "ef": 842,
      "Ġph": 843,
      "Ġ8": 844,
      "ĠWe": 845,
      "Ġpres": 846,
      "Ġform": 847,
      "Ġthese": 848,
      "ian": 849,
      "\",": 850,
      "ments": 851,
      "ade": 852,
      "Ġprov": 853,
      "ient": 854,
      "Ġdiffere": 855,
      "Ġwhere": 856,
      "ility": 857,
      "ĊĠĠĠĠĠ": 858,
      "11": 859,
      "Ġcol": 860,
      "}\\": 861,
      "ĠHe": 862,
      "Ġpat": 863,
      "Ġshe": 864,
      "Ġafter": 865,
      "Ġdet": 866,
      "Ġsign": 867,
      "rac": 868,
      "ize": 869,
      "Ġpol": 870,
      "Ċĉĉ": 871,
      "ident": 872,
      "aw": 873,
      "Ġhow": 874,
      "ec": 875,
      "Ġ10": 876,
      "ood": 877,
      "ween": 878,
      "oth": 879,
      "Ġneed": 880,
      "__": 881,
      "der": 882,
      "ss": 883,
      "ffect": 884,
      "olog": 885,
      "ople": 886,
      "the": 887,
      "Ġexp": 888,
      "gr": 889,
      "Ġset": 890,
      "type": 891,
      "ption": 892,
      "Ġthen": 893,
      "Ġcould": 894,
      "ublic": 895,
      "ution": 896,
      "ange": 897,
      "Ġclass": 898,
      "ĊĠĠĠĠĠĠĠĠĠĠĠĠĠĠĠ": 899,
      "Ġ9": 900,
      "](": 901,
      "()": 902,
      "Ġresult": 903,
      "Ġatt": 904,
      "St": 905,
      "Ġbetween": 906,
      "Ġcell": 907,
      "ough": 908,
      "Ġrem": 909,
      "fig": 910,
      "ise": 911,
      "000": 912,
      "right": 913,
      "ious": 914,
      "Ġ\\[": 915,
      "Ġsupp": 916,
      "les": 917,
      "ollow": 918,
      "20": 919,
      ".,": 920,
      "ix": 921,
      "eg": 922,
      "ble": 923,
      "ype": 924,
      "Ċĉ": 925,
      "Ġgrou": 926,
      "Ġ|": 927,
      "up": 928,
      "Ġinclud": 929,
      "Ġused": 930,
      "ible": 931,
      "ax": 932,
      "iel": 933,
      "ER": 934,
      "als": 935,
      "Ġdid": 936,
      "ourt": 937,
      "Ġdata": 938,
      "Ġnum": 939,
      "Ġshow": 940,
      "ues": 941,
      "ons": 942,
      "Ġknow": 943,
      "Ġfl": 944,
      "oy": 945,
      "){": 946,
      "cy": 947,
      "Ġfact": 948,
      "\">": 949,
      "Ġpeople": 950,
      "ract": 951,
      "tern": 952,
      "ull": 953,
      "Ġshould": 954,
      "ics": 955,
      "ox": 956,
      "rough": 957,
      "ning": 958,
      "Ġac": 959,
      "Ġcor": 960,
      "Ġsim": 961,
      "Ġhim": 962,
      "Ġsur": 963,
      "ms": 964,
      "Ġspec": 965,
      "its": 966,
      "hen": 967,
      "****": 968,
      "Ġrequ": 969,
      "Ġfollow": 970,
      "fore": 971,
      "Ġusing": 972,
      "Ġdist": 973,
      "ren": 974,
      "inal": 975,
      "ruct": 976,
      "Ġi": 977,
      "Ġsee": 978,
      "Ġback": 979,
      "Ġbecause": 980,
      "sp": 981,
      "Ġfunction": 982,
      "Ġconst": 983,
      "ined": 984,
      "ield": 985,
      "ful": 986,
      "Ġsystem": 987,
      "ities": 988,
      "Ġmost": 989,
      ")$": 990,
      "li": 991,
      "ever": 992,
      "Ġinst": 993,
      "IN": 994,
      "rit": 995,
      "15": 996,
      "--------------------------------": 997,
      "ĊĠĠĠĠĠĠĠĠĠĠĠĠĠĠĠĠ": 998,
      "ool": 999,
      "pos": 1000,
      "Ġ.": 1001,
      "put": 1002,
      "13": 1003,
      "ited": 1004,
      "Ġend": 1005,
      "Ġsm": 1006,
      "sc": 1007,
      "uring": 1008,
      "ures": 1009,
      "Ġwell": 1010,
      "ins": 1011,
      "16": 1012,
      "\"}": 1013,
      "Ġreturn": 1014,
      "Ġthrough": 1015,
      "Ġprodu": 1016,
      "Ġtest": 1017,
      "Ġright": 1018,
      "Ġtra": 1019,
      "Ġgener": 1020,
      "Ġ[@": 1021,
      "(\\": 1022,
      "ĠUn": 1023,
      "Ġbu": 1024,
      "]{": 1025,
      "Ġagain": 1026,
      "Ġext": 1027,
      "Ġchar": 1028,
      "14": 1029,
      "Ġwant": 1030,
      "hes": 1031,
      "mer": 1032,
      "Ġhigh": 1033,
      "Ġdifferent": 1034,
      "Ġeach": 1035,
      "err": 1036,
      "ized": 1037,
      "ational": 1038,
      "to": 1039,
      "ĠĠĠĠĠ": 1040,
      "ower": 1041,
      "Ġcase": 1042,
      "->": 1043,
      "round": 1044,
      "cond": 1045,
      "Ġstate": 1046,
      "Ġdoes": 1047,
      "imes": 1048,
      "ator": 1049,
      "Ġent": 1050,
      "Ġeffect": 1051,
      "text": 1052,
      "ically": 1053,
      "wn": 1054,
      "io": 1055,
      "ric": 1056,
      "Th": 1057,
      "],": 1058,
      "ĠSe": 1059,
      "25": 1060,
      "ON": 1061,
      "ew": 1062,
      "uch": 1063,
      "other": 1064,
      "ta": 1065,
      "nce": 1066,
      "Ġeven": 1067,
      "riv": 1068,
      "ily": 1069,
      "Ġ200": 1070,
      "Ġmake": 1071,
      "ctions": 1072,
      "par": 1073,
      "cal": 1074,
      "ients": 1075,
      "set": 1076,
      "Ġmin": 1077,
      "ork": 1078,
      "let": 1079,
      "_{\\": 1080,
      "vent": 1081,
      "Ġ@": 1082,
      "rol": 1083,
      "Ġ:": 1084,
      "...": 1085,
      "Ġevery": 1086,
      "uc": 1087,
      "))": 1088,
      "18": 1089,
      "ethod": 1090,
      "Ġke": 1091,
      "Ġcur": 1092,
      "Ġra": 1093,
      "ute": 1094,
      "read": 1095,
      "Ġsame": 1096,
      "Ġcall": 1097,
      "ants": 1098,
      "frac": 1099,
      "ars": 1100,
      "Ġway": 1101,
      "Ġnow": 1102,
      "ger": 1103,
      "Ġanal": 1104,
      "Ġap": 1105,
      "cept": 1106,
      "Ġfind": 1107,
      "Ġdec": 1108,
      "ince": 1109,
      "val": 1110,
      "Ġ/": 1111,
      "Ġdon": 1112,
      "\":": 1113,
      "Ġincre": 1114,
      "aint": 1115,
      "arch": 1116,
      "](#": 1117,
      "Ġpoint": 1118,
      "oci": 1119,
      "ĠĠĠĠĠĠĠĠĠĠĠĠĠĠĠĠĠĠĠĠĠĠĠĠĠĠĠĠĠĠĠĠĠĠĠĠĠĠĠĠĠĠĠĠĠĠĠĠĠĠĠĠĠĠĠĠĠĠĠĠĠĠĠĠ": 1120,
      "Ġlook": 1121,
      "oid": 1122,
      "17": 1123,
      "Ġthose": 1124,
      "str": 1125,
      "ward": 1126,
      "velop": 1127,
      "Ġinte": 1128,
      "Ġlong": 1129,
      "Ġyears": 1130,
      "Ġvery": 1131,
      "Ġ_": 1132,
      "Ġdi": 1133,
      "ug": 1134,
      "ason": 1135,
      "ym": 1136,
      "Ġpartic": 1137,
      "Ġloc": 1138,
      "pr": 1139,
      "ense": 1140,
      "Ġboth": 1141,
      "Ġvari": 1142,
      "Ġhere": 1143,
      "ases": 1144,
      "und": 1145,
      "Ġmon": 1146,
      "rm": 1147,
      "day": 1148,
      "ines": 1149,
      "cent": 1150,
      "rent": 1151,
      "irect": 1152,
      "AT": 1153,
      "rest": 1154,
      "Ġaut": 1155,
      "Ġmat": 1156,
      "ample": 1157,
      "Ġfound": 1158,
      "Ġ//": 1159,
      "Ġbel": 1160,
      "Ġbeing": 1161,
      "atic": 1162,
      "ting": 1163,
      "air": 1164,
      "yp": 1165,
      "Ġtri": 1166,
      "$\\": 1167,
      "Ġmed": 1168,
      "Ġexper": 1169,
      "led": 1170,
      "?\"": 1171,
      "Ġappro": 1172,
      "Ġpers": 1173,
      "Ġpar": 1174,
      "::": 1175,
      "ages": 1176,
      "Ġmany": 1177,
      "Ġplay": 1178,
      "Ġbefore": 1179,
      "ife": 1180,
      "]{}": 1181,
      "32": 1182,
      "ng": 1183,
      "ices": 1184,
      "ĠCom": 1185,
      "It": 1186,
      "ared": 1187,
      "alth": 1188,
      "Ġnumber": 1189,
      "Ġfil": 1190,
      "]\\]": 1191,
      "ĠQ": 1192,
      "over": 1193,
      "Ġmem": 1194,
      "âĢī": 1195,
      "Ġgr": 1196,
      "Ġ**": 1197,
      "Ġprote": 1198,
      "tr": 1199,
      "Ġser": 1200,
      "ature": 1201,
      "50": 1202,
      "30": 1203,
      "app": 1204,
      "Ġx": 1205,
      "cer": 1206,
      "Ġel": 1207,
      "Ġcar": 1208,
      "Ġpublic": 1209,
      "ES": 1210,
      "ified": 1211,
      "AR": 1212,
      "aking": 1213,
      "Ġop": 1214,
      "sh": 1215,
      "of": 1216,
      "min": 1217,
      "Ġrespon": 1218,
      "}{": 1219,
      "ateg": 1220,
      "left": 1221,
      "ody": 1222,
      "ner": 1223,
      "Ġgu": 1224,
      "Ġthink": 1225,
      "Ġhel": 1226,
      "formation": 1227,
      "Ġche": 1228,
      "ĠĠĠĠĠĠ": 1229,
      "Ġins": 1230,
      "Ġstr": 1231,
      "eng": 1232,
      "ression": 1233,
      "Ġgood": 1234,
      "We": 1235,
      "ale": 1236,
      "ĊĊĠĠĠ": 1237,
      "Ġ12": 1238,
      "Ġprocess": 1239,
      "ave": 1240,
      "yl": 1241,
      "ash": 1242,
      "Ġdown": 1243,
      "Ġinf": 1244,
      "Ġrep": 1245,
      "upp": 1246,
      "Ġmodel": 1247,
      "ĠFor": 1248,
      "ank": 1249,
      "Ġmade": 1250,
      "Ġvalue": 1251,
      "Ġreport": 1252,
      "ĠâĢĵ": 1253,
      "ively": 1254,
      "Ġcourt": 1255,
      "ism": 1256,
      "ness": 1257,
      "ually": 1258,
      "line": 1259,
      "ven": 1260,
      "Ġ\\[[@": 1261,
      "Ġwhile": 1262,
      "Ġlevel": 1263,
      "ired": 1264,
      "view": 1265,
      "Ġgiv": 1266,
      "Ġstudy": 1267,
      "://": 1268,
      "Ġsol": 1269,
      "mathb": 1270,
      "gg": 1271,
      "NA": 1272,
      "Ġpresent": 1273,
      "ved": 1274,
      "Ġdevelop": 1275,
      "24": 1276,
      "',": 1277,
      "mon": 1278,
      "Ġstart": 1279,
      "ument": 1280,
      "ĠLet": 1281,
      "201": 1282,
      "way": 1283,
      "ained": 1284,
      "Ġlar": 1285,
      "Ġsupport": 1286,
      "OR": 1287,
      ",\\": 1288,
      "ght": 1289,
      "dition": 1290,
      "Ġref": 1291,
      "Ġcount": 1292,
      "---": 1293,
      "Ġdisc": 1294,
      "Ġsecond": 1295,
      "CR": 1296,
      "Ġmuch": 1297,
      "ret": 1298,
      "$,": 1299,
      "Ġequ": 1300,
      "ĠÂ": 1301,
      "cul": 1302,
      "Ġown": 1303,
      "ams": 1304,
      ".âĢĿ": 1305,
      "erg": 1306,
      "ision": 1307,
      "Ġhand": 1308,
      "ĠPro": 1309,
      "ĠRe": 1310,
      "ole": 1311,
      "Ġserv": 1312,
      "0000": 1313,
      "Ġterm": 1314,
      "igned": 1315,
      "Ġthree": 1316,
      "man": 1317,
      "(\"": 1318,
      "ization": 1319,
      "Ġread": 1320,
      "ĠIf": 1321,
      "Ġnon": 1322,
      "ĠAl": 1323,
      "ray": 1324,
      "Ġpatients": 1325,
      "Ġest": 1326,
      "ider": 1327,
      "lement": 1328,
      "$.": 1329,
      "gan": 1330,
      "ality": 1331,
      "ffic": 1332,
      "Ġdep": 1333,
      "oad": 1334,
      "Ġet": 1335,
      "use": 1336,
      "Ġmethod": 1337,
      "Ġposs": 1338,
      "uss": 1339,
      "Ġwithout": 1340,
      "Ġant": 1341,
      "Ġduring": 1342,
      "Ġorder": 1343,
      "amp": 1344,
      "Ġcells": 1345,
      "abel": 1346,
      "oun": 1347,
      "ency": 1348,
      "ential": 1349,
      "ĠAs": 1350,
      "cri": 1351,
      ",\"": 1352,
      "Ġname": 1353,
      "ton": 1354,
      "any": 1355,
      "med": 1356,
      "What": 1357,
      "80": 1358,
      "eta": 1359,
      "arly": 1360,
      "Ġ20": 1361,
      "ource": 1362,
      "ĠAnd": 1363,
      "Ġactiv": 1364,
      "Ġhelp": 1365,
      "Ġcre": 1366,
      "not": 1367,
      "Ġline": 1368,
      "ided": 1369,
      "EN": 1370,
      "ists": 1371,
      "idence": 1372,
      "ify": 1373,
      "Ġgroup": 1374,
      "amb": 1375,
      "Ġimport": 1376,
      "Ġproper": 1377,
      "Re": 1378,
      "Ġperform": 1379,
      "ĠHow": 1380,
      "name": 1381,
      "tt": 1382,
      "ST": 1383,
      "22": 1384,
      "cial": 1385,
      "IT": 1386,
      "ah": 1387,
      "ather": 1388,
      "Ġlast": 1389,
      "be": 1390,
      "ĠAn": 1391,
      "Ġcle": 1392,
      "ability": 1393,
      "40": 1394,
      "Ġproble": 1395,
      "Ġlead": 1396,
      "alk": 1397,
      "ters": 1398,
      "ouse": 1399,
      "Ġav": 1400,
      "Ġsay": 1401,
      "Ġrun": 1402,
      "raph": 1403,
      "ving": 1404,
      "Ġz": 1405,
      "Ġagainst": 1406,
      "ĠBut": 1407,
      "ww": 1408,
      "99": 1409,
      "Ġsmall": 1410,
      "ane": 1411,
      "ron": 1412,
      "Ġiss": 1413,
      "Ġgl": 1414,
      "ulation": 1415,
      "Ġoper": 1416,
      "ames": 1417,
      "Ġsignific": 1418,
      "(-": 1419,
      "Ġlet": 1420,
      "Ġconf": 1421,
      "Ġmust": 1422,
      "23": 1423,
      "ross": 1424,
      "Ġtake": 1425,
      "hip": 1426,
      "Ġtype": 1427,
      "\\[": 1428,
      "Ġstill": 1429,
      "Ġcontrol": 1430,
      "aim": 1431,
      "acter": 1432,
      "Ġchild": 1433,
      "Ġperson": 1434,
      "ann": 1435,
      "Ġlaw": 1436,
      "ots": 1437,
      "itive": 1438,
      "ml": 1439,
      "Ġpur": 1440,
      "Ġappe": 1441,
      "ĠYou": 1442,
      "Ġmet": 1443,
      "Con": 1444,
      "Ġsom": 1445,
      "ention": 1446,
      "Ġexpl": 1447,
      "Let": 1448,
      "oh": 1449,
      "Ġ15": 1450,
      "irc": 1451,
      "pha": 1452,
      "Ġinformation": 1453,
      "rt": 1454,
      "Ġ,": 1455,
      "();": 1456,
      "Ġdirect": 1457,
      "Ġday": 1458,
      "ysis": 1459,
      "serv": 1460,
      "He": 1461,
      "ek": 1462,
      "ier": 1463,
      "Ġcent": 1464,
      "ds": 1465,
      "33": 1466,
      "Ġinc": 1467,
      "AL": 1468,
      "Fig": 1469,
      "ÃĲ": 1470,
      "âĢľ": 1471,
      "Ġfin": 1472,
      "AN": 1473,
      "urther": 1474,
      "Ġed": 1475,
      "Ġquest": 1476,
      "atch": 1477,
      "chn": 1478,
      "less": 1479,
      "me": 1480,
      "yn": 1481,
      "ination": 1482,
      "64": 1483,
      "].": 1484,
      "ology": 1485,
      "Ġpost": 1486,
      "Ġfam": 1487,
      "Ġtreat": 1488,
      "60": 1489,
      "mathcal": 1490,
      "ides": 1491,
      "Ġresults": 1492,
      "Ex": 1493,
      "Ġident": 1494,
      "Ġstand": 1495,
      "vious": 1496,
      "Ġmeas": 1497,
      "ĊĠĠ": 1498,
      ")\\": 1499,
      "ote": 1500,
      "Ġsignificant": 1501,
      "200": 1502,
      "ets": 1503,
      "Ġelect": 1504,
      "Ġca": 1505,
      "oot": 1506,
      "ience": 1507,
      "ission": 1508,
      "da": 1509,
      "Ġfollowing": 1510,
      "This": 1511,
      "for": 1512,
      "Ġerr": 1513,
      "htt": 1514,
      "agn": 1515,
      "Ġbre": 1516,
      "Pro": 1517,
      "Ġmult": 1518,
      "ium": 1519,
      "work": 1520,
      "eral": 1521,
      "ital": 1522,
      "Ġ18": 1523,
      "duct": 1524,
      "ration": 1525,
      "ĠNew": 1526,
      "Ġdeterm": 1527,
      "ately": 1528,
      "land": 1529,
      "ral": 1530,
      "Ġgoing": 1531,
      "Ġallow": 1532,
      "ĠTr": 1533,
      "ording": 1534,
      "aj": 1535,
      "meric": 1536,
      "27": 1537,
      "Ġcontin": 1538,
      "ĠDe": 1539,
      "ains": 1540,
      "Ġlim": 1541,
      "Ġcondition": 1542,
      "ior": 1543,
      "ished": 1544,
      "ploy": 1545,
      "================": 1546,
      "}(": 1547,
      "aterial": 1548,
      "ured": 1549,
      "Ġcare": 1550,
      "Ġfr": 1551,
      "Ġwithin": 1552,
      "Ġ*/": 1553,
      "CT": 1554,
      "iff": 1555,
      "ural": 1556,
      "ule": 1557,
      "son": 1558,
      "Ġsince": 1559,
      "Ġreal": 1560,
      "Ġlife": 1561,
      "Ġaround": 1562,
      "Ġrece": 1563,
      "âĢĵ": 1564,
      "bl": 1565,
      "Ġstat": 1566,
      "ional": 1567,
      "Ġwr": 1568,
      "'m": 1569,
      "Ġworld": 1570,
      "Ġhum": 1571,
      "def": 1572,
      "ivers": 1573,
      "Ġredu": 1574,
      "Ġcurrent": 1575,
      "Ġdev": 1576,
      "az": 1577,
      "Ġinterest": 1578,
      "ackage": 1579,
      "Ã©": 1580,
      "35": 1581,
      "ĠX": 1582,
      "gen": 1583,
      "28": 1584,
      "alpha": 1585,
      "Ġaddition": 1586,
      "Ġhealth": 1587,
      "que": 1588,
      "Ġstruct": 1589,
      "ently": 1590,
      "ĠWh": 1591,
      "Ġgover": 1592,
      "ID": 1593,
      "ived": 1594,
      "chool": 1595,
      "SE": 1596,
      "Ġanother": 1597,
      "akes": 1598,
      "Ġ#": 1599,
      "ond": 1600,
      "Ġpass": 1601,
      "Ġmark": 1602,
      ",âĢĿ": 1603,
      "34": 1604,
      "self": 1605,
      "Ġinvest": 1606,
      "ott": 1607,
      "resent": 1608,
      "Ġ14": 1609,
      "Ġopen": 1610,
      "Ġtry": 1611,
      "crib": 1612,
      "arent": 1613,
      "lex": 1614,
      "Ġcr": 1615,
      "Ġ</": 1616,
      "Ġarg": 1617,
      "âĢĶ": 1618,
      "br": 1619,
      "Ġself": 1620,
      "ts": 1621,
      "Ġfield": 1622,
      "Ġgreat": 1623,
      "amet": 1624,
      "Ġdel": 1625,
      "Ġcommun": 1626,
      "bers": 1627,
      "Ġlist": 1628,
      "Ġexample": 1629,
      "####": 1630,
      "ives": 1631,
      "arg": 1632,
      "Ġimp": 1633,
      "ves": 1634,
      "You": 1635,
      "Ġpower": 1636,
      "ither": 1637,
      "gram": 1638,
      "rel": 1639,
      "dd": 1640,
      "Ġincluding": 1641,
      "]\\].": 1642,
      "37": 1643,
      "********": 1644,
      "ĠZ": 1645,
      "ĊĊĠ": 1646,
      "ways": 1647,
      "Ġocc": 1648,
      "LE": 1649,
      "face": 1650,
      "Ġtoo": 1651,
      "Ġmean": 1652,
      "sec": 1653,
      "ething": 1654,
      "Ġbeh": 1655,
      "Ġclaim": 1656,
      "Ġmight": 1657,
      "Ġsl": 1658,
      "Ġgiven": 1659,
      "ury": 1660,
      "Ġhead": 1661,
      "ĠCon": 1662,
      "Ġrespect": 1663,
      "Ġtem": 1664,
      "here": 1665,
      "arn": 1666,
      "05": 1667,
      "ribut": 1668,
      "Ġbas": 1669,
      "26": 1670,
      "Ġart": 1671,
      "ably": 1672,
      "arget": 1673,
      "ĠCl": 1674,
      "Ġreally": 1675,
      "^{\\": 1676,
      "ĠIs": 1677,
      "ĠSh": 1678,
      "Ġchang": 1679,
      "Ġgovern": 1680,
      "Ġassoci": 1681,
      "29": 1682,
      "Ġplace": 1683,
      "ope": 1684,
      "Ġ16": 1685,
      "Ch": 1686,
      "ump": 1687,
      "lection": 1688,
      "iness": 1689,
      "ĠHowever": 1690,
      "Ġless": 1691,
      "ining": 1692,
      "arm": 1693,
      "hor": 1694,
      "ĠAmeric": 1695,
      "Ġpot": 1696,
      "ĠThey": 1697,
      "stand": 1698,
      "Ġ{#": 1699,
      "lease": 1700,
      "Ġadv": 1701,
      "ought": 1702,
      "Ġhig": 1703,
      "ength": 1704,
      "RE": 1705,
      "Ġfile": 1706,
      "Ġ$$\\": 1707,
      "yt": 1708,
      "Ġlow": 1709,
      "Ġhapp": 1710,
      "ends": 1711,
      "38": 1712,
      "ference": 1713,
      "fer": 1714,
      "roll": 1715,
      "Ġhome": 1716,
      "Ġbased": 1717,
      "Ġ--": 1718,
      "Ġvis": 1719,
      "Ġmonth": 1720,
      "ety": 1721,
      "Ġapplic": 1722,
      "Ġtop": 1723,
      "ery": 1724,
      "ãģ": 1725,
      "36": 1726,
      "ategory": 1727,
      "icro": 1728,
      "aining": 1729,
      "Ġcap": 1730,
      "ivid": 1731,
      "ault": 1732,
      "'re": 1733,
      "Ġwom": 1734,
      "alse": 1735,
      "rap": 1736,
      "reg": 1737,
      "vert": 1738,
      "Ġve": 1739,
      "thing": 1740,
      "Ġfew": 1741,
      "Ġobject": 1742,
      "Ġgrow": 1743,
      "ocument": 1744,
      "Ġprob": 1745,
      "att": 1746,
      "Ġbus": 1747,
      "Ġcal": 1748,
      "elta": 1749,
      "ĠĠĠĠĠĠĠĠĠĠĠĠĠĠĠĠĠĠĠĠĠĠĠĠ": 1750,
      "21": 1751,
      "ĠNo": 1752,
      "Ġbest": 1753,
      "Ġanalysis": 1754,
      "('": 1755,
      "Ġindic": 1756,
      "Ġsing": 1757,
      "Ġpop": 1758,
      "ittle": 1759,
      "osed": 1760,
      "Ġobserv": 1761,
      "Ġmot": 1762,
      "Ġnext": 1763,
      "ĠâĢĶ": 1764,
      "âĪ": 1765,
      "leg": 1766,
      "IC": 1767,
      "Ġimportant": 1768,
      "by": 1769,
      "Ġtechn": 1770,
      "75": 1771,
      "ised": 1772,
      "AS": 1773,
      "mb": 1774,
      "Ġevidence": 1775,
      "Ġsomething": 1776,
      "els": 1777,
      "oss": 1778,
      "Ġpath": 1779,
      "ambda": 1780,
      "Ġleft": 1781,
      "Ġobt": 1782,
      "Cl": 1783,
      "ext": 1784,
      "45": 1785,
      "Ġfour": 1786,
      "Ġwhether": 1787,
      "Ġopt": 1788,
      "$$": 1789,
      "Ġcommon": 1790,
      "bs": 1791,
      "Ġproduct": 1792,
      "Ġchange": 1793,
      "requ": 1794,
      "90": 1795,
      "che": 1796,
      "cur": 1797,
      "ĠPh": 1798,
      "abl": 1799,
      "Ġbo": 1800,
      "Ġput": 1801,
      "Ġbelie": 1802,
      "inf": 1803,
      "ĠLe": 1804,
      "ertain": 1805,
      "Ġleg": 1806,
      "plic": 1807,
      "Ġsugg": 1808,
      "cing": 1809,
      "Ġsuggest": 1810,
      "ik": 1811,
      "ware": 1812,
      "95": 1813,
      "Ġview": 1814,
      "Ġseem": 1815,
      "ĠThere": 1816,
      "ification": 1817,
      "Ġfail": 1818,
      "Ġexpect": 1819,
      "Ġparticular": 1820,
      "ĠInd": 1821,
      "Ġprof": 1822,
      "used": 1823,
      "ĠWhat": 1824,
      "label": 1825,
      "Ġ30": 1826,
      "AC": 1827,
      "por": 1828,
      "hib": 1829,
      "amma": 1830,
      ")/": 1831,
      "Ġnever": 1832,
      "add": 1833,
      "ccess": 1834,
      "action": 1835,
      "mun": 1836,
      "Ġlight": 1837,
      "70": 1838,
      "col": 1839,
      "opy": 1840,
      "cont": 1841,
      "version": 1842,
      "},": 1843,
      "ĠEx": 1844,
      "Com": 1845,
      "Ġunt": 1846,
      "Ġinvol": 1847,
      "div": 1848,
      "rop": 1849,
      "Ġdescrib": 1850,
      "Ġconne": 1851,
      "Ġask": 1852,
      "Ġbetter": 1853,
      "ples": 1854,
      "Ġturn": 1855,
      "mu": 1856,
      "Ġsit": 1857,
      "Ġabove": 1858,
      "lu": 1859,
      "new": 1860,
      "ĠSo": 1861,
      "Ġlarge": 1862,
      "To": 1863,
      "Ġwater": 1864,
      "ended": 1865,
      "ene": 1866,
      "mathbb": 1867,
      "Ġ11": 1868,
      "part": 1869,
      "ending": 1870,
      "ered": 1871,
      "Ġproblem": 1872,
      "Ġbi": 1873,
      "Ġsk": 1874,
      "Ġtrue": 1875,
      "Ġreason": 1876,
      "As": 1877,
      "ilar": 1878,
      "co": 1879,
      "ird": 1880,
      "Ġrese": 1881,
      "egin": 1882,
      "Ġ{\\": 1883,
      "ormal": 1884,
      "ĠPl": 1885,
      "Ġeas": 1886,
      "orn": 1887,
      "IS": 1888,
      "ser": 1889,
      "Name": 1890,
      "igma": 1891,
      "Ġconsider": 1892,
      "pi": 1893,
      "ats": 1894,
      "Ġtreatment": 1895,
      "Ġleast": 1896,
      "Ġlittle": 1897,
      "Ġsize": 1898,
      "ED": 1899,
      "Ġpossible": 1900,
      "ĠShe": 1901,
      "ailable": 1902,
      "Ġgot": 1903,
      "ĠAll": 1904,
      "Ġlocal": 1905,
      "}_": 1906,
      "48": 1907,
      "ask": 1908,
      "ho": 1909,
      "Ġposition": 1910,
      "Ġcome": 1911,
      "Ġthings": 1912,
      "}^{": 1913,
      "Ġtot": 1914,
      "!\"": 1915,
      "=\\": 1916,
      "Ġris": 1917,
      "ĊĠĠĠĠĠĠĠĠĠ": 1918,
      "Ġdue": 1919,
      "Ġopp": 1920,
      "Ġbuild": 1921,
      "Ġpay": 1922,
      "Ġmov": 1923,
      "Ġimpro": 1924,
      "Ġcharacter": 1925,
      "____": 1926,
      "ividual": 1927,
      "Ġtyp": 1928,
      "rain": 1929,
      "Ġide": 1930,
      "ĠUS": 1931,
      "Ġrepresent": 1932,
      "back": 1933,
      "Ġ==": 1934,
      "illion": 1935,
      "Ġinit": 1936,
      "epend": 1937,
      "39": 1938,
      "ina": 1939,
      "Ġfree": 1940,
      "package": 1941,
      "Ġhy": 1942,
      "HE": 1943,
      "ush": 1944,
      "Ġrest": 1945,
      "data": 1946,
      "iron": 1947,
      "play": 1948,
      "):": 1949,
      "icle": 1950,
      "Ġ17": 1951,
      "aring": 1952,
      "Ġelse": 1953,
      "Ġold": 1954,
      "ajor": 1955,
      "ances": 1956,
      "Ġbig": 1957,
      "Ġquestion": 1958,
      "ĠTo": 1959,
      "idth": 1960,
      "Ġdefend": 1961,
      "Ġsever": 1962,
      "nal": 1963,
      "čĊ": 1964,
      "iod": 1965,
      "Ġhaving": 1966,
      "Ġdays": 1967,
      "Ġshown": 1968,
      "Ġoffic": 1969,
      "Ġgive": 1970,
      "ĠOn": 1971,
      "Ġhuman": 1972,
      "Ġrecord": 1973,
      "ological": 1974,
      "Ġfurther": 1975,
      "sum": 1976,
      "imal": 1977,
      "Ġbr": 1978,
      "Ġorgan": 1979,
      "begin": 1980,
      "aps": 1981,
      "Ġbro": 1982,
      "Ġgame": 1983,
      "Ġes": 1984,
      "];": 1985,
      "Ġtrial": 1986,
      "Ġgre": 1987,
      "}_{": 1988,
      "Ġprom": 1989,
      "Ġ25": 1990,
      "org": 1991,
      "Ġgovernment": 1992,
      "ĠApp": 1993,
      "Ġnet": 1994,
      "mod": 1995,
      "Ġprogram": 1996,
      "ergy": 1997,
      "Ġhist": 1998,
      "Ġweek": 1999,
      "Ġsum": 2000,
      "âĪĴ": 2001,
      "Ġemploy": 2002,
      "ĠState": 2003,
      "Ġcode": 2004,
      "atory": 2005,
      "ctor": 2006,
      "ĊĠĠĠĠĠĠĠĠĠĠĠĠĠĠĠĠĠĠĠ": 2007,
      "Ġprevious": 2008,
      "ream": 2009,
      "Se": 2010,
      "44": 2011,
      "etic": 2012,
      "bar": 2013,
      "Ġkeep": 2014,
      "65": 2015,
      "ns": 2016,
      "If": 2017,
      "ead": 2018,
      "Ġjud": 2019,
      "aut": 2020,
      "Ġexpression": 2021,
      "Ġhard": 2022,
      "Ġindividual": 2023,
      "Ġfeel": 2024,
      "Ġden": 2025,
      "Ġprovide": 2026,
      "Ġpa": 2027,
      "Ġcost": 2028,
      "Id": 2029,
      "Ġalways": 2030,
      "88": 2031,
      "itor": 2032,
      "Type": 2033,
      "Ġmain": 2034,
      "AP": 2035,
      "sel": 2036,
      "Ġ)": 2037,
      "inc": 2038,
      "Ġpotential": 2039,
      "Ġeither": 2040,
      "ĠAd": 2041,
      "ern": 2042,
      "Ġsw": 2043,
      "Ġknown": 2044,
      "Ġcalled": 2045,
      "Ġpriv": 2046,
      "uro": 2047,
      "RO": 2048,
      "Ġrad": 2049,
      "angle": 2050,
      "Ġdiv": 2051,
      "Ġ!": 2052,
      "But": 2053,
      "Ġsimilar": 2054,
      "Ġschool": 2055,
      "ĠThese": 2056,
      "Ġpred": 2057,
      "Ġcho": 2058,
      "ours": 2059,
      "iple": 2060,
      "usion": 2061,
      "ĠCourt": 2062,
      "Ġuntil": 2063,
      "Ġavailable": 2064,
      "ĠUnited": 2065,
      "Ġfamily": 2066,
      "phi": 2067,
      "Ġcomb": 2068,
      "though": 2069,
      "Ġwon": 2070,
      "Ġgeneral": 2071,
      "uck": 2072,
      "lev": 2073,
      "ception": 2074,
      "itle": 2075,
      "opt": 2076,
      "ocial": 2077,
      "Ġside": 2078,
      "raw": 2079,
      "Ġsingle": 2080,
      "clude": 2081,
      "Category": 2082,
      "Ġvol": 2083,
      "Ġfac": 2084,
      "uff": 2085,
      "ental": 2086,
      "Ġben": 2087,
      "LL": 2088,
      "aligned": 2089,
      "Ġteam": 2090,
      "Ġdise": 2091,
      "ĊĊĠĠĠĠĠĠĠ": 2092,
      "Ġmeans": 2093,
      "}$$": 2094,
      "Ġaction": 2095,
      "class": 2096,
      "ĠRes": 2097,
      "ready": 2098,
      "oney": 2099,
      "And": 2100,
      "Ġlik": 2101,
      "Ġspecific": 2102,
      "yle": 2103,
      "Ġproject": 2104,
      "Ġ13": 2105,
      "Ġphys": 2106,
      "ĠFr": 2107,
      "66": 2108,
      "Ġvalues": 2109,
      "Ġplan": 2110,
      "Ġ%": 2111,
      "var": 2112,
      "oor": 2113,
      "For": 2114,
      "Ġcases": 2115,
      "Ġable": 2116,
      "ten": 2117,
      "ison": 2118,
      "Ġchildren": 2119,
      "mit": 2120,
      "Ġsequ": 2121,
      "import": 2122,
      "Ġmajor": 2123,
      "Ġtimes": 2124,
      "itted": 2125,
      "98": 2126,
      "Ġseveral": 2127,
      "Ġmaterial": 2128,
      "Ġcirc": 2129,
      "pone": 2130,
      "ĠCol": 2131,
      "ourse": 2132,
      "ries": 2133,
      "roup": 2134,
      "Ġorig": 2135,
      "Ġhold": 2136,
      "oper": 2137,
      "Ġunderstand": 2138,
      "String": 2139,
      "iversity": 2140,
      "osp": 2141,
      "Ġder": 2142,
      "cript": 2143,
      "Ġsuper": 2144,
      "Ġhigher": 2145,
      "respon": 2146,
      "Ġtre": 2147,
      "usepackage": 2148,
      "Ġkey": 2149,
      "ĠThat": 2150,
      "ember": 2151,
      "ĠĠĠĠĠĠĠĠĠĠĠ": 2152,
      "Ġ100": 2153,
      "lambda": 2154,
      "key": 2155,
      "ressed": 2156,
      "ĠSc": 2157,
      "77": 2158,
      "Ġarea": 2159,
      "100": 2160,
      "essage": 2161,
      "Ġstudies": 2162,
      "Ġabs": 2163,
      "pped": 2164,
      "Ġ>": 2165,
      "indow": 2166,
      "Ġtarget": 2167,
      "Ġbody": 2168,
      "'ve": 2169,
      "rict": 2170,
      "gment": 2171,
      "ney": 2172,
      "cle": 2173,
      "ystem": 2174,
      "http": 2175,
      "this": 2176,
      "iol": 2177,
      "Ġmove": 2178,
      "^{-": 2179,
      "iting": 2180,
      "ored": 2181,
      "94": 2182,
      "Ġ24": 2183,
      "ET": 2184,
      "><": 2185,
      "ION": 2186,
      "Ġfull": 2187,
      "lected": 2188,
      "span": 2189,
      "Ġrate": 2190,
      "Ġperiod": 2191,
      "An": 2192,
      "Ġwhy": 2193,
      "sub": 2194,
      "Ġerror": 2195,
      "96": 2196,
      "idd": 2197,
      "_\\": 2198,
      "conom": 2199,
      "})": 2200,
      "Ġtotal": 2201,
      "Res": 2202,
      "ĠÃ": 2203,
      "Ċĉĉĉ": 2204,
      "Ġstandard": 2205,
      "mm": 2206,
      "ences": 2207,
      "mission": 2208,
      "Ġenergy": 2209,
      "Ċĉĉĉĉ": 2210,
      "04": 2211,
      "Ġbusiness": 2212,
      "}^": 2213,
      "97": 2214,
      "ume": 2215,
      "Ġneg": 2216,
      "Tr": 2217,
      "fficient": 2218,
      "Ġaccess": 2219,
      "eps": 2220,
      "Ġexist": 2221,
      "ustom": 2222,
      "hy": 2223,
      "Ġlater": 2224,
      "rior": 2225,
      "utes": 2226,
      "rug": 2227,
      "Ġlot": 2228,
      "ering": 2229,
      "ids": 2230,
      "ling": 2231,
      "ĠStates": 2232,
      "Ġspace": 2233,
      "Ġfar": 2234,
      "Ġreview": 2235,
      "Ġla": 2236,
      "pm": 2237,
      "ĠAr": 2238,
      "iction": 2239,
      "{{\\": 2240,
      "empt": 2241,
      "Ġsure": 2242,
      "Ġdiff": 2243,
      "string": 2244,
      "Ġprim": 2245,
      "ler": 2246,
      "ift": 2247,
      "time": 2248,
      "Ġ`": 2249,
      "ables": 2250,
      "Ġalready": 2251,
      "aintiff": 2252,
      "Ġfinal": 2253,
      "ged": 2254,
      "Ġdidn": 2255,
      "AD": 2256,
      "ister": 2257,
      "AM": 2258,
      "ibility": 2259,
      "Ġinvestig": 2260,
      "Ġshort": 2261,
      "ĠSp": 2262,
      "55": 2263,
      "Ġdiscuss": 2264,
      "Ġcrit": 2265,
      "ued": 2266,
      "sw": 2267,
      "Ġreported": 2268,
      "ĠAt": 2269,
      "Ġamong": 2270,
      "verage": 2271,
      "go": 2272,
      "Ġassociated": 2273,
      "ĠWhen": 2274,
      "ayer": 2275,
      "qrt": 2276,
      "cription": 2277,
      "Ġmass": 2278,
      "Ġlevels": 2279,
      "urs": 2280,
      "outh": 2281,
      "....": 2282,
      "test": 2283,
      "ĠCal": 2284,
      "OU": 2285,
      "Ġstrong": 2286,
      "ape": 2287,
      "alf": 2288,
      "Ġthought": 2289,
      "olution": 2290,
      "aken": 2291,
      "Ġpract": 2292,
      "Ġresponse": 2293,
      "Ġcertain": 2294,
      "iving": 2295,
      "Ġsent": 2296,
      "FF": 2297,
      "Ġmen": 2298,
      "Ġalong": 2299,
      "chan": 2300,
      "viron": 2301,
      "place": 2302,
      "nces": 2303,
      "ators": 2304,
      "Ġinj": 2305,
      "cd": 2306,
      "Ġparamet": 2307,
      "ivity": 2308,
      "side": 2309,
      "Ġamount": 2310,
      "ava": 2311,
      "////": 2312,
      "31": 2313,
      "Ġsubject": 2314,
      "asing": 2315,
      "Ġrequired": 2316,
      "Ġdone": 2317,
      "Ġwomen": 2318,
      "uppose": 2319,
      "ĠBl": 2320,
      "'ll": 2321,
      "mathbf": 2322,
      "Ġaway": 2323,
      "Ġsays": 2324,
      "Ġexperim": 2325,
      "../": 2326,
      "Ġpercent": 2327,
      "table": 2328,
      "Ġfri": 2329,
      "Ġissue": 2330,
      "List": 2331,
      "Ġ${\\": 2332,
      "Ġpress": 2333,
      "rist": 2334,
      "return": 2335,
      "Ġdom": 2336,
      "sequ": 2337,
      "rect": 2338,
      "ograph": 2339,
      "ey": 2340,
      "Ġid": 2341,
      "85": 2342,
      "Ġdesign": 2343,
      "II": 2344,
      "Val": 2345,
      "td": 2346,
      "Ġoften": 2347,
      "icy": 2348,
      "Ġrequire": 2349,
      "Ġlog": 2350,
      "Ġterms": 2351,
      "uation": 2352,
      "Ġactivity": 2353,
      "ilon": 2354,
      "ogn": 2355,
      "Cont": 2356,
      "IG": 2357,
      "ension": 2358,
      "Ġ=>": 2359,
      "rem": 2360,
      "ands": 2361,
      "Ġ50": 2362,
      "amples": 2363,
      "67": 2364,
      "Ġdevelopment": 2365,
      "ribution": 2366,
      "Ġtell": 2367,
      "ique": 2368,
      "osis": 2369,
      "Ġgroups": 2370,
      "iver": 2371,
      "Ġfore": 2372,
      "Ġport": 2373,
      "Ġhowever": 2374,
      "Ġdr": 2375,
      "orth": 2376,
      "ĠCo": 2377,
      "aster": 2378,
      "Ġage": 2379,
      "Ġwar": 2380,
      "Ġthing": 2381,
      "\")": 2382,
      "Ġevent": 2383,
      "Ġsens": 2384,
      "Ġsuccess": 2385,
      "Ġpolit": 2386,
      "Ġcheck": 2387,
      "lete": 2388,
      "eb": 2389,
      "-\\": 2390,
      "ga": 2391,
      "Ġvir": 2392,
      "stit": 2393,
      "ising": 2394,
      "Ġsal": 2395,
      "></": 2396,
      "beta": 2397,
      "Ġkind": 2398,
      "Ġenough": 2399,
      "Ġcourse": 2400,
      "Ġenc": 2401,
      "Ġaccount": 2402,
      "Ġsat": 2403,
      "acy": 2404,
      "ched": 2405,
      "arrow": 2406,
      "Ġtold": 2407,
      "Ġlower": 2408,
      "fl": 2409,
      "Ġrisk": 2410,
      "ĠĠĠĠĠĠĠĠĠ": 2411,
      "Ġthough": 2412,
      "ources": 2413,
      "ley": 2414,
      "68": 2415,
      "ohn": 2416,
      "Ġcompared": 2417,
      "Ġmicro": 2418,
      "Ġeng": 2419,
      "Ġcoun": 2420,
      "Ġstring": 2421,
      "ories": 2422,
      "Ġfund": 2423,
      "Ġrelations": 2424,
      "----------------------------------------------------------------": 2425,
      "Ġaff": 2426,
      "Ġcou": 2427,
      "date": 2428,
      "ING": 2429,
      "DE": 2430,
      "Is": 2431,
      "Ġbase": 2432,
      "OT": 2433,
      "Ġprovided": 2434,
      "sigma": 2435,
      "Ġmaking": 2436,
      "Ġaccording": 2437,
      "aces": 2438,
      "omet": 2439,
      "Ġinclude": 2440,
      "ores": 2441,
      "angu": 2442,
      "ĠOr": 2443,
      "Ġworking": 2444,
      "Col": 2445,
      "Ġvoid": 2446,
      "Ġnecess": 2447,
      "How": 2448,
      "Ġupon": 2449,
      "gin": 2450,
      "Ġconditions": 2451,
      "pecial": 2452,
      "âĢ¦": 2453,
      "order": 2454,
      "Ġ([": 2455,
      "Ġagree": 2456,
      "Ġrole": 2457,
      "Ġtext": 2458,
      "Ġbit": 2459,
      "Ġfood": 2460,
      "na": 2461,
      "ding": 2462,
      "ival": 2463,
      "AG": 2464,
      "Ġresearch": 2465,
      "ges": 2466,
      "Ġauthor": 2467,
      "Al": 2468,
      "Ġsection": 2469,
      "cret": 2470,
      "Ġuser": 2471,
      "]).": 2472,
      "Ġincrease": 2473,
      "Ġrange": 2474,
      "uture": 2475,
      "Ġeffects": 2476,
      "47": 2477,
      "Ġseen": 2478,
      "ubl": 2479,
      "Ġchanges": 2480,
      "vironment": 2481,
      "inter": 2482,
      "code": 2483,
      "ung": 2484,
      "html": 2485,
      "most": 2486,
      "Ġdoesn": 2487,
      "ache": 2488,
      "Ġdou": 2489,
      "Ġrespons": 2490,
      "ibr": 2491,
      "ession": 2492,
      "ties": 2493,
      "atures": 2494,
      "ij": 2495,
      "Ġ([@": 2496,
      "02": 2497,
      "Ġtax": 2498,
      "Ġtoget": 2499,
      "Ġdem": 2500,
      "Ġtogether": 2501,
      "iation": 2502,
      "Ġbenef": 2503,
      "Ġmil": 2504,
      "ground": 2505,
      "ĠâĢĺ": 2506,
      "Ġsource": 2507,
      "\\_": 2508,
      "ĠRep": 2509,
      "ee": 2510,
      "Ġdetail": 2511,
      "ĠÎ": 2512,
      "Ġcompon": 2513,
      "Ġprotein": 2514,
      "Ġmoney": 2515,
      "Ġproperty": 2516,
      "Ġann": 2517,
      "Ġcomput": 2518,
      "Ġflu": 2519,
      "Ġjob": 2520,
      "Ġpast": 2521,
      "medi": 2522,
      "Ġcomplet": 2523,
      "uit": 2524,
      "Ġincreased": 2525,
      "Ġbecome": 2526,
      "Ġtalk": 2527,
      "Ġimage": 2528,
      "rodu": 2529,
      "Ġfactors": 2530,
      "Ġmor": 2531,
      "artment": 2532,
      "CC": 2533,
      "Ġphot": 2534,
      "www": 2535,
      "head": 2536,
      "Ġservice": 2537,
      "Ġmechan": 2538,
      "ians": 2539,
      "Ġcannot": 2540,
      "69": 2541,
      "Ġobserved": 2542,
      "Ġdri": 2543,
      "08": 2544,
      "Ġcomplex": 2545,
      "rr": 2546,
      "Ġrequest": 2547,
      "Ġsepar": 2548,
      "Ġconduct": 2549,
      "Ġcountry": 2550,
      "Ġlove": 2551,
      "istic": 2552,
      "bo": 2553,
      "Ġparticip": 2554,
      "\"}).": 2555,
      "Ġbook": 2556,
      "af": 2557,
      "ĠUniversity": 2558,
      "Ġfoc": 2559,
      "uration": 2560,
      "mp": 2561,
      "value": 2562,
      "rix": 2563,
      "ev": 2564,
      "bt": 2565,
      "Ġlo": 2566,
      "Ġmonths": 2567,
      "Ġregard": 2568,
      "ection": 2569,
      "Ġcy": 2570,
      "minist": 2571,
      "ules": 2572,
      "Ġdisease": 2573,
      "Ġthird": 2574,
      "ortun": 2575,
      "anc": 2576,
      "wh": 2577,
      "Ġestabl": 2578,
      "eq": 2579,
      "On": 2580,
      "Ġcult": 2581,
      "Ġair": 2582,
      "Ġmeasure": 2583,
      "Ġmom": 2584,
      "ruction": 2585,
      "ĠÐ": 2586,
      "Ġearly": 2587,
      "Ġdoing": 2588,
      "cted": 2589,
      "log": 2590,
      "Ġsocial": 2591,
      "Ġinde": 2592,
      "Ġep": 2593,
      "Ġcreate": 2594,
      "Ġestim": 2595,
      "ĊĠĠĠĠĠĠĠĠĠĠĠĠĠĠĠĠĠĠĠĠĠĠĠĠĠĠĠĠĠĠĠĠ": 2596,
      "mat": 2597,
      "Data": 2598,
      "roid": 2599,
      "View": 2600,
      "Ġmeet": 2601,
      "umber": 2602,
      "pper": 2603,
      "unt": 2604,
      "Ġnormal": 2605,
      "icense": 2606,
      "Ġfrequ": 2607,
      "ependent": 2608,
      "Ġeconom": 2609,
      "78": 2610,
      "Ġcalcul": 2611,
      "Ġclear": 2612,
      "Ġstructure": 2613,
      "ĊĠĠĠĠĠĠ": 2614,
      "Sh": 2615,
      "Ġexc": 2616,
      "Ġdefendant": 2617,
      "Ġclin": 2618,
      "file": 2619,
      "No": 2620,
      "App": 2621,
      "ucle": 2622,
      "Ġcontent": 2623,
      "ĠGen": 2624,
      "ĠSee": 2625,
      "Ġspecial": 2626,
      "Ġprior": 2627,
      "Ġdescribed": 2628,
      "Ġdeath": 2629,
      "Ġbehav": 2630,
      "mathrm": 2631,
      "Ph": 2632,
      "%)": 2633,
      "ened": 2634,
      "Ġprivate": 2635,
      "Ġmultiple": 2636,
      "off": 2637,
      "sqrt": 2638,
      "Ġviol": 2639,
      "Ġactually": 2640,
      "Ġpositive": 2641,
      "mber": 2642,
      "comm": 2643,
      "icult": 2644,
      "const": 2645,
      "Ġpoints": 2646,
      "Ġversion": 2647,
      "Ġcompany": 2648,
      "uf": 2649,
      "ript": 2650,
      "Ar": 2651,
      "load": 2652,
      "Ġseason": 2653,
      "Ġwa": 2654,
      "ĠCan": 2655,
      "oms": 2656,
      "inary": 2657,
      "Ob": 2658,
      "Ġdrug": 2659,
      "Ġsignal": 2660,
      "Ġacross": 2661,
      "CH": 2662,
      ")*": 2663,
      "ixed": 2664,
      "Ġothers": 2665,
      "Un": 2666,
      "Ġquant": 2667,
      "imum": 2668,
      "ony": 2669,
      "There": 2670,
      "Ġconcer": 2671,
      "ires": 2672,
      "equ": 2673,
      "ĠBe": 2674,
      "ounds": 2675,
      "Ġsurface": 2676,
      "Ġrather": 2677,
      "pec": 2678,
      "Ġbreak": 2679,
      "Ġonce": 2680,
      "gamma": 2681,
      "Ġmax": 2682,
      "Ġinitial": 2683,
      "Ġear": 2684,
      "ening": 2685,
      "ceed": 2686,
      "ĠMr": 2687,
      "Ġq": 2688,
      "ĠĠĠĠĠĠĠĠĠĠ": 2689,
      "bib": 2690,
      "Ġcut": 2691,
      "ĠAN": 2692,
      "ĠFig": 2693,
      "}{\\": 2694,
      "irm": 2695,
      "\");": 2696,
      "posed": 2697,
      "itch": 2698,
      "Ġey": 2699,
      "Ġlikely": 2700,
      "AB": 2701,
      "+\\": 2702,
      "bit": 2703,
      "Ġfive": 2704,
      "Ġpick": 2705,
      "OM": 2706,
      "Ġred": 2707,
      "ilde": 2708,
      "Ġshows": 2709,
      "Ġcorrespon": 2710,
      "ogen": 2711,
      "OS": 2712,
      "Ġmillion": 2713,
      "Ġperformed": 2714,
      "Ġdam": 2715,
      "Ġshowed": 2716,
      "Ġbelow": 2717,
      "Ġweight": 2718,
      "ĠAmerican": 2719,
      "ĠIN": 2720,
      "sy": 2721,
      "delta": 2722,
      "Ġmembers": 2723,
      "ĠAss": 2724,
      "Ġmatter": 2725,
      "Ġmarket": 2726,
      "Ġfactor": 2727,
      "Ġhouse": 2728,
      "Ġdetect": 2729,
      "Ġdemon": 2730,
      "ried": 2731,
      "Ġcame": 2732,
      "arc": 2733,
      "Ġsystems": 2734,
      "ude": 2735,
      "Ġapproach": 2736,
      "Ġhtt": 2737,
      "Ġeval": 2738,
      "atter": 2739,
      "Ġspect": 2740,
      "rho": 2741,
      "gree": 2742,
      "ĠGod": 2743,
      "Ġaffect": 2744,
      "Ġfalse": 2745,
      "Ġcause": 2746,
      "ĠMay": 2747,
      "Ġmus": 2748,
      "09": 2749,
      "no": 2750,
      "Ġver": 2751,
      "Ġobtained": 2752,
      ".)": 2753,
      "Ġsite": 2754,
      "ensity": 2755,
      "cular": 2756,
      "Ġbar": 2757,
      "Ġtook": 2758,
      "Ġmakes": 2759,
      "year": 2760,
      "obal": 2761,
      "Ġ(*": 2762,
      ")(": 2763,
      "86": 2764,
      "07": 2765,
      "ones": 2766,
      "Ġvar": 2767,
      "Ġnight": 2768,
      "hing": 2769,
      "idered": 2770,
      "ama": 2771,
      "raft": 2772,
      "iter": 2773,
      "lim": 2774,
      "Ġvarious": 2775,
      "Ġapplication": 2776,
      "Ġever": 2777,
      "onal": 2778,
      "So": 2779,
      "Ġcancer": 2780,
      "Ġblood": 2781,
      "uses": 2782,
      "IM": 2783,
      "Ġsoft": 2784,
      "Ġexperience": 2785,
      "ai": 2786,
      "my": 2787,
      "Ġscre": 2788,
      "Ġmar": 2789,
      "Ġwrit": 2790,
      "Ġdecre": 2791,
      "03": 2792,
      "enc": 2793,
      "Ġlimit": 2794,
      "Ġdeal": 2795,
      "anguage": 2796,
      "'d": 2797,
      "001": 2798,
      "hold": 2799,
      "Ġtemper": 2800,
      "uild": 2801,
      "Ġwhole": 2802,
      "Ġtaken": 2803,
      "Ġanti": 2804,
      "Ġflow": 2805,
      "Ġconsidered": 2806,
      "Ġadded": 2807,
      "Ġfuture": 2808,
      "Ġ$(": 2809,
      "Ġrelated": 2810,
      "now": 2811,
      "oph": 2812,
      "abor": 2813,
      "Ġclos": 2814,
      "ĠOne": 2815,
      "ager": 2816,
      "rad": 2817,
      "Ġoccur": 2818,
      "ino": 2819,
      "net": 2820,
      "plement": 2821,
      "Ġele": 2822,
      "Ġyet": 2823,
      "Ġconcent": 2824,
      "^\\": 2825,
      "illed": 2826,
      "rec": 2827,
      "Ġdefined": 2828,
      "Ġaddress": 2829,
      "Ġdemonstr": 2830,
      "49": 2831,
      "umn": 2832,
      "Figure": 2833,
      "Ġloss": 2834,
      "ĠTe": 2835,
      "ĠĠĠĠĠĠĠĠĠĠĠĠĠĠĠĠĠĠĠĠĠĠĠĠĠĠĠĠĠĠĠĠĠĠĠĠĠĠĠĠĠĠĠĠĠĠĠĠĠĠĠĠĠĠĠĠĠĠĠĠĠĠĠĠĠĠĠĠĠĠĠĠĠĠĠĠĠĠĠĠĠĠĠĠĠĠĠĠĠĠĠĠĠĠĠĠĠĠĠĠĠĠĠĠĠĠĠĠĠĠĠĠĠĠĠĠĠĠĠĠĠĠĠĠĠĠĠĠ": 2836,
      "Ġblock": 2837,
      "Ġparent": 2838,
      "pping": 2839,
      "Â°": 2840,
      "Ġbelieve": 2841,
      "big": 2842,
      "rim": 2843,
      "OP": 2844,
      "87": 2845,
      "Ġmut": 2846,
      "ĠJohn": 2847,
      "Ġnull": 2848,
      "------------": 2849,
      "Ġitem": 2850,
      "aff": 2851,
      "Ġhom": 2852,
      "oll": 2853,
      "Ġconsist": 2854,
      "46": 2855,
      "ĠThen": 2856,
      "Ġrelationship": 2857,
      "ĠWith": 2858,
      "ero": 2859,
      "iding": 2860,
      "dis": 2861,
      "partial": 2862,
      "Ġsolution": 2863,
      "wards": 2864,
      "Ġcommunity": 2865,
      "ĠAfter": 2866,
      "see": 2867,
      "$-": 2868,
      "ply": 2869,
      "57": 2870,
      "lam": 2871,
      "Ġstates": 2872,
      "xim": 2873,
      "Ġwent": 2874,
      "Ġminutes": 2875,
      "ÂłÂł": 2876,
      "ĠCar": 2877,
      "Ð¾": 2878,
      "Ġsex": 2879,
      "andom": 2880,
      "Ġfra": 2881,
      "ĠCent": 2882,
      "42": 2883,
      "Ġrat": 2884,
      "xi": 2885,
      "ĠChrist": 2886,
      "ball": 2887,
      "Ġdecision": 2888,
      "ĠInt": 2889,
      "leq": 2890,
      "')": 2891,
      "Im": 2892,
      "Ġassess": 2893,
      "ledge": 2894,
      "Ġmind": 2895,
      "size": 2896,
      "Ġland": 2897,
      "ĠĊ": 2898,
      "chie": 2899,
      "ĠPat": 2900,
      "aged": 2901,
      "Ġdifficult": 2902,
      "Ġur": 2903,
      "ulated": 2904,
      "Ġmaint": 2905,
      "ĠOb": 2906,
      "rc": 2907,
      "Ġdevice": 2908,
      "Ġimmun": 2909,
      "ober": 2910,
      "Ġtrying": 2911,
      "Ġincluded": 2912,
      "~~": 2913,
      "UT": 2914,
      "Ãĥ": 2915,
      "Ġcamp": 2916,
      "pose": 2917,
      "verse": 2918,
      "Ġcross": 2919,
      "Ġinhib": 2920,
      "Ġdecl": 2921,
      "ãĤ": 2922,
      "Ġexam": 2923,
      "Ġcard": 2924,
      "Ġregion": 2925,
      "Ġcontract": 2926,
      "*,": 2927,
      "atus": 2928,
      "enn": 2929,
      "Ġenvironment": 2930,
      "SS": 2931,
      "body": 2932,
      "89": 2933,
      "Ġhalf": 2934,
      "Ġground": 2935,
      "unc": 2936,
      "ached": 2937,
      "Ġtoday": 2938,
      "theta": 2939,
      "Ġrespectively": 2940,
      "ideo": 2941,
      "Ġface": 2942,
      "util": 2943,
      "inding": 2944,
      "Ġtrad": 2945,
      "ÂĤ": 2946,
      "where": 2947,
      "Ġclose": 2948,
      "izing": 2949,
      "Ġmagn": 2950,
      "Ġcustom": 2951,
      "Ġdefin": 2952,
      "],[@": 2953,
      "Ġappl": 2954,
      "ĠAct": 2955,
      "Ġreceived": 2956,
      "Ġce": 2957,
      "Ġ},": 2958,
      "dro": 2959,
      "itting": 2960,
      "ĠMore": 2961,
      "/*": 2962,
      "IR": 2963,
      "mitted": 2964,
      "une": 2965,
      "aging": 2966,
      "ender": 2967,
      "IL": 2968,
      "Ġadditional": 2969,
      "Ġentire": 2970,
      "Ġintegr": 2971,
      "omega": 2972,
      "Ġtable": 2973,
      "Ġchall": 2974,
      "Ġcity": 2975,
      "ternal": 2976,
      "Ġsignificantly": 2977,
      "Ġanything": 2978,
      "CL": 2979,
      "}}\\": 2980,
      "mary": 2981,
      "Ġpatient": 2982,
      "Ġdat": 2983,
      "lying": 2984,
      "ribute": 2985,
      "Ġfav": 2986,
      "etition": 2987,
      "Ġnetwork": 2988,
      "Ġsix": 2989,
      "Ġsimple": 2990,
      "Ġill": 2991,
      "odes": 2992,
      "ike": 2993,
      "lor": 2994,
      "Ġsus": 2995,
      "ĠÂ§": 2996,
      "Ġaccept": 2997,
      "Ġbound": 2998,
      "position": 2999,
      "ĠMy": 3000,
      "wise": 3001,
      "Ġdig": 3002,
      "06": 3003,
      "gl": 3004,
      "Ġbring": 3005,
      "43": 3006,
      "Ġnat": 3007,
      "Ġlink": 3008,
      "reed": 3009,
      "Ġcompl": 3010,
      "Ġgrowth": 3011,
      "uk": 3012,
      "agement": 3013,
      "istance": 3014,
      "Ġneeds": 3015,
      "Ġasked": 3016,
      "hel": 3017,
      "ocal": 3018,
      "ederal": 3019,
      "ensive": 3020,
      "ĠMed": 3021,
      "IP": 3022,
      "AA": 3023,
      "93": 3024,
      "Ġgetting": 3025,
      "Ġhistory": 3026,
      "pecially": 3027,
      "****************": 3028,
      "Ġ\\\\": 3029,
      "Ġpan": 3030,
      "Ġtw": 3031,
      "tau": 3032,
      "ram": 3033,
      "Ġlength": 3034,
      "Ġwin": 3035,
      "gress": 3036,
      "Ġheart": 3037,
      "Ġindu": 3038,
      "apt": 3039,
      "Ðµ": 3040,
      "Ġlooking": 3041,
      "Table": 3042,
      "Ġnear": 3043,
      "Ġimprove": 3044,
      "aced": 3045,
      "])": 3046,
      "Ġroom": 3047,
      "ĠMan": 3048,
      "Ġattack": 3049,
      "ops": 3050,
      "Ġdifference": 3051,
      "Get": 3052,
      "Ġhref": 3053,
      "miss": 3054,
      "Ġmethods": 3055,
      "include": 3056,
      "Ġtum": 3057,
      "nu": 3058,
      "bf": 3059,
      "Ġseries": 3060,
      "++": 3061,
      "UR": 3062,
      "Ġparty": 3063,
      "using": 3064,
      "Ġcontact": 3065,
      "orld": 3066,
      "based": 3067,
      "isf": 3068,
      "Ġperformance": 3069,
      "Ġexec": 3070,
      "pre": 3071,
      "ĠĠĠĠĠĠĠĠĠĠĠĠĠĠĠ": 3072,
      "ication": 3073,
      "ENT": 3074,
      "uly": 3075,
      "Ġpaper": 3076,
      "but": 3077,
      "ĠEng": 3078,
      "Ġproblems": 3079,
      "Ġvia": 3080,
      "Ġplaintiff": 3081,
      "ÃĹ": 3082,
      "fully": 3083,
      "Ġinput": 3084,
      "ris": 3085,
      "times": 3086,
      "Ġthus": 3087,
      "84": 3088,
      "ĠBy": 3089,
      "ĠSte": 3090,
      "Ġmiss": 3091,
      "Ġissues": 3092,
      "Ġinvolved": 3093,
      "Ġ...": 3094,
      "92": 3095,
      "Ġsubst": 3096,
      "Ġ21": 3097,
      "infty": 3098,
      "Ġcorrect": 3099,
      "Ġalmost": 3100,
      "Â±": 3101,
      "Ġpattern": 3102,
      "IV": 3103,
      ")}": 3104,
      "state": 3105,
      "Ġadj": 3106,
      "All": 3107,
      "US": 3108,
      "Ġnothing": 3109,
      "Ġhours": 3110,
      "56": 3111,
      "à¤": 3112,
      "Ġservices": 3113,
      "Ġeff": 3114,
      "Ġtherefore": 3115,
      "Ġprevent": 3116,
      "ief": 3117,
      "OL": 3118,
      "ĠDep": 3119,
      "Ġneeded": 3120,
      "Ġexpected": 3121,
      "oo": 3122,
      "Ãĳ": 3123,
      "Ġeduc": 3124,
      "Ð°": 3125,
      "irl": 3126,
      "ĠMc": 3127,
      "Ġadminist": 3128,
      "ĠMar": 3129,
      "Ġassum": 3130,
      "Wh": 3131,
      "Ġworks": 3132,
      "more": 3133,
      "ĠCount": 3134,
      "Ġheld": 3135,
      "uments": 3136,
      "box": 3137,
      "iles": 3138,
      "ĠĠĠĠĠĠĠĠĠĠĠĠ": 3139,
      "anks": 3140,
      "ilt": 3141,
      "Value": 3142,
      "ilities": 3143,
      "rid": 3144,
      "Ġpopulation": 3145,
      "Ġinstead": 3146,
      "Ġachie": 3147,
      "Ġofficial": 3148,
      "Ġfilm": 3149,
      "Ġblack": 3150,
      "comes": 3151,
      "ynam": 3152,
      "Ġemb": 3153,
      "With": 3154,
      "Ġansw": 3155,
      "erc": 3156,
      "Ġinflu": 3157,
      "urope": 3158,
      "čĊĠĠĠ": 3159,
      "Ġhost": 3160,
      "https": 3161,
      "yz": 3162,
      "Ġshall": 3163,
      "width": 3164,
      "EM": 3165,
      "Ġattempt": 3166,
      "When": 3167,
      "lt": 3168,
      "Ġbegin": 3169,
      "gest": 3170,
      "Ġrecent": 3171,
      "Ġ$$": 3172,
      "list": 3173,
      "function": 3174,
      "Ġlines": 3175,
      "Ġseems": 3176,
      "ĠDef": 3177,
      "ĠMon": 3178,
      "atively": 3179,
      "Set": 3180,
      "Ġang": 3181,
      "Ġfall": 3182,
      "ĠCor": 3183,
      "Ġgene": 3184,
      "like": 3185,
      "76": 3186,
      "Ġimplement": 3187,
      "ales": 3188,
      "itten": 3189,
      "olve": 3190,
      "ips": 3191,
      "atal": 3192,
      "come": 3193,
      "Ġremov": 3194,
      "PE": 3195,
      "Ġidea": 3196,
      "41": 3197,
      "rs": 3198,
      "Ġstep": 3199,
      "Ġpolice": 3200,
      "ii": 3201,
      "Ġcoll": 3202,
      "Ġstory": 3203,
      "Ġmotion": 3204,
      "ĠCont": 3205,
      "with": 3206,
      "Ġintrodu": 3207,
      "That": 3208,
      "Ġelement": 3209,
      "TR": 3210,
      "selves": 3211,
      "By": 3212,
      "));": 3213,
      "ĠIm": 3214,
      "Ġcomes": 3215,
      "Ġstudents": 3216,
      "![": 3217,
      "Ġpubl": 3218,
      "}$,": 3219,
      "Ġ(-": 3220,
      "ros": 3221,
      "uth": 3222,
      "ĠNot": 3223,
      "Ġpredict": 3224,
      "Ġproduction": 3225,
      "Ġcolor": 3226,
      "Ġ40": 3227,
      "Ġbad": 3228,
      "Ġquality": 3229,
      "Ġtool": 3230,
      "91": 3231,
      "\";": 3232,
      "En": 3233,
      "Ġdisplay": 3234,
      "Ġoutput": 3235,
      "Ġsomeone": 3236,
      "Ġ/*": 3237,
      "lation": 3238,
      "anced": 3239,
      "Ġmodels": 3240,
      "ĠTHE": 3241,
      "word": 3242,
      "Ġreve": 3243,
      "des": 3244,
      "px": 3245,
      "ĠAm": 3246,
      "ging": 3247,
      "field": 3248,
      "Ġlearn": 3249,
      "rapy": 3250,
      "Ġtaking": 3251,
      "trans": 3252,
      "Ġstarted": 3253,
      "Ġpage": 3254,
      "Ġdocument": 3255,
      "ĠYork": 3256,
      "Ġfig": 3257,
      "Ġmedia": 3258,
      "light": 3259,
      "Ġprovides": 3260,
      "ĠMin": 3261,
      "Pl": 3262,
      "Ġyoung": 3263,
      "Ġload": 3264,
      "ensure": 3265,
      "Ġste": 3266,
      "Int": 3267,
      "Ġdistribution": 3268,
      "Ġpolicy": 3269,
      "Ġitself": 3270,
      "Ġ22": 3271,
      "RNA": 3272,
      "Ġsearch": 3273,
      "ĠPres": 3274,
      "ster": 3275,
      "ĠThus": 3276,
      "Ġnecessary": 3277,
      "ills": 3278,
      "\\\\": 3279,
      "rown": 3280,
      "}$.": 3281,
      "Ġrecogn": 3282,
      "ulations": 3283,
      "document": 3284,
      "ying": 3285,
      "ches": 3286,
      "Ġindust": 3287,
      "53": 3288,
      "eks": 3289,
      "ĠPol": 3290,
      "unch": 3291,
      "Ġ28": 3292,
      "ĠDo": 3293,
      "Ġnucle": 3294,
      "Ġaverage": 3295,
      "ĠĠĠĠĠĠĠĠĠĠĠĠĠ": 3296,
      "aled": 3297,
      "Ġlive": 3298,
      "Ġproced": 3299,
      "astic": 3300,
      "down": 3301,
      "^*": 3302,
      "ospital": 3303,
      "ites": 3304,
      "Ġrights": 3305,
      "Ġappear": 3306,
      "Ġprobably": 3307,
      "Ġ||": 3308,
      "54": 3309,
      "ĠTrump": 3310,
      "ĠNational": 3311,
      "define": 3312,
      "Ġcompar": 3313,
      "rror": 3314,
      "Ġdiagn": 3315,
      "Ġoriginal": 3316,
      "utions": 3317,
      "Ġfront": 3318,
      "Ġdire": 3319,
      "Ġclinical": 3320,
      "ĊĠĠĠĠĠĠĠĠĠĠĠĠĠĠĠĠĠĠĠĠĠĠĠ": 3321,
      "Ġess": 3322,
      "Ġmoment": 3323,
      "Delta": 3324,
      "book": 3325,
      "Ġalleg": 3326,
      "Ġconfig": 3327,
      "hem": 3328,
      "elt": 3329,
      "pri": 3330,
      "Ġexact": 3331,
      "param": 3332,
      "Mod": 3333,
      "Ġ27": 3334,
      "Ġimpact": 3335,
      "Ġpret": 3336,
      "Ġfunctions": 3337,
      "Ġâ": 3338,
      "Ġsimply": 3339,
      "Ġproducts": 3340,
      "ccording": 3341,
      "amed": 3342,
      "ributed": 3343,
      "ĠOF": 3344,
      "Ġphase": 3345,
      "Ġcorrel": 3346,
      "Ġwalk": 3347,
      "ecause": 3348,
      "Ġespecially": 3349,
      "error": 3350,
      "Ġdim": 3351,
      "osition": 3352,
      "Ġindex": 3353,
      "ĠEurope": 3354,
      "iqu": 3355,
      "Ġtemperature": 3356,
      "eration": 3357,
      "eter": 3358,
      "ĠBo": 3359,
      "Ġwords": 3360,
      "hers": 3361,
      "fr": 3362,
      "clusion": 3363,
      "|\\": 3364,
      "comp": 3365,
      "Ġsequence": 3366,
      "overed": 3367,
      "PS": 3368,
      "Ġfoot": 3369,
      "olic": 3370,
      "istics": 3371,
      "Ġsample": 3372,
      "bb": 3373,
      "Ġproperties": 3374,
      "Ġcontext": 3375,
      "su": 3376,
      "83": 3377,
      "ãĥ": 3378,
      "Ġdest": 3379,
      "Ġconv": 3380,
      "Ġgra": 3381,
      "Ġdepend": 3382,
      "oke": 3383,
      "augh": 3384,
      "Ġformer": 3385,
      "ĠMe": 3386,
      "xy": 3387,
      "Ġinstall": 3388,
      "Ġvalid": 3389,
      "point": 3390,
      "ĠEn": 3391,
      "Ġpersonal": 3392,
      "Ġchem": 3393,
      "Object": 3394,
      "Ġeffort": 3395,
      "Ġ!=": 3396,
      "Ġassert": 3397,
      "Ġprint": 3398,
      "Text": 3399,
      "actions": 3400,
      "Ġcomplete": 3401,
      "Ġderiv": 3402,
      "ĠCity": 3403,
      "inally": 3404,
      "refore": 3405,
      "ards": 3406,
      "Ġsil": 3407,
      "Ġdetermined": 3408,
      "Ġpresence": 3409,
      "arily": 3410,
      "($": 3411,
      "Ġmedical": 3412,
      "Ġcopy": 3413,
      "perty": 3414,
      "iddle": 3415,
      "Ġdistrict": 3416,
      "Ġconsum": 3417,
      "Ġ26": 3418,
      "Ġstatic": 3419,
      "Ġevents": 3420,
      "quad": 3421,
      "array": 3422,
      "Ġmole": 3423,
      "Ġgenes": 3424,
      "Ġquick": 3425,
      "Ġ23": 3426,
      "Ġpoly": 3427,
      "\\*": 3428,
      "ili": 3429,
      "Ġcred": 3430,
      "ĠInc": 3431,
      "Ġpolitical": 3432,
      "Ġoutside": 3433,
      "Ġpressure": 3434,
      "ien": 3435,
      "Ġsense": 3436,
      "plit": 3437,
      "Ġarray": 3438,
      "inks": 3439,
      "sl": 3440,
      "ux": 3441,
      "ymb": 3442,
      "struct": 3443,
      "Ġdate": 3444,
      "ĠJan": 3445,
      "Ġsatisf": 3446,
      "Ġstrateg": 3447,
      "Ġeffective": 3448,
      "Ġtypes": 3449,
      "ĠCD": 3450,
      "Ġlack": 3451,
      "Ġprimary": 3452,
      "ran": 3453,
      "ĠString": 3454,
      "Ġlanguage": 3455,
      "52": 3456,
      "My": 3457,
      "Ind": 3458,
      "OD": 3459,
      "ults": 3460,
      "dom": 3461,
      "Ġeverything": 3462,
      "Ġcreat": 3463,
      "Ġ&&": 3464,
      "item": 3465,
      "MS": 3466,
      "File": 3467,
      "Ġwrong": 3468,
      "Ġremain": 3469,
      "char": 3470,
      "58": 3471,
      "ronic": 3472,
      "Ġphysical": 3473,
      "path": 3474,
      "ocr": 3475,
      "Ġfeatures": 3476,
      "ĠÂ±": 3477,
      "Ġlonger": 3478,
      "/>": 3479,
      "../../": 3480,
      "annel": 3481,
      "do": 3482,
      "cm": 3483,
      "ana": 3484,
      "]{},": 3485,
      "Ġinside": 3486,
      "Ġpain": 3487,
      "Ġdetermine": 3488,
      "Ġconstit": 3489,
      "Ġselect": 3490,
      "Ġpresented": 3491,
      "Ġeasy": 3492,
      "culate": 3493,
      "bor": 3494,
      "At": 3495,
      "Ġjudgment": 3496,
      "Ġnews": 3497,
      "Ġquite": 3498,
      "Ġidentified": 3499,
      "Ġcreated": 3500,
      "ĠPr": 3501,
      "Ġmi": 3502,
      "Ġstop": 3503,
      "public": 3504,
      "Ġacid": 3505,
      "ese": 3506,
      "ises": 3507,
      "Ġrunning": 3508,
      "sych": 3509,
      "fra": 3510,
      "icon": 3511,
      "Ad": 3512,
      "59": 3513,
      "Ġincreasing": 3514,
      "Ġsamples": 3515,
      "ags": 3516,
      "Ġbasis": 3517,
      "ĠĠĠĠĠĠĠĠĠĠĠĠĠĠ": 3518,
      "Ġrandom": 3519,
      "ĠGe": 3520,
      "aving": 3521,
      "Âĥ": 3522,
      "Ġsurv": 3523,
      "Ġhyp": 3524,
      "Ġstay": 3525,
      "Ġwhite": 3526,
      "Ġparameters": 3527,
      "Ġevalu": 3528,
      "Ġwanted": 3529,
      "Ġhope": 3530,
      "74": 3531,
      "Ġtiss": 3532,
      "sim": 3533,
      "Ġstatus": 3534,
      "Ġfollows": 3535,
      "Ġund": 3536,
      "Ġcontroll": 3537,
      "Ed": 3538,
      "Ġstatement": 3539,
      "72": 3540,
      "rast": 3541,
      "rack": 3542,
      "Ġmember": 3543,
      "Item": 3544,
      "81": 3545,
      "ÑĤ": 3546,
      "urch": 3547,
      "Ġapproxim": 3548,
      "Ġareas": 3549,
      "Ġfire": 3550,
      "ancial": 3551,
      "82": 3552,
      "Ġpack": 3553,
      "}(\\": 3554,
      "rite": 3555,
      "Ġsem": 3556,
      "ĠGu": 3557,
      "Ġcontinu": 3558,
      "Ġisn": 3559,
      "79": 3560,
      "Ġelements": 3561,
      "print": 3562,
      "ĠLicense": 3563,
      "Ġframe": 3564,
      "Ġweeks": 3565,
      "Ġoil": 3566,
      "ogle": 3567,
      "51": 3568,
      "asons": 3569,
      "ĠPart": 3570,
      "ĠQu": 3571,
      "Ġdirectly": 3572,
      "Ġ?": 3573,
      "Ġpair": 3574,
      "Ġsecur": 3575,
      "Ġstra": 3576,
      "Ġconstant": 3577,
      "top": 3578,
      "void": 3579,
      "âĢĲ": 3580,
      "ervice": 3581,
      "Par": 3582,
      "lier": 3583,
      "Ġquestions": 3584,
      "Ġago": 3585,
      "sk": 3586,
      "Ġrecomm": 3587,
      "itary": 3588,
      "ĠPar": 3589,
      "CD": 3590,
      "ottom": 3591,
      "Ġfun": 3592,
      "Not": 3593,
      "dev": 3594,
      "63": 3595,
      "________": 3596,
      "Ġmemory": 3597,
      "EL": 3598,
      "Ġprinc": 3599,
      "lig": 3600,
      "ha": 3601,
      "Ġforce": 3602,
      "``": 3603,
      "rial": 3604,
      "Ġnatural": 3605,
      "Ġcry": 3606,
      "Ġgames": 3607,
      "acc": 3608,
      "user": 3609,
      "earch": 3610,
      "ega": 3611,
      "Ġtheory": 3612,
      "isions": 3613,
      "UN": 3614,
      "erson": 3615,
      "msg": 3616,
      "fection": 3617,
      "OC": 3618,
      "ellant": 3619,
      "Ġtraining": 3620,
      "itation": 3621,
      "Ġgrad": 3622,
      "ocol": 3623,
      "ĠPe": 3624,
      "Ġstri": 3625,
      "gn": 3626,
      "Ã¡": 3627,
      "Ġpie": 3628,
      "Ġavoid": 3629,
      "Ġsett": 3630,
      "era": 3631,
      "Ġ(\\[": 3632,
      "Key": 3633,
      "Ps": 3634,
      "Ġknowledge": 3635,
      "lementary": 3636,
      "Qu": 3637,
      "Ġtransfer": 3638,
      "Ġopportun": 3639,
      "TH": 3640,
      "rangle": 3641,
      "Ġgas": 3642,
      "Ġcontinue": 3643,
      "ially": 3644,
      "ĠHar": 3645,
      "ĠDr": 3646,
      "ĠDNA": 3647,
      "Ġextra": 3648,
      "Ġple": 3649,
      "ĠHis": 3650,
      "hood": 3651,
      "tilde": 3652,
      "Ġbuilding": 3653,
      "Ġbehind": 3654,
      "plate": 3655,
      "ĠSystem": 3656,
      "73": 3657,
      "met": 3658,
      "het": 3659,
      "clus": 3660,
      "rote": 3661,
      ")$.": 3662,
      "ously": 3663,
      "Ġfem": 3664,
      "Ġgreater": 3665,
      "reet": 3666,
      "Ġcontain": 3667,
      "Ġapplied": 3668,
      "Ġshare": 3669,
      "Ġmis": 3670,
      "iet": 3671,
      "\\])": 3672,
      "cell": 3673,
      "Ġreplace": 3674,
      "fs": 3675,
      "Ġlimited": 3676,
      "from": 3677,
      "Ġvideo": 3678,
      "rows": 3679,
      "ferences": 3680,
      "oma": 3681,
      "ayout": 3682,
      "Ġmice": 3683,
      "Ġdefault": 3684,
      "PL": 3685,
      "lege": 3686,
      "Ġrelease": 3687,
      "map": 3688,
      "Ġpreviously": 3689,
      "ĠPresident": 3690,
      "vere": 3691,
      "Ġbehavior": 3692,
      "ML": 3693,
      "ĠSuppose": 3694,
      "aves": 3695,
      "Ġmap": 3696,
      "Ġtitle": 3697,
      "Ġincludes": 3698,
      "Ġreduced": 3699,
      "Ġsaw": 3700,
      "Ġful": 3701,
      "pite": 3702,
      "term": 3703,
      "oles": 3704,
      "cdot": 3705,
      "ague": 3706,
      "ĠTherefore": 3707,
      "Ġjo": 3708,
      "SD": 3709,
      "oat": 3710,
      "\".": 3711,
      "Ġvict": 3712,
      "ula": 3713,
      "roph": 3714,
      "Ġability": 3715,
      "Ġoption": 3716,
      "Ġnational": 3717,
      "script": 3718,
      "ĠOur": 3719,
      "max": 3720,
      "mpt": 3721,
      "Ġbur": 3722,
      "71": 3723,
      "Ġexpress": 3724,
      "Ġveh": 3725,
      "elling": 3726,
      "BC": 3727,
      "js": 3728,
      "ĠIntern": 3729,
      "Ġfriend": 3730,
      "arning": 3731,
      "De": 3732,
      "ada": 3733,
      "Ġmessage": 3734,
      "ÃĤ": 3735,
      "Ġstyle": 3736,
      "Ġ60": 3737,
      "Ġmach": 3738,
      "Ġclaims": 3739,
      "osure": 3740,
      "isms": 3741,
      "Ġdeveloped": 3742,
      "imate": 3743,
      "Ġarticle": 3744,
      "Ġimmedi": 3745,
      "rant": 3746,
      "rief": 3747,
      "Ġopin": 3748,
      ":**": 3749,
      "Ġrev": 3750,
      "apter": 3751,
      "umb": 3752,
      "ader": 3753,
      "ĊĊĊ": 3754,
      "Ġlayer": 3755,
      "ĠAf": 3756,
      "fered": 3757,
      "osph": 3758,
      "Ġfavor": 3759,
      "Ð¸": 3760,
      "Ġaccom": 3761,
      "().": 3762,
      "sm": 3763,
      "ech": 3764,
      "length": 3765,
      "Ġimpl": 3766,
      "Ġpresident": 3767,
      "Ġhot": 3768,
      "Or": 3769,
      "Ġcompan": 3770,
      "icles": 3771,
      "Ġinvention": 3772,
      "ĠId": 3773,
      "ĠNe": 3774,
      "orks": 3775,
      "ners": 3776,
      "Ġsoftware": 3777,
      "psilon": 3778,
      "iber": 3779,
      ".'": 3780,
      "pen": 3781,
      "ament": 3782,
      "aches": 3783,
      "ĠAP": 3784,
      "Ġindependent": 3785,
      "Ġwrite": 3786,
      "Ġmother": 3787,
      "Ġhttp": 3788,
      "Ġprec": 3789,
      "ĠFurther": 3790,
      "kn": 3791,
      "otic": 3792,
      "Test": 3793,
      "Ġnumbers": 3794,
      "...\"": 3795,
      "Ġplayers": 3796,
      "ĠDist": 3797,
      "Ġwritten": 3798,
      "Ġappropri": 3799,
      "Ġprotect": 3800,
      "Ġmatch": 3801,
      "Ġdouble": 3802,
      "Ġautom": 3803,
      "Ġword": 3804,
      "Ġreference": 3805,
      "och": 3806,
      "Ġ2012": 3807,
      "Ġantib": 3808,
      "]^": 3809,
      "62": 3810,
      "Ġfollowed": 3811,
      "ĠJust": 3812,
      "ĠComp": 3813,
      "Ġcoming": 3814,
      "ĠSim": 3815,
      "She": 3816,
      "uary": 3817,
      "Ġparticularly": 3818,
      "aign": 3819,
      "Def": 3820,
      "ĠCounty": 3821,
      "ĠDes": 3822,
      "ethyl": 3823,
      "ĠSouth": 3824,
      "ĠSince": 3825,
      "Ġcand": 3826,
      "atives": 3827,
      "ocation": 3828,
      "ĠDem": 3829,
      "IF": 3830,
      "Ġslow": 3831,
      ")=": 3832,
      "Ġleave": 3833,
      "apan": 3834,
      "čĊč": 3835,
      "Ġactive": 3836,
      "gor": 3837,
      "Ġir": 3838,
      "Ġobtain": 3839,
      "Ġrefer": 3840,
      "Ġsecurity": 3841,
      "CA": 3842,
      "ĠWhile": 3843,
      "illi": 3844,
      "EX": 3845,
      "rupt": 3846,
      "Ġ;": 3847,
      "Ġprep": 3848,
      "Ġbir": 3849,
      "Ġclean": 3850,
      "ĠRuss": 3851,
      "urb": 3852,
      "Ġforward": 3853,
      "Ġnegative": 3854,
      "Ġmention": 3855,
      "Ġunit": 3856,
      "ĠPa": 3857,
      "Ġrepe": 3858,
      "range": 3859,
      "ĠST": 3860,
      "iven": 3861,
      "ishing": 3862,
      "vention": 3863,
      "Ġcorresponding": 3864,
      "Ġconstruct": 3865,
      "Ġ[*": 3866,
      "Ġgirl": 3867,
      "Ġwindow": 3868,
      "supp": 3869,
      "ĠOR": 3870,
      "Ġlate": 3871,
      "Ġnature": 3872,
      "ĠNorth": 3873,
      "Ġspecies": 3874,
      "Ġusually": 3875,
      "abase": 3876,
      "fo": 3877,
      "ĠPer": 3878,
      "non": 3879,
      "Add": 3880,
      "hest": 3881,
      "ĠReg": 3882,
      "Ġvot": 3883,
      "ä¸": 3884,
      "Ġrule": 3885,
      "ashing": 3886,
      "Ġrates": 3887,
      "Ġdifferences": 3888,
      "MA": 3889,
      "mega": 3890,
      "Ġliving": 3891,
      "Ġoffice": 3892,
      "61": 3893,
      "Ġaltern": 3894,
      "Ġalthough": 3895,
      "ĠHere": 3896,
      "Ġanswer": 3897,
      "Ġdynam": 3898,
      "Ġ2013": 3899,
      "Ġwhose": 3900,
      "Ġorg": 3901,
      "Ġnote": 3902,
      "inated": 3903,
      "Ġbox": 3904,
      "Ġglobal": 3905,
      "Ġpurch": 3906,
      "Ġpractice": 3907,
      "reng": 3908,
      "ĠWorld": 3909,
      "Ġoffer": 3910,
      "Ġtried": 3911,
      "ĠVal": 3912,
      "levant": 3913,
      "Ġargument": 3914,
      "Ġbrain": 3915,
      "SP": 3916,
      "Ġetc": 3917,
      "Ġanim": 3918,
      "Ġregular": 3919,
      "eline": 3920,
      "Ġonline": 3921,
      "Ġgrant": 3922,
      "Ġinstance": 3923,
      "Ġ2016": 3924,
      "Ġwebs": 3925,
      "atform": 3926,
      "}}$": 3927,
      "ĠAb": 3928,
      "Ġpo": 3929,
      "Ġcompet": 3930,
      "group": 3931,
      "isc": 3932,
      "Ġgenerally": 3933,
      "ils": 3934,
      "Ġlost": 3935,
      "oon": 3936,
      "cast": 3937,
      "Ġsle": 3938,
      "ste": 3939,
      "Ġrecently": 3940,
      "ĠSm": 3941,
      "psi": 3942,
      "aries": 3943,
      "ĠEd": 3944,
      "Ġprot": 3945,
      "itness": 3946,
      "inate": 3947,
      "erve": 3948,
      "Ġaccur": 3949,
      "ĠSome": 3950,
      "Ġwall": 3951,
      "ĠGo": 3952,
      "encies": 3953,
      "Le": 3954,
      "Ġ2014": 3955,
      "quest": 3956,
      "Ġthemselves": 3957,
      "urance": 3958,
      "change": 3959,
      "Suppose": 3960,
      "Ġbackground": 3961,
      "ĠPhys": 3962,
      "Ġanyone": 3963,
      "////////": 3964,
      "pret": 3965,
      "illing": 3966,
      "Ġtakes": 3967,
      "ener": 3968,
      "Ġproposed": 3969,
      "Ġcountries": 3970,
      "link": 3971,
      "Ġwatch": 3972,
      "joy": 3973,
      "Ġagreement": 3974,
      "================================": 3975,
      "vey": 3976,
      "Ġge": 3977,
      "Ġsort": 3978,
      "Ġdriv": 3979,
      "ees": 3980,
      "Ġresid": 3981,
      "ĠâĪĴ": 3982,
      "Ġsaying": 3983,
      "pat": 3984,
      "ivil": 3985,
      "pace": 3986,
      "CE": 3987,
      "Ġexcept": 3988,
      "Ġdensity": 3989,
      "Ġball": 3990,
      "Ġstress": 3991,
      "Ġ/>": 3992,
      "Exception": 3993,
      "ĠDav": 3994,
      "resh": 3995,
      "wide": 3996,
      "Ġtreated": 3997,
      "gorith": 3998,
      "lin": 3999,
      "Ġessential": 4000,
      "orph": 4001,
      "ĠII": 4002,
      "py": 4003,
      "ĠOct": 4004,
      "*~": 4005,
      "Des": 4006,
      "ĠMarch": 4007,
      "ĠFirst": 4008,
      "rew": 4009,
      "ned": 4010,
      "Ġanalyz": 4011,
      "vare": 4012,
      "}=": 4013,
      "Ġhimself": 4014,
      "ĠHouse": 4015,
      "Error": 4016,
      "ming": 4017,
      "Ġlegal": 4018,
      "00000000": 4019,
      "Ġrot": 4020,
      "ĠIS": 4021,
      "Ġsituation": 4022,
      "ufact": 4023,
      "Ġpurpose": 4024,
      "Ġfederal": 4025,
      "Ġhar": 4026,
      "ĊĠĠĠĠĠĠĠĠĠĠĠĠĠ": 4027,
      "^[@": 4028,
      "((": 4029,
      "pril": 4030,
      "Ġenh": 4031,
      "index": 4032,
      "Ġcenter": 4033,
      "Ġheav": 4034,
      "anger": 4035,
      "\"><": 4036,
      "Ġ29": 4037,
      "rightarrow": 4038,
      "Ġbecame": 4039,
      "ĠChina": 4040,
      "Ġ2015": 4041,
      "State": 4042,
      "Ġrelative": 4043,
      "ĠAmerica": 4044,
      "epsilon": 4045,
      "Ġfeed": 4046,
      "Ġpretty": 4047,
      "Ġspeed": 4048,
      "ĠSch": 4049,
      "ham": 4050,
      "Ġdeep": 4051,
      "Ġways": 4052,
      "Ġcover": 4053,
      "Ġdirection": 4054,
      "Ġhydro": 4055,
      "âĢĥ": 4056,
      "Ġrele": 4057,
      "bon": 4058,
      "Ġfinancial": 4059,
      "One": 4060,
      "Time": 4061,
      "ULL": 4062,
      "uel": 4063,
      "ï¼": 4064,
      "igen": 4065,
      "aily": 4066,
      "Ġfailed": 4067,
      "Ġserious": 4068,
      "Ġfast": 4069,
      "Ġpublished": 4070,
      "ulate": 4071,
      "ĠDepartment": 4072,
      "ĠAust": 4073,
      "Ġperfect": 4074,
      "Ġrespond": 4075,
      "Ġ);": 4076,
      "Ġpict": 4077,
      "acity": 4078,
      "003": 4079,
      "Ġvers": 4080,
      "varepsilon": 4081,
      "lib": 4082,
      "Ġintern": 4083,
      "Ġhighly": 4084,
      "lock": 4085,
      "\\].": 4086,
      "Omega": 4087,
      "ports": 4088,
      "['": 4089,
      "Ġwoman": 4090,
      "Cal": 4091,
      "Ġphen": 4092,
      "Ġprice": 4093,
      "Ġisol": 4094,
      "Ġfindings": 4095,
      "Man": 4096,
      "ĠBar": 4097,
      "Gamma": 4098,
      "reme": 4099,
      "sing": 4100,
      "Ġallowed": 4101,
      "pan": 4102,
      "bi": 4103,
      "Ġderivative": 4104,
      "Ġsufficient": 4105,
      "ĠAug": 4106,
      "Ġselected": 4107,
      "Ġcharge": 4108,
      "ae": 4109,
      "ait": 4110,
      "ĠĊĠĠĠĠĠĠĠĠĠĠĠĠĠĠĠ": 4111,
      "oding": 4112,
      "Ġnode": 4113,
      "Ġdegree": 4114,
      "Ġcommit": 4115,
      "aching": 4116,
      "base": 4117,
      "Ġoperation": 4118,
      "rought": 4119,
      "ĉĉĉĉ": 4120,
      "uge": 4121,
      "Ġcomponent": 4122,
      "Ġstar": 4123,
      "izes": 4124,
      "Ġcomment": 4125,
      "Ġcommand": 4126,
      "Ġhor": 4127,
      "ociety": 4128,
      ")$,": 4129,
      "ournal": 4130,
      "Ġstage": 4131,
      "dim": 4132,
      "Ġlarger": 4133,
      "Ġdesigned": 4134,
      "aur": 4135,
      "Ġmeasured": 4136,
      "Ġlabel": 4137,
      "anch": 4138,
      "Ġtradition": 4139,
      "Ġgave": 4140,
      "that": 4141,
      "rael": 4142,
      "Ġjury": 4143,
      "###": 4144,
      "ĠGerm": 4145,
      "Ġsaf": 4146,
      "Ġdetails": 4147,
      "Ġgraph": 4148,
      "init": 4149,
      "mar": 4150,
      "GF": 4151,
      "ibrary": 4152,
      "oud": 4153,
      "argin": 4154,
      "Ġindividuals": 4155,
      "ĠSu": 4156,
      "Ġsoon": 4157,
      "PR": 4158,
      "ĠGeneral": 4159,
      "Ġcampaign": 4160,
      "Ġidentify": 4161,
      "Class": 4162,
      "Ġdraw": 4163,
      "oice": 4164,
      "Ġimages": 4165,
      "nb": 4166,
      "Ġeveryone": 4167,
      "ades": 4168,
      "olds": 4169,
      "Ġsubstant": 4170,
      "orem": 4171,
      "Ġcurrently": 4172,
      "haps": 4173,
      "Ġcaused": 4174,
      "ĠAp": 4175,
      "Ġfocus": 4176,
      "Ġalone": 4177,
      "Ġpsych": 4178,
      "PA": 4179,
      "Ġauth": 4180,
      "Ġsqu": 4181,
      "Ġque": 4182,
      "Ġfriends": 4183,
      "Ġlocation": 4184,
      "Ġproteins": 4185,
      "fn": 4186,
      "oe": 4187,
      "Ġwasn": 4188,
      "omy": 4189,
      "Ġ2011": 4190,
      "Ġaud": 4191,
      "ĠJune": 4192,
      "ĠJapan": 4193,
      "ĠNow": 4194,
      "Ġvisit": 4195,
      "};": 4196,
      "Of": 4197,
      "Ġgives": 4198,
      "Ġrestr": 4199,
      "BS": 4200,
      "aling": 4201,
      "Ġcomponents": 4202,
      "Ġstreng": 4203,
      "TT": 4204,
      "Ġ[**": 4205,
      "ĠAlthough": 4206,
      "Ġeyes": 4207,
      "den": 4208,
      "Ġstim": 4209,
      "Ġbank": 4210,
      "Ġ2010": 4211,
      "Ġfiles": 4212,
      "orage": 4213,
      "Ġmatrix": 4214,
      "Ġprofess": 4215,
      "ouch": 4216,
      "ĠRepublic": 4217,
      "Ġchoice": 4218,
      "Ġround": 4219,
      "fil": 4220,
      "Ġscale": 4221,
      "Ġrequires": 4222,
      "oring": 4223,
      "iated": 4224,
      "ocks": 4225,
      "Ġ:=": 4226,
      "hern": 4227,
      "zz": 4228,
      "NS": 4229,
      "exp": 4230,
      "Ġattention": 4231,
      "Ġroad": 4232,
      "Ġfixed": 4233,
      "Ġclust": 4234,
      "operator": 4235,
      "Ġproceed": 4236,
      "New": 4237,
      "ersion": 4238,
      "section": 4239,
      "Ġpromot": 4240,
      "FL": 4241,
      "Ġcompanies": 4242,
      "estern": 4243,
      "Ġfight": 4244,
      "Ġbegan": 4245,
      "Ġknew": 4246,
      "Ġuseful": 4247,
      "ius": 4248,
      "hesis": 4249,
      "aker": 4250,
      "Ġhyper": 4251,
      "call": 4252,
      "ĠHealth": 4253,
      "Ġsynt": 4254,
      "iency": 4255,
      "ze": 4256,
      "ffer": 4257,
      "Ġleading": 4258,
      "Ġpull": 4259,
      "Ġoptions": 4260,
      "Ġled": 4261,
      "Ġsuit": 4262,
      "Ġ2017": 4263,
      "Ġbal": 4264,
      "Ġpoor": 4265,
      "ĠSer": 4266,
      "Ġ///": 4267,
      "obile": 4268,
      "semb": 4269,
      "Ġfailure": 4270,
      "(),": 4271,
      "ÃĹÂ": 4272,
      "---|": 4273,
      "osing": 4274,
      "Ġnotice": 4275,
      "Ġ__": 4276,
      "Ġmanagement": 4277,
      "Ġcook": 4278,
      "istry": 4279,
      "Ġfrequency": 4280,
      "itter": 4281,
      "Ġusers": 4282,
      "Ġdeb": 4283,
      "EC": 4284,
      "Ġthreat": 4285,
      "Ġbed": 4286,
      "ifically": 4287,
      "Ġ->": 4288,
      "active": 4289,
      "coming": 4290,
      "Ġord": 4291,
      "reen": 4292,
      "ography": 4293,
      "ĠSen": 4294,
      "Ġunique": 4295,
      "ken": 4296,
      "Ġ\"\"": 4297,
      "Ġeducation": 4298,
      "cap": 4299,
      "ĠSept": 4300,
      "rate": 4301,
      "iring": 4302,
      "Ġcandid": 4303,
      "Ġratio": 4304,
      "Ġtechnology": 4305,
      "Path": 4306,
      "}_{\\": 4307,
      "irmed": 4308,
      "Ġsche": 4309,
      "orney": 4310,
      "čĊĠ": 4311,
      "Ġrecept": 4312,
      "Ġcontains": 4313,
      "tee": 4314,
      "ĠWar": 4315,
      "ride": 4316,
      "vis": 4317,
      "Ġemerg": 4318,
      "Ġson": 4319,
      "Sec": 4320,
      "ellow": 4321,
      "cil": 4322,
      "Ġdivided": 4323,
      ".*": 4324,
      "Ġcircum": 4325,
      "Ġcompletely": 4326,
      "omen": 4327,
      "Ġprime": 4328,
      "Ġten": 4329,
      "Ġexerc": 4330,
      "Ġgoal": 4331,
      "Ġacqu": 4332,
      "style": 4333,
      "Ġcosts": 4334,
      "Ġconnection": 4335,
      "ĠTH": 4336,
      "run": 4337,
      "itude": 4338,
      "ifier": 4339,
      "!!": 4340,
      "Ġsn": 4341,
      "Sc": 4342,
      "Ġlat": 4343,
      "Ġparts": 4344,
      "SC": 4345,
      "Now": 4346,
      "gu": 4347,
      "Ġapply": 4348,
      "Ġbuy": 4349,
      "Do": 4350,
      "Ġindustry": 4351,
      "Ġparties": 4352,
      "Ġcentral": 4353,
      "ĠJanuary": 4354,
      ".[": 4355,
      "Ġserver": 4356,
      "True": 4357,
      "Ġneigh": 4358,
      "Ġenjoy": 4359,
      "static": 4360,
      "ĠApril": 4361,
      "');": 4362,
      "ube": 4363,
      "known": 4364,
      "UL": 4365,
      "Ġappropriate": 4366,
      "spec": 4367,
      "Ġearlier": 4368,
      "Ð¾Ð": 4369,
      "ĠGl": 4370,
      "Ġfair": 4371,
      "Ġheat": 4372,
      "Ġmulti": 4373,
      "Ġmanufact": 4374,
      "nes": 4375,
      "ĠWest": 4376,
      "Ġcyt": 4377,
      "());": 4378,
      "Ġinform": 4379,
      "Ġfine": 4380,
      "Ġexpressed": 4381,
      "ĠJuly": 4382,
      "Ġoverall": 4383,
      "Ġ\\<": 4384,
      "efore": 4385,
      "Ġdistance": 4386,
      "Ġpen": 4387,
      "Ġtim": 4388,
      "band": 4389,
      "Ġaim": 4390,
      "Ġsupported": 4391,
      "Ġgenerated": 4392,
      "ĠĠĠĠĠĠĠĠĠĠĠĠĠĠĠĠĠĠĠ": 4393,
      "alt": 4394,
      "varphi": 4395,
      "Ġdead": 4396,
      "Ġdefinition": 4397,
      "Ġ----------------": 4398,
      "^+": 4399,
      "Ġestablished": 4400,
      "Ġstated": 4401,
      "Ġ31": 4402,
      "Ġallows": 4403,
      "Ġdog": 4404,
      "Ġtrack": 4405,
      "ancy": 4406,
      "ĠTrans": 4407,
      "Ġwidth": 4408,
      "Ġdevices": 4409,
      "OW": 4410,
      "}.": 4411,
      "Ġequal": 4412,
      "Ġhospital": 4413,
      "Ġbroad": 4414,
      "Ġengine": 4415,
      "lick": 4416,
      "Ġ($": 4417,
      "Ġeasily": 4418,
      "Ġboard": 4419,
      "Ġheight": 4420,
      "ĠCir": 4421,
      "From": 4422,
      "They": 4423,
      "ĠJud": 4424,
      "Ġ<<": 4425,
      "force": 4426,
      "Ġimm": 4427,
      "Ġsites": 4428,
      "čĊĠĠĠĠĠĠĠ": 4429,
      "ĠBrit": 4430,
      "Ġcontaining": 4431,
      "abled": 4432,
      "Ġweb": 4433,
      "Ġtown": 4434,
      "Ġreasons": 4435,
      "cember": 4436,
      "\"/>": 4437,
      "Ġfinding": 4438,
      "enses": 4439,
      "df": 4440,
      "ãĢ": 4441,
      "uted": 4442,
      "MP": 4443,
      "Form": 4444,
      "Over": 4445,
      "ĠMich": 4446,
      "Ġ(\\": 4447,
      "Ġhighest": 4448,
      "Ġcapt": 4449,
      "chi": 4450,
      "Ġcritical": 4451,
      "='": 4452,
      "Ġlocated": 4453,
      "Ġ32": 4454,
      "Be": 4455,
      "Ġparameter": 4456,
      "Ġproduced": 4457,
      "Supp": 4458,
      "Ġactivities": 4459,
      "Ġdiscl": 4460,
      "Ġleaders": 4461,
      "Ġeconomic": 4462,
      "Ġtumor": 4463,
      "Ġfather": 4464,
      "eed": 4465,
      "overn": 4466,
      "ĠRed": 4467,
      "ĠFeb": 4468,
      "Ġstaff": 4469,
      "urity": 4470,
      "Ġfiled": 4471,
      "Ġtrust": 4472,
      "ĠStud": 4473,
      "ĠIsrael": 4474,
      "._": 4475,
      ")-": 4476,
      "Ġreduce": 4477,
      "ica": 4478,
      "Ġrelevant": 4479,
      "Ġworth": 4480,
      "overy": 4481,
      "mark": 4482,
      "Ġones": 4483,
      "ĠAg": 4484,
      "bra": 4485,
      "Ġclearly": 4486,
      "yond": 4487,
      "ĠMod": 4488,
      "Ġactual": 4489,
      "){#": 4490,
      "Ġchalleng": 4491,
      "vec": 4492,
      "Ġconcept": 4493,
      "DA": 4494,
      "Ġauthors": 4495,
      "Ġnames": 4496,
      "Ġsympt": 4497,
      "Ġmeaning": 4498,
      "Ġfelt": 4499,
      "Ġmode": 4500,
      "iate": 4501,
      "ÑĢ": 4502,
      "ĠSw": 4503,
      "Ġstore": 4504,
      "}^{\\": 4505,
      "ios": 4506,
      "bin": 4507,
      "Ġopinion": 4508,
      "Ġvariable": 4509,
      "Ġappeal": 4510,
      "title": 4511,
      "ymbol": 4512,
      "hand": 4513,
      "ails": 4514,
      "Ġmys": 4515,
      "Sim": 4516,
      "ĠEl": 4517,
      "Ġhit": 4518,
      "king": 4519,
      "ĠAND": 4520,
      "pid": 4521,
      "Ġax": 4522,
      "Ġadjust": 4523,
      "ytes": 4524,
      "Ġplant": 4525,
      "Ġles": 4526,
      "SA": 4527,
      "Ġwriting": 4528,
      "Ġtravel": 4529,
      "Ġliter": 4530,
      "Context": 4531,
      "*-": 4532,
      "bre": 4533,
      "Ġvs": 4534,
      "ĠCons": 4535,
      "Ġqual": 4536,
      "ibly": 4537,
      "Ġwebsite": 4538,
      "Ġsound": 4539,
      "oura": 4540,
      "Size": 4541,
      "\\'": 4542,
      "config": 4543,
      "Ġproof": 4544,
      "Ġinjury": 4545,
      "Ġchanged": 4546,
      "Ġbrought": 4547,
      "lish": 4548,
      "odies": 4549,
      "Ġdro": 4550,
      "Ġhands": 4551,
      "overline": 4552,
      "Ġshowing": 4553,
      "ĠĠĠĠĠĠĠĠĠĠĠĠĠĠĠĠĠ": 4554,
      "Ġsmaller": 4555,
      "002": 4556,
      "ĠÃĲ": 4557,
      "Ġreceive": 4558,
      "color": 4559,
      "related": 4560,
      "Ġmid": 4561,
      "';": 4562,
      "ovember": 4563,
      "Ġgoes": 4564,
      "Ġdoor": 4565,
      "Ġuses": 4566,
      "ĠGet": 4567,
      "cluded": 4568,
      "Ġexperiments": 4569,
      "fort": 4570,
      "*.": 4571,
      "Ġ2008": 4572,
      "Ġlearning": 4573,
      "Ġdark": 4574,
      "Ġtransition": 4575,
      "Ġcontrast": 4576,
      "Ġappears": 4577,
      "Ġrules": 4578,
      "Ġhon": 4579,
      "operatorname": 4580,
      "font": 4581,
      "Ġitems": 4582,
      "langle": 4583,
      "Ġ35": 4584,
      "Ġelectro": 4585,
      "Ġvector": 4586,
      "Ġlooks": 4587,
      "Ġbeyond": 4588,
      "Ġheard": 4589,
      "Ġmer": 4590,
      "men": 4591,
      "Ġeffic": 4592,
      "Ġdu": 4593,
      "Ġremains": 4594,
      "Ġcomputer": 4595,
      "Ġculture": 4596,
      "ATE": 4597,
      "ĠCong": 4598,
      "arter": 4599,
      "Ġcounsel": 4600,
      "':": 4601,
      "Ð½": 4602,
      "Ġbuilt": 4603,
      "Ġaw": 4604,
      "Ġfat": 4605,
      "ĠFrom": 4606,
      "âĶ": 4607,
      "Ġutil": 4608,
      "Ġfa": 4609,
      "Ġunderstanding": 4610,
      "la": 4611,
      "Ġhearing": 4612,
      "Ġnumer": 4613,
      "Ġrelig": 4614,
      "Ġinterpret": 4615,
      "ĠGr": 4616,
      "Ġbeaut": 4617,
      "ashington": 4618,
      "Ġadvant": 4619,
      "raz": 4620,
      "Ġlooked": 4621,
      "room": 4622,
      "Ġroot": 4623,
      "Ġturned": 4624,
      "Ġalgorith": 4625,
      "Ġsecret": 4626,
      "attle": 4627,
      "Ġcarry": 4628,
      "rier": 4629,
      "Ġworked": 4630,
      "Ġinn": 4631,
      "Ġtowards": 4632,
      "ĠArt": 4633,
      "Ġwonder": 4634,
      "rence": 4635,
      "opl": 4636,
      "Ġsurpr": 4637,
      "Ġmajority": 4638,
      "ĠSy": 4639,
      "ĠPublic": 4640,
      "Ġtransport": 4641,
      "Ġprefer": 4642,
      "Ġextract": 4643,
      "rum": 4644,
      "Ġplease": 4645,
      "Ġbinding": 4646,
      "Ġregarding": 4647,
      "works": 4648,
      "inct": 4649,
      "Ġvariables": 4650,
      "Ġinternal": 4651,
      "Ġproduce": 4652,
      "Info": 4653,
      "Ġdecided": 4654,
      "Ñģ": 4655,
      "utive": 4656,
      "lamm": 4657,
      "Ġskin": 4658,
      "After": 4659,
      "input": 4660,
      "ille": 4661,
      ")).": 4662,
      "Ġexists": 4663,
      "Ġsomet": 4664,
      "osite": 4665,
      "Ġtherapy": 4666,
      "Ġbenefits": 4667,
      "Ġconnect": 4668,
      "ights": 4669,
      "Ġdrive": 4670,
      "Ġfully": 4671,
      "Ġlov": 4672,
      "ĠDistrict": 4673,
      "RA": 4674,
      "Ġconcentration": 4675,
      "Ġcontribut": 4676,
      "\":\"": 4677,
      "Ġtissue": 4678,
      "grams": 4679,
      "Ġcounter": 4680,
      "Ġsubsequ": 4681,
      "Ġbirth": 4682,
      "Ġrepl": 4683,
      "ĠAugust": 4684,
      "Ġparents": 4685,
      "Ġeight": 4686,
      "Ġreports": 4687,
      "Ġtask": 4688,
      "Ġmilitary": 4689,
      "Ġgun": 4690,
      "Ġsold": 4691,
      "Config": 4692,
      "cules": 4693,
      "Ġresulting": 4694,
      "Ġcool": 4695,
      "Ġ2009": 4696,
      "Ġprogress": 4697,
      "icted": 4698,
      "Ġ^": 4699,
      "Ġprop": 4700,
      ")^": 4701,
      "rag": 4702,
      "pective": 4703,
      "ĠSchool": 4704,
      "^{(": 4705,
      "lo": 4706,
      "oses": 4707,
      "Ġexactly": 4708,
      "oken": 4709,
      "Ġcouple": 4710,
      "Ġyield": 4711,
      "irt": 4712,
      "inst": 4713,
      "Ġindicated": 4714,
      "java": 4715,
      "Ġvirt": 4716,
      "ĠAccording": 4717,
      "node": 4718,
      "Ġinfection": 4719,
      "ĠOctober": 4720,
      "unk": 4721,
      "Ġlinear": 4722,
      ")**": 4723,
      "Ġsetting": 4724,
      "Ġmedium": 4725,
      "free": 4726,
      "Ġwrote": 4727,
      "======": 4728,
      "eah": 4729,
      "}}(": 4730,
      "stream": 4731,
      "Ġandroid": 4732,
      "Ġinteresting": 4733,
      "Ġmorning": 4734,
      "Ġ/**": 4735,
      "ĊĊĠĠĠĠĠĠĠĠĠĠĠ": 4736,
      "iday": 4737,
      "Ġox": 4738,
      "asis": 4739,
      "enge": 4740,
      "geq": 4741,
      "Ġmount": 4742,
      "Ġmaterials": 4743,
      "count": 4744,
      "Ġreading": 4745,
      "Ġvehicle": 4746,
      "pol": 4747,
      "Ġconsequ": 4748,
      "Ġplayed": 4749,
      "Ġfeature": 4750,
      "ĠSeptember": 4751,
      "\\<": 4752,
      "gy": 4753,
      "Ġscore": 4754,
      "nbsp": 4755,
      "Ġobvious": 4756,
      "undred": 4757,
      "Ġcam": 4758,
      "ĠDecember": 4759,
      "}}_": 4760,
      "Ġsolid": 4761,
      "Ġinterview": 4762,
      "Ġmeeting": 4763,
      "PC": 4764,
      "Ġgets": 4765,
      "db": 4766,
      "ĠAfric": 4767,
      "ares": 4768,
      "Ġcolumn": 4769,
      "Ġseparate": 4770,
      "asm": 4771,
      "Ġreasonable": 4772,
      "material": 4773,
      "itro": 4774,
      "Ġdefine": 4775,
      "icip": 4776,
      "ĠLa": 4777,
      "ford": 4778,
      "athe": 4779,
      "\\,": 4780,
      "Ġreaction": 4781,
      ">>": 4782,
      "ls": 4783,
      "Ġ2018": 4784,
      "iforn": 4785,
      "Ġplayer": 4786,
      "Ġconstruction": 4787,
      "Ġfields": 4788,
      "icit": 4789,
      "ĠDemocr": 4790,
      "Event": 4791,
      "Ġapplications": 4792,
      "Ġstarting": 4793,
      "tered": 4794,
      "Ġzero": 4795,
      "Ġarrest": 4796,
      "frak": 4797,
      "Ġsec": 4798,
      "ĠSub": 4799,
      "Ġpul": 4800,
      "ĠChar": 4801,
      "adem": 4802,
      "Ġmaximum": 4803,
      "Ġthroughout": 4804,
      "Ġliqu": 4805,
      "ME": 4806,
      "gs": 4807,
      "ql": 4808,
      "Ġparticipants": 4809,
      "arest": 4810,
      "ico": 4811,
      "rab": 4812,
      "anged": 4813,
      "Ġvolume": 4814,
      "Ġnoted": 4815,
      "erate": 4816,
      "Ġdamage": 4817,
      "Ġprocesses": 4818,
      "ĠData": 4819,
      "ĠChe": 4820,
      "Ġregions": 4821,
      "Ġdomain": 4822,
      "Ġformation": 4823,
      "cos": 4824,
      "Ġcollect": 4825,
      "Ct": 4826,
      "iences": 4827,
      "Ġconnected": 4828,
      "Ġclosed": 4829,
      "case": 4830,
      "Ġrob": 4831,
      "Ġsafety": 4832,
      "Ġfix": 4833,
      "Ġlives": 4834,
      "Ġinstit": 4835,
      "start": 4836,
      "Ġabsol": 4837,
      "Ġnor": 4838,
      "Ġbecomes": 4839,
      "Ġformed": 4840,
      "omic": 4841,
      "ĠBecause": 4842,
      "Ġarch": 4843,
      "Ġfit": 4844,
      "Exp": 4845,
      "grad": 4846,
      "Ġsources": 4847,
      "Ġslight": 4848,
      "erved": 4849,
      "irit": 4850,
      "Ġadministration": 4851,
      "Ġaspect": 4852,
      "true": 4853,
      "Ġhear": 4854,
      "Out": 4855,
      "ruary": 4856,
      "Ġlay": 4857,
      "Ġsafe": 4858,
      "Ġrevealed": 4859,
      "Ġcoord": 4860,
      "gery": 4861,
      "Ġinternational": 4862,
      "Ġstru": 4863,
      "Ġinteraction": 4864,
      "ĠÃĹ": 4865,
      "Ġstd": 4866,
      "------": 4867,
      "Ġcit": 4868,
      "ĠSection": 4869,
      "ĠDet": 4870,
      "Ġswe": 4871,
      "]:": 4872,
      "VER": 4873,
      "Ġtransform": 4874,
      "ida": 4875,
      "Ġcollection": 4876,
      "Ġotherwise": 4877,
      "ESS": 4878,
      "Ġbasic": 4879,
      "Ġtests": 4880,
      "ĠNovember": 4881,
      "Ġreflect": 4882,
      "cons": 4883,
      "Ab": 4884,
      "Ġlaws": 4885,
      "HT": 4886,
      "mail": 4887,
      "was": 4888,
      "Ġeth": 4889,
      "urt": 4890,
      "ifornia": 4891,
      "Ġimmediately": 4892,
      "info": 4893,
      "Ġter": 4894,
      "Ġmess": 4895,
      "Ġequation": 4896,
      "BA": 4897,
      "Ġdemand": 4898,
      "ĠMoreover": 4899,
      "Ġpopular": 4900,
      "RT": 4901,
      "Ġscient": 4902,
      "ameter": 4903,
      "conne": 4904,
      "otal": 4905,
      "ĠCenter": 4906,
      "wid": 4907,
      "which": 4908,
      "image": 4909,
      "ĠIL": 4910,
      "Ġign": 4911,
      "Ġvictim": 4912,
      "Ġreduction": 4913,
      "Ġactions": 4914,
      "Ġ80": 4915,
      "Ġreleased": 4916,
      "ĠUSA": 4917,
      "atur": 4918,
      "ĠSan": 4919,
      "Ġthous": 4920,
      "Ġhous": 4921,
      "amin": 4922,
      "pling": 4923,
      "ĠWashington": 4924,
      "ANT": 4925,
      "Ġer": 4926,
      "Ġopportunity": 4927,
      "Ġtoward": 4928,
      "cles": 4929,
      "Sub": 4930,
      "iance": 4931,
      ".\\": 4932,
      "Ġpaid": 4933,
      "Ġmort": 4934,
      "Ġinfluence": 4935,
      "ĠID": 4936,
      "Ġmechanism": 4937,
      "Ġgiving": 4938,
      "ĠDis": 4939,
      "EST": 4940,
      "ĠOf": 4941,
      "ĠCoun": 4942,
      "CS": 4943,
      "Ġremember": 4944,
      "ĠHigh": 4945,
      "Ġroll": 4946,
      "']": 4947,
      "Ġwide": 4948,
      "bur": 4949,
      "ounced": 4950,
      "Ġ90": 4951,
      "long": 4952,
      "CP": 4953,
      "ĠBr": 4954,
      "ĠRec": 4955,
      "board": 4956,
      "Ġmetab": 4957,
      "Ġconsistent": 4958,
      "Ġcombination": 4959,
      "imony": 4960,
      "Ġfigure": 4961,
      "Ġtesting": 4962,
      "ĠPark": 4963,
      "Ġsleep": 4964,
      "ĠMark": 4965,
      "sembly": 4966,
      "Ġdefense": 4967,
      "Ġult": 4968,
      "Big": 4969,
      "Ġspeak": 4970,
      "php": 4971,
      "Ġ]": 4972,
      "Ġrelatively": 4973,
      "ĠCommission": 4974,
      "########": 4975,
      "Ġwild": 4976,
      "mathfrak": 4977,
      "raint": 4978,
      "Ġensure": 4979,
      "Ġsometimes": 4980,
      "ael": 4981,
      "alle": 4982,
      "Ġresources": 4983,
      "CO": 4984,
      "cin": 4985,
      "Ġphosph": 4986,
      "Ġresistance": 4987,
      "Ġforms": 4988,
      "Ġcapital": 4989,
      "Ġmur": 4990,
      "False": 4991,
      "Ġphone": 4992,
      "Ġyes": 4993,
      "ctors": 4994,
      "Ġquickly": 4995,
      "Ġfunctional": 4996,
      "Ġclient": 4997,
      "zym": 4998,
      "Ġaware": 4999,
      "ĠAD": 5000,
      "ĠAng": 5001,
      "object": 5002,
      "Ġmiddle": 5003,
      "Ġthinking": 5004,
      "tem": 5005,
      "ĠPM": 5006,
      "ny": 5007,
      "Ġalleged": 5008,
      "Ġchance": 5009,
      "RI": 5010,
      "iful": 5011,
      "check": 5012,
      "Node": 5013,
      "Ġstrength": 5014,
      "Ġspin": 5015,
      "Ġ(**": 5016,
      "âĶĢ": 5017,
      "Ġmyself": 5018,
      "enty": 5019,
      "Ġprocedure": 5020,
      "Ġgreen": 5021,
      "ĠInst": 5022,
      "Ġhappen": 5023,
      "stitute": 5024,
      "Ġplaying": 5025,
      "Here": 5026,
      "Ġmembr": 5027,
      "[]": 5028,
      "ĠTable": 5029,
      "Ġnearly": 5030,
      "Ġchoose": 5031,
      "Ġremove": 5032,
      "ĠTw": 5033,
      "Ġportion": 5034,
      "Ġswitch": 5035,
      "Ġproviding": 5036,
      "Ġmovement": 5037,
      "Ġneut": 5038,
      "Ġmoved": 5039,
      "Ġenter": 5040,
      "uffer": 5041,
      "Ġdetected": 5042,
      "ilies": 5043,
      "ponent": 5044,
      "Ġhappened": 5045,
      "aste": 5046,
      "Ġconducted": 5047,
      "Ġdatabase": 5048,
      "Ġbottom": 5049,
      "Ġblog": 5050,
      "Ġachieve": 5051,
      "Ġ~": 5052,
      "ĠNet": 5053,
      "PD": 5054,
      "Ġmoving": 5055,
      "Ġlegis": 5056,
      "Ġexisting": 5057,
      "Ġcore": 5058,
      "Ġstation": 5059,
      "ooth": 5060,
      "Ġobjects": 5061,
      "pc": 5062,
      "ky": 5063,
      "poses": 5064,
      "Ġmal": 5065,
      "Ġestablish": 5066,
      "[^": 5067,
      "iform": 5068,
      "Ġbrief": 5069,
      "Ġmusic": 5070,
      "ĠAustral": 5071,
      "ĠObama": 5072,
      "Ġcomplic": 5073,
      "Ġready": 5074,
      "Ġchannel": 5075,
      "Ġcircumst": 5076,
      "EE": 5077,
      "Ġreach": 5078,
      "eria": 5079,
      "ĠList": 5080,
      "Ġcommer": 5081,
      "Ġhundred": 5082,
      "iques": 5083,
      "Ġequival": 5084,
      "Map": 5085,
      "Ġlif": 5086,
      "Ġdaily": 5087,
      "Ġsteps": 5088,
      "ĊĊĠĠĠĠĠ": 5089,
      "500": 5090,
      "ensions": 5091,
      "Ġcalculated": 5092,
      "jection": 5093,
      "Ġfacts": 5094,
      "Ġcircuit": 5095,
      "FA": 5096,
      "Ġanalys": 5097,
      "Inst": 5098,
      "Ġincor": 5099,
      "Ġfinally": 5100,
      "Ġanimals": 5101,
      "Index": 5102,
      "ĠFl": 5103,
      "lication": 5104,
      "Ġconcentr": 5105,
      "\\],": 5106,
      "Ġindicate": 5107,
      "iable": 5108,
      "Oh": 5109,
      "Ġyourself": 5110,
      "Field": 5111,
      "oto": 5112,
      "Ġdemonstrated": 5113,
      "ĠHol": 5114,
      "endant": 5115,
      "Ġnearest": 5116,
      "Ġemail": 5117,
      "Ġil": 5118,
      "Fr": 5119,
      "Ġexhib": 5120,
      "ett": 5121,
      "airs": 5122,
      "level": 5123,
      "pir": 5124,
      "ĠĠĠĠĠĠĠĠĠĠĠĠĠĠĠĠĠĠ": 5125,
      "encing": 5126,
      "parent": 5127,
      "Ġunits": 5128,
      "%,": 5129,
      "ĠAlso": 5130,
      "ĠSec": 5131,
      "ĠTex": 5132,
      "())": 5133,
      "flow": 5134,
      "vest": 5135,
      "Ġcomments": 5136,
      "\"},": 5137,
      "itors": 5138,
      "omin": 5139,
      "},\\": 5140,
      "Ġprove": 5141,
      "INT": 5142,
      "thon": 5143,
      "Ġupper": 5144,
      "Ġcrim": 5145,
      "Ġstatist": 5146,
      "ĠNULL": 5147,
      "######": 5148,
      "Ġwave": 5149,
      "ĠAdd": 5150,
      "Ġregul": 5151,
      "ĠAM": 5152,
      "Ġband": 5153,
      "ĠCalifornia": 5154,
      "Ġtrade": 5155,
      "Ġjur": 5156,
      "atin": 5157,
      "rome": 5158,
      "Ġcapacity": 5159,
      "can": 5160,
      "Equ": 5161,
      "Ġcarried": 5162,
      "ĠRev": 5163,
      "Up": 5164,
      "Ġremoved": 5165,
      "Ġpetition": 5166,
      "uced": 5167,
      "Ġdoc": 5168,
      "soft": 5169,
      "Ġplaced": 5170,
      "ĠKing": 5171,
      "Ġbacter": 5172,
      "indows": 5173,
      "Ġborder": 5174,
      "Ġseven": 5175,
      "Ġsend": 5176,
      "CON": 5177,
      "Ġprocessing": 5178,
      "ĠLaw": 5179,
      "ocket": 5180,
      "under": 5181,
      "rees": 5182,
      "Ġpow": 5183,
      "Trans": 5184,
      "Ġfear": 5185,
      "Ġstuff": 5186,
      "Ġvariety": 5187,
      "oz": 5188,
      "Fl": 5189,
      "Ġcivil": 5190,
      "Ġ37": 5191,
      "Ġblue": 5192,
      "ĠHer": 5193,
      "ui": 5194,
      "Ġweak": 5195,
      "Ġwitness": 5196,
      "otype": 5197,
      "Ġsets": 5198,
      "---|---|": 5199,
      "FT": 5200,
      "Ġshape": 5201,
      "ĠOther": 5202,
      "Ġwife": 5203,
      "ĠCO": 5204,
      "aught": 5205,
      "atever": 5206,
      "Ġ45": 5207,
      "ÃŃ": 5208,
      "iers": 5209,
      "igation": 5210,
      "GL": 5211,
      "ĠAT": 5212,
      "Ġscreen": 5213,
      "ĠFebruary": 5214,
      "Ġoperator": 5215,
      "Ġdistributed": 5216,
      "Ġbenefit": 5217,
      "Ġextrem": 5218,
      "IB": 5219,
      "ĠHam": 5220,
      "*(": 5221,
      "Ġpackage": 5222,
      "stitution": 5223,
      "Me": 5224,
      "Ġselection": 5225,
      "Ġcert": 5226,
      "Ġmg": 5227,
      "Ġ2007": 5228,
      "urrent": 5229,
      "Ã³": 5230,
      "well": 5231,
      "pected": 5232,
      "Ġlabor": 5233,
      "Ġsuggested": 5234,
      "uty": 5235,
      "umin": 5236,
      "Ġrow": 5237,
      "ĠEven": 5238,
      "Ġpeak": 5239,
      "Ġmachine": 5240,
      "coh": 5241,
      "olved": 5242,
      "ipe": 5243,
      "dered": 5244,
      "acing": 5245,
      "Ġonto": 5246,
      "iment": 5247,
      "ĠFigure": 5248,
      "Ġtruth": 5249,
      "Ġrecommend": 5250,
      "\",\"": 5251,
      "Ġnamed": 5252,
      "Ġrace": 5253,
      "LA": 5254,
      ",-": 5255,
      "Ġprem": 5256,
      "orb": 5257,
      "]\\],": 5258,
      "space": 5259,
      "Ġapparent": 5260,
      "roy": 5261,
      "Ġprograms": 5262,
      "Ġimag": 5263,
      "num": 5264,
      "circ": 5265,
      "Ser": 5266,
      "ĠAssoci": 5267,
      "DS": 5268,
      "apping": 5269,
      "IA": 5270,
      "Ġcomparison": 5271,
      "Array": 5272,
      "Code": 5273,
      "Ġworkers": 5274,
      "ĠPre": 5275,
      "icity": 5276,
      "Color": 5277,
      "uman": 5278,
      "othe": 5279,
      "Ġhealthy": 5280,
      "Ġconflic": 5281,
      "/(-": 5282,
      "Ġnation": 5283,
      "Ġplatform": 5284,
      "UM": 5285,
      "Ġincreases": 5286,
      "Log": 5287,
      "ĠPal": 5288,
      "atically": 5289,
      "Ġlib": 5290,
      "Hand": 5291,
      "md": 5292,
      "Ġmagnetic": 5293,
      "Ġsen": 5294,
      "ĠEuropean": 5295,
      "Ġsusp": 5296,
      "race": 5297,
      "block": 5298,
      "Ġexposure": 5299,
      "elle": 5300,
      "Ġnorm": 5301,
      "rie": 5302,
      "ĠAut": 5303,
      "Ġmaybe": 5304,
      "Ġpassed": 5305,
      "Ġletters": 5306,
      "omas": 5307,
      "car": 5308,
      "ĠWhite": 5309,
      "content": 5310,
      "open": 5311,
      "cho": 5312,
      "Ġplaces": 5313,
      "Date": 5314,
      "Ġresponsible": 5315,
      "Ġvisual": 5316,
      "PT": 5317,
      "Ġmeasures": 5318,
      "Ġ\\,": 5319,
      "ĠIndia": 5320,
      "Ġdiscussed": 5321,
      "Ġreplacement": 5322,
      "ithub": 5323,
      "ensional": 5324,
      "Ġupd": 5325,
      "berg": 5326,
      "ifying": 5327,
      "Ġmag": 5328,
      "Ġsave": 5329,
      "Ġcorpor": 5330,
      "Ġapproximately": 5331,
      "Ġ95": 5332,
      "ĠBro": 5333,
      "build": 5334,
      "aughter": 5335,
      "Ġpicked": 5336,
      "Ġbill": 5337,
      "ondon": 5338,
      "ĠCON": 5339,
      "Ġhair": 5340,
      "Ġletter": 5341,
      "Ġcharacteristics": 5342,
      "Ġbul": 5343,
      "Ġincome": 5344,
      "Î±": 5345,
      "Ġmanner": 5346,
      "kay": 5347,
      "ĊĠĠĠĠĠĠĠĠĠĠĠĠĠĠĠĠĠĠĠĠĠĠĠĠĠĠĠ": 5348,
      "ĠBoard": 5349,
      "Ġjudge": 5350,
      "Ġemot": 5351,
      "Ġsymptoms": 5352,
      "Ġ70": 5353,
      "dot": 5354,
      "core": 5355,
      "Ġinsurance": 5356,
      "/(": 5357,
      "Ġupdate": 5358,
      "pass": 5359,
      "url": 5360,
      "[\\": 5361,
      "source": 5362,
      "ĠFound": 5363,
      "Ġfresh": 5364,
      "Ġwid": 5365,
      "di": 5366,
      "Ġdrugs": 5367,
      "omb": 5368,
      "Ġstructures": 5369,
      "za": 5370,
      "ado": 5371,
      "Ġfib": 5372,
      "ruit": 5373,
      "Ġadopt": 5374,
      "Ġtalking": 5375,
      "ĠResearch": 5376,
      "ĠPaul": 5377,
      "Ġbeginning": 5378,
      "Ġarriv": 5379,
      "ĠAc": 5380,
      "ĠUK": 5381,
      "Ġunc": 5382,
      "Ġstraight": 5383,
      "ĠInter": 5384,
      "Reg": 5385,
      "Ġhour": 5386,
      "Ġcontinued": 5387,
      "Att": 5388,
      "Ġshot": 5389,
      "Ġmodern": 5390,
      "Ġpanel": 5391,
      "roller": 5392,
      "Ġnut": 5393,
      "Ġunf": 5394,
      "Ġdie": 5395,
      "bm": 5396,
      "Ġdiss": 5397,
      "Ġmale": 5398,
      "Ġtestimony": 5399,
      "itis": 5400,
      "Ġ36": 5401,
      "Ġspread": 5402,
      "Rec": 5403,
      "Ġassume": 5404,
      "normal": 5405,
      "Ġactivation": 5406,
      "Ġbud": 5407,
      "asp": 5408,
      "Ġri": 5409,
      "Ġsevere": 5410,
      "izer": 5411,
      "Ġreturned": 5412,
      "ara": 5413,
      "ipp": 5414,
      ")/(-": 5415,
      "Ġuns": 5416,
      "Ġtour": 5417,
      "Ġexperiment": 5418,
      "Ġhappy": 5419,
      "Ġadapt": 5420,
      "Ġtend": 5421,
      "Ġedge": 5422,
      "Act": 5423,
      "ĠĠĠĠĠĠĠĠĠĠĠĠĠĠĠĠĠĠĠĠ": 5424,
      "reate": 5425,
      "ĠFurthermore": 5426,
      "*)": 5427,
      "Ġut": 5428,
      "Ġmit": 5429,
      "ĠRNA": 5430,
      "Ġdetection": 5431,
      "Ġscen": 5432,
      "004": 5433,
      "Ġstock": 5434,
      "Ġforeign": 5435,
      "aa": 5436,
      "Ġbab": 5437,
      "ĠMus": 5438,
      "Ġ});": 5439,
      "Ġbillion": 5440,
      "Ġtree": 5441,
      "Ġnice": 5442,
      "current": 5443,
      "Ġinvestigation": 5444,
      "PO": 5445,
      "iled": 5446,
      "ventional": 5447,
      "Request": 5448,
      "idden": 5449,
      "create": 5450,
      "api": 5451,
      "Ġmac": 5452,
      "''": 5453,
      "Ġdelay": 5454,
      "Yes": 5455,
      "Ġchemical": 5456,
      "Ġaward": 5457,
      "oul": 5458,
      "Ġexpand": 5459,
      "*]{}": 5460,
      "Ġthrow": 5461,
      "Ġkids": 5462,
      "Î²": 5463,
      "Ġrout": 5464,
      "ĠJe": 5465,
      "host": 5466,
      "Ġscript": 5467,
      "ĠGovern": 5468,
      "ĠAtt": 5469,
      "ync": 5470,
      "ĠDavid": 5471,
      "Ġfilter": 5472,
      "Ġ48": 5473,
      "ART": 5474,
      "Ġdescription": 5475,
      "arr": 5476,
      "Ġtherm": 5477,
      "arian": 5478,
      "ĠTest": 5479,
      "ÂŃ": 5480,
      "gar": 5481,
      "ptr": 5482,
      "orter": 5483,
      "Ġ((": 5484,
      "Ġclub": 5485,
      "asion": 5486,
      "ĠIll": 5487,
      "ĠEnglish": 5488,
      "Ġexercise": 5489,
      "ĠMor": 5490,
      "rench": 5491,
      "post": 5492,
      "EG": 5493,
      "Image": 5494,
      "istant": 5495,
      "Count": 5496,
      "untu": 5497,
      "Ġexception": 5498,
      "Ġneur": 5499,
      "âĶĢâĶĢ": 5500,
      "Ġrapid": 5501,
      "ria": 5502,
      "Ġsexual": 5503,
      "Ġinterface": 5504,
      "Dis": 5505,
      "Ġshift": 5506,
      "Ġspent": 5507,
      "ĠTO": 5508,
      "yst": 5509,
      "Ġinsert": 5510,
      "Ġspecifically": 5511,
      "Ġdenied": 5512,
      "ĠWilli": 5513,
      "Ġchallenge": 5514,
      "Ġplans": 5515,
      "Ġsurgery": 5516,
      "Ġsell": 5517,
      "Ġfamilies": 5518,
      "XX": 5519,
      "abs": 5520,
      "ĠCongress": 5521,
      "Ġstrategy": 5522,
      "Ġliquid": 5523,
      "frame": 5524,
      "Ġsolutions": 5525,
      "CF": 5526,
      "Ġalternative": 5527,
      "Ġserve": 5528,
      ":\"": 5529,
      "Ġshoot": 5530,
      "xx": 5531,
      "Ġtested": 5532,
      "Ġcomplaint": 5533,
      "going": 5534,
      "Ġ2000": 5535,
      "Ġwait": 5536,
      "Ġrul": 5537,
      "Model": 5538,
      "Ġofficials": 5539,
      "Ġcareer": 5540,
      "ĠInternational": 5541,
      "arant": 5542,
      "ario": 5543,
      "Ġcouldn": 5544,
      "Ġsummary": 5545,
      "Ġwants": 5546,
      "Ġsto": 5547,
      "Ġmentioned": 5548,
      "âĢ¢": 5549,
      "ALL": 5550,
      "ĠOff": 5551,
      "rav": 5552,
      "Build": 5553,
      "ldots": 5554,
      "Ġelection": 5555,
      "Ġtouch": 5556,
      "Ġ2006": 5557,
      "ignment": 5558,
      "Ġarm": 5559,
      "Ġnovel": 5560,
      "Ġpark": 5561,
      "icks": 5562,
      "icial": 5563,
      "iced": 5564,
      "Ġprepared": 5565,
      "Â¾": 5566,
      "Ġnil": 5567,
      "User": 5568,
      "QL": 5569,
      "çļ": 5570,
      "rary": 5571,
      "Ġ(!": 5572,
      "orge": 5573,
      "Ġclick": 5574,
      "Ġleads": 5575,
      "PP": 5576,
      "Ġdespite": 5577,
      "ĠPost": 5578,
      "Ġoptim": 5579,
      "Ġthick": 5580,
      "abil": 5581,
      "ellig": 5582,
      "Ġmill": 5583,
      "Ġstudent": 5584,
      "Ġunless": 5585,
      "rely": 5586,
      "igration": 5587,
      "Ġdebt": 5588,
      "Ġhypot": 5589,
      "Ġagent": 5590,
      "Inter": 5591,
      "olean": 5592,
      "Ġfemale": 5593,
      "Ġlip": 5594,
      "Ġcycle": 5595,
      "ota": 5596,
      "mand": 5597,
      "Ġstudied": 5598,
      "Ġnone": 5599,
      "Ġmodule": 5600,
      "ipment": 5601,
      "çļĦ": 5602,
      "Ġkill": 5603,
      "Ġimproved": 5604,
      "Ġplate": 5605,
      "Ġsup": 5606,
      "Ġnuclear": 5607,
      "Ġdiet": 5608,
      "Ġtypically": 5609,
      "Ġpush": 5610,
      "Ġcombined": 5611,
      "iders": 5612,
      "AV": 5613,
      "SH": 5614,
      "%%": 5615,
      "ingu": 5616,
      "ptions": 5617,
      "Ġexplain": 5618,
      "Ġmetal": 5619,
      "MO": 5620,
      "ĠSupp": 5621,
      "Ġeye": 5622,
      "upreme": 5623,
      "âĢ²": 5624,
      "({\\": 5625,
      "actory": 5626,
      "cs": 5627,
      "ĠYour": 5628,
      "ĠDon": 5629,
      "len": 5630,
      "Ġexperimental": 5631,
      "aser": 5632,
      "Phi": 5633,
      "Ġgrowing": 5634,
      "itz": 5635,
      "fected": 5636,
      "Ġcontrols": 5637,
      "Ġplus": 5638,
      "Ġded": 5639,
      "Ġentry": 5640,
      "Ġcommunication": 5641,
      "Ġ-->": 5642,
      "Ġsuccessful": 5643,
      "Ġminimum": 5644,
      "Ġhop": 5645,
      "Ġvote": 5646,
      "Ġ(\"": 5647,
      "ascular": 5648,
      "Ġsurvival": 5649,
      "itivity": 5650,
      "enced": 5651,
      "Ġune": 5652,
      "iling": 5653,
      "ano": 5654,
      "ĠĠĠĠĠĠĠĠĠĠĠĠĠĠĠĠĠĠĠĠĠ": 5655,
      "Ġcommercial": 5656,
      "inese": 5657,
      "Calculate": 5658,
      "Ġconfirmed": 5659,
      "Ġdanger": 5660,
      "stract": 5661,
      "Ġsubstr": 5662,
      "005": 5663,
      "ded": 5664,
      "ĠAnt": 5665,
      "ĠCH": 5666,
      "idel": 5667,
      "ĠIndian": 5668,
      "Ġkilled": 5669,
      "Âµ": 5670,
      "à¸": 5671,
      "ĠÎ¼": 5672,
      "dict": 5673,
      "produ": 5674,
      "inner": 5675,
      "Ġmolecular": 5676,
      "Well": 5677,
      "Ġguy": 5678,
      "**)": 5679,
      "Ġcircumstances": 5680,
      "osen": 5681,
      "Ġinduced": 5682,
      "Ġsociety": 5683,
      "ĊĊĉ": 5684,
      "Ġpiece": 5685,
      "Ġmotor": 5686,
      "ĠDi": 5687,
      "Ġperhaps": 5688,
      "Ġhttps": 5689,
      "ÂłÂłÂłÂł": 5690,
      "Ġvac": 5691,
      "Ġagreed": 5692,
      "Ġmonitor": 5693,
      "Ġdismiss": 5694,
      "Ġ33": 5695,
      "Ġencoura": 5696,
      "Ġraised": 5697,
      "Ġelectr": 5698,
      "Ġoperations": 5699,
      "ingly": 5700,
      "Ġseed": 5701,
      "anned": 5702,
      "Ġanalyzed": 5703,
      "ato": 5704,
      "github": 5705,
      "Ġprotocol": 5706,
      "Ġprofessional": 5707,
      "&\\": 5708,
      "RS": 5709,
      "inger": 5710,
      "Ġillust": 5711,
      "Ġreached": 5712,
      "ban": 5713,
      "Ġlinks": 5714,
      "ĠTV": 5715,
      "Ġsyn": 5716,
      "Ġwhereas": 5717,
      "Ġcalls": 5718,
      "Ġaffected": 5719,
      "Ġdied": 5720,
      "Ġassociation": 5721,
      "ĠBank": 5722,
      "ĠCode": 5723,
      "Ġtools": 5724,
      "Ġfeet": 5725,
      "Ġcru": 5726,
      "ypes": 5727,
      "otimes": 5728,
      "Ġdrink": 5729,
      "Ġemployees": 5730,
      "racy": 5731,
      "Ġofficer": 5732,
      "Ġclasses": 5733,
      "Ġhandle": 5734,
      "kg": 5735,
      "Ġcop": 5736,
      "Ass": 5737,
      "\"></": 5738,
      "Ġminor": 5739,
      "Ġmm": 5740,
      "ĠMost": 5741,
      "ĠRel": 5742,
      "cher": 5743,
      "rient": 5744,
      "Ġcauses": 5745,
      "Ġevolution": 5746,
      "ferent": 5747,
      "Ġsentence": 5748,
      "izations": 5749,
      "ading": 5750,
      "Ġwouldn": 5751,
      "Ġtrig": 5752,
      "ĠNews": 5753,
      "Ġprobability": 5754,
      "oute": 5755,
      "Ġsun": 5756,
      "bolds": 5757,
      "Ġtransl": 5758,
      "Ġmedic": 5759,
      "prime": 5760,
      "Ġkept": 5761,
      "ĠNote": 5762,
      "Ġsurround": 5763,
      ".](": 5764,
      "^âĪĴ": 5765,
      "Ġ34": 5766,
      "ĠNS": 5767,
      "Ġefforts": 5768,
      "Ġsrc": 5769,
      "Ġmental": 5770,
      "acters": 5771,
      "Ġjava": 5772,
      "Ġproport": 5773,
      "Ġcollected": 5774,
      "Group": 5775,
      "cor": 5776,
      "ialog": 5777,
      "po": 5778,
      "Ġefficient": 5779,
      "actor": 5780,
      "Ġtraditional": 5781,
      "Ġoccurred": 5782,
      "Ġhuge": 5783,
      "Ġmix": 5784,
      "BL": 5785,
      "Ġgal": 5786,
      "........": 5787,
      "boldsymbol": 5788,
      "Cs": 5789,
      "ira": 5790,
      "Ġcredit": 5791,
      "asma": 5792,
      "Ġtrou": 5793,
      "Ġcast": 5794,
      "Ġcatch": 5795,
      "Ġconver": 5796,
      "Ġprepar": 5797,
      "0001": 5798,
      "wood": 5799,
      "Ġintroduced": 5800,
      "Element": 5801,
      "Ġrelation": 5802,
      "Ġfaith": 5803,
      "ĠPlaintiff": 5804,
      "Ent": 5805,
      "Can": 5806,
      "Service": 5807,
      "idem": 5808,
      "Ġdiscussion": 5809,
      "reedom": 5810,
      "arth": 5811,
      "subset": 5812,
      "Ġsuggests": 5813,
      "Ġbehavi": 5814,
      "Why": 5815,
      "ĠSuper": 5816,
      "write": 5817,
      "nam": 5818,
      "ĠNOT": 5819,
      "Ġsust": 5820,
      "opyright": 5821,
      "Ġestimated": 5822,
      "mem": 5823,
      "Ġcertainly": 5824,
      "local": 5825,
      "Ġenzym": 5826,
      "ĠSet": 5827,
      "Ġexplained": 5828,
      "Ġstorage": 5829,
      "Ġtechniques": 5830,
      "Ġkid": 5831,
      "ĠLondon": 5832,
      "Ġhistor": 5833,
      "Ġlock": 5834,
      "Ġcorrelation": 5835,
      "Ġdiagnosis": 5836,
      "ulf": 5837,
      "resents": 5838,
      "Ġimplic": 5839,
      "Ġstatute": 5840,
      "Lambda": 5841,
      "pa": 5842,
      "ometry": 5843,
      "Ġelectric": 5844,
      "Ġremaining": 5845,
      "ca": 5846,
      "Ġmovie": 5847,
      "Ġprotection": 5848,
      "Ġchrom": 5849,
      "assert": 5850,
      "Ġadvantage": 5851,
      "Ġgone": 5852,
      "Ġappellant": 5853,
      "uate": 5854,
      "page": 5855,
      "ka": 5856,
      "KE": 5857,
      "Ġbeautiful": 5858,
      "Sigma": 5859,
      "Ġinflamm": 5860,
      "cohol": 5861,
      "Ġforces": 5862,
      "appa": 5863,
      "Ġcardi": 5864,
      "Ġcriminal": 5865,
      "Ġalgorithm": 5866,
      "iny": 5867,
      "Ġkin": 5868,
      "Ġchain": 5869,
      "Ġmist": 5870,
      "ographic": 5871,
      "ĠGroup": 5872,
      "CM": 5873,
      "Ġbuffer": 5874,
      "Ġrequirements": 5875,
      "Ġ2005": 5876,
      "Ġprosec": 5877,
      "Per": 5878,
      "Ġbiggest": 5879,
      "{{": 5880,
      "Ġvoice": 5881,
      "Ġoccup": 5882,
      "Ġpros": 5883,
      "}}_{": 5884,
      "BI": 5885,
      "dir": 5886,
      "Message": 5887,
      "itled": 5888,
      "While": 5889,
      "Our": 5890,
      "tage": 5891,
      "Rep": 5892,
      "ship": 5893,
      "doc": 5894,
      "ĠBen": 5895,
      "opic": 5896,
      "inity": 5897,
      "Ġabsence": 5898,
      "Ġguess": 5899,
      "Ġrecords": 5900,
      "/**": 5901,
      "\\|": 5902,
      "Ġformat": 5903,
      "ĠEm": 5904,
      "isation": 5905,
      "Ġgeneration": 5906,
      ".$$": 5907,
      "Ġpun": 5908,
      "Ġtal": 5909,
      "ivery": 5910,
      "Ġfootball": 5911,
      "model": 5912,
      "Ġpicture": 5913,
      "Ġolder": 5914,
      "Ġorganization": 5915,
      "Ġresponses": 5916,
      "Ġdoll": 5917,
      "Ġmissing": 5918,
      "Ġserved": 5919,
      "what": 5920,
      "Ġtempor": 5921,
      "Ġwhom": 5922,
      "Ġcitiz": 5923,
      "ĠEach": 5924,
      "DR": 5925,
      "Ġadding": 5926,
      "Method": 5927,
      "ĠEast": 5928,
      "acebook": 5929,
      "Ġoffers": 5930,
      "Ġoptical": 5931,
      "Ġbreast": 5932,
      "Ġquantum": 5933,
      "Ġfloor": 5934,
      "reshold": 5935,
      ")?": 5936,
      "Ġderived": 5937,
      "Ġeat": 5938,
      "rivate": 5939,
      "Ġcreating": 5940,
      "Ġmanif": 5941,
      "Ġvan": 5942,
      "greg": 5943,
      "Ġbrother": 5944,
      "ymph": 5945,
      "ĠTexas": 5946,
      "Ġscience": 5947,
      "Ġpolic": 5948,
      "Ġsubjects": 5949,
      "čĊĉ": 5950,
      "Ġpurposes": 5951,
      "Ġ42": 5952,
      "Bl": 5953,
      "Ġ()": 5954,
      "osc": 5955,
      "src": 5956,
      "BU": 5957,
      "Ġvert": 5958,
      "Ġeconomy": 5959,
      "$(": 5960,
      "Ġexternal": 5961,
      "Ġanimal": 5962,
      "ĠBlack": 5963,
      "ĠĠĠĠĠĠĠĠĠĠĠĠĠĠĠĠĠĠĠĠĠĠĠ": 5964,
      "Ġstream": 5965,
      "det": 5966,
      "older": 5967,
      "ologies": 5968,
      "Ġideas": 5969,
      "how": 5970,
      "Ġintended": 5971,
      "}-": 5972,
      "Ġschools": 5973,
      "------------------------------------------------": 5974,
      "istan": 5975,
      "unday": 5976,
      "allel": 5977,
      "CI": 5978,
      "sf": 5979,
      "anging": 5980,
      "Ġauto": 5981,
      "AND": 5982,
      "Ġdrop": 5983,
      "Ġproperly": 5984,
      "mmet": 5985,
      "Fil": 5986,
      "cknow": 5987,
      "Ġrepresents": 5988,
      "icrosoft": 5989,
      "induced": 5990,
      "Ġresolution": 5991,
      "nel": 5992,
      "Ġextent": 5993,
      "First": 5994,
      "SI": 5995,
      "default": 5996,
      "Ġjoint": 5997,
      "Ġglass": 5998,
      "sole": 5999,
      "ĠBritish": 6000,
      "Ġpool": 6001,
      "Ġdecreased": 6002,
      "Ġdirector": 6003,
      "Ġthank": 6004,
      "itory": 6005,
      "Ġradio": 6006,
      "Ġsymmet": 6007,
      "mbox": 6008,
      "Ġsummer": 6009,
      "Pre": 6010,
      "Ġcoe": 6011,
      "Ġconvers": 6012,
      "ĠOh": 6013,
      "NT": 6014,
      "specific": 6015,
      "result": 6016,
      "icians": 6017,
      "Ġ38": 6018,
      "Ġthread": 6019,
      "Ġbelong": 6020,
      "zon": 6021,
      "Ġcomfort": 6022,
      "Ġauthority": 6023,
      "ĠSupreme": 6024,
      "Ġmechanisms": 6025,
      "nonumber": 6026,
      "eturn": 6027,
      "ĠEv": 6028,
      "Ġprotected": 6029,
      "Ġearn": 6030,
      "Ġvirus": 6031,
      "Ġdistinct": 6032,
      "ĠJew": 6033,
      "Ġlargest": 6034,
      "Â»": 6035,
      "Ġsav": 6036,
      "ORT": 6037,
      "Ġsymb": 6038,
      "ya": 6039,
      "Ġattorney": 6040,
      "Ġexperien": 6041,
      "Ġfeeling": 6042,
      "Ġgrand": 6043,
      "orry": 6044,
      "esis": 6045,
      "while": 6046,
      "Ġarbit": 6047,
      "MT": 6048,
      "Sp": 6049,
      "iat": 6050,
      "Ġcommunic": 6051,
      "Ġinterests": 6052,
      "(&": 6053,
      "Comp": 6054,
      "Ġteams": 6055,
      "Pr": 6056,
      "ensuremath": 6057,
      "Aut": 6058,
      "Ġtechnique": 6059,
      "Ġmembrane": 6060,
      "/\\": 6061,
      "Ġofficers": 6062,
      "Ġregist": 6063,
      "Co": 6064,
      "sens": 6065,
      "ĠJack": 6066,
      "FI": 6067,
      "Ġcrime": 6068,
      "However": 6069,
      "ĠGoogle": 6070,
      "_.": 6071,
      "Ġcontained": 6072,
      "aud": 6073,
      "rian": 6074,
      "Ġteac": 6075,
      "Ġrac": 6076,
      "ĠSur": 6077,
      "Ġslightly": 6078,
      "Ġcat": 6079,
      "typ": 6080,
      "Ġdry": 6081,
      "Ġempt": 6082,
      "idge": 6083,
      "Ġloop": 6084,
      "Ġvel": 6085,
      "ĠOver": 6086,
      "Ġfirm": 6087,
      "poss": 6088,
      "Ġgold": 6089,
      "rd": 6090,
      "Ġsales": 6091,
      "Box": 6092,
      "cks": 6093,
      "uesday": 6094,
      "Ġstrugg": 6095,
      "UE": 6096,
      "Ġdriver": 6097,
      "Ġshared": 6098,
      "Ġvent": 6099,
      "Ġguys": 6100,
      "Ġbool": 6101,
      "CG": 6102,
      "utor": 6103,
      "Ġsitu": 6104,
      "Ġcharged": 6105,
      "onic": 6106,
      "jo": 6107,
      "valid": 6108,
      "Ġopening": 6109,
      "pack": 6110,
      "func": 6111,
      "Che": 6112,
      "Ġcharacters": 6113,
      "etes": 6114,
      "ĠAny": 6115,
      "ago": 6116,
      "}}}": 6117,
      "last": 6118,
      "Ġdoubt": 6119,
      "Ġlatest": 6120,
      "olar": 6121,
      "Ġerrors": 6122,
      "inte": 6123,
      "orders": 6124,
      "Ġprojects": 6125,
      "ugin": 6126,
      "Ġrise": 6127,
      "ĠRem": 6128,
      "ĠChinese": 6129,
      "********************************": 6130,
      "ĠAL": 6131,
      "Ġoffered": 6132,
      "Ġepis": 6133,
      "MR": 6134,
      "Ġconventional": 6135,
      "Ġhus": 6136,
      "Ġprison": 6137,
      "Â·": 6138,
      ".[@": 6139,
      "ilarly": 6140,
      "Ġholding": 6141,
      "ĠDan": 6142,
      "Ġcoverage": 6143,
      "**]{},": 6144,
      "Ġdra": 6145,
      "Ġannounced": 6146,
      "ouble": 6147,
      "Line": 6148,
      "rich": 6149,
      "Ġkit": 6150,
      "oman": 6151,
      "Ġneighbor": 6152,
      "ĠStreet": 6153,
      "ĠCanada": 6154,
      "ĠFoundation": 6155,
      "Ġhol": 6156,
      "Ġexchange": 6157,
      "ĠEq": 6158,
      "ĠTwo": 6159,
      "hetic": 6160,
      "âĢĿ.": 6161,
      "Ġdescribe": 6162,
      "ĠRE": 6163,
      "Ġentered": 6164,
      "Ġconserv": 6165,
      "Ġweap": 6166,
      "Ġgain": 6167,
      "Property": 6168,
      "ĠDE": 6169,
      "Ġagents": 6170,
      "Ġinteractions": 6171,
      "Ġinvolve": 6172,
      "Ġring": 6173,
      "draw": 6174,
      "just": 6175,
      "ĠFriday": 6176,
      "venue": 6177,
      "ATION": 6178,
      "Ġsupply": 6179,
      "illa": 6180,
      "}}{": 6181,
      "plify": 6182,
      "ename": 6183,
      "SU": 6184,
      "Ġrank": 6185,
      "anges": 6186,
      "Ġdecrease": 6187,
      "ariant": 6188,
      "care": 6189,
      "mic": 6190,
      "ĠCirc": 6191,
      "ĠGreen": 6192,
      "ĠClass": 6193,
      "ĠRober": 6194,
      "System": 6195,
      "ĠĠĠĠĠĠĠĠĠĠĠĠĠĠĠĠĠĠĠĠĠĠ": 6196,
      "Ġexpert": 6197,
      "ĠCa": 6198,
      "Ġagency": 6199,
      "xml": 6200,
      "Ġanalyses": 6201,
      "See": 6202,
      "riage": 6203,
      "Ġdose": 6204,
      "Ste": 6205,
      "Ġprofile": 6206,
      "ĠCalculate": 6207,
      "Ġcryst": 6208,
      "Ġconcentrations": 6209,
      "abla": 6210,
      "Ġrepeated": 6211,
      "Ġcomposition": 6212,
      "({": 6213,
      "Ġwish": 6214,
      "kin": 6215,
      "Ġsmooth": 6216,
      "ĠCommun": 6217,
      "hi": 6218,
      "ĠCouncil": 6219,
      "ĠPeople": 6220,
      "Ġwind": 6221,
      "Ġoutcome": 6222,
      "Some": 6223,
      "Ġviews": 6224,
      "iler": 6225,
      "ructions": 6226,
      "OG": 6227,
      "\").": 6228,
      "ĠJames": 6229,
      "summary": 6230,
      "ĠDirect": 6231,
      "âĢĬ": 6232,
      "Â½": 6233,
      "Ġowners": 6234,
      "Ġreceptor": 6235,
      "chen": 6236,
      "lif": 6237,
      "Ġneuro": 6238,
      "Ġgenetic": 6239,
      "ĊĊĊĊ": 6240,
      "ansion": 6241,
      "Ġquarter": 6242,
      "čĊĠĠĠĠĠĠĠĠĠĠĠ": 6243,
      "ĠSuch": 6244,
      "Ġexistence": 6245,
      "query": 6246,
      "Ġpossibility": 6247,
      "Ġcold": 6248,
      "ĠFe": 6249,
      "Call": 6250,
      "Ġplants": 6251,
      "Ġ\"[": 6252,
      "Ġelim": 6253,
      "Ġoperating": 6254,
      "ponse": 6255,
      "Source": 6256,
      "ainer": 6257,
      "Ġ+=": 6258,
      "Ġelectron": 6259,
      "Ġcompleted": 6260,
      "Ġdriving": 6261,
      "pled": 6262,
      "Ref": 6263,
      "ĠArm": 6264,
      "Ġtrend": 6265,
      "Ġreturns": 6266,
      "onald": 6267,
      "ĠRich": 6268,
      "Ġcir": 6269,
      "Ġpatterns": 6270,
      "ĠUnder": 6271,
      "Ġstars": 6272,
      "Ġinteger": 6273,
      "Ġsignals": 6274,
      "Ġaren": 6275,
      "mittee": 6276,
      "Ġwhatever": 6277,
      "asks": 6278,
      "ini": 6279,
      "ĠFOR": 6280,
      "Ġ2004": 6281,
      "ville": 6282,
      "Ġidentity": 6283,
      "Ġheavy": 6284,
      "oted": 6285,
      "ĠCA": 6286,
      "OUT": 6287,
      "child": 6288,
      "ĠĠĠĠĠĠĠĠĠĠĠĠĠĠĠĠĠĠĠĠĠĠĠĠĠĠĠĠĠĠĠĠĠĠĠĠĠĠĠĠĠĠĠĠĠĠĠĠĠĠĠĠĠĠĠĠ": 6289,
      "Ġdiseases": 6290,
      "tes": 6291,
      "Ġinterested": 6292,
      "Ġgenerate": 6293,
      "==========": 6294,
      "Ġ--------": 6295,
      "reated": 6296,
      "ĠWed": 6297,
      "asc": 6298,
      "pg": 6299,
      "ITH": 6300,
      "oom": 6301,
      "Ġlit": 6302,
      "Ġstable": 6303,
      "itect": 6304,
      "Ġfinite": 6305,
      "Î¼": 6306,
      "Ġ${": 6307,
      "arp": 6308,
      "Ġbutton": 6309,
      "Ġmeant": 6310,
      "RL": 6311,
      "Ġpeace": 6312,
      "Ġequivalent": 6313,
      "Ġquery": 6314,
      "Ġappeared": 6315,
      "Ġ};": 6316,
      "Ġequipment": 6317,
      "Ġindicates": 6318,
      "cence": 6319,
      "Ġimportance": 6320,
      "ĠService": 6321,
      "Ġboy": 6322,
      "property": 6323,
      "ĠMonday": 6324,
      "you": 6325,
      "Ġspectrum": 6326,
      "Ġconfirm": 6327,
      "Ġwel": 6328,
      "rated": 6329,
      "Ġcontrolled": 6330,
      "Ġmobile": 6331,
      "kappa": 6332,
      "ĠTra": 6333,
      "Ġcarbon": 6334,
      "widet": 6335,
      "Ġholds": 6336,
      "ĠMart": 6337,
      "widetilde": 6338,
      "nabla": 6339,
      "Ġconclusion": 6340,
      "ĠKe": 6341,
      "Ġsequences": 6342,
      "Ġincorpor": 6343,
      "ĠAddition": 6344,
      "dt": 6345,
      "Ġconvert": 6346,
      "ĠBoth": 6347,
      "amily": 6348,
      "Ġruns": 6349,
      "sem": 6350,
      "Ġdiag": 6351,
      "ba": 6352,
      "ĠWestern": 6353,
      "dots": 6354,
      "Ġjuris": 6355,
      "ĠWell": 6356,
      "Ġconfiguration": 6357,
      "Ġnan": 6358,
      "ĠPD": 6359,
      "Ġhappens": 6360,
      "after": 6361,
      "ITY": 6362,
      "Ġparticles": 6363,
      "PH": 6364,
      "Ġpregn": 6365,
      "Ġ2019": 6366,
      "inn": 6367,
      "PI": 6368,
      "main": 6369,
      "Ġbra": 6370,
      "Ġsecondary": 6371,
      "Ġdefendants": 6372,
      "Ġreality": 6373,
      "xture": 6374,
      "Ġmouse": 6375,
      "Ġtox": 6376,
      "})$": 6377,
      "jected": 6378,
      "ilit": 6379,
      "Manager": 6380,
      "]),": 6381,
      "ĠOut": 6382,
      "ursday": 6383,
      ".</": 6384,
      "amine": 6385,
      "iveness": 6386,
      "web": 6387,
      "Ġmaintain": 6388,
      "ï¼Į": 6389,
      "Click": 6390,
      "Ġpy": 6391,
      "Ġsuff": 6392,
      "Ġcatal": 6393,
      "Ġreferred": 6394,
      "gebra": 6395,
      "Ġapprec": 6396,
      "Ġmeasurements": 6397,
      "Ġdigital": 6398,
      "ERT": 6399,
      "Ġbow": 6400,
      "nesday": 6401,
      "Ġinstr": 6402,
      "ancing": 6403,
      "ĠIns": 6404,
      "Ġsurvey": 6405,
      "ilos": 6406,
      "cluding": 6407,
      "Ġsession": 6408,
      "Ġ------------": 6409,
      "Any": 6410,
      "Ġtrain": 6411,
      "Ġcontinuous": 6412,
      "uries": 6413,
      "ĠInstitute": 6414,
      "ston": 6415,
      "Ð°Ð": 6416,
      "eless": 6417,
      "][": 6418,
      "Ċĉĉĉĉĉ": 6419,
      "Ġseemed": 6420,
      "Ġflex": 6421,
      "faces": 6422,
      "select": 6423,
      "Ġcompens": 6424,
      "Ġdeveloping": 6425,
      "eric": 6426,
      "crete": 6427,
      "101": 6428,
      "ND": 6429,
      "Ġstatements": 6430,
      "istent": 6431,
      "ĠTechn": 6432,
      "Ġdisp": 6433,
      "Ġnoise": 6434,
      "ĠDay": 6435,
      "Ġing": 6436,
      "Ġburn": 6437,
      "Ġlibrary": 6438,
      "false": 6439,
      "NE": 6440,
      "Ġ500": 6441,
      "Ġfarm": 6442,
      "raction": 6443,
      "Ġalcohol": 6444,
      "Ġpure": 6445,
      "ridge": 6446,
      "hal": 6447,
      "othing": 6448,
      "icated": 6449,
      "ĠSecond": 6450,
      "Ġspirit": 6451,
      "inder": 6452,
      "ĠAir": 6453,
      "2015": 6454,
      "has": 6455,
      "Ġattract": 6456,
      "!--": 6457,
      "TO": 6458,
      "Ġdownload": 6459,
      "look": 6460,
      "ĠYes": 6461,
      "height": 6462,
      "Ġchronic": 6463,
      "antly": 6464,
      "ĠSmith": 6465,
      "abilities": 6466,
      "Ġcateg": 6467,
      "Ġbalance": 6468,
      "Ġremainder": 6469,
      "Ġrepresentation": 6470,
      "ĠAS": 6471,
      "Ġexcess": 6472,
      "Pe": 6473,
      "ĠJes": 6474,
      "ĠDel": 6475,
      "ady": 6476,
      "rape": 6477,
      "Ġenvironmental": 6478,
      "Ġjobs": 6479,
      "rig": 6480,
      "ĠMal": 6481,
      "Ġexcell": 6482,
      "ĠCompany": 6483,
      "Ġcollege": 6484,
      "Ġapproved": 6485,
      "ĠAre": 6486,
      "orrow": 6487,
      "Ġdiab": 6488,
      "ocity": 6489,
      "Ġcele": 6490,
      "}+": 6491,
      "aming": 6492,
      "omorph": 6493,
      "ĠMet": 6494,
      "ĠEvery": 6495,
      "ĠFacebook": 6496,
      "Ġlatter": 6497,
      "Ġissued": 6498,
      "Ġsho": 6499,
      "Ġliver": 6500,
      "CK": 6501,
      "Ġhighlight": 6502,
      "Ġborn": 6503,
      "Ġsquare": 6504,
      "Ġextremely": 6505,
      "ows": 6506,
      "ĠItal": 6507,
      "Ġspeech": 6508,
      "ln": 6509,
      "Ġknows": 6510,
      "win": 6511,
      "Ġempty": 6512,
      "Ġwarrant": 6513,
      "ĠMichael": 6514,
      "Ġhab": 6515,
      "Ġspot": 6516,
      "ĠSunday": 6517,
      "Ġestimate": 6518,
      "End": 6519,
      "MI": 6520,
      "Ġexamples": 6521,
      "Ġpartners": 6522,
      "Ġorigin": 6523,
      "aneous": 6524,
      "Ġleader": 6525,
      "Ġabuse": 6526,
      "Ġcovered": 6527,
      "Ġcharges": 6528,
      "Ġtransmission": 6529,
      "ĠKore": 6530,
      "Ġlung": 6531,
      "ĠPort": 6532,
      "ĠPress": 6533,
      ")/(": 6534,
      "sey": 6535,
      "Ġserum": 6536,
      "ĠBig": 6537,
      "Ġahead": 6538,
      "Ġexplicit": 6539,
      "Ġregulation": 6540,
      "alysis": 6541,
      "Ġliterature": 6542,
      "lem": 6543,
      "ĠMac": 6544,
      "ĠFlor": 6545,
      "ensor": 6546,
      "Ġstre": 6547,
      "house": 6548,
      "ailed": 6549,
      "ki": 6550,
      "Ġsubstantial": 6551,
      ")[": 6552,
      "Ġsigned": 6553,
      "Ġopened": 6554,
      "Ġhusband": 6555,
      "apache": 6556,
      "Ġimplementation": 6557,
      "Ġterror": 6558,
      "ĠWhy": 6559,
      "ias": 6560,
      "Ġscene": 6561,
      "Ġfluid": 6562,
      "Ġcustomers": 6563,
      "asure": 6564,
      "stein": 6565,
      "ĠMat": 6566,
      "rl": 6567,
      "ogene": 6568,
      "Ġchurch": 6569,
      "ror": 6570,
      "Ġformula": 6571,
      "Ġvill": 6572,
      "ĊĊĠĠĠĠĠĠ": 6573,
      "Ġoccurs": 6574,
      "ytic": 6575,
      "ĠTheorem": 6576,
      "Don": 6577,
      "Ġplasma": 6578,
      "Ġintent": 6579,
      "ĠChristian": 6580,
      "Ġwood": 6581,
      "gments": 6582,
      "Ġrecorded": 6583,
      "ĠCR": 6584,
      "Ġdelivery": 6585,
      "Ġcompounds": 6586,
      "ĠER": 6587,
      "aturday": 6588,
      "Ġdecisions": 6589,
      "Ġappar": 6590,
      "ishes": 6591,
      "Ġcycl": 6592,
      "mt": 6593,
      "appro": 6594,
      "hent": 6595,
      "Ġextension": 6596,
      "ĠMiss": 6597,
      "ĠLeg": 6598,
      "target": 6599,
      "legal": 6600,
      "Ġreceiving": 6601,
      "Ġevaluated": 6602,
      "$$\\": 6603,
      "Ġassay": 6604,
      "Ġnetworks": 6605,
      "ulin": 6606,
      "Ġinner": 6607,
      "Ġallowing": 6608,
      "Button": 6609,
      "duc": 6610,
      "Ġcalling": 6611,
      "Ġextended": 6612,
      "process": 6613,
      "Ġleaves": 6614,
      "ĠAmericans": 6615,
      "product": 6616,
      "Ġviolence": 6617,
      "lets": 6618,
      "Ġwat": 6619,
      "anes": 6620,
      "Ġ75": 6621,
      "Ġhaven": 6622,
      "ĠFrench": 6623,
      "Ġpercentage": 6624,
      "AY": 6625,
      "real": 6626,
      "format": 6627,
      "Ġdigit": 6628,
      "ĠUnion": 6629,
      "first": 6630,
      "Ġoutcomes": 6631,
      "-------": 6632,
      "According": 6633,
      "itative": 6634,
      "Ġconcerns": 6635,
      "Ġassessment": 6636,
      "**(-": 6637,
      "message": 6638,
      "Ġappoint": 6639,
      "Ġsubsequent": 6640,
      "endif": 6641,
      "names": 6642,
      "Ġleaving": 6643,
      "Ġthousands": 6644,
      "ĠCommittee": 6645,
      "okes": 6646,
      "Ġ2003": 6647,
      "bal": 6648,
      "Ġtestified": 6649,
      "Ġhelped": 6650,
      "phone": 6651,
      "oking": 6652,
      "sa": 6653,
      "Ġmostly": 6654,
      "standing": 6655,
      "erest": 6656,
      "åı": 6657,
      "ipped": 6658,
      "Ġunderlying": 6659,
      "Ġowner": 6660,
      "Ġarr": 6661,
      "IST": 6662,
      "Ġimmune": 6663,
      "Ġguarant": 6664,
      "ĠLeague": 6665,
      "Ġarguments": 6666,
      "ĠFinally": 6667,
      "lands": 6668,
      "Ġsale": 6669,
      "\\{": 6670,
      "Ġefficiency": 6671,
      "Net": 6672,
      "oret": 6673,
      "ĠDuring": 6674,
      "elled": 6675,
      "ĠTuesday": 6676,
      "ortunately": 6677,
      "ributes": 6678,
      "omes": 6679,
      "std": 6680,
      "Ġwire": 6681,
      "Ġmuscle": 6682,
      "ups": 6683,
      "van": 6684,
      "ilty": 6685,
      "night": 6686,
      "ifications": 6687,
      "Ġlymph": 6688,
      "Ġrepresented": 6689,
      "edy": 6690,
      "ĠUsing": 6691,
      "Ġcriteria": 6692,
      "ads": 6693,
      "Ġcentury": 6694,
      "Ġuniform": 6695,
      "endment": 6696,
      "Ġraise": 6697,
      ")=\\": 6698,
      "server": 6699,
      "=======": 6700,
      "ĠĊĠ": 6701,
      "ĠJer": 6702,
      "tex": 6703,
      "Ġgreatest": 6704,
      "ĠCT": 6705,
      "Ġexamined": 6706,
      "author": 6707,
      "Ġmanufacture": 6708,
      "zeta": 6709,
      "2013": 6710,
      "sor": 6711,
      "Ġvacc": 6712,
      "Ġbudget": 6713,
      "null": 6714,
      "Ġspecified": 6715,
      "Ġlearned": 6716,
      "Ġeventually": 6717,
      "Ġbooks": 6718,
      ")\"": 6719,
      "SM": 6720,
      "ĠSun": 6721,
      "Ġadult": 6722,
      "rog": 6723,
      "Ġ39": 6724,
      "Ext": 6725,
      "Ġpowerful": 6726,
      "Ġdiscrim": 6727,
      "ĠLou": 6728,
      "Ġshut": 6729,
      "Point": 6730,
      "Ġcandidate": 6731,
      "ĠWH": 6732,
      "yan": 6733,
      "bed": 6734,
      "Ġcurve": 6735,
      "omal": 6736,
      "ostic": 6737,
      "Ġrestaur": 6738,
      "hens": 6739,
      "Ġdepends": 6740,
      "zen": 6741,
      "2014": 6742,
      "Ġlimitations": 6743,
      "2016": 6744,
      "Ġincident": 6745,
      "ĠMany": 6746,
      "Ġpositions": 6747,
      ":\\": 6748,
      "ih": 6749,
      "itely": 6750,
      "Ġbeg": 6751,
      "Ġlicense": 6752,
      "akers": 6753,
      "Ġelev": 6754,
      "Ġconstitution": 6755,
      "ĠIran": 6756,
      "yr": 6757,
      "Ġscheme": 6758,
      "ORD": 6759,
      "Ġdefect": 6760,
      "wed": 6761,
      "Ġsupposed": 6762,
      "Ġplane": 6763,
      "ampions": 6764,
      "ĠGermany": 6765,
      "Ġ64": 6766,
      "ĠJudge": 6767,
      "Ġvoltage": 6768,
      "operative": 6769,
      "Query": 6770,
      "Bar": 6771,
      "ĠâĢ¦": 6772,
      "Ġinvestigated": 6773,
      "Ġvary": 6774,
      ")*(": 6775,
      "Ġthreshold": 6776,
      "'.": 6777,
      "-----": 6778,
      "ĠWeb": 6779,
      "ette": 6780,
      "Ġachieved": 6781,
      "ĠScience": 6782,
      "Ġtypical": 6783,
      "dem": 6784,
      "?âĢĿ": 6785,
      "SON": 6786,
      "ãĢĤ": 6787,
      "ĠIII": 6788,
      "ĠLem": 6789,
      "Ġresearc": 6790,
      "Ġwarm": 6791,
      "000000": 6792,
      "Ġpathway": 6793,
      "FFFF": 6794,
      "ĊĠĠĠĠĠĠĠĠĠĠĠĠ": 6795,
      "isher": 6796,
      "Ġgar": 6797,
      "Ġgoals": 6798,
      "Ġpurchase": 6799,
      "Ġ${{\\": 6800,
      "Ġmixed": 6801,
      "gt": 6802,
      "ĠNone": 6803,
      "otes": 6804,
      "Ġchanging": 6805,
      "Ġunivers": 6806,
      "ipal": 6807,
      "Ġpolicies": 6808,
      "ĠCollege": 6809,
      "Ġ00": 6810,
      "Ġjournal": 6811,
      "Ġ44": 6812,
      "Client": 6813,
      "Ġfraction": 6814,
      "iant": 6815,
      "Ġprocedures": 6816,
      "Ġspring": 6817,
      "rowser": 6818,
      "Ġstandards": 6819,
      "Ġmetabol": 6820,
      "dependent": 6821,
      "olf": 6822,
      "supplementary": 6823,
      "enu": 6824,
      "Ġrecovery": 6825,
      "oday": 6826,
      "These": 6827,
      "Ġflat": 6828,
      "Ġfish": 6829,
      "Ġenforce": 6830,
      "Ġapplicable": 6831,
      "ĠAssociation": 6832,
      "Ġgranted": 6833,
      "Ġtub": 6834,
      "Ġspend": 6835,
      "Ġfilms": 6836,
      "Pol": 6837,
      "à¥": 6838,
      "bug": 6839,
      "cp": 6840,
      "dimensional": 6841,
      "Ġ2001": 6842,
      "Ġtele": 6843,
      "ĠAR": 6844,
      "gression": 6845,
      "PRO": 6846,
      "**]{}": 6847,
      "ĠGovernment": 6848,
      "ella": 6849,
      "she": 6850,
      "Then": 6851,
      "gers": 6852,
      "ĠBay": 6853,
      "UD": 6854,
      "CTION": 6855,
      "Ġheter": 6856,
      "Ġacts": 6857,
      "Ġisolated": 6858,
      "Ġinsp": 6859,
      "Ġpert": 6860,
      "Ġflav": 6861,
      "law": 6862,
      "Ġacknow": 6863,
      "weight": 6864,
      "Ġpolar": 6865,
      "ASS": 6866,
      "ĠUp": 6867,
      "DB": 6868,
      "Ġgon": 6869,
      "Ġdesired": 6870,
      "${": 6871,
      "Number": 6872,
      "Ġevaluation": 6873,
      "Ġseeing": 6874,
      "FC": 6875,
      "ructure": 6876,
      "isted": 6877,
      "lang": 6878,
      "aper": 6879,
      "Just": 6880,
      ",'": 6881,
      "dr": 6882,
      "organ": 6883,
      "Ġeasier": 6884,
      "Ġsubstrate": 6885,
      "riend": 6886,
      "json": 6887,
      "Are": 6888,
      "ĠTR": 6889,
      "Ġmanager": 6890,
      "Ġsections": 6891,
      "cf": 6892,
      "Ġindeed": 6893,
      "Ġstrongly": 6894,
      "Ġrelief": 6895,
      "Ġtraffic": 6896,
      "Ġdetailed": 6897,
      "Ġmorph": 6898,
      "Ġfunds": 6899,
      "Ġpaint": 6900,
      "Ġinvestment": 6901,
      "Ġbaby": 6902,
      "cel": 6903,
      "ipl": 6904,
      "Ġfuel": 6905,
      ";\\": 6906,
      "aine": 6907,
      "Ġchosen": 6908,
      "Ġfourth": 6909,
      "Ġlab": 6910,
      "Ġ55": 6911,
      "Ġfol": 6912,
      "button": 6913,
      "Ġentitled": 6914,
      "Ġ{{\\": 6915,
      "Ġmaster": 6916,
      "FS": 6917,
      "Ã¶": 6918,
      "ĠChurch": 6919,
      "2012": 6920,
      "Stream": 6921,
      "Ã¨": 6922,
      "Input": 6923,
      "Ġreplic": 6924,
      "Ġfreedom": 6925,
      "Ġcategory": 6926,
      "Ġstored": 6927,
      "ĠFin": 6928,
      "Ġrestrict": 6929,
      "Run": 6930,
      "ested": 6931,
      "iller": 6932,
      "Ġgly": 6933,
      "jud": 6934,
      "Ġcommitted": 6935,
      "Ġjoin": 6936,
      "ests": 6937,
      "Ġaccord": 6938,
      "Ġpropos": 6939,
      "Ġamaz": 6940,
      "}=\\": 6941,
      "Ġdaughter": 6942,
      "Ġcluster": 6943,
      "ceived": 6944,
      "Ġrevers": 6945,
      "Ġduty": 6946,
      "Ġconclude": 6947,
      "Ġconsidering": 6948,
      "img": 6949,
      "cretion": 6950,
      "break": 6951,
      "ĠMem": 6952,
      "Ġ65": 6953,
      "ĠWhich": 6954,
      "Ġdirected": 6955,
      "////////////////": 6956,
      "ĠEngland": 6957,
      "ĠPen": 6958,
      "ĠForm": 6959,
      "Ġsymbol": 6960,
      "ocytes": 6961,
      "Ġfif": 6962,
      "DL": 6963,
      "Ġdraft": 6964,
      "Ġpayment": 6965,
      "FP": 6966,
      "Ġthanks": 6967,
      "fee": 6968,
      "Ġgalax": 6969,
      "ector": 6970,
      "annels": 6971,
      "ĠFlorida": 6972,
      "Ġprices": 6973,
      "Ġincub": 6974,
      "amental": 6975,
      "Ġbond": 6976,
      "cat": 6977,
      "Ġcris": 6978,
      "ĠSN": 6979,
      "bert": 6980,
      "Ġforced": 6981,
      "Ġdocuments": 6982,
      "QU": 6983,
      "Ġemph": 6984,
      "Ġreligious": 6985,
      "ĠTom": 6986,
      "ĠParty": 6987,
      "Ġearth": 6988,
      "Ġintellig": 6989,
      "velopment": 6990,
      "2017": 6991,
      "diction": 6992,
      "ĠWil": 6993,
      "Ġlisted": 6994,
      "small": 6995,
      "dat": 6996,
      "300": 6997,
      "ĠMo": 6998,
      "Ã¼": 6999,
      "Ġcup": 7000,
      "Ġaccident": 7001,
      "ERR": 7002,
      "ÃĲÂµ": 7003,
      "estic": 7004,
      ">(": 7005,
      "context": 7006,
      "Ġnav": 7007,
      "itions": 7008,
      "Ġoxid": 7009,
      "plet": 7010,
      "ivo": 7011,
      "ĠThursday": 7012,
      "Ġdetermination": 7013,
      "Ġapparatus": 7014,
      "ĠCopyright": 7015,
      "Ġstories": 7016,
      "Us": 7017,
      "Ġmo": 7018,
      "Ġequations": 7019,
      "Ġstimul": 7020,
      "Start": 7021,
      "Ġskills": 7022,
      "Ġrock": 7023,
      "Ġconflict": 7024,
      "Ġfocused": 7025,
      "]--": 7026,
      "Ġalter": 7027,
      "Ġdepending": 7028,
      "inv": 7029,
      "Ġforth": 7030,
      "rive": 7031,
      "Ġ300": 7032,
      "ĠHill": 7033,
      "ĠSal": 7034,
      "Ġwaiting": 7035,
      "Ġlose": 7036,
      "amm": 7037,
      "ĠSE": 7038,
      "Ġvirtual": 7039,
      "Ġplays": 7040,
      "_{{\\": 7041,
      "itable": 7042,
      "}}^": 7043,
      "ĠWednesday": 7044,
      "Ġresulted": 7045,
      "sg": 7046,
      "Ġconsult": 7047,
      "Ġ2002": 7048,
      "Ġminim": 7049,
      "rep": 7050,
      "Ġfans": 7051,
      "idelines": 7052,
      "Ġaccum": 7053,
      "Ġecho": 7054,
      "clusive": 7055,
      "Ġmeasurement": 7056,
      "AGE": 7057,
      "NO": 7058,
      "Ġuint": 7059,
      "iot": 7060,
      "ĠPC": 7061,
      "Ġconcern": 7062,
      "Ġobservations": 7063,
      "Ġpossibly": 7064,
      "Ġsch": 7065,
      "levision": 7066,
      "scale": 7067,
      "Ġversus": 7068,
      "ounce": 7069,
      "Ġmodified": 7070,
      "status": 7071,
      "Ġbelieved": 7072,
      "only": 7073,
      "cdots": 7074,
      "ĠRussia": 7075,
      "Ġdeg": 7076,
      "\"}.": 7077,
      "--------------------------------------------------------------------------------------------------------------------------------": 7078,
      "Gen": 7079,
      "Part": 7080,
      "BO": 7081,
      "ĠHIV": 7082,
      "ĠCI": 7083,
      "bound": 7084,
      "YPE": 7085,
      "ĠOpen": 7086,
      "Content": 7087,
      "ĠTime": 7088,
      "Ġafford": 7089,
      "Ġexcellent": 7090,
      "Ġassuming": 7091,
      "Ġtag": 7092,
      "output": 7093,
      "ĠGold": 7094,
      "ĠMA": 7095,
      "Ġcompr": 7096,
      "event": 7097,
      "Ġneither": 7098,
      "rypt": 7099,
      "Result": 7100,
      "alty": 7101,
      "Ġnodes": 7102,
      "ĠIT": 7103,
      "Since": 7104,
      "inations": 7105,
      "ushed": 7106,
      "Ġfees": 7107,
      "Ġangle": 7108,
      "ĠBre": 7109,
      "ĠDiv": 7110,
      "Ġexplan": 7111,
      "Ġfloat": 7112,
      "Ġoffense": 7113,
      "Ġtwice": 7114,
      "ĠNa": 7115,
      "Ġcere": 7116,
      "ĠLord": 7117,
      "Ġemployed": 7118,
      "ĠVir": 7119,
      "stood": 7120,
      "imately": 7121,
      "rapeut": 7122,
      "Ġapproaches": 7123,
      "Ġcommunities": 7124,
      "Ġdamages": 7125,
      "Â¶": 7126,
      "Ġoblig": 7127,
      "ĠUN": 7128,
      "ĠEX": 7129,
      "Ġcompare": 7130,
      "va": 7131,
      "ĠServ": 7132,
      "Back": 7133,
      "ĠFree": 7134,
      "search": 7135,
      "Ġstreet": 7136,
      "Ġplanning": 7137,
      "GE": 7138,
      "ACK": 7139,
      "ellular": 7140,
      "Ġ41": 7141,
      "Ġscan": 7142,
      "Ġseek": 7143,
      "Ġresource": 7144,
      "Ġinvestigate": 7145,
      "ĠRob": 7146,
      "Ġstanding": 7147,
      "imer": 7148,
      "Ġenhance": 7149,
      "GB": 7150,
      "Ġsalt": 7151,
      "ĠSam": 7152,
      "Ġrich": 7153,
      "Ġpreval": 7154,
      "Ġscores": 7155,
      "umns": 7156,
      "ĠWindows": 7157,
      "Ġtranscription": 7158,
      "ä»": 7159,
      "ĠBel": 7160,
      "Ġcos": 7161,
      "Ġconfidence": 7162,
      "Ġaccuracy": 7163,
      "otherapy": 7164,
      "Ġ120": 7165,
      "ipher": 7166,
      "Ġshock": 7167,
      "Ġfunding": 7168,
      "128": 7169,
      "ĠBer": 7170,
      "Ġhelps": 7171,
      "Ġbatter": 7172,
      "ĠFile": 7173,
      "Ġwilling": 7174,
      "Ġconcerned": 7175,
      "]--[@": 7176,
      "ĠRef": 7177,
      "Ġhousing": 7178,
      "SL": 7179,
      "edia": 7180,
      "Ġtrials": 7181,
      "else": 7182,
      "ĠMary": 7183,
      "ician": 7184,
      "Ġintervention": 7185,
      "ĠPet": 7186,
      "Ġsensitivity": 7187,
      "outhern": 7188,
      "layout": 7189,
      "Ġ_{": 7190,
      "\\!": 7191,
      "Ġcitizens": 7192,
      "Ġegg": 7193,
      "ĠEnd": 7194,
      "Ġmainly": 7195,
      "istory": 7196,
      "Ġdepth": 7197,
      "Ġguilty": 7198,
      "ĠBur": 7199,
      "Ø§": 7200,
      "Ġboundary": 7201,
      "del": 7202,
      "Ġasking": 7203,
      "Ġelectronic": 7204,
      "nav": 7205,
      "uous": 7206,
      "Ġadults": 7207,
      "inton": 7208,
      "oded": 7209,
      "Ġrelationships": 7210,
      "pload": 7211,
      "ĠMex": 7212,
      "ĠSH": 7213,
      "Ġtun": 7214,
      "Controller": 7215,
      "INE": 7216,
      "ĠCircuit": 7217,
      "Read": 7218,
      "erior": 7219,
      "ĠSaturday": 7220,
      "Ġspat": 7221,
      "Ġpal": 7222,
      "ĠJapanese": 7223,
      "Ġinvolving": 7224,
      "sect": 7225,
      "Ġdatas": 7226,
      "Ġexperienced": 7227,
      "Ġanalog": 7228,
      "android": 7229,
      "%.": 7230,
      "ĠPR": 7231,
      "^+^": 7232,
      "ĠIslam": 7233,
      "Ġbon": 7234,
      "Ġfinished": 7235,
      "Ġevaluate": 7236,
      "Ġcogn": 7237,
      "Ġ&=": 7238,
      "Ġexposed": 7239,
      "Ġrecip": 7240,
      "Ã¤": 7241,
      "ĠBrown": 7242,
      "usal": 7243,
      "client": 7244,
      "Ġexpansion": 7245,
      "Ġcontribution": 7246,
      "Rem": 7247,
      "mid": 7248,
      "________________": 7249,
      "Which": 7250,
      "Ġsignaling": 7251,
      "ĠCL": 7252,
      "Ġextends": 7253,
      "ontal": 7254,
      "ĠAlex": 7255,
      "possible": 7256,
      "Ġadvice": 7257,
      "Ġworse": 7258,
      "appe": 7259,
      "Override": 7260,
      "ateral": 7261,
      "cr": 7262,
      "Base": 7263,
      "esh": 7264,
      "ĠSolve": 7265,
      "eles": 7266,
      "Te": 7267,
      "sin": 7268,
      "ĠJesus": 7269,
      "gent": 7270,
      "Ġframework": 7271,
      "ĊĠĠĠĠĠĠĠĠĠĠĠĠĠĠĠĠĠ": 7272,
      "2000": 7273,
      "Ġemployee": 7274,
      "\"),": 7275,
      "TA": 7276,
      "More": 7277,
      "Ġcontinues": 7278,
      "cup": 7279,
      "Ġcapable": 7280,
      "2010": 7281,
      "adding": 7282,
      "uls": 7283,
      "ĠĠĠĠĠĠĠĠĠĠĠĠĠĠĠĠĠĠĠĠĠĠĠĠĠĠĠĠĠĠĠĠĠĠĠĠĠĠĠĠĠĠĠĠĠĠĠĠĠĠĠĠĠĠĠĠĠĠĠĠĠĠĠĠĠĠĠĠĠĠĠĠĠĠĠĠĠĠĠĠĠĠĠĠĠĠĠĠĠĠĠĠĠĠĠĠĠĠĠĠĠĠĠĠĠĠĠĠĠĠĠĠĠĠĠĠĠĠĠĠĠĠĠĠĠĠĠĠĠĠĠĠĠĠĠĠĠĠĠĠĠĠĠĠĠĠĠĠĠĠĠĠĠĠĠĠĠĠĠĠĠĠĠĠĠĠĠĠĠĠĠĠĠĠĠĠĠĠĠĠĠĠĠĠĠĠĠĠĠĠĠĠĠĠĠĠĠĠĠĠĠĠĠĠĠĠĠĠĠĠĠĠĠĠĠĠĠĠĠĠĠĠĠĠĠĠĠĠĠĠĠĠĠĠĠĠĠĠĠĠĠĠĠĠĠĠĠĠĠĠĠĠĠĠĠĠ": 7284,
      "Ġadvert": 7285,
      "2011": 7286,
      "ita": 7287,
      "Ġfab": 7288,
      "Ġsettings": 7289,
      "ĠFederal": 7290,
      "Ġideal": 7291,
      "čĊĠĠĠĠĠ": 7292,
      "Ġdepartment": 7293,
      "Ġdil": 7294,
      "Ġassessed": 7295,
      "Ġintensity": 7296,
      "ĠAustralia": 7297,
      "utely": 7298,
      "Ġcritic": 7299,
      "umer": 7300,
      "Ġplot": 7301,
      "ĠSD": 7302,
      "ĠInternet": 7303,
      "Ġion": 7304,
      "Ġharm": 7305,
      "007": 7306,
      "FIG": 7307,
      ")^{": 7308,
      "Ġphenomen": 7309,
      "/-": 7310,
      "Ġrent": 7311,
      "Ñĥ": 7312,
      "ĠOffice": 7313,
      "Ġdys": 7314,
      ".**": 7315,
      "ivation": 7316,
      "ĠGeorge": 7317,
      "je": 7318,
      "ĠIP": 7319,
      "enance": 7320,
      "etime": 7321,
      "Ġcompetition": 7322,
      "Ġordered": 7323,
      "END": 7324,
      "conf": 7325,
      "Ġadvance": 7326,
      "Ġadvanced": 7327,
      "Ġdemonstrate": 7328,
      "Ġbiological": 7329,
      "Ġguide": 7330,
      "Ġplaintiffs": 7331,
      "press": 7332,
      "OK": 7333,
      "Ġpept": 7334,
      "Ġrelates": 7335,
      "Ġstack": 7336,
      "Note": 7337,
      "Vert": 7338,
      "NF": 7339,
      "raq": 7340,
      "eting": 7341,
      "006": 7342,
      ";&": 7343,
      "ernel": 7344,
      "Ð»": 7345,
      "Ġmurder": 7346,
      "apers": 7347,
      "ĠField": 7348,
      "ĠMS": 7349,
      "Ġpersons": 7350,
      "rot": 7351,
      "Ġdeliver": 7352,
      "Ġcash": 7353,
      "MD": 7354,
      "Ġscope": 7355,
      "ilton": 7356,
      "GC": 7357,
      "Ġstrain": 7358,
      "entry": 7359,
      "Ġchallenges": 7360,
      "display": 7361,
      "Ġ49": 7362,
      "Ġpotentially": 7363,
      "ĠGood": 7364,
      "Ġsuitable": 7365,
      "Ġ47": 7366,
      "Ġban": 7367,
      "Ġimaging": 7368,
      "dy": 7369,
      "Ġ46": 7370,
      "ĠHall": 7371,
      "module": 7372,
      "Ġhumans": 7373,
      "gical": 7374,
      "Ġvelocity": 7375,
      "ua": 7376,
      "ĠFIG": 7377,
      "Ġnorth": 7378,
      "ĠPlease": 7379,
      "ĠRobert": 7380,
      "ker": 7381,
      "Ġinterval": 7382,
      "Ġindepend": 7383,
      "Ġconsent": 7384,
      "Ġconference": 7385,
      "Ġrats": 7386,
      "Ġdecide": 7387,
      "Ġstopped": 7388,
      "Ġfill": 7389,
      "ĠCP": 7390,
      "ĠSum": 7391,
      "Ġiron": 7392,
      "Ġsam": 7393,
      "Ġstatistical": 7394,
      "ftware": 7395,
      "Ġconstraint": 7396,
      "Ġimprovement": 7397,
      "Ġarter": 7398,
      "missions": 7399,
      "ĠGa": 7400,
      "Version": 7401,
      "Last": 7402,
      "uint": 7403,
      "Ġrecall": 7404,
      "Ġtight": 7405,
      "âĢĿ,": 7406,
      "Simplify": 7407,
      "iary": 7408,
      "Ġadministr": 7409,
      "orthern": 7410,
      "ĠDefendant": 7411,
      "Ġcrow": 7412,
      "Ġmel": 7413,
      "Ġclaimed": 7414,
      "Ġconsc": 7415,
      "Ġremained": 7416,
      "ashed": 7417,
      "Ġthin": 7418,
      "Ġstrict": 7419,
      "Ġ43": 7420,
      "iliar": 7421,
      "apped": 7422,
      "orted": 7423,
      "ĠNO": 7424,
      "ROM": 7425,
      "Ut": 7426,
      "ifferent": 7427,
      "Go": 7428,
      "ometric": 7429,
      "arden": 7430,
      "iples": 7431,
      "Ġended": 7432,
      "ĠType": 7433,
      "inates": 7434,
      "ĉĉĉ": 7435,
      "ifies": 7436,
      "ERS": 7437,
      "Ġsides": 7438,
      "Ġburden": 7439,
      "xygen": 7440,
      "Ġunknown": 7441,
      "Ġpartial": 7442,
      "Ġduration": 7443,
      "Ġmand": 7444,
      "Ġchief": 7445,
      "ĠUse": 7446,
      "dule": 7447,
      "ĠStat": 7448,
      "Ġlegisl": 7449,
      "sd": 7450,
      "Ġjump": 7451,
      "Ġsuggesting": 7452,
      "ĊĠĠĠĠĠĠĠĠĠĠ": 7453,
      "Ġran": 7454,
      "ĊĠĠĠĠĠĠĠĠĠĠĠĠĠĠĠĠĠĠĠĠĠĠĠĠĠĠĠĠĠĠĠ": 7455,
      "ĠRussian": 7456,
      "ĠLin": 7457,
      "Rev": 7458,
      "Ġfrequently": 7459,
      "Ġdiscovered": 7460,
      "ĠTur": 7461,
      "Ġbranch": 7462,
      "Ġhence": 7463,
      "120": 7464,
      "ĠÂ£": 7465,
      "itud": 7466,
      "arks": 7467,
      "Ge": 7468,
      "Ġdoctor": 7469,
      "Ġadequ": 7470,
      "Âº": 7471,
      "Ġlic": 7472,
      "ĠRepublican": 7473,
      "ĠWork": 7474,
      "Ġbag": 7475,
      "ĠIF": 7476,
      "antic": 7477,
      "============": 7478,
      "clusions": 7479,
      "Ġreverse": 7480,
      "ears": 7481,
      "Ġargues": 7482,
      "ĠRule": 7483,
      "plete": 7484,
      "dep": 7485,
      "Ġsan": 7486,
      "Ġorient": 7487,
      ")}\\": 7488,
      "Ġlimits": 7489,
      "Ġbright": 7490,
      "Ġnine": 7491,
      "Ġcelebr": 7492,
      "~~~": 7493,
      "Ġnecessarily": 7494,
      "Fe": 7495,
      "Ġ150": 7496,
      "Script": 7497,
      "Ġton": 7498,
      "Ġcolon": 7499,
      "Ġarms": 7500,
      "ĠCE": 7501,
      "Ġannual": 7502,
      "rey": 7503,
      "charge": 7504,
      "rip": 7505,
      "Off": 7506,
      "ĠANY": 7507,
      "Ġmarked": 7508,
      "Frame": 7509,
      "Create": 7510,
      "args": 7511,
      "ployment": 7512,
      "ju": 7513,
      "mg": 7514,
      "Ġcourts": 7515,
      "2018": 7516,
      "Check": 7517,
      "ĠSecret": 7518,
      "Ġsynd": 7519,
      "Ġsole": 7520,
      "Ġseconds": 7521,
      "Ġpharm": 7522,
      "Ġ56": 7523,
      "dden": 7524,
      "Ġradiation": 7525,
      "Ġaxis": 7526,
      "Ġformal": 7527,
      "Ġvariation": 7528,
      "Ġdestroy": 7529,
      "Ġassembly": 7530,
      "Ġstability": 7531,
      "Ġrough": 7532,
      "Ġens": 7533,
      "iverse": 7534,
      "roke": 7535,
      "GA": 7536,
      ")]": 7537,
      "ĠMinister": 7538,
      "iological": 7539,
      "ĠHence": 7540,
      "*/": 7541,
      "\"]": 7542,
      "Ġpoll": 7543,
      "Ġwidely": 7544,
      "Ġtick": 7545,
      "Conne": 7546,
      "Ġacute": 7547,
      "TC": 7548,
      "uing": 7549,
      "Ġantibody": 7550,
      "Ġthereby": 7551,
      "ools": 7552,
      "IO": 7553,
      "Ġstick": 7554,
      "Ġdefinitely": 7555,
      "ĠSand": 7556,
      "Ġbrand": 7557,
      "mas": 7558,
      "ĠTwitter": 7559,
      "ells": 7560,
      "ĠLike": 7561,
      "Ġoral": 7562,
      "icious": 7563,
      "Ġconven": 7564,
      "Ġprovision": 7565,
      "Ġtables": 7566,
      "Post": 7567,
      "Ġice": 7568,
      "Ġpossess": 7569,
      "Ġlinked": 7570,
      "Ġdimension": 7571,
      "Ġaspects": 7572,
      "ĠJohnson": 7573,
      "ĠmRNA": 7574,
      "Ġcort": 7575,
      "Ġgrav": 7576,
      "Ġattacks": 7577,
      "usiness": 7578,
      "method": 7579,
      "month": 7580,
      "Ġkeeping": 7581,
      "ĠLog": 7582,
      "Ġimplies": 7583,
      "Ġnumerous": 7584,
      "helial": 7585,
      "icago": 7586,
      "References": 7587,
      "Ġpopulations": 7588,
      "ĠFrance": 7589,
      "mut": 7590,
      "Mon": 7591,
      "Ġindicating": 7592,
      "ABLE": 7593,
      "Ġul": 7594,
      "ĠGerman": 7595,
      "Ġanc": 7596,
      "Ġstarts": 7597,
      "ĠWITH": 7598,
      "Page": 7599,
      "asy": 7600,
      "Ġmixture": 7601,
      "ĠJustice": 7602,
      "ochem": 7603,
      "ĠOnce": 7604,
      "Ġidentification": 7605,
      "Ġfundamental": 7606,
      "NN": 7607,
      "rine": 7608,
      "Ġwaste": 7609,
      "Ġarchitect": 7610,
      "Ġopposite": 7611,
      "cut": 7612,
      "Ġrare": 7613,
      "Ġaccepted": 7614,
      "Action": 7615,
      "osh": 7616,
      "roduction": 7617,
      "ĠDec": 7618,
      "HS": 7619,
      "ĠOnly": 7620,
      "ĠĊĠĠĠ": 7621,
      "Ġinterpretation": 7622,
      "Ġmortality": 7623,
      "Ġunable": 7624,
      "Ġinstructions": 7625,
      "Char": 7626,
      "Ġentirely": 7627,
      "Ġviolation": 7628,
      "Ġmission": 7629,
      "Ġinteract": 7630,
      "Ġbreath": 7631,
      "ĠAppe": 7632,
      "Ġcoach": 7633,
      "Ġbeat": 7634,
      "war": 7635,
      "Response": 7636,
      "([": 7637,
      "Ġtruly": 7638,
      "Ġabsolute": 7639,
      "Ġrecognized": 7640,
      "Psi": 7641,
      "May": 7642,
      "Ġju": 7643,
      "Ġsouth": 7644,
      "agon": 7645,
      "Ġcellular": 7646,
      "Ġbone": 7647,
      "Ġgonna": 7648,
      "\\/": 7649,
      "msgid": 7650,
      "Ġpractices": 7651,
      "Ġdistingu": 7652,
      "Ġreprodu": 7653,
      "Ġgirls": 7654,
      "unit": 7655,
      "hedul": 7656,
      "\"})": 7657,
      "rency": 7658,
      "Ġspl": 7659,
      "Ġcontribute": 7660,
      "Ġnotes": 7661,
      "Ġgluc": 7662,
      "Americ": 7663,
      "Ġnarrow": 7664,
      "anda": 7665,
      "Ġparallel": 7666,
      "Ġdegrees": 7667,
      "ensed": 7668,
      "Ġsudden": 7669,
      "MC": 7670,
      "Ġends": 7671,
      "Ġpartner": 7672,
      "Status": 7673,
      "Ġmassive": 7674,
      "hether": 7675,
      "Ġsupporting": 7676,
      "Ġrelax": 7677,
      "ĠIraq": 7678,
      "Ġsmart": 7679,
      "ashion": 7680,
      "ĠPA": 7681,
      "Ġsuppl": 7682,
      "Filter": 7683,
      "msgstr": 7684,
      "Ġmouth": 7685,
      "find": 7686,
      "ĠMass": 7687,
      "opath": 7688,
      "xe": 7689,
      "ĠSenate": 7690,
      "Ġprotest": 7691,
      "next": 7692,
      "lections": 7693,
      "110": 7694,
      "ĠON": 7695,
      "png": 7696,
      "Ġtrip": 7697,
      "Ġresponsibility": 7698,
      "Ġreact": 7699,
      "})\\": 7700,
      "request": 7701,
      "EXT": 7702,
      "Ġsigns": 7703,
      "$)": 7704,
      "Ġbecoming": 7705,
      "Ġmiles": 7706,
      "Ġemployment": 7707,
      "Ġast": 7708,
      "claim": 7709,
      "Ġpolymer": 7710,
      "vol": 7711,
      "cale": 7712,
      "Ġcorre": 7713,
      "apse": 7714,
      "BD": 7715,
      "oster": 7716,
      "ĠObject": 7717,
      "Ġattached": 7718,
      "Ġappearance": 7719,
      "Ġcamera": 7720,
      "(\\[": 7721,
      "ello": 7722,
      "Ġsin": 7723,
      "Ġtechnical": 7724,
      "ipping": 7725,
      "Load": 7726,
      "Ġaccompl": 7727,
      "Ġ[[": 7728,
      "Solve": 7729,
      "Ġdisk": 7730,
      "Ġcompound": 7731,
      "Ġhole": 7732,
      "Ġmanaged": 7733,
      "Ġresidents": 7734,
      "Ġroute": 7735,
      "ĠProgram": 7736,
      "ERE": 7737,
      "ĠGive": 7738,
      "Ġdependent": 7739,
      "tyle": 7740,
      "Ġoffset": 7741,
      "Ne": 7742,
      "iral": 7743,
      "400": 7744,
      "Ġvitro": 7745,
      "Ġminute": 7746,
      "append": 7747,
      "ĠCle": 7748,
      "Ġmolecules": 7749,
      "widehat": 7750,
      "Ġenable": 7751,
      "Ġconcluded": 7752,
      "Ġdynamic": 7753,
      "Ġcoh": 7754,
      "tra": 7755,
      "\\]).": 7756,
      "orters": 7757,
      "Ġesc": 7758,
      "Ġapart": 7759,
      "Ġcommonly": 7760,
      "Ġamounts": 7761,
      "clear": 7762,
      "wing": 7763,
      "Ġpix": 7764,
      "\\[[@": 7765,
      "ĠSing": 7766,
      "TE": 7767,
      "Ġdefic": 7768,
      "Ġassigned": 7769,
      "option": 7770,
      "ĠMot": 7771,
      "match": 7772,
      "Ġconsideration": 7773,
      "Label": 7774,
      "BP": 7775,
      "Ġcommission": 7776,
      "media": 7777,
      "Ġprolif": 7778,
      "Ġphoto": 7779,
      "kins": 7780,
      "Dec": 7781,
      "*^": 7782,
      "ket": 7783,
      "Ġpursu": 7784,
      "Ġunderstood": 7785,
      "Default": 7786,
      "Ġarticles": 7787,
      "omial": 7788,
      "Handler": 7789,
      "Ġdynamics": 7790,
      "ĠTheir": 7791,
      "ĠPH": 7792,
      "FO": 7793,
      "Ġsought": 7794,
      "yer": 7795,
      "Ġrequirement": 7796,
      "effect": 7797,
      "Ġfacilit": 7798,
      "ĠJava": 7799,
      "herent": 7800,
      "ĠInstead": 7801,
      "LS": 7802,
      "aked": 7803,
      "ĠAnn": 7804,
      "Ġeffectively": 7805,
      "Ġaccurate": 7806,
      "uns": 7807,
      "{\"": 7808,
      "grade": 7809,
      "UI": 7810,
      "ĠPlan": 7811,
      "LC": 7812,
      "VA": 7813,
      "Ġship": 7814,
      "Ġgap": 7815,
      "control": 7816,
      "road": 7817,
      "Ġestimates": 7818,
      "irty": 7819,
      "Ġjurisdiction": 7820,
      "ĠPRO": 7821,
      "Ġsensitive": 7822,
      "Ġmicrosc": 7823,
      "adata": 7824,
      "scrib": 7825,
      "neg": 7826,
      "Ġspaces": 7827,
      "Ġtemplate": 7828,
      "adian": 7829,
      "Ġrender": 7830,
      "Ġconj": 7831,
      "Ġ52": 7832,
      "Ġfilled": 7833,
      "Ġstem": 7834,
      "ĠTor": 7835,
      "ĠAfrica": 7836,
      "linear": 7837,
      "uscript": 7838,
      "**,": 7839,
      "}}{\\": 7840,
      "Ġsplit": 7841,
      "fess": 7842,
      "Ġdecades": 7843,
      "eding": 7844,
      "Ġusual": 7845,
      "Ġmessages": 7846,
      "ijms": 7847,
      "ĠPhil": 7848,
      "Ġbath": 7849,
      "ĠThomas": 7850,
      "chron": 7851,
      "Ġbinary": 7852,
      "Ġ51": 7853,
      "Ġestate": 7854,
      "ĠAPI": 7855,
      "Ġoxygen": 7856,
      "Ġjustice": 7857,
      "Ġspending": 7858,
      "Your": 7859,
      "perties": 7860,
      "ĠPCR": 7861,
      "prote": 7862,
      "#:": 7863,
      "Ġseeking": 7864,
      "rapeutic": 7865,
      "Ġdisput": 7866,
      "life": 7867,
      "ĠScott": 7868,
      "Ġfluores": 7869,
      "ĠTimes": 7870,
      "åĪ": 7871,
      "tings": 7872,
      "Ġwww": 7873,
      "oral": 7874,
      "ola": 7875,
      "Ġadmitted": 7876,
      "Ġnom": 7877,
      "Ġnegot": 7878,
      "Ġsenior": 7879,
      "uster": 7880,
      "ĠBill": 7881,
      "ĠNor": 7882,
      "Ġfont": 7883,
      "IE": 7884,
      "ressive": 7885,
      "Ġfavorite": 7886,
      "ĠRiver": 7887,
      "ws": 7888,
      "ander": 7889,
      "ivered": 7890,
      "Please": 7891,
      "Ġcm": 7892,
      "Ġstrategies": 7893,
      "Ġpet": 7894,
      "ĠMag": 7895,
      "COM": 7896,
      "Ġsecure": 7897,
      "strong": 7898,
      "mo": 7899,
      "Ġsweet": 7900,
      "ĠEarth": 7901,
      "Ġobjective": 7902,
      "values": 7903,
      "Web": 7904,
      "ĠMad": 7905,
      "Ġconsumption": 7906,
      "istor": 7907,
      "++)": 7908,
      "Ġhoriz": 7909,
      "Ġsqrt": 7910,
      "obj": 7911,
      "agger": 7912,
      "Ġ72": 7913,
      "star": 7914,
      "ĠWill": 7915,
      "Ġabund": 7916,
      "ĠStand": 7917,
      "Ġbroken": 7918,
      "Ġassistance": 7919,
      "prop": 7920,
      "Ġcharacterized": 7921,
      "Ġsimpl": 7922,
      "anta": 7923,
      "mL": 7924,
      "Ġgender": 7925,
      "igr": 7926,
      "ĠPy": 7927,
      "high": 7928,
      "Det": 7929,
      "Ġplastic": 7930,
      "icken": 7931,
      "Ġintention": 7932,
      "Yeah": 7933,
      "]]": 7934,
      "ĠNE": 7935,
      "Ġsmallest": 7936,
      "Ġacadem": 7937,
      "bour": 7938,
      "ĠFore": 7939,
      "amber": 7940,
      "float": 7941,
      "Ġintra": 7942,
      "Ġpredicted": 7943,
      "Ġarrange": 7944,
      "^-": 7945,
      "Ġemission": 7946,
      "2008": 7947,
      "ĠIndeed": 7948,
      "OB": 7949,
      "private": 7950,
      "lik": 7951,
      "Ġtissues": 7952,
      "[\"": 7953,
      "ributions": 7954,
      "Â¸": 7955,
      "Äģ": 7956,
      "water": 7957,
      "ĠMil": 7958,
      "Ġped": 7959,
      "Ġorders": 7960,
      "Ġreb": 7961,
      "ĠProject": 7962,
      "fold": 7963,
      "Ġchair": 7964,
      "Ġhem": 7965,
      "ura": 7966,
      "Layout": 7967,
      "ami": 7968,
      "Ġcof": 7969,
      "ĠDen": 7970,
      "olecules": 7971,
      "Ġfan": 7972,
      "NU": 7973,
      "Ġneurons": 7974,
      "}/": 7975,
      "ĠSP": 7976,
      "Ġcart": 7977,
      "Ġ[]": 7978,
      "Ġprinciple": 7979,
      "Ġscientific": 7980,
      "ĠCarol": 7981,
      "Two": 7982,
      "Ġpages": 7983,
      "osa": 7984,
      "Ġexpensive": 7985,
      "Ġmarriage": 7986,
      "adow": 7987,
      "Ġalt": 7988,
      "Ġzone": 7989,
      "fit": 7990,
      "Control": 7991,
      "ala": 7992,
      "Ġrecommended": 7993,
      "Rel": 7994,
      "ĠMedical": 7995,
      "Ġphilos": 7996,
      "').": 7997,
      "Gl": 7998,
      "Ġsubset": 7999,
      "Ġsupports": 8000,
      "ogenic": 8001,
      "quot": 8002,
      "yg": 8003,
      "tab": 8004,
      "Ġfell": 8005,
      "Am": 8006,
      "Ġcustomer": 8007,
      "??": 8008,
      "Ġ54": 8009,
      "Ġcorner": 8010,
      "Ġparticle": 8011,
      "coin": 8012,
      "Ġpieces": 8013,
      "ani": 8014,
      "ĠMethod": 8015,
      "æľ": 8016,
      "TS": 8017,
      "system": 8018,
      "never": 8019,
      "Ġmanuscript": 8020,
      "ounter": 8021,
      "ĠMuslim": 8022,
      "ocy": 8023,
      "ĠLouis": 8024,
      "Ġperman": 8025,
      "2009": 8026,
      "Ġwatching": 8027,
      "ĠFranc": 8028,
      "ĠInformation": 8029,
      "tag": 8030,
      "Ġexceed": 8031,
      "Ġlarg": 8032,
      "Ġlaunch": 8033,
      "DC": 8034,
      "ĠSpec": 8035,
      "Ġdiscretion": 8036,
      "ĠRad": 8037,
      "eds": 8038,
      "Ġcausing": 8039,
      "rition": 8040,
      "etch": 8041,
      "ĠSil": 8042,
      "Ġsuccessfully": 8043,
      "Ġtelevision": 8044,
      "Ġmargin": 8045,
      "ĠIV": 8046,
      "show": 8047,
      "Ġchannels": 8048,
      "ĠFrank": 8049,
      "Ġcompre": 8050,
      "Ġtoler": 8051,
      "Ġ1999": 8052,
      "aren": 8053,
      "otted": 8054,
      "Ġtranscript": 8055,
      "Ġinfo": 8056,
      "wer": 8057,
      "split": 8058,
      "Ġbaseline": 8059,
      "FR": 8060,
      "Ġtargets": 8061,
      "ye": 8062,
      "ĠMa": 8063,
      "gener": 8064,
      "vant": 8065,
      "Ġsupra": 8066,
      "Ġreducing": 8067,
      "seud": 8068,
      "Tem": 8069,
      "Ġcrisis": 8070,
      "ĠHospital": 8071,
      "fa": 8072,
      "Ġsegment": 8073,
      "iki": 8074,
      "Ġamb": 8075,
      "fast": 8076,
      "Ġwarn": 8077,
      "ĠEU": 8078,
      "ena": 8079,
      "Ġlargely": 8080,
      "Ġbattle": 8081,
      "Ġunion": 8082,
      "Ġimpossible": 8083,
      "tw": 8084,
      "acent": 8085,
      "ĠpH": 8086,
      "Ġvit": 8087,
      "}},": 8088,
      "ĠArab": 8089,
      "Ġscr": 8090,
      "Ġinhibition": 8091,
      "SR": 8092,
      "Ġcomposite": 8093,
      "ĠCr": 8094,
      "ĠCap": 8095,
      "ollowing": 8096,
      "Ġautomatically": 8097,
      "\"\"": 8098,
      "Ġsitting": 8099,
      "creen": 8100,
      "Ġinstalled": 8101,
      "Ġinformed": 8102,
      "ĠMath": 8103,
      "exec": 8104,
      "Ġepit": 8105,
      "Ġsupplement": 8106,
      "Ġdiabetes": 8107,
      "Ġpromote": 8108,
      "Ġauthorities": 8109,
      "ĠHel": 8110,
      "Ġattend": 8111,
      "Ġresearchers": 8112,
      "Ġâī": 8113,
      "ĠWAR": 8114,
      "VE": 8115,
      "Ġvess": 8116,
      "oxy": 8117,
      "ĠQue": 8118,
      "inite": 8119,
      "Ġaccel": 8120,
      "css": 8121,
      "brid": 8122,
      "Ġasym": 8123,
      "Ġstructural": 8124,
      "Ġworry": 8125,
      "iability": 8126,
      "Ġsand": 8127,
      "ĠSoftware": 8128,
      "Ġexamination": 8129,
      "Ġmarried": 8130,
      "ĠGL": 8131,
      "Ġorganic": 8132,
      "Ġsector": 8133,
      "Ġsac": 8134,
      "ĠCentral": 8135,
      "Ġforget": 8136,
      "Ġcompact": 8137,
      "///": 8138,
      "olid": 8139,
      "Ġdisorder": 8140,
      "Ġtor": 8141,
      "Ġdomin": 8142,
      "ogenesis": 8143,
      "ĠStr": 8144,
      "Ġrepresentative": 8145,
      "ulating": 8146,
      "thm": 8147,
      "Ġknock": 8148,
      "imb": 8149,
      "ZE": 8150,
      "root": 8151,
      "ĠVol": 8152,
      "vin": 8153,
      "Ġstrains": 8154,
      "Next": 8155,
      "ĠBi": 8156,
      "ez": 8157,
      "UP": 8158,
      "OH": 8159,
      "plant": 8160,
      "Ġweekend": 8161,
      "Ġproportion": 8162,
      "Ġseat": 8163,
      "Ġputting": 8164,
      "Ġvisible": 8165,
      "ĠĠĠĠĠĠĠĠĠĠĠĠĠĠĠĠĠĠĠĠĠĠĠĠĠĠĠĠĠĠĠĠĠĠĠĠĠĠĠĠĠĠĠĠĠĠĠĠĠĠĠĠĠĠĠĠĠĠĠĠĠĠĠĠĠĠĠĠĠĠĠĠĠĠĠĠĠĠĠĠĠĠĠĠĠĠĠĠĠĠĠĠĠĠĠĠ": 8166,
      "google": 8167,
      "ĠEduc": 8168,
      "Ġjoined": 8169,
      "```": 8170,
      "Ġguard": 8171,
      "Ġfaster": 8172,
      "Ġsi": 8173,
      "Ġconcerning": 8174,
      "ĠLemma": 8175,
      "ĠBack": 8176,
      "oration": 8177,
      "Ġstret": 8178,
      "Ġveget": 8179,
      "Ġeditor": 8180,
      "Ġadm": 8181,
      "Ġreplaced": 8182,
      "fections": 8183,
      "Ġfacilities": 8184,
      "Ġobservation": 8185,
      "Ġdivers": 8186,
      "Ġfinish": 8187,
      "ĊĠĠĠĠĠĠĠĠĠĠĠĠĠĠ": 8188,
      "Ġbott": 8189,
      "Mr": 8190,
      "number": 8191,
      "ĠIts": 8192,
      "ĠAfrican": 8193,
      "Ġsolve": 8194,
      "ĠView": 8195,
      "dist": 8196,
      "Ġdebate": 8197,
      "oxid": 8198,
      "Ġdream": 8199,
      "Thanks": 8200,
      "ĠChicago": 8201,
      "mediate": 8202,
      "ĠGreat": 8203,
      "Ġherself": 8204,
      "Ġforg": 8205,
      "Ġalgebra": 8206,
      "GR": 8207,
      "La": 8208,
      "}|": 8209,
      "Ġreform": 8210,
      "Ã§": 8211,
      "Where": 8212,
      "Ġacting": 8213,
      "contin": 8214,
      "Ġsea": 8215,
      "ptic": 8216,
      "Ġ101": 8217,
      "Su": 8218,
      "Ġbehaviour": 8219,
      "Ġlayers": 8220,
      "Ġoverl": 8221,
      "Although": 8222,
      "Ġble": 8223,
      "ĠAnother": 8224,
      "Ġsugar": 8225,
      "Ġhomes": 8226,
      "&=": 8227,
      "Ġantibodies": 8228,
      "Ġassumed": 8229,
      "common": 8230,
      "Ġdangerous": 8231,
      "otten": 8232,
      "ĠClinton": 8233,
      "options": 8234,
      "Ġturns": 8235,
      "ĠProte": 8236,
      "Ġcandidates": 8237,
      "sign": 8238,
      "NAME": 8239,
      "loc": 8240,
      "Ġlie": 8241,
      "Ġinvolves": 8242,
      "Ġreson": 8243,
      "Another": 8244,
      "Ġmerely": 8245,
      "Ġmatters": 8246,
      "Ġapopt": 8247,
      "ICE": 8248,
      "Ġemergency": 8249,
      "lements": 8250,
      "150": 8251,
      "Ġpropag": 8252,
      "Ġurl": 8253,
      "Ġampl": 8254,
      "ĠLong": 8255,
      "kl": 8256,
      "arsh": 8257,
      "ĠSO": 8258,
      ")|": 8259,
      "ĠSecurity": 8260,
      "nut": 8261,
      "ĊĊĠĠ": 8262,
      "Ġdesc": 8263,
      "ora": 8264,
      "Ġjour": 8265,
      "Ġ1990": 8266,
      "Ġcontainer": 8267,
      "sche": 8268,
      "Ġsubt": 8269,
      "Ġdifferential": 8270,
      "Ġexperiences": 8271,
      "ĠFed": 8272,
      "Ġperspective": 8273,
      "Ġhundreds": 8274,
      "Instance": 8275,
      "Ġ2020": 8276,
      "Ġflag": 8277,
      "ĠHuman": 8278,
      "Ġ*)": 8279,
      "Ġluck": 8280,
      "Ġpassing": 8281,
      "Ġamazing": 8282,
      "Ġlowest": 8283,
      "Ġexplore": 8284,
      "Ġexecutive": 8285,
      "Ġpairs": 8286,
      "Ġdetermining": 8287,
      "Ġneglig": 8288,
      "GG": 8289,
      "Ġrepair": 8290,
      "eli": 8291,
      "ulture": 8292,
      "equiv": 8293,
      "Gu": 8294,
      "ameters": 8295,
      "ĠUs": 8296,
      "ĠEqu": 8297,
      "friend": 8298,
      "ĠSl": 8299,
      "Ġlived": 8300,
      "ĠHT": 8301,
      "Ġclosely": 8302,
      "aneously": 8303,
      "Ġbias": 8304,
      "Ġsimult": 8305,
      "MM": 8306,
      "\\*\\*": 8307,
      "ĠGal": 8308,
      "ĠÃł": 8309,
      "]);": 8310,
      "Ġproved": 8311,
      "ellar": 8312,
      "Ġdirectory": 8313,
      "ubuntu": 8314,
      "aped": 8315,
      "Ġaid": 8316,
      "lectric": 8317,
      "Ġwrt": 8318,
      "Ġouter": 8319,
      "Ġmenu": 8320,
      "ĠChild": 8321,
      "TD": 8322,
      "oder": 8323,
      "ivated": 8324,
      "ATA": 8325,
      "Ġposted": 8326,
      "Ġnative": 8327,
      "Ġregister": 8328,
      "omer": 8329,
      "Ġwalking": 8330,
      "Ġclar": 8331,
      "Ġpolitics": 8332,
      "ĠFour": 8333,
      "eness": 8334,
      "ampionship": 8335,
      "Ġconversation": 8336,
      "Ġgate": 8337,
      "rer": 8338,
      "Ġpump": 8339,
      "Ġliability": 8340,
      "Hz": 8341,
      "ĠMont": 8342,
      "ortion": 8343,
      "Right": 8344,
      "ĠSocial": 8345,
      "cers": 8346,
      "Ĥ¬": 8347,
      "Ġ---": 8348,
      "Ġtrees": 8349,
      "Ġmilk": 8350,
      "Ġargue": 8351,
      "Ġdelet": 8352,
      "Ġfamiliar": 8353,
      "plex": 8354,
      "Ġbio": 8355,
      "ĠStar": 8356,
      "Ġinstant": 8357,
      "hydro": 8358,
      "eger": 8359,
      "Ġprincipal": 8360,
      "DNA": 8361,
      "ĠOffic": 8362,
      "ĠWhere": 8363,
      "Ġfre": 8364,
      ".-": 8365,
      "Look": 8366,
      "icular": 8367,
      "Ġmonitoring": 8368,
      "Ġtelling": 8369,
      "Ġprimarily": 8370,
      ">,": 8371,
      "oked": 8372,
      "Ġinnov": 8373,
      "Ġprev": 8374,
      "ĠMer": 8375,
      "Ġsignificance": 8376,
      "igan": 8377,
      "project": 8378,
      "Ġblocks": 8379,
      "Ġembed": 8380,
      "Ġinitially": 8381,
      "Ġinequ": 8382,
      "aven": 8383,
      "Ġloved": 8384,
      "fonts": 8385,
      "Ġdepos": 8386,
      "URL": 8387,
      "Ġcities": 8388,
      "Ġvivo": 8389,
      "Ġoperators": 8390,
      "Hel": 8391,
      "Ġhonest": 8392,
      "Ġcorrespond": 8393,
      "pers": 8394,
      "008": 8395,
      "TER": 8396,
      "Ġphotos": 8397,
      "Ġpip": 8398,
      "Ġ53": 8399,
      "Ġlots": 8400,
      "description": 8401,
      "born": 8402,
      "icate": 8403,
      "00000": 8404,
      "Ġobser": 8405,
      "Ġdollars": 8406,
      "Ġhell": 8407,
      "Ġinjuries": 8408,
      "ĠYOU": 8409,
      "Ġshell": 8410,
      "Ġeating": 8411,
      "Ġvision": 8412,
      "Ġinstitution": 8413,
      "ayers": 8414,
      "Ġvul": 8415,
      "Ġrational": 8416,
      "Ġdelivered": 8417,
      "ums": 8418,
      "Ġimplemented": 8419,
      "Ġmaps": 8420,
      "Ġdisorders": 8421,
      "Ġwear": 8422,
      "ĠColor": 8423,
      "160": 8424,
      "Select": 8425,
      "documentclass": 8426,
      "Pat": 8427,
      "uh": 8428,
      "ords": 8429,
      "atrix": 8430,
      "Ġbusinesses": 8431,
      "Ġ\\{": 8432,
      "Ġbind": 8433,
      "ĠControl": 8434,
      "Ġcontributions": 8435,
      "Ġconsists": 8436,
      "Ġ99": 8437,
      "Ġinjection": 8438,
      "ci": 8439,
      "idential": 8440,
      "weet": 8441,
      "Ġassault": 8442,
      "uzz": 8443,
      "ophy": 8444,
      "theless": 8445,
      "minimal": 8446,
      "ented": 8447,
      "Ġsensor": 8448,
      "Ġaccordance": 8449,
      "avel": 8450,
      "andon": 8451,
      "then": 8452,
      "Ġsuspect": 8453,
      "BR": 8454,
      "ĠLife": 8455,
      "ĠJones": 8456,
      "Ġgrown": 8457,
      "Ġbigger": 8458,
      "Ġenhanced": 8459,
      "Ġ1998": 8460,
      "Ġoptimal": 8461,
      "ether": 8462,
      "Ġcloser": 8463,
      "Ġleadership": 8464,
      "Ġdress": 8465,
      "CU": 8466,
      "ĠÎ²": 8467,
      "Ġdepart": 8468,
      "Ġtom": 8469,
      "reek": 8470,
      "home": 8471,
      "Ġdefe": 8472,
      "Ġbodies": 8473,
      "Cell": 8474,
      "Other": 8475,
      "ĠHy": 8476,
      "CIT": 8477,
      "Ġlaser": 8478,
      "IND": 8479,
      "called": 8480,
      "ĠĠĠĠĠĠĠĠĠĠĠĠĠĠĠĠĠĠĠĠĠĠĠĠĠĠĠ": 8481,
      "reatment": 8482,
      "Ġcaught": 8483,
      "Ġterminal": 8484,
      "Ġaccounts": 8485,
      "Ġpig": 8486,
      "Ġorganizations": 8487,
      "odds": 8488,
      "rovers": 8489,
      "Ġgenome": 8490,
      "ĠAv": 8491,
      "Ġleague": 8492,
      "Ġmethyl": 8493,
      "Ġlocations": 8494,
      "jpg": 8495,
      "Ġextend": 8496,
      "Output": 8497,
      "Ġremark": 8498,
      "Ġconsequences": 8499,
      "Function": 8500,
      "ski": 8501,
      "Ġillegal": 8502,
      "sup": 8503,
      "Ġopportunities": 8504,
      "Ġsorry": 8505,
      "DP": 8506,
      "Ã£": 8507,
      "ĠRoy": 8508,
      "Ġminimal": 8509,
      "Ġelectrical": 8510,
      "yles": 8511,
      "Vis": 8512,
      "Max": 8513,
      "Ġrub": 8514,
      "buf": 8515,
      "ĠGO": 8516,
      "Ġfraud": 8517,
      "Ġcorrectly": 8518,
      "Ġfer": 8519,
      "urally": 8520,
      "Ġfigures": 8521,
      "pet": 8522,
      "avas": 8523,
      "Ġfold": 8524,
      "ĠPut": 8525,
      "Ġmaintenance": 8526,
      "Ġrig": 8527,
      "ĠMedic": 8528,
      "ĠMcC": 8529,
      "lines": 8530,
      "1000": 8531,
      "Ġintr": 8532,
      ")+": 8533,
      "Ġarrived": 8534,
      "Ġdenote": 8535,
      "Ġpp": 8536,
      "ĠFrancis": 8537,
      "Ġfacility": 8538,
      "Mode": 8539,
      "ĠĠĠĠĠĠĠĠĠĠĠĠĠĠĠĠĠĠĠĠĠĠĠĠĠ": 8540,
      "Ġthermal": 8541,
      "]$": 8542,
      "**(": 8543,
      "Ġclosest": 8544,
      "Ġthoughts": 8545,
      "ĠÃĳ": 8546,
      "ĠExt": 8547,
      "matrix": 8548,
      "Ġpathways": 8549,
      "Ġprevalence": 8550,
      "ruption": 8551,
      "racellular": 8552,
      "Ġenem": 8553,
      "Ġpil": 8554,
      "Ġhousehold": 8555,
      "template": 8556,
      "Ġinternet": 8557,
      "rics": 8558,
      "Ġdual": 8559,
      "Ġsyndrome": 8560,
      "agen": 8561,
      "2006": 8562,
      "irus": 8563,
      "Before": 8564,
      "ko": 8565,
      "Ġremoval": 8566,
      "fill": 8567,
      "Ġpin": 8568,
      "Buffer": 8569,
      "foot": 8570,
      "onym": 8571,
      "idents": 8572,
      "Ġtrouble": 8573,
      "Ġpointed": 8574,
      "Ġxml": 8575,
      "Ġdisplayed": 8576,
      "Format": 8577,
      "Ġsurrounding": 8578,
      "ĠAcc": 8579,
      "VD": 8580,
      "Ġmutations": 8581,
      "Ġfruit": 8582,
      "ÂĢ": 8583,
      "Const": 8584,
      "ĠName": 8585,
      "STR": 8586,
      "Ġabsolutely": 8587,
      "Ġpri": 8588,
      "ĠMax": 8589,
      "Ġcoc": 8590,
      "\\]),": 8591,
      "Ġpractical": 8592,
      "]^.": 8593,
      "ĠDemocratic": 8594,
      "Ġinstruction": 8595,
      "Ġupdated": 8596,
      "Ġcoron": 8597,
      "Ġprohib": 8598,
      "ĠRichard": 8599,
      "Ġcreation": 8600,
      "IES": 8601,
      "liament": 8602,
      "Ġapparently": 8603,
      "Cons": 8604,
      "Ġintegrated": 8605,
      "Ġscal": 8606,
      "Ġinstrument": 8607,
      "Ġcas": 8608,
      "Ġbacteria": 8609,
      "Ġflux": 8610,
      "***": 8611,
      "ĠNon": 8612,
      "ĠCup": 8613,
      "Ġmetast": 8614,
      "orption": 8615,
      "Ġclients": 8616,
      "Ġstages": 8617,
      "ĠSpring": 8618,
      "Ġtro": 8619,
      "Ġprofession": 8620,
      "vo": 8621,
      "ĠReview": 8622,
      "2007": 8623,
      "stack": 8624,
      "iations": 8625,
      "Ġ1997": 8626,
      "MENT": 8627,
      "Ġpreced": 8628,
      "Ġhelping": 8629,
      "scr": 8630,
      "achment": 8631,
      "2019": 8632,
      "Ġdepression": 8633,
      "align": 8634,
      "Ġuncertain": 8635,
      "Ġ400": 8636,
      "Ġspectra": 8637,
      "spring": 8638,
      "Ġmedian": 8639,
      "Phys": 8640,
      "Ġevening": 8641,
      "Ġemotional": 8642,
      "Ġcoupling": 8643,
      "Ġscreening": 8644,
      "Ġconviction": 8645,
      "phen": 8646,
      "ĠVirgin": 8647,
      "Ġsounds": 8648,
      "Ġimplied": 8649,
      "});": 8650,
      "Ġ1000": 8651,
      "Ġregression": 8652,
      "Ġtail": 8653,
      "erves": 8654,
      "ifts": 8655,
      "Ġadopted": 8656,
      "etal": 8657,
      "arge": 8658,
      "roups": 8659,
      "Ġsubmitted": 8660,
      "ĠSign": 8661,
      "Ġschedul": 8662,
      "Ġsports": 8663,
      "Ġkitchen": 8664,
      "ĠAppellant": 8665,
      "ochond": 8666,
      "sensors": 8667,
      "Ġneighborhood": 8668,
      "Ġ58": 8669,
      "txt": 8670,
      "Ġcommittee": 8671,
      "athered": 8672,
      "aph": 8673,
      "ĠWilliams": 8674,
      "Ġrid": 8675,
      "vider": 8676,
      "III": 8677,
      "BM": 8678,
      "Ġtopic": 8679,
      "endants": 8680,
      "Ġingred": 8681,
      "RANT": 8682,
      "Ġsong": 8683,
      "Ġ96": 8684,
      "ĠVis": 8685,
      "si": 8686,
      "çĶ": 8687,
      "chain": 8688,
      "Ġneck": 8689,
      "Ġbeam": 8690,
      "Arg": 8691,
      "Ġconstructed": 8692,
      "Ġ110": 8693,
      "Ġrail": 8694,
      "pert": 8695,
      "ĠPolice": 8696,
      "Ġargued": 8697,
      "Ġsynthesis": 8698,
      "Ġsurve": 8699,
      "pdf": 8700,
      "Ġamplit": 8701,
      "Ġdescribes": 8702,
      "rb": 8703,
      "Ġpictures": 8704,
      "Ġclassical": 8705,
      "ä½": 8706,
      "Ġdogs": 8707,
      "Ġgast": 8708,
      "Ġmine": 8709,
      "Oper": 8710,
      "=\"#": 8711,
      "Ġprovisions": 8712,
      "čĊĉĉ": 8713,
      "Ġamino": 8714,
      "Ġmanage": 8715,
      "Ġsolar": 8716,
      "Ġrecover": 8717,
      "Ġ\"(": 8718,
      "riter": 8719,
      "250": 8720,
      "Ġepisode": 8721,
      "Ġtheoret": 8722,
      "Ġcollabor": 8723,
      "ĠMult": 8724,
      "ĠRT": 8725,
      "Ġcharacteristic": 8726,
      "Ġcounts": 8727,
      "ĠRead": 8728,
      "ARE": 8729,
      "Ġessentially": 8730,
      "Ġsheet": 8731,
      "=\"../../": 8732,
      "LR": 8733,
      "Ġlig": 8734,
      "ĠBas": 8735,
      "Ġasc": 8736,
      "Ġ57": 8737,
      "Ġkick": 8738,
      "Min": 8739,
      "Ġcopyright": 8740,
      "ĠÃĹÂ": 8741,
      "Ġske": 8742,
      "Ġmeat": 8743,
      "ĠCall": 8744,
      "Factory": 8745,
      "Ġsuc": 8746,
      "ÐµÐ": 8747,
      "ĠCommon": 8748,
      "mosp": 8749,
      "mi": 8750,
      "}{-": 8751,
      "Ġ\\>": 8752,
      "}^\\": 8753,
      "Ġtasks": 8754,
      "Ġtotally": 8755,
      "PCR": 8756,
      "Ġje": 8757,
      "WH": 8758,
      "riers": 8759,
      "Ġexplanation": 8760,
      "-(": 8761,
      "Ġmarkets": 8762,
      "Ġremote": 8763,
      "125": 8764,
      "Ġcategories": 8765,
      "center": 8766,
      "Ġspatial": 8767,
      "ORE": 8768,
      "Ġadvoc": 8769,
      "Command": 8770,
      "sur": 8771,
      "ĠOS": 8772,
      "Ġtaxes": 8773,
      "Ġfeedback": 8774,
      "isting": 8775,
      "Ġtit": 8776,
      "\\\"": 8777,
      "Ġguidelines": 8778,
      "ĠĠĠĠĠĠĠĠĠĠĠĠĠĠĠĠĠĠĠĠĠĠĠĠĠĠ": 8779,
      "ĠInterest": 8780,
      "ĠDC": 8781,
      "ensus": 8782,
      "setlength": 8783,
      "inet": 8784,
      "Ġbund": 8785,
      "Ġhypothesis": 8786,
      "Ġspeaking": 8787,
      "Ġpit": 8788,
      "Ġmaintained": 8789,
      "mes": 8790,
      "Builder": 8791,
      "enter": 8792,
      "Ġdesire": 8793,
      "ĠCamp": 8794,
      "eper": 8795,
      "Ġapproval": 8796,
      "Ġchapter": 8797,
      "ĠÃ©": 8798,
      "Ġ1996": 8799,
      "ACE": 8800,
      "anol": 8801,
      "Ġdeclared": 8802,
      "Ġregime": 8803,
      "Ġfashion": 8804,
      "Ġrecording": 8805,
      "Ġsoil": 8806,
      "atural": 8807,
      "ailability": 8808,
      "Ġlisten": 8809,
      "Ġconscious": 8810,
      "Ġma": 8811,
      "Ġwealth": 8812,
      "Ġultimately": 8813,
      "Ġ\"\"\"": 8814,
      "ysym": 8815,
      "Ġ85": 8816,
      "}\\,": 8817,
      "Ġcov": 8818,
      "ĠNav": 8819,
      "ĠFire": 8820,
      "Ġfabric": 8821,
      "isters": 8822,
      "ione": 8823,
      "ĠServices": 8824,
      "ĠCorp": 8825,
      "Ġimmediate": 8826,
      "={": 8827,
      "È±": 8828,
      "DM": 8829,
      "Ġoffering": 8830,
      "Ġlen": 8831,
      "ĠWal": 8832,
      "ĠChief": 8833,
      "amsmath": 8834,
      "ĠWall": 8835,
      "ussion": 8836,
      "ao": 8837,
      "gence": 8838,
      "Ġ59": 8839,
      "header": 8840,
      "greek": 8841,
      "||": 8842,
      "iatric": 8843,
      "ĠHaw": 8844,
      "Ġtells": 8845,
      "Ġdram": 8846,
      "rolled": 8847,
      ".âĢĻ": 8848,
      "bool": 8849,
      "ĠBE": 8850,
      "Ġeigen": 8851,
      "ĠCare": 8852,
      "Link": 8853,
      "sn": 8854,
      "Ġfellow": 8855,
      "avascript": 8856,
      "Ġquiet": 8857,
      "Ġraw": 8858,
      "Ġreporting": 8859,
      "Ġpreparation": 8860,
      "Ġidentical": 8861,
      "Ġtreatments": 8862,
      "ĠHome": 8863,
      "obe": 8864,
      "Sm": 8865,
      "Ġassign": 8866,
      "Ġtherapeutic": 8867,
      "Ġconsole": 8868,
      "Ġkne": 8869,
      "unte": 8870,
      "010": 8871,
      "ssymb": 8872,
      "Options": 8873,
      "Every": 8874,
      "service": 8875,
      "ĠSk": 8876,
      "ĠVer": 8877,
      "å®": 8878,
      "rh": 8879,
      "amssymb": 8880,
      "MB": 8881,
      "Ġclassification": 8882,
      "Ġiniti": 8883,
      "eller": 8884,
      "Resource": 8885,
      "Ġdiffer": 8886,
      "idity": 8887,
      "Ġking": 8888,
      "flu": 8889,
      "bsy": 8890,
      "Ġrealize": 8891,
      "ĠDevelopment": 8892,
      "################": 8893,
      "][@": 8894,
      "erman": 8895,
      "Ġtransformation": 8896,
      "ĠIR": 8897,
      "ĠJose": 8898,
      "amsfonts": 8899,
      "Ġneutral": 8900,
      "Ġmodify": 8901,
      "Ġregulations": 8902,
      "Ġrecognition": 8903,
      "Ġcoffee": 8904,
      "Open": 8905,
      "orts": 8906,
      "bel": 8907,
      "Ġexamine": 8908,
      "Ġmic": 8909,
      "Ġencoding": 8910,
      "mann": 8911,
      "Ġserving": 8912,
      "Ġrespective": 8913,
      "rsfs": 8914,
      "Ġod": 8915,
      "Ġcurves": 8916,
      "Ġobviously": 8917,
      "Results": 8918,
      "mathrsfs": 8919,
      "Ġrequested": 8920,
      "ĠHen": 8921,
      "amsbsy": 8922,
      "Ġprinciples": 8923,
      "upgreek": 8924,
      "iser": 8925,
      "LD": 8926,
      "idemargin": 8927,
      "Ġcomprehens": 8928,
      "uable": 8929,
      "aded": 8930,
      "2005": 8931,
      "Style": 8932,
      "Ġspoke": 8933,
      "oddsidemargin": 8934,
      "ĠCheck": 8935,
      "wasysym": 8936,
      "Ġsurgical": 8937,
      "Ġincidence": 8938,
      "Ġpurs": 8939,
      "Ġ$(\\": 8940,
      "ĠHE": 8941,
      "ductor": 8942,
      "Ġdiscovery": 8943,
      "Ġfinds": 8944,
      "Ġbars": 8945,
      "Block": 8946,
      "Ġsituations": 8947,
      "Ke": 8948,
      "ttp": 8949,
      "Init": 8950,
      "Length": 8951,
      "close": 8952,
      "Listener": 8953,
      "Ġillness": 8954,
      "ĠMicrosoft": 8955,
      "Component": 8956,
      "graph": 8957,
      "qquad": 8958,
      "Ġtumors": 8959,
      "Ġhal": 8960,
      "ĠLi": 8961,
      "Ġcarcin": 8962,
      "vector": 8963,
      "(*": 8964,
      "Ġtaste": 8965,
      "^,": 8966,
      "iana": 8967,
      "LECT": 8968,
      "ĠDO": 8969,
      "dx": 8970,
      "ĠIsland": 8971,
      "Ġprompt": 8972,
      "odium": 8973,
      "ĠSecretary": 8974,
      "Attribute": 8975,
      "Because": 8976,
      "åĲ": 8977,
      "Ġplain": 8978,
      "Ġworst": 8979,
      "&&": 8980,
      "asive": 8981,
      "Ġposts": 8982,
      "Ġcontem": 8983,
      "tx": 8984,
      "SO": 8985,
      "ĠAdditionally": 8986,
      "ĠBit": 8987,
      "Ġlies": 8988,
      "cb": 8989,
      "Ġrotation": 8990,
      "iner": 8991,
      "Ã£o": 8992,
      "Ġcontrovers": 8993,
      "Ġshooting": 8994,
      "ĠApple": 8995,
      "ffered": 8996,
      "ĠText": 8997,
      ":(": 8998,
      "Ġcrucial": 8999,
      "ĠCath": 9000,
      "otypes": 9001,
      "omatic": 9002,
      "ĠÎ±": 9003,
      "Ġaggreg": 9004,
      "Ġyouth": 9005,
      "empty": 9006,
      "ĠLib": 9007,
      "Ġclimate": 9008,
      "Ġsick": 9009,
      "Ġcompliance": 9010,
      "terday": 9011,
      "bered": 9012,
      "Ġbought": 9013,
      "ĠDemocrats": 9014,
      "Ġhelpful": 9015,
      "Ġalloc": 9016,
      "Ġment": 9017,
      "Ġven": 9018,
      "Find": 9019,
      "auge": 9020,
      "Ġcognitive": 9021,
      "thlet": 9022,
      "Ġassets": 9023,
      "Ġpulled": 9024,
      "teen": 9025,
      "Ġnurs": 9026,
      "Ġloan": 9027,
      "second": 9028,
      "2001": 9029,
      "äº": 9030,
      "icide": 9031,
      "Ġok": 9032,
      "attice": 9033,
      "neq": 9034,
      "ĠLabor": 9035,
      "Ġsomewhat": 9036,
      "Ġrequests": 9037,
      "Ġtransaction": 9038,
      "Ġthr": 9039,
      "Update": 9040,
      "DD": 9041,
      "ĠTim": 9042,
      "Ġplanet": 9043,
      "Ġarrested": 9044,
      "Ġalign": 9045,
      "mode": 9046,
      "cribed": 9047,
      "Ġcontents": 9048,
      "xiety": 9049,
      ">&": 9050,
      "ĠPeter": 9051,
      "Ġsustain": 9052,
      "Ġenforcement": 9053,
      "Ġmask": 9054,
      "Ġhurt": 9055,
      "FE": 9056,
      "nergy": 9057,
      "Ġruling": 9058,
      "256": 9059,
      "Current": 9060,
      "Supplementary": 9061,
      "Ġdrawn": 9062,
      "ĠFil": 9063,
      "ĠMur": 9064,
      "ĠSociety": 9065,
      "Ġ66": 9066,
      "Token": 9067,
      "Ġteaching": 9068,
      "Ġhero": 9069,
      "âĢĺ": 9070,
      "ĠPo": 9071,
      "Ġpreferred": 9072,
      "Ġglucose": 9073,
      "Eng": 9074,
      "Ġ],": 9075,
      "spe": 9076,
      "åħ": 9077,
      "Ġpossession": 9078,
      "card": 9079,
      "Ġmail": 9080,
      "prot": 9081,
      "utory": 9082,
      "Ġhate": 9083,
      "rium": 9084,
      "udd": 9085,
      "Ġhidden": 9086,
      "Ġ\\*": 9087,
      "Ġinfected": 9088,
      "ben": 9089,
      "Ġpresum": 9090,
      "Ġtube": 9091,
      "Ident": 9092,
      "Ġfurn": 9093,
      "ĠPower": 9094,
      "ĠLu": 9095,
      "Ġmanip": 9096,
      "Ġdeaths": 9097,
      "Ġbiom": 9098,
      "ĠDev": 9099,
      "Spec": 9100,
      "Ġdriven": 9101,
      "ishment": 9102,
      "Work": 9103,
      "mult": 9104,
      "ĠDirector": 9105,
      "ĠFund": 9106,
      "allow": 9107,
      "Ġlogic": 9108,
      "\\^": 9109,
      "estion": 9110,
      "ĠZe": 9111,
      "ĠAdminist": 9112,
      "Ġenzyme": 9113,
      "Ġfighting": 9114,
      "Ġrend": 9115,
      "ĠThose": 9116,
      "Ġapplying": 9117,
      "Ġpicking": 9118,
      "Gener": 9119,
      "Ġnormally": 9120,
      "Ġintelligence": 9121,
      "%),": 9122,
      "Ġrect": 9123,
      "Ġvoters": 9124,
      "bottom": 9125,
      "ĠJournal": 9126,
      "Ġnm": 9127,
      "Ġcentre": 9128,
      "azine": 9129,
      "push": 9130,
      "ĠRoad": 9131,
      "Ġpowers": 9132,
      "everal": 9133,
      "Ġnoticed": 9134,
      "}^{(": 9135,
      "Ġweapons": 9136,
      "ariable": 9137,
      "Dev": 9138,
      "click": 9139,
      "buffer": 9140,
      "GET": 9141,
      ")))": 9142,
      "Ġcarrying": 9143,
      "Ġrealized": 9144,
      "ĠTem": 9145,
      "Ġcounty": 9146,
      "attr": 9147,
      "Ġdivision": 9148,
      "ĠSpe": 9149,
      "icing": 9150,
      "rolog": 9151,
      "ĠArch": 9152,
      "Ġpermission": 9153,
      "Ġgrade": 9154,
      "Ġroles": 9155,
      "Ġassumption": 9156,
      "update": 9157,
      "ĠCorpor": 9158,
      "har": 9159,
      "ĠIg": 9160,
      "bling": 9161,
      "Ġmechanical": 9162,
      "Ġvertical": 9163,
      "Ġcontroller": 9164,
      "Ġincred": 9165,
      "Ġspectral": 9166,
      "Ġgrid": 9167,
      "Ġproliferation": 9168,
      "Ġpor": 9169,
      "quare": 9170,
      "Ġ&\\": 9171,
      "Ġfiber": 9172,
      "ĠMel": 9173,
      "akistan": 9174,
      "Ġreads": 9175,
      "}+\\": 9176,
      "Ñı": 9177,
      "WS": 9178,
      "ĠLee": 9179,
      "han": 9180,
      "Ġourselves": 9181,
      "esides": 9182,
      "inition": 9183,
      "Ġcultural": 9184,
      "Ġperipher": 9185,
      "ĠReturn": 9186,
      "isor": 9187,
      "filter": 9188,
      "None": 9189,
      "Ġoccasion": 9190,
      "Ġregistered": 9191,
      "molecules": 9192,
      "Row": 9193,
      "Ġacids": 9194,
      "Ġ62": 9195,
      "ĠModel": 9196,
      "scill": 9197,
      "Ġsubstantially": 9198,
      "ĠDonald": 9199,
      "response": 9200,
      "Ġattempts": 9201,
      "DI": 9202,
      "Ġinfections": 9203,
      "ATH": 9204,
      "ĠEducation": 9205,
      "ĠPT": 9206,
      "Ġtrigger": 9207,
      "oids": 9208,
      "Tex": 9209,
      "Ġhappening": 9210,
      "sen": 9211,
      "Ġgro": 9212,
      "Met": 9213,
      "Tab": 9214,
      "emia": 9215,
      "Ġtip": 9216,
      "ĠNov": 9217,
      "ĠValue": 9218,
      "outs": 9219,
      "GT": 9220,
      "Ġorth": 9221,
      "NOT": 9222,
      "ja": 9223,
      "ermine": 9224,
      "Ġaccused": 9225,
      "ĠHamilton": 9226,
      "Ġmillions": 9227,
      "Ġexcited": 9228,
      "ĠWho": 9229,
      "OST": 9230,
      "Ġimagine": 9231,
      "power": 9232,
      "ĠThanks": 9233,
      "Ġseparated": 9234,
      "ching": 9235,
      "Child": 9236,
      "Ġcalc": 9237,
      "direct": 9238,
      "âĢĭ": 9239,
      "Ġdisag": 9240,
      "Ġatmosp": 9241,
      "fortunately": 9242,
      "ĠBet": 9243,
      "Ġexperts": 9244,
      "ULT": 9245,
      "Ġconversion": 9246,
      "2004": 9247,
      "NC": 9248,
      "Ġdiameter": 9249,
      "ĠMount": 9250,
      "Ġà¤": 9251,
      "Ġpatent": 9252,
      "Ġpaying": 9253,
      "]\\": 9254,
      "Ġdropped": 9255,
      "Ġpermit": 9256,
      "ĠWilliam": 9257,
      "Ġuniversity": 9258,
      "Ġembod": 9259,
      "Ġcorrelated": 9260,
      "Ġmedicine": 9261,
      "ĠDate": 9262,
      "types": 9263,
      "kt": 9264,
      "obby": 9265,
      "Ġweather": 9266,
      "Ġfo": 9267,
      "People": 9268,
      "Â¼": 9269,
      "Ġblow": 9270,
      "ĠMs": 9271,
      "Ġchart": 9272,
      "inical": 9273,
      "ĠNever": 9274,
      "Ġopposition": 9275,
      "Ġconsumer": 9276,
      "Ġmetric": 9277,
      "Ġplanned": 9278,
      "ĠAttorney": 9279,
      "Who": 9280,
      "Ġlegislation": 9281,
      "Ġradius": 9282,
      "Ġ63": 9283,
      "ĠWARRANT": 9284,
      "Mem": 9285,
      "hr": 9286,
      "Ġsuperior": 9287,
      "Width": 9288,
      "Equal": 9289,
      "rif": 9290,
      "ĠKorea": 9291,
      "Ġboolean": 9292,
      "Ġsister": 9293,
      "Ġinstitutions": 9294,
      "Ġvide": 9295,
      "Ġmir": 9296,
      "IGHT": 9297,
      "HC": 9298,
      "Configuration": 9299,
      "Ġtrac": 9300,
      "Ġ>=": 9301,
      "ÑĮ": 9302,
      "VAL": 9303,
      "Ġpurchased": 9304,
      "blog": 9305,
      "element": 9306,
      "Ġnic": 9307,
      "some": 9308,
      "Ġsizes": 9309,
      "Ġknowing": 9310,
      "Ġfle": 9311,
      "Ġhall": 9312,
      "Ġsimulation": 9313,
      "Ġconstitutional": 9314,
      "Ġreactions": 9315,
      "Ġfee": 9316,
      "Ġdocumentation": 9317,
      "Ġcars": 9318,
      "Ġfeels": 9319,
      "Ġcrystal": 9320,
      "AK": 9321,
      "tml": 9322,
      "Ġfant": 9323,
      "notation": 9324,
      "kes": 9325,
      "Ġshel": 9326,
      "Ġconc": 9327,
      "ĠWood": 9328,
      "essions": 9329,
      "---------": 9330,
      "gi": 9331,
      "ĠDu": 9332,
      "./": 9333,
      "Pa": 9334,
      "Ġintroduce": 9335,
      "oston": 9336,
      "ĠMartin": 9337,
      "ĠAff": 9338,
      "Ġreliable": 9339,
      "ĠIr": 9340,
      "Ġdegrad": 9341,
      "Ġalpha": 9342,
      "Ġ68": 9343,
      "ynomial": 9344,
      "Ġincreasingly": 9345,
      "Ġsharing": 9346,
      "Ġpromise": 9347,
      "Ġrein": 9348,
      "ventions": 9349,
      "è¿": 9350,
      "Ġviral": 9351,
      "Ġowned": 9352,
      "Ġokay": 9353,
      "mathsf": 9354,
      "ĠmM": 9355,
      "Ġtransferred": 9356,
      "unched": 9357,
      "erred": 9358,
      "Ġkinds": 9359,
      "BB": 9360,
      "Ġdomestic": 9361,
      "Ġreligion": 9362,
      "haust": 9363,
      "uting": 9364,
      "endar": 9365,
      "Direct": 9366,
      "Ġcomplicated": 9367,
      "river": 9368,
      "Ġentity": 9369,
      "Dep": 9370,
      "Ġcab": 9371,
      "Ġsubstance": 9372,
      "Ġanswers": 9373,
      "ĠGNU": 9374,
      "there": 9375,
      "Str": 9376,
      "=(": 9377,
      "Ġvictims": 9378,
      "Ġrapidly": 9379,
      "zy": 9380,
      "Ġrecognize": 9381,
      "Ġoriginally": 9382,
      "ĠDivision": 9383,
      "Ġforming": 9384,
      "aks": 9385,
      "ester": 9386,
      "ĠTre": 9387,
      "orne": 9388,
      ")*(-": 9389,
      "Ġsetup": 9390,
      "Ġwine": 9391,
      "}}^{": 9392,
      "Ġradical": 9393,
      "Ġslowly": 9394,
      "approx": 9395,
      "Ġ--------------------------------": 9396,
      "ĠFind": 9397,
      "Ġbrowser": 9398,
      "Ġcorporate": 9399,
      "files": 9400,
      "{-": 9401,
      "Ġmes": 9402,
      "rible": 9403,
      "Ġextensive": 9404,
      "ĠAri": 9405,
      "Ġacquired": 9406,
      "255": 9407,
      "Also": 9408,
      "Ġanyway": 9409,
      "aration": 9410,
      "ĠMexico": 9411,
      "ĠKey": 9412,
      "iginal": 9413,
      "agraph": 9414,
      "Ġclock": 9415,
[...]
